{
  "version": "1.0",
  "truncation": null,
  "padding": null,
  "added_tokens": [],
  "normalizer": null,
  "pre_tokenizer": {
    "type": "ByteLevel",
    "add_prefix_space": false,
    "trim_offsets": true,
    "use_regex": true
  },
  "post_processor": {
    "type": "ByteLevel",
    "add_prefix_space": true,
    "trim_offsets": false,
    "use_regex": true
  },
  "decoder": {
    "type": "ByteLevel",
    "add_prefix_space": true,
    "trim_offsets": true,
    "use_regex": true
  },
  "model": {
    "type": "BPE",
    "dropout": null,
    "unk_token": null,
    "continuing_subword_prefix": null,
    "end_of_word_suffix": null,
    "fuse_unk": false,
    "byte_fallback": false,
    "ignore_merges": false,
    "vocab": {
      "\u0000": 0,
      "\u0001": 1,
      "\u0002": 2,
      "\u0003": 3,
      "\u0004": 4,
      "\u0005": 5,
      "\u0006": 6,
      "\u0007": 7,
      "\b": 8,
      "\t": 9,
      "\n": 10,
      "\u000b": 11,
      "\f": 12,
      "\r": 13,
      "\u000e": 14,
      "\u000f": 15,
      "\u0010": 16,
      "\u0011": 17,
      "\u0012": 18,
      "\u0013": 19,
      "\u0014": 20,
      "\u0015": 21,
      "\u0016": 22,
      "\u0017": 23,
      "\u0018": 24,
      "\u0019": 25,
      "\u001a": 26,
      "\u001b": 27,
      "\u001c": 28,
      "\u001d": 29,
      "\u001e": 30,
      "\u001f": 31,
      " ": 32,
      "!": 33,
      "\"": 34,
      "#": 35,
      "$": 36,
      "%": 37,
      "&": 38,
      "'": 39,
      "(": 40,
      ")": 41,
      "*": 42,
      "+": 43,
      ",": 44,
      "-": 45,
      ".": 46,
      "/": 47,
      "0": 48,
      "1": 49,
      "2": 50,
      "Ā": 51,
      "ā": 52,
      "Ă": 53,
      "ă": 54,
      "Ą": 55,
      "ą": 56,
      "Ć": 57,
      "ć": 58,
      "Ĉ": 59,
      "ĉ": 60,
      "Ċ": 61,
      "ċ": 62,
      "Č": 63,
      "č": 64,
      "Ď": 65,
      "ď": 66,
      "Đ": 67,
      "đ": 68,
      "Ē": 69,
      "ē": 70,
      "Ĕ": 71,
      "ĕ": 72,
      "Ė": 73,
      "ė": 74,
      "Ę": 75,
      "ę": 76,
      "Ě": 77,
      "ě": 78,
      "Ĝ": 79,
      "ĝ": 80,
      "Ğ": 81,
      "ğ": 82,
      "Ġ": 83,
      "ęę": 84,
      "ęęęę": 85,
      "ęĚ": 86,
      "ęĘ": 87,
      "ęęĘ": 88,
      "ęęĚ": 89,
      "ĀĀ": 90,
      "ęě": 91,
      "ęė": 92,
      "ęęęęęęęę": 93,
      "ęęė": 94,
      "ęęě": 95,
      "Ęęęęę": 96,
      "Ěęęęę": 97,
      "ęęęĘ": 98,
      "ęęęĚ": 99,
      "ęĜ": 100,
      "ęĖ": 101,
      "ęęĖ": 102,
      "ęęĜ": 103,
      "ęĚęęęę": 104,
      "ęĘęęęę": 105,
      "ęĝ": 106,
      "ęĕ": 107,
      "ĘęęĚ": 108,
      "ĚęęĘ": 109,
      "ĘęęĘ": 110,
      "ęĚĚ": 111,
      "ęęęęĘ": 112,
      "ĚęęĚ": 113,
      "ęĘĘ": 114,
      "ęęęęĚ": 115,
      "ęĚĘ": 116,
      "ęĘĚ": 117,
      "ęęĕ": 118,
      "ęęĝ": 119,
      "ęęęė": 120,
      "ęęęě": 121,
      "ęęę": 122,
      "ėęęęę": 123,
      "ěęęęę": 124,
      "ęęęęęęęęęęęę": 125,
      "ęĞ": 126,
      "ęęĚęęęę": 127,
      "ęęĘęęęę": 128,
      "ėęęĚ": 129,
      "ĀĚ": 130,
      "ęęĔ": 131,
      "ĀĘ": 132,
      "ěęęĘ": 133,
      "ęĔ": 134,
      "ęęĞ": 135,
      "ĀĀĘ": 136,
      "ĀĀę": 137,
      "ėęęĘ": 138,
      "ęĚě": 139,
      "Ęęęě": 140,
      "Ěęęė": 141,
      "Āě": 142,
      "Āė": 143,
      "ěęęĚ": 144,
      "ęěĚ": 145,
      "ęĘė": 146,
      "Ęęęė": 147,
      "ęĚė": 148,
      "ĀĀĚ": 149,
      "ęěĘ": 150,
      "ĀĀė": 151,
      "ęĘě": 152,
      "ęėĘ": 153,
      "Ěęęě": 154,
      "ęėĚ": 155,
      "ĀĖ": 156,
      "ęęęęęęęęęęęęęęęę": 157,
      "ęğ": 158,
      "ęęęĜ": 159,
      "ĀĜ": 160,
      "ęęē": 161,
      "ĀĀě": 162,
      "ęęęĖ": 163,
      "ĀĀĖ": 164,
      "ęęğ": 165,
      "ęęęĘęęęę": 166,
      "ęē": 167,
      "ęėė": 168,
      "ěęęė": 169,
      "ĘęęęęĘ": 170,
      "ęęęĚęęęę": 171,
      "ĖęęĚ": 172,
      "Āĕ": 173,
      "ėęęě": 174,
      "ęěě": 175,
      "ęęĘę": 176,
      "ęěęęęę": 177,
      "Ėęęęę": 178,
      "Āĝ": 179,
      "ĘęęęęĚ": 180,
      "Ĝęęęę": 181,
      "ĚęęęęĚ": 182,
      "ęėęęęę": 183,
      "ęĘęęĚ": 184,
      "ĚęęęęĘ": 185,
      "ĀĀĜ": 186,
      "ęęęĚę": 187,
      "ęěė": 188,
      "ĜęęĘ": 189,
      "ĖęęĘ": 190,
      "ęęęĘę": 191,
      "ěęęě": 192,
      "ĜęęĚ": 193,
      "ęĚęęĚ": 194,
      "ėęęė": 195,
      "ěĚ": 196,
      "ĀĀĕ": 197,
      "ęĚęęĘ": 198,
      "ęĚĚęęęę": 199,
      "ĘęęĜ": 200,
      "ęėě": 201,
      "ęĘĘęęęę": 202,
      "ęĚĜ": 203,
      "ĀĔ": 204,
      "ĀĀĝ": 205,
      "ęęĒ": 206,
      "ėĚ": 207,
      "ęĚęęęęĘ": 208,
      "ęĘęęĘ": 209,
      "ėĘ": 210,
      "ęĘęęęęĚ": 211,
      "ĀĞ": 212,
      "ęĘĖ": 213,
      "ęĜĚ": 214,
      "ęĘĜ": 215,
      "ęĖĘ": 216,
      "ęĖĚ": 217,
      "ęĜĘ": 218,
      "ęĘęęęęĘ": 219,
      "ĀĀĔ": 220,
      "ęĚĖ": 221,
      "ęĚęęęęĚ": 222,
      "ęęęęęęęęęęę": 223,
      "ęęĚęęęĚ": 224,
      "ęĚĘęęęę": 225,
      "ěĘ": 226,
      "ĘęęĖ": 227,
      "ĚęęĖ": 228,
      "ęĘĚęęęę": 229,
      "ęęĘęęęĘ": 230,
      "ęĒ": 231,
      "ęęęĕ": 232,
      "ĀĀĞ": 233,
      "ęěĜ": 234,
      "Ėęęě": 235,
      "ęęĚę": 236,
      "ĚęęĜ": 237,
      "ěě": 238,
      "Āē": 239,
      "ęęęĝ": 240,
      "ęėĖ": 241,
      "Ĝęęė": 242,
      "ęęęęĘĘ": 243,
      "ėęęĜ": 244,
      "ėě": 245,
      "ęĜě": 246,
      "ęęęęĘĚ": 247,
      "ęę!": 248,
      "ĀĀğ": 249,
      "ęĖė": 250,
      "ĕęęęę": 251,
      "Āğ": 252,
      "ęęęęĚĚ": 253,
      "ĀĀē": 254,
      "ęěĖ": 255,
      "ęėĜ": 256,
      "ĕęęĘ": 257,
      "ėė": 258,
      "ęęđ": 259,
      "ęęęęĚĘ": 260,
      "Ĝęęě": 261,
      "Ėęęė": 262,
      "ěęęĖ": 263,
      "ęęęĘęęĚ": 264,
      "ĜĚ": 265,
      "ĕęęĚ": 266,
      "ĝęęęę": 267,
      "ėęęĖ": 268,
      "ęęęĚęęĚ": 269,
      "ęĖě": 270,
      "ĝęęĘ": 271,
      "ęĜė": 272,
      "ĖĚ": 273,
      "ęęęĘęęĘ": 274,
      "ĀĀĒ": 275,
      "ĖĘ": 276,
      "ęęęĚęęĘ": 277,
      "Ĝě": 278,
      "ę!": 279,
      "ĀĒ": 280,
      "ĜĘ": 281,
      "ęđ": 282,
      "ĝęęĚ": 283,
      "ęĜĜ": 284,
      "ęĘęĚęęęę": 285,
      "ĚęęĘę": 286,
      "ęĖęęęę": 287,
      "ęĚĝ": 288,
      "ĘęęĚę": 289,
      "ĀĀĘĀ": 290,
      "ęĘĕ": 291,
      "ęĕĚ": 292,
      "ěęęĜ": 293,
      "ĀĀęĀ": 294,
      "ĀĀ!": 295,
      "ęĚęĘęęęę": 296,
      "ęĜęęęę": 297,
      "ęěęęĘ": 298,
      "ęĝĚ": 299,
      "ęĚęęęęęę": 300,
      "ĀĀđ": 301,
      "ĘĚ": 302,
      "ĕĚ": 303,
      "ęę\"": 304,
      "ěė": 305,
      "ęęěęęęę": 306,
      "ĝĚ": 307,
      "ěĜ": 308,
      "ęĕĘ": 309,
      "ęęęęęęęęęęęęę": 310,
      "ęĖĖ": 311,
      "ęĝĘ": 312,
      "ęĚęė": 313,
      "ĕĘ": 314,
      "ęĘęęęęęę": 315,
      "ęęėęęęę": 316,
      "ęĚĘęęęĘ": 317,
      "ęęĘĘęęęę": 318,
      "ęĘĝ": 319,
      "ĖęęĜ": 320,
      "ĀĀėĀ": 321,
      "ęęęĔ": 322,
      "Ėě": 323,
      "ĘęęĘę": 324,
      "ĜĜ": 325,
      "ęĚĕ": 326,
      "ęęęĞ": 327,
      "Ěęęęęę": 328,
      "ęĘĚęęęĚ": 329,
      "Ęęęĝ": 330,
      "ĜęęĖ": 331,
      "ĚęęĚę": 332,
      "ęĘĘęęęĘ": 333,
      "ęęĐ": 334,
      "ĀĀĚĀ": 335,
      "ĚĚ": 336,
      "ĝęęė": 337,
      "ęěĝ": 338,
      "ęĚĚęęęĚ": 339,
      "ĀĀĐ": 340,
      "ęěęęĚ": 341,
      "ėĖ": 342,
      "ėĜ": 343,
      "ęĘęęęęęęęę": 344,
      "ĕęęė": 345,
      "ĘĘ": 346,
      "ĕęęě": 347,
      "ĀĀ\"": 348,
      "ęĘęĚ": 349,
      "ęęĘęęęęę": 350,
      "ęĘęĘęęęę": 351,
      "ĀĀěĀ": 352,
      "ęęĚęęęęę": 353,
      "ęĝě": 354,
      "ęėĕ": 355,
      "ĀĀĖĀ": 356,
      "Ęęęęęę": 357,
      "Ėė": 358,
      "ęęĚĚęęęę": 359,
      "ĖęęĖ": 360,
      "ĝě": 361,
      "ęęęęęęĚ": 362,
      "ęĚęĚęęęę": 363,
      "ęęĚĚęęĚ": 364,
      "ęĕė": 365,
      "ęęĘĚęęĘ": 366,
      "ęĜĖ": 367,
      "ęęĚĘęęĚ": 368,
      "ęęęęęęĘ": 369,
      "ěĞ": 370,
      "ęĘęęė": 371,
      "Ęęęĕ": 372,
      "Ěęęĕ": 373,
      "ęėęęĚ": 374,
      "ěĝ": 375,
      "ĀĀď": 376,
      "ę\"": 377,
      "ĀĀ#": 378,
      "ĔęęĚ": 379,
      "Ĝĝ": 380,
      "ęĚęęęęęęęę": 381,
      "ėęęĝ": 382,
      "ęęĚĘęęęę": 383,
      "ęėęęĘ": 384,
      "ĔęęĘ": 385,
      "ėĝ": 386,
      "ęęĘĘęęĘ": 387,
      "ęęĘĚęęęę": 388,
      "ĞĚ": 389,
      "ęěĕ": 390,
      "ęėĝ": 391,
      "ěęęęęĘ": 392,
      "ęĘėęęęę": 393,
      "ęĘęęě": 394,
      "Ėĝ": 395,
      "ęĖĜ": 396,
      "ėęęęęĘ": 397,
      "ęěęęęęĘ": 398,
      "ěęęĕ": 399,
      "ĚĘ": 400,
      "ĜęęĜ": 401,
      "ĜĞ": 402,
      "ęĘĘĚęęĘ": 403,
      "ĀĀ$": 404,
      "Ěęęęęęę": 405,
      "ęĝė": 406,
      "ęĜĝ": 407,
      "Ĕęęęę": 408,
      "ęĚęĘęęĚ": 409,
      "ęĘęĚęęĚ": 410,
      "ęĚĚĘęęĚ": 411,
      "Ęęęęęęę": 412,
      "ęęęĘęęęęęęęę": 413,
      "ėęęĕ": 414,
      "ęęęĚęęęęęęęę": 415,
      "ęęĘęęęęęęęę": 416,
      "ĔĚ": 417,
      "ęę#": 418,
      "ĠĚ": 419,
      "ėęęęęĚ": 420,
      "ĝĝ": 421,
      "ęĘęęęęęęĚ": 422,
      "ĔĘ": 423,
      "ęĕě": 424,
      "ĞęęĘ": 425,
      "ĘĘęęęę": 426,
      "ęĚęęęęęęĚ": 427,
      "ěĖ": 428,
      "ęĚęęě": 429,
      "ęĚęęęęęęĘ": 430,
      "ęĚĘĚęęĘ": 431,
      "ęĘęĘęęĚ": 432,
      "ĀĀ%": 433,
      "ęĕĖ": 434,
      "ĀĀĘĀĘ": 435,
      "ĀĀĎ": 436,
      "ěęęęęĚ": 437,
      "ęĚĞ": 438,
      "ĀĀĜĀ": 439,
      "ęĖĕ": 440,
      "ęĝĜ": 441,
      "ęęęęęęęęęęęęęęę": 442,
      "ęęęē": 443,
      "ĀĚĚ": 444,
      "ĕė": 445,
      "ęėęęęęĚ": 446,
      "ęĚęęė": 447,
      "ĚęęęęęęĚ": 448,
      "ęĚěęęęę": 449,
      "ęĘĚĘęęĚ": 450,
      "ĀĀĕĀ": 451,
      "ĖĖ": 452,
      "ęĘĚĚęęĚ": 453,
      "Ġĝ": 454,
      "ĘęęęĘ": 455,
      "ęĚĚĘęęęę": 456,
      "ęĚĘĘęęĘ": 457,
      "ęĐ": 458,
      "ęęėęęęĘ": 459,
      "ęĞĚ": 460,
      "ĕě": 461,
      "ĕęęĖ": 462,
      "ęĘĞ": 463,
      "ęĘęęęęęęĘ": 464,
      "Ĝė": 465,
      "ęĚĔ": 466,
      "Ęęęęęęęęę": 467,
      "ęęď": 468,
      "ĀĀ&": 469,
      "ĕęęĜ": 470,
      "ĀĚĘ": 471,
      "ĖĞ": 472,
      "ĀĀęĀė": 473,
      "ĚĚęęęę": 474,
      "ęĘęĚęęĘ": 475,
      "ęĖęęĚ": 476,
      "ęęęğ": 477,
      "ĀĀęĀĘ": 478,
      "ĀĀĝĀ": 479,
      "ĕĜ": 480,
      "Ěęęĝ": 481,
      "ěğ": 482,
      "ĠĜ": 483,
      "ęĚęęęęę": 484,
      "ęĘęęęęę": 485,
      "ęĘĘĚęęęę": 486,
      "ěęęĝ": 487,
      "ęęěęęęĚ": 488,
      "ĕĝ": 489,
      "Ěęęęęęęęę": 490,
      "ęĘĚĚęęęę": 491,
      "ĘĚęęęę": 492,
      "ęĘĔ": 493,
      "ęěęęęęĚ": 494,
      "ĖĜ": 495,
      "ęĚęĘęęĘ": 496,
      "ęěĞ": 497,
      "ĀĀĘĀė": 498,
      "ęěĚęęęę": 499,
      "ęėĘęęęę": 500,
      "ēĚ": 501,
      "ĝĜ": 502,
      "ĝęęě": 503,
      "ęęĚęęęęęęęę": 504,
      "Ĕęęė": 505,
      "Ėęęĝ": 506,
      "ęėęęęęĘ": 507,
      "ėĞ": 508,
      "ęęęęęęęęęęęęęęęęęę": 509,
      "ęĘĘĘęęęę": 510,
      "ĀĀĔĀ": 511,
      "ęĞĘ": 512,
      "ĚĘęęęę": 513,
      "ęĚĚĚęęęę": 514,
      "Ĕęęě": 515,
      "ĚęęęĚ": 516,
      "ĝĘ": 517,
      "ęĜĕ": 518,
      "ęĘĘĘęęĘ": 519,
      "ęęęėęęęę": 520,
      "ęęęėę": 521,
      "ĞęęĚ": 522,
      "ęĜęęĘ": 523,
      "ėęęĞ": 524,
      "ęĝĖ": 525,
      "ęĕęęęę": 526,
      "ĀĀĘĀě": 527,
      "Ĕě": 528,
      "ęę$": 529,
      "ĘęęĞ": 530,
      "ęęęěęęęę": 531,
      "Ğęęęę": 532,
      "ĀĀĚĀĘ": 533,
      "ĘęęęęęęĘ": 534,
      "ęėĔ": 535,
      "ĀĀėĀĘ": 536,
      "ęĚęĘ": 537,
      "Ėęęĕ": 538,
      "ę#": 539,
      "ęĘęęęĘ": 540,
      "ĀĀęĀě": 541,
      "ęęęęęęęęęęęęęęęęęęęęęęęę": 542,
      "ęĚęĚęęĘ": 543,
      "Ġğ": 544,
      "ęęěĘęęĚ": 545,
      "ęĕĜ": 546,
      "ęĚĘĘęęęę": 547,
      "ęĖĝ": 548,
      "ĕĞ": 549,
      "ęĖęęĘ": 550,
      "ęęęěę": 551,
      "ĠĞ": 552,
      "ęĔĘ": 553,
      "ęęėĚęęĘ": 554,
      "ęęęėęęĚ": 555,
      "ęĀĀ": 556,
      "ęĝęęęę": 557,
      "Ĝğ": 558,
      "ĀĀĞĀ": 559,
      "ėğ": 560,
      "ęĚęęęęęęęęęęęę": 561,
      "ęĚęĚęęĚ": 562,
      "ĘęęęęęęĚ": 563,
      "ęĜęęĚ": 564,
      "ęĚěęęęĚ": 565,
      "Ĝęęĕ": 566,
      "ēĘ": 567,
      "ĕĖ": 568,
      "ęĚęęęĚ": 569,
      "ĀĀĘĀĖ": 570,
      "ęęĚęęęęęęĚ": 571,
      "ęĔĚ": 572,
      "ĀĀĘĀĚ": 573,
      "ėĘęęĘ": 574,
      "ęĘęě": 575,
      "ęĘėęęęĘ": 576,
      "ęĚĚĚęęĚ": 577,
      "ęĘĘęęęęę": 578,
      "ėęęęĘ": 579,
      "ĀĀęĀĚ": 580,
      "ęĚĚęęęęę": 581,
      "ĀĀ'": 582,
      "ēęęĚ": 583,
      "ęĘęęęęęęęęęęęę": 584,
      "ěęęęĚ": 585,
      "ĀĀğĀ": 586,
      "ēė": 587,
      "Ĕĝ": 588,
      "Ěĝ": 589,
      "ĠĘ": 590,
      "ęĚěĘęęĚ": 591,
      "ęĘęĘęęĘ": 592,
      "ēęęĘ": 593,
      "Ĕė": 594,
      "ęĘěęęęę": 595,
      "ęėęęě": 596,
      "ĀĀėĀė": 597,
      "ęĘěęęęĚ": 598,
      "ęęĎ": 599,
      "Ġě": 600,
      "ğĚ": 601,
      "ęėĞ": 602,
      "ĀĀĚĀė": 603,
      "ęėĚęęęę": 604,
      "ĀĀęĀĖ": 605,
      "ęĝĝ": 606,
      "ęęęěęęĘ": 607,
      "ęęĚęęęęęęĘ": 608,
      "ĀĀėĀě": 609,
      "ęěĔ": 610,
      "ęĖĔ": 611,
      "ęęęěęęĚ": 612,
      "ĀĀĚĀě": 613,
      "ęěĘęęęę": 614,
      "ęęĘęęęęęęĚ": 615,
      "ĀĀėĀĚ": 616,
      "ĘĚęęĘ": 617,
      "ęĘĘěęęĘ": 618,
      "ęĞě": 619,
      "ęęĘęęęęęęĘ": 620,
      "ĕęęĝ": 621,
      "ęĚėęęęę": 622,
      "ęĞĜ": 623,
      "ğĞ": 624,
      "ĚęęęęęęĘ": 625,
      "ĘęęęęĘĚ": 626,
      "ėĘęęęę": 627,
      "ęęęėęęĘ": 628,
      "ęęĘęęęęęę": 629,
      "ĀĀĖĀĚ": 630,
      "ĖęęęęĘ": 631,
      "Ęĝ": 632,
      "ęęěĚęęĚ": 633,
      "ęĘĚĘęęęę": 634,
      "ęęęęęęęęęęęęęęęęęęęę": 635,
      "ĀĀĚĀĖ": 636,
      "ĕęęĕ": 637,
      "ĞĞ": 638,
      "ęĘėĚęęĘ": 639,
      "ĀĀĚĀĚ": 640,
      "ĔĖ": 641,
      "Ěě": 642,
      "ĘĘęęĘ": 643,
      "ęĚğ": 644,
      "ęĜĞ": 645,
      "ęĘĚęęęęę": 646,
      "ĔęęĖ": 647,
      "ėĚęęĘ": 648,
      "ĖęęĞ": 649,
      "ĀĀ(": 650,
      "ęęėĘęęĘ": 651,
      "ęęęęęęęęęęęęęęęęęęę": 652,
      "ęęĚęęęęęę": 653,
      "ěĚęęęę": 654,
      "ęĚėęęęĘ": 655,
      "Ġė": 656,
      "ęĘęĘ": 657,
      "ęěęęė": 658,
      "ĕğ": 659,
      "ěĘęęĚ": 660,
      "ęğĚ": 661,
      "Ĝęęĝ": 662,
      "ĔĞ": 663,
      "ĘĞ": 664,
      "ĘęęĔ": 665,
      "ęď": 666,
      "ęĝĞ": 667,
      "ĀĀēĀ": 668,
      "ęėęĚęęĚ": 669,
      "ęęĚęęĘ": 670,
      "ęĘĘęęęĚ": 671,
      "ĔęęĜ": 672,
      "Ěğ": 673,
      "ęĘęěęęęę": 674,
      "ēęęęę": 675,
      "ēęęė": 676,
      "ęěğ": 677,
      "ĀĀęĀĕ": 678,
      "ĀĀěĀĘ": 679,
      "ęěĚęęęĚ": 680,
      "ĔĜ": 681,
      "ęĚĚėęęĚ": 682,
      "ĚęęęęĘĚ": 683,
      "ĕĕ": 684,
      "Ėğ": 685,
      "ėęęĔ": 686,
      "ĝęęĜ": 687,
      "ęęĚęęęĘ": 688,
      "ęęęĘęęė": 689,
      "ęęęĒ": 690,
      "ĀĀėĀĖ": 691,
      "ĚĞ": 692,
      "ęĘĚęęĘ": 693,
      "ęĚĚęęęě": 694,
      "ęĚĚęęęĘ": 695,
      "ĀĀĚĀĜ": 696,
      "ēě": 697,
      "ēĝ": 698,
      "ėęęĘę": 699,
      "ęęęęęęęęĚ": 700,
      "ęĕĕ": 701,
      "ęĔė": 702,
      "ĀĀęĀĜ": 703,
      "ĚęęęęĚĚ": 704,
      "ĜęęęęĚ": 705,
      "ęěęĘęęęę": 706,
      "ęĝĕ": 707,
      "ěęęĚę": 708,
      "ĚęęĔ": 709,
      "ęĚęĘęęęęĘ": 710,
      "ęęęęęęęęĘ": 711,
      "ęĚĘĚęęęę": 712,
      "ęĞė": 713,
      "ĀĀĖĀĘ": 714,
      "ęĚĘęęĚ": 715,
      "ęĚėĚęęĘ": 716,
      "ęĘğ": 717,
      "ėęęĚę": 718,
      "ęěĘęęęĘ": 719,
      "ĀĀĖĀė": 720,
      "ĚęęęęĘĘ": 721,
      "ěĘęęęę": 722,
      "ĀĀěĀĖ": 723,
      "ĖęęęęĚ": 724,
      "ĀĀ)": 725,
      "ęĚĘęęęęę": 726,
      "ĠĀ": 727,
      "ęę%": 728,
      "ęĚęęĘę": 729,
      "ęęĚęęĚ": 730,
      "ęěĘĘęęĘ": 731,
      "ĀĀěĀė": 732,
      "!ğ": 733,
      "ĀĀ*": 734,
      "ęėĚęęęĚ": 735,
      "ěĕ": 736,
      "ęěęęě": 737,
      "ęĔĖ": 738,
      "ęĚěĚęęĚ": 739,
      "ĘęęęęĘĘ": 740,
      "ĝğ": 741,
      "ĝęęĖ": 742,
      "Ġęęęę": 743,
      "ęĚęėęęęę": 744,
      "ęęĚęęęě": 745,
      "ĀĀĒĀ": 746,
      "ĜęęęęĘ": 747,
      "ĞĘ": 748,
      "ęėęęė": 749,
      "ęĚĘęęęė": 750,
      "ęĘĘęęęė": 751,
      "ĚęęęęĚĘ": 752,
      "!Ğ": 753,
      "ėĕ": 754,
      "ęęĘęęĘ": 755,
      "ēĖ": 756,
      "ěęęĔ": 757,
      "ęęĘęęęė": 758,
      "ęėęĚęęęę": 759,
      "ęĖĞ": 760,
      "ĀĀĘĀĕ": 761,
      "ęĚėĘęęĘ": 762,
      "ęėĘęęęĘ": 763,
      "ęėėęęęę": 764,
      "ęĜĔ": 765,
      "ęęęęęęęęęęęęęęęęęęęęęęęęęęęęęęęę": 766,
      "ĜĖ": 767,
      "ęęĚęęęĚę": 768,
      "ęęęĘęęě": 769,
      "ęĔě": 770,
      "ĀĀĘĀĜ": 771,
      "ĘęęęęĚĘ": 772,
      "ęěęĘęęĚ": 773,
      "ęėĚĚęęĚ": 774,
      "ĀĀĖĀě": 775,
      "ĘęęęęĚĚ": 776,
      "ēĞ": 777,
      "Ėĕ": 778,
      "ęĚęĘęęęęĚ": 779,
      "ęęęęęęęęęĘ": 780,
      "ęĚęęęęė": 781,
      "!Ě": 782,
      "ĒĘ": 783,
      "ēęęě": 784,
      "ęęĚėęęĚ": 785,
      "ĀĀěĀě": 786,
      "đĘ": 787,
      "ęěĚĘęęĚ": 788,
      "ęĘėĘęęĘ": 789,
      "ęĘěĘęęĚ": 790,
      "ęěęĘęęĘ": 791,
      "ęĞĖ": 792,
      "ěęęĘę": 793,
      "ęėĘĚęęĘ": 794,
      "ęĚęęęęĘę": 795,
      "ęĘęęęęě": 796,
      "ęĕĝ": 797,
      "ęĚĚĘęęĘ": 798,
      "ęĘĚęęęě": 799,
      "ėĚęęęę": 800,
      "ėęęğ": 801,
      "ęęĘęęęĚ": 802,
      "ęęĘęęęĘę": 803,
      "ęĞĝ": 804,
      "ěęęĞ": 805,
      "Ġ!": 806,
      "ĠĖ": 807,
      "ĀĀěĀĚ": 808,
      "ęęęĘęęęęę": 809,
      "ĀĀĜĀė": 810,
      "Ēė": 811,
      "ęĚęęĜ": 812,
      "ęĘęĚęęęęĘ": 813,
      "ęěěęęęę": 814,
      "ęěĚĘęęęę": 815,
      "ĀĀĜĀĘ": 816,
      "ĒĚ": 817,
      "Ęğ": 818,
      "ę$": 819,
      "Ğęęė": 820,
      "ęęĚĘęęě": 821,
      "ĀĀĖĀĖ": 822,
      "!Ĝ": 823,
      "đĚ": 824,
      "ęĘęĚęęęęĚ": 825,
      "ęěęĚęęĘ": 826,
      "ęĔĜ": 827,
      "ĀĀĚĀĕ": 828,
      "ĀĀėĀĝ": 829,
      "ęėĘĚęęęę": 830,
      "ęğě": 831,
      "ĝĞ": 832,
      "ęĘē": 833,
      "ęęĘěęęĘ": 834,
      "ĀĀ+": 835,
      "ęęęęęęęęęĚ": 836,
      "ęĚęęęęě": 837,
      "ęęę!": 838,
      "Ěęęėę": 839,
      "Ęęęėę": 840,
      "ęğĜ": 841,
      "ęęěęęęě": 842,
      "ęęęĚęęė": 843,
      "ęęĖęęęę": 844,
      "ęĚĘęęęĘę": 845,
      "ĀĀĘĀĝ": 846,
      "ĀĀėĀĕ": 847,
      "Ěęęěę": 848,
      "đė": 849,
      "ēĜ": 850,
      "Ġĕ": 851,
      "ęĘęęĖ": 852,
      "ęėęĚęęĘ": 853,
      "ęĜğ": 854,
      "ęĘęęęęė": 855,
      "ęĕęęĚ": 856,
      "ęĞęęęę": 857,
      "ęĘęęęęĚę": 858,
      "!ĝ": 859,
      "Ĕğ": 860,
      "ęĚē": 861,
      "ęęęĚęęęęĘ": 862,
      "ęęĜęęęę": 863,
      "ęĚĚęęĚ": 864,
      "ĀĀėĀĜ": 865,
      "ęĘěĚęęĚ": 866,
      "!ě": 867,
      "Ęęęğ": 868,
      "ěĚęęĚ": 869,
      "Ğğ": 870,
      "ęĘęěęęĘ": 871,
      "ęęėęęęė": 872,
      "ęĘĘęęęĘę": 873,
      "ĀĀĔĀĘ": 874,
      "ęĚęęęęĚę": 875,
      "ĀĀ!Ā": 876,
      "ĖęęĔ": 877,
      "ęėğ": 878,
      "ęĜęęęęĘ": 879,
      "ęĚĘėęęĘ": 880,
      "ĀĀđĀ": 881,
      "ęęęęęęęęęęęĘ": 882,
      "ęĘĚęęęĚę": 883,
      "ĀĀĕĀě": 884,
      "Ĕęęĝ": 885,
      "ĠęęĘ": 886,
      "ęęęĘęęęęĘ": 887,
      "ęĜęęė": 888,
      "ęĚĚęęęĚę": 889,
      "ęğĘ": 890,
      "ĀĀĕĀĘ": 891,
      "ĀĀĐĀ": 892,
      "Ĕĕ": 893,
      "ęęęĚęęě": 894,
      "ĀĀĘĀĔ": 895,
      "Ēě": 896,
      "ėęęęęĘĘ": 897,
      "ĠĀĀ": 898,
      "ęęęĚęęęęĚ": 899,
      "ęĖęęęęĚ": 900,
      "ęĚęėęęĘ": 901,
      "ęĘĘęęĘ": 902,
      "ĀĀęĀĝ": 903,
      "ĀĀĕĀĚ": 904,
      "ęĝęęĘ": 905,
      "ęĘĚęęęĘ": 906,
      "ęėĚĘęęĚ": 907,
      "ęęęĚęęęęę": 908,
      "ęĘęęęęĘę": 909,
      "đĖ": 910,
      "ėęę": 911,
      "ĚĚęęĚ": 912,
      "ęėē": 913,
      "ęęěĘęęě": 914,
      "ęĚĚĘęęě": 915,
      "ęĘĚěęęĚ": 916,
      "ęęęđ": 917,
      "ĀĀĜĀě": 918,
      "ĀĀĝĀĘ": 919,
      "\"Ě": 920,
      "ĠęęĚ": 921,
      "ęĖğ": 922,
      "ęĘĚėęęĚ": 923,
      "ęěĘĚęęĘ": 924,
      "ęėėęęęĘ": 925,
      "ėęęęęĚĚ": 926,
      "Ęě": 927,
      "Ĝĕ": 928,
      "ęĚęęĖ": 929,
      "ęĚĚėęęęę": 930,
      "ĀĀĖĀĜ": 931,
      "ĀĀ\"Ā": 932,
      "ĝĖ": 933,
      "ęęĚěęęĚ": 934,
      "ęĘĘĘęęĚ": 935,
      "Ēĕ": 936,
      "ĒęęĘ": 937,
      "Ĕęęĕ": 938,
      "ęęęĘęęęęĚ": 939,
      "ęĔĕ": 940,
      "ĀĀęĀĔ": 941,
      "ĜęęĔ": 942,
      "ęĚėęęęė": 943,
      "ĒĖ": 944,
      "ęĚĘęęęĚ": 945,
      "\"Ğ": 946,
      "ęęĘĚęęė": 947,
      "ęĖęęě": 948,
      "ęĚĘěęęĘ": 949,
      "ėěęęĘ": 950,
      "Ęęę": 951,
      "ĚĘęęĚ": 952,
      "ęĚęĚęęęęĘ": 953,
      "ęĘęėęęęę": 954,
      "ęĖęęęęĘ": 955,
      "ęĝğ": 956,
      "ĀĀĚĀĝ": 957,
      "ęěĘĘęęęę": 958,
      "Ĕę": 959,
      "ğęęĘ": 960,
      "ęĘęĘęęęęĘ": 961,
      "ęęĘėęęĘ": 962,
      "ęęęęęęęęęęęĚ": 963,
      "ęĚěęęęě": 964,
      "ęēĘ": 965,
      "đĕ": 966,
      "ĒĞ": 967,
      "ěěęęĚ": 968,
      "ęĘęęĘę": 969,
      "ęėęĘęęęę": 970,
      "ęęėĘęęęę": 971,
      "ęĜęęęęĚ": 972,
      "ęĚĘĘęęė": 973,
      "ĀĀěĀĜ": 974,
      "ĀĀ#Ā": 975,
      "ĚĜ": 976,
      "ęĚęěęęęę": 977,
      "ęĘęęĜ": 978,
      "ęĘęęęęęęęęęęę": 979,
      "ęęĘęęęęęęęęęęęę": 980,
      "ęęėĚęęė": 981,
      "ęęěę": 982,
      "ęēĚ": 983,
      "ĀĀĜĀĖ": 984,
      "ęĚęėęęĚ": 985,
      "ęĖęęė": 986,
      "ęĝęęĚ": 987,
      "ęęĘęęęęęęĘęęęę": 988,
      "ĀĀěĀĕ": 989,
      "ĀĀĕĀĖ": 990,
      "ĖęęęĘ": 991,
      "ėėęęĘ": 992,
      "ęęĜęęęĚ": 993,
      "ęĚĘėęęęę": 994,
      "ĀĀĚĀĔ": 995,
      "ĀĀěĀĝ": 996,
      "ĀĀĜĀĚ": 997,
      "ěĚęęĜ": 998,
      "ĀĀĝĀě": 999,
      "ĀĀĝĀė": 1000,
      "ēğ": 1001,
      "ęĚęęęęęęęęęęęęę": 1002,
      "ęĘęěęęĚ": 1003,
      "ęęĘėęęęę": 1004,
      "ęĘęęęęęęęĘ": 1005,
      "ęĕĞ": 1006,
      "ęĚĘĚęęė": 1007,
      "ęěĚĚęęĚ": 1008,
      "ęēė": 1009,
      "ęęęĚęęęęęęĘ": 1010,
      "Ēęęęę": 1011,
      "ĒęęĚ": 1012,
      "ęĘę": 1013,
      "ęĘęęęęęęęęęęęęę": 1014,
      "ęęĚĚęęĘ": 1015,
      "ęęĚĘęęĘ": 1016,
      "ęėęĘęęĚ": 1017,
      "ęĘėęęęė": 1018,
      "ęěěęęęĚ": 1019,
      "ėėęęęę": 1020,
      "Ęęęęęęęęęęęę": 1021,
      "ĜĘęęĚ": 1022,
      "Ğě": 1023,
      "ęęęęęęęęęęĚ": 1024,
      "ęęėěęęĘ": 1025,
      "ęĘĚĘęęě": 1026,
      "ĀĀėĀĞ": 1027,
      "ęęęĜęęęę": 1028,
      "ĀĀĖĀĕ": 1029,
      "ēęęĜ": 1030,
      "ėęęęęĘĚ": 1031,
      "ĜĀĀ": 1032,
      "ęĚę": 1033,
      "ęĜęęě": 1034,
      "ęĜĚęęęę": 1035,
      "ęĘęęęęęęĚęęęę": 1036,
      "ęĘĘĚęęė": 1037,
      "ėĚęęĖ": 1038,
      "\"ğ": 1039,
      "ĘĜ": 1040,
      "ĜęęęĚ": 1041,
      "ęĚęĚęęęęĚ": 1042,
      "ęęęęęęęęĘęęęę": 1043,
      "ęęęęęęęęĚęęęę": 1044,
      "ęęěėęęĚ": 1045,
      "ĀĀĘĀĞ": 1046,
      "ęěĚęęęĘ": 1047,
      "ęěěĘęęĚ": 1048,
      "ęĚĜęęęĚ": 1049,
      "ĀĀĔĀĚ": 1050,
      "ēęęĖ": 1051,
      "ĕęęęęĚ": 1052,
      "Ěęęęęęęęęęęę": 1053,
      "ęĘęėęęĚ": 1054,
      "ęęĘĘęęĚ": 1055,
      "ęęėę": 1056,
      "ĀĀĘĀē": 1057,
      "ĀĀĕĀė": 1058,
      "ęęĚėęęęę": 1059,
      "ęĕĔ": 1060,
      "ęĘĘĚęęĚ": 1061,
      "ęĚěėęęĚ": 1062,
      "ęėĘęęęĚ": 1063,
      "ęěėĘęęĘ": 1064,
      "!ĀĀ": 1065,
      "ęĎ": 1066,
      "ěęęęęĘĚ": 1067,
      "ĝęęĝ": 1068,
      "ęĘęĘęęęęĚ": 1069,
      "ęęęęęęęęęęĘ": 1070,
      "ęĝĔ": 1071,
      "ęĚĚĚęęĘ": 1072,
      "ęĘĘěęęęę": 1073,
      "ęĚĘĘęęĚ": 1074,
      "ęĞĞ": 1075,
      "ęęĘęęęęęęĚęęęę": 1076,
      "ęėĚĚęęęę": 1077,
      "ęęęĖęęęę": 1078,
      "ėĘęęĖ": 1079,
      "ĀĀĞĀĘ": 1080,
      "ĒĜ": 1081,
      "ĚęęĞ": 1082,
      "ěěęęęę": 1083,
      "ĝęęĕ": 1084,
      "ğęęęę": 1085,
      "ęęĘěęęęę": 1086,
      "ęĘęęęęęęě": 1087,
      "ęĘęęęęęęęĚ": 1088,
      "ęĘĚĚęęě": 1089,
      "ĐĚ": 1090,
      "đĜ": 1091,
      "ĕęęĞ": 1092,
      "Ğęęě": 1093,
      "Ġęęě": 1094,
      "ęĘĒ": 1095,
      "Ęęęęęė": 1096,
      "ęĚęęęęęęęĚ": 1097,
      "ęĘĘĘęęė": 1098,
      "ęĘėěęęĘ": 1099,
      "ĀĀěĀĔ": 1100,
      "ęęęĘęęęęęęĘ": 1101,
      "ęėėĚęęĘ": 1102,
      "ęėěęęęĚ": 1103,
      "ęĘĖĚęęĘ": 1104,
      "ĀĀēĀĘ": 1105,
      "ĔęęĔ": 1106,
      "ĖĘęęĘ": 1107,
      "ėęęęęĚĘ": 1108,
      "ğęęĚ": 1109,
      "ęĚęě": 1110,
      "ęęĚěęęęę": 1111,
      "ĀĀ,": 1112,
      "ęĕęęĘ": 1113,
      "ęĔĝ": 1114,
      "ĀĀęĀē": 1115,
      "ęĘęĚęęě": 1116,
      "ĀĀďĀ": 1117,
      "ęęęęęęęęęęęęęęęęęęęęęęęęę": 1118,
      "ĜęęĞ": 1119,
      "ęėĘęęĘ": 1120,
      "ęĘěęęęě": 1121,
      "ęęęĘęęęęęęĚ": 1122,
      "ēĕ": 1123,
      "Ėęęğ": 1124,
      "ěėęęĚ": 1125,
      "ěęęęęĚĘ": 1126,
      "Ġ\"": 1127,
      "ęĚęęęęęęęęęęę": 1128,
      "ęěęĚęęęę": 1129,
      "ęęėęęĚ": 1130,
      "ęęĖęęęĘ": 1131,
      "ęĘėĚęęė": 1132,
      "ėęęē": 1133,
      "ęęĘĘęęė": 1134,
      "ęĚęęęęęęęĘ": 1135,
      "ęĔęęęę": 1136,
      "ęĚěĘęęě": 1137,
      "ĀĀĚĀĞ": 1138,
      "ĀĀ$Ā": 1139,
      "!Ę": 1140,
      "ęěē": 1141,
      "Ěęęęęė": 1142,
      "ęĜęĘęęĘ": 1143,
      "ęĖē": 1144,
      "ęĞĕ": 1145,
      "ęĞğ": 1146,
      "ęėĘĘęęĘ": 1147,
      "ĀĀěĀē": 1148,
      "Ęęęęęęęęęęęęę": 1149,
      "Ęęęē": 1150,
      "ęĚęęęĚę": 1151,
      "ęĚĚĚęęě": 1152,
      "ęěėęęęĘ": 1153,
      "ĀĀĝĀĚ": 1154,
      "Ġ#": 1155,
      "ęęĚĚęęě": 1156,
      "ęėęě": 1157,
      "ęęěĚęęęę": 1158,
      "ęĕğ": 1159,
      "ęĘĚĘęęĘ": 1160,
      "Ēĝ": 1161,
      "Ēęęė": 1162,
      "Ĕęę": 1163,
      "ĕęęęęĘ": 1164,
      "ėęęęė": 1165,
      "Ġęęė": 1166,
      "ęĖĘęęęę": 1167,
      "ęĘěĚęęě": 1168,
      "ęėĘĚęęĚ": 1169,
      "ĀĀĖĀĝ": 1170,
      "ęěęęęęě": 1171,
      "ĀĀĜĀĕ": 1172,
      "ĀĀĝĀĖ": 1173,
      "ĕęę": 1174,
      "ěęęęęĘĘ": 1175,
      "ĝė": 1176,
      "ĞĜ": 1177,
      "ęĚęĘęęė": 1178,
      "ęęęęęęęęęęęęĚ": 1179,
      "ęĘĘėęęęę": 1180,
      "ęĘĘėęęĘ": 1181,
      "ęĘĚěęęęę": 1182,
      "ĀĀęĀĞ": 1183,
      "Ęęęěę": 1184,
      "ęěĚĘęęĘ": 1185,
      "ęĚėėęęĘ": 1186,
      "ęĘěěęęĚ": 1187,
      "ęĘęęĚę": 1188,
      "ęĚĜĘęęĚ": 1189,
      "ĀĀĝĀĕ": 1190,
      "ĀĀĔĀė": 1191,
      "Ėē": 1192,
      "ěęęęęĚĚ": 1193,
      "ęĘęė": 1194,
      "ęėęěęęĘ": 1195,
      "ęĚęęęęęęĚęęęę": 1196,
      "ęĚĘĚęęĚ": 1197,
      "ėęęęęė": 1198,
      "ęěĘėęęĘ": 1199,
      "ĜęęĚę": 1200,
      "ĀĀĔĀĜ": 1201,
      "ĀĀĞĀė": 1202,
      "đğ": 1203,
      "Ġę": 1204,
      "ęĘęęęĘę": 1205,
      "ęěęĚęęĚ": 1206,
      "ĀĀĜĀĝ": 1207,
      "ĀĀĕĀĜ": 1208,
      "Đĕ": 1209,
      "Đě": 1210,
      "ĖĚęęĘ": 1211,
      "ęĘęĘęęě": 1212,
      "ęěĒ": 1213,
      "ęěęėęęĘ": 1214,
      "ęĜē": 1215,
      "ęĘĚĚęęĘ": 1216,
      "ęěĚĚęęęę": 1217,
      "ęěĘęęęė": 1218,
      "ęěěęęęě": 1219,
      "đĔ": 1220,
      "đęęė": 1221,
      "Ēęęě": 1222,
      "ęěęė": 1223,
      "ęěėęęęę": 1224,
      "ęęęęęęęęęęęęĘ": 1225,
      "ęęęĐ": 1226,
      "ęğĝ": 1227,
      "ęĘĖęęęĘ": 1228,
      "Ēğ": 1229,
      "Ėęę": 1230,
      "Ěęęęęęęęęęęęę": 1231,
      "ęėĚęęĘ": 1232,
      "ęęĜęęęě": 1233,
      "ęĚĚěęęęę": 1234,
      "ęĚěĘęęęę": 1235,
      "ęěĚėęęĚ": 1236,
      "ęĘėĚęęęę": 1237,
      "ęěĘĘęęė": 1238,
      "ęęęĚęęęęęę": 1239,
      "ĀĀĜĀĜ": 1240,
      "ĀĀĝĀĜ": 1241,
      "\"ĝ": 1242,
      "Ēē": 1243,
      "ěęęğ": 1244,
      "ĞęęĖ": 1245,
      "ęęĘĚęęĚ": 1246,
      "ęěęęęĚ": 1247,
      "ęėęĘęęĘ": 1248,
      "ęęėĘęęė": 1249,
      "Ěęęęęě": 1250,
      "ęęĖĘęęĘ": 1251,
      "ęĚęęęęęęĘęęęę": 1252,
      "ęĚĚĖęęĚ": 1253,
      "ęęĚęęęęęęĚęęęę": 1254,
      "ęĔĔ": 1255,
      "ęęęĖęęĚ": 1256,
      "ęēĖ": 1257,
      "ĀĀĞĀĚ": 1258,
      "ĀĀ%Ā": 1259,
      "ęęęęę": 1260,
      "ęęĚęęęęęęęęęęęę": 1261,
      "ęěĘęęĚ": 1262,
      "ęěęėęęęę": 1263,
      "ęėěęęęę": 1264,
      "ęęę\"": 1265,
      "ĀĀęĀğ": 1266,
      "ĐĘ": 1267,
      "đě": 1268,
      "ēĔ": 1269,
      "Ěĕ": 1270,
      "ěĘęęě": 1271,
      "Ĝęęğ": 1272,
      "ęĚęĚęęė": 1273,
      "ĀĀ-": 1274,
      "ĀĀ/": 1275,
      "ęėęęęĘ": 1276,
      "ęėęěęęĚ": 1277,
      "ęęěęęĘ": 1278,
      "ęĚėĚęęė": 1279,
      "ĀĀĚĀē": 1280,
      "ęėĘĘęęęę": 1281,
      "ęėĚęęęě": 1282,
      "ęęęĘęęęęęę": 1283,
      "ęėėęęęė": 1284,
      "ĀĀĕĀĝ": 1285,
      "ĀĀēĀĚ": 1286,
      "ęĘęĚęęė": 1287,
      "Đė": 1288,
      "Ėę": 1289,
      "ęęěěęęĚ": 1290,
      "ęĘęęęęęęė": 1291,
      "ęĚĚĘęęęęĘ": 1292,
      "ěęęęęė": 1293,
      "ĀĀĖĀĔ": 1294,
      "ęěěĚęęĚ": 1295,
      "ėęęėę": 1296,
      "ĀĀĕĀĕ": 1297,
      "ėěęęĖ": 1298,
      "ėĖęęĘ": 1299,
      "ěęęęě": 1300,
      "Ğĝ": 1301,
      "ĠęęĜ": 1302,
      "ęĚęĘęęě": 1303,
      "ęĘęęęęęęĘęęęę": 1304,
      "ęěĚėęęęę": 1305,
      "ĀĀėĀĔ": 1306,
      "ęğė": 1307,
      "ęęęĜęęĚ": 1308,
      "ęęęĚęęęęęęĚ": 1309,
      "ĀĀĔĀě": 1310,
      "ęĚĖęęęĘ": 1311,
      "ĀĀĞĀĖ": 1312,
      "ĀĀ&Ā": 1313,
      "ēęęĕ": 1314,
      "ĔĔ": 1315,
      "ĖęęĘę": 1316,
      "Ěė": 1317,
      "ęęĖĚęęĘ": 1318,
      "ęěĚĘęęě": 1319,
      "ęĘěĘęęě": 1320,
      "ĀĀĜĀĔ": 1321,
      "ĀĀĞĀĜ": 1322,
      "ĀĀğĀĘ": 1323,
      "ĕĘęęĕ": 1324,
      "ĘęęęĘę": 1325,
      "ěęęē": 1326,
      "ĜĚęęĚ": 1327,
      "ĠĔ": 1328,
      "ęĚęęĝ": 1329,
      "ĀĀ.": 1330,
      "ęęęęęęęęĘĚ": 1331,
      "ęęęĘęęĘę": 1332,
      "ęĚĚěęęĚ": 1333,
      "ęęęėęęě": 1334,
      "ęęęęęęęęęęęęęęęęęęęęęęęęęęę": 1335,
      "ęęęĜęęĘ": 1336,
      "ęėėĘęęĘ": 1337,
      "ęěęęęęė": 1338,
      "ęėěĚęęĚ": 1339,
      "ęĘĜĘęęě": 1340,
      "ęĜĘęęęĘ": 1341,
      "ęĜĘĘęęĘ": 1342,
      "ĀĀĞĀě": 1343,
      "ĀĀĎĀ": 1344,
      "!!": 1345,
      "ĒęęĖ": 1346,
      "Ěęęğ": 1347,
      "ĚęęęĚę": 1348,
      "ğĝ": 1349,
      "ęęęęęęė": 1350,
      "ęĚĜęęęę": 1351,
      "ęęėĚęęęę": 1352,
      "ęęėėęęĘ": 1353,
      "ęęěĘęęęę": 1354,
      "ęĔĞ": 1355,
      "ĀĀėĀē": 1356,
      "ęğğ": 1357,
      "ęēĕ": 1358,
      "ĚęęęęĘĘęęęę": 1359,
      "ęĘĜęęęě": 1360,
      "ęĒĘ": 1361,
      "ęęęęęęęęęęęęęęęęęęęęęę": 1362,
      "Ěęęē": 1363,
      "ĠĀĘ": 1364,
      "ęĘĖęęęę": 1365,
      "ęĘęĜęęęę": 1366,
      "ęęęĘęęĚę": 1367,
      "ęĚĚĘęęęęĚ": 1368,
      "ęęęęĘęĚęęęę": 1369,
      "ęĘĚěęęĘ": 1370,
      "ęĞĔ": 1371,
      "ęęĚęęęęęęĘęęęę": 1372,
      "ęĚėĘęęė": 1373,
      "ęėĚęęęĘ": 1374,
      "ĀĀěĀĞ": 1375,
      "ĀĀĖĀĞ": 1376,
      "ęěęęęęęęĘ": 1377,
      "ęěėĚęęĘ": 1378,
      "ĀĀēĀė": 1379,
      "ęęęęĚĘĘęęęę": 1380,
      "ĕĚęęĕ": 1381,
      "ĖĐ": 1382,
      "ėĘęęė": 1383,
      "ĝęęęęĘ": 1384,
      "ęĚęĚęęě": 1385,
      "ĀĀć": 1386,
      "ęėĒ": 1387,
      "ęĜěęęęę": 1388,
      "ęĖėęęęę": 1389,
      "ęĚĚęęęęęęęęęęęę": 1390,
      "ęĚĚĘęęĚę": 1391,
      "ęĔęęĚ": 1392,
      "ęěĚęęęě": 1393,
      "ęĚėĘęęęę": 1394,
      "ęėĘěęęĘ": 1395,
      "ęėęęęęě": 1396,
      "ęėęęęęęęĘ": 1397,
      "ĀĀĜĀĞ": 1398,
      "ěęęěę": 1399,
      "ęĘĜęęęĚ": 1400,
      "ęĖĚęęęĚ": 1401,
      "ęęĘęęęĘęęęęęęęę": 1402,
      "đĝ": 1403,
      "Ęė": 1404,
      "ěĔ": 1405,
      "ěęę": 1406,
      "ĝęęęęĚ": 1407,
      "ęęėęęĘ": 1408,
      "ęĜĘęęęę": 1409,
      "ęęĖęęęė": 1410,
      "ęęĜĘęęĚ": 1411,
      "ęĘĚėęęęę": 1412,
      "ĀĀėĀĒ": 1413,
      "ęĘěėęęĚ": 1414,
      "ęėĚĘęęęę": 1415,
      "ęēě": 1416,
      "ęėėĚęęęę": 1417,
      "ęėėěęęĘ": 1418,
      "ĀĀ'Ā": 1419,
      "ĕĔ": 1420,
      "ĖĔ": 1421,
      "ę%": 1422,
      "Ěęę": 1423,
      "ĜęęĘę": 1424,
      "ğğ": 1425,
      "ęĚęĖęęęę": 1426,
      "ęĚęěęęĘ": 1427,
      "ęěęėęęĚ": 1428,
      "ęĚěĚęęęę": 1429,
      "ęğĞ": 1430,
      "ęěěėęęĚ": 1431,
      "ęėěĘęęĚ": 1432,
      "!\"": 1433,
      "#Ğ": 1434,
      "ęĚęĖ": 1435,
      "ęĚĖęęęę": 1436,
      "ęĕē": 1437,
      "ęĚĘěęęęę": 1438,
      "ĀěĚ": 1439,
      "ęěĘĚęęęę": 1440,
      "ęėĚěęęęę": 1441,
      "ęēĜ": 1442,
      "ęėęęęęęęĚ": 1443,
      "ęĚĜęęęě": 1444,
      "ĀĀ!ĀĘ": 1445,
      "đē": 1446,
      "ĘęęęĚ": 1447,
      "Ěęęęě": 1448,
      "ğęęė": 1449,
      "ęęęęęęě": 1450,
      "ęĚĒ": 1451,
      "ęĘęĘęęė": 1452,
      "ęĘęėęęĘ": 1453,
      "ęęĘęęĚ": 1454,
      "ęęĚĘęęęęĘ": 1455,
      "ĀĀą": 1456,
      "ĀĀĈ": 1457,
      "ęęěĚęęě": 1458,
      "ęĜęĘęęęę": 1459,
      "ėęęęęě": 1460,
      "ęĚěěęęĚ": 1461,
      "ęěĚĚęęĘ": 1462,
      "ĀĀėĀğ": 1463,
      "ęėĚěęęĚ": 1464,
      "ĚęęęęĚĚęęęę": 1465,
      "ęĚęęĚę": 1466,
      "ęĘĖęęęė": 1467,
      "ęĚĖĘęęĘ": 1468,
      "ĀĀğĀĚ": 1469,
      "#ğ": 1470,
      "ĕęęĔ": 1471,
      "ĖĒ": 1472,
      "ěĚęęě": 1473,
      "ěĖęęĚ": 1474,
      "Ĝęę": 1475,
      "ęęĚĖęęĚ": 1476,
      "ęęęĚęęĚę": 1477,
      "ęĖĚęęęę": 1478,
      "ęęĜĚęęĚ": 1479,
      "ęęęęĘĘęęęę": 1480,
      "ęĘĘęęęęęęęęęęęę": 1481,
      "ęĚĘĘęęęęĚ": 1482,
      "ęĔğ": 1483,
      "ęĘėěęęė": 1484,
      "ęĚėěęęĘ": 1485,
      "ęěĘĘęęĚ": 1486,
      "ęğĖ": 1487,
      "ęęęĖę": 1488,
      "ęĖĚĚęęĚ": 1489,
      "ĀĀĔĀĝ": 1490,
      "ęęęęĘĚĚęęęę": 1491,
      "ĞĚęęĝ": 1492,
      "!ė": 1493,
      "ĐĖ": 1494,
      "ĐĞ": 1495,
      "đĞ": 1496,
      "đęęĘ": 1497,
      "ĒĒ": 1498,
      "ĖęęęęĘĘ": 1499,
      "ěęĘęęęę": 1500,
      "ĠĀė": 1501,
      "ęĚėęęĚ": 1502,
      "ęĘěęęĘ": 1503,
      "ęěĚęęĚ": 1504,
      "ĘęęęęęęĚęęęę": 1505,
      "ęĚęęęęĘęęĘ": 1506,
      "ęęęęĚęĘęęęę": 1507,
      "ęĚĘĘęęĘę": 1508,
      "ĀĀĘĀğ": 1509,
      "ęěĘėęęęę": 1510,
      "ęĘěĚęęęę": 1511,
      "ęėĚĚęęě": 1512,
      "ęğęęęę": 1513,
      "ęēĝ": 1514,
      "ęėėĚęęė": 1515,
      "ęěęęęęęę": 1516,
      "ęěėėęęĘ": 1517,
      "ęęĚęęęĚęęęęęęęę": 1518,
      "ęėĖęęęĘ": 1519,
      "ĀĀēĀĜ": 1520,
      "Đğ": 1521,
      "ĘěęęĘ": 1522,
      "ę&": 1523,
      "ĜěęęĚ": 1524,
      "ęĚęěęęĚ": 1525,
      "ęęĘĘęęĘę": 1526,
      "ęęĚĘęęĚę": 1527,
      "ęėęěęęęę": 1528,
      "ęęęĚęęĘę": 1529,
      "ęęĖĚęęė": 1530,
      "ęĘĘĜęęĘ": 1531,
      "ęęęęĚĚęęęę": 1532,
      "ĀĀĝĀĔ": 1533,
      "ĀĀĝĀē": 1534,
      "ęĘĖĘęęĘ": 1535,
      "ęĜĚĘęęĚ": 1536,
      "ĀĀĔĀĖ": 1537,
      "ęěĜĘęęĚ": 1538,
      "ĀĀğĀě": 1539,
      "\"!": 1540,
      "đęęęę": 1541,
      "đęęĖ": 1542,
      "ēę": 1543,
      "ĖěęęĘ": 1544,
      "ėęĚęęęę": 1545,
      "ĚęęęĘ": 1546,
      "ĠĀě": 1547,
      "ęėęęĜ": 1548,
      "ęĚęęęęęęė": 1549,
      "ęĚĚėęęě": 1550,
      "ěĚęęĝ": 1551,
      "ęĖĘęęęĘ": 1552,
      "ĀĀğĀė": 1553,
      "ĀĀğĀĖ": 1554,
      "ĀĀĒĀĖ": 1555,
      "ęęęęęęęęęęęęęęęęęęęęęęęęęę": 1556,
      "\"Ĝ": 1557,
      "#!": 1558,
      "Ėęęęė": 1559,
      "ĘėęęĘ": 1560,
      "ęĚęęĕ": 1561,
      "ęĘĘěęęĚ": 1562,
      "ęĘĘĚęęĘę": 1563,
      "ęęęęĚę": 1564,
      "ęĚĘĜęęĘ": 1565,
      "ęęęĜę": 1566,
      "ęěěĘęęęę": 1567,
      "ęěěĘęęě": 1568,
      "ęėěĚęęě": 1569,
      "ęĒĚ": 1570,
      "ĀĀğĀĜ": 1571,
      "ĀĀĒĀĘ": 1572,
      "ĀĀĒĀě": 1573,
      "\"ě": 1574,
      "ēĒ": 1575,
      "Ęėęęęę": 1576,
      "ĘęęĒ": 1577,
      "ĞęęĜ": 1578,
      "ęĚęĕ": 1579,
      "ęęĘĘęęęęĘ": 1580,
      "ęęěėęęě": 1581,
      "ęęĜĚęęě": 1582,
      "ęęę#": 1583,
      "ęĚėĖęęĘ": 1584,
      "ĀĀĚĀğ": 1585,
      "ĀĀĜĀē": 1586,
      "ěĚĘęęęę": 1587,
      "ěĚĘęęĚ": 1588,
      "ĀĀĔĀĕ": 1589,
      "ĜěęęĜ": 1590,
      "ĐĜ": 1591,
      "đęęĚ": 1592,
      "ĔęęĞ": 1593,
      "ĚėęęĚ": 1594,
      "Ĝęęęě": 1595,
      "ĜĘęęě": 1596,
      "ęęěĖęęĚ": 1597,
      "ęęĜėęęĚ": 1598,
      "ęęĜĘęęě": 1599,
      "ęĘĘėęęĚ": 1600,
      "ęĚĘěęęė": 1601,
      "ęĘĚĚęęęęĚ": 1602,
      "ęęęęęęęęęęęęęĘęęęę": 1603,
      "ĀĀęĀĒ": 1604,
      "ęğĕ": 1605,
      "ęėęęęęė": 1606,
      "ęĘĜĚęęě": 1607,
      "ĀĀĔĀĞ": 1608,
      "ěĘęęĝ": 1609,
      "ĜĚęęĝ": 1610,
      "ĖĘęęĕ": 1611,
      "ĜĘęęĝ": 1612,
      "ĀĀđĀě": 1613,
      "ęĘęęęęęęęęęęęęęęęęęęęę": 1614,
      "ĀĀ(Ā": 1615,
      "\"\"": 1616,
      "$ğ": 1617,
      "ĒęęĜ": 1618,
      "ēęę": 1619,
      "ğĜ": 1620,
      "ęĚęĖęęĚ": 1621,
      "ęęĘĜęęĘ": 1622,
      "ęęĘĚęęĘę": 1623,
      "ęęęęęęęęĚĚ": 1624,
      "ęęęĚęęęęĘĘ": 1625,
      "ęĖĒ": 1626,
      "ęĚęęęęęęě": 1627,
      "ęĕĒ": 1628,
      "ęĚĚęęęĜ": 1629,
      "ęĘĘĘęęęęĚ": 1630,
      "ęĘĚĜęęĚ": 1631,
      "ęęęęęęęęęęęęęĚęęęę": 1632,
      "ęĚėěęęė": 1633,
      "ęěĘęęęĚ": 1634,
      "ęěėęęęė": 1635,
      "ĀĀĝĀĞ": 1636,
      "ęĜĚęęęĚ": 1637,
      "ęĘĜĚęęĚ": 1638,
      "ęĖĘĚęęęę": 1639,
      "ęĚĖĚęęĘ": 1640,
      "ĀĀĞĀĕ": 1641,
      "ěěęęĜ": 1642,
      "ęęęęĚĚĘęęĚ": 1643,
      "ĀĀďĀė": 1644,
      "ęĘęĚęęĚę": 1645,
      "\"Ę": 1646,
      "#ĝ": 1647,
      "ēęęĝ": 1648,
      "ėęęęĚ": 1649,
      "ėĚęęė": 1650,
      "ěĀĀ": 1651,
      "Ġ$": 1652,
      "ĠĀĖ": 1653,
      "ęĚĚęęęęĚ": 1654,
      "ęĘėęęĘ": 1655,
      "ęęĘĚęęęęĚ": 1656,
      "ęęĚĚęęęęĘ": 1657,
      "ęęěęęĚ": 1658,
      "ęĘęęęęĘęęĘ": 1659,
      "ĀĀĘĀĒ": 1660,
      "ĀĀĚĀĒ": 1661,
      "ęėėĘęęęę": 1662,
      "ĖęęĚę": 1663,
      "ęěęęęęęęĚ": 1664,
      "ĀĀĕĀĞ": 1665,
      "ęěĜęęęĚ": 1666,
      "ęėĖĚęęĘ": 1667,
      "ęĜěęęęĚ": 1668,
      "ęĘęĚęęĘę": 1669,
      "$ĝ": 1670,
      "ďė": 1671,
      "Đĝ": 1672,
      "ēē": 1673,
      "ĖĚęęė": 1674,
      "Ėęę!": 1675,
      "ěěęęě": 1676,
      "ĜĚęęě": 1677,
      "Ğĕ": 1678,
      "ğęęĖ": 1679,
      "ęĚęĜęęĘ": 1680,
      "ęĘđ": 1681,
      "ęĘęęĕ": 1682,
      "ęėęĚęęě": 1683,
      "ĚęęęęęęĘęęęę": 1684,
      "ęęęĚęęęęęęęęęęę": 1685,
      "ęęĖĘęęė": 1686,
      "ęĚĚęęęė": 1687,
      "ęĞęęĘ": 1688,
      "ęĞęęĚ": 1689,
      "ęĘėĘęęė": 1690,
      "ęĘėĜęęĘ": 1691,
      "ęėĘĘęęĚ": 1692,
      "ęėĘęęęė": 1693,
      "ĀĀĖĀĒ": 1694,
      "ęĘĜĘęęĚ": 1695,
      "ęĖĘęęęĚ": 1696,
      "ęĖĘĚęęĘ": 1697,
      "ęĚĖĘęęė": 1698,
      "ĀĀĒĀė": 1699,
      "ĔęęęęĘ": 1700,
      "ě!": 1701,
      "ĜėęęĚ": 1702,
      "ĠęęĖ": 1703,
      "ęęęęęęĘę": 1704,
      "ęĘĜęęęę": 1705,
      "ęěĜęęęę": 1706,
      "ęėęęĖ": 1707,
      "ęėęĚęęęęĘ": 1708,
      "ęęęęęęęęĘĘ": 1709,
      "ęęěěęęęę": 1710,
      "ęĝē": 1711,
      "ęĚĚĚęęęęĘ": 1712,
      "ęĘĘęęęě": 1713,
      "ęĚěėęęě": 1714,
      "ęěĘěęęĘ": 1715,
      "ęėĘěęęęę": 1716,
      "ęėęęęęęę": 1717,
      "ĀĀĕĀĔ": 1718,
      "ėĘęęĕ": 1719,
      "ęĘĖĚęęė": 1720,
      "ęĚĖęęęė": 1721,
      "ęĖėęęęĘ": 1722,
      "ĖĚęęĕ": 1723,
      "Ėęęē": 1724,
      "ėĔ": 1725,
      "Ġęęĝ": 1726,
      "ĠĀĚ": 1727,
      "ęęęęęęĚę": 1728,
      "ęĘęĜ": 1729,
      "ęęĘĖęęęę": 1730,
      "ęěĚęęęęę": 1731,
      "ęęėęęęĘę": 1732,
      "ęęęĘęęĖ": 1733,
      "ęĘęęęęĚęęĘ": 1734,
      "ęĚĚėęęĘ": 1735,
      "ęęęęĘę": 1736,
      "ęęęęĘęĘęęęę": 1737,
      "ęęęęĚęĚęęęę": 1738,
      "ęĘĚěęęě": 1739,
      "ęĔē": 1740,
      "ęĘėĘęęęę": 1741,
      "ĀĀěĀğ": 1742,
      "ęęęĖęęĘ": 1743,
      "ěĚęęęĚ": 1744,
      "ęĜĚĘęęĘ": 1745,
      "ęĒĖ": 1746,
      "ęĜěĚęęĚ": 1747,
      "ĀĀēĀĖ": 1748,
      "ĀĀ!ĀĚ": 1749,
      "ĀĀĐĀĘ": 1750,
      "ĀĀ\"Āė": 1751,
      "\"ĀĀ": 1752,
      "ėē": 1753,
      "ėĘęęĚ": 1754,
      "ėęę!": 1755,
      "Ęěęęęę": 1756,
      "ĚěęęĚ": 1757,
      "ğęęě": 1758,
      "ęĚĚęęĘ": 1759,
      "ęĚĘęęęęĘ": 1760,
      "ęĚęĘęęęęęęęę": 1761,
      "ęĘęęęĚ": 1762,
      "ęęĚĚęęęęĚ": 1763,
      "ęěęĖęęĚ": 1764,
      "ęėęėęęęę": 1765,
      "ęęėĖęęĘ": 1766,
      "ęĜĒ": 1767,
      "ęĖęĚęęĘ": 1768,
      "ęĚęęęęęęęĚęęęę": 1769,
      "ęĘęęęęĚęęĚ": 1770,
      "ęĘĘěęęė": 1771,
      "ęĘĘĚęęęęĘ": 1772,
      "ęĘĚęęęęęęęęęęęę": 1773,
      "ęĚěęęĚ": 1774,
      "ęėĚėęęĚ": 1775,
      "ęėĚĜęęĚ": 1776,
      "ęěěěęęĚ": 1777,
      "ĘęęęęĚĚęęęę": 1778,
      "ęėěęęęě": 1779,
      "ėĘĚęęęę": 1780,
      "ęěĜęęęě": 1781,
      "ĀĀēĀě": 1782,
      "ĀĀĒĀĜ": 1783,
      "ęĖęęęęě": 1784,
      "ĀĀ!Āė": 1785,
      "ĀĀđĀĜ": 1786,
      "ĝĚęęĝ": 1787,
      "ĀĀĐĀě": 1788,
      "ďĕ": 1789,
      "đęęě": 1790,
      "ěĜęęĚ": 1791,
      "ĜĚęęęę": 1792,
      "ĝęęĔ": 1793,
      "Ğęęĕ": 1794,
      "ĠĀĜ": 1795,
      "ęĘęęĔ": 1796,
      "ęĘĘęęęęĘ": 1797,
      "ęęĘĖęęĘ": 1798,
      "ęęĚęęęĜ": 1799,
      "ęęĚĘęęęęĚ": 1800,
      "ęęĚĚęęĚę": 1801,
      "ęęėĘęęĚ": 1802,
      "ęęėěęęė": 1803,
      "ĚęęęęęęęĘ": 1804,
      "ęĖęĘęęĚ": 1805,
      "ęęĖėęęĘ": 1806,
      "ęĚĘėęęĚ": 1807,
      "ęĘĚėęęě": 1808,
      "ęĘĚĚęęĚę": 1809,
      "ęęęęęęęęęęęęęę": 1810,
      "ęĚěĖęęĚ": 1811,
      "ęĘěĘęęęę": 1812,
      "ęęęęęęęęęęęęęęęęęęęęęęęęęęęęę": 1813,
      "ęēĔ": 1814,
      "ęĚĜėęęĚ": 1815,
      "ęėĖĘęęĘ": 1816,
      "ĀĀĒĀĕ": 1817,
      "ĀĀđĀĘ": 1818,
      "ĝĚęęĞ": 1819,
      "!ĕ": 1820,
      "#ě": 1821,
      "ďĚ": 1822,
      "ĒĔ": 1823,
      "Ēę": 1824,
      "ėęęęĖ": 1825,
      "Ęęę!": 1826,
      "ĚĘęęĘ": 1827,
      "Ěěęęęę": 1828,
      "ĝĕ": 1829,
      "Ġē": 1830,
      "ęĘ!": 1831,
      "ęęĘĘęęęęĚ": 1832,
      "ęęĘęęęęęęęęęęę": 1833,
      "ęėĖęęęę": 1834,
      "ĘęęęęęęĘęęęę": 1835,
      "ęęęĚęęĜ": 1836,
      "ęĖęĚęęĚ": 1837,
      "ęĝęęė": 1838,
      "ęĚĚěęęĘ": 1839,
      "ęĚĚĚęęĚę": 1840,
      "ęĘĚĜęęęę": 1841,
      "ęĘĚĚęęęęĘ": 1842,
      "ęĘėėęęĘ": 1843,
      "ęĚėęęęĖ": 1844,
      "ęĘěĜęęĚ": 1845,
      "ĀĀĖĀē": 1846,
      "ĀĀĖĀğ": 1847,
      "ĀĀĜĀĒ": 1848,
      "ęĖĘĚęęĚ": 1849,
      "ĀĀğĀĕ": 1850,
      "ėėęęĖ": 1851,
      "ĀĀ*Ā": 1852,
      "\"#": 1853,
      "Ďė": 1854,
      "ďĘ": 1855,
      "đĒ": 1856,
      "ĖęęęęĘĚ": 1857,
      "ėĜęęĘ": 1858,
      "ĘĚęęė": 1859,
      "ěėęęęę": 1860,
      "ěęęĒ": 1861,
      "ĜĜęęĚ": 1862,
      "ĠĀĝ": 1863,
      "ęĚęĖęęĘ": 1864,
      "ęěęĘęęęęĘ": 1865,
      "ęěęĘęęė": 1866,
      "ęęěęęęĚę": 1867,
      "Ęęęęęęęė": 1868,
      "ęĜęĘęęĚ": 1869,
      "ęĜęĘęęė": 1870,
      "ęĚęęęęĚęęęę": 1871,
      "ęĘĘĚęęęęĚ": 1872,
      "ęĘĚęęęĜ": 1873,
      "ęĘĚĖęęĚ": 1874,
      "ęĘĚĘęęĚę": 1875,
      "ęęĕęęęĘ": 1876,
      "ęęęď": 1877,
      "ęĚěĚęęě": 1878,
      "ęěĘĚęęė": 1879,
      "ęĘěěęęęę": 1880,
      "ĀĀěĀĒ": 1881,
      "ęėėĘęęė": 1882,
      "ęěėĘęęė": 1883,
      "ĀĀĝĀĝ": 1884,
      "ėĚĚęęĚ": 1885,
      "ęĜĚęęęĘ": 1886,
      "ěĘĘęęęę": 1887,
      "ęęęęĘĘĚęęęę": 1888,
      "ĀĀēĀĔ": 1889,
      "ęĖěęęęĚ": 1890,
      "ęĜėĘęęė": 1891,
      "ĀĀ!Āě": 1892,
      "ĀĀđĀĚ": 1893,
      "ęĚęęęęęęęęęęęęęęęęęęęę": 1894,
      "!Ė": 1895,
      "!ęęĘ": 1896,
      "#Ě": 1897,
      "ĎĚ": 1898,
      "ĐĔ": 1899,
      "Ęĕ": 1900,
      "ĠęęęĜ": 1901,
      "ęęęęė": 1902,
      "ęĚęĔ": 1903,
      "ęĘĘęęĚ": 1904,
      "ęĘęĜęęĚ": 1905,
      "ęęĚěęęĘ": 1906,
      "ęěęĕ": 1907,
      "ęęęęęęęęĚĘ": 1908,
      "ęęęĘęęęęęęęęęęę": 1909,
      "ęęęĚęęęęęęęęęęęę": 1910,
      "ęĖęęĖ": 1911,
      "ęĖęęĜ": 1912,
      "ęĚĘęęęęęęęęęęęę": 1913,
      "ęĚĘėęęė": 1914,
      "ęĘĚĘęęęęĘ": 1915,
      "ęĘĚĘęęęęĚ": 1916,
      "ęĘĚęęęĚęęĚ": 1917,
      "ęĘėęęęĚ": 1918,
      "ęėĘĚęęė": 1919,
      "ěĚĚęęęę": 1920,
      "ĀĀĕĀğ": 1921,
      "ęėěĘęęě": 1922,
      "ęĚĜĘęęě": 1923,
      "ėĚęęęĚ": 1924,
      "ėĘęęęĘ": 1925,
      "ěĘęęęĘ": 1926,
      "ęęęęĚĚĘęęęę": 1927,
      "ĀĀēĀĝ": 1928,
      "ęĜėęęęĘ": 1929,
      "ęĜęęęęė": 1930,
      "ęĚęĘęęĚę": 1931,
      "ĖėęęĘ": 1932,
      "ėěęęęę": 1933,
      "ěęě": 1934,
      "ěęęęĜ": 1935,
      "ěėęęě": 1936,
      "ĜĔ": 1937,
      "ĝĀĀ": 1938,
      "ĝĘęęě": 1939,
      "ęĚęĚęęęęęęęę": 1940,
      "ęĘĚęęęęĚ": 1941,
      "ęęĘėęęĚ": 1942,
      "ęęĖęęĚ": 1943,
      "ęĚĘęęęĖ": 1944,
      "ęĚĘĘęęęęĘ": 1945,
      "ęęĔę": 1946,
      "ęĚėĚęęęę": 1947,
      "ęĘěęęęĜ": 1948,
      "ęĘěėęęě": 1949,
      "ęėĘĘęęė": 1950,
      "ęėĘěęęė": 1951,
      "ęėĚĚęęĘ": 1952,
      "ėęęěę": 1953,
      "ėĚęęĕ": 1954,
      "ėĘĚęęĘ": 1955,
      "ęĖĚęęęě": 1956,
      "ęĖĚěęęĚ": 1957,
      "ĚęęĜę": 1958,
      "ęėĖęęęė": 1959,
      "ęěĖĘęęė": 1960,
      "ęĖěĚęęĚ": 1961,
      "ĀĀ!ĀĖ": 1962,
      "ĀĀĐĀĚ": 1963,
      "ĀĀ\"ĀĘ": 1964,
      "ĀĀ#ĀĘ": 1965,
      "ęĘėęęęęę": 1966,
      "ęĘęĘęęĚę": 1967,
      "ęĚęĘęęĘę": 1968,
      "ĀĀ)Ā": 1969,
      "\"ė": 1970,
      "Ēđ": 1971,
      "ĕĘęęĘ": 1972,
      "ĖĘęęė": 1973,
      "ėěęęė": 1974,
      "ĘĀĀ": 1975,
      "ĘĘęęĚ": 1976,
      "ěĜęęęę": 1977,
      "ĜĘęęęę": 1978,
      "ĜęęęęĘĚ": 1979,
      "ĠĒ": 1980,
      "ęę&": 1981,
      "ęĚ!": 1982,
      "ęĚęĚ": 1983,
      "ęęĘėęęė": 1984,
      "ęě!": 1985,
      "ęěęě": 1986,
      "ęěęĘęęě": 1987,
      "ęęėęęęĚ": 1988,
      "ęĖęĚęęęę": 1989,
      "ęĘęęęęęęęĘęęęę": 1990,
      "ęĝĒ": 1991,
      "ęĘĘĘęęęęĘ": 1992,
      "ęĚĘęęęě": 1993,
      "ęĚěėęęęę": 1994,
      "ęĚěęęęĜ": 1995,
      "ęěĚĖęęĚ": 1996,
      "ęĚėėęęė": 1997,
      "ęēęęęę": 1998,
      "ĘęęęęĘę": 1999,
      "ęěěĚęęě": 2000,
      "ĘęęęęĚę": 2001,
      "ęĜĘęęęė": 2002,
      "ęėĖěęęĘ": 2003,
      "ęěĖęęęė": 2004,
      "ĀĀĒĀĝ": 2005,
      "ĀĀđĀĖ": 2006,
      "ĕĚęęĔ": 2007,
      "ęęĘĘęęęęę": 2008,
      "ĀĀ$ĀĘ": 2009,
      "ĀĀ%ĀĜ": 2010,
      "ēęęĔ": 2011,
      "ĕęęęĘ": 2012,
      "ĕĚęęė": 2013,
      "ĖĘęęęę": 2014,
      "ĖęęęĖ": 2015,
      "Ėěęęė": 2016,
      "ĘĖ": 2017,
      "ĚĚęęĘ": 2018,
      "ĚĚęęě": 2019,
      "ě\"": 2020,
      "Ĝęęē": 2021,
      "ĜęęęęĚĘ": 2022,
      "ĝĚęęĚ": 2023,
      "ęĘęĕ": 2024,
      "ęĘęęĝ": 2025,
      "ęęĚĚęęė": 2026,
      "ęęĚėęęě": 2027,
      "ęěėęęĚ": 2028,
      "ęėĘęęęęę": 2029,
      "ęęěĚęęĜ": 2030,
      "ęęęĚęęęęĘĚ": 2031,
      "ęĜ!": 2032,
      "ęęĜęęĘ": 2033,
      "ęĘęęęęęęĚęęęęęę": 2034,
      "ęĚĚĖęęęę": 2035,
      "ęĚĚĜęęĚ": 2036,
      "ęĘĘęęęĖ": 2037,
      "ęĘĘĜęęęę": 2038,
      "ęĚĘĚęęęęĚ": 2039,
      "ęĚĘęęęĘęęĘ": 2040,
      "ęĚĘĚęęĘę": 2041,
      "ęęĕęęęė": 2042,
      "ęěĚĚęęě": 2043,
      "ęėĘėęęĘ": 2044,
      "ĚęęęęĘę": 2045,
      "ĘęęĜę": 2046,
      "ęĚĜĚęęĚ": 2047,
      "ęĜĚĘęęęę": 2048,
      "ĀĀĔĀĔ": 2049,
      "ĀĀĞĀĝ": 2050,
      "ęĜěĘęęě": 2051,
      "ĀĀğĀĝ": 2052,
      "ęĖėĘęęĘ": 2053,
      "ęĖěĘęęĚ": 2054,
      "ĀĀĒĀĚ": 2055,
      "ĀĀ!Āĝ": 2056,
      "ęĚęėęęě": 2057,
      "ĕĘęęĔ": 2058,
      "ĞĚęęĞ": 2059,
      "ęėęęęęĚę": 2060,
      "ęĚęĘęęĖ": 2061,
      "ĒĐ": 2062,
      "ēĐ": 2063,
      "ĕęęğ": 2064,
      "ėęęĒ": 2065,
      "ėĕęęĘ": 2066,
      "ĘĔ": 2067,
      "ěęĚęęęę": 2068,
      "ĜĘęęĜ": 2069,
      "ğĀĀ": 2070,
      "ęĘęĖęęęę": 2071,
      "ęĘęĜęęĘ": 2072,
      "ęęėěęęęę": 2073,
      "ęęęĚęęĖ": 2074,
      "ęĚęęęęęęĘęęęęęę": 2075,
      "ęĘĘĚęęě": 2076,
      "ęĚĘĖęęĘ": 2077,
      "ęğĔ": 2078,
      "ęęęĚęęęęęęĚęęęę": 2079,
      "ĘęęęęĚęĘęęęę": 2080,
      "ęėěĚęęęę": 2081,
      "ęĖĘĘęęĘ": 2082,
      "ęĚĖěęęė": 2083,
      "ęęĚęęęĚęęĘ": 2084,
      "ęęĚęęęĚęęĚ": 2085,
      "ęęęęĘĘĘęęęę": 2086,
      "ĀĀ!ĀĜ": 2087,
      "ĀĀđĀė": 2088,
      "!#": 2089,
      "ĎĖ": 2090,
      "Đē": 2091,
      "đđ": 2092,
      "ĕęęęė": 2093,
      "Ĝěęęě": 2094,
      "Ğęęĝ": 2095,
      "ğĘ": 2096,
      "ĠĀĀęĀ": 2097,
      "ęĘĚęęĘę": 2098,
      "ęěęěęęĘ": 2099,
      "ęěęĚęęė": 2100,
      "ęėęĚęęęęĚ": 2101,
      "ęęėęęęĖ": 2102,
      "ęęěęęęĜ": 2103,
      "ęĜęęĜ": 2104,
      "ęĖęě": 2105,
      "ęęĜęęęĜ": 2106,
      "ęĝęęě": 2107,
      "ęĚĘĖęęęę": 2108,
      "ęĚěęęęĚę": 2109,
      "ęěĚěęęĚ": 2110,
      "ęĘėėęęęę": 2111,
      "ęěĘĖęęĘ": 2112,
      "ęėĚęęęĚę": 2113,
      "ęėėěęęęę": 2114,
      "ĚęęęęĘęĚęęęę": 2115,
      "ęěėęęęĖ": 2116,
      "ęėěěęęĚ": 2117,
      "ėĚĚęęęę": 2118,
      "ěĘĘęęĘ": 2119,
      "ĀĀēĀĕ": 2120,
      "ėėĚęęĘ": 2121,
      "Ĝěęęĝ": 2122,
      "ęĜęęęęě": 2123,
      "ĀĀ\"ĀĖ": 2124,
      "ęĚęĚęęĚę": 2125,
      "ďĖ": 2126,
      "ĕĚęęĘ": 2127,
      "ĕęęē": 2128,
      "ĕęęęĖ": 2129,
      "ėđ": 2130,
      "ėėęęĚ": 2131,
      "ėĖęęęę": 2132,
      "ėęęęĘę": 2133,
      "ę'": 2134,
      "ĚĘęęě": 2135,
      "ěęęęĚę": 2136,
      "Ĝėęęě": 2137,
      "ĞĀĀ": 2138,
      "ęę'": 2139,
      "ęĚęěęęė": 2140,
      "ęĘęĖęęĚ": 2141,
      "ęęĘĘęęě": 2142,
      "ęęĘĚęęĖ": 2143,
      "ęęĚĜęęęę": 2144,
      "ęėęĘęęęęĚ": 2145,
      "ęėęĘęęě": 2146,
      "ęėęĚęęė": 2147,
      "ęęęęęęęęęęĘęęęę": 2148,
      "ĘęęęęęęęĘ": 2149,
      "Ěęęęęęęė": 2150,
      "ĚęęęęęęĚęęęę": 2151,
      "ęĜęėęęĘ": 2152,
      "ęęĖėęęė": 2153,
      "ęĚęęęęĘęęĚ": 2154,
      "ęĚęęęęęęęĘęęęę": 2155,
      "ęĚĚĚęęęęĚ": 2156,
      "ęĚĚěęęě": 2157,
      "ęĘĚęęęė": 2158,
      "ęĘĚĘęęĜ": 2159,
      "ęęĝęęęě": 2160,
      "ėęęęęę": 2161,
      "ęĚěěęęě": 2162,
      "ęěĚėęęĘ": 2163,
      "ęĚėęęęĘę": 2164,
      "ęěĘĚęęĚ": 2165,
      "ęĘěĖęęĚ": 2166,
      "ęėĚěęęě": 2167,
      "ęęęĘęęęęęęĘę": 2168,
      "ęėėěęęė": 2169,
      "ęęęĚęęęęęęĘę": 2170,
      "ęěėěęęĘ": 2171,
      "ęĖĚĚęęęę": 2172,
      "ęĖĚĘęęĚ": 2173,
      "ęĜĘėęęĘ": 2174,
      "ęĒĔ": 2175,
      "ęěĜĘęęě": 2176,
      "ĀĀğĀĔ": 2177,
      "ęĖėĚęęĘ": 2178,
      "ęěĖĚęęė": 2179,
      "ęėĜĘęęĚ": 2180,
      "ęėĜęęęě": 2181,
      "Ėěęęĕ": 2182,
      "ĜĜęęĜ": 2183,
      "ĀĀĐĀĖ": 2184,
      "ęĘęęęęęęęęęęęĚ": 2185,
      "ĀĀďĀĘ": 2186,
      "ĕď": 2187,
      "ĖĖęęĘ": 2188,
      "ĖęęęęĚĚ": 2189,
      "ėę": 2190,
      "ěĘęęĘ": 2191,
      "ĜęęęĜ": 2192,
      "ĝĔ": 2193,
      "Ġęęē": 2194,
      "ęĚęĚęęĘę": 2195,
      "ęęĘěęęė": 2196,
      "ęęĘĘęęĖ": 2197,
      "ęęĚĘęęĜ": 2198,
      "ęě\"": 2199,
      "ęėęęĕ": 2200,
      "ęėęĘęęė": 2201,
      "Ęęęęęě": 2202,
      "ęĚęęęęĚęęĚ": 2203,
      "ęĘęęęęęęĘęęęęęę": 2204,
      "ęĝ!": 2205,
      "ęĝęęęęĚ": 2206,
      "ęĕęęęęĚ": 2207,
      "ęĘĘĖęęĘ": 2208,
      "ęęęěęęė": 2209,
      "ęęęęęęęęęęęęęęęĚ": 2210,
      "ęĔĒ": 2211,
      "ęěĚęęęė": 2212,
      "ęĘėęęęĘę": 2213,
      "ęĘėĜęęė": 2214,
      "ęĚėęęęĚ": 2215,
      "ęěĘėęęĚ": 2216,
      "ęėĘěęęĚ": 2217,
      "ęėĘĜęęĘ": 2218,
      "ęėėĜęęĘ": 2219,
      "ęęęĚęęęęęęĘęęęę": 2220,
      "ęěėĚęęė": 2221,
      "ęĚĜĚęęě": 2222,
      "ęĘĖĘęęė": 2223,
      "ęĜĘĚęęĘ": 2224,
      "ĀĀĔĀğ": 2225,
      "ęĚĖĚęęė": 2226,
      "ěĘęęĞ": 2227,
      "ĀĀĞĀĞ": 2228,
      "ĀĀĞĀē": 2229,
      "ęĜěĘęęĚ": 2230,
      "ęĖėęęęė": 2231,
      "ęėĜęęęĚ": 2232,
      "ęĜėĚęęė": 2233,
      "ęĜĜĘęęĚ": 2234,
      "ęĜĜėęęĚ": 2235,
      "ĀĀ!Āĕ": 2236,
      "ęęėęęęęęęĚ": 2237,
      "ĀĀ\"Āě": 2238,
      "ĀĀ#ĀĖ": 2239,
      "#Ĝ": 2240,
      "$Ě": 2241,
      "ēđ": 2242,
      "ĔęęęęĚ": 2243,
      "ĖĚęęęę": 2244,
      "ėĀĀ": 2245,
      "ėęě": 2246,
      "ėęĜ": 2247,
      "Ęęęęė": 2248,
      "ęĀĀĘĀ": 2249,
      "Ěėęęęę": 2250,
      "ĚęęĒ": 2251,
      "ěęęęĘ": 2252,
      "Ğ!": 2253,
      "ęĚęęęĘ": 2254,
      "ęĚĘęęęęĚ": 2255,
      "ęĚĘęęĚę": 2256,
      "ęĚęĜęęęę": 2257,
      "ęĘęěęęęęĘ": 2258,
      "ęĘęėęęě": 2259,
      "ęęĘęęęęĚ": 2260,
      "ęęĚęęęė": 2261,
      "ęęĚĜęęĚ": 2262,
      "ęęĚęęęęęęęęęęę": 2263,
      "ęěđ": 2264,
      "ęėėęęĘ": 2265,
      "ęėęĜęęĚ": 2266,
      "ęęęęęęęęęęĚęęęę": 2267,
      "ęęĜėęęě": 2268,
      "ęĚęęęęĚęęĘ": 2269,
      "ęĕęęęęĘ": 2270,
      "ęĚĘĚęęĖ": 2271,
      "ęęęěęęęęĚ": 2272,
      "ęěĚėęęě": 2273,
      "ęĘėěęęęę": 2274,
      "ęĚėėęęęę": 2275,
      "ęěĘėęęė": 2276,
      "ęėĚĘęęě": 2277,
      "ęęęĘęęęęęęĘęęęę": 2278,
      "Ėęęęęě": 2279,
      "ęėěěęęě": 2280,
      "ęĚĜęęęĜ": 2281,
      "ęĘĖěęęĘ": 2282,
      "ęĜĚėęęĘ": 2283,
      "ęĘĜęęęĜ": 2284,
      "ęĜĘĘęęęę": 2285,
      "ęĒĕ": 2286,
      "ęęęĕęęĚ": 2287,
      "ěěęęĝ": 2288,
      "ęęęęĘĚęęęĚ": 2289,
      "ęėĜĚęęĚ": 2290,
      "ęĜėĚęęĘ": 2291,
      "ęĜėęęęė": 2292,
      "ęęęĘęęĘĚęęĘ": 2293,
      "ĀĀĒĀĔ": 2294,
      "ęĚęėęęęęĘ": 2295,
      "ĀĀ+Ā": 2296,
      "#Ę": 2297,
      "%Ğ": 2298,
      "ēęęğ": 2299,
      "ĖĀĀ": 2300,
      "Ėěęęęę": 2301,
      "Ėėęęė": 2302,
      "ĜęęęęĘĘ": 2303,
      "ĜęęęęĚĚ": 2304,
      "ĝĘęęĚ": 2305,
      "ĝĚęęě": 2306,
      "ęęęęęęĖ": 2307,
      "ęĚĚęęęęĘ": 2308,
      "ęĘęĖ": 2309,
      "ęĘęęęęęęęęęęęęęęęę": 2310,
      "ęĘĘęęęęĚ": 2311,
      "ęĘęėęęė": 2312,
      "ęěęĚęęęęĚ": 2313,
      "ęěęĖęęęę": 2314,
      "ęěęĖęęĘ": 2315,
      "ęėęęĝ": 2316,
      "ęėęĜęęęę": 2317,
      "ęėęėęęĘ": 2318,
      "ęęěĚęęĘ": 2319,
      "ĘęęęęęęęĚ": 2320,
      "ĚęęęęęęęĚ": 2321,
      "ęĜęėęęęę": 2322,
      "ęĜęĚęęĘ": 2323,
      "ęęĜěęęĚ": 2324,
      "ęĚęęęęęęęĚęęęęę": 2325,
      "ęĝęęęęĘ": 2326,
      "ęĕęĚęęĚ": 2327,
      "ęęęěęęě": 2328,
      "ėęęęęęęĚ": 2329,
      "ĀĀęĀĚĚ": 2330,
      "ęĚěęęęĘ": 2331,
      "ęĚěĘęęĜ": 2332,
      "ęĘėęęęĖ": 2333,
      "ęėĚĘęęĘ": 2334,
      "ęęęĘęęęęęęĚęęęę": 2335,
      "ęęęĘęęęęęęĚę": 2336,
      "ĘęęęęĘĚęęęę": 2337,
      "ęěěĖęęĚ": 2338,
      "ęěęęęęĜ": 2339,
      "ěĚęęĖ": 2340,
      "ęĘĘęęęęęĚĚęęęę": 2341,
      "ęĜĚĘęęě": 2342,
      "ęĖĚĚęęě": 2343,
      "ęĘęęęęĘęęęęęęęę": 2344,
      "ęĒė": 2345,
      "ėěęęĕ": 2346,
      "ęĜěėęęĚ": 2347,
      "ęĜėĘęęĘ": 2348,
      "ĀĀ$Āě": 2349,
      "ęĚěęęęęę": 2350,
      "ĘęęęęęęęęęęęĘ": 2351,
      "ĀĀ&Āě": 2352,
      "!ęęęę": 2353,
      "\"ĕ": 2354,
      "$Ę": 2355,
      "$ě": 2356,
      "ďě": 2357,
      "ĐęęĚ": 2358,
      "đĐ": 2359,
      "Ēęęĕ": 2360,
      "Ĕęęęė": 2361,
      "Ĕęęğ": 2362,
      "ĚĜęęęę": 2363,
      "ĠĀĕ": 2364,
      "ęĚđ": 2365,
      "ęĘęěęęęęĚ": 2366,
      "ĀĀĄ": 2367,
      "ęěęěęęęę": 2368,
      "ęė!": 2369,
      "ęėęęĘę": 2370,
      "ęęėĜęęĘ": 2371,
      "ęęėėęęė": 2372,
      "ęęėĘęęĖ": 2373,
      "ęęėĚęęĘę": 2374,
      "ęęěęęęęĚ": 2375,
      "ęęěĜęęĚ": 2376,
      "ęęęĘęęęęĘĘ": 2377,
      "ęĜĚęęĚ": 2378,
      "ęĖěęęęę": 2379,
      "ęĚęęęęĖ": 2380,
      "ęĚęęęęęęęĘęęęęę": 2381,
      "ęĘęęęęĖ": 2382,
      "ęĘęęęęęęęĚęęęę": 2383,
      "ęĕėęęęę": 2384,
      "ęĘĘęęęęęęęę": 2385,
      "ęĘĘĘęęĘę": 2386,
      "ęęĕęęęę": 2387,
      "ęěĚĖęęęę": 2388,
      "ęěĘęęęĘę": 2389,
      "ęĘěěęęě": 2390,
      "ęĘěĚęęĜ": 2391,
      "ęėĘęęęĘę": 2392,
      "ęēĞ": 2393,
      "ęēęęĘ": 2394,
      "ěęęėę": 2395,
      "ęěěĚęęęę": 2396,
      "ĚęęęęĚę": 2397,
      "ĀĀĕĀē": 2398,
      "ėĚęęĔ": 2399,
      "ęĘęęęęĚęęęęęęęę": 2400,
      "ęĘĖęęęĖ": 2401,
      "ęĜĚĚęęĚ": 2402,
      "ęĜĚęęęě": 2403,
      "ęĖĚěęęęę": 2404,
      "ęĚĖěęęĘ": 2405,
      "ĀĀĞĀĔ": 2406,
      "ěěęęęĚ": 2407,
      "ęėĖĚęęė": 2408,
      "ęĖěęęęě": 2409,
      "ĀĀ\"ĀĚ": 2410,
      "ĔĚęęĔ": 2411,
      "ĀĀ%Āě": 2412,
      "ĀĀĎĀě": 2413,
      "ĚęęęęęęęęęęęĚ": 2414,
      "ğĚęęĞ": 2415,
      "\"ę": 2416,
      "ďĔ": 2417,
      "ĖĘęęĖ": 2418,
      "ėėęęė": 2419,
      "ėĝęęĘ": 2420,
      "ĘĚęęĚ": 2421,
      "ĘęęęĖ": 2422,
      "Ęėęęė": 2423,
      "ęĀĀęĀ": 2424,
      "Ěęě": 2425,
      "ĚĜęęĚ": 2426,
      "ěėęęĜ": 2427,
      "ěĜęęě": 2428,
      "ĝęęęě": 2429,
      "ĝęęē": 2430,
      "ğě": 2431,
      "ĠęĖ": 2432,
      "ĠĘęęĝ": 2433,
      "ĠĀĀĚĀ": 2434,
      "ęĚęęęęęęęęęęęęęęęę": 2435,
      "ęĘĘęęĘę": 2436,
      "ęĘęĖęęĘ": 2437,
      "ęęĘĚęęęęĘ": 2438,
      "ęěęĖ": 2439,
      "ęėęęĚę": 2440,
      "ęėęėęęĚ": 2441,
      "ęęěĘęęĘ": 2442,
      "Ęęęęęęęě": 2443,
      "ęęęĘęęĚęęęę": 2444,
      "ęĜėęęęę": 2445,
      "ęęĜěęęě": 2446,
      "ęĝęĘęęĘ": 2447,
      "ęĘĘĝęęĘ": 2448,
      "ęĚĘĚęęęęĘ": 2449,
      "ęĚĘęęęĘęęĚ": 2450,
      "ėęęęęėĘ": 2451,
      "ĀĀĘĀĚĚ": 2452,
      "ęėĚėęęě": 2453,
      "ęėėėęęĘ": 2454,
      "ęėėĚęęĖ": 2455,
      "ĘęęęęĘĘęęęę": 2456,
      "Ėęęęęė": 2457,
      "ęėěęęęĜ": 2458,
      "ęĚęęęęĘęęęęęęęę": 2459,
      "ęĘĖěęęė": 2460,
      "ęĘĜėęęĚ": 2461,
      "ęĖĘěęęĘ": 2462,
      "ęěĖĚęęĘ": 2463,
      "ęėĜĚęęě": 2464,
      "ĜĘęęĞ": 2465,
      "ĀĀđĀĕ": 2466,
      "ęěĝęęęĚ": 2467,
      "ęĚęęęęęęęęęęęĚ": 2468,
      "ęěęęęęĘę": 2469,
      "ęĝėĘęęĘ": 2470,
      "ĀĀ%ĀĚ": 2471,
      "ęĘęěęęě": 2472,
      "ęĘęĘęęĖ": 2473,
      "Ďĕ": 2474,
      "ďĞ": 2475,
      "Đęęęę": 2476,
      "ĒĀĀ": 2477,
      "ēęęĞ": 2478,
      "ĔĚęęė": 2479,
      "Ėėęęęę": 2480,
      "ĖĜęęĘ": 2481,
      "ėĜęęęę": 2482,
      "ĘĘęęė": 2483,
      "Ěę": 2484,
      "ĚěęęĘ": 2485,
      "ěĘęęĚę": 2486,
      "Ĝěęęęę": 2487,
      "ĝ!": 2488,
      "ĝęęĞ": 2489,
      "ęĚęĜ": 2490,
      "ęĘęęęė": 2491,
      "ęĘęęęĘęęęęęęęę": 2492,
      "ęęĘěęęĖ": 2493,
      "ęęĚěęęě": 2494,
      "ęěęęĖ": 2495,
      "ęěěęęĚ": 2496,
      "ęėđ": 2497,
      "ęėęĜęęĘ": 2498,
      "ęęěęęęė": 2499,
      "Ěęęęęęęě": 2500,
      "ęĖĐ": 2501,
      "ęęĖěęęĘ": 2502,
      "ęĚęęęęęęĚęęęęęę": 2503,
      "ęĕĘęęęę": 2504,
      "ęĚĚęęęęęęęę": 2505,
      "ęĚĚĜęęęę": 2506,
      "ęĚĘĘęęě": 2507,
      "ęĘĚĚęęė": 2508,
      "ęĘĚęęęĚęęĘ": 2509,
      "ėęęęęěĚ": 2510,
      "ęęĘęęęęęęĘę": 2511,
      "ęĔęęĘ": 2512,
      "ĀĀĘĀĚĘ": 2513,
      "ęĚěĚęęĘ": 2514,
      "ęĘėĘęęĚ": 2515,
      "ĀĀĚĀĚĚ": 2516,
      "ęěĘĘęęĖ": 2517,
      "ęĘěęęęĘ": 2518,
      "ęėĘĜęęęę": 2519,
      "ęėĚĖęęĚ": 2520,
      "ęēğ": 2521,
      "ęēęęĚ": 2522,
      "ęěěęęęĘ": 2523,
      "ęěęęęęęęě": 2524,
      "ěĚęęĞ": 2525,
      "ęĜĚĚęęęę": 2526,
      "ĀĀĔĀē": 2527,
      "ęĚĖęęęĖ": 2528,
      "ęěĜėęęě": 2529,
      "ĀĀğĀĞ": 2530,
      "ĀĀğĀğ": 2531,
      "ęęęęĚĚĚęęęę": 2532,
      "ęęęęĚĚęęęĚ": 2533,
      "ę!Ě": 2534,
      "ĜĘęęğ": 2535,
      "ęĜĜęęęĚ": 2536,
      "ęĚĕęęęė": 2537,
      "ĀĀĐĀė": 2538,
      "ĀĀ&ĀĘ": 2539,
      "ęęęęęęęęęęęęęęęęęęęęęęęęęęęęęęęęę": 2540,
      "#\"": 2541,
      "$!": 2542,
      "đęęĕ": 2543,
      "ĒĎ": 2544,
      "Ēęęĝ": 2545,
      "ĕėęęė": 2546,
      "Ě\"": 2547,
      "Ěěęęě": 2548,
      "Ĝđ": 2549,
      "ĝěęęĚ": 2550,
      "Ġđ": 2551,
      "Ġęęĕ": 2552,
      "ęęęęęęĜ": 2553,
      "ęĚęęęě": 2554,
      "ęĚęęĔ": 2555,
      "ęĚęěęęęęĚ": 2556,
      "ęĘĜęęĘ": 2557,
      "ęĘęęęĘęęĘ": 2558,
      "ęĘęĘęęęęęęęę": 2559,
      "ęęĘĜęęęę": 2560,
      "ęęĚĘęęė": 2561,
      "ęěęĘęęęęĚ": 2562,
      "ęěęěęęĚ": 2563,
      "ęėęĜ": 2564,
      "ęęěęęęĘ": 2565,
      "ęęěĘęęĜ": 2566,
      "ĘęęęęėĘ": 2567,
      "ęĜĘęęĚ": 2568,
      "ęęĖęęęĖ": 2569,
      "ęĘęęęęĘęęęę": 2570,
      "ęĕęęė": 2571,
      "ęĚĚĖęęě": 2572,
      "ęĚĚĚęęĜ": 2573,
      "ęĚĚĕęęĚ": 2574,
      "ęĚĘĖęęĚ": 2575,
      "ęĚĘĘęęĖ": 2576,
      "ęĚěĘęęĘ": 2577,
      "ęĚěĜęęĚ": 2578,
      "ęěĚěęęęę": 2579,
      "ęĘėĚęęĚ": 2580,
      "ęĘėĘęęĖ": 2581,
      "ęĚėĚęęĖ": 2582,
      "ęěĘęęęĖ": 2583,
      "ęěĘěęęė": 2584,
      "ęėĘęęęě": 2585,
      "ęęēęĜ": 2586,
      "ęēē": 2587,
      "ęěėĖęęĘ": 2588,
      "ęĚĜĖęęĚ": 2589,
      "ęĘĜěęęě": 2590,
      "ęĖĘĚęęė": 2591,
      "ęĜĘĚęęė": 2592,
      "ęĚĖėęęĘ": 2593,
      "ęĚĖĖęęĘ": 2594,
      "ěĘĚęęĘ": 2595,
      "ęęęęĘĚěęęęę": 2596,
      "ęěĖĘęęĘ": 2597,
      "ęĕĚĘęęĚ": 2598,
      "ęęěęęęęęęĘ": 2599,
      "ęĝĘęęęĘ": 2600,
      "ęĘęĚęęĖ": 2601,
      "ęĕėĚęęĘ": 2602,
      "ĀĀďĀĚ": 2603,
      "ĀĀďĀě": 2604,
      "Ĝĝęęě": 2605,
      "ĔĘęęĔ": 2606,
      "ęĚęĘęęĜ": 2607,
      "$Ğ": 2608,
      "ďē": 2609,
      "Ĕē": 2610,
      "ĕĘęęė": 2611,
      "ĕęęĘę": 2612,
      "ĖĎ": 2613,
      "ĖęĜ": 2614,
      "Ėęĝ": 2615,
      "ėĚęęĚ": 2616,
      "ėĜęęė": 2617,
      "Ęę": 2618,
      "Ęęęęęęęęęęęęęęęęę": 2619,
      "ĘĖęęęę": 2620,
      "ĘĘęęęęĚ": 2621,
      "ĘĜęęĘ": 2622,
      "ĘĖęęĘ": 2623,
      "Ě!": 2624,
      "ěęĚ": 2625,
      "ěęęęė": 2626,
      "ěĘęęĜ": 2627,
      "ĜĜęęęę": 2628,
      "ĜĀĀĘĀ": 2629,
      "ĝęę": 2630,
      "ĠĘęęĜ": 2631,
      "Ġęęęĝ": 2632,
      "ęĚĝęęęę": 2633,
      "ęĚęĕęęęę": 2634,
      "ęĘęĔ": 2635,
      "ęĘĕęęęę": 2636,
      "ęęĘěęęĚ": 2637,
      "ęęĚęęęęĘ": 2638,
      "ęėĜęęęę": 2639,
      "ęėęěęęė": 2640,
      "ęęėęęęęĘ": 2641,
      "ęęėĚęęĖ": 2642,
      "ęęėĜęęė": 2643,
      "ęĖęěęęĘ": 2644,
      "ęĖęěęęĚ": 2645,
      "ęĖęĚęęě": 2646,
      "ęĕđ": 2647,
      "ęĕęęě": 2648,
      "ĘęęĚęęęęęęęę": 2649,
      "ęĘĘĘęęě": 2650,
      "ęĘĘĘęęĖ": 2651,
      "ęĚĘĕęęĘ": 2652,
      "ęĚĘĘęęęęęęęę": 2653,
      "ęĘĚĜęęĘ": 2654,
      "ęĘĚĕęęĚ": 2655,
      "ęęęėęęęęĚ": 2656,
      "ęęę%": 2657,
      "ęĞĒ": 2658,
      "ĀĀęĀĚĘ": 2659,
      "ęěĚĘęęęęĘ": 2660,
      "ęěĚęęęĚę": 2661,
      "ęĘėėęęė": 2662,
      "ęĚėĘęęĚ": 2663,
      "ĀĀĚĀĚĘ": 2664,
      "ęěĘĖęęęę": 2665,
      "ĀĀėĀĚĚ": 2666,
      "ęėĚėęęęę": 2667,
      "ęěěĚęęĘ": 2668,
      "ęěěėęęě": 2669,
      "ęěėĘęęęę": 2670,
      "ęĚĜėęęě": 2671,
      "ęĜĚėęęĚ": 2672,
      "ęĜĘĘęęė": 2673,
      "ęĚęęęęĚęęęęęęęę": 2674,
      "ęęęĕęęĘ": 2675,
      "ęĖėĚęęė": 2676,
      "ęěĖęęęĘ": 2677,
      "ęęęĘęęĚęęęĘ": 2678,
      "ęĖęęęęė": 2679,
      "ęĘĕęęęĘ": 2680,
      "ęĘĕĘęęĘ": 2681,
      "ĀĀĐĀĝ": 2682,
      "ęĘęĚęęęęęęęęęęę": 2683,
      "Ėėęęĕ": 2684,
      "ęĜĖęęęė": 2685,
      "ĀĀďĀĖ": 2686,
      "ĀĀ#Āě": 2687,
      "ęĚęęęęęęęęĘęęęę": 2688,
      "ĀĀ%Āė": 2689,
      "ĀĀĎĀĘ": 2690,
      "ĀĀĎĀĖ": 2691,
      "ęėęęęęĘę": 2692,
      "ēĘęęĔ": 2693,
      "ęĘęěęęė": 2694,
      "ĀĀ/Ā": 2695,
      "%!": 2696,
      "ĐĒ": 2697,
      "ĕěęęĘ": 2698,
      "ĕęęĚę": 2699,
      "ĕęęęęĘĘ": 2700,
      "Ėęě": 2701,
      "ė!": 2702,
      "ėęĝ": 2703,
      "ėěęęĚ": 2704,
      "Ę!": 2705,
      "Ęęĝ": 2706,
      "Ęěęęė": 2707,
      "ĘĜęęęę": 2708,
      "ĚĘęęė": 2709,
      "ěěęęĘ": 2710,
      "ěĝęęĚ": 2711,
      "ĜęĜ": 2712,
      "ĜęęĒ": 2713,
      "ĝĜęęĚ": 2714,
      "ĞęęęęĘ": 2715,
      "Ġ%": 2716,
      "ĠęęĞ": 2717,
      "ĠĘęęě": 2718,
      "ĠĀĞ": 2719,
      "ęęĘęęęĖ": 2720,
      "ęęĚěęęė": 2721,
      "ęęĚĕęęĚ": 2722,
      "ęęĚĘęęęęęęęę": 2723,
      "ęěęęĜ": 2724,
      "ęěęęęě": 2725,
      "ęěęĘęęĖ": 2726,
      "ęėĐ": 2727,
      "ęėěęęĘ": 2728,
      "ĘęęęęĖ": 2729,
      "ęĖęĘęęęę": 2730,
      "ęĖęěęęęę": 2731,
      "ęęĖĘęęĖ": 2732,
      "ęęĖĚęęĖ": 2733,
      "ęęĜę": 2734,
      "ęĘęęęęĚęęęę": 2735,
      "ęĝĚęęęę": 2736,
      "ęĚĚęęě": 2737,
      "ęĚĚęęęĘę": 2738,
      "ęĚĚĘęęĜ": 2739,
      "ęĘĘĖęęęę": 2740,
      "ęĚĘęęě": 2741,
      "ęĚĘěęęĚ": 2742,
      "ęĚĘėęęě": 2743,
      "ęĚĘĝęęĘ": 2744,
      "ęĚĘėęęęęĘ": 2745,
      "ęĘĚėęęĘ": 2746,
      "ęĘĚęęęěę": 2747,
      "ęęĝę": 2748,
      "ęęęėęęęęĘ": 2749,
      "ęęę$": 2750,
      "ėęęęęęęĘ": 2751,
      "ėęęęęęęĚęęęę": 2752,
      "ěęęęęě": 2753,
      "ęęęęęęęęęęęęęĚ": 2754,
      "ęĚěĖęęě": 2755,
      "ęĚėĘęęĖ": 2756,
      "ęěĘĜęęĘ": 2757,
      "ęĘěĚęęĘ": 2758,
      "ęĘěĘęęĘ": 2759,
      "ęĘěęęęĚę": 2760,
      "ęĘěĖęęě": 2761,
      "ęğē": 2762,
      "ĘęęęęĘęĚęęęę": 2763,
      "ęęęĚęęęęęęĚę": 2764,
      "ęėęęęęĜ": 2765,
      "ęěėěęęė": 2766,
      "ĀĀĝĀğ": 2767,
      "ėĚĘęęĚ": 2768,
      "ęĘĖėęęĘ": 2769,
      "ęĘĜěęęĚ": 2770,
      "ęĘĜĖęęě": 2771,
      "ęĘĜĚęęĜ": 2772,
      "ęĖĘĘęęĚ": 2773,
      "ęĖĘěęęĚ": 2774,
      "ęĒğ": 2775,
      "ĀĀĞĀĒ": 2776,
      "ęěĜĚęęĚ": 2777,
      "ėěĚęęĚ": 2778,
      "ęĜěĚęęęę": 2779,
      "ęęęęĘĚĘęęęę": 2780,
      "ęęęęĘĚĘęęĚ": 2781,
      "ĀĀēĀĞ": 2782,
      "ĀĀĒĀē": 2783,
      "ęĚĝęęęě": 2784,
      "ęĘĕęęęė": 2785,
      "ĀĀ!ĀĔ": 2786,
      "ęĝĚęęęĚ": 2787,
      "ĀĀđĀĔ": 2788,
      "ęęěęęęęę": 2789,
      "ęĖĖĚęęė": 2790,
      "ęĘĝęęęĜ": 2791,
      "ėĖęęĖ": 2792,
      "ĀĀ\"ĀĔ": 2793,
      "ĝěęęĞ": 2794,
      "ĀĀĎĀĜ": 2795,
      "ĀĀ&Āĝ": 2796,
      "#ĀĀ": 2797,
      "ďğ": 2798,
      "ēď": 2799,
      "Ĕ!": 2800,
      "ĔĀĀ": 2801,
      "ĕėęęĘ": 2802,
      "ĕęęęęĚĘ": 2803,
      "ĖęęĒ": 2804,
      "ĖĚęęĖ": 2805,
      "ĖėęęĖ": 2806,
      "Ėęę\"": 2807,
      "ėęęęęęęęę": 2808,
      "Ęęę\"": 2809,
      "ĚęĚ": 2810,
      "ĚĖęęĚ": 2811,
      "ĚĚęęęęĘ": 2812,
      "Ěĝęęęę": 2813,
      "ěĚęęĘ": 2814,
      "ěĚęęė": 2815,
      "Ĝ\"": 2816,
      "ĜĐ": 2817,
      "Ĝę": 2818,
      "Ĝěě": 2819,
      "ĝęęĘę": 2820,
      "ĞęęęęĚ": 2821,
      "ĞĚęęě": 2822,
      "ĠęĞ": 2823,
      "ĠĚęęĜ": 2824,
      "ĠěęęĜ": 2825,
      "ęĚĘęęĘ": 2826,
      "ęĚęęęĚęęęęęęęę": 2827,
      "ęĚęĜęęĚ": 2828,
      "ęĘęęğ": 2829,
      "ęęĘęęě": 2830,
      "ęęĚęęęęĚ": 2831,
      "ęęĚĖęęęę": 2832,
      "ęėę": 2833,
      "ęėęĘęęęęĘ": 2834,
      "ęėęěęęě": 2835,
      "ęęęęęęęęęĚęęęęę": 2836,
      "ęęěěęęě": 2837,
      "ęęěĘęęĚę": 2838,
      "ęęęĘęęęęĚĘ": 2839,
      "ęęęĚęęĚęęęę": 2840,
      "ęĜęęęĚ": 2841,
      "ęęĖĘęęęę": 2842,
      "ęęĜęęĚ": 2843,
      "ęĘęęęęĘęęĚ": 2844,
      "ęĘęęęęęęĘĘęęęę": 2845,
      "ęĘęęęęęęĚĘęęęę": 2846,
      "ęĚĚęęĚę": 2847,
      "ęĘĘęęęĚę": 2848,
      "ęĘĘĚęęĖ": 2849,
      "ęĘĚęęė": 2850,
      "ęęĝĘęęĚ": 2851,
      "ęęęěęęęęĘ": 2852,
      "ėęęęęęę": 2853,
      "ěęęęęĖ": 2854,
      "ęęęęęęęęęęęęęĚę": 2855,
      "ęĚěĚęęĜ": 2856,
      "ęĘěĚęęĚę": 2857,
      "ęėĘĚęęęęĚ": 2858,
      "ęęğę": 2859,
      "ęėėęęęĚ": 2860,
      "ĘęęęęĘęĘęęęę": 2861,
      "ęěěĘęęĘ": 2862,
      "ęěěęęęĜ": 2863,
      "ęěěĘęęĜ": 2864,
      "ęėęęęęęęė": 2865,
      "ęėěėęęĚ": 2866,
      "ĀĀĝĀĒ": 2867,
      "ėĚęęĜ": 2868,
      "ęĜĚĘęęė": 2869,
      "ęĘĜėęęě": 2870,
      "ęĖĘęęęė": 2871,
      "ęĖĚĘęęęę": 2872,
      "ęĜĘĘęęĚ": 2873,
      "ęĜĘěęęĘ": 2874,
      "ĀĀĔĀĒ": 2875,
      "ęęĘęęęĘęęĘ": 2876,
      "ęęęĕęęęę": 2877,
      "ęěĜėęęĚ": 2878,
      "ęėĖėęęĘ": 2879,
      "ęęęęĘĘĚęęĘ": 2880,
      "ęĜěĘęęĘ": 2881,
      "ęĜěĚęęě": 2882,
      "ęęęęĘĚĚęęĚ": 2883,
      "ĀĀğĀē": 2884,
      "ęĖėěęęĘ": 2885,
      "ęěĖėęęĘ": 2886,
      "ęęęĘęęĚęęęĚę": 2887,
      "ĀĀĒĀĞ": 2888,
      "ęĚĝęęęĚ": 2889,
      "ĀĀ#Āė": 2890,
      "ĀĀ#ĀĔ": 2891,
      "ĝĝęęě": 2892,
      "ĚęęęęęęęęęęęĘ": 2893,
      "ęĘĘěęęĘę": 2894,
      "ęĘęĘęęĘę": 2895,
      "ĀĀ*ĀĘ": 2896,
      "%ě": 2897,
      "Đđ": 2898,
      "ĔĐ": 2899,
      "Ėęęęĕ": 2900,
      "ĖĕęęĘ": 2901,
      "ĖěęęĖ": 2902,
      "ėěě": 2903,
      "Ęęęęě": 2904,
      "ĘĘęęě": 2905,
      "Ěęęęė": 2906,
      "ĚĚęęęęĚ": 2907,
      "ěęĜ": 2908,
      "ěęę!": 2909,
      "ĝęęęĚ": 2910,
      "ĝěęęě": 2911,
      "ĝĜęęě": 2912,
      "ğęęĜ": 2913,
      "ęęęęĜ": 2914,
      "ęĘ\"": 2915,
      "ęĘęĝ": 2916,
      "ęĘĚęęęęĘ": 2917,
      "ęĘęĝęęĘ": 2918,
      "ęęĘęęęęĘ": 2919,
      "ęęĚėęęĘ": 2920,
      "ĀĀĂ": 2921,
      "ęěęęĕ": 2922,
      "ęěęėęęě": 2923,
      "ęěęĖęęě": 2924,
      "ęėęĚęęĜ": 2925,
      "ęęėėęęęę": 2926,
      "ęęěĖęęě": 2927,
      "ęęěĚęęĚę": 2928,
      "ęęęĚęęęęĚĘ": 2929,
      "ęĜĜęęęę": 2930,
      "ęĜęėęęĚ": 2931,
      "ęĖĘęęĘ": 2932,
      "ęĖęĘęęĘ": 2933,
      "ęęĜėęęĜ": 2934,
      "ęĚęęęęęęĚĚęęęę": 2935,
      "ęĘęęęęĜ": 2936,
      "ęĘęęęęęęęĚęęęęę": 2937,
      "ęĚĚęęęĚęęĚ": 2938,
      "ęĘĘėęęě": 2939,
      "ęĚĘĖęęė": 2940,
      "ęęĕĘęęĘ": 2941,
      "ęęęėęęĖ": 2942,
      "ęęęěęęęęęęĘ": 2943,
      "ėęęęęĖ": 2944,
      "ěęęęęę": 2945,
      "ěęęęęėĘ": 2946,
      "ęęęęęęęęęęęęęĘ": 2947,
      "ęĞ!": 2948,
      "ęęĘęęęęęęęĘęęęę": 2949,
      "ęęĘęęęęęęĚę": 2950,
      "ęĚěěęęęę": 2951,
      "ęěĚĘęęė": 2952,
      "ęěĚęęęĜ": 2953,
      "ęĘėĚęęĖ": 2954,
      "ęĚėĜęęė": 2955,
      "ęĚėĕęęĘ": 2956,
      "ęĘěĘęęĜ": 2957,
      "ęėĘėęęęę": 2958,
      "ęėėĚęęĚ": 2959,
      "ęėėęęęĖ": 2960,
      "ęěěėęęęę": 2961,
      "ęěęęęęĖ": 2962,
      "ęėěĖęęĚ": 2963,
      "ęĘĘęęęęęęĚęęęę": 2964,
      "ėĚě": 2965,
      "ęĘĜĘęęĜ": 2966,
      "ęĖĘĘęęęę": 2967,
      "ęĚĖėęęė": 2968,
      "ěĘĜ": 2969,
      "ěĘęęĖ": 2970,
      "ęęĘęęęĘęęĚ": 2971,
      "ęėĖęęęĖ": 2972,
      "ęėĖěęęė": 2973,
      "ęĖėĚęęęę": 2974,
      "ėėęęĕ": 2975,
      "ėėěęęĘ": 2976,
      "ęĖěěęęĚ": 2977,
      "ĖĚęęĔ": 2978,
      "ĖĘęęĔ": 2979,
      "ęđĖ": 2980,
      "ęđė": 2981,
      "ęĚĝęęęĜ": 2982,
      "ęĚĝėęęě": 2983,
      "ęĕĚęęęĚ": 2984,
      "ĀĀđĀĞ": 2985,
      "ĘĚě": 2986,
      "ęęěęęęęęęĚ": 2987,
      "ęĕĘęęęĘ": 2988,
      "ęĖĖĚęęĘ": 2989,
      "ęĖĖęęęė": 2990,
      "ęĚęėęęęęĚ": 2991,
      "ęĘĝęęęĚ": 2992,
      "ęĚĚęęęĚęęęęęęęę": 2993,
      "ĀĀĐĀĜ": 2994,
      "ėĖęęĕ": 2995,
      "ėĜęęĕ": 2996,
      "ęĘęęęęęęęęęęęĘ": 2997,
      "ĘĘęęĕ": 2998,
      "ęėĕęęęĘ": 2999,
      "ĝěęęĝ": 3000,
      "ĠĚęęĞ": 3001,
      "ĖĖęęĕ": 3002,
      "\"ęęĘ": 3003,
      "#ė": 3004,
      "đęęĜ": 3005,
      "ĒęęĔ": 3006,
      "ēĘęęė": 3007,
      "ĔĘęęĘ": 3008,
      "ĔĘęęė": 3009,
      "ĕĀĀ": 3010,
      "Ė!": 3011,
      "ėĔęęĘ": 3012,
      "ĘĐ": 3013,
      "ĘĚęęĘę": 3014,
      "Ęěĝ": 3015,
      "ĚėęęĘ": 3016,
      "ĚĘęęĜ": 3017,
      "Ěęęęęęęęęęęęęęęęęęę": 3018,
      "ěĒ": 3019,
      "ĞĀĀĚĀ": 3020,
      "ğĖ": 3021,
      "ĠĚęęĚ": 3022,
      "ĠęęĔ": 3023,
      "ĠĚęęě": 3024,
      "Ġęē": 3025,
      "ĠĀĀĘĀ": 3026,
      "ĠĀĀĘĀĘ": 3027,
      "ęĚ\"": 3028,
      "ęĚęęĞ": 3029,
      "ęĚĖęęĚ": 3030,
      "ęĚęěęęě": 3031,
      "ęĘėęęĚ": 3032,
      "ęęĘĜęęė": 3033,
      "ĀĀă": 3034,
      "ęěĖęęęę": 3035,
      "ęěęěęęė": 3036,
      "ęėęėęęě": 3037,
      "ęėęĘęęĜ": 3038,
      "ęęėęęęĘęęĚ": 3039,
      "ęęęĚęęęęĚĚ": 3040,
      "ęĜđ": 3041,
      "ęĜęęĖ": 3042,
      "ęĜęĚęęė": 3043,
      "ęĖđ": 3044,
      "ęĖĖęęęę": 3045,
      "ęĖęĚęęė": 3046,
      "ęęĖěęęė": 3047,
      "ęĚęęęęęęĜ": 3048,
      "ęĚęęęęęęĘĘęęęę": 3049,
      "ęĕĚęęęę": 3050,
      "ęĘĘęęė": 3051,
      "ęĘĚĘęęė": 3052,
      "ęĘĚĖęęě": 3053,
      "ęĘĚĝęęęę": 3054,
      "ęęĝęęęĝ": 3055,
      "ęęęėęęė": 3056,
      "ěęęęęęęĚ": 3057,
      "ęĚěĘęęĚę": 3058,
      "ęěĚĘęęĚę": 3059,
      "ęĚėĜęęĘ": 3060,
      "ęěĘĖęęė": 3061,
      "ęėĘĚęęĖ": 3062,
      "ęėĚěęęĘ": 3063,
      "ęęēęĝ": 3064,
      "ęěęęęęęęė": 3065,
      "ęėęęęęęęě": 3066,
      "ęěėėęęė": 3067,
      "ĀĀĕĀĒ": 3068,
      "ęĚĜěęęĚ": 3069,
      "ęĚĜĘęęĜ": 3070,
      "ėĘĚ": 3071,
      "ėĘęęĔ": 3072,
      "ęĜĚėęęęę": 3073,
      "ęĜĚėęęě": 3074,
      "ęĖĘĜęęĘ": 3075,
      "ęĖĚėęęĚ": 3076,
      "ęĘęęęęĘęĚęęęę": 3077,
      "ęĚęęęęĚęĘęęęę": 3078,
      "ęĒĞ": 3079,
      "ęęęĕę": 3080,
      "ĀĀĞĀğ": 3081,
      "ęěĜĘęęęę": 3082,
      "ęěĜęęęĜ": 3083,
      "ěěĘęęĚ": 3084,
      "ěěĚęęĚ": 3085,
      "ĀĀēĀē": 3086,
      "ęėĜěęęĚ": 3087,
      "ęęęęĚĘėęęęę": 3088,
      "ĜĚĝ": 3089,
      "ĜĚęęĞ": 3090,
      "ęĖěĚęęě": 3091,
      "ęĜėėęęĘ": 3092,
      "ęęęĚęęĘęęęęęęęę": 3093,
      "ę!ğ": 3094,
      "ęĜĜĚęęĚ": 3095,
      "ĘĚĜ": 3096,
      "ěėęęęĘ": 3097,
      "ěėĘęęĘ": 3098,
      "ęĖĖĘęęĘ": 3099,
      "ęęėęęęęęęĚęęęę": 3100,
      "ęĚĘęęęĘęęęęęęęę": 3101,
      "ęĘĚęęęĚęęęęęęęę": 3102,
      "ęĘĘęęęĘęęęęęęęę": 3103,
      "ĚĚęęĝ": 3104,
      "ĀĀĐĀĞ": 3105,
      "ęĘęęęęęęęęĚęęęę": 3106,
      "ĀĀďĀĜ": 3107,
      "ĀĀ#ĀĚ": 3108,
      "ęĚęęęęęęęęĚęęęę": 3109,
      "ęĚęęęęęęęęęęęĘ": 3110,
      "ęěĕęęęė": 3111,
      "ĀĀ$ĀĚ": 3112,
      "ĀĀ$Āė": 3113,
      "ĀĀĎĀĚ": 3114,
      "ĀĀ&ĀĜ": 3115,
      "%ğ": 3116,
      "ĎĘ": 3117,
      "ĔęęĒ": 3118,
      "ĕĚęęęę": 3119,
      "ĕĖęęĘ": 3120,
      "ĕęęĒ": 3121,
      "Ėď": 3122,
      "Ėėě": 3123,
      "ėĘęęě": 3124,
      "ėęĚęęĚ": 3125,
      "ėĚęęĘę": 3126,
      "Ęěě": 3127,
      "ĘěĜ": 3128,
      "ĘěĞ": 3129,
      "Ěėęęě": 3130,
      "Ěęę!": 3131,
      "ěę": 3132,
      "ěęęęęęęęę": 3133,
      "ěĖęęęę": 3134,
      "ěĚęęęęĚ": 3135,
      "ěęĚęęĘ": 3136,
      "ěĖęęě": 3137,
      "ěĕęęĚ": 3138,
      "ěĖĚ": 3139,
      "ĜĖęęĚ": 3140,
      "ĜĜĚ": 3141,
      "ĝĘęęęę": 3142,
      "ĝęęęĜ": 3143,
      "ĝėęęě": 3144,
      "ĝĜęęęę": 3145,
      "ĝęęęęĚĚ": 3146,
      "Ğė": 3147,
      "Ġď": 3148,
      "Ġęęęě": 3149,
      "ĠęĔ": 3150,
      "Ġěęęě": 3151,
      "ĠęęęĞ": 3152,
      "ĠĀĀěĀ": 3153,
      "ĠĀĀęĀė": 3154,
      "ęę(": 3155,
      "ęĚĜęęĚ": 3156,
      "ęĚęĚęęĖ": 3157,
      "ęĘęęĞ": 3158,
      "ęĘęĝęęęę": 3159,
      "ęęĚĝęęĚ": 3160,
      "ęěĘęęě": 3161,
      "ęěęęęĚę": 3162,
      "ęěęĚęęęęĘ": 3163,
      "ęěęĚęęě": 3164,
      "ęěęĜęęĘ": 3165,
      "ęėĚęęęęę": 3166,
      "ęęėęęě": 3167,
      "ĚęęęęĜ": 3168,
      "ęĜęĚęęĚ": 3169,
      "ęĜęěęęĘ": 3170,
      "ęĜęĖęęĘ": 3171,
      "ęĖ!": 3172,
      "ęęĖęęĘ": 3173,
      "ęĚęęęęĘęęęę": 3174,
      "ęĘęęęęęĚĚęęęę": 3175,
      "ęĝęėęęĘ": 3176,
      "ęĕęęĖ": 3177,
      "ęęęęĘĚęęęę": 3178,
      "ęĚĘĚęęě": 3179,
      "ęĘĚĖęęęę": 3180,
      "ęęĕĚęęĘ": 3181,
      "ęęĕėęęĘ": 3182,
      "ęęĕĚęęė": 3183,
      "ęęĝĚęęĚ": 3184,
      "ęęęĎ": 3185,
      "ěęęęęęęĘ": 3186,
      "ęęęęęęęęęęęęęęęĘ": 3187,
      "ęĞęęė": 3188,
      "ęęĔęĞ": 3189,
      "ęĘėĚęęĘę": 3190,
      "ęĚėĚęęĚ": 3191,
      "ęěĘěęęęę": 3192,
      "ęěĘėęęĖ": 3193,
      "ęĘěęęęĝ": 3194,
      "ęğęęĚ": 3195,
      "ęėęęęęĖ": 3196,
      "ěĚĚęęĚ": 3197,
      "ęėěėęęě": 3198,
      "ėĘĘęęęę": 3199,
      "ėĘĘęęĘ": 3200,
      "ęĖĘěęęęę": 3201,
      "ęĖĚęęęĘ": 3202,
      "ęĖĚĚęęĘ": 3203,
      "ěĘě": 3204,
      "ęęĘęęęĘęęĚęęęę": 3205,
      "ěěęęĞ": 3206,
      "ęęęĝę": 3207,
      "ęęęĝęęęę": 3208,
      "ėěĝ": 3209,
      "ęĜěėęęě": 3210,
      "ęėĜėęęĚ": 3211,
      "ęęęĚęęĚęęęĚę": 3212,
      "ęęęĘęęĘĘęęęę": 3213,
      "ęđĘ": 3214,
      "ęĚĝĘęęě": 3215,
      "ęĘĕĚęęĘ": 3216,
      "ęĕĚĚęęĚ": 3217,
      "ĘĚęęĕ": 3218,
      "ěėęęĝ": 3219,
      "ĝĚęę": 3220,
      "ęęėęęęęę": 3221,
      "ęĘĝĚęęĚ": 3222,
      "ęĘĝĚęęě": 3223,
      "ęĘĝėęęě": 3224,
      "ęěĝĘęęě": 3225,
      "ĘĘě": 3226,
      "ĀĀ\"Āĝ": 3227,
      "ęĘęĚęęĜ": 3228,
      "ěĝęęě": 3229,
      "ĀĀ$ĀĜ": 3230,
      "ĀĀ)ĀĘ": 3231,
      "ĀĀ.Ā": 3232,
      "\"$": 3233,
      "$ė": 3234,
      "%\"": 3235,
      "&!": 3236,
      "ĎĞ": 3237,
      "ďęęĚ": 3238,
      "đď": 3239,
      "ēęęē": 3240,
      "ēęę\"": 3241,
      "ĔėęęĘ": 3242,
      "Ĕęęē": 3243,
      "ĕ!": 3244,
      "ĕĐ": 3245,
      "ĕĘęęĖ": 3246,
      "ĕęęęęĚĚ": 3247,
      "ĕĖęęė": 3248,
      "ĖęęęęĚĘ": 3249,
      "ĖĖęęė": 3250,
      "ĖĖĝ": 3251,
      "ĘęĞ": 3252,
      "ĘėĚ": 3253,
      "ĘĘęęĘę": 3254,
      "Ęěğ": 3255,
      "ęĀĀėĀ": 3256,
      "ęĀĀěĀ": 3257,
      "ĚęĞ": 3258,
      "Ěęęęęęęęęęęęęęęęę": 3259,
      "Ěěęęė": 3260,
      "ěĘęęė": 3261,
      "ěęęęĝ": 3262,
      "ěĝęęęę": 3263,
      "ĜĚęęĜ": 3264,
      "Ĝęęęĝ": 3265,
      "ĝĚęęĜ": 3266,
      "ğęęĕ": 3267,
      "ĠĀĀĜĀ": 3268,
      "ęĚęĜęęė": 3269,
      "ęĘĐ": 3270,
      "ęĘęęęęęęęęęęęęęęęęęę": 3271,
      "ęęĘĚęęě": 3272,
      "ęęĘėęęĖ": 3273,
      "ęęĘĝęęĘ": 3274,
      "ęęĘĘęęęęęęęę": 3275,
      "ĀĀĆ": 3276,
      "ęěęėęęė": 3277,
      "ęėĕęęęę": 3278,
      "ęęėĕęęĘ": 3279,
      "ęęěęęęĚęęĘ": 3280,
      "ĚęęęęęęĘęęęęęę": 3281,
      "ĚęęęęęęĚęęęęęę": 3282,
      "ęĜęĚęęęę": 3283,
      "ęĖęĜ": 3284,
      "ęęĖĖęęĘ": 3285,
      "ęęĖęęęĕ": 3286,
      "ęĘęęęęęęĜ": 3287,
      "ęĘĚĚęęĜ": 3288,
      "ęęĝęęęę": 3289,
      "ęęĝęęęĚ": 3290,
      "ęęęęęęęęęęęęęĘęęęęęę": 3291,
      "ęĞē": 3292,
      "ęęĔęęĚ": 3293,
      "ęĚěĚęęęęĚ": 3294,
      "ęěĚěęęĘ": 3295,
      "ęěĚĘęęęęĚ": 3296,
      "ęĘėęęęėę": 3297,
      "ĀĀėĀĚĘ": 3298,
      "ęĘěėęęĜ": 3299,
      "ęėĘĚęęě": 3300,
      "ęğ!": 3301,
      "ĀĀěĀĚĚ": 3302,
      "ęėėėęęęę": 3303,
      "ĚęęęęĚęĚęęęę": 3304,
      "ĀĀĜĀğ": 3305,
      "ěĚğ": 3306,
      "ęėěěęęęę": 3307,
      "ęĜĚĚęęĘ": 3308,
      "ęĚĖĘęęĖ": 3309,
      "ęĚĖĚęęĖ": 3310,
      "ęęĘęęęĘęęĚęęęĚ": 3311,
      "ęĒęęęę": 3312,
      "ęěĜĖęęĚ": 3313,
      "ęěĜĘęęĜ": 3314,
      "ęěĜĖęęě": 3315,
      "ęěĜėęęĜ": 3316,
      "ėěĞ": 3317,
      "ėěĘęęĚ": 3318,
      "ęĜěęęęě": 3319,
      "ęĖėĚęęĚ": 3320,
      "ęĖėĘęęė": 3321,
      "ęěĖęęęĖ": 3322,
      "ėėĜ": 3323,
      "ęĜėĘęęęę": 3324,
      "ęęęĘęęĘęęęęęęęę": 3325,
      "ę!Ę": 3326,
      "ę!Ğ": 3327,
      "ęĖęęęęęęĘ": 3328,
      "ęĚĕĘęęĘ": 3329,
      "ęęęĞęęĘ": 3330,
      "ęěĝėęęě": 3331,
      "ĀĀ\"Āĕ": 3332,
      "ĀĀ\"ĀĞ": 3333,
      "ĀĀĖĀ!": 3334,
      "ęĕėęęęĘ": 3335,
      "ęĜĖęęęĘ": 3336,
      "ĀĀďĀĕ": 3337,
      "ĀĀ#ĀĜ": 3338,
      "ĚĘęęĞ": 3339,
      "ęęĘęęęęęęęęęęęęęęęęęęęę": 3340,
      "ĔĘęęē": 3341,
      "ęĕěĚęęĚ": 3342,
      "ĀĀĎĀė": 3343,
      "ęĚęĘęęęęęęęęęęę": 3344,
      "ęęęęęęęęęęęęęęęęęęęęęęęęęęęęęęęęęęęę": 3345,
      "ĀĀ'ĀĘ": 3346,
      "ğĚęęğ": 3347,
      "ęěęĘęęĚę": 3348,
      "\"ęęęę": 3349,
      "ďĜ": 3350,
      "Đď": 3351,
      "đęę": 3352,
      "ĕĚęęĖ": 3353,
      "ĖĘęęě": 3354,
      "ėęęęě": 3355,
      "ėĕęęęę": 3356,
      "Ęęě": 3357,
      "ĘĚęęĖ": 3358,
      "ĚĀĀ": 3359,
      "ĚĕęęĚ": 3360,
      "ĚĚęęĚę": 3361,
      "Ěėĝ": 3362,
      "ěėęęĘ": 3363,
      "ěęėęęęę": 3364,
      "ěĜęęĘ": 3365,
      "ěěĘ": 3366,
      "ěęęđ": 3367,
      "ěĖě": 3368,
      "Ĝėęęęę": 3369,
      "Ĝėĝ": 3370,
      "ĝĚęęęę": 3371,
      "ĝėęęĚ": 3372,
      "ĝęęĚę": 3373,
      "Ğęęęě": 3374,
      "ĞęęĔ": 3375,
      "Ġęĕ": 3376,
      "Ġęęęğ": 3377,
      "ęęęęĝ": 3378,
      "ęĚĐ": 3379,
      "ęĚĕęęęę": 3380,
      "ęĚęęęĚęęĘ": 3381,
      "ęĚęĖęęė": 3382,
      "ęĘęėęęęęĘ": 3383,
      "ęęĘęęęĚę": 3384,
      "ęęĚĚęęĜ": 3385,
      "ęęĚĚęęęęęęęę": 3386,
      "ęěęĘ": 3387,
      "ęěęęęęęęęę": 3388,
      "ęěęęęęĘĘ": 3389,
      "ęėĚęęė": 3390,
      "ęęęęęęęęęĚęęęę": 3391,
      "ęęėĘęęęęĘ": 3392,
      "ęęėĘęęęęĚ": 3393,
      "ęęěėęęęę": 3394,
      "ęęęĘęęĜ": 3395,
      "ęĜĐ": 3396,
      "ęĖĚęęĘ": 3397,
      "ęęĖĖęęė": 3398,
      "ęęĜĘęęĜ": 3399,
      "ęĝ\"": 3400,
      "ęĝĘęęęę": 3401,
      "ęĚĚėęęĜ": 3402,
      "ęĘĘėęęė": 3403,
      "ęĘĘėęęęęĘ": 3404,
      "ęĘĘěęęęęĚ": 3405,
      "ęĘĚĜęęě": 3406,
      "ęęĝĚęęě": 3407,
      "ęęĝėęęě": 3408,
      "ėęęęęěĘ": 3409,
      "ěęęęęęę": 3410,
      "ęęęęęęęęęęęęęĘę": 3411,
      "ęĞęęęęĚ": 3412,
      "ęęĚęęęęęęĘę": 3413,
      "ęęĘęęęęęęęĚęęęę": 3414,
      "ęęĘęęęęęĚĚęęęę": 3415,
      "ęęĘęęęęęęĘęęęęę": 3416,
      "ęĔ!": 3417,
      "ęĔęęě": 3418,
      "ęĚěĜęęęę": 3419,
      "ęěĚĜęęęę": 3420,
      "ęĘėĖęęĘ": 3421,
      "ęĘėĝęęĘ": 3422,
      "ęĚėĝęęĘ": 3423,
      "ęėĘĜęęĚ": 3424,
      "ęėĚęęęė": 3425,
      "ęėĚęęęĜ": 3426,
      "ęėĚĜęęęę": 3427,
      "ęėĚĚęęęęĘ": 3428,
      "ęėĚĘęęĜ": 3429,
      "ęěěĘęęęęĘ": 3430,
      "ęěėĜęęĘ": 3431,
      "ěĚĚ": 3432,
      "ęĚĚęęęęęęĚęęęę": 3433,
      "ęėěĘęęĜ": 3434,
      "ęĚĜĘęęęę": 3435,
      "ėĚĜ": 3436,
      "ėĘęęęĚ": 3437,
      "ėĘęęē": 3438,
      "ęĘĖėęęė": 3439,
      "ęĘĖĘęęĖ": 3440,
      "ęĘĖěęęĖ": 3441,
      "ęĜĘęęęĚ": 3442,
      "ęęĚęęęĚęęĚęęęĚ": 3443,
      "ęĚĘęęęęęęĚęęęę": 3444,
      "ęĒē": 3445,
      "Ėęęěę": 3446,
      "ęęęĝęęĘ": 3447,
      "ęėĖĘęęė": 3448,
      "ėěęęęĚ": 3449,
      "ęĜěĘęęęę": 3450,
      "ęĖėěęęė": 3451,
      "ęęđęĜ": 3452,
      "ęęęĘęęĚĘęęĚ": 3453,
      "ĜĚęę": 3454,
      "ęĖěęęęĜ": 3455,
      "ęĜėěęęė": 3456,
      "ęĚĝĘęęĚ": 3457,
      "ęĘĕĚęęė": 3458,
      "ęĝĚėęęęę": 3459,
      "ĀĀđĀĝ": 3460,
      "ĀĀđĀē": 3461,
      "ęĕĘĘęęĘ": 3462,
      "ęĘĝęęęě": 3463,
      "Ėěĝ": 3464,
      "ėĖĜ": 3465,
      "ėĖĚęęĘ": 3466,
      "ėĜęęĔ": 3467,
      "ĀĀ#Āĝ": 3468,
      "ęęĘĘęęĘęęęęęęęę": 3469,
      "ęĖĜęęęě": 3470,
      "ęĖĜĚęęě": 3471,
      "ĀĀ&Āė": 3472,
      "ęěęęęęĚę": 3473,
      "ēĚęęē": 3474,
      "ēėęęĔ": 3475,
      "Ěĝğ": 3476,
      "!ē": 3477,
      "\"%": 3478,
      "#$": 3479,
      "$Ĝ": 3480,
      "Ďğ": 3481,
      "ďď": 3482,
      "ĐĐ": 3483,
      "đęęĝ": 3484,
      "đęęē": 3485,
      "Ēď": 3486,
      "Ēęę": 3487,
      "Ēęęğ": 3488,
      "ēěęęė": 3489,
      "ĕěęęė": 3490,
      "ĕęęęĕ": 3491,
      "ĕęęęęĘĚ": 3492,
      "ĕěĝ": 3493,
      "ėĖĚ": 3494,
      "ėęę\"": 3495,
      "ėĜĜ": 3496,
      "ĘĖęęĚ": 3497,
      "Ęėęęě": 3498,
      "ĚĘęęęęĚ": 3499,
      "ĚĚęęĜ": 3500,
      "ĚĝęęĚ": 3501,
      "ĚĘĚ": 3502,
      "ĚěĞ": 3503,
      "ĚĖĜ": 3504,
      "ěęĝ": 3505,
      "ěęĞ": 3506,
      "Ĝęě": 3507,
      "ĜĘęęĘ": 3508,
      "ĜĜęęě": 3509,
      "ĜęęĐ": 3510,
      "ĝĝęęĚ": 3511,
      "ĞęęęĚ": 3512,
      "ĞęęĞ": 3513,
      "ĞĀĀęĀ": 3514,
      "ğęęĝ": 3515,
      "Ġęė": 3516,
      "ĠĜęęě": 3517,
      "ĠĀĀėĀ": 3518,
      "ĠĜęęĜ": 3519,
      "ęĘĖęęĘ": 3520,
      "ęĘęĜęęė": 3521,
      "ęęĘęęęě": 3522,
      "ęęĚĜęęĘ": 3523,
      "ęėęĝęęęę": 3524,
      "ęęėěęęĖ": 3525,
      "ęęěĘęęęęĘ": 3526,
      "ĘęęęęęęĚęęęęęę": 3527,
      "ĚęęęęęęęĘęęęę": 3528,
      "ęęęĘęęęęęęęęęęęę": 3529,
      "ęęęĘęęĘęęęĘ": 3530,
      "ęĜęėęęě": 3531,
      "ęĖę": 3532,
      "ęĖęęĕ": 3533,
      "ęĖėě": 3534,
      "ęĖęėęęĚ": 3535,
      "ęęĖęęęĚ": 3536,
      "ęęĜĘęęęę": 3537,
      "ęęĜĚęęęę": 3538,
      "ęęĜĖęęĚ": 3539,
      "ęĚęęęęĚęęęęęęĚ": 3540,
      "ęĝęęĖ": 3541,
      "ęĕęęĜ": 3542,
      "ęĕęĚęęě": 3543,
      "ĚęęĘęęęęęęęę": 3544,
      "ęĚĚěęęė": 3545,
      "ęĚĚĜęęĘ": 3546,
      "ęĚĚęęęĚęęĘ": 3547,
      "ęĘĘęęęĜ": 3548,
      "ęĘĘęęęęęęęęęęę": 3549,
      "ęĘĘėęęęęĚ": 3550,
      "ęęĕę": 3551,
      "ęęĕěęęė": 3552,
      "ęęĕĚęęĖ": 3553,
      "ęęĝĘęęě": 3554,
      "ęęĝĘęęĜ": 3555,
      "ęęęęęęęęęęęęęĚęęęęęę": 3556,
      "ęęĚęęęęęęĚę": 3557,
      "ęęĘęęęęęĘĘęęęę": 3558,
      "ęĔđ": 3559,
      "ęěĚĖęęĘ": 3560,
      "ęěĚĖęęě": 3561,
      "ęĘėĘęęě": 3562,
      "ęĚėęęęĕ": 3563,
      "ęĚėĖęęė": 3564,
      "ęĚėĘęęĘę": 3565,
      "ęěĘĘęęęęĘ": 3566,
      "ęĘěĜęęě": 3567,
      "ęėĘėęęė": 3568,
      "ęėĚĚęęĚę": 3569,
      "ęğęęĘ": 3570,
      "ęęęĜęęė": 3571,
      "ęęęĘęęęęęęĚęęęęęęęę": 3572,
      "ęēęęě": 3573,
      "ęėėėęęė": 3574,
      "ęėėĚęęĘę": 3575,
      "ĚęęęęĚęĘęęęę": 3576,
      "ĚęęęęĚĚĘęęęę": 3577,
      "ęěėĜęęė": 3578,
      "ěĚĞ": 3579,
      "ěĚėęęęę": 3580,
      "ěĚėęęĚ": 3581,
      "ęėěĜęęě": 3582,
      "ęĚĜěęęě": 3583,
      "ėĚĝ": 3584,
      "ęĜĚĖęęęę": 3585,
      "ęĖĘėęęĚ": 3586,
      "ęĚĖěęęĖ": 3587,
      "ěĘĝ": 3588,
      "ęĒęęĚ": 3589,
      "ęěĜĚęęĜ": 3590,
      "ěěě": 3591,
      "ěěėęęĚ": 3592,
      "ęėĖĚęęęę": 3593,
      "ęęęęĘĚěęęĚ": 3594,
      "ęĖėĘęęęę": 3595,
      "ęĖėęęęĚ": 3596,
      "ęěĖėęęė": 3597,
      "ėėęęęĘ": 3598,
      "ęęęĘęęĚĚęęĚ": 3599,
      "ĖĘęęęĘ": 3600,
      "ĜěĜ": 3601,
      "ęđęęęę": 3602,
      "ęĖęęęęęę": 3603,
      "ęĚĝĚęęĚ": 3604,
      "ęĘĕěęęė": 3605,
      "ęĝĚĘęęĚ": 3606,
      "ĀĀđĀğ": 3607,
      "ĘĚęęĝ": 3608,
      "ęĖĖęęęĘ": 3609,
      "ęĝĘĚęęĘ": 3610,
      "ęĝĘęęęė": 3611,
      "ęĚęėęęė": 3612,
      "ęĘĝĘęęě": 3613,
      "ęĘęęęęęęęęĘęęęę": 3614,
      "ĘĘĜ": 3615,
      "ĀĀ\"ĀĜ": 3616,
      "ęĝěĘęęĚ": 3617,
      "ęĝěęęęě": 3618,
      "ęĜĖĚęęė": 3619,
      "ĀĀďĀĔ": 3620,
      "ęěĕęęęĘ": 3621,
      "ęėĝĚęęĚ": 3622,
      "Ėĝęęĕ": 3623,
      "ĔĚęęē": 3624,
      "ĠĚęęğ": 3625,
      "ĀĀ%ĀĘ": 3626,
      "ĕěęęĔ": 3627,
      "ēĚęęĔ": 3628,
      "ęĝęęęęė": 3629,
      "ĀĀ'Āě": 3630,
      "ĚęęęęĘĚĘęęĚ": 3631,
      "ęęęęęęęęęĚęęęĚę": 3632,
      "ĀĀĈĀ": 3633,
      "!ęęĚ": 3634,
      "\"Ĕ": 3635,
      "#%": 3636,
      "$ĀĀ": 3637,
      "&ĝ": 3638,
      "ďĒ": 3639,
      "đ!": 3640,
      "ēĎ": 3641,
      "ĔęęęĘ": 3642,
      "Ĕěęęė": 3643,
      "ĔěęęĖ": 3644,
      "ĕē": 3645,
      "ĕę": 3646,
      "ĕĘęęęę": 3647,
      "ĕėęęęę": 3648,
      "ĕĖĚ": 3649,
      "ĕěĞ": 3650,
      "ĕĝĝ": 3651,
      "ĖęęęĚ": 3652,
      "ĖĚęęĚ": 3653,
      "ĖėęęĚ": 3654,
      "ĖĔęęĘ": 3655,
      "ĖĜĞ": 3656,
      "ėĎ": 3657,
      "ėĒ": 3658,
      "ėęęęĕ": 3659,
      "ėęęđ": 3660,
      "ėĖęęė": 3661,
      "ĘęĚ": 3662,
      "ĘĘęęęęĘ": 3663,
      "ĘĘęęĖ": 3664,
      "ĘĜě": 3665,
      "ĘĘĚ": 3666,
      "ĘĜĞ": 3667,
      "ĘĖĜ": 3668,
      "Ęęęęęęęęęęęęęęęęęęę": 3669,
      "ęĀĀĖĀ": 3670,
      "ĚĚęęė": 3671,
      "ĚęęęĜ": 3672,
      "ĚĖęęě": 3673,
      "ĚĜě": 3674,
      "ĚĜĜ": 3675,
      "ĚęęęĚęęęęęęęę": 3676,
      "ěěęęė": 3677,
      "ĜęĘęęęę": 3678,
      "ĜĚęęĘ": 3679,
      "Ĝęęđ": 3680,
      "ĜĝęęĚ": 3681,
      "ĝ\"": 3682,
      "ĝęĜ": 3683,
      "Ğ\"": 3684,
      "Ğ#": 3685,
      "ĞěęęĚ": 3686,
      "ĞěęęĜ": 3687,
      "Ġęę": 3688,
      "ĠęęęĚ": 3689,
      "Ġęęğ": 3690,
      "Ġėęęě": 3691,
      "ĠĀē": 3692,
      "ĠėęęĜ": 3693,
      "ĠĀğ": 3694,
      "ęęęęęęĕ": 3695,
      "ęĚěęęĘ": 3696,
      "ęĘĚęęĚ": 3697,
      "ęĘĝęęęę": 3698,
      "ęĘęęęęęęęęęęęęęęęęęęę": 3699,
      "ęĘęĕęęĚ": 3700,
      "ęęĚĝęęęę": 3701,
      "ęęĚěęęĜ": 3702,
      "ęėęęęęęęęę": 3703,
      "ęėęęęė": 3704,
      "ęėęĖęęĚ": 3705,
      "ęęęęęęęęęęĚę": 3706,
      "ęęęęęęęęĘęęęęęę": 3707,
      "ęęėęęęĕ": 3708,
      "ęęěěęęĘ": 3709,
      "ęęěĘęęęęĚ": 3710,
      "ęęěęęęĚęęęęęęęę": 3711,
      "ĚęęęęěĚ": 3712,
      "ęęęĘęęęęĚĚ": 3713,
      "ęĜėęęĚ": 3714,
      "ęĜėĘęęĖ": 3715,
      "ęĖęĜęęĘ": 3716,
      "ęęĜĖęęě": 3717,
      "ęĚęęęęęęęě": 3718,
      "ęĚęęęęęĚĘęęęę": 3719,
      "ęĘęęęęęęĚĚęęęę": 3720,
      "ęĘęęęęęęęĘęęęęę": 3721,
      "ęĝęĘęęęę": 3722,
      "ęĝěęęęę": 3723,
      "ęĝęėęęęę": 3724,
      "ęĝęĚęęĚ": 3725,
      "ęĕęĚęęęę": 3726,
      "ęĕęĘęęĚ": 3727,
      "ęĕęěęęĚ": 3728,
      "ęĚĚĚęęė": 3729,
      "ęĚĚĘęęė": 3730,
      "ęĚĚęęęęęęęęęęę": 3731,
      "ęĚĚĘęęęęęęęę": 3732,
      "ęęęęĘė": 3733,
      "ęĘĘĜęęė": 3734,
      "ęĘĘęęęĘęęĘ": 3735,
      "ęĘĘěęęęęĘ": 3736,
      "ęĚĘĜęęęę": 3737,
      "ęĚĘĖęęě": 3738,
      "ęĚĘĕęęęę": 3739,
      "ęĚĘėęęęęĚ": 3740,
      "ęĘĚĝęęĚ": 3741,
      "ęęĕĘęęĖ": 3742,
      "ęęĝęęĘ": 3743,
      "ęęęěęęĖ": 3744,
      "ėęęęęęęĘęęęę": 3745,
      "ęęĚęęęęęęĘęęęęę": 3746,
      "ęęĔęĕ": 3747,
      "ęĚěėęęĘ": 3748,
      "ęĚěėęęĜ": 3749,
      "ęĚěĘęęĝ": 3750,
      "ęěĚĘęęĜ": 3751,
      "ęěĚĕęęĚ": 3752,
      "ęĘėęęęĕ": 3753,
      "ęĚėĘęęęęĘ": 3754,
      "ęěĘĖęęĚ": 3755,
      "ęĘěěęęĜ": 3756,
      "ęėĘĘęęě": 3757,
      "ęėĘĘęęęęĚ": 3758,
      "ęėĘĖęęĘ": 3759,
      "ęėĘĚęęĘę": 3760,
      "ęėĚĚęęęęĚ": 3761,
      "ęęęĘęęęęęęě": 3762,
      "ęēĒ": 3763,
      "ęėėĘęęĖ": 3764,
      "ęěěĖęęě": 3765,
      "ęěęęęęęęęĚ": 3766,
      "ęěęęęęęęĘęęęę": 3767,
      "ĚęęęęĘęĘęęęę": 3768,
      "ěĚĝ": 3769,
      "ęĚĜĘęęĘ": 3770,
      "ęĚĜĚęęĜ": 3771,
      "ėĚğ": 3772,
      "ėĚĘęęęę": 3773,
      "ęĘĖĜęęė": 3774,
      "ęĖĚěęęĘ": 3775,
      "ęĖĚĜęęĚ": 3776,
      "ęĜĘęęęĖ": 3777,
      "ęĜĘĖęęĘ": 3778,
      "ęĚęęęęĚęĘęęęęĘ": 3779,
      "ěĘęę": 3780,
      "ěĘėęęĘ": 3781,
      "ęĘĚęęęęęęĘęęęę": 3782,
      "ęĒĝ": 3783,
      "Ĝęęėę": 3784,
      "ėěĜ": 3785,
      "ĕęęęęě": 3786,
      "ęęęęĚĚěęęęę": 3787,
      "ĀĀēĀğ": 3788,
      "ęěĖěęęĘ": 3789,
      "ęėĜĘęęě": 3790,
      "ęėĜĘęęĜ": 3791,
      "ęęęĘęęĚĘęęęę": 3792,
      "ęęęĘęęĚĚęęęę": 3793,
      "ĜĚęęğ": 3794,
      "ęĖěĘęęě": 3795,
      "ĀĀĒĀĒ": 3796,
      "ĖĘęęē": 3797,
      "ęđĚ": 3798,
      "ęĜĜĘęęě": 3799,
      "ĀĀĘĀ!": 3800,
      "ęĕĚĚęęě": 3801,
      "ĀĀ!ĀĞ": 3802,
      "ĀĀđĀĒ": 3803,
      "ĘĚĝ": 3804,
      "ěėęęĞ": 3805,
      "ęĕĘęęęĚ": 3806,
      "ęĕĘĚęęĘ": 3807,
      "ĕĘęęē": 3808,
      "ęĚĕĚęęĘ": 3809,
      "ęĚĕĘęęė": 3810,
      "ęĚĕĘęęĖ": 3811,
      "ęĚĕĚęęĖ": 3812,
      "ĚĚĜ": 3813,
      "ĘĘĝ": 3814,
      "ĀĀěĀđ": 3815,
      "ęėĕĚęęĘ": 3816,
      "ęėĕęęęĖ": 3817,
      "ęĕėĘęęĘ": 3818,
      "ęěĕęęęĖ": 3819,
      "ęěĕĘęęĖ": 3820,
      "ĀĀ$Āĕ": 3821,
      "ĀĀ$Āĝ": 3822,
      "ęĝėęęęė": 3823,
      "ĠĚęęĝ": 3824,
      "ĀĀ%ĀĖ": 3825,
      "ęĕĖĚęęė": 3826,
      "ĕĝęęĖ": 3827,
      "ĔěęęĔ": 3828,
      "ĠĘęęğ": 3829,
      "ęĘęĘęęĜ": 3830,
      "ęėęĚęęĚę": 3831,
      "ęęęęęęęęĘęĚęęęę": 3832,
      "ĀĀ,Ā": 3833,
      "$#": 3834,
      "%Ĝ": 3835,
      "ďđ": 3836,
      "Đ!": 3837,
      "Đęę": 3838,
      "ĐęęĜ": 3839,
      "ĒęęĞ": 3840,
      "Ēėęęė": 3841,
      "ē!": 3842,
      "Ĕď": 3843,
      "ĔęĜ": 3844,
      "ĔĚęęĘ": 3845,
      "ĔĖęęĘ": 3846,
      "ĔĘęęĖ": 3847,
      "ĕęě": 3848,
      "ĕĘęęĚ": 3849,
      "ĖĜĜ": 3850,
      "ėęĚ": 3851,
      "ėęěęęęę": 3852,
      "ėĚęęęęĚ": 3853,
      "ėĜě": 3854,
      "ėęěęęĘ": 3855,
      "ĘęĜ": 3856,
      "ĘėęęĚ": 3857,
      "Ęėě": 3858,
      "ęĀĀĚĀ": 3859,
      "Ěęğ": 3860,
      "ĚĚęęĖ": 3861,
      "Ěėė": 3862,
      "ĚęęĐ": 3863,
      "ĚėĜ": 3864,
      "Ěĝě": 3865,
      "ĚěęęęęĚ": 3866,
      "ĚĝĜ": 3867,
      "ĚĔė": 3868,
      "ěęĖ": 3869,
      "ěęęęęęęęęęęę": 3870,
      "ěėė": 3871,
      "Ĝē": 3872,
      "ĜęęęĘ": 3873,
      "ĜėĘ": 3874,
      "ĜėęęĜ": 3875,
      "ĝĘęęĜ": 3876,
      "ĝęęęĝ": 3877,
      "ĝęęęęĚĘ": 3878,
      "ğĀĀėĀ": 3879,
      "Ġ&": 3880,
      "Ġęĝ": 3881,
      "ĠęĘĘ": 3882,
      "ĠęęęęĚ": 3883,
      "ĠĀĔ": 3884,
      "ĠĀĀĖĀ": 3885,
      "Ġěęęĝ": 3886,
      "ĠĀĀĚĀĘ": 3887,
      "ĠĀĀėĀĘ": 3888,
      "ĠĀĀĞĀ": 3889,
      "ęĚęęğ": 3890,
      "ęĚęęęĚęęĚ": 3891,
      "ęĚęĝęęĘ": 3892,
      "ęĚęĚęęęęęęęęęęę": 3893,
      "ęĚęęęęęęęęęęęęęęęęęęęęęęęęęęę": 3894,
      "ęĘęėęęęęĚ": 3895,
      "ęęĘĖęęĚ": 3896,
      "ęęĘęęĚę": 3897,
      "ęęĘĕęęĘ": 3898,
      "ęęĘėęęĘę": 3899,
      "ęęĚęęęĘę": 3900,
      "ęě#": 3901,
      "ęěęęęęĚĘ": 3902,
      "ęěęĘęęĘę": 3903,
      "ęėď": 3904,
      "ęėęĝ": 3905,
      "ęėęęęĘę": 3906,
      "ęėęėęęęęĘ": 3907,
      "ęęęęęęęęęĚęęęĚ": 3908,
      "ęęěęęęĚęęĚ": 3909,
      "ęęěĝęęĚ": 3910,
      "ĘęęęęęęĘęęęęęę": 3911,
      "ęęęĚĚęęęę": 3912,
      "ęęęĚęĕ": 3913,
      "ęĜęĚęęě": 3914,
      "ęĖęęęĘ": 3915,
      "ęĖęėęęęę": 3916,
      "ęĖęĜęęĚ": 3917,
      "ęĚęęęęęęĚĘęęęę": 3918,
      "ęĚęęęęĚęęęęęę": 3919,
      "ęĕęěęęĘ": 3920,
      "ęĚĚĘęęĖ": 3921,
      "ęĘĘěęęě": 3922,
      "ęĘĘĚęęęęęęęę": 3923,
      "ęĚĘěęęĖ": 3924,
      "ęĚĘěęęęęĘ": 3925,
      "ęĘĚęęęĝ": 3926,
      "ęĘĚěęęĚę": 3927,
      "ęęĕęęĚ": 3928,
      "ęęĕĘęęė": 3929,
      "ęęĕęęęĖ": 3930,
      "ęęĕĖęęė": 3931,
      "ęęęěęęęęęęęę": 3932,
      "ėęęęęĜ": 3933,
      "ěęęęęěě": 3934,
      "ęęęęęęęęęęęęęęęĚęęęęęę": 3935,
      "ęĞęęęęĘ": 3936,
      "ęęĚęęęęęęĚęęęęę": 3937,
      "ęĔĘęęęę": 3938,
      "ęęĞęĕ": 3939,
      "ęěĚĚęęė": 3940,
      "ęěĚęęęĖ": 3941,
      "ęěĚĚęęĜ": 3942,
      "ęĘėěęęĚ": 3943,
      "ęĘėĖęęęę": 3944,
      "ęĘėĚęęĕ": 3945,
      "ęĚėěęęęę": 3946,
      "ęĚėĖęęęę": 3947,
      "ęěĘĘęęęęĚ": 3948,
      "ęěĘĚęęĖ": 3949,
      "ęěĘĘęęĘę": 3950,
      "ęĘěęęęė": 3951,
      "ęėĘĘęęĖ": 3952,
      "ęėĘĝęęęę": 3953,
      "ęėĚĚęęĜ": 3954,
      "ęęēę": 3955,
      "ęęęĘęęęęĚęęęęęę": 3956,
      "ęėėĝęęĘ": 3957,
      "ęěěěęęęę": 3958,
      "ĚęęęęĘĘĘęęęę": 3959,
      "ęěėėęęĚ": 3960,
      "ęěėęęęĘę": 3961,
      "ěĚě": 3962,
      "ěĚęęĕ": 3963,
      "ěĚęęğ": 3964,
      "ęĚĚęęęęęęĘęęęę": 3965,
      "ęėěĜęęĚ": 3966,
      "ęĘĘęęęęęęĘęęęę": 3967,
      "ęęĒę": 3968,
      "ėĚęęĝ": 3969,
      "ėĚěęęęę": 3970,
      "ėĚěęęĚ": 3971,
      "ėĚęęē": 3972,
      "ėĘĚęęĚ": 3973,
      "ęĜĚĜęęĚ": 3974,
      "ęĘĜėęęĜ": 3975,
      "ęĖĚěęęě": 3976,
      "ęĜĘėęęęę": 3977,
      "ęęĚęęęĚęęĚęęęęę": 3978,
      "ěĘĞ": 3979,
      "ęĘĚęęęęęĘęęęęęę": 3980,
      "ęėĖĚęęĖ": 3981,
      "ęėĖěęęĖ": 3982,
      "ęęęęĘĘęęęĘ": 3983,
      "ęĜěėęęęę": 3984,
      "ęĜěĖęęĚ": 3985,
      "ęĖėěęęęę": 3986,
      "ęęęęĚĚėęęĚ": 3987,
      "ęěĖĚęęĖ": 3988,
      "ęęęęĚĘęęęĘ": 3989,
      "ėęęĖę": 3990,
      "ĖĚě": 3991,
      "ĖĚĝ": 3992,
      "ĖĚęęē": 3993,
      "ĜěęęĞ": 3994,
      "ęđĔ": 3995,
      "ęĜĜęęęě": 3996,
      "ęĜĜěęęĚ": 3997,
      "ęĜĜęęęĜ": 3998,
      "ęĘĕęęęĖ": 3999,
      "ęĕĚėęęĚ": 4000,
      "ęĜęęęęęęĘ": 4001,
      "ĕĚ!": 4002,
      "ĕĚęęĒ": 4003,
      "ěėĜ": 4004,
      "ěėĝ": 4005,
      "ĝĚęęğ": 4006,
      "ęĕĘĚęęĚ": 4007,
      "ęĖĖěęęĘ": 4008,
      "ęĝĘĘęęĘ": 4009,
      "ęĝĘĘęęė": 4010,
      "ęĚęėęęĚę": 4011,
      "ĕĘęęĒ": 4012,
      "ĜĜĝ": 4013,
      "ĜĜęęĝ": 4014,
      "ęĚĕĚęęė": 4015,
      "ĚĚĚ": 4016,
      "ĘĘęęĞ": 4017,
      "ęėĕęęęė": 4018,
      "ĝěęę": 4019,
      "ęĜĖĘęęĘ": 4020,
      "ěĞğ": 4021,
      "ěĞęęęę": 4022,
      "ĀĀďĀĝ": 4023,
      "ĚĘĜ": 4024,
      "ĚĘĝ": 4025,
      "ĚĘęę": 4026,
      "ĜĞęęĚ": 4027,
      "ĀĀ$ĀĖ": 4028,
      "ĀĀ$ĀĞ": 4029,
      "ĝĝęęĜ": 4030,
      "ěĖĜ": 4031,
      "ĀĀĎĀĝ": 4032,
      "ĀĀĎĀĔ": 4033,
      "Ġĝęęĝ": 4034,
      "ĝĜęęĞ": 4035,
      "ęĜĕęęęė": 4036,
      "ęĜĕĘęęė": 4037,
      "ĀĀĚĀĘĘ": 4038,
      "ęĖĝĚęęě": 4039,
      "ęĘęěęęĘę": 4040,
      "ĀĀ'ĀĜ": 4041,
      "ĀĀ'Āĝ": 4042,
      "ĔĝęęĖ": 4043,
      "ğĞęęě": 4044,
      "ĞĞęęě": 4045,
      "ęĘęĘęęęęęęęęęęę": 4046,
      "ęęęęęęęęęĘę": 4047,
      "\"ęęĚ": 4048,
      "#ęęęę": 4049,
      "#ĀĀĘĀ": 4050,
      "%#": 4051,
      "ĎĔ": 4052,
      "ĐĎ": 4053,
      "ĐęęĖ": 4054,
      "đę": 4055,
      "đęęĞ": 4056,
      "ēěęęĖ": 4057,
      "Ĕėęęė": 4058,
      "ĔěĜ": 4059,
      "ĔěĞ": 4060,
      "ĕęĜ": 4061,
      "ĕĜęęė": 4062,
      "ĕĘĚ": 4063,
      "ĕęę\"": 4064,
      "ĕĕě": 4065,
      "ĖęĚ": 4066,
      "ĖěęęĚ": 4067,
      "ĖĜě": 4068,
      "Ėĕęęė": 4069,
      "Ėĝě": 4070,
      "ėęĘęęęę": 4071,
      "ėęęęęęęęęęęęę": 4072,
      "ėěĚ": 4073,
      "ėęĚęęĘ": 4074,
      "ėĕęęĚ": 4075,
      "ėĘęęĘę": 4076,
      "ėĕě": 4077,
      "ėęęęęęęęęęęęĘ": 4078,
      "Ęď": 4079,
      "ĘěęęĚ": 4080,
      "Ęęğ": 4081,
      "ĘĖĚ": 4082,
      "ĘĖě": 4083,
      "ĘėĜ": 4084,
      "ęĀĀĘĀĘ": 4085,
      "ĚĎ": 4086,
      "ĚęĜ": 4087,
      "ĚĜęęĘ": 4088,
      "ĚěĚ": 4089,
      "ĚĝęęĘ": 4090,
      "Ěěĝ": 4091,
      "ĚĖĝ": 4092,
      "Ěěğ": 4093,
      "ěęĘęęĘ": 4094,
      "ěĝęęĘ": 4095
    },
    "merges": [
      "ę ę",
      "ęę ęę",
      "ę Ě",
      "ę Ę",
      "ęę Ę",
      "ęę Ě",
      "Ā Ā",
      "ę ě",
      "ę ė",
      "ęęęę ęęęę",
      "ęę ė",
      "ęę ě",
      "Ę ęęęę",
      "Ě ęęęę",
      "ęę ęĘ",
      "ęę ęĚ",
      "ę Ĝ",
      "ę Ė",
      "ęę Ė",
      "ęę Ĝ",
      "ęĚ ęęęę",
      "ęĘ ęęęę",
      "ę ĝ",
      "ę ĕ",
      "Ę ęęĚ",
      "Ě ęęĘ",
      "Ę ęęĘ",
      "ęĚ Ě",
      "ęęęę Ę",
      "Ě ęęĚ",
      "ęĘ Ę",
      "ęęęę Ě",
      "ęĚ Ę",
      "ęĘ Ě",
      "ęę ĕ",
      "ęę ĝ",
      "ęę ęė",
      "ęę ęě",
      "ęę ę",
      "ė ęęęę",
      "ě ęęęę",
      "ęęęęęęęę ęęęę",
      "ę Ğ",
      "ęęĚ ęęęę",
      "ęęĘ ęęęę",
      "ė ęęĚ",
      "Ā Ě",
      "ęę Ĕ",
      "Ā Ę",
      "ě ęęĘ",
      "ę Ĕ",
      "ęę Ğ",
      "ĀĀ Ę",
      "ĀĀ ę",
      "ė ęęĘ",
      "ęĚ ě",
      "Ę ęęě",
      "Ě ęęė",
      "Ā ě",
      "Ā ė",
      "ě ęęĚ",
      "ęě Ě",
      "ęĘ ė",
      "Ę ęęė",
      "ęĚ ė",
      "ĀĀ Ě",
      "ęě Ę",
      "ĀĀ ė",
      "ęĘ ě",
      "ęė Ę",
      "Ě ęęě",
      "ęė Ě",
      "Ā Ė",
      "ęęęęęęęę ęęęęęęęę",
      "ę ğ",
      "ęę ęĜ",
      "Ā Ĝ",
      "ęę ē",
      "ĀĀ ě",
      "ęę ęĖ",
      "ĀĀ Ė",
      "ęę ğ",
      "ęęęĘ ęęęę",
      "ę ē",
      "ęė ė",
      "ě ęęė",
      "Ęęęęę Ę",
      "ęęęĚ ęęęę",
      "Ė ęęĚ",
      "Ā ĕ",
      "ė ęęě",
      "ęě ě",
      "ęęĘ ę",
      "ęě ęęęę",
      "Ė ęęęę",
      "Ā ĝ",
      "Ęęęęę Ě",
      "Ĝ ęęęę",
      "Ěęęęę Ě",
      "ęė ęęęę",
      "ęĘ ęęĚ",
      "Ěęęęę Ę",
      "ĀĀ Ĝ",
      "ęęęĚ ę",
      "ęě ė",
      "Ĝ ęęĘ",
      "Ė ęęĘ",
      "ęęęĘ ę",
      "ě ęęě",
      "Ĝ ęęĚ",
      "ęĚ ęęĚ",
      "ė ęęė",
      "ě Ě",
      "ĀĀ ĕ",
      "ęĚ ęęĘ",
      "ęĚ Ěęęęę",
      "Ę ęęĜ",
      "ęė ě",
      "ęĘ Ęęęęę",
      "ęĚ Ĝ",
      "Ā Ĕ",
      "ĀĀ ĝ",
      "ęę Ē",
      "ė Ě",
      "ęĚęęęę Ę",
      "ęĘ ęęĘ",
      "ė Ę",
      "ęĘęęęę Ě",
      "Ā Ğ",
      "ęĘ Ė",
      "ęĜ Ě",
      "ęĘ Ĝ",
      "ęĖ Ę",
      "ęĖ Ě",
      "ęĜ Ę",
      "ęĘęęęę Ę",
      "ĀĀ Ĕ",
      "ęĚ Ė",
      "ęĚęęęę Ě",
      "ęęęęęęęę ęęę",
      "ęęĚ ęęęĚ",
      "ęĚ Ęęęęę",
      "ě Ę",
      "Ę ęęĖ",
      "Ě ęęĖ",
      "ęĘ Ěęęęę",
      "ęęĘ ęęęĘ",
      "ę Ē",
      "ęę ęĕ",
      "ĀĀ Ğ",
      "ęě Ĝ",
      "Ė ęęě",
      "ęęĚ ę",
      "Ě ęęĜ",
      "ě ě",
      "Ā ē",
      "ęę ęĝ",
      "ęė Ė",
      "Ĝ ęęė",
      "ęęęęĘ Ę",
      "ė ęęĜ",
      "ė ě",
      "ęĜ ě",
      "ęęęęĘ Ě",
      "ęę !",
      "ĀĀ ğ",
      "ęĖ ė",
      "ĕ ęęęę",
      "Ā ğ",
      "ęęęęĚ Ě",
      "ĀĀ ē",
      "ęě Ė",
      "ęė Ĝ",
      "ĕ ęęĘ",
      "ė ė",
      "ęę đ",
      "ęęęęĚ Ę",
      "Ĝ ęęě",
      "Ė ęęė",
      "ě ęęĖ",
      "ęęęĘ ęęĚ",
      "Ĝ Ě",
      "ĕ ęęĚ",
      "ĝ ęęęę",
      "ė ęęĖ",
      "ęęęĚ ęęĚ",
      "ęĖ ě",
      "ĝ ęęĘ",
      "ęĜ ė",
      "Ė Ě",
      "ęęęĘ ęęĘ",
      "ĀĀ Ē",
      "Ė Ę",
      "ęęęĚ ęęĘ",
      "Ĝ ě",
      "ę !",
      "Ā Ē",
      "Ĝ Ę",
      "ę đ",
      "ĝ ęęĚ",
      "ęĜ Ĝ",
      "ęĘ ęĚęęęę",
      "ĚęęĘ ę",
      "ęĖ ęęęę",
      "ęĚ ĝ",
      "ĘęęĚ ę",
      "ĀĀĘ Ā",
      "ęĘ ĕ",
      "ęĕ Ě",
      "ě ęęĜ",
      "ĀĀę Ā",
      "ĀĀ !",
      "ęĚ ęĘęęęę",
      "ęĜ ęęęę",
      "ęě ęęĘ",
      "ęĝ Ě",
      "ęĚęęęę ęę",
      "ĀĀ đ",
      "Ę Ě",
      "ĕ Ě",
      "ęę \"",
      "ě ė",
      "ęęě ęęęę",
      "ĝ Ě",
      "ě Ĝ",
      "ęĕ Ę",
      "ęęęęęęęęęęęę ę",
      "ęĖ Ė",
      "ęĝ Ę",
      "ęĚ ęė",
      "ĕ Ę",
      "ęĘęęęę ęę",
      "ęęė ęęęę",
      "ęĚĘ ęęęĘ",
      "ęęĘ Ęęęęę",
      "ęĘ ĝ",
      "Ė ęęĜ",
      "ĀĀė Ā",
      "ęęę Ĕ",
      "Ė ě",
      "ĘęęĘ ę",
      "Ĝ Ĝ",
      "ęĚ ĕ",
      "ęęę Ğ",
      "Ěęęęę ę",
      "ęĘĚ ęęęĚ",
      "Ę ęęĝ",
      "Ĝ ęęĖ",
      "ĚęęĚ ę",
      "ęĘĘ ęęęĘ",
      "ęę Đ",
      "ĀĀĚ Ā",
      "Ě Ě",
      "ĝ ęęė",
      "ęě ĝ",
      "ęĚĚ ęęęĚ",
      "ĀĀ Đ",
      "ęě ęęĚ",
      "ė Ė",
      "ė Ĝ",
      "ęĘ ęęęęęęęę",
      "ĕ ęęė",
      "Ę Ę",
      "ĕ ęęě",
      "ĀĀ \"",
      "ęĘ ęĚ",
      "ęęĘęęęę ę",
      "ęĘ ęĘęęęę",
      "ĀĀě Ā",
      "ęęĚęęęę ę",
      "ęĝ ě",
      "ęė ĕ",
      "ĀĀĖ Ā",
      "Ęęęęę ę",
      "Ė ė",
      "ęęĚ Ěęęęę",
      "Ė ęęĖ",
      "ĝ ě",
      "ęęęę ęęĚ",
      "ęĚ ęĚęęęę",
      "ęęĚ ĚęęĚ",
      "ęĕ ė",
      "ęęĘ ĚęęĘ",
      "ęĜ Ė",
      "ęęĚ ĘęęĚ",
      "ęęęę ęęĘ",
      "ě Ğ",
      "ęĘ ęęė",
      "Ę ęęĕ",
      "Ě ęęĕ",
      "ęė ęęĚ",
      "ě ĝ",
      "ĀĀ ď",
      "ę \"",
      "ĀĀ #",
      "Ĕ ęęĚ",
      "Ĝ ĝ",
      "ęĚ ęęęęęęęę",
      "ė ęęĝ",
      "ęęĚ Ęęęęę",
      "ęė ęęĘ",
      "Ĕ ęęĘ",
      "ė ĝ",
      "ęęĘ ĘęęĘ",
      "ęęĘ Ěęęęę",
      "Ğ Ě",
      "ęě ĕ",
      "ęė ĝ",
      "ě ęęęęĘ",
      "ęĘ ėęęęę",
      "ęĘ ęęě",
      "Ė ĝ",
      "ęĖ Ĝ",
      "ė ęęęęĘ",
      "ęě ęęęęĘ",
      "ě ęęĕ",
      "Ě Ę",
      "Ĝ ęęĜ",
      "Ĝ Ğ",
      "ęĘĘ ĚęęĘ",
      "ĀĀ $",
      "Ěęęęę ęę",
      "ęĝ ė",
      "ęĜ ĝ",
      "Ĕ ęęęę",
      "ęĚ ęĘęęĚ",
      "ęĘ ęĚęęĚ",
      "ęĚĚ ĘęęĚ",
      "Ęęęęę ęę",
      "ęęęĘ ęęęęęęęę",
      "ė ęęĕ",
      "ęęęĚ ęęęęęęęę",
      "ęęĘ ęęęęęęęę",
      "Ĕ Ě",
      "ęę #",
      "Ġ Ě",
      "ė ęęęęĚ",
      "ĝ ĝ",
      "ęĘęęęę ęęĚ",
      "Ĕ Ę",
      "ęĕ ě",
      "Ğ ęęĘ",
      "Ę Ęęęęę",
      "ęĚęęęę ęęĚ",
      "ě Ė",
      "ęĚ ęęě",
      "ęĚęęęę ęęĘ",
      "ęĚĘ ĚęęĘ",
      "ęĘ ęĘęęĚ",
      "ĀĀ %",
      "ęĕ Ė",
      "ĀĀĘ ĀĘ",
      "ĀĀ Ď",
      "ě ęęęęĚ",
      "ęĚ Ğ",
      "ĀĀĜ Ā",
      "ęĖ ĕ",
      "ęĝ Ĝ",
      "ęęęęęęęęęęęę ęęę",
      "ęęę ē",
      "ĀĚ Ě",
      "ĕ ė",
      "ęė ęęęęĚ",
      "ęĚ ęęė",
      "Ěęęęę ęęĚ",
      "ęĚ ěęęęę",
      "ęĘĚ ĘęęĚ",
      "ĀĀĕ Ā",
      "Ė Ė",
      "ęĘĚ ĚęęĚ",
      "Ġ ĝ",
      "Ę ęęęĘ",
      "ęĚĚ Ęęęęę",
      "ęĚĘ ĘęęĘ",
      "ę Đ",
      "ęęė ęęęĘ",
      "ęĞ Ě",
      "ĕ ě",
      "ĕ ęęĖ",
      "ęĘ Ğ",
      "ęĘęęęę ęęĘ",
      "Ĝ ė",
      "ęĚ Ĕ",
      "Ę ęęęęęęęę",
      "ęę ď",
      "ĀĀ &",
      "ĕ ęęĜ",
      "ĀĚ Ę",
      "Ė Ğ",
      "ĀĀę Āė",
      "Ě Ěęęęę",
      "ęĘ ęĚęęĘ",
      "ęĖ ęęĚ",
      "ęęę ğ",
      "ĀĀę ĀĘ",
      "ĀĀĝ Ā",
      "ĕ Ĝ",
      "Ě ęęĝ",
      "ě ğ",
      "Ġ Ĝ",
      "ęĚęęęę ę",
      "ęĘęęęę ę",
      "ęĘĘ Ěęęęę",
      "ě ęęĝ",
      "ęęě ęęęĚ",
      "ĕ ĝ",
      "Ě ęęęęęęęę",
      "ęĘĚ Ěęęęę",
      "Ę Ěęęęę",
      "ęĘ Ĕ",
      "ęě ęęęęĚ",
      "Ė Ĝ",
      "ęĚ ęĘęęĘ",
      "ęě Ğ",
      "ĀĀĘ Āė",
      "ęě Ěęęęę",
      "ęė Ęęęęę",
      "ē Ě",
      "ĝ Ĝ",
      "ĝ ęęě",
      "ęęĚ ęęęęęęęę",
      "Ĕ ęęė",
      "Ė ęęĝ",
      "ęė ęęęęĘ",
      "ė Ğ",
      "ęęęęęęęęęęęęęęęę ęę",
      "ęĘĘ Ęęęęę",
      "ĀĀĔ Ā",
      "ęĞ Ę",
      "Ě Ęęęęę",
      "ęĚĚ Ěęęęę",
      "Ĕ ęęě",
      "Ě ęęęĚ",
      "ĝ Ę",
      "ęĜ ĕ",
      "ęĘĘ ĘęęĘ",
      "ęęęė ęęęę",
      "ęęęė ę",
      "Ğ ęęĚ",
      "ęĜ ęęĘ",
      "ė ęęĞ",
      "ęĝ Ė",
      "ęĕ ęęęę",
      "ĀĀĘ Āě",
      "Ĕ ě",
      "ęę $",
      "Ę ęęĞ",
      "ęęęě ęęęę",
      "Ğ ęęęę",
      "ĀĀĚ ĀĘ",
      "Ęęęęę ęęĘ",
      "ęė Ĕ",
      "ĀĀė ĀĘ",
      "ęĚ ęĘ",
      "Ė ęęĕ",
      "ę #",
      "ęĘ ęęęĘ",
      "ĀĀę Āě",
      "ęęęęęęęęęęęęęęęę ęęęęęęęę",
      "ęĚ ęĚęęĘ",
      "Ġ ğ",
      "ęęě ĘęęĚ",
      "ęĕ Ĝ",
      "ęĚĘ Ęęęęę",
      "ęĖ ĝ",
      "ĕ Ğ",
      "ęĖ ęęĘ",
      "ęęęě ę",
      "Ġ Ğ",
      "ęĔ Ę",
      "ęęė ĚęęĘ",
      "ęęęė ęęĚ",
      "ę ĀĀ",
      "ęĝ ęęęę",
      "Ĝ ğ",
      "ĀĀĞ Ā",
      "ė ğ",
      "ęĚ ęęęęęęęęęęęę",
      "ęĚ ęĚęęĚ",
      "Ęęęęę ęęĚ",
      "ęĜ ęęĚ",
      "ęĚě ęęęĚ",
      "Ĝ ęęĕ",
      "ē Ę",
      "ĕ Ė",
      "ęĚ ęęęĚ",
      "ĀĀĘ ĀĖ",
      "ęęĚęęęę ęęĚ",
      "ęĔ Ě",
      "ĀĀĘ ĀĚ",
      "ė ĘęęĘ",
      "ęĘ ęě",
      "ęĘė ęęęĘ",
      "ęĚĚ ĚęęĚ",
      "ęĘĘęęęę ę",
      "ė ęęęĘ",
      "ĀĀę ĀĚ",
      "ęĚĚęęęę ę",
      "ĀĀ '",
      "ē ęęĚ",
      "ęĘ ęęęęęęęęęęęę",
      "ě ęęęĚ",
      "ĀĀğ Ā",
      "ē ė",
      "Ĕ ĝ",
      "Ě ĝ",
      "Ġ Ę",
      "ęĚě ĘęęĚ",
      "ęĘ ęĘęęĘ",
      "ē ęęĘ",
      "Ĕ ė",
      "ęĘ ěęęęę",
      "ęė ęęě",
      "ĀĀė Āė",
      "ęĘě ęęęĚ",
      "ęę Ď",
      "Ġ ě",
      "ğ Ě",
      "ęė Ğ",
      "ĀĀĚ Āė",
      "ęė Ěęęęę",
      "ĀĀę ĀĖ",
      "ęĝ ĝ",
      "ęęęě ęęĘ",
      "ęęĚęęęę ęęĘ",
      "ĀĀė Āě",
      "ęě Ĕ",
      "ęĖ Ĕ",
      "ęęęě ęęĚ",
      "ĀĀĚ Āě",
      "ęě Ęęęęę",
      "ęęĘęęęę ęęĚ",
      "ĀĀė ĀĚ",
      "Ę ĚęęĘ",
      "ęĘĘ ěęęĘ",
      "ęĞ ě",
      "ęęĘęęęę ęęĘ",
      "ĕ ęęĝ",
      "ęĚ ėęęęę",
      "ęĞ Ĝ",
      "ğ Ğ",
      "Ěęęęę ęęĘ",
      "ĘęęęęĘ Ě",
      "ė Ęęęęę",
      "ęęęė ęęĘ",
      "ęęĘęęęę ęę",
      "ĀĀĖ ĀĚ",
      "Ė ęęęęĘ",
      "Ę ĝ",
      "ęęě ĚęęĚ",
      "ęĘĚ Ęęęęę",
      "ęęęęęęęę ęęęęęęęęęęęę",
      "ĀĀĚ ĀĖ",
      "ĕ ęęĕ",
      "Ğ Ğ",
      "ęĘė ĚęęĘ",
      "ĀĀĚ ĀĚ",
      "Ĕ Ė",
      "Ě ě",
      "Ę ĘęęĘ",
      "ęĚ ğ",
      "ęĜ Ğ",
      "ęĘĚęęęę ę",
      "Ĕ ęęĖ",
      "ė ĚęęĘ",
      "Ė ęęĞ",
      "ĀĀ (",
      "ęęė ĘęęĘ",
      "ęęęęęęęęęęęęęęęę ęęę",
      "ęęĚęęęę ęę",
      "ě Ěęęęę",
      "ęĚė ęęęĘ",
      "Ġ ė",
      "ęĘ ęĘ",
      "ęě ęęė",
      "ĕ ğ",
      "ě ĘęęĚ",
      "ęğ Ě",
      "Ĝ ęęĝ",
      "Ĕ Ğ",
      "Ę Ğ",
      "Ę ęęĔ",
      "ę ď",
      "ęĝ Ğ",
      "ĀĀē Ā",
      "ęė ęĚęęĚ",
      "ęęĚ ęęĘ",
      "ęĘĘ ęęęĚ",
      "Ĕ ęęĜ",
      "Ě ğ",
      "ęĘ ęěęęęę",
      "ē ęęęę",
      "ē ęęė",
      "ęě ğ",
      "ĀĀę Āĕ",
      "ĀĀě ĀĘ",
      "ęěĚ ęęęĚ",
      "Ĕ Ĝ",
      "ęĚĚ ėęęĚ",
      "ĚęęęęĘ Ě",
      "ĕ ĕ",
      "Ė ğ",
      "ė ęęĔ",
      "ĝ ęęĜ",
      "ęęĚ ęęęĘ",
      "ęęęĘ ęęė",
      "ęęę Ē",
      "ĀĀė ĀĖ",
      "Ě Ğ",
      "ęĘ ĚęęĘ",
      "ęĚĚ ęęęě",
      "ęĚĚ ęęęĘ",
      "ĀĀĚ ĀĜ",
      "ē ě",
      "ē ĝ",
      "ėęęĘ ę",
      "ęęęęęęęę Ě",
      "ęĕ ĕ",
      "ęĔ ė",
      "ĀĀę ĀĜ",
      "ĚęęęęĚ Ě",
      "Ĝ ęęęęĚ",
      "ęě ęĘęęęę",
      "ęĝ ĕ",
      "ěęęĚ ę",
      "Ě ęęĔ",
      "ęĚ ęĘęęęęĘ",
      "ęęęęęęęę Ę",
      "ęĚĘ Ěęęęę",
      "ęĞ ė",
      "ĀĀĖ ĀĘ",
      "ęĚ ĘęęĚ",
      "ęĚė ĚęęĘ",
      "ęĘ ğ",
      "ėęęĚ ę",
      "ęěĘ ęęęĘ",
      "ĀĀĖ Āė",
      "ĚęęęęĘ Ę",
      "ě Ęęęęę",
      "ĀĀě ĀĖ",
      "Ė ęęęęĚ",
      "ĀĀ )",
      "ęĚĘęęęę ę",
      "Ġ Ā",
      "ęę %",
      "ęĚ ęęĘę",
      "ęęĚ ęęĚ",
      "ęěĘ ĘęęĘ",
      "ĀĀě Āė",
      "! ğ",
      "ĀĀ *",
      "ęėĚ ęęęĚ",
      "ě ĕ",
      "ęě ęęě",
      "ęĔ Ė",
      "ęĚě ĚęęĚ",
      "ĘęęęęĘ Ę",
      "ĝ ğ",
      "ĝ ęęĖ",
      "Ġ ęęęę",
      "ęĚ ęėęęęę",
      "ęęĚ ęęęě",
      "ĀĀĒ Ā",
      "Ĝ ęęęęĘ",
      "Ğ Ę",
      "ęė ęęė",
      "ęĚĘ ęęęė",
      "ęĘĘ ęęęė",
      "ĚęęęęĚ Ę",
      "! Ğ",
      "ė ĕ",
      "ęęĘ ęęĘ",
      "ē Ė",
      "ě ęęĔ",
      "ęęĘ ęęęė",
      "ęė ęĚęęęę",
      "ęĖ Ğ",
      "ĀĀĘ Āĕ",
      "ęĚė ĘęęĘ",
      "ęėĘ ęęęĘ",
      "ęė ėęęęę",
      "ęĜ Ĕ",
      "ęęęęęęęęęęęęęęęę ęęęęęęęęęęęęęęęę",
      "Ĝ Ė",
      "ęęĚ ęęęĚę",
      "ęęęĘ ęęě",
      "ęĔ ě",
      "ĀĀĘ ĀĜ",
      "ĘęęęęĚ Ę",
      "ęě ęĘęęĚ",
      "ęėĚ ĚęęĚ",
      "ĀĀĖ Āě",
      "ĘęęęęĚ Ě",
      "ē Ğ",
      "Ė ĕ",
      "ęĚ ęĘęęęęĚ",
      "ęęęęęęęę ęĘ",
      "ęĚęęęę ė",
      "! Ě",
      "Ē Ę",
      "ē ęęě",
      "ęęĚ ėęęĚ",
      "ĀĀě Āě",
      "đ Ę",
      "ęěĚ ĘęęĚ",
      "ęĘė ĘęęĘ",
      "ęĘě ĘęęĚ",
      "ęě ęĘęęĘ",
      "ęĞ Ė",
      "ěęęĘ ę",
      "ęėĘ ĚęęĘ",
      "ęĚęęęęĘ ę",
      "ęĘęęęę ě",
      "ęĕ ĝ",
      "ęĚĚ ĘęęĘ",
      "ęĘĚ ęęęě",
      "ė Ěęęęę",
      "ė ęęğ",
      "ęęĘ ęęęĚ",
      "ęęĘ ęęęĘę",
      "ęĞ ĝ",
      "ě ęęĞ",
      "Ġ !",
      "Ġ Ė",
      "ĀĀě ĀĚ",
      "ęęęĘęęęę ę",
      "ĀĀĜ Āė",
      "Ē ė",
      "ęĚ ęęĜ",
      "ęĘ ęĚęęęęĘ",
      "ęě ěęęęę",
      "ęěĚ Ęęęęę",
      "ĀĀĜ ĀĘ",
      "Ē Ě",
      "Ę ğ",
      "ę $",
      "Ğ ęęė",
      "ęęĚ Ęęęě",
      "ĀĀĖ ĀĖ",
      "! Ĝ",
      "đ Ě",
      "ęĘ ęĚęęęęĚ",
      "ęě ęĚęęĘ",
      "ęĔ Ĝ",
      "ĀĀĚ Āĕ",
      "ĀĀė Āĝ",
      "ęėĘ Ěęęęę",
      "ęğ ě",
      "ĝ Ğ",
      "ęĘ ē",
      "ęęĘ ěęęĘ",
      "ĀĀ +",
      "ęęęęęęęę ęĚ",
      "ęĚęęęę ě",
      "ęęę !",
      "Ěęęė ę",
      "Ęęęė ę",
      "ęğ Ĝ",
      "ęęě ęęęě",
      "ęęęĚ ęęė",
      "ęęĖ ęęęę",
      "ęĚĘ ęęęĘę",
      "ĀĀĘ Āĝ",
      "ĀĀė Āĕ",
      "Ěęęě ę",
      "đ ė",
      "ē Ĝ",
      "Ġ ĕ",
      "ęĘ ęęĖ",
      "ęė ęĚęęĘ",
      "ęĜ ğ",
      "ęĘęęęę ė",
      "ęĕ ęęĚ",
      "ęĞ ęęęę",
      "ęĘęęęęĚ ę",
      "! ĝ",
      "Ĕ ğ",
      "ęĚ ē",
      "ęęęĚ ęęęęĘ",
      "ęęĜ ęęęę",
      "ęĚĚ ęęĚ",
      "ĀĀė ĀĜ",
      "ęĘě ĚęęĚ",
      "! ě",
      "Ę ęęğ",
      "ě ĚęęĚ",
      "Ğ ğ",
      "ęĘ ęěęęĘ",
      "ęęė ęęęė",
      "ęĘĘ ęęęĘę",
      "ĀĀĔ ĀĘ",
      "ęĚęęęęĚ ę",
      "ĀĀ! Ā",
      "Ė ęęĔ",
      "ęė ğ",
      "ęĜ ęęęęĘ",
      "ęĚĘ ėęęĘ",
      "ĀĀđ Ā",
      "ęęęęęęęę ęęęĘ",
      "ęĘĚ ęęęĚę",
      "ĀĀĕ Āě",
      "Ĕ ęęĝ",
      "Ġ ęęĘ",
      "ęęęĘ ęęęęĘ",
      "ęĜ ęęė",
      "ęĚĚ ęęęĚę",
      "ęğ Ę",
      "ĀĀĕ ĀĘ",
      "ĀĀĐ Ā",
      "Ĕ ĕ",
      "ęęęĚ ęęě",
      "ĀĀĘ ĀĔ",
      "Ē ě",
      "ė ęęęęĘĘ",
      "Ġ ĀĀ",
      "ęęęĚ ęęęęĚ",
      "ęĖ ęęęęĚ",
      "ęĚęė ęęĘ",
      "ęĘ ĘęęĘ",
      "ĀĀę Āĝ",
      "ĀĀĕ ĀĚ",
      "ęĝ ęęĘ",
      "ęĘĚ ęęęĘ",
      "ęėĚ ĘęęĚ",
      "ęęęĚęęęę ę",
      "ęĘęęęęĘ ę",
      "đ Ė",
      "ė ęę",
      "Ě ĚęęĚ",
      "ęė ē",
      "ęęě Ęęęě",
      "ęĚĚ Ęęęě",
      "ęĘĚ ěęęĚ",
      "ęęę đ",
      "ĀĀĜ Āě",
      "ĀĀĝ ĀĘ",
      "\" Ě",
      "Ġ ęęĚ",
      "ęĖ ğ",
      "ęĘĚ ėęęĚ",
      "ęěĘ ĚęęĘ",
      "ęėė ęęęĘ",
      "ė ęęęęĚĚ",
      "Ę ě",
      "Ĝ ĕ",
      "ęĚ ęęĖ",
      "ęĚĚ ėęęęę",
      "ĀĀĖ ĀĜ",
      "ĀĀ\" Ā",
      "ĝ Ė",
      "ęęĚ ěęęĚ",
      "ęĘĘ ĘęęĚ",
      "Ē ĕ",
      "Ē ęęĘ",
      "Ĕ ęęĕ",
      "ęęęĘ ęęęęĚ",
      "ęĔ ĕ",
      "ĀĀę ĀĔ",
      "Ĝ ęęĔ",
      "ęĚė ęęęė",
      "Ē Ė",
      "ęĚĘ ęęęĚ",
      "\" Ğ",
      "ęęĘ Ěęęė",
      "ęĖ ęęě",
      "ęĚĘ ěęęĘ",
      "ė ěęęĘ",
      "Ę ęę",
      "Ě ĘęęĚ",
      "ęĚ ęĚęęęęĘ",
      "ęĘ ęėęęęę",
      "ęĖ ęęęęĘ",
      "ęĝ ğ",
      "ĀĀĚ Āĝ",
      "ęěĘ Ęęęęę",
      "Ĕ ę",
      "ğ ęęĘ",
      "ęĘ ęĘęęęęĘ",
      "ęęĘ ėęęĘ",
      "ęęęęęęęę ęęęĚ",
      "ęĚě ęęęě",
      "ęē Ę",
      "đ ĕ",
      "Ē Ğ",
      "ě ěęęĚ",
      "ęĘ ęęĘę",
      "ęė ęĘęęęę",
      "ęęė Ęęęęę",
      "ęĜ ęęęęĚ",
      "ęĚĘ Ęęęė",
      "ĀĀě ĀĜ",
      "ĀĀ# Ā",
      "Ě Ĝ",
      "ęĚ ęěęęęę",
      "ęĘ ęęĜ",
      "ęĘ ęęęęęęęęęęę",
      "ęęĘ ęęęęęęęęęęęę",
      "ęęė Ěęęė",
      "ęęě ę",
      "ęē Ě",
      "ĀĀĜ ĀĖ",
      "ęĚęė ęęĚ",
      "ęĖ ęęė",
      "ęĝ ęęĚ",
      "ęęĘęęęę ęęĘęęęę",
      "ĀĀě Āĕ",
      "ĀĀĕ ĀĖ",
      "Ė ęęęĘ",
      "ė ėęęĘ",
      "ęęĜ ęęęĚ",
      "ęĚĘ ėęęęę",
      "ĀĀĚ ĀĔ",
      "ĀĀě Āĝ",
      "ĀĀĜ ĀĚ",
      "ěĚ ęęĜ",
      "ĀĀĝ Āě",
      "ĀĀĝ Āė",
      "ē ğ",
      "ęĚ ęęęęęęęęęęęęę",
      "ęĘ ęěęęĚ",
      "ęęĘ ėęęęę",
      "ęĘęęęę ęęęĘ",
      "ęĕ Ğ",
      "ęĚĘ Ěęęė",
      "ęěĚ ĚęęĚ",
      "ęē ė",
      "ęęęĚęęęę ęęĘ",
      "Ē ęęęę",
      "Ē ęęĚ",
      "ęĘ ę",
      "ęĘ ęęęęęęęęęęęęę",
      "ęęĚ ĚęęĘ",
      "ęęĚ ĘęęĘ",
      "ęė ęĘęęĚ",
      "ęĘė ęęęė",
      "ęěě ęęęĚ",
      "ė ėęęęę",
      "Ę ęęęęęęęęęęę",
      "Ĝ ĘęęĚ",
      "Ğ ě",
      "ęęęęęęęę ęęĚ",
      "ęęė ěęęĘ",
      "ęĘĚ Ęęęě",
      "ĀĀė ĀĞ",
      "ęęęĜ ęęęę",
      "ĀĀĖ Āĕ",
      "ē ęęĜ",
      "ė ęęęęĘĚ",
      "Ĝ ĀĀ",
      "ęĚ ę",
      "ęĜ ęęě",
      "ęĜ Ěęęęę",
      "ęĘęęęę ęęĚęęęę",
      "ęĘĘ Ěęęė",
      "ėĚ ęęĖ",
      "\" ğ",
      "Ę Ĝ",
      "Ĝ ęęęĚ",
      "ęĚ ęĚęęęęĚ",
      "ęęęęęęęę Ęęęęę",
      "ęęęęęęęę Ěęęęę",
      "ęęě ėęęĚ",
      "ĀĀĘ ĀĞ",
      "ęěĚ ęęęĘ",
      "ęěě ĘęęĚ",
      "ęĚĜ ęęęĚ",
      "ĀĀĔ ĀĚ",
      "ē ęęĖ",
      "ĕ ęęęęĚ",
      "Ě ęęęęęęęęęęę",
      "ęĘ ęėęęĚ",
      "ęęĘ ĘęęĚ",
      "ęęė ę",
      "ĀĀĘ Āē",
      "ĀĀĕ Āė",
      "ęęĚ ėęęęę",
      "ęĕ Ĕ",
      "ęĘĘ ĚęęĚ",
      "ęĚě ėęęĚ",
      "ęėĘ ęęęĚ",
      "ęěė ĘęęĘ",
      "! ĀĀ",
      "ę Ď",
      "ě ęęęęĘĚ",
      "ĝ ęęĝ",
      "ęĘ ęĘęęęęĚ",
      "ęęęęęęęę ęęĘ",
      "ęĝ Ĕ",
      "ęĚĚ ĚęęĘ",
      "ęĘĘ ěęęęę",
      "ęĚĘ ĘęęĚ",
      "ęĞ Ğ",
      "ęęĘęęęę ęęĚęęęę",
      "ęėĚ Ěęęęę",
      "ęęęĖ ęęęę",
      "ėĘ ęęĖ",
      "ĀĀĞ ĀĘ",
      "Ē Ĝ",
      "Ě ęęĞ",
      "ě ěęęęę",
      "ĝ ęęĕ",
      "ğ ęęęę",
      "ęęĘ ěęęęę",
      "ęĘęęęę ęęě",
      "ęĘęęęę ęęęĚ",
      "ęĘĚ Ěęęě",
      "Đ Ě",
      "đ Ĝ",
      "ĕ ęęĞ",
      "Ğ ęęě",
      "Ġ ęęě",
      "ęĘ Ē",
      "Ęęęęę ė",
      "ęĚęęęę ęęęĚ",
      "ęĘĘ Ęęęė",
      "ęĘė ěęęĘ",
      "ĀĀě ĀĔ",
      "ęęęĘęęęę ęęĘ",
      "ęėė ĚęęĘ",
      "ęėě ęęęĚ",
      "ęĘĖ ĚęęĘ",
      "ĀĀē ĀĘ",
      "Ĕ ęęĔ",
      "Ė ĘęęĘ",
      "ė ęęęęĚĘ",
      "ğ ęęĚ",
      "ęĚ ęě",
      "ęęĚ ěęęęę",
      "ĀĀ ,",
      "ęĕ ęęĘ",
      "ęĔ ĝ",
      "ĀĀę Āē",
      "ęĘęĚ ęęě",
      "ĀĀď Ā",
      "ęęęęęęęęęęęęęęęęęęęęęęęę ę",
      "Ĝ ęęĞ",
      "ęė ĘęęĘ",
      "ęĘě ęęęě",
      "ęęęĘęęęę ęęĚ",
      "ē ĕ",
      "Ė ęęğ",
      "ě ėęęĚ",
      "ě ęęęęĚĘ",
      "Ġ \"",
      "ęĚ ęęęęęęęęęęę",
      "ęě ęĚęęęę",
      "ęęė ęęĚ",
      "ęęĖ ęęęĘ",
      "ęĘė Ěęęė",
      "ė ęęē",
      "ęęĘ Ęęęė",
      "ęĚęęęę ęęęĘ",
      "ęĔ ęęęę",
      "ęĚě Ęęęě",
      "ĀĀĚ ĀĞ",
      "ĀĀ$ Ā",
      "! Ę",
      "ęě ē",
      "Ěęęęę ė",
      "ęĜ ęĘęęĘ",
      "ęĖ ē",
      "ęĞ ĕ",
      "ęĞ ğ",
      "ęėĘ ĘęęĘ",
      "ĀĀě Āē",
      "Ę ęęęęęęęęęęęę",
      "Ę ęęē",
      "ęĚ ęęęĚę",
      "ęĚĚ Ěęęě",
      "ęěė ęęęĘ",
      "ĀĀĝ ĀĚ",
      "Ġ #",
      "ęęĚ Ěęęě",
      "ęė ęě",
      "ęęě Ěęęęę",
      "ęĕ ğ",
      "ęĘĚ ĘęęĘ",
      "Ē ĝ",
      "Ē ęęė",
      "Ĕ ęę",
      "ĕ ęęęęĘ",
      "ė ęęęė",
      "Ġ ęęė",
      "ęĖ Ęęęęę",
      "ęĘě Ěęęě",
      "ęėĘ ĚęęĚ",
      "ĀĀĖ Āĝ",
      "ęěęęęę ě",
      "ĀĀĜ Āĕ",
      "ĀĀĝ ĀĖ",
      "ĕ ęę",
      "ě ęęęęĘĘ",
      "ĝ ė",
      "Ğ Ĝ",
      "ęĚ ęĘęęė",
      "ęęęęęęęę ęęęęĚ",
      "ęĘĘ ėęęęę",
      "ęĘĘ ėęęĘ",
      "ęĘĚ ěęęęę",
      "ĀĀę ĀĞ",
      "Ęęęě ę",
      "ęěĚ ĘęęĘ",
      "ęĚė ėęęĘ",
      "ęĘě ěęęĚ",
      "ęĘęęĚ ę",
      "ęĚĜ ĘęęĚ",
      "ĀĀĝ Āĕ",
      "ĀĀĔ Āė",
      "Ė ē",
      "ě ęęęęĚĚ",
      "ęĘ ęė",
      "ęė ęěęęĘ",
      "ęĚęęęę ęęĚęęęę",
      "ęĚĘ ĚęęĚ",
      "ėęęęę ė",
      "ęěĘ ėęęĘ",
      "ĜęęĚ ę",
      "ĀĀĔ ĀĜ",
      "ĀĀĞ Āė",
      "đ ğ",
      "Ġ ę",
      "ęĘ ęęęĘę",
      "ęě ęĚęęĚ",
      "ĀĀĜ Āĝ",
      "ĀĀĕ ĀĜ",
      "Đ ĕ",
      "Đ ě",
      "Ė ĚęęĘ",
      "ęĘ ęĘęęě",
      "ęě Ē",
      "ęě ęėęęĘ",
      "ęĜ ē",
      "ęĘĚ ĚęęĘ",
      "ęěĚ Ěęęęę",
      "ęěĘ ęęęė",
      "ęěě ęęęě",
      "đ Ĕ",
      "đ ęęė",
      "Ē ęęě",
      "ęě ęė",
      "ęě ėęęęę",
      "ęęęęęęęę ęęęęĘ",
      "ęęę Đ",
      "ęğ ĝ",
      "ęĘĖ ęęęĘ",
      "Ē ğ",
      "Ė ęę",
      "Ě ęęęęęęęęęęęę",
      "ęė ĚęęĘ",
      "ęęĜ ęęęě",
      "ęĚĚ ěęęęę",
      "ęĚě Ęęęęę",
      "ęěĚ ėęęĚ",
      "ęĘė Ěęęęę",
      "ęěĘ Ęęęė",
      "ęęęĚęęęę ęę",
      "ĀĀĜ ĀĜ",
      "ĀĀĝ ĀĜ",
      "\" ĝ",
      "Ē ē",
      "ě ęęğ",
      "Ğ ęęĖ",
      "ęęĘ ĚęęĚ",
      "ęě ęęęĚ",
      "ęė ęĘęęĘ",
      "ęęė Ęęęė",
      "Ěęęęę ě",
      "ęęĖ ĘęęĘ",
      "ęĚęęęę ęęĘęęęę",
      "ęĚĚ ĖęęĚ",
      "ęęĚęęęę ęęĚęęęę",
      "ęĔ Ĕ",
      "ęęęĖ ęęĚ",
      "ęē Ė",
      "ĀĀĞ ĀĚ",
      "ĀĀ% Ā",
      "ęęęę ę",
      "ęęĚ ęęęęęęęęęęęę",
      "ęě ĘęęĚ",
      "ęě ęėęęęę",
      "ęė ěęęęę",
      "ęęę \"",
      "ĀĀę Āğ",
      "Đ Ę",
      "đ ě",
      "ē Ĕ",
      "Ě ĕ",
      "ě Ęęęě",
      "Ĝ ęęğ",
      "ęĚ ęĚęęė",
      "ĀĀ -",
      "ĀĀ /",
      "ęė ęęęĘ",
      "ęė ęěęęĚ",
      "ęęě ęęĘ",
      "ęĚė Ěęęė",
      "ĀĀĚ Āē",
      "ęėĘ Ęęęęę",
      "ęėĚ ęęęě",
      "ęęęĘęęęę ęę",
      "ęėė ęęęė",
      "ĀĀĕ Āĝ",
      "ĀĀē ĀĚ",
      "ęĘęĚ ęęė",
      "Đ ė",
      "Ė ę",
      "ęęě ěęęĚ",
      "ęĘęęęę ęęė",
      "ęĚĚ ĘęęęęĘ",
      "ěęęęę ė",
      "ĀĀĖ ĀĔ",
      "ęěě ĚęęĚ",
      "ėęęė ę",
      "ĀĀĕ Āĕ",
      "ėě ęęĖ",
      "ė ĖęęĘ",
      "ě ęęęě",
      "Ğ ĝ",
      "Ġ ęęĜ",
      "ęĚ ęĘęęě",
      "ęĘęęęę ęęĘęęęę",
      "ęěĚ ėęęęę",
      "ĀĀė ĀĔ",
      "ęğ ė",
      "ęęęĜ ęęĚ",
      "ęęęĚęęęę ęęĚ",
      "ĀĀĔ Āě",
      "ęĚĖ ęęęĘ",
      "ĀĀĞ ĀĖ",
      "ĀĀ& Ā",
      "ē ęęĕ",
      "Ĕ Ĕ",
      "Ė ęęĘę",
      "Ě ė",
      "ęęĖ ĚęęĘ",
      "ęěĚ Ęęęě",
      "ęĘě Ęęęě",
      "ĀĀĜ ĀĔ",
      "ĀĀĞ ĀĜ",
      "ĀĀğ ĀĘ",
      "ĕĘ ęęĕ",
      "Ę ęęęĘę",
      "ě ęęē",
      "Ĝ ĚęęĚ",
      "Ġ Ĕ",
      "ęĚ ęęĝ",
      "ĀĀ .",
      "ęęęęęęęę ĘĚ",
      "ęęęĘ ęęĘę",
      "ęĚĚ ěęęĚ",
      "ęęęė ęęě",
      "ęęęęęęęęęęęęęęęę ęęęęęęęęęęę",
      "ęęęĜ ęęĘ",
      "ęėė ĘęęĘ",
      "ęěęęęę ė",
      "ęėě ĚęęĚ",
      "ęĘĜ Ęęęě",
      "ęĜĘ ęęęĘ",
      "ęĜĘ ĘęęĘ",
      "ĀĀĞ Āě",
      "ĀĀĎ Ā",
      "! !",
      "Ē ęęĖ",
      "Ě ęęğ",
      "Ě ęęęĚę",
      "ğ ĝ",
      "ęęęę ęęė",
      "ęĚ Ĝęęęę",
      "ęęė Ěęęęę",
      "ęęė ėęęĘ",
      "ęęě Ęęęęę",
      "ęĔ Ğ",
      "ĀĀė Āē",
      "ęğ ğ",
      "ęē ĕ",
      "ĚęęęęĘ Ęęęęę",
      "ęĘĜ ęęęě",
      "ęĒ Ę",
      "ęęęęęęęęęęęęęęęęęęęę ęę",
      "Ě ęęē",
      "Ġ ĀĘ",
      "ęĘ Ėęęęę",
      "ęĘ ęĜęęęę",
      "ęęęĘ ęęĚę",
      "ęĚĚ ĘęęęęĚ",
      "ęęęęĘ ęĚęęęę",
      "ęĘĚ ěęęĘ",
      "ęĞ Ĕ",
      "ęęĚęęęę ęęĘęęęę",
      "ęĚė Ęęęė",
      "ęėĚ ęęęĘ",
      "ĀĀě ĀĞ",
      "ĀĀĖ ĀĞ",
      "ęěęęęę ęęĘ",
      "ęěė ĚęęĘ",
      "ĀĀē Āė",
      "ęęęęĚĘ Ęęęęę",
      "ĕĚ ęęĕ",
      "Ė Đ",
      "ė Ęęęė",
      "ĝ ęęęęĘ",
      "ęĚ ęĚęęě",
      "ĀĀ ć",
      "ęė Ē",
      "ęĜ ěęęęę",
      "ęĖ ėęęęę",
      "ęĚĚ ęęęęęęęęęęęę",
      "ęĚĚ ĘęęĚę",
      "ęĔ ęęĚ",
      "ęěĚ ęęęě",
      "ęĚė Ęęęęę",
      "ęėĘ ěęęĘ",
      "ęėęęęę ě",
      "ęėęęęę ęęĘ",
      "ĀĀĜ ĀĞ",
      "ěęęě ę",
      "ęĘĜ ęęęĚ",
      "ęĖĚ ęęęĚ",
      "ęęĘęęęĘ ęęęęęęęę",
      "đ ĝ",
      "Ę ė",
      "ě Ĕ",
      "ě ęę",
      "ĝ ęęęęĚ",
      "ęęė ęęĘ",
      "ęĜ Ęęęęę",
      "ęęĖ ęęęė",
      "ęęĜ ĘęęĚ",
      "ęĘĚ ėęęęę",
      "ĀĀė ĀĒ",
      "ęĘě ėęęĚ",
      "ęėĚ Ęęęęę",
      "ęē ě",
      "ęėė Ěęęęę",
      "ęėė ěęęĘ",
      "ĀĀ' Ā",
      "ĕ Ĕ",
      "Ė Ĕ",
      "ę %",
      "Ě ęę",
      "Ĝ ęęĘę",
      "ğ ğ",
      "ęĚ ęĖęęęę",
      "ęĚ ęěęęĘ",
      "ęě ęėęęĚ",
      "ęĚě Ěęęęę",
      "ęğ Ğ",
      "ęěě ėęęĚ",
      "ęėě ĘęęĚ",
      "! \"",
      "# Ğ",
      "ęĚ ęĖ",
      "ęĚ Ėęęęę",
      "ęĕ ē",
      "ęĚĘ ěęęęę",
      "Āě Ě",
      "ęěĘ Ěęęęę",
      "ęėĚ ěęęęę",
      "ęē Ĝ",
      "ęėęęęę ęęĚ",
      "ęĚĜ ęęęě",
      "ĀĀ! ĀĘ",
      "đ ē",
      "Ę ęęęĚ",
      "Ě ęęęě",
      "ğ ęęė",
      "ęęęę ęęě",
      "ęĚ Ē",
      "ęĘ ęĘęęė",
      "ęĘ ęėęęĘ",
      "ęęĘ ęęĚ",
      "ęęĚ ĘęęęęĘ",
      "ĀĀ ą",
      "ĀĀ Ĉ",
      "ęęě Ěęęě",
      "ęĜ ęĘęęęę",
      "ėęęęę ě",
      "ęĚě ěęęĚ",
      "ęěĚ ĚęęĘ",
      "ĀĀė Āğ",
      "ęėĚ ěęęĚ",
      "ĚęęęęĚ Ěęęęę",
      "ęĚęęĚ ę",
      "ęĘĖ ęęęė",
      "ęĚĖ ĘęęĘ",
      "ĀĀğ ĀĚ",
      "# ğ",
      "ĕ ęęĔ",
      "Ė Ē",
      "ě Ěęęě",
      "ě ĖęęĚ",
      "Ĝ ęę",
      "ęęĚ ĖęęĚ",
      "ęęęĚ ęęĚę",
      "ęĖ Ěęęęę",
      "ęęĜ ĚęęĚ",
      "ęęęęĘ Ęęęęę",
      "ęĘĘ ęęęęęęęęęęęę",
      "ęĚĘ ĘęęęęĚ",
      "ęĔ ğ",
      "ęĘė ěęęė",
      "ęĚė ěęęĘ",
      "ęěĘ ĘęęĚ",
      "ęğ Ė",
      "ęęęĖ ę",
      "ęĖĚ ĚęęĚ",
      "ĀĀĔ Āĝ",
      "ęęęęĘĚ Ěęęęę",
      "ĞĚ ęęĝ",
      "! ė",
      "Đ Ė",
      "Đ Ğ",
      "đ Ğ",
      "đ ęęĘ",
      "Ē Ē",
      "Ė ęęęęĘĘ",
      "ě ęĘęęęę",
      "Ġ Āė",
      "ęĚ ėęęĚ",
      "ęĘ ěęęĘ",
      "ęě ĚęęĚ",
      "Ęęęęę ęęĚęęęę",
      "ęĚęęęę ĘęęĘ",
      "ęęęęĚ ęĘęęęę",
      "ęĚĘ ĘęęĘę",
      "ĀĀĘ Āğ",
      "ęěĘ ėęęęę",
      "ęĘě Ěęęęę",
      "ęėĚ Ěęęě",
      "ęğ ęęęę",
      "ęē ĝ",
      "ęėė Ěęęė",
      "ęěęęęę ęę",
      "ęěė ėęęĘ",
      "ęęĚęęęĚ ęęęęęęęę",
      "ęėĖ ęęęĘ",
      "ĀĀē ĀĜ",
      "Đ ğ",
      "Ę ěęęĘ",
      "ę &",
      "Ĝ ěęęĚ",
      "ęĚ ęěęęĚ",
      "ęęĘ ĘęęĘę",
      "ęęĚ ĘęęĚę",
      "ęė ęěęęęę",
      "ęęęĚ ęęĘę",
      "ęęĖ Ěęęė",
      "ęĘĘ ĜęęĘ",
      "ęęęęĚ Ěęęęę",
      "ĀĀĝ ĀĔ",
      "ĀĀĝ Āē",
      "ęĘĖ ĘęęĘ",
      "ęĜĚ ĘęęĚ",
      "ĀĀĔ ĀĖ",
      "ęěĜ ĘęęĚ",
      "ĀĀğ Āě",
      "\" !",
      "đ ęęęę",
      "đ ęęĖ",
      "ē ę",
      "Ė ěęęĘ",
      "ė ęĚęęęę",
      "Ě ęęęĘ",
      "Ġ Āě",
      "ęė ęęĜ",
      "ęĚęęęę ęęė",
      "ęĚĚ ėęęě",
      "ěĚ ęęĝ",
      "ęĖĘ ęęęĘ",
      "ĀĀğ Āė",
      "ĀĀğ ĀĖ",
      "ĀĀĒ ĀĖ",
      "ęęęęęęęęęęęęęęęęęęęęęęęę ęę",
      "\" Ĝ",
      "# !",
      "Ė ęęęė",
      "Ę ėęęĘ",
      "ęĚ ęęĕ",
      "ęĘĘ ěęęĚ",
      "ęĘĘ ĚęęĘę",
      "ęęęęĚ ę",
      "ęĚĘ ĜęęĘ",
      "ęęęĜ ę",
      "ęěě Ęęęęę",
      "ęěě Ęęęě",
      "ęėě Ěęęě",
      "ęĒ Ě",
      "ĀĀğ ĀĜ",
      "ĀĀĒ ĀĘ",
      "ĀĀĒ Āě",
      "\" ě",
      "ē Ē",
      "Ę ėęęęę",
      "Ę ęęĒ",
      "Ğ ęęĜ",
      "ęĚ ęĕ",
      "ęęĘ ĘęęęęĘ",
      "ęęě ėęęě",
      "ęęĜ Ěęęě",
      "ęęę #",
      "ęĚė ĖęęĘ",
      "ĀĀĚ Āğ",
      "ĀĀĜ Āē",
      "ěĚ Ęęęęę",
      "ěĚ ĘęęĚ",
      "ĀĀĔ Āĕ",
      "Ĝě ęęĜ",
      "Đ Ĝ",
      "đ ęęĚ",
      "Ĕ ęęĞ",
      "Ě ėęęĚ",
      "Ĝ ęęęě",
      "Ĝ Ęęęě",
      "ęęě ĖęęĚ",
      "ęęĜ ėęęĚ",
      "ęęĜ Ęęęě",
      "ęĘĘ ėęęĚ",
      "ęĚĘ ěęęė",
      "ęĘĚ ĚęęęęĚ",
      "ęęęęęęęęęęęę ęĘęęęę",
      "ĀĀę ĀĒ",
      "ęğ ĕ",
      "ęėęęęę ė",
      "ęĘĜ Ěęęě",
      "ĀĀĔ ĀĞ",
      "ěĘ ęęĝ",
      "ĜĚ ęęĝ",
      "ĖĘ ęęĕ",
      "ĜĘ ęęĝ",
      "ĀĀđ Āě",
      "ęĘęęęęęęęę ęęęęęęęęęęęę",
      "ĀĀ( Ā",
      "\" \"",
      "$ ğ",
      "Ē ęęĜ",
      "ē ęę",
      "ğ Ĝ",
      "ęĚ ęĖęęĚ",
      "ęęĘ ĜęęĘ",
      "ęęĘ ĚęęĘę",
      "ęęęęęęęę ĚĚ",
      "ęęęĚ ęęęęĘĘ",
      "ęĖ Ē",
      "ęĚęęęę ęęě",
      "ęĕ Ē",
      "ęĚĚ ęęęĜ",
      "ęĘĘ ĘęęęęĚ",
      "ęĘĚ ĜęęĚ",
      "ęęęęęęęęęęęę ęĚęęęę",
      "ęĚė ěęęė",
      "ęěĘ ęęęĚ",
      "ęěė ęęęė",
      "ĀĀĝ ĀĞ",
      "ęĜĚ ęęęĚ",
      "ęĘĜ ĚęęĚ",
      "ęĖĘ Ěęęęę",
      "ęĚĖ ĚęęĘ",
      "ĀĀĞ Āĕ",
      "ěě ęęĜ",
      "ęęęęĚĚ ĘęęĚ",
      "ĀĀď Āė",
      "ęĘęĚęęĚ ę",
      "\" Ę",
      "# ĝ",
      "ē ęęĝ",
      "ė ęęęĚ",
      "ė Ěęęė",
      "ě ĀĀ",
      "Ġ $",
      "Ġ ĀĖ",
      "ęĚ ĚęęęęĚ",
      "ęĘ ėęęĘ",
      "ęęĘ ĚęęęęĚ",
      "ęęĚ ĚęęęęĘ",
      "ęęě ęęĚ",
      "ęĘęęęę ĘęęĘ",
      "ĀĀĘ ĀĒ",
      "ĀĀĚ ĀĒ",
      "ęėė Ęęęęę",
      "ĖęęĚ ę",
      "ęěęęęę ęęĚ",
      "ĀĀĕ ĀĞ",
      "ęěĜ ęęęĚ",
      "ęėĖ ĚęęĘ",
      "ęĜě ęęęĚ",
      "ęĘęĚ ęęĘę",
      "$ ĝ",
      "ď ė",
      "Đ ĝ",
      "ē ē",
      "Ė Ěęęė",
      "Ė ęę!",
      "ě ěęęě",
      "Ĝ Ěęęě",
      "Ğ ĕ",
      "ğ ęęĖ",
      "ęĚ ęĜęęĘ",
      "ęĘ đ",
      "ęĘ ęęĕ",
      "ęė ęĚęęě",
      "Ěęęęę ęęĘęęęę",
      "ęęęĚ ęęęęęęęęęęę",
      "ęęĖ Ęęęė",
      "ęĚĚ ęęęė",
      "ęĞ ęęĘ",
      "ęĞ ęęĚ",
      "ęĘė Ęęęė",
      "ęĘė ĜęęĘ",
      "ęėĘ ĘęęĚ",
      "ęėĘ ęęęė",
      "ĀĀĖ ĀĒ",
      "ęĘĜ ĘęęĚ",
      "ęĖĘ ęęęĚ",
      "ęĖĘ ĚęęĘ",
      "ęĚĖ Ęęęė",
      "ĀĀĒ Āė",
      "Ĕ ęęęęĘ",
      "ě !",
      "Ĝ ėęęĚ",
      "Ġ ęęĖ",
      "ęęęę ęęĘę",
      "ęĘ Ĝęęęę",
      "ęě Ĝęęęę",
      "ęė ęęĖ",
      "ęė ęĚęęęęĘ",
      "ęęęęęęęę ĘĘ",
      "ęęě ěęęęę",
      "ęĝ ē",
      "ęĚĚ ĚęęęęĘ",
      "ęĘĘ ęęęě",
      "ęĚě ėęęě",
      "ęěĘ ěęęĘ",
      "ęėĘ ěęęęę",
      "ęėęęęę ęę",
      "ĀĀĕ ĀĔ",
      "ėĘ ęęĕ",
      "ęĘĖ Ěęęė",
      "ęĚĖ ęęęė",
      "ęĖė ęęęĘ",
      "ĖĚ ęęĕ",
      "Ė ęęē",
      "ė Ĕ",
      "Ġ ęęĝ",
      "Ġ ĀĚ",
      "ęęęę ęęĚę",
      "ęĘ ęĜ",
      "ęęĘ Ėęęęę",
      "ęě Ěęęęęę",
      "ęęė ęęęĘę",
      "ęęęĘ ęęĖ",
      "ęĘęęęę ĚęęĘ",
      "ęĚĚ ėęęĘ",
      "ęęęęĘ ę",
      "ęęęęĘ ęĘęęęę",
      "ęęęęĚ ęĚęęęę",
      "ęĘĚ ěęęě",
      "ęĔ ē",
      "ęĘė Ęęęęę",
      "ĀĀě Āğ",
      "ęęęĖ ęęĘ",
      "ěĚ ęęęĚ",
      "ęĜĚ ĘęęĘ",
      "ęĒ Ė",
      "ęĜě ĚęęĚ",
      "ĀĀē ĀĖ",
      "ĀĀ! ĀĚ",
      "ĀĀĐ ĀĘ",
      "ĀĀ\" Āė",
      "\" ĀĀ",
      "ė ē",
      "ė ĘęęĚ",
      "ė ęę!",
      "Ę ěęęęę",
      "Ě ěęęĚ",
      "ğ ęęě",
      "ęĚ ĚęęĘ",
      "ęĚ ĘęęęęĘ",
      "ęĚ ęĘęęęęęęęę",
      "ęĘ ęęęĚ",
      "ęęĚ ĚęęęęĚ",
      "ęě ęĖęęĚ",
      "ęė ęėęęęę",
      "ęęė ĖęęĘ",
      "ęĜ Ē",
      "ęĖ ęĚęęĘ",
      "ęĚęęęę ęęęĚęęęę",
      "ęĘęęęę ĚęęĚ",
      "ęĘĘ ěęęė",
      "ęĘĘ ĚęęęęĘ",
      "ęĘĚ ęęęęęęęęęęęę",
      "ęĚě ęęĚ",
      "ęėĚ ėęęĚ",
      "ęėĚ ĜęęĚ",
      "ęěě ěęęĚ",
      "ĘęęęęĚ Ěęęęę",
      "ęėě ęęęě",
      "ėĘ Ěęęęę",
      "ęěĜ ęęęě",
      "ĀĀē Āě",
      "ĀĀĒ ĀĜ",
      "ęĖęęęę ě",
      "ĀĀ! Āė",
      "ĀĀđ ĀĜ",
      "ĝĚ ęęĝ",
      "ĀĀĐ Āě",
      "ď ĕ",
      "đ ęęě",
      "ě ĜęęĚ",
      "Ĝ Ěęęęę",
      "ĝ ęęĔ",
      "Ğ ęęĕ",
      "Ġ ĀĜ",
      "ęĘ ęęĔ",
      "ęĘ ĘęęęęĘ",
      "ęęĘ ĖęęĘ",
      "ęęĚ ęęęĜ",
      "ęęĚ ĘęęęęĚ",
      "ęęĚ ĚęęĚę",
      "ęęė ĘęęĚ",
      "ęęė ěęęė",
      "Ěęęęę ęęęĘ",
      "ęĖ ęĘęęĚ",
      "ęęĖ ėęęĘ",
      "ęĚĘ ėęęĚ",
      "ęĘĚ ėęęě",
      "ęĘĚ ĚęęĚę",
      "ęęęęęęęęęęęę ęę",
      "ęĚě ĖęęĚ",
      "ęĘě Ęęęęę",
      "ęęęęęęęęęęęęęęęę ęęęęęęęęęęęęę",
      "ęē Ĕ",
      "ęĚĜ ėęęĚ",
      "ęėĖ ĘęęĘ",
      "ĀĀĒ Āĕ",
      "ĀĀđ ĀĘ",
      "ĝĚ ęęĞ",
      "! ĕ",
      "# ě",
      "ď Ě",
      "Ē Ĕ",
      "Ē ę",
      "ė ęęęĖ",
      "Ę ęę!",
      "Ě ĘęęĘ",
      "Ě ěęęęę",
      "ĝ ĕ",
      "Ġ ē",
      "ęĘ !",
      "ęęĘ ĘęęęęĚ",
      "ęęĘ ęęęęęęęęęęę",
      "ęė Ėęęęę",
      "Ęęęęę ęęĘęęęę",
      "ęęęĚ ęęĜ",
      "ęĖ ęĚęęĚ",
      "ęĝ ęęė",
      "ęĚĚ ěęęĘ",
      "ęĚĚ ĚęęĚę",
      "ęĘĚ Ĝęęęę",
      "ęĘĚ ĚęęęęĘ",
      "ęĘė ėęęĘ",
      "ęĚė ęęęĖ",
      "ęĘě ĜęęĚ",
      "ĀĀĖ Āē",
      "ĀĀĖ Āğ",
      "ĀĀĜ ĀĒ",
      "ęĖĘ ĚęęĚ",
      "ĀĀğ Āĕ",
      "ėė ęęĖ",
      "ĀĀ* Ā",
      "\" #",
      "Ď ė",
      "ď Ę",
      "đ Ē",
      "Ė ęęęęĘĚ",
      "ė ĜęęĘ",
      "Ę Ěęęė",
      "ě ėęęęę",
      "ě ęęĒ",
      "Ĝ ĜęęĚ",
      "Ġ Āĝ",
      "ęĚ ęĖęęĘ",
      "ęě ęĘęęęęĘ",
      "ęě ęĘęęė",
      "ęęě ęęęĚę",
      "Ęęęęę ęęė",
      "ęĜ ęĘęęĚ",
      "ęĜ ęĘęęė",
      "ęĚęęęę Ěęęęę",
      "ęĘĘ ĚęęęęĚ",
      "ęĘĚ ęęęĜ",
      "ęĘĚ ĖęęĚ",
      "ęĘĚ ĘęęĚę",
      "ęęĕ ęęęĘ",
      "ęęę ď",
      "ęĚě Ěęęě",
      "ęěĘ Ěęęė",
      "ęĘě ěęęęę",
      "ĀĀě ĀĒ",
      "ęėė Ęęęė",
      "ęěė Ęęęė",
      "ĀĀĝ Āĝ",
      "ėĚ ĚęęĚ",
      "ęĜĚ ęęęĘ",
      "ěĘ Ęęęęę",
      "ęęęęĘĘ Ěęęęę",
      "ĀĀē ĀĔ",
      "ęĖě ęęęĚ",
      "ęĜė Ęęęė",
      "ĀĀ! Āě",
      "ĀĀđ ĀĚ",
      "ęĚęęęęęęęę ęęęęęęęęęęęę",
      "! Ė",
      "! ęęĘ",
      "# Ě",
      "Ď Ě",
      "Đ Ĕ",
      "Ę ĕ",
      "Ġ ęęęĜ",
      "ęęęę ė",
      "ęĚ ęĔ",
      "ęĘ ĘęęĚ",
      "ęĘ ęĜęęĚ",
      "ęęĚ ěęęĘ",
      "ęě ęĕ",
      "ęęęęęęęę ĚĘ",
      "ęęęĘ ęęęęęęęęęęę",
      "ęęęĚ ęęęęęęęęęęęę",
      "ęĖ ęęĖ",
      "ęĖ ęęĜ",
      "ęĚĘ ęęęęęęęęęęęę",
      "ęĚĘ ėęęė",
      "ęĘĚ ĘęęęęĘ",
      "ęĘĚ ĘęęęęĚ",
      "ęĘĚ ęęęĚęęĚ",
      "ęĘė ęęęĚ",
      "ęėĘ Ěęęė",
      "ěĚ Ěęęęę",
      "ĀĀĕ Āğ",
      "ęėě Ęęęě",
      "ęĚĜ Ęęęě",
      "ėĚ ęęęĚ",
      "ėĘ ęęęĘ",
      "ěĘ ęęęĘ",
      "ęęęęĚĚ Ęęęęę",
      "ĀĀē Āĝ",
      "ęĜė ęęęĘ",
      "ęĜęęęę ė",
      "ęĚęĘęęĚ ę",
      "Ė ėęęĘ",
      "ė ěęęęę",
      "ě ęě",
      "ě ęęęĜ",
      "ě ėęęě",
      "Ĝ Ĕ",
      "ĝ ĀĀ",
      "ĝ Ęęęě",
      "ęĚ ęĚęęęęęęęę",
      "ęĘ ĚęęęęĚ",
      "ęęĘ ėęęĚ",
      "ęęĖ ęęĚ",
      "ęĚĘ ęęęĖ",
      "ęĚĘ ĘęęęęĘ",
      "ęęĔ ę",
      "ęĚė Ěęęęę",
      "ęĘě ęęęĜ",
      "ęĘě ėęęě",
      "ęėĘ Ęęęė",
      "ęėĘ ěęęė",
      "ęėĚ ĚęęĘ",
      "ėęęě ę",
      "ėĚ ęęĕ",
      "ėĘ ĚęęĘ",
      "ęĖĚ ęęęě",
      "ęĖĚ ěęęĚ",
      "ĚęęĜ ę",
      "ęėĖ ęęęė",
      "ęěĖ Ęęęė",
      "ęĖě ĚęęĚ",
      "ĀĀ! ĀĖ",
      "ĀĀĐ ĀĚ",
      "ĀĀ\" ĀĘ",
      "ĀĀ# ĀĘ",
      "ęĘėęęęę ę",
      "ęĘęĘęęĚ ę",
      "ęĚęĘ ęęĘę",
      "ĀĀ) Ā",
      "\" ė",
      "Ē đ",
      "ĕ ĘęęĘ",
      "Ė Ęęęė",
      "ė ěęęė",
      "Ę ĀĀ",
      "Ę ĘęęĚ",
      "ě Ĝęęęę",
      "Ĝ Ęęęęę",
      "Ĝ ęęęęĘĚ",
      "Ġ Ē",
      "ęę &",
      "ęĚ !",
      "ęĚ ęĚ",
      "ęęĘ ėęęė",
      "ęě !",
      "ęě ęě",
      "ęě ęĘęęě",
      "ęęė ęęęĚ",
      "ęĖ ęĚęęęę",
      "ęĘęęęę ęęęĘęęęę",
      "ęĝ Ē",
      "ęĘĘ ĘęęęęĘ",
      "ęĚĘ ęęęě",
      "ęĚě ėęęęę",
      "ęĚě ęęęĜ",
      "ęěĚ ĖęęĚ",
      "ęĚė ėęęė",
      "ęē ęęęę",
      "ĘęęęęĘ ę",
      "ęěě Ěęęě",
      "ĘęęęęĚ ę",
      "ęĜĘ ęęęė",
      "ęėĖ ěęęĘ",
      "ęěĖ ęęęė",
      "ĀĀĒ Āĝ",
      "ĀĀđ ĀĖ",
      "ĕĚ ęęĔ",
      "ęęĘĘęęęę ę",
      "ĀĀ$ ĀĘ",
      "ĀĀ% ĀĜ",
      "ē ęęĔ",
      "ĕ ęęęĘ",
      "ĕ Ěęęė",
      "Ė Ęęęęę",
      "Ė ęęęĖ",
      "Ė ěęęė",
      "Ę Ė",
      "Ě ĚęęĘ",
      "Ě Ěęęě",
      "ě \"",
      "Ĝ ęęē",
      "Ĝ ęęęęĚĘ",
      "ĝ ĚęęĚ",
      "ęĘ ęĕ",
      "ęĘ ęęĝ",
      "ęęĚ Ěęęė",
      "ęęĚ ėęęě",
      "ęě ėęęĚ",
      "ęė Ęęęęęę",
      "ęęě ĚęęĜ",
      "ęęęĚ ęęęęĘĚ",
      "ęĜ !",
      "ęęĜ ęęĘ",
      "ęĘęęęę ęęĚęęęęęę",
      "ęĚĚ Ėęęęę",
      "ęĚĚ ĜęęĚ",
      "ęĘĘ ęęęĖ",
      "ęĘĘ Ĝęęęę",
      "ęĚĘ ĚęęęęĚ",
      "ęĚĘ ęęęĘęęĘ",
      "ęĚĘ ĚęęĘę",
      "ęęĕ ęęęė",
      "ęěĚ Ěęęě",
      "ęėĘ ėęęĘ",
      "ĚęęęęĘ ę",
      "ĘęęĜ ę",
      "ęĚĜ ĚęęĚ",
      "ęĜĚ Ęęęęę",
      "ĀĀĔ ĀĔ",
      "ĀĀĞ Āĝ",
      "ęĜě Ęęęě",
      "ĀĀğ Āĝ",
      "ęĖė ĘęęĘ",
      "ęĖě ĘęęĚ",
      "ĀĀĒ ĀĚ",
      "ĀĀ! Āĝ",
      "ęĚęė ęęě",
      "ĕĘ ęęĔ",
      "ĞĚ ęęĞ",
      "ęėęęęęĚ ę",
      "ęĚęĘ ęęĖ",
      "Ē Đ",
      "ē Đ",
      "ĕ ęęğ",
      "ė ęęĒ",
      "ė ĕęęĘ",
      "Ę Ĕ",
      "ě ęĚęęęę",
      "Ĝ ĘęęĜ",
      "ğ ĀĀ",
      "ęĘ ęĖęęęę",
      "ęĘ ęĜęęĘ",
      "ęęė ěęęęę",
      "ęęęĚ ęęĖ",
      "ęĚęęęę ęęĘęęęęęę",
      "ęĘĘ Ěęęě",
      "ęĚĘ ĖęęĘ",
      "ęğ Ĕ",
      "ęęęĚęęęę ęęĚęęęę",
      "ĘęęęęĚ ęĘęęęę",
      "ęėě Ěęęęę",
      "ęĖĘ ĘęęĘ",
      "ęĚĖ ěęęė",
      "ęęĚęęęĚ ęęĘ",
      "ęęĚęęęĚ ęęĚ",
      "ęęęęĘĘ Ęęęęę",
      "ĀĀ! ĀĜ",
      "ĀĀđ Āė",
      "! #",
      "Ď Ė",
      "Đ ē",
      "đ đ",
      "ĕ ęęęė",
      "Ĝ ěęęě",
      "Ğ ęęĝ",
      "ğ Ę",
      "Ġ ĀĀęĀ",
      "ęĘ ĚęęĘę",
      "ęě ęěęęĘ",
      "ęě ęĚęęė",
      "ęė ęĚęęęęĚ",
      "ęęė ęęęĖ",
      "ęęě ęęęĜ",
      "ęĜ ęęĜ",
      "ęĖ ęě",
      "ęęĜ ęęęĜ",
      "ęĝ ęęě",
      "ęĚĘ Ėęęęę",
      "ęĚě ęęęĚę",
      "ęěĚ ěęęĚ",
      "ęĘė ėęęęę",
      "ęěĘ ĖęęĘ",
      "ęėĚ ęęęĚę",
      "ęėė ěęęęę",
      "ĚęęęęĘ ęĚęęęę",
      "ęěė ęęęĖ",
      "ęėě ěęęĚ",
      "ėĚ Ěęęęę",
      "ěĘ ĘęęĘ",
      "ĀĀē Āĕ",
      "ėė ĚęęĘ",
      "Ĝě ęęĝ",
      "ęĜęęęę ě",
      "ĀĀ\" ĀĖ",
      "ęĚęĚęęĚ ę",
      "ď Ė",
      "ĕ ĚęęĘ",
      "ĕ ęęē",
      "ĕ ęęęĖ",
      "ė đ",
      "ė ėęęĚ",
      "ė Ėęęęę",
      "ė ęęęĘę",
      "ę '",
      "Ě Ęęęě",
      "ě ęęęĚę",
      "Ĝ ėęęě",
      "Ğ ĀĀ",
      "ęę '",
      "ęĚ ęěęęė",
      "ęĘ ęĖęęĚ",
      "ęęĘ Ęęęě",
      "ęęĘ ĚęęĖ",
      "ęęĚ Ĝęęęę",
      "ęė ęĘęęęęĚ",
      "ęė ęĘęęě",
      "ęė ęĚęęė",
      "ęęęęęęęę ęęĘęęęę",
      "Ęęęęę ęęęĘ",
      "Ěęęęę ęęė",
      "Ěęęęę ęęĚęęęę",
      "ęĜ ęėęęĘ",
      "ęęĖ ėęęė",
      "ęĚęęęę ĘęęĚ",
      "ęĚęęęę ęęęĘęęęę",
      "ęĚĚ ĚęęęęĚ",
      "ęĚĚ ěęęě",
      "ęĘĚ ęęęė",
      "ęĘĚ ĘęęĜ",
      "ęęĝ ęęęě",
      "ėęęęę ę",
      "ęĚě ěęęě",
      "ęěĚ ėęęĘ",
      "ęĚė ęęęĘę",
      "ęěĘ ĚęęĚ",
      "ęĘě ĖęęĚ",
      "ęėĚ ěęęě",
      "ęęęĘęęęę ęęĘę",
      "ęėė ěęęė",
      "ęęęĚęęęę ęęĘę",
      "ęěė ěęęĘ",
      "ęĖĚ Ěęęęę",
      "ęĖĚ ĘęęĚ",
      "ęĜĘ ėęęĘ",
      "ęĒ Ĕ",
      "ęěĜ Ęęęě",
      "ĀĀğ ĀĔ",
      "ęĖė ĚęęĘ",
      "ęěĖ Ěęęė",
      "ęėĜ ĘęęĚ",
      "ęėĜ ęęęě",
      "Ėě ęęĕ",
      "ĜĜ ęęĜ",
      "ĀĀĐ ĀĖ",
      "ęĘęęęęęęęę ęęęĚ",
      "ĀĀď ĀĘ",
      "ĕ ď",
      "Ė ĖęęĘ",
      "Ė ęęęęĚĚ",
      "ė ę",
      "ě ĘęęĘ",
      "Ĝ ęęęĜ",
      "ĝ Ĕ",
      "Ġ ęęē",
      "ęĚ ęĚęęĘę",
      "ęęĘ ěęęė",
      "ęęĘ ĘęęĖ",
      "ęęĚ ĘęęĜ",
      "ęě \"",
      "ęė ęęĕ",
      "ęė ęĘęęė",
      "Ęęęęę ě",
      "ęĚęęęę ĚęęĚ",
      "ęĘęęęę ęęĘęęęęęę",
      "ęĝ !",
      "ęĝ ęęęęĚ",
      "ęĕ ęęęęĚ",
      "ęĘĘ ĖęęĘ",
      "ęęęě ęęė",
      "ęęęęęęęęęęęę ęęęĚ",
      "ęĔ Ē",
      "ęěĚ ęęęė",
      "ęĘė ęęęĘę",
      "ęĘė Ĝęęė",
      "ęĚė ęęęĚ",
      "ęěĘ ėęęĚ",
      "ęėĘ ěęęĚ",
      "ęėĘ ĜęęĘ",
      "ęėė ĜęęĘ",
      "ęęęĚęęęę ęęĘęęęę",
      "ęěė Ěęęė",
      "ęĚĜ Ěęęě",
      "ęĘĖ Ęęęė",
      "ęĜĘ ĚęęĘ",
      "ĀĀĔ Āğ",
      "ęĚĖ Ěęęė",
      "ěĘ ęęĞ",
      "ĀĀĞ ĀĞ",
      "ĀĀĞ Āē",
      "ęĜě ĘęęĚ",
      "ęĖė ęęęė",
      "ęėĜ ęęęĚ",
      "ęĜė Ěęęė",
      "ęĜĜ ĘęęĚ",
      "ęĜĜ ėęęĚ",
      "ĀĀ! Āĕ",
      "ęęėęęęę ęęĚ",
      "ĀĀ\" Āě",
      "ĀĀ# ĀĖ",
      "# Ĝ",
      "$ Ě",
      "ē đ",
      "Ĕ ęęęęĚ",
      "Ė Ěęęęę",
      "ė ĀĀ",
      "ė ęě",
      "ė ęĜ",
      "Ę ęęęė",
      "ę ĀĀĘĀ",
      "Ě ėęęęę",
      "Ě ęęĒ",
      "ě ęęęĘ",
      "Ğ !",
      "ęĚ ęęęĘ",
      "ęĚ ĘęęęęĚ",
      "ęĚ ĘęęĚę",
      "ęĚ ęĜęęęę",
      "ęĘ ęěęęęęĘ",
      "ęĘ ęėęęě",
      "ęęĘ ęęęęĚ",
      "ęęĚ ęęęė",
      "ęęĚ ĜęęĚ",
      "ęęĚ ęęęęęęęęęęę",
      "ęě đ",
      "ęė ėęęĘ",
      "ęė ęĜęęĚ",
      "ęęęęęęęę ęęĚęęęę",
      "ęęĜ ėęęě",
      "ęĚęęęę ĚęęĘ",
      "ęĕ ęęęęĘ",
      "ęĚĘ ĚęęĖ",
      "ęęęě ęęęęĚ",
      "ęěĚ ėęęě",
      "ęĘė ěęęęę",
      "ęĚė ėęęęę",
      "ęěĘ ėęęė",
      "ęėĚ Ęęęě",
      "ęęęĘęęęę ęęĘęęęę",
      "Ėęęęę ě",
      "ęėě ěęęě",
      "ęĚĜ ęęęĜ",
      "ęĘĖ ěęęĘ",
      "ęĜĚ ėęęĘ",
      "ęĘĜ ęęęĜ",
      "ęĜĘ Ęęęęę",
      "ęĒ ĕ",
      "ęęęĕ ęęĚ",
      "ěě ęęĝ",
      "ęęęęĘĚ ęęęĚ",
      "ęėĜ ĚęęĚ",
      "ęĜė ĚęęĘ",
      "ęĜė ęęęė",
      "ęęęĘęęĘ ĚęęĘ",
      "ĀĀĒ ĀĔ",
      "ęĚęė ęęęęĘ",
      "ĀĀ+ Ā",
      "# Ę",
      "% Ğ",
      "ē ęęğ",
      "Ė ĀĀ",
      "Ė ěęęęę",
      "Ė ėęęė",
      "Ĝ ęęęęĘĘ",
      "Ĝ ęęęęĚĚ",
      "ĝ ĘęęĚ",
      "ĝ Ěęęě",
      "ęęęę ęęĖ",
      "ęĚ ĚęęęęĘ",
      "ęĘ ęĖ",
      "ęĘ ęęęęęęęęęęęęęęęę",
      "ęĘ ĘęęęęĚ",
      "ęĘ ęėęęė",
      "ęě ęĚęęęęĚ",
      "ęě ęĖęęęę",
      "ęě ęĖęęĘ",
      "ęė ęęĝ",
      "ęė ęĜęęęę",
      "ęė ęėęęĘ",
      "ęęě ĚęęĘ",
      "Ęęęęę ęęęĚ",
      "Ěęęęę ęęęĚ",
      "ęĜ ęėęęęę",
      "ęĜ ęĚęęĘ",
      "ęęĜ ěęęĚ",
      "ęĚęęęę ęęęĚęęęęę",
      "ęĝ ęęęęĘ",
      "ęĕ ęĚęęĚ",
      "ęęęě ęęě",
      "ėęęęę ęęĚ",
      "ĀĀę ĀĚĚ",
      "ęĚě ęęęĘ",
      "ęĚě ĘęęĜ",
      "ęĘė ęęęĖ",
      "ęėĚ ĘęęĘ",
      "ęęęĘęęęę ęęĚęęęę",
      "ęęęĘęęęę ęęĚę",
      "ĘęęęęĘ Ěęęęę",
      "ęěě ĖęęĚ",
      "ęěęęęę Ĝ",
      "ěĚ ęęĖ",
      "ęĘĘęęęę ęĚĚęęęę",
      "ęĜĚ Ęęęě",
      "ęĖĚ Ěęęě",
      "ęĘęęęęĘ ęęęęęęęę",
      "ęĒ ė",
      "ėě ęęĕ",
      "ęĜě ėęęĚ",
      "ęĜė ĘęęĘ",
      "ĀĀ$ Āě",
      "ęĚěęęęę ę",
      "Ęęęęęęęęę ęęęĘ",
      "ĀĀ& Āě",
      "! ęęęę",
      "\" ĕ",
      "$ Ę",
      "$ ě",
      "ď ě",
      "Đ ęęĚ",
      "đ Đ",
      "Ē ęęĕ",
      "Ĕ ęęęė",
      "Ĕ ęęğ",
      "Ě Ĝęęęę",
      "Ġ Āĕ",
      "ęĚ đ",
      "ęĘ ęěęęęęĚ",
      "ĀĀ Ą",
      "ęě ęěęęęę",
      "ęė !",
      "ęė ęęĘę",
      "ęęė ĜęęĘ",
      "ęęė ėęęė",
      "ęęė ĘęęĖ",
      "ęęė ĚęęĘę",
      "ęęě ęęęęĚ",
      "ęęě ĜęęĚ",
      "ęęęĘ ęęęęĘĘ",
      "ęĜ ĚęęĚ",
      "ęĖ ěęęęę",
      "ęĚęęęę Ė",
      "ęĚęęęę ęęęĘęęęęę",
      "ęĘęęęę Ė",
      "ęĘęęęę ęęęĚęęęę",
      "ęĕ ėęęęę",
      "ęĘĘ ęęęęęęęę",
      "ęĘĘ ĘęęĘę",
      "ęęĕ ęęęę",
      "ęěĚ Ėęęęę",
      "ęěĘ ęęęĘę",
      "ęĘě ěęęě",
      "ęĘě ĚęęĜ",
      "ęėĘ ęęęĘę",
      "ęē Ğ",
      "ęē ęęĘ",
      "ěęęė ę",
      "ęěě Ěęęęę",
      "ĚęęęęĚ ę",
      "ĀĀĕ Āē",
      "ėĚ ęęĔ",
      "ęĘęęęęĚ ęęęęęęęę",
      "ęĘĖ ęęęĖ",
      "ęĜĚ ĚęęĚ",
      "ęĜĚ ęęęě",
      "ęĖĚ ěęęęę",
      "ęĚĖ ěęęĘ",
      "ĀĀĞ ĀĔ",
      "ěě ęęęĚ",
      "ęėĖ Ěęęė",
      "ęĖě ęęęě",
      "ĀĀ\" ĀĚ",
      "ĔĚ ęęĔ",
      "ĀĀ% Āě",
      "ĀĀĎ Āě",
      "Ěęęęęęęęę ęęęĚ",
      "ğĚ ęęĞ",
      "\" ę",
      "ď Ĕ",
      "Ė ĘęęĖ",
      "ė ėęęė",
      "ė ĝęęĘ",
      "Ę ĚęęĚ",
      "Ę ęęęĖ",
      "Ę ėęęė",
      "ę ĀĀęĀ",
      "Ě ęě",
      "Ě ĜęęĚ",
      "ě ėęęĜ",
      "ě Ĝęęě",
      "ĝ ęęęě",
      "ĝ ęęē",
      "ğ ě",
      "Ġ ęĖ",
      "Ġ Ęęęĝ",
      "Ġ ĀĀĚĀ",
      "ęĚ ęęęęęęęęęęęęęęęę",
      "ęĘ ĘęęĘę",
      "ęĘ ęĖęęĘ",
      "ęęĘ ĚęęęęĘ",
      "ęě ęĖ",
      "ęė ęęĚę",
      "ęė ęėęęĚ",
      "ęęě ĘęęĘ",
      "Ęęęęę ęęě",
      "ęęęĘ ęęĚęęęę",
      "ęĜ ėęęęę",
      "ęęĜ ěęęě",
      "ęĝ ęĘęęĘ",
      "ęĘĘ ĝęęĘ",
      "ęĚĘ ĚęęęęĘ",
      "ęĚĘ ęęęĘęęĚ",
      "ėęęęę ėĘ",
      "ĀĀĘ ĀĚĚ",
      "ęėĚ ėęęě",
      "ęėė ėęęĘ",
      "ęėė ĚęęĖ",
      "ĘęęęęĘ Ęęęęę",
      "Ėęęęę ė",
      "ęėě ęęęĜ",
      "ęĚęęęęĘ ęęęęęęęę",
      "ęĘĖ ěęęė",
      "ęĘĜ ėęęĚ",
      "ęĖĘ ěęęĘ",
      "ęěĖ ĚęęĘ",
      "ęėĜ Ěęęě",
      "ĜĘ ęęĞ",
      "ĀĀđ Āĕ",
      "ęěĝ ęęęĚ",
      "ęĚęęęęęęęę ęęęĚ",
      "ęěęęęęĘ ę",
      "ęĝė ĘęęĘ",
      "ĀĀ% ĀĚ",
      "ęĘęě ęęě",
      "ęĘęĘ ęęĖ",
      "Ď ĕ",
      "ď Ğ",
      "Đ ęęęę",
      "Ē ĀĀ",
      "ē ęęĞ",
      "Ĕ Ěęęė",
      "Ė ėęęęę",
      "Ė ĜęęĘ",
      "ė Ĝęęęę",
      "Ę Ęęęė",
      "Ě ę",
      "Ě ěęęĘ",
      "ě ĘęęĚę",
      "Ĝ ěęęęę",
      "ĝ !",
      "ĝ ęęĞ",
      "ęĚ ęĜ",
      "ęĘ ęęęė",
      "ęĘ ęęęĘęęęęęęęę",
      "ęęĘ ěęęĖ",
      "ęęĚ ěęęě",
      "ęě ęęĖ",
      "ęě ěęęĚ",
      "ęė đ",
      "ęė ęĜęęĘ",
      "ęęě ęęęė",
      "Ěęęęę ęęě",
      "ęĖ Đ",
      "ęęĖ ěęęĘ",
      "ęĚęęęę ęęĚęęęęęę",
      "ęĕ Ęęęęę",
      "ęĚĚ ęęęęęęęę",
      "ęĚĚ Ĝęęęę",
      "ęĚĘ Ęęęě",
      "ęĘĚ Ěęęė",
      "ęĘĚ ęęęĚęęĘ",
      "ėęęęę ěĚ",
      "ęęĘęęęę ęęĘę",
      "ęĔ ęęĘ",
      "ĀĀĘ ĀĚĘ",
      "ęĚě ĚęęĘ",
      "ęĘė ĘęęĚ",
      "ĀĀĚ ĀĚĚ",
      "ęěĘ ĘęęĖ",
      "ęĘě ęęęĘ",
      "ęėĘ Ĝęęęę",
      "ęėĚ ĖęęĚ",
      "ęē ğ",
      "ęē ęęĚ",
      "ęěě ęęęĘ",
      "ęěęęęę ęęě",
      "ěĚ ęęĞ",
      "ęĜĚ Ěęęęę",
      "ĀĀĔ Āē",
      "ęĚĖ ęęęĖ",
      "ęěĜ ėęęě",
      "ĀĀğ ĀĞ",
      "ĀĀğ Āğ",
      "ęęęęĚĚ Ěęęęę",
      "ęęęęĚĚ ęęęĚ",
      "ę! Ě",
      "ĜĘ ęęğ",
      "ęĜĜ ęęęĚ",
      "ęĚĕ ęęęė",
      "ĀĀĐ Āė",
      "ĀĀ& ĀĘ",
      "ęęęęęęęęęęęęęęęęęęęęęęęęęęęęęęęę ę",
      "# \"",
      "$ !",
      "đ ęęĕ",
      "Ē Ď",
      "Ē ęęĝ",
      "ĕ ėęęė",
      "Ě \"",
      "Ě ěęęě",
      "Ĝ đ",
      "ĝ ěęęĚ",
      "Ġ đ",
      "Ġ ęęĕ",
      "ęęęę ęęĜ",
      "ęĚ ęęęě",
      "ęĚ ęęĔ",
      "ęĚ ęěęęęęĚ",
      "ęĘ ĜęęĘ",
      "ęĘ ęęęĘęęĘ",
      "ęĘ ęĘęęęęęęęę",
      "ęęĘ Ĝęęęę",
      "ęęĚ Ęęęė",
      "ęě ęĘęęęęĚ",
      "ęě ęěęęĚ",
      "ęė ęĜ",
      "ęęě ęęęĘ",
      "ęęě ĘęęĜ",
      "Ęęęęę ėĘ",
      "ęĜ ĘęęĚ",
      "ęęĖ ęęęĖ",
      "ęĘęęęę Ęęęęę",
      "ęĕ ęęė",
      "ęĚĚ Ėęęě",
      "ęĚĚ ĚęęĜ",
      "ęĚĚ ĕęęĚ",
      "ęĚĘ ĖęęĚ",
      "ęĚĘ ĘęęĖ",
      "ęĚě ĘęęĘ",
      "ęĚě ĜęęĚ",
      "ęěĚ ěęęęę",
      "ęĘė ĚęęĚ",
      "ęĘė ĘęęĖ",
      "ęĚė ĚęęĖ",
      "ęěĘ ęęęĖ",
      "ęěĘ ěęęė",
      "ęėĘ ęęęě",
      "ęęē ęĜ",
      "ęē ē",
      "ęěė ĖęęĘ",
      "ęĚĜ ĖęęĚ",
      "ęĘĜ ěęęě",
      "ęĖĘ Ěęęė",
      "ęĜĘ Ěęęė",
      "ęĚĖ ėęęĘ",
      "ęĚĖ ĖęęĘ",
      "ěĘ ĚęęĘ",
      "ęęęęĘĚ ěęęęę",
      "ęěĖ ĘęęĘ",
      "ęĕĚ ĘęęĚ",
      "ęęěęęęę ęęĘ",
      "ęĝĘ ęęęĘ",
      "ęĘęĚ ęęĖ",
      "ęĕė ĚęęĘ",
      "ĀĀď ĀĚ",
      "ĀĀď Āě",
      "Ĝĝ ęęě",
      "ĔĘ ęęĔ",
      "ęĚęĘ ęęĜ",
      "$ Ğ",
      "ď ē",
      "Ĕ ē",
      "ĕ Ęęęė",
      "ĕ ęęĘę",
      "Ė Ď",
      "Ė ęĜ",
      "Ė ęĝ",
      "ė ĚęęĚ",
      "ė Ĝęęė",
      "Ę ę",
      "Ę ęęęęęęęęęęęęęęęę",
      "Ę Ėęęęę",
      "Ę ĘęęęęĚ",
      "Ę ĜęęĘ",
      "Ę ĖęęĘ",
      "Ě !",
      "ě ęĚ",
      "ě ęęęė",
      "ě ĘęęĜ",
      "Ĝ Ĝęęęę",
      "Ĝ ĀĀĘĀ",
      "ĝ ęę",
      "Ġ ĘęęĜ",
      "Ġ ęęęĝ",
      "ęĚ ĝęęęę",
      "ęĚ ęĕęęęę",
      "ęĘ ęĔ",
      "ęĘ ĕęęęę",
      "ęęĘ ěęęĚ",
      "ęęĚ ęęęęĘ",
      "ęė Ĝęęęę",
      "ęė ęěęęė",
      "ęęė ęęęęĘ",
      "ęęė ĚęęĖ",
      "ęęė Ĝęęė",
      "ęĖ ęěęęĘ",
      "ęĖ ęěęęĚ",
      "ęĖ ęĚęęě",
      "ęĕ đ",
      "ęĕ ęęě",
      "ĘęęĚ ęęęęęęęę",
      "ęĘĘ Ęęęě",
      "ęĘĘ ĘęęĖ",
      "ęĚĘ ĕęęĘ",
      "ęĚĘ Ęęęęęęęęę",
      "ęĘĚ ĜęęĘ",
      "ęĘĚ ĕęęĚ",
      "ęęęė ęęęęĚ",
      "ęęę %",
      "ęĞ Ē",
      "ĀĀę ĀĚĘ",
      "ęěĚ ĘęęęęĘ",
      "ęěĚ ęęęĚę",
      "ęĘė ėęęė",
      "ęĚė ĘęęĚ",
      "ĀĀĚ ĀĚĘ",
      "ęěĘ Ėęęęę",
      "ĀĀė ĀĚĚ",
      "ęėĚ ėęęęę",
      "ęěě ĚęęĘ",
      "ęěě ėęęě",
      "ęěė Ęęęęę",
      "ęĚĜ ėęęě",
      "ęĜĚ ėęęĚ",
      "ęĜĘ Ęęęė",
      "ęĚęęęęĚ ęęęęęęęę",
      "ęęęĕ ęęĘ",
      "ęĖė Ěęęė",
      "ęěĖ ęęęĘ",
      "ęęęĘęęĚ ęęęĘ",
      "ęĖęęęę ė",
      "ęĘĕ ęęęĘ",
      "ęĘĕ ĘęęĘ",
      "ĀĀĐ Āĝ",
      "ęĘęĚ ęęęęęęęęęęę",
      "Ėė ęęĕ",
      "ęĜĖ ęęęė",
      "ĀĀď ĀĖ",
      "ĀĀ# Āě",
      "ęĚęęęęęęęę Ęęęęę",
      "ĀĀ% Āė",
      "ĀĀĎ ĀĘ",
      "ĀĀĎ ĀĖ",
      "ęėęęęęĘ ę",
      "ēĘ ęęĔ",
      "ęĘęě ęęė",
      "ĀĀ/ Ā",
      "% !",
      "Đ Ē",
      "ĕ ěęęĘ",
      "ĕ ęęĚę",
      "ĕ ęęęęĘĘ",
      "Ė ęě",
      "ė !",
      "ė ęĝ",
      "ė ěęęĚ",
      "Ę !",
      "Ę ęĝ",
      "Ę ěęęė",
      "Ę Ĝęęęę",
      "Ě Ęęęė",
      "ě ěęęĘ",
      "ě ĝęęĚ",
      "Ĝ ęĜ",
      "Ĝ ęęĒ",
      "ĝ ĜęęĚ",
      "Ğ ęęęęĘ",
      "Ġ %",
      "Ġ ęęĞ",
      "Ġ Ęęęě",
      "Ġ ĀĞ",
      "ęęĘ ęęęĖ",
      "ęęĚ ěęęė",
      "ęęĚ ĕęęĚ",
      "ęęĚ Ęęęęęęęęę",
      "ęě ęęĜ",
      "ęě ęęęě",
      "ęě ęĘęęĖ",
      "ęė Đ",
      "ęė ěęęĘ",
      "Ęęęęę Ė",
      "ęĖ ęĘęęęę",
      "ęĖ ęěęęęę",
      "ęęĖ ĘęęĖ",
      "ęęĖ ĚęęĖ",
      "ęęĜ ę",
      "ęĘęęęę Ěęęęę",
      "ęĝ Ěęęęę",
      "ęĚĚ ęęě",
      "ęĚĚ ęęęĘę",
      "ęĚĚ ĘęęĜ",
      "ęĘĘ Ėęęęę",
      "ęĚĘ ęęě",
      "ęĚĘ ěęęĚ",
      "ęĚĘ ėęęě",
      "ęĚĘ ĝęęĘ",
      "ęĚĘ ėęęęęĘ",
      "ęĘĚ ėęęĘ",
      "ęĘĚ ęęęěę",
      "ęęĝ ę",
      "ęęęė ęęęęĘ",
      "ęęę $",
      "ėęęęę ęęĘ",
      "ėęęęę ęęĚęęęę",
      "ěęęęę ě",
      "ęęęęęęęęęęęę ęĚ",
      "ęĚě Ėęęě",
      "ęĚė ĘęęĖ",
      "ęěĘ ĜęęĘ",
      "ęĘě ĚęęĘ",
      "ęĘě ĘęęĘ",
      "ęĘě ęęęĚę",
      "ęĘě Ėęęě",
      "ęğ ē",
      "ĘęęęęĘ ęĚęęęę",
      "ęęęĚęęęę ęęĚę",
      "ęėęęęę Ĝ",
      "ęěė ěęęė",
      "ĀĀĝ Āğ",
      "ėĚ ĘęęĚ",
      "ęĘĖ ėęęĘ",
      "ęĘĜ ěęęĚ",
      "ęĘĜ Ėęęě",
      "ęĘĜ ĚęęĜ",
      "ęĖĘ ĘęęĚ",
      "ęĖĘ ěęęĚ",
      "ęĒ ğ",
      "ĀĀĞ ĀĒ",
      "ęěĜ ĚęęĚ",
      "ėě ĚęęĚ",
      "ęĜě Ěęęęę",
      "ęęęęĘĚ Ęęęęę",
      "ęęęęĘĚ ĘęęĚ",
      "ĀĀē ĀĞ",
      "ĀĀĒ Āē",
      "ęĚĝ ęęęě",
      "ęĘĕ ęęęė",
      "ĀĀ! ĀĔ",
      "ęĝĚ ęęęĚ",
      "ĀĀđ ĀĔ",
      "ęęěęęęę ę",
      "ęĖĖ Ěęęė",
      "ęĘĝ ęęęĜ",
      "ėĖ ęęĖ",
      "ĀĀ\" ĀĔ",
      "ĝě ęęĞ",
      "ĀĀĎ ĀĜ",
      "ĀĀ& Āĝ",
      "# ĀĀ",
      "ď ğ",
      "ē ď",
      "Ĕ !",
      "Ĕ ĀĀ",
      "ĕ ėęęĘ",
      "ĕ ęęęęĚĘ",
      "Ė ęęĒ",
      "Ė ĚęęĖ",
      "Ė ėęęĖ",
      "Ė ęę\"",
      "ė ęęęęęęęę",
      "Ę ęę\"",
      "Ě ęĚ",
      "Ě ĖęęĚ",
      "Ě ĚęęęęĘ",
      "Ě ĝęęęę",
      "ě ĚęęĘ",
      "ě Ěęęė",
      "Ĝ \"",
      "Ĝ Đ",
      "Ĝ ę",
      "Ĝ ěě",
      "ĝ ęęĘę",
      "Ğ ęęęęĚ",
      "Ğ Ěęęě",
      "Ġ ęĞ",
      "Ġ ĚęęĜ",
      "Ġ ěęęĜ",
      "ęĚ ĘęęĘ",
      "ęĚ ęęęĚęęęęęęęę",
      "ęĚ ęĜęęĚ",
      "ęĘ ęęğ",
      "ęęĘ ęęě",
      "ęęĚ ęęęęĚ",
      "ęęĚ Ėęęęę",
      "ęė ę",
      "ęė ęĘęęęęĘ",
      "ęė ęěęęě",
      "ęęęęęęęę ęĚęęęęę",
      "ęęě ěęęě",
      "ęęě ĘęęĚę",
      "ęęęĘ ęęęęĚĘ",
      "ęęęĚ ęęĚęęęę",
      "ęĜ ęęęĚ",
      "ęęĖ Ęęęęę",
      "ęęĜ ęęĚ",
      "ęĘęęęę ĘęęĚ",
      "ęĘęęęę ęęĘĘęęęę",
      "ęĘęęęę ęęĚĘęęęę",
      "ęĚĚ ęęĚę",
      "ęĘĘ ęęęĚę",
      "ęĘĘ ĚęęĖ",
      "ęĘĚ ęęė",
      "ęęĝ ĘęęĚ",
      "ęęęě ęęęęĘ",
      "ėęęęę ęę",
      "ěęęęę Ė",
      "ęęęęęęęęęęęę ęĚę",
      "ęĚě ĚęęĜ",
      "ęĘě ĚęęĚę",
      "ęėĘ ĚęęęęĚ",
      "ęęğ ę",
      "ęėė ęęęĚ",
      "ĘęęęęĘ ęĘęęęę",
      "ęěě ĘęęĘ",
      "ęěě ęęęĜ",
      "ęěě ĘęęĜ",
      "ęėęęęę ęęė",
      "ęėě ėęęĚ",
      "ĀĀĝ ĀĒ",
      "ėĚ ęęĜ",
      "ęĜĚ Ęęęė",
      "ęĘĜ ėęęě",
      "ęĖĘ ęęęė",
      "ęĖĚ Ęęęęę",
      "ęĜĘ ĘęęĚ",
      "ęĜĘ ěęęĘ",
      "ĀĀĔ ĀĒ",
      "ęęĘęęęĘ ęęĘ",
      "ęęęĕ ęęęę",
      "ęěĜ ėęęĚ",
      "ęėĖ ėęęĘ",
      "ęęęęĘĘ ĚęęĘ",
      "ęĜě ĘęęĘ",
      "ęĜě Ěęęě",
      "ęęęęĘĚ ĚęęĚ",
      "ĀĀğ Āē",
      "ęĖė ěęęĘ",
      "ęěĖ ėęęĘ",
      "ęęęĘęęĚ ęęęĚę",
      "ĀĀĒ ĀĞ",
      "ęĚĝ ęęęĚ",
      "ĀĀ# Āė",
      "ĀĀ# ĀĔ",
      "ĝĝ ęęě",
      "Ěęęęęęęęę ęęęĘ",
      "ęĘĘěęęĘ ę",
      "ęĘęĘ ęęĘę",
      "ĀĀ* ĀĘ",
      "% ě",
      "Đ đ",
      "Ĕ Đ",
      "Ė ęęęĕ",
      "Ė ĕęęĘ",
      "Ė ěęęĖ",
      "ė ěě",
      "Ę ęęęě",
      "Ę Ęęęě",
      "Ě ęęęė",
      "Ě ĚęęęęĚ",
      "ě ęĜ",
      "ě ęę!",
      "ĝ ęęęĚ",
      "ĝ ěęęě",
      "ĝ Ĝęęě",
      "ğ ęęĜ",
      "ęęęę Ĝ",
      "ęĘ \"",
      "ęĘ ęĝ",
      "ęĘ ĚęęęęĘ",
      "ęĘ ęĝęęĘ",
      "ęęĘ ęęęęĘ",
      "ęęĚ ėęęĘ",
      "ĀĀ Ă",
      "ęě ęęĕ",
      "ęě ęėęęě",
      "ęě ęĖęęě",
      "ęė ęĚęęĜ",
      "ęęė ėęęęę",
      "ęęě Ėęęě",
      "ęęě ĚęęĚę",
      "ęęęĚ ęęęęĚĘ",
      "ęĜ Ĝęęęę",
      "ęĜ ęėęęĚ",
      "ęĖ ĘęęĘ",
      "ęĖ ęĘęęĘ",
      "ęęĜ ėęęĜ",
      "ęĚęęęę ęęĚĚęęęę",
      "ęĘęęęę Ĝ",
      "ęĘęęęę ęęęĚęęęęę",
      "ęĚĚ ęęęĚęęĚ",
      "ęĘĘ ėęęě",
      "ęĚĘ Ėęęė",
      "ęęĕ ĘęęĘ",
      "ęęęė ęęĖ",
      "ęęęě ęęęęęęĘ",
      "ėęęęę Ė",
      "ěęęęę ę",
      "ěęęęę ėĘ",
      "ęęęęęęęęęęęę ęĘ",
      "ęĞ !",
      "ęęĘęęęę ęęęĘęęęę",
      "ęęĘęęęę ęęĚę",
      "ęĚě ěęęęę",
      "ęěĚ Ęęęė",
      "ęěĚ ęęęĜ",
      "ęĘė ĚęęĖ",
      "ęĚė Ĝęęė",
      "ęĚė ĕęęĘ",
      "ęĘě ĘęęĜ",
      "ęėĘ ėęęęę",
      "ęėė ĚęęĚ",
      "ęėė ęęęĖ",
      "ęěě ėęęęę",
      "ęěęęęę Ė",
      "ęėě ĖęęĚ",
      "ęĘĘęęęę ęęĚęęęę",
      "ėĚ ě",
      "ęĘĜ ĘęęĜ",
      "ęĖĘ Ęęęęę",
      "ęĚĖ ėęęė",
      "ěĘ Ĝ",
      "ěĘ ęęĖ",
      "ęęĘęęęĘ ęęĚ",
      "ęėĖ ęęęĖ",
      "ęėĖ ěęęė",
      "ęĖė Ěęęęę",
      "ėė ęęĕ",
      "ėė ěęęĘ",
      "ęĖě ěęęĚ",
      "ĖĚ ęęĔ",
      "ĖĘ ęęĔ",
      "ęđ Ė",
      "ęđ ė",
      "ęĚĝ ęęęĜ",
      "ęĚĝ ėęęě",
      "ęĕĚ ęęęĚ",
      "ĀĀđ ĀĞ",
      "ĘĚ ě",
      "ęęěęęęę ęęĚ",
      "ęĕĘ ęęęĘ",
      "ęĖĖ ĚęęĘ",
      "ęĖĖ ęęęė",
      "ęĚęė ęęęęĚ",
      "ęĘĝ ęęęĚ",
      "ęĚĚęęęĚ ęęęęęęęę",
      "ĀĀĐ ĀĜ",
      "ėĖ ęęĕ",
      "ėĜ ęęĕ",
      "ęĘęęęęęęęę ęęęĘ",
      "ĘĘ ęęĕ",
      "ęėĕ ęęęĘ",
      "ĝě ęęĝ",
      "ĠĚ ęęĞ",
      "ĖĖ ęęĕ",
      "\" ęęĘ",
      "# ė",
      "đ ęęĜ",
      "Ē ęęĔ",
      "ē Ęęęė",
      "Ĕ ĘęęĘ",
      "Ĕ Ęęęė",
      "ĕ ĀĀ",
      "Ė !",
      "ė ĔęęĘ",
      "Ę Đ",
      "Ę ĚęęĘę",
      "Ę ěĝ",
      "Ě ėęęĘ",
      "Ě ĘęęĜ",
      "Ě ęęęęęęęęęęęęęęęęęę",
      "ě Ē",
      "Ğ ĀĀĚĀ",
      "ğ Ė",
      "Ġ ĚęęĚ",
      "Ġ ęęĔ",
      "Ġ Ěęęě",
      "Ġ ęē",
      "Ġ ĀĀĘĀ",
      "Ġ ĀĀĘĀĘ",
      "ęĚ \"",
      "ęĚ ęęĞ",
      "ęĚ ĖęęĚ",
      "ęĚ ęěęęě",
      "ęĘ ėęęĚ",
      "ęęĘ Ĝęęė",
      "ĀĀ ă",
      "ęě Ėęęęę",
      "ęě ęěęęė",
      "ęė ęėęęě",
      "ęė ęĘęęĜ",
      "ęęė ęęęĘęęĚ",
      "ęęęĚ ęęęęĚĚ",
      "ęĜ đ",
      "ęĜ ęęĖ",
      "ęĜ ęĚęęė",
      "ęĖ đ",
      "ęĖ Ėęęęę",
      "ęĖ ęĚęęė",
      "ęęĖ ěęęė",
      "ęĚęęęę ęęĜ",
      "ęĚęęęę ęęĘĘęęęę",
      "ęĕ Ěęęęę",
      "ęĘĘ ęęė",
      "ęĘĚ Ęęęė",
      "ęĘĚ Ėęęě",
      "ęĘĚ ĝęęęę",
      "ęęĝ ęęęĝ",
      "ęęęė ęęė",
      "ěęęęę ęęĚ",
      "ęĚě ĘęęĚę",
      "ęěĚ ĘęęĚę",
      "ęĚė ĜęęĘ",
      "ęěĘ Ėęęė",
      "ęėĘ ĚęęĖ",
      "ęėĚ ěęęĘ",
      "ęęē ęĝ",
      "ęěęęęę ęęė",
      "ęėęęęę ęęě",
      "ęěė ėęęė",
      "ĀĀĕ ĀĒ",
      "ęĚĜ ěęęĚ",
      "ęĚĜ ĘęęĜ",
      "ėĘ Ě",
      "ėĘ ęęĔ",
      "ęĜĚ ėęęęę",
      "ęĜĚ ėęęě",
      "ęĖĘ ĜęęĘ",
      "ęĖĚ ėęęĚ",
      "ęĘęęęęĘ ęĚęęęę",
      "ęĚęęęęĚ ęĘęęęę",
      "ęĒ Ğ",
      "ęęęĕ ę",
      "ĀĀĞ Āğ",
      "ęěĜ Ęęęęę",
      "ęěĜ ęęęĜ",
      "ěě ĘęęĚ",
      "ěě ĚęęĚ",
      "ĀĀē Āē",
      "ęėĜ ěęęĚ",
      "ęęęęĚĘ ėęęęę",
      "ĜĚ ĝ",
      "ĜĚ ęęĞ",
      "ęĖě Ěęęě",
      "ęĜė ėęęĘ",
      "ęęęĚęęĘ ęęęęęęęę",
      "ę! ğ",
      "ęĜĜ ĚęęĚ",
      "ĘĚ Ĝ",
      "ěė ęęęĘ",
      "ěė ĘęęĘ",
      "ęĖĖ ĘęęĘ",
      "ęęėęęęę ęęĚęęęę",
      "ęĚĘęęęĘ ęęęęęęęę",
      "ęĘĚęęęĚ ęęęęęęęę",
      "ęĘĘęęęĘ ęęęęęęęę",
      "ĚĚ ęęĝ",
      "ĀĀĐ ĀĞ",
      "ęĘęęęęęęęę Ěęęęę",
      "ĀĀď ĀĜ",
      "ĀĀ# ĀĚ",
      "ęĚęęęęęęęę Ěęęęę",
      "ęĚęęęęęęęę ęęęĘ",
      "ęěĕ ęęęė",
      "ĀĀ$ ĀĚ",
      "ĀĀ$ Āė",
      "ĀĀĎ ĀĚ",
      "ĀĀ& ĀĜ",
      "% ğ",
      "Ď Ę",
      "Ĕ ęęĒ",
      "ĕ Ěęęęę",
      "ĕ ĖęęĘ",
      "ĕ ęęĒ",
      "Ė ď",
      "Ė ėě",
      "ė Ęęęě",
      "ė ęĚęęĚ",
      "ė ĚęęĘę",
      "Ę ěě",
      "Ę ěĜ",
      "Ę ěĞ",
      "Ě ėęęě",
      "Ě ęę!",
      "ě ę",
      "ě ęęęęęęęę",
      "ě Ėęęęę",
      "ě ĚęęęęĚ",
      "ě ęĚęęĘ",
      "ě Ėęęě",
      "ě ĕęęĚ",
      "ě ĖĚ",
      "Ĝ ĖęęĚ",
      "Ĝ ĜĚ",
      "ĝ Ęęęęę",
      "ĝ ęęęĜ",
      "ĝ ėęęě",
      "ĝ Ĝęęęę",
      "ĝ ęęęęĚĚ",
      "Ğ ė",
      "Ġ ď",
      "Ġ ęęęě",
      "Ġ ęĔ",
      "Ġ ěęęě",
      "Ġ ęęęĞ",
      "Ġ ĀĀěĀ",
      "Ġ ĀĀęĀė",
      "ęę (",
      "ęĚ ĜęęĚ",
      "ęĚ ęĚęęĖ",
      "ęĘ ęęĞ",
      "ęĘ ęĝęęęę",
      "ęęĚ ĝęęĚ",
      "ęě Ęęęě",
      "ęě ęęęĚę",
      "ęě ęĚęęęęĘ",
      "ęě ęĚęęě",
      "ęě ęĜęęĘ",
      "ęė Ěęęęęę",
      "ęęė ęęě",
      "Ěęęęę Ĝ",
      "ęĜ ęĚęęĚ",
      "ęĜ ęěęęĘ",
      "ęĜ ęĖęęĘ",
      "ęĖ !",
      "ęęĖ ęęĘ",
      "ęĚęęęę Ęęęęę",
      "ęĘęęęę ęĚĚęęęę",
      "ęĝ ęėęęĘ",
      "ęĕ ęęĖ",
      "ęęęęĘ Ěęęęę",
      "ęĚĘ Ěęęě",
      "ęĘĚ Ėęęęę",
      "ęęĕ ĚęęĘ",
      "ęęĕ ėęęĘ",
      "ęęĕ Ěęęė",
      "ęęĝ ĚęęĚ",
      "ęęę Ď",
      "ěęęęę ęęĘ",
      "ęęęęęęęęęęęę ęęęĘ",
      "ęĞ ęęė",
      "ęęĔ ęĞ",
      "ęĘė ĚęęĘę",
      "ęĚė ĚęęĚ",
      "ęěĘ ěęęęę",
      "ęěĘ ėęęĖ",
      "ęĘě ęęęĝ",
      "ęğ ęęĚ",
      "ęėęęęę Ė",
      "ěĚ ĚęęĚ",
      "ęėě ėęęě",
      "ėĘ Ęęęęę",
      "ėĘ ĘęęĘ",
      "ęĖĘ ěęęęę",
      "ęĖĚ ęęęĘ",
      "ęĖĚ ĚęęĘ",
      "ěĘ ě",
      "ęęĘęęęĘ ęęĚęęęę",
      "ěě ęęĞ",
      "ęęęĝ ę",
      "ęęęĝ ęęęę",
      "ėě ĝ",
      "ęĜě ėęęě",
      "ęėĜ ėęęĚ",
      "ęęęĚęęĚ ęęęĚę",
      "ęęęĘęęĘ Ęęęęę",
      "ęđ Ę",
      "ęĚĝ Ęęęě",
      "ęĘĕ ĚęęĘ",
      "ęĕĚ ĚęęĚ",
      "ĘĚ ęęĕ",
      "ěė ęęĝ",
      "ĝĚ ęę",
      "ęęėęęęę ę",
      "ęĘĝ ĚęęĚ",
      "ęĘĝ Ěęęě",
      "ęĘĝ ėęęě",
      "ęěĝ Ęęęě",
      "ĘĘ ě",
      "ĀĀ\" Āĝ",
      "ęĘęĚ ęęĜ",
      "ěĝ ęęě",
      "ĀĀ$ ĀĜ",
      "ĀĀ) ĀĘ",
      "ĀĀ. Ā",
      "\" $",
      "$ ė",
      "% \"",
      "& !",
      "Ď Ğ",
      "ď ęęĚ",
      "đ ď",
      "ē ęęē",
      "ē ęę\"",
      "Ĕ ėęęĘ",
      "Ĕ ęęē",
      "ĕ !",
      "ĕ Đ",
      "ĕ ĘęęĖ",
      "ĕ ęęęęĚĚ",
      "ĕ Ėęęė",
      "Ė ęęęęĚĘ",
      "Ė Ėęęė",
      "Ė Ėĝ",
      "Ę ęĞ",
      "Ę ėĚ",
      "Ę ĘęęĘę",
      "Ę ěğ",
      "ę ĀĀėĀ",
      "ę ĀĀěĀ",
      "Ě ęĞ",
      "Ě ęęęęęęęęęęęęęęęę",
      "Ě ěęęė",
      "ě Ęęęė",
      "ě ęęęĝ",
      "ě ĝęęęę",
      "Ĝ ĚęęĜ",
      "Ĝ ęęęĝ",
      "ĝ ĚęęĜ",
      "ğ ęęĕ",
      "Ġ ĀĀĜĀ",
      "ęĚ ęĜęęė",
      "ęĘ Đ",
      "ęĘ ęęęęęęęęęęęęęęęęęę",
      "ęęĘ Ěęęě",
      "ęęĘ ėęęĖ",
      "ęęĘ ĝęęĘ",
      "ęęĘ Ęęęęęęęęę",
      "ĀĀ Ć",
      "ęě ęėęęė",
      "ęė ĕęęęę",
      "ęęė ĕęęĘ",
      "ęęě ęęęĚęęĘ",
      "Ěęęęę ęęĘęęęęęę",
      "Ěęęęę ęęĚęęęęęę",
      "ęĜ ęĚęęęę",
      "ęĖ ęĜ",
      "ęęĖ ĖęęĘ",
      "ęęĖ ęęęĕ",
      "ęĘęęęę ęęĜ",
      "ęĘĚ ĚęęĜ",
      "ęęĝ ęęęę",
      "ęęĝ ęęęĚ",
      "ęęęęęęęęęęęę ęĘęęęęęę",
      "ęĞ ē",
      "ęęĔ ęęĚ",
      "ęĚě ĚęęęęĚ",
      "ęěĚ ěęęĘ",
      "ęěĚ ĘęęęęĚ",
      "ęĘė ęęęėę",
      "ĀĀė ĀĚĘ",
      "ęĘě ėęęĜ",
      "ęėĘ Ěęęě",
      "ęğ !",
      "ĀĀě ĀĚĚ",
      "ęėė ėęęęę",
      "ĚęęęęĚ ęĚęęęę",
      "ĀĀĜ Āğ",
      "ěĚ ğ",
      "ęėě ěęęęę",
      "ęĜĚ ĚęęĘ",
      "ęĚĖ ĘęęĖ",
      "ęĚĖ ĚęęĖ",
      "ęęĘęęęĘ ęęĚęęęĚ",
      "ęĒ ęęęę",
      "ęěĜ ĖęęĚ",
      "ęěĜ ĘęęĜ",
      "ęěĜ Ėęęě",
      "ęěĜ ėęęĜ",
      "ėě Ğ",
      "ėě ĘęęĚ",
      "ęĜě ęęęě",
      "ęĖė ĚęęĚ",
      "ęĖė Ęęęė",
      "ęěĖ ęęęĖ",
      "ėė Ĝ",
      "ęĜė Ęęęęę",
      "ęęęĘęęĘ ęęęęęęęę",
      "ę! Ę",
      "ę! Ğ",
      "ęĖęęęę ęęĘ",
      "ęĚĕ ĘęęĘ",
      "ęęęĞ ęęĘ",
      "ęěĝ ėęęě",
      "ĀĀ\" Āĕ",
      "ĀĀ\" ĀĞ",
      "ĀĀĖĀ !",
      "ęĕė ęęęĘ",
      "ęĜĖ ęęęĘ",
      "ĀĀď Āĕ",
      "ĀĀ# ĀĜ",
      "ĚĘ ęęĞ",
      "ęęĘęęęęęęęę ęęęęęęęęęęęę",
      "ĔĘ ęęē",
      "ęĕě ĚęęĚ",
      "ĀĀĎ Āė",
      "ęĚęĘ ęęęęęęęęęęę",
      "ęęęęęęęęęęęęęęęęęęęęęęęę ęęęęęęęęęęęę",
      "ĀĀ' ĀĘ",
      "ğĚ ęęğ",
      "ęěęĘęęĚ ę",
      "\" ęęęę",
      "ď Ĝ",
      "Đ ď",
      "đ ęę",
      "ĕ ĚęęĖ",
      "Ė Ęęęě",
      "ė ęęęě",
      "ė ĕęęęę",
      "Ę ęě",
      "Ę ĚęęĖ",
      "Ě ĀĀ",
      "Ě ĕęęĚ",
      "Ě ĚęęĚę",
      "Ě ėĝ",
      "ě ėęęĘ",
      "ě ęėęęęę",
      "ě ĜęęĘ",
      "ě ěĘ",
      "ě ęęđ",
      "ě Ėě",
      "Ĝ ėęęęę",
      "Ĝ ėĝ",
      "ĝ Ěęęęę",
      "ĝ ėęęĚ",
      "ĝ ęęĚę",
      "Ğ ęęęě",
      "Ğ ęęĔ",
      "Ġ ęĕ",
      "Ġ ęęęğ",
      "ęęęę ĝ",
      "ęĚ Đ",
      "ęĚ ĕęęęę",
      "ęĚ ęęęĚęęĘ",
      "ęĚ ęĖęęė",
      "ęĘ ęėęęęęĘ",
      "ęęĘ ęęęĚę",
      "ęęĚ ĚęęĜ",
      "ęęĚ Ěęęęęęęęę",
      "ęě ęĘ",
      "ęě ęęęęęęęę",
      "ęě ęęęęĘĘ",
      "ęė Ěęęė",
      "ęęęęęęęę ęĚęęęę",
      "ęęė ĘęęęęĘ",
      "ęęė ĘęęęęĚ",
      "ęęě ėęęęę",
      "ęęęĘ ęęĜ",
      "ęĜ Đ",
      "ęĖ ĚęęĘ",
      "ęęĖ Ėęęė",
      "ęęĜ ĘęęĜ",
      "ęĝ \"",
      "ęĝ Ęęęęę",
      "ęĚĚ ėęęĜ",
      "ęĘĘ ėęęė",
      "ęĘĘ ėęęęęĘ",
      "ęĘĘ ěęęęęĚ",
      "ęĘĚ Ĝęęě",
      "ęęĝ Ěęęě",
      "ęęĝ ėęęě",
      "ėęęęę ěĘ",
      "ěęęęę ęę",
      "ęęęęęęęęęęęę ęĘę",
      "ęĞ ęęęęĚ",
      "ęęĚęęęę ęęĘę",
      "ęęĘęęęę ęęęĚęęęę",
      "ęęĘęęęę ęĚĚęęęę",
      "ęęĘęęęę ęęĘęęęęę",
      "ęĔ !",
      "ęĔ ęęě",
      "ęĚě Ĝęęęę",
      "ęěĚ Ĝęęęę",
      "ęĘė ĖęęĘ",
      "ęĘė ĝęęĘ",
      "ęĚė ĝęęĘ",
      "ęėĘ ĜęęĚ",
      "ęėĚ ęęęė",
      "ęėĚ ęęęĜ",
      "ęėĚ Ĝęęęę",
      "ęėĚ ĚęęęęĘ",
      "ęėĚ ĘęęĜ",
      "ęěě ĘęęęęĘ",
      "ęěė ĜęęĘ",
      "ěĚ Ě",
      "ęĚĚęęęę ęęĚęęęę",
      "ęėě ĘęęĜ",
      "ęĚĜ Ęęęęę",
      "ėĚ Ĝ",
      "ėĘ ęęęĚ",
      "ėĘ ęęē",
      "ęĘĖ ėęęė",
      "ęĘĖ ĘęęĖ",
      "ęĘĖ ěęęĖ",
      "ęĜĘ ęęęĚ",
      "ęęĚęęęĚ ęęĚęęęĚ",
      "ęĚĘęęęę ęęĚęęęę",
      "ęĒ ē",
      "Ėęęě ę",
      "ęęęĝ ęęĘ",
      "ęėĖ Ęęęė",
      "ėě ęęęĚ",
      "ęĜě Ęęęęę",
      "ęĖė ěęęė",
      "ęęđ ęĜ",
      "ęęęĘęęĚ ĘęęĚ",
      "ĜĚ ęę",
      "ęĖě ęęęĜ",
      "ęĜė ěęęė",
      "ęĚĝ ĘęęĚ",
      "ęĘĕ Ěęęė",
      "ęĝĚ ėęęęę",
      "ĀĀđ Āĝ",
      "ĀĀđ Āē",
      "ęĕĘ ĘęęĘ",
      "ęĘĝ ęęęě",
      "Ėě ĝ",
      "ėĖ Ĝ",
      "ėĖ ĚęęĘ",
      "ėĜ ęęĔ",
      "ĀĀ# Āĝ",
      "ęęĘĘęęĘ ęęęęęęęę",
      "ęĖĜ ęęęě",
      "ęĖĜ Ěęęě",
      "ĀĀ& Āė",
      "ęěęęęęĚ ę",
      "ēĚ ęęē",
      "ēė ęęĔ",
      "Ěĝ ğ",
      "! ē",
      "\" %",
      "# $",
      "$ Ĝ",
      "Ď ğ",
      "ď ď",
      "Đ Đ",
      "đ ęęĝ",
      "đ ęęē",
      "Ē ď",
      "Ē ęę",
      "Ē ęęğ",
      "ē ěęęė",
      "ĕ ěęęė",
      "ĕ ęęęĕ",
      "ĕ ęęęęĘĚ",
      "ĕ ěĝ",
      "ė ĖĚ",
      "ė ęę\"",
      "ė ĜĜ",
      "Ę ĖęęĚ",
      "Ę ėęęě",
      "Ě ĘęęęęĚ",
      "Ě ĚęęĜ",
      "Ě ĝęęĚ",
      "Ě ĘĚ",
      "Ě ěĞ",
      "Ě ĖĜ",
      "ě ęĝ",
      "ě ęĞ",
      "Ĝ ęě",
      "Ĝ ĘęęĘ",
      "Ĝ Ĝęęě",
      "Ĝ ęęĐ",
      "ĝ ĝęęĚ",
      "Ğ ęęęĚ",
      "Ğ ęęĞ",
      "Ğ ĀĀęĀ",
      "ğ ęęĝ",
      "Ġ ęė",
      "Ġ Ĝęęě",
      "Ġ ĀĀėĀ",
      "Ġ ĜęęĜ",
      "ęĘ ĖęęĘ",
      "ęĘ ęĜęęė",
      "ęęĘ ęęęě",
      "ęęĚ ĜęęĘ",
      "ęė ęĝęęęę",
      "ęęė ěęęĖ",
      "ęęě ĘęęęęĘ",
      "Ęęęęę ęęĚęęęęęę",
      "Ěęęęę ęęęĘęęęę",
      "ęęęĘ ęęęęęęęęęęęę",
      "ęęęĘ ęęĘęęęĘ",
      "ęĜ ęėęęě",
      "ęĖ ę",
      "ęĖ ęęĕ",
      "ęĖ ėě",
      "ęĖ ęėęęĚ",
      "ęęĖ ęęęĚ",
      "ęęĜ Ęęęęę",
      "ęęĜ Ěęęęę",
      "ęęĜ ĖęęĚ",
      "ęĚęęęę ĚęęęęęęĚ",
      "ęĝ ęęĖ",
      "ęĕ ęęĜ",
      "ęĕ ęĚęęě",
      "ĚęęĘ ęęęęęęęę",
      "ęĚĚ ěęęė",
      "ęĚĚ ĜęęĘ",
      "ęĚĚ ęęęĚęęĘ",
      "ęĘĘ ęęęĜ",
      "ęĘĘ ęęęęęęęęęęę",
      "ęĘĘ ėęęęęĚ",
      "ęęĕ ę",
      "ęęĕ ěęęė",
      "ęęĕ ĚęęĖ",
      "ęęĝ Ęęęě",
      "ęęĝ ĘęęĜ",
      "ęęęęęęęęęęęę ęĚęęęęęę",
      "ęęĚęęęę ęęĚę",
      "ęęĘęęęę ęĘĘęęęę",
      "ęĔ đ",
      "ęěĚ ĖęęĘ",
      "ęěĚ Ėęęě",
      "ęĘė Ęęęě",
      "ęĚė ęęęĕ",
      "ęĚė Ėęęė",
      "ęĚė ĘęęĘę",
      "ęěĘ ĘęęęęĘ",
      "ęĘě Ĝęęě",
      "ęėĘ ėęęė",
      "ęėĚ ĚęęĚę",
      "ęğ ęęĘ",
      "ęęęĜ ęęė",
      "ęęęĘęęęę ęęĚęęęęęęęę",
      "ęē ęęě",
      "ęėė ėęęė",
      "ęėė ĚęęĘę",
      "ĚęęęęĚ ęĘęęęę",
      "ĚęęęęĚ ĚĘęęęę",
      "ęěė Ĝęęė",
      "ěĚ Ğ",
      "ěĚ ėęęęę",
      "ěĚ ėęęĚ",
      "ęėě Ĝęęě",
      "ęĚĜ ěęęě",
      "ėĚ ĝ",
      "ęĜĚ Ėęęęę",
      "ęĖĘ ėęęĚ",
      "ęĚĖ ěęęĖ",
      "ěĘ ĝ",
      "ęĒ ęęĚ",
      "ęěĜ ĚęęĜ",
      "ěě ě",
      "ěě ėęęĚ",
      "ęėĖ Ěęęęę",
      "ęęęęĘĚ ěęęĚ",
      "ęĖė Ęęęęę",
      "ęĖė ęęęĚ",
      "ęěĖ ėęęė",
      "ėė ęęęĘ",
      "ęęęĘęęĚ ĚęęĚ",
      "ĖĘ ęęęĘ",
      "Ĝě Ĝ",
      "ęđ ęęęę",
      "ęĖęęęę ęę",
      "ęĚĝ ĚęęĚ",
      "ęĘĕ ěęęė",
      "ęĝĚ ĘęęĚ",
      "ĀĀđ Āğ",
      "ĘĚ ęęĝ",
      "ęĖĖ ęęęĘ",
      "ęĝĘ ĚęęĘ",
      "ęĝĘ ęęęė",
      "ęĚęė ęęė",
      "ęĘĝ Ęęęě",
      "ęĘęęęęęęęę Ęęęęę",
      "ĘĘ Ĝ",
      "ĀĀ\" ĀĜ",
      "ęĝě ĘęęĚ",
      "ęĝě ęęęě",
      "ęĜĖ Ěęęė",
      "ĀĀď ĀĔ",
      "ęěĕ ęęęĘ",
      "ęėĝ ĚęęĚ",
      "Ėĝ ęęĕ",
      "ĔĚ ęęē",
      "ĠĚ ęęğ",
      "ĀĀ% ĀĘ",
      "ĕě ęęĔ",
      "ēĚ ęęĔ",
      "ęĝęęęę ė",
      "ĀĀ' Āě",
      "ĚęęęęĘĚ ĘęęĚ",
      "ęęęęęęęęęĚ ęęęĚę",
      "ĀĀĈ Ā",
      "! ęęĚ",
      "\" Ĕ",
      "# %",
      "$ ĀĀ",
      "& ĝ",
      "ď Ē",
      "đ !",
      "ē Ď",
      "Ĕ ęęęĘ",
      "Ĕ ěęęė",
      "Ĕ ěęęĖ",
      "ĕ ē",
      "ĕ ę",
      "ĕ Ęęęęę",
      "ĕ ėęęęę",
      "ĕ ĖĚ",
      "ĕ ěĞ",
      "ĕ ĝĝ",
      "Ė ęęęĚ",
      "Ė ĚęęĚ",
      "Ė ėęęĚ",
      "Ė ĔęęĘ",
      "Ė ĜĞ",
      "ė Ď",
      "ė Ē",
      "ė ęęęĕ",
      "ė ęęđ",
      "ė Ėęęė",
      "Ę ęĚ",
      "Ę ĘęęęęĘ",
      "Ę ĘęęĖ",
      "Ę Ĝě",
      "Ę ĘĚ",
      "Ę ĜĞ",
      "Ę ĖĜ",
      "Ę ęęęęęęęęęęęęęęęęęę",
      "ę ĀĀĖĀ",
      "Ě Ěęęė",
      "Ě ęęęĜ",
      "Ě Ėęęě",
      "Ě Ĝě",
      "Ě ĜĜ",
      "Ě ęęęĚęęęęęęęę",
      "ě ěęęė",
      "Ĝ ęĘęęęę",
      "Ĝ ĚęęĘ",
      "Ĝ ęęđ",
      "Ĝ ĝęęĚ",
      "ĝ \"",
      "ĝ ęĜ",
      "Ğ \"",
      "Ğ #",
      "Ğ ěęęĚ",
      "Ğ ěęęĜ",
      "Ġ ęę",
      "Ġ ęęęĚ",
      "Ġ ęęğ",
      "Ġ ėęęě",
      "Ġ Āē",
      "Ġ ėęęĜ",
      "Ġ Āğ",
      "ęęęę ęęĕ",
      "ęĚ ěęęĘ",
      "ęĘ ĚęęĚ",
      "ęĘ ĝęęęę",
      "ęĘ ęęęęęęęęęęęęęęęęęęę",
      "ęĘ ęĕęęĚ",
      "ęęĚ ĝęęęę",
      "ęęĚ ěęęĜ",
      "ęė ęęęęęęęę",
      "ęė ęęęė",
      "ęė ęĖęęĚ",
      "ęęęęęęęę ęęĚę",
      "ęęęęęęęę Ęęęęęęę",
      "ęęė ęęęĕ",
      "ęęě ěęęĘ",
      "ęęě ĘęęęęĚ",
      "ęęě ęęęĚęęęęęęęę",
      "Ěęęęę ěĚ",
      "ęęęĘ ęęęęĚĚ",
      "ęĜ ėęęĚ",
      "ęĜ ėĘęęĖ",
      "ęĖ ęĜęęĘ",
      "ęęĜ Ėęęě",
      "ęĚęęęę ęęęě",
      "ęĚęęęę ęĚĘęęęę",
      "ęĘęęęę ęęĚĚęęęę",
      "ęĘęęęę ęęęĘęęęęę",
      "ęĝ ęĘęęęę",
      "ęĝ ěęęęę",
      "ęĝ ęėęęęę",
      "ęĝ ęĚęęĚ",
      "ęĕ ęĚęęęę",
      "ęĕ ęĘęęĚ",
      "ęĕ ęěęęĚ",
      "ęĚĚ Ěęęė",
      "ęĚĚ Ęęęė",
      "ęĚĚ ęęęęęęęęęęę",
      "ęĚĚ Ęęęęęęęęę",
      "ęęęęĘ ė",
      "ęĘĘ Ĝęęė",
      "ęĘĘ ęęęĘęęĘ",
      "ęĘĘ ěęęęęĘ",
      "ęĚĘ Ĝęęęę",
      "ęĚĘ Ėęęě",
      "ęĚĘ ĕęęęę",
      "ęĚĘ ėęęęęĚ",
      "ęĘĚ ĝęęĚ",
      "ęęĕ ĘęęĖ",
      "ęęĝ ęęĘ",
      "ęęęě ęęĖ",
      "ėęęęę ęęĘęęęę",
      "ęęĚęęęę ęęĘęęęęę",
      "ęęĔ ęĕ",
      "ęĚě ėęęĘ",
      "ęĚě ėęęĜ",
      "ęĚě Ęęęĝ",
      "ęěĚ ĘęęĜ",
      "ęěĚ ĕęęĚ",
      "ęĘė ęęęĕ",
      "ęĚė ĘęęęęĘ",
      "ęěĘ ĖęęĚ",
      "ęĘě ěęęĜ",
      "ęėĘ Ęęęě",
      "ęėĘ ĘęęęęĚ",
      "ęėĘ ĖęęĘ",
      "ęėĘ ĚęęĘę",
      "ęėĚ ĚęęęęĚ",
      "ęęęĘęęęę ęęě",
      "ęē Ē",
      "ęėė ĘęęĖ",
      "ęěě Ėęęě",
      "ęěęęęę ęęęĚ",
      "ęěęęęę ęęĘęęęę",
      "ĚęęęęĘ ęĘęęęę",
      "ěĚ ĝ",
      "ęĚĜ ĘęęĘ",
      "ęĚĜ ĚęęĜ",
      "ėĚ ğ",
      "ėĚ Ęęęęę",
      "ęĘĖ Ĝęęė",
      "ęĖĚ ěęęĘ",
      "ęĖĚ ĜęęĚ",
      "ęĜĘ ęęęĖ",
      "ęĜĘ ĖęęĘ",
      "ęĚęęęęĚ ęĘęęęęĘ",
      "ěĘ ęę",
      "ěĘ ėęęĘ",
      "ęĘĚęęęę ęęĘęęęę",
      "ęĒ ĝ",
      "Ĝęęė ę",
      "ėě Ĝ",
      "ĕęęęę ě",
      "ęęęęĚĚ ěęęęę",
      "ĀĀē Āğ",
      "ęěĖ ěęęĘ",
      "ęėĜ Ęęęě",
      "ęėĜ ĘęęĜ",
      "ęęęĘęęĚ Ęęęęę",
      "ęęęĘęęĚ Ěęęęę",
      "ĜĚ ęęğ",
      "ęĖě Ęęęě",
      "ĀĀĒ ĀĒ",
      "ĖĘ ęęē",
      "ęđ Ě",
      "ęĜĜ Ęęęě",
      "ĀĀĘĀ !",
      "ęĕĚ Ěęęě",
      "ĀĀ! ĀĞ",
      "ĀĀđ ĀĒ",
      "ĘĚ ĝ",
      "ěė ęęĞ",
      "ęĕĘ ęęęĚ",
      "ęĕĘ ĚęęĘ",
      "ĕĘ ęęē",
      "ęĚĕ ĚęęĘ",
      "ęĚĕ Ęęęė",
      "ęĚĕ ĘęęĖ",
      "ęĚĕ ĚęęĖ",
      "ĚĚ Ĝ",
      "ĘĘ ĝ",
      "ĀĀěĀ đ",
      "ęėĕ ĚęęĘ",
      "ęėĕ ęęęĖ",
      "ęĕė ĘęęĘ",
      "ęěĕ ęęęĖ",
      "ęěĕ ĘęęĖ",
      "ĀĀ$ Āĕ",
      "ĀĀ$ Āĝ",
      "ęĝė ęęęė",
      "ĠĚ ęęĝ",
      "ĀĀ% ĀĖ",
      "ęĕĖ Ěęęė",
      "ĕĝ ęęĖ",
      "Ĕě ęęĔ",
      "ĠĘ ęęğ",
      "ęĘęĘ ęęĜ",
      "ęėęĚęęĚ ę",
      "ęęęęęęęęĘ ęĚęęęę",
      "ĀĀ, Ā",
      "$ #",
      "% Ĝ",
      "ď đ",
      "Đ !",
      "Đ ęę",
      "Đ ęęĜ",
      "Ē ęęĞ",
      "Ē ėęęė",
      "ē !",
      "Ĕ ď",
      "Ĕ ęĜ",
      "Ĕ ĚęęĘ",
      "Ĕ ĖęęĘ",
      "Ĕ ĘęęĖ",
      "ĕ ęě",
      "ĕ ĘęęĚ",
      "Ė ĜĜ",
      "ė ęĚ",
      "ė ęěęęęę",
      "ė ĚęęęęĚ",
      "ė Ĝě",
      "ė ęěęęĘ",
      "Ę ęĜ",
      "Ę ėęęĚ",
      "Ę ėě",
      "ę ĀĀĚĀ",
      "Ě ęğ",
      "Ě ĚęęĖ",
      "Ě ėė",
      "Ě ęęĐ",
      "Ě ėĜ",
      "Ě ĝě",
      "Ě ěęęęęĚ",
      "Ě ĝĜ",
      "Ě Ĕė",
      "ě ęĖ",
      "ě ęęęęęęęęęęę",
      "ě ėė",
      "Ĝ ē",
      "Ĝ ęęęĘ",
      "Ĝ ėĘ",
      "Ĝ ėęęĜ",
      "ĝ ĘęęĜ",
      "ĝ ęęęĝ",
      "ĝ ęęęęĚĘ",
      "ğ ĀĀėĀ",
      "Ġ &",
      "Ġ ęĝ",
      "Ġ ęĘĘ",
      "Ġ ęęęęĚ",
      "Ġ ĀĔ",
      "Ġ ĀĀĖĀ",
      "Ġ ěęęĝ",
      "Ġ ĀĀĚĀĘ",
      "Ġ ĀĀėĀĘ",
      "Ġ ĀĀĞĀ",
      "ęĚ ęęğ",
      "ęĚ ęęęĚęęĚ",
      "ęĚ ęĝęęĘ",
      "ęĚ ęĚęęęęęęęęęęę",
      "ęĚ ęęęęęęęęęęęęęęęęęęęęęęęęęęę",
      "ęĘ ęėęęęęĚ",
      "ęęĘ ĖęęĚ",
      "ęęĘ ęęĚę",
      "ęęĘ ĕęęĘ",
      "ęęĘ ėęęĘę",
      "ęęĚ ęęęĘę",
      "ęě #",
      "ęě ęęęęĚĘ",
      "ęě ęĘęęĘę",
      "ęė ď",
      "ęė ęĝ",
      "ęė ęęęĘę",
      "ęė ęėęęęęĘ",
      "ęęęęęęęę ęĚęęęĚ",
      "ęęě ęęęĚęęĚ",
      "ęęě ĝęęĚ",
      "Ęęęęę ęęĘęęęęęę",
      "ęęęĚ Ěęęęę",
      "ęęęĚ ęĕ",
      "ęĜ ęĚęęě",
      "ęĖ ęęęĘ",
      "ęĖ ęėęęęę",
      "ęĖ ęĜęęĚ",
      "ęĚęęęę ęęĚĘęęęę",
      "ęĚęęęę Ěęęęęęę",
      "ęĕ ęěęęĘ",
      "ęĚĚ ĘęęĖ",
      "ęĘĘ ěęęě",
      "ęĘĘ Ěęęęęęęęę",
      "ęĚĘ ěęęĖ",
      "ęĚĘ ěęęęęĘ",
      "ęĘĚ ęęęĝ",
      "ęĘĚ ěęęĚę",
      "ęęĕ ęęĚ",
      "ęęĕ Ęęęė",
      "ęęĕ ęęęĖ",
      "ęęĕ Ėęęė",
      "ęęęě ęęęęęęęę",
      "ėęęęę Ĝ",
      "ěęęęę ěě",
      "ęęęęęęęęęęęę ęęęĚęęęęęę",
      "ęĞ ęęęęĘ",
      "ęęĚęęęę ęęĚęęęęę",
      "ęĔ Ęęęęę",
      "ęęĞ ęĕ",
      "ęěĚ Ěęęė",
      "ęěĚ ęęęĖ",
      "ęěĚ ĚęęĜ",
      "ęĘė ěęęĚ",
      "ęĘė Ėęęęę",
      "ęĘė Ěęęĕ",
      "ęĚė ěęęęę",
      "ęĚė Ėęęęę",
      "ęěĘ ĘęęęęĚ",
      "ęěĘ ĚęęĖ",
      "ęěĘ ĘęęĘę",
      "ęĘě ęęęė",
      "ęėĘ ĘęęĖ",
      "ęėĘ ĝęęęę",
      "ęėĚ ĚęęĜ",
      "ęęē ę",
      "ęęęĘęęęę Ěęęęęęę",
      "ęėė ĝęęĘ",
      "ęěě ěęęęę",
      "ĚęęęęĘ ĘĘęęęę",
      "ęěė ėęęĚ",
      "ęěė ęęęĘę",
      "ěĚ ě",
      "ěĚ ęęĕ",
      "ěĚ ęęğ",
      "ęĚĚęęęę ęęĘęęęę",
      "ęėě ĜęęĚ",
      "ęĘĘęęęę ęęĘęęęę",
      "ęęĒ ę",
      "ėĚ ęęĝ",
      "ėĚ ěęęęę",
      "ėĚ ěęęĚ",
      "ėĚ ęęē",
      "ėĘ ĚęęĚ",
      "ęĜĚ ĜęęĚ",
      "ęĘĜ ėęęĜ",
      "ęĖĚ ěęęě",
      "ęĜĘ ėęęęę",
      "ęęĚęęęĚ ęęĚęęęęę",
      "ěĘ Ğ",
      "ęĘĚęęęę ęĘęęęęęę",
      "ęėĖ ĚęęĖ",
      "ęėĖ ěęęĖ",
      "ęęęęĘĘ ęęęĘ",
      "ęĜě ėęęęę",
      "ęĜě ĖęęĚ",
      "ęĖė ěęęęę",
      "ęęęęĚĚ ėęęĚ",
      "ęěĖ ĚęęĖ",
      "ęęęęĚĘ ęęęĘ",
      "ėęęĖ ę",
      "ĖĚ ě",
      "ĖĚ ĝ",
      "ĖĚ ęęē",
      "Ĝě ęęĞ",
      "ęđ Ĕ",
      "ęĜĜ ęęęě",
      "ęĜĜ ěęęĚ",
      "ęĜĜ ęęęĜ",
      "ęĘĕ ęęęĖ",
      "ęĕĚ ėęęĚ",
      "ęĜęęęę ęęĘ",
      "ĕĚ !",
      "ĕĚ ęęĒ",
      "ěė Ĝ",
      "ěė ĝ",
      "ĝĚ ęęğ",
      "ęĕĘ ĚęęĚ",
      "ęĖĖ ěęęĘ",
      "ęĝĘ ĘęęĘ",
      "ęĝĘ Ęęęė",
      "ęĚęė ęęĚę",
      "ĕĘ ęęĒ",
      "ĜĜ ĝ",
      "ĜĜ ęęĝ",
      "ęĚĕ Ěęęė",
      "ĚĚ Ě",
      "ĘĘ ęęĞ",
      "ęėĕ ęęęė",
      "ĝě ęę",
      "ęĜĖ ĘęęĘ",
      "ěĞ ğ",
      "ěĞ ęęęę",
      "ĀĀď Āĝ",
      "ĚĘ Ĝ",
      "ĚĘ ĝ",
      "ĚĘ ęę",
      "ĜĞ ęęĚ",
      "ĀĀ$ ĀĖ",
      "ĀĀ$ ĀĞ",
      "ĝĝ ęęĜ",
      "ěĖ Ĝ",
      "ĀĀĎ Āĝ",
      "ĀĀĎ ĀĔ",
      "Ġĝ ęęĝ",
      "ĝĜ ęęĞ",
      "ęĜĕ ęęęė",
      "ęĜĕ Ęęęė",
      "ĀĀĚĀĘ Ę",
      "ęĖĝ Ěęęě",
      "ęĘęě ęęĘę",
      "ĀĀ' ĀĜ",
      "ĀĀ' Āĝ",
      "Ĕĝ ęęĖ",
      "ğĞ ęęě",
      "ĞĞ ęęě",
      "ęĘęĘ ęęęęęęęęęęę",
      "ęęęęęęęęęĘ ę",
      "\" ęęĚ",
      "# ęęęę",
      "# ĀĀĘĀ",
      "% #",
      "Ď Ĕ",
      "Đ Ď",
      "Đ ęęĖ",
      "đ ę",
      "đ ęęĞ",
      "ē ěęęĖ",
      "Ĕ ėęęė",
      "Ĕ ěĜ",
      "Ĕ ěĞ",
      "ĕ ęĜ",
      "ĕ Ĝęęė",
      "ĕ ĘĚ",
      "ĕ ęę\"",
      "ĕ ĕě",
      "Ė ęĚ",
      "Ė ěęęĚ",
      "Ė Ĝě",
      "Ė ĕęęė",
      "Ė ĝě",
      "ė ęĘęęęę",
      "ė ęęęęęęęęęęęę",
      "ė ěĚ",
      "ė ęĚęęĘ",
      "ė ĕęęĚ",
      "ė ĘęęĘę",
      "ė ĕě",
      "ė ęęęęęęęęęęęĘ",
      "Ę ď",
      "Ę ěęęĚ",
      "Ę ęğ",
      "Ę ĖĚ",
      "Ę Ėě",
      "Ę ėĜ",
      "ę ĀĀĘĀĘ",
      "Ě Ď",
      "Ě ęĜ",
      "Ě ĜęęĘ",
      "Ě ěĚ",
      "Ě ĝęęĘ",
      "Ě ěĝ",
      "Ě Ėĝ",
      "Ě ěğ",
      "ě ęĘęęĘ",
      "ě ĝęęĘ"
    ]
  }
}