{
  "version": "1.0",
  "truncation": null,
  "padding": null,
  "added_tokens": [],
  "normalizer": null,
  "pre_tokenizer": {
    "type": "ByteLevel",
    "add_prefix_space": false,
    "trim_offsets": true,
    "use_regex": true
  },
  "post_processor": {
    "type": "ByteLevel",
    "add_prefix_space": true,
    "trim_offsets": false,
    "use_regex": true
  },
  "decoder": {
    "type": "ByteLevel",
    "add_prefix_space": true,
    "trim_offsets": true,
    "use_regex": true
  },
  "model": {
    "type": "BPE",
    "dropout": null,
    "unk_token": null,
    "continuing_subword_prefix": null,
    "end_of_word_suffix": null,
    "fuse_unk": false,
    "byte_fallback": false,
    "ignore_merges": false,
    "vocab": {
      "\u0000": 0,
      "\u0001": 1,
      "\u0002": 2,
      "\u0003": 3,
      "\u0004": 4,
      "\u0005": 5,
      "\u0006": 6,
      "\u0007": 7,
      "\b": 8,
      "\t": 9,
      "\n": 10,
      "\u000b": 11,
      "\f": 12,
      "\r": 13,
      "\u000e": 14,
      "\u000f": 15,
      "\u0010": 16,
      "\u0011": 17,
      "\u0012": 18,
      "\u0013": 19,
      "\u0014": 20,
      "\u0015": 21,
      "\u0016": 22,
      "\u0017": 23,
      "\u0018": 24,
      "\u0019": 25,
      "\u001a": 26,
      "\u001b": 27,
      "\u001c": 28,
      "\u001d": 29,
      "\u001e": 30,
      "\u001f": 31,
      " ": 32,
      "!": 33,
      "\"": 34,
      "#": 35,
      "$": 36,
      "%": 37,
      "&": 38,
      "'": 39,
      "(": 40,
      ")": 41,
      "*": 42,
      "+": 43,
      ",": 44,
      "-": 45,
      ".": 46,
      "/": 47,
      "0": 48,
      "1": 49,
      "2": 50,
      "3": 51,
      "4": 52,
      "5": 53,
      "6": 54,
      "7": 55,
      "8": 56,
      "9": 57,
      ":": 58,
      ";": 59,
      "<": 60,
      "=": 61,
      ">": 62,
      "?": 63,
      "@": 64,
      "A": 65,
      "B": 66,
      "Ā": 67,
      "Ą": 68,
      "Ć": 69,
      "Ĉ": 70,
      "ĉ": 71,
      "Ċ": 72,
      "ċ": 73,
      "Č": 74,
      "č": 75,
      "Ď": 76,
      "ď": 77,
      "Đ": 78,
      "đ": 79,
      "Ē": 80,
      "ē": 81,
      "Ĕ": 82,
      "ĕ": 83,
      "Ė": 84,
      "ė": 85,
      "Ę": 86,
      "ę": 87,
      "Ě": 88,
      "ě": 89,
      "Ĝ": 90,
      "ĝ": 91,
      "Ğ": 92,
      "ğ": 93,
      "Ġ": 94,
      "$$": 95,
      "$$$$": 96,
      "$%": 97,
      "$#": 98,
      "$$%": 99,
      "$$#": 100,
      "$&": 101,
      "$\"": 102,
      "$$&": 103,
      "$$\"": 104,
      "$$$$$$$$": 105,
      "#$$$$": 106,
      "ĀĀ": 107,
      "%$$$$": 108,
      "$$$%": 109,
      "$$$#": 110,
      "$'": 111,
      "$!": 112,
      "$$!": 113,
      "$$'": 114,
      "$%$$$$": 115,
      "$#$$$$": 116,
      "$(": 117,
      "%$$#": 118,
      "#$$%": 119,
      "%$$%": 120,
      "#$$": 121,
      "#$$#": 122,
      "$%%": 123,
      "\"$$$$": 124,
      "$#%": 125,
      "$##": 126,
      "%$$": 127,
      "&$$$$": 128,
      "$%#": 129,
      "\"$$": 130,
      "$)": 131,
      "$ğ": 132,
      "&$$": 133,
      "$$$$#": 134,
      "$$$$%": 135,
      "!$$": 136,
      "$$$&": 137,
      "\"$$%": 138,
      "&$$#": 139,
      "$*": 140,
      "$$%$$$$": 141,
      "#$$&": 142,
      "\"$$#": 143,
      "%$$\"": 144,
      "$%&": 145,
      "$Ğ": 146,
      "$$#$$$$": 147,
      "$&%": 148,
      "&$$%": 149,
      "$$(": 150,
      "#$$\"": 151,
      "%$$&": 152,
      "$$$$$$$$$$$$": 153,
      "$\"#": 154,
      "$#\"": 155,
      "$%\"": 156,
      "$#&": 157,
      "$&#": 158,
      "$$$\"": 159,
      "'$$": 160,
      "$\"%": 161,
      "$$$": 162,
      "#$$$$#": 163,
      "Ġ$$": 164,
      "\"$$&": 165,
      "%%": 166,
      "$%$$#": 167,
      "($$": 168,
      "$#$$#": 169,
      "%$$$$#": 170,
      "$ĝ": 171,
      "$\"$$$$": 172,
      "!$$$$": 173,
      "$$$%$$$$": 174,
      "$%$$%": 175,
      "$#$$%": 176,
      "%#": 177,
      "$+": 178,
      "$&&": 179,
      "$&$$$$": 180,
      "&$$\"": 181,
      "'$$$$": 182,
      "$\"\"": 183,
      "$$$#$$$$": 184,
      "!$$%": 185,
      "\"$$\"": 186,
      "!$$#": 187,
      "$%%$$$$": 188,
      "'$$%": 189,
      "#$$!": 190,
      "$&\"": 191,
      "$$$$$$$$$$$$$$$$": 192,
      "$##$$$$": 193,
      "'$$#": 194,
      "%$$!": 195,
      "&$$&": 196,
      "$%'": 197,
      "$!#": 198,
      "#$$'": 199,
      "ğ$$": 200,
      "$'%": 201,
      "&%": 202,
      "$%$$$$#": 203,
      "$'#": 204,
      "$$#$$$#": 205,
      "$#$$$$#": 206,
      "$\"&": 207,
      "Ġ$$$$": 208,
      "Ā#": 209,
      "ĀĀ#": 210,
      "Ā\"": 211,
      "$$ğ": 212,
      "#$$$$%": 213,
      "$%!": 214,
      "$$%$$$%": 215,
      "$#%$$$$": 216,
      "$#!": 217,
      "%$$'": 218,
      "Ā!": 219,
      "ĀĀ%": 220,
      "$!%": 221,
      "$%#$$$$": 222,
      "%$$$$%": 223,
      "\"$$'": 224,
      "$,": 225,
      "$#'": 226,
      "$#$$$$%": 227,
      ")$$": 228,
      "!$$&": 229,
      "$Ĝ": 230,
      "Ġ\"": 231,
      "Ġ$$#": 232,
      "ĀĀ$": 233,
      "Ā%": 234,
      "$%$$$$%": 235,
      "!$$\"": 236,
      "'$$\"": 237,
      "ĀĀ\"": 238,
      "Ġ#": 239,
      "Ġ$$%": 240,
      "ĀĀ!": 241,
      "ĀĀ&": 242,
      "'$$&": 243,
      "$\"'": 244,
      "Ā'": 245,
      "$$$%$": 246,
      "$\"!": 247,
      "&$$!": 248,
      "$&'": 249,
      "$$$'": 250,
      "Ā&": 251,
      "$$)": 252,
      "$'\"": 253,
      "$$$#$": 254,
      "$$$%$$#": 255,
      "$&!": 256,
      "$$$%$$%": 257,
      "$&$$#": 258,
      "\"#": 259,
      "($$#": 260,
      "$!\"": 261,
      "#$$$\"": 262,
      "Ġ%": 263,
      "$$$#$$%": 264,
      "$'&": 265,
      "&$$'": 266,
      "$$$!": 267,
      "&#": 268,
      "$%(": 269,
      "Ā(": 270,
      "$''": 271,
      "Ġ$$\"": 272,
      "$$Ğ": 273,
      "\"$$!": 274,
      "Ġ$$&": 275,
      "$\"$$%": 276,
      "$$$#$$#": 277,
      "ĀĀ'": 278,
      "$!&": 279,
      "$ě": 280,
      "\"%": 281,
      "Ġ!": 282,
      "Ġ&": 283,
      "#$$(": 284,
      "($$$$": 285,
      "&$$$$#": 286,
      "Āğ": 287,
      "$#$$$$$$$$": 288,
      "$-": 289,
      "$%$$$$$$$$": 290,
      "ĀĀğ": 291,
      "\"$$$$#": 292,
      "($$%": 293,
      "\"$$$\"": 294,
      "Ġ'": 295,
      "$&$$%": 296,
      "Ā)": 297,
      "ĀĞ": 298,
      "$&(": 299,
      "%$$(": 300,
      "$!!": 301,
      "$(%": 302,
      "!$$'": 303,
      "$!$$$$": 304,
      "$%#$$$#": 305,
      "$\"$$#": 306,
      "$#%$$$%": 307,
      "$(#": 308,
      "&$$$&": 309,
      "$(&": 310,
      "$#$%$$$$": 311,
      "$$$$##": 312,
      "$%$#$$$$": 313,
      "$#(": 314,
      "$$*": 315,
      "$#$#$$$$": 316,
      "$$#%$$#": 317,
      "$$$$#%": 318,
      "$(\"": 319,
      "'$$'": 320,
      "$$$$%%": 321,
      "($$\"": 322,
      "Ğ$$": 323,
      "$$\"$$$$": 324,
      "&&": 325,
      "ĀĀ(": 326,
      "$$$#$$$$$$$$": 327,
      "$%%#$$%": 328,
      "\"$$$$%": 329,
      "Ġ$": 330,
      "\"$$(": 331,
      "ĀĀ)": 332,
      "$$%%$$$$": 333,
      "$$%#$$%": 334,
      "Ġğ": 335,
      "Ġ$$!": 336,
      "$%$$&": 337,
      "$!'": 338,
      "!$$!": 339,
      "$%$%$$$$": 340,
      "#$$ğ": 341,
      "Āĝ": 342,
      "'$$!": 343,
      "Ġ$$'": 344,
      "%$$ğ": 345,
      "$##$$$#": 346,
      "\"\"": 347,
      "($$&": 348,
      "Ā*": 349,
      "ĀĀĝ": 350,
      "$'!": 351,
      "$#$%$$%": 352,
      "$%%$$$%": 353,
      "$$$$%#": 354,
      "Ġ(": 355,
      "$#$$$$$$#": 356,
      "Ġ$&": 357,
      "$%$$$$$$%": 358,
      "#$$)": 359,
      "$'$$$$": 360,
      "&\"": 361,
      "$$%%$$%": 362,
      "ĀĀĞ": 363,
      "#$$$$$$$$": 364,
      "ğ$$%": 365,
      "$#$%$$#": 366,
      "%$$$&": 367,
      "*$$": 368,
      "$%$#$$#": 369,
      "$$##$$$$": 370,
      "$#$$&": 371,
      "$'(": 372,
      "$##%$$#": 373,
      "$.": 374,
      "$#$$\"": 375,
      "$\"(": 376,
      "$('": 377,
      "$$%#$$$$": 378,
      "$#%#$$%": 379,
      "$##%$$$$": 380,
      "ğ$$#": 381,
      "&$$$$%": 382,
      "ĝ$$": 383,
      "$#\"$$$$": 384,
      "$$$$$$%": 385,
      "$%ğ": 386,
      "$%)": 387,
      "%$$$$$$#": 388,
      "$$$%$$$$$$$$": 389,
      "ĀĀ#Ā": 390,
      "$$%$": 391,
      "%$$%$": 392,
      "\"&": 393,
      "$&)": 394,
      "$%##$$#": 395,
      "$$##$$#": 396,
      "$\"$$$$%": 397,
      "$$&$$$$": 398,
      "$ğ#": 399,
      "ğ$$&": 400,
      "$#$#$$%": 401,
      "$&%$$$$": 402,
      "$\"ğ": 403,
      "$Ě": 404,
      "Ā+": 405,
      "$%$%$$#": 406,
      "$###$$#": 407,
      "!#": 408,
      "$#ğ": 409,
      "$$%$$$$$$$$": 410,
      "%$$#$": 411,
      "%$$)": 412,
      "%$$$$$$$$": 413,
      "&'": 414,
      "$$$$$$#": 415,
      "$%$$\"": 416,
      "!%": 417,
      "$%$#$$%": 418,
      "$!(": 419,
      "$#$$$$$$": 420,
      "#$$%$": 421,
      "#$$$$##": 422,
      "ĀĀ+": 423,
      "&$$(": 424,
      "Ġ)": 425,
      "'%": 426,
      "'$$(": 427,
      "ĠĞ": 428,
      "$$$$$$$$#": 429,
      "$(!": 430,
      "$((": 431,
      "$#%%$$$$": 432,
      "$$%$$#": 433,
      "$&$$$$%": 434,
      "ĀĀĜ": 435,
      "$%$$$$$$#": 436,
      "\"$$)": 437,
      "$)&": 438,
      "$&$$$$#": 439,
      "$#%%$$%": 440,
      "$)\"": 441,
      "!$$$\"": 442,
      "ĀĀ*": 443,
      "$!$$%": 444,
      "%$$$$##": 445,
      "'#": 446,
      "+$$": 447,
      "#$$$$$$#": 448,
      "ĀĀ,": 449,
      "!\"": 450,
      "Ġ$$(": 451,
      "#$$$$&": 452,
      "$#$$$$$$%": 453,
      "!$$(": 454,
      "ĀĀ%Ā": 455,
      "%$$$%": 456,
      ")$$%": 457,
      "$%$$$%": 458,
      "$#$$$$$$$$$$$$": 459,
      "$'$$#": 460,
      "$)#": 461,
      "ğ$$\"": 462,
      ")$$#": 463,
      "$%##$$$$": 464,
      "Ā,": 465,
      "$#)": 466,
      "$\"#$$$$": 467,
      "$$\"$$$#": 468,
      "%$$$$%%": 469,
      "$%#%$$#": 470,
      "$)%": 471,
      "$#$#$$#": 472,
      "$ğ\"": 473,
      "($$'": 474,
      "Ġ%$$": 475,
      "$$ĝ": 476,
      "$!$$#": 477,
      "#$$$&": 478,
      "\"$$ğ": 479,
      "$ğ%": 480,
      "$$#$$$$$$#": 481,
      "'&": 482,
      "Ġ$'": 483,
      "$')": 484,
      "$###$$$$": 485,
      "Ġ*": 486,
      "$\"$$$$#": 487,
      "%$$$$$": 488,
      "&$$$'": 489,
      "($$!": 490,
      "ğ$$$$": 491,
      "Ġ$%": 492,
      "#$$$$$$%": 493,
      "$%&$$$%": 494,
      "\"!": 495,
      ")$$$$": 496,
      "ğ$$'": 497,
      "Ġ$$$\"": 498,
      "$$&$$$%": 499,
      "#$$$$$": 500,
      "ĀĀ.": 501,
      "ĀĀ&Ā": 502,
      "Ġ#$$": 503,
      "$$$(": 504,
      "$%$%$$%": 505,
      "$$%$$$&": 506,
      "$\"$$&": 507,
      "%$$$$$$%": 508,
      "$$#$$$$$": 509,
      "#$$$$#%": 510,
      "$ę": 511,
      "Ğ$$#": 512,
      "ĠĀ": 513,
      "$%$$$$$$": 514,
      "&$$ğ": 515,
      "ĀĀ\"Ā": 516,
      "Ġ$$$#": 517,
      "$\")": 518,
      "$%%#$$$$": 519,
      "%$$*": 520,
      "&$$)": 521,
      "ĀĀ$Ā": 522,
      "ĀĀ!Ā": 523,
      "$%&$$$$": 524,
      "$#Ğ": 525,
      "$\"$$\"": 526,
      "$%%%$$%": 527,
      "$%Ğ": 528,
      "$##$$#": 529,
      "%$$$$&": 530,
      "$)'": 531,
      "$/": 532,
      "$ĀĀ": 533,
      "(%": 534,
      ")$$&": 535,
      ")$$\"": 536,
      "$$+": 537,
      "$#$$$#": 538,
      "$%%%$$$$": 539,
      "\"$$$!": 540,
      "$ğ!": 541,
      "$#\"$$$#": 542,
      "$&Ğ": 543,
      "$\"$%$$$$": 544,
      "$!ğ": 545,
      "$%%$$$#": 546,
      "$$%$$$$$$#": 547,
      "$$$$$$$$$$$$$$$$$$$$$$$$": 548,
      "Ġ#$$#": 549,
      "$&ğ": 550,
      "$&$$&": 551,
      "ĀĀ/": 552,
      "#$$*": 553,
      "#$$$!": 554,
      "$)!": 555,
      "!$$)": 556,
      "!$$$!": 557,
      "$#&$$$%": 558,
      "'$$ğ": 559,
      "&$$$%": 560,
      "Ġ#$$\"": 561,
      "$$,": 562,
      "$&#$$$$": 563,
      "$&$#$$$$": 564,
      "!!": 565,
      "Ġ%$$#": 566,
      "$%\"$$$$": 567,
      "$#&$$$$": 568,
      "$$%$$%": 569,
      "$$#%$$$$": 570,
      "$$#$$$%": 571,
      "ĀĀ-": 572,
      "$&%$$$%": 573,
      "Ġ\"$$": 574,
      "$%*": 575,
      "$$\"%$$#": 576,
      "\"$$#$": 577,
      "\"'": 578,
      "\"(": 579,
      "&)": 580,
      "ğ$$!": 581,
      "Ġ%$$\"": 582,
      "$\"Ğ": 583,
      "$$&%$$%": 584,
      "$$\"#$$#": 585,
      "ĀĀě": 586,
      "$'*": 587,
      "$##$$$%": 588,
      "$%&#$$%": 589,
      "$%\"$$$#": 590,
      "'$$$'": 591,
      "%$$$$#%": 592,
      "!'": 593,
      "&(": 594,
      "Ğ$$%": 595,
      "Ġĝ": 596,
      "$%$$$$$$$$$$$$": 597,
      "$%$\"$$$$": 598,
      "#$$$$%%": 599,
      "%$$$$$$": 600,
      "$$%$$$$$": 601,
      "ĀĀğĀ": 602,
      "$#$$!": 603,
      "$$#$$$\"": 604,
      "$&$$\"": 605,
      "$&$#$$#": 606,
      "$\"*": 607,
      "$$$$$$$$%": 608,
      "ĀĀĚ": 609,
      "$'ğ": 610,
      "$%$$$$&": 611,
      "$%%$$$&": 612,
      "$*#": 613,
      "'$$Ğ": 614,
      "!$$$$#": 615,
      "$%%$$%": 616,
      "$$&#$$%": 617,
      "#$$$$$$": 618,
      "$!$$&": 619,
      "#$$Ğ": 620,
      "$$$$%&": 621,
      "$*&": 622,
      "($$)": 623,
      "$$$#$$$$$$#": 624,
      "*$$#": 625,
      "$$Ĝ": 626,
      "$#*": 627,
      "$#%$$#": 628,
      "#$$$$%#": 629,
      "$'$$%": 630,
      "$!)": 631,
      "$()": 632,
      "$%%\"$$%": 633,
      "$$$$%\"": 634,
      "Ġ$$ğ": 635,
      "!&": 636,
      "##": 637,
      "'\"": 638,
      "Ğ$$$$": 639,
      "Ġ$\"": 640,
      "Ġ$)": 641,
      "Ġ#$$!": 642,
      "$%$": 643,
      "$$%%$$#": 644,
      "$&*": 645,
      "$\"$%$$#": 646,
      "%$$Ğ": 647,
      "$ğ&": 648,
      "$*%": 649,
      "$$$%$$$$$$#": 650,
      "Ğ$$!": 651,
      "Ġ$(": 652,
      "$%#$$$\"": 653,
      "$!Ğ": 654,
      "#$$+": 655,
      "$%%#$$#": 656,
      "ĀĀ(Ā": 657,
      "#$$$#": 658,
      "'(": 659,
      "Ġ&$$": 660,
      "$$$)": 661,
      "$$%$$$#": 662,
      "ĀĀę": 663,
      "&$$$$\"": 664,
      "\"$$*": 665,
      "$)(": 666,
      "$ğ'": 667,
      "$$$&$$$$": 668,
      "\"$$%$": 669,
      "$\"#%$$#": 670,
      "$%\"%$$#": 671,
      "$&##$$#": 672,
      "Ġ$$$!": 673,
      "ĀĀ'Ā": 674,
      "#%$$#": 675,
      "Ġ$#": 676,
      "$\"$%$$%": 677,
      "$$$%$$$$#": 678,
      "$#$$$$&": 679,
      "!$$*": 680,
      "$$$&$$#": 681,
      "$$%$$$$$$%": 682,
      "$$$\"$$$$": 683,
      "'*": 684,
      "$%#$$%": 685,
      "$#$#$$$$#": 686,
      "$($$$$": 687,
      "$&%#$$%": 688,
      "ĀĀ)Ā": 689,
      "ğ#": 690,
      "ğ%": 691,
      "$%$$'": 692,
      "$%$#$$$$#": 693,
      "$#$": 694,
      "$$$$$$$$$$$%": 695,
      "$%%%$$#": 696,
      "$$#$$$$$$%": 697,
      "$$$\"$$%": 698,
      "$##$$$$$": 699,
      "\"%$$$$": 700,
      "\"$$$#": 701,
      "''": 702,
      "(#": 703,
      "(&": 704,
      "*$$$$": 705,
      "Ġ&$$#": 706,
      "Ġ\"$$\"": 707,
      "$#$&$$$$": 708,
      "$$$$$$$$$#": 709,
      "$$$$$$$$$$#": 710,
      "$###$$%": 711,
      "%$$+": 712,
      "%$$ĝ": 713,
      "\"$$Ğ": 714,
      "\"$$$&": 715,
      "$Ğ#": 716,
      "$#\"#$$#": 717,
      "\"%$$#": 718,
      "$Ę": 719,
      "((": 720,
      "*ĀĀ": 721,
      "Ĝ$$": 722,
      "ğ!": 723,
      "Ġ%$$!": 724,
      "$%+": 725,
      "$%$\"$$#": 726,
      "$$%&$$$$": 727,
      "$&$#$$%": 728,
      "$'Ğ": 729,
      "$!ĝ": 730,
      "\"$$$$\"": 731,
      "\"$$$$&": 732,
      "$#\"%$$#": 733,
      "$\"%%$$%": 734,
      "&%$$'": 735,
      "'$$$$#": 736,
      "*$$%": 737,
      "Ğ%": 738,
      "Ğ$$&": 739,
      "Ġ&$$\"": 740,
      "$#+": 741,
      "$$#&$$#": 742,
      "#$$$$\"": 743,
      "$$$#$$$$#": 744,
      "\"$$$$%#": 745,
      "$#%$$$#": 746,
      "%$$$\"": 747,
      "$%#%$$$$": 748,
      "$%##$$\"": 749,
      "$ğ$$$$": 750,
      "$Ğ%": 751,
      "$%\"#$$#": 752,
      "$#&#$$%": 753,
      "Ġ$$)": 754,
      "Ġ,": 755,
      "Ġ$$$": 756,
      "$%$&$$#": 757,
      "$#$&$$#": 758,
      "$$%#$$#": 759,
      "$&$%$$$$": 760,
      "$$&$$$&": 761,
      "$$\"$$$\"": 762,
      "$'$$$$#": 763,
      "$Ğ!": 764,
      "$&%$$$#": 765,
      "&$$%$": 766,
      "$\"#&$$#": 767,
      "$#&%$$%": 768,
      "$&#$$$#": 769,
      "$%%$$$$$": 770,
      "\"#$$#": 771,
      "##$$$$": 772,
      "')": 773,
      "ĝ$$%": 774,
      "$&$%$$#": 775,
      "$\"%$$$$": 776,
      "$$$$$$$$$$$$#": 777,
      "$$$%$$&": 778,
      "$$$#$$\"": 779,
      "$!*": 780,
      "$#$$$$\"": 781,
      "$#%#$$&": 782,
      "$%#$$$%": 783,
      "!$$ğ": 784,
      "$%&%$$%": 785,
      "$&%%$$%": 786,
      "%$$&$": 787,
      "'$$*": 788,
      "$&\"$$$#": 789,
      ")$$$'": 790,
      "#&": 791,
      ",ĀĀ": 792,
      "Ġ+": 793,
      "Ġ$$$$#": 794,
      "$%$$!": 795,
      "$#$%$$$$#": 796,
      "$$##$$%": 797,
      "$$$#$$&": 798,
      "$!$$$$#": 799,
      "$%$$$$\"": 800,
      "$(ğ": 801,
      "$##&$$#": 802,
      "&$$$$&": 803,
      "&$$Ğ": 804,
      "'$$)": 805,
      "$\"%#$$%": 806,
      "%#$$%": 807,
      "&#$$$$": 808,
      "()": 809,
      ")%": 810,
      "*$$\"": 811,
      "Ġ$*": 812,
      "$%ĝ": 813,
      "$%&$$$&": 814,
      "$##$$$\"": 815,
      "$$$$$$$$$$$#": 816,
      "%$$$$%#": 817,
      "$%%#$$&": 818,
      "%$$$'": 819,
      "$%#\"$$$$": 820,
      "&$$ĝ": 821,
      "$$$%$$$$$$%": 822,
      "ĀĀĝĀ": 823,
      "ĀĀĞĀ": 824,
      "\"ĀĀ": 825,
      "ĝ$$&": 826,
      "Ġ$!": 827,
      "Ġ'$$#": 828,
      "$%$#": 829,
      "$%\"$$$\"": 830,
      "$$%\"$$%": 831,
      "$&&$$$$": 832,
      "$\"$#$$%": 833,
      "$$$$$$$$$$$": 834,
      "#$$ĝ": 835,
      "$#%#$$$$": 836,
      "$#%$$$&": 837,
      "$%#\"$$#": 838,
      "$ğ)": 839,
      "&$$*": 840,
      "$$$$$$$$$$$$$": 841,
      "$&#\"$$#": 842,
      "$\"%$$$%": 843,
      "$$$+": 844,
      "$$#$$$#$": 845,
      "!$$$$%": 846,
      "'!": 847,
      "'$$$$%": 848,
      "('": 849,
      ")$$!": 850,
      "Ě$$": 851,
      "ĠĀĀ": 852,
      "$#$&": 853,
      "$#\"$$$\"": 854,
      "$&ĝ": 855,
      "$$$$$$$$$$$$%": 856,
      "$%$$$$$": 857,
      "$#$$$$$": 858,
      "#$$#$": 859,
      "$##&$$$$": 860,
      "\"$$+": 861,
      "$ğ(": 862,
      "$ğĞ": 863,
      "#$$&$": 864,
      "$Ğ\"": 865,
      "$\"#$$$%": 866,
      "$$$\"$$#": 867,
      "$$%$$$%$": 868,
      "ĀĀ%Ā!": 869,
      "#%$$$$": 870,
      "&ĀĀ": 871,
      ")$$(": 872,
      "Ğ$$\"": 873,
      "ĠĜ": 874,
      "$$ě": 875,
      "$%Ĝ": 876,
      "$$#\"$$#": 877,
      "$\"ĝ": 878,
      "$!$$$$%": 879,
      "$#$$$$$$$#": 880,
      "#$$$'": 881,
      "$#%%$$#": 882,
      "%$$ě": 883,
      "$ğğ": 884,
      "$*\"": 885,
      "$*(": 886,
      "$*ğ": 887,
      "#$$\"$": 888,
      "$\"##$$#": 889,
      "$#\"&$$#": 890,
      "($$$(": 891,
      "$$$#$$$$$$%": 892,
      "&%$$$$": 893,
      "&#$$%": 894,
      "(*": 895,
      "+$$$$": 896,
      "ğ(": 897,
      "Ġě": 898,
      "$%$&$$$$": 899,
      "$#$&$$%": 900,
      "$#$%$$&": 901,
      "$$\"#$$$$": 902,
      "$'$$&": 903,
      "$%$$$$$$$%": 904,
      "$#$$$$$$%$$$$": 905,
      "#$$$": 906,
      "#$$Ĝ": 907,
      "$##%$$%": 908,
      "&$$$$%%": 909,
      "$%#&$$#": 910,
      "$)ğ": 911,
      "!$$$": 912,
      "$*!": 913,
      "$Ğ'": 914,
      "($$$'": 915,
      "ğ$$$!": 916,
      "+)": 917,
      "ĝ$$#": 918,
      "Ğ$$'": 919,
      "$#ĝ": 920,
      "$$#$": 921,
      "$&$$$%": 922,
      "$\"$$!": 923,
      "$\"\"$$$$": 924,
      "#$$$$$$#$$$$": 925,
      "$$$%$$$$%": 926,
      "$%$$$$$$&": 927,
      "$%$$$$$$$#": 928,
      "$#$$$$$$$%": 929,
      "$%##$$%": 930,
      "$)*": 931,
      "&$$+": 932,
      "&$$$\"": 933,
      "&$$$(": 934,
      "%$$\"$": 935,
      "$\"#%$$$$": 936,
      "$\"#$$$#": 937,
      "$#&&$$%": 938,
      "$$$,": 939,
      "($$+": 940,
      "$%'$$$%": 941,
      "$#!%$$#": 942,
      "!(": 943,
      "%%$$$$": 944,
      "%%$$%": 945,
      "&%$$%": 946,
      ")&": 947,
      "+$$&": 948,
      "Ĝ#": 949,
      "ĝ$$$$": 950,
      "Ġ$+": 951,
      "$%$$$$$$$$$$$$$$$$": 952,
      "$%$#$$\"": 953,
      "$#$#": 954,
      "$#$%$$$$%": 955,
      "$&$": 956,
      "$&\"$$$$": 957,
      "$&#$$$\"": 958,
      "$\"$$": 959,
      "$\"$#$$$$": 960,
      "$$&%$$&": 961,
      "$$\"$": 962,
      "$$$$$$$$$$$$$$$$$$$$": 963,
      "#$$$$'": 964,
      "$!$%$$%": 965,
      "$%$$$$$$#$$$$": 966,
      "$#$$$$$$&": 967,
      "$(+": 968,
      "$#%$$$%$": 969,
      "&$$$$%#": 970,
      "$%#%$$%": 971,
      "\"$$$": 972,
      "$))": 973,
      "&$$,": 974,
      "$%&#$$&": 975,
      "$\"$$$$$$%": 976,
      "'$$%$": 977,
      "ĀĀ#Ā!": 978,
      ")$$$(": 979,
      "\")": 980,
      "+ĀĀ": 981,
      "Ĝ%": 982,
      "ğğ": 983,
      "Ġ#$$$$": 984,
      "Ġ$%%": 985,
      "$#,": 986,
      "$$%#$$&": 987,
      "$$#$$#": 988,
      "$$#\"$$$$": 989,
      "#$$$$$%": 990,
      "$'ĝ": 991,
      "$(Ğ": 992,
      "$#%&$$%": 993,
      "\"$$,": 994,
      "\"$$ĝ": 995,
      "!$$+": 996,
      "!$$Ğ": 997,
      "$$%$$$$$$%$$$$": 998,
      "$Ğ&": 999,
      "$&%%$$$$": 1000,
      "$&#%$$#": 1001,
      "$&&$$$%": 1002,
      "ğ$$*": 1003,
      "Ā%!": 1004,
      "ĀĀ&Ā!": 1005,
      "ĀĀĜĀ": 1006,
      "ĀĀ*Ā": 1007,
      "!ĀĀ": 1008,
      "\"*": 1009,
      "##$$#": 1010,
      "($$(": 1011,
      "))": 1012,
      "+$$'": 1013,
      "Ĝ$$%": 1014,
      "Ğ#": 1015,
      "Ġ$%#": 1016,
      "Ġ!$$#": 1017,
      "Ġ&$$!": 1018,
      "$%%$$#": 1019,
      "$%$#$$$$%": 1020,
      "$#!$$$$": 1021,
      "$$%\"$$$$": 1022,
      "$$##$$\"": 1023,
      "$&$%$$%": 1024,
      "$\"+": 1025,
      "$$$$$$$$$$%": 1026,
      "%$$$$$#": 1027,
      "$'+": 1028,
      "$(*": 1029,
      "#$$,": 1030,
      "$#%%$$&": 1031,
      "%$$,": 1032,
      "\"$$Ĝ": 1033,
      "$%&\"$$&": 1034,
      "$&%#$$$$": 1035,
      "$&%%$$#": 1036,
      "$\"##$$$$": 1037,
      "$#&#$$&": 1038,
      "$#&%$$&": 1039,
      "$\"%$$$#": 1040,
      "Ġ$$*": 1041,
      "$\"$$$$&": 1042,
      "&$$\"$": 1043,
      "$&\"%$$#": 1044,
      "$%'#$$%": 1045,
      "ğ$$)": 1046,
      "ĀĀ#Ā#": 1047,
      "ĀĀ%Ā\"": 1048,
      "ĀĀ\"Ā#": 1049,
      "ĀĀ.Ā": 1050,
      "ĀĀ/Ā": 1051,
      "\"+": 1052,
      "#%": 1053,
      "#$$$$$$$$$$$$": 1054,
      "$ė": 1055,
      "*'": 1056,
      "ğ$$(": 1057,
      "Ġ%$$$$": 1058,
      "Ġ\"$$#": 1059,
      "$$$$$$\"": 1060,
      "$%$%$$$$#": 1061,
      "$%$\"$$%": 1062,
      "$#$$'": 1063,
      "$#&$$$&": 1064,
      "$$#%$$%": 1065,
      "$$&#$$&": 1066,
      "$$$$$$$$$%": 1067,
      "ĀĀĘ": 1068,
      "%$$$$\"": 1069,
      "$%$$$$%%": 1070,
      "$($$#": 1071,
      "$%%&$$$$": 1072,
      "$#%&$$$$": 1073,
      "$##%$$\"": 1074,
      "$)+": 1075,
      "&$$#$": 1076,
      "$*'": 1077,
      "$**": 1078,
      "$#\"#$$$$": 1079,
      "'$$+": 1080,
      "Ġ$$ĝ": 1081,
      "($$ğ": 1082,
      "%#$$'": 1083,
      "$&&#$$%": 1084,
      "$&$$$$\"": 1085,
      "'$$$$&": 1086,
      "$\"\"#$$#": 1087,
      "ğ$$Ğ": 1088,
      "ğ$$ğ": 1089,
      "ĀĀ\"Ā\"": 1090,
      "ĀĀ,Ā": 1091,
      "ĀĀěĀ": 1092,
      "!)": 1093,
      "\"%$$\"": 1094,
      ")$$'": 1095,
      "*$$&": 1096,
      ",$$": 1097,
      "ę$$": 1098,
      "ě$$": 1099,
      "Ĝğ": 1100,
      "ĝ#": 1101,
      "Ġ$&#": 1102,
      "Ġ!$$\"": 1103,
      "$%$$": 1104,
      "$%$$(": 1105,
      "$#$\"$$%": 1106,
      "$#$'$$#": 1107,
      "$$%%$$&": 1108,
      "$$#%$$\"": 1109,
      "$&+": 1110,
      "$&\"$$$\"": 1111,
      "$\"$#$$#": 1112,
      "$\"$&$$#": 1113,
      "$\"\"$$$\"": 1114,
      "$\"&$$$&": 1115,
      "$$$$$$$$#$$$$": 1116,
      "$$$%$$\"": 1117,
      "$$$#$$$$%": 1118,
      "$'Ĝ": 1119,
      "$'$$\"": 1120,
      "$$!%$$#": 1121,
      "$($$%": 1122,
      "%$$Ĝ": 1123,
      "!$$ĝ": 1124,
      "$$$&$": 1125,
      "$%\"&$$#": 1126,
      "$&#$$$%": 1127,
      "'$$$(": 1128,
      "Ġ$$+": 1129,
      "($$ĝ": 1130,
      "($$Ğ": 1131,
      "$ĝ!": 1132,
      "$ĝ\"": 1133,
      "$ĝ'": 1134,
      "$+!": 1135,
      "$+%": 1136,
      "$+&": 1137,
      "$\"\"%$$#": 1138,
      "!$$#$": 1139,
      "$$$$$$$$$$$$$$$$$$": 1140,
      "#$$'$": 1141,
      "$'##$$#": 1142,
      "$#%$$$$$": 1143,
      "$Ĝ!": 1144,
      "Ġ\"$$!": 1145,
      "ĀĀ$Ā#": 1146,
      "ĀĀ!Ā\"": 1147,
      "Ā&&": 1148,
      "\"$$$$##": 1149,
      "%#$$$$": 1150,
      ")#": 1151,
      ")'": 1152,
      "+$$%": 1153,
      "-$": 1154,
      "ğ\"": 1155,
      "ğ*": 1156,
      "Ġ.": 1157,
      "Ġ$$$$%": 1158,
      "$%$%$$$$%": 1159,
      "$#$\"": 1160,
      "$&$\"$$%": 1161,
      "$$&$$#": 1162,
      "$$\"$$%": 1163,
      "$$\"%$$$$": 1164,
      "%$$$$$$#$$$$": 1165,
      "%$$$$&%": 1166,
      "$$$#$$$$%#": 1167,
      "$#$$$$$$#$$$$": 1168,
      "$#$$$$$$$%$$$$": 1169,
      "%$$%$\"": 1170,
      "$%%%$$&": 1171,
      "$%%$$$%$": 1172,
      "\"$$$$%%": 1173,
      "$#%#$$#": 1174,
      "$##$$$#$": 1175,
      "$%#%$$\"": 1176,
      "$*)": 1177,
      "$Ğğ": 1178,
      "$%\"#$$\"": 1179,
      "$#&%$$$$": 1180,
      "Ġ$$Ğ": 1181,
      "$ĝ#": 1182,
      "$+#": 1183,
      "$%$$$$#$": 1184,
      "$\"&%$$%": 1185,
      "ĀĀ#Ā\"": 1186,
      "ĀĀ%Ā#": 1187,
      "ĀĀ$ĀĞ": 1188,
      "ĀĀ!Ā#": 1189,
      "Ġ!$$!": 1190,
      "$#$$$$$$$$$$$": 1191,
      "!ĝ": 1192,
      ")\"": 1193,
      "+$$#": 1194,
      "Ğ)": 1195,
      "Ġ!$$": 1196,
      "$%$&$$%": 1197,
      "$%$#$$&": 1198,
      "$%$%$$\"": 1199,
      "$#$#$$$$%": 1200,
      "$$%&$$%": 1201,
      "$$\"$$#": 1202,
      "$$\"%$$\"": 1203,
      "ĀĀė": 1204,
      "$$$%$\"": 1205,
      "$$$#$#%": 1206,
      "$'%$$$$": 1207,
      "#$$ě": 1208,
      "$#%\"$$%": 1209,
      "$###$$\"": 1210,
      "$ğ*": 1211,
      "&$$$)": 1212,
      "$%&#$$$$": 1213,
      "$%&\"$$%": 1214,
      "$$$$$$$$$$$$$%$$$$": 1215,
      "$$$$$$$$$$$$$$$": 1216,
      "$\"#%$$%": 1217,
      "$#\"%$$$$": 1218,
      "$%\"%$$\"": 1219,
      "'$$ĝ": 1220,
      "Ġ$$,": 1221,
      "\"$$&$": 1222,
      "$ĝĝ": 1223,
      "$&\"%$$\"": 1224,
      "ĀĀ#Ā'": 1225,
      "$#$$$$%$": 1226,
      "$Ĝ#": 1227,
      "ĀĀ$Ā'": 1228,
      "ĀĀ!Ā!": 1229,
      "Ġ'$$!": 1230,
      "#$$$$$$$$$$$": 1231,
      "\"ğ": 1232,
      "&,": 1233,
      "'#$$%": 1234,
      "'%$$%": 1235,
      "(!": 1236,
      "(ĀĀ": 1237,
      "($$$$#": 1238,
      "+%": 1239,
      "-$$": 1240,
      "ĝ\"": 1241,
      "ĝ&": 1242,
      "Ġ-": 1243,
      "$$$ğ": 1244,
      "$#$'": 1245,
      "$#$%$$$$$$$$": 1246,
      "$$%$$$\"": 1247,
      "$$%&$$&": 1248,
      "$&$\"$$#": 1249,
      "$\",": 1250,
      "$\"ě": 1251,
      "$\"#$$#": 1252,
      "$\"$&$$%": 1253,
      "$$$$$$$$%%": 1254,
      "#$$$$$$$%": 1255,
      "#$$$$$#$$$$": 1256,
      "$'$#$$$$": 1257,
      "$'#$$$\"": 1258,
      "$$'$": 1259,
      "$$'%$$&": 1260,
      "$%$$$$#$$%": 1261,
      "$($$\"": 1262,
      "\"$$$$!": 1263,
      "\"$$$$&#": 1264,
      "$##\"$$%": 1265,
      "$$$&$$%": 1266,
      "$$%$$$$$$#$$$$": 1267,
      "$%&%$$&": 1268,
      "$Ğ(": 1269,
      "$ĞĞ": 1270,
      "$&%\"$$%": 1271,
      "$%\"&$$\"": 1272,
      "$%\"!$$#": 1273,
      "$\"%%$$&": 1274,
      "#$$$$#$%$$$$": 1275,
      "Ġ$$Ĝ": 1276,
      "$ĝ&": 1277,
      "$\"$$$$$$#": 1278,
      "$&&#$$$$": 1279,
      "$&$$$$&": 1280,
      "$&$$$$$$%": 1281,
      "$&\"#$$#": 1282,
      "$!#%$$#": 1283,
      "$'%$$$%": 1284,
      "#$$$$%%$$$$": 1285,
      "$,\"": 1286,
      "$,%": 1287,
      ")$$Ğ": 1288,
      "$$$'$$$$": 1289,
      "&$$$$#%": 1290,
      "Āğ\"": 1291,
      "\"\"$$$$": 1292,
      "%$$$$$$$$$$$$": 1293,
      "+,": 1294,
      ",$$#": 1295,
      ".$$": 1296,
      "Ě$$$$": 1297,
      "ě$$$$": 1298,
      "Ğğ": 1299,
      "Ğ$$(": 1300,
      "Ġ%$$%": 1301,
      "$%$!$$$$": 1302,
      "$%$&$$&": 1303,
      "$$#$$%": 1304,
      "$&$\"$$$$": 1305,
      "$&%$$$&": 1306,
      "$\"$$'": 1307,
      "$\"%$$#": 1308,
      "$\"%$$$&": 1309,
      "$$&\"$$%": 1310,
      "$$&&$$%": 1311,
      "$$\"#$$\"": 1312,
      "#$$$$&%": 1313,
      "ĀĀĖ": 1314,
      "%$$$$$$%$$$$": 1315,
      "$$$%$#": 1316,
      "$$$%$$$$$$$$$$$$": 1317,
      "$'$": 1318,
      "$'#$$$$": 1319,
      "$!$$\"": 1320,
      "$$!$$$\"": 1321,
      "$#$$$$$$\"": 1322,
      "$#$$$$%#": 1323,
      "#$$$ğ": 1324,
      "$%%&$$%": 1325,
      "\"$$$$\"#": 1326,
      "$#%$$$'": 1327,
      "$%#$$$#$": 1328,
      "$$$$%%$$$$": 1329,
      "$\"##$$%": 1330,
      "$&##$$\"": 1331,
      "$\"%%$$$$": 1332,
      "$\"%%$$#": 1333,
      "$\"%\"$$%": 1334,
      "$\"%&$$%": 1335,
      "$$$ĝ": 1336,
      "($$*": 1337,
      "($$$)": 1338,
      "$#$$#$": 1339,
      "$+'": 1340,
      "$+)": 1341,
      "$&&#$$&": 1342,
      "$\"\"&$$#": 1343,
      "!$$%$": 1344,
      "#$$!$": 1345,
      "$&\"\"$$#": 1346,
      "Ā#(": 1347,
      "ĀĀ#Ā&": 1348,
      "#$$$$%$%$$$$": 1349,
      "Ā!#": 1350,
      "$%#$$$$$": 1351,
      "\"$$'$": 1352,
      "Ā%\"": 1353,
      "Ā%&": 1354,
      "Ā%)": 1355,
      "$\"!%$$#": 1356,
      "$$$%$$#$": 1357,
      "\"$$$$#%": 1358,
      "ĀĀ+Ā": 1359,
      "%*": 1360,
      ")ĀĀ": 1361,
      ")$$ğ": 1362,
      "*#": 1363,
      "*$$'": 1364,
      "+#": 1365,
      "+$$\"": 1366,
      "Ĝ$$$$": 1367,
      "ĝ$$\"": 1368,
      "ĝ$$!": 1369,
      "ğ&": 1370,
      "Ġ/": 1371,
      "Ġ$%&": 1372,
      "Ġ'$$": 1373,
      "Ġ$'%": 1374,
      "Ġ$'#": 1375,
      "Ġ$#!": 1376,
      "$%ě": 1377,
      "$#&$$": 1378,
      "$#$$$$$$$$$$$$$$$$": 1379,
      "$#$'$$$$": 1380,
      "$$#&$$$$": 1381,
      "$&#$$%": 1382,
      "$&%$$%": 1383,
      "$\"\"$$": 1384,
      "$$\"&$$#": 1385,
      "$$\"\"$$#": 1386,
      "$$$$$$$$%$$$$": 1387,
      "#$$$$!": 1388,
      "ĀĀĔ": 1389,
      "%$$$$'": 1390,
      "$$$#$\"": 1391,
      "$$$#$$$$##": 1392,
      "$'$#$$#": 1393,
      "$$!#$$#": 1394,
      "$$'$$$$": 1395,
      "$%$$$$'": 1396,
      "$#$$$$%$$%": 1397,
      "$($": 1398,
      "#$$#$\"": 1399,
      "$%%\"$$#": 1400,
      "$%%!$$%": 1401,
      "$#%&$$#": 1402,
      "$#%'$$%": 1403,
      "$##\"$$#": 1404,
      "\"$$-": 1405,
      "$*$": 1406,
      "$&%#$$#": 1407,
      "$%\"\"$$#": 1408,
      "$$$.": 1409,
      "#$$$$##$$$$": 1410,
      "$ĝğ": 1411,
      "$\"$$$$\"": 1412,
      "$\"$$$$'": 1413,
      "$+\"": 1414,
      "$&$$$$$$#": 1415,
      "$!#$$$%": 1416,
      "ğ$$Ĝ": 1417,
      "$\"&&$$%": 1418,
      "Ġ$$$$&": 1419,
      "$%!$$$#": 1420,
      "%$$$$%\"": 1421,
      "ĀĀ$Ā!": 1422,
      "ĀĀ$Ā(": 1423,
      "Ā%'": 1424,
      "Ā%*": 1425,
      "ĀĀ&Ā#": 1426,
      "Ā'&": 1427,
      "$'&$$$%": 1428,
      "$#$$$$$$$$$$$%": 1429,
      "$%$$$$$$$$$$$": 1430,
      "ĀĀĚĀ": 1431,
      "ĀĀęĀ": 1432,
      "!,": 1433,
      "!%$$#": 1434,
      "!#$$#": 1435,
      "#'": 1436,
      "%\"": 1437,
      "(,": 1438,
      "*,": 1439,
      "*$$!": 1440,
      "ě%": 1441,
      "Ĝ&": 1442,
      "Ğ$$ğ": 1443,
      "ğ'": 1444,
      "ğĞ": 1445,
      "Ġ$#\"": 1446,
      "Ġ$%\"": 1447,
      "Ġ$,": 1448,
      "Ġ'$$\"": 1449,
      "Ġ$$$$#%": 1450,
      "$%$&": 1451,
      "$%\"$$": 1452,
      "$%\"$$%": 1453,
      "$%#$$$&": 1454,
      "$%$\"$$&": 1455,
      "$#$(": 1456,
      "$##$$%": 1457,
      "$#$$(": 1458,
      "$#'$$$$": 1459,
      "$##$$$&": 1460,
      "$#$&$$&": 1461,
      "$$%$$$'": 1462,
      "$$#!$$$$": 1463,
      "$&$&$$#": 1464,
      "$&$#$$&": 1465,
      "$\"$$$#": 1466,
      "$$&$": 1467,
      "$$$#$&": 1468,
      "$$$#$%%": 1469,
      "$'$$!": 1470,
      "$'$\"$$%": 1471,
      "$!$&": 1472,
      "$!$$'": 1473,
      "$$!$": 1474,
      "$$'$$$%": 1475,
      "$%$$$$%$$%": 1476,
      "$%%\"$$$$": 1477,
      "$%%&$$#": 1478,
      "$#%%$$\"": 1479,
      "$##\"$$$$": 1480,
      "$##&$$%": 1481,
      "%$$$": 1482,
      "&$$$$'": 1483,
      "$ğĝ": 1484,
      "!$$-": 1485,
      "$%&$$%": 1486,
      "$%&$$$#": 1487,
      "$Ğ$$$$": 1488,
      "$&%#$$&": 1489,
      "$\"#%$$\"": 1490,
      "$#\"%$$\"": 1491,
      "($$ě": 1492,
      "%$$$$##$$$$": 1493,
      "$ĝ(": 1494,
      "!$$$$&": 1495,
      "$+ğ": 1496,
      "$&&%$$%": 1497,
      "\"$$\"$": 1498,
      "&$$&$": 1499,
      "&%#$$$$": 1500,
      "ĀĀ#Ā)": 1501,
      "Ā\"&": 1502,
      "Ā\")": 1503,
      "#$$$$%&": 1504,
      "%$$'$": 1505,
      "ĀĀ%Ā&": 1506,
      "$#'%$$%": 1507,
      "$#'$$$&": 1508,
      "$Ĝ\"": 1509,
      "ĀĀ\"Ā(": 1510,
      "$$$!$$%": 1511,
      "#$$($": 1512,
      "$%$$$$$$$$$$$$$$$$$$$$": 1513,
      "ĀĀğĀ#": 1514,
      "ĀĀğĀ!": 1515,
      "$$\"$$$$$$#": 1516,
      "*$$$(": 1517,
      "%$$$$$$$$$#": 1518,
      "!+": 1519,
      "\"Ĝ": 1520,
      "\"Ğ": 1521,
      "%&": 1522,
      "%$$$%$": 1523,
      "'ĀĀ": 1524,
      "'$$$%": 1525,
      "'$$$$#%": 1526,
      "*(": 1527,
      "-+": 1528,
      "-$$#": 1529,
      ".,": 1530,
      "ěĝ": 1531,
      "ěğ": 1532,
      "Ġ\"$$$$": 1533,
      "Ġ$ğ": 1534,
      "Ġğ$$": 1535,
      "Ġ($$#": 1536,
      "Ġ#$$ğ": 1537,
      "$$Ě": 1538,
      "$%$%": 1539,
      "$%$\"": 1540,
      "$%$!$$%": 1541,
      "$%&$$$'": 1542,
      "$#Ĝ": 1543,
      "$#$$": 1544,
      "$#$\"$$#": 1545,
      "$#$!$$%": 1546,
      "$&$!": 1547,
      "$&$#$$\"": 1548,
      "$\"&$$$$": 1549,
      "$\"$&$$$$": 1550,
      "$\"#$$$\"": 1551,
      "$\"$#$$&": 1552,
      "$$&#$$$$": 1553,
      "$$&\"$$&": 1554,
      "$$\"#$$%": 1555,
      "ĀĀē": 1556,
      "%$$$$$##$$$$": 1557,
      "$$$#$$$$%%": 1558,
      "$!+": 1559,
      "$!$%$$&": 1560,
      "$!%$$$&": 1561,
      "$$!#$$\"": 1562,
      "$$'%$$%": 1563,
      "$$'$$$&": 1564,
      "$%$$$$$$%$$$$": 1565,
      "$%$$$$$$$%$$$$": 1566,
      "$(,": 1567,
      "$(ĝ": 1568,
      "#$$-": 1569,
      "#$$.": 1570,
      "$%%$$$$$$$$$$$$": 1571,
      "$#%\"$$$$": 1572,
      "$#%%$$$$#": 1573,
      "$##%$$$$#": 1574,
      "$##&$$\"": 1575,
      "$##%$$$$%": 1576,
      "%$$Ě": 1577,
      "&$$$$(": 1578,
      "&$$$$$$%": 1579,
      "$%##$$&": 1580,
      "$%#\"$$\"": 1581,
      "$)$$$$": 1582,
      "&$$Ě": 1583,
      "$$$$##$$$$": 1584,
      "!$$,": 1585,
      "!$$$ğ": 1586,
      "$$$&$$\"": 1587,
      "$%&&$$%": 1588,
      "$%&!$$%": 1589,
      "$Ğ)": 1590,
      "$$#$$$$$$#$$$$": 1591,
      "$&%\"$$$$": 1592,
      "$\"#&$$$$": 1593,
      "$&##$$$$": 1594,
      "$$$\"$": 1595,
      "'$$Ĝ": 1596,
      "#$$$$#&": 1597,
      "%%$$'": 1598,
      "$\"$$$$!": 1599,
      "$\"$$$$$$&": 1600,
      "$#$$%$": 1601,
      "$&&&$$%": 1602,
      "$\"\"$$$#": 1603,
      "$\"\"%$$\"": 1604,
      "\"$$\"$\"": 1605,
      "$$$$$$$$$$$$$$$$$$$": 1606,
      "%$$!$": 1607,
      "$%'$$$&": 1608,
      "$!##$$$$": 1609,
      "$!#%$$%": 1610,
      "$!#\"$$#": 1611,
      "$\"&#$$%": 1612,
      "Ā##": 1613,
      "ĀĀ#Ā%": 1614,
      "Ā\"#": 1615,
      "Ā\"+": 1616,
      "#$$$$%$#$$$$": 1617,
      "$%!#$$\"": 1618,
      "ĀĀ%Āğ": 1619,
      "$!%%$$%": 1620,
      ")$$)": 1621,
      ")$$*": 1622,
      "ĀĀ\"Ā!": 1623,
      "$\"!$$$#": 1624,
      "$&'$$$%": 1625,
      "$&'#$$&": 1626,
      "Ā&#": 1627,
      "\"#%$$$$": 1628,
      "Ā(&": 1629,
      "$$$#$$#%$$#": 1630,
      "\"%%$$%": 1631,
      "$!$$$$&": 1632,
      "\"\"%$$#": 1633,
      "#$$$$$$$$$$$%": 1634,
      "$#$$$$$$$$$$$$$": 1635,
      "!$": 1636,
      "!*": 1637,
      "!Ğ": 1638,
      "!$$$#": 1639,
      "!$$$$#%": 1640,
      "\"#$$$$": 1641,
      "\"&$$#": 1642,
      "#Ğ": 1643,
      "$ĕ": 1644,
      "%)": 1645,
      "(ĝ": 1646,
      "*$$(": 1647,
      "*$$ğ": 1648,
      "+!": 1649,
      ",$$%": 1650,
      "Ā.": 1651,
      "ě$$%": 1652,
      "ě$$#": 1653,
      "Ğ$$)": 1654,
      "Ğ$$Ğ": 1655,
      "ĠĚ": 1656,
      "Ġ$$$&": 1657,
      "Ġ!$$$$": 1658,
      "Ġ$&&": 1659,
      "Ġ$&\"": 1660,
      "Ġ$#'": 1661,
      "$$.": 1662,
      "$%,": 1663,
      "$%$$$#": 1664,
      "$%'$$$$": 1665,
      "$%$#$$$$$$$$": 1666,
      "$%!$$$!": 1667,
      "$#$\"$$$$": 1668,
      "$#$#$$&": 1669,
      "$$%$$$$$$$$$$$$": 1670,
      "$$#\"$$%": 1671,
      "$$#\"$$\"": 1672,
      "$$#%$$$$%": 1673,
      "$$#$$$!": 1674,
      "$&ě": 1675,
      "$&Ĝ": 1676,
      "$$&%$$$$": 1677,
      "$$&&$$&": 1678,
      "$$\"$$$!": 1679,
      "$$$$$$$$%#": 1680,
      "%$$$$$&": 1681,
      "%$$$$&#": 1682,
      "$$$%$$$$%%": 1683,
      "$$$#$$$$#%": 1684,
      "$!#$$$$": 1685,
      "$!\"$$$$": 1686,
      "$!$&$$#": 1687,
      "$$!$$$$": 1688,
      "$$!$$$#": 1689,
      "$$!%$$\"": 1690,
      "$$'#$$%": 1691,
      "$$'#$$&": 1692,
      "$%$$$$$$\"": 1693,
      "$%$$$$#$$#": 1694,
      "$%$$$$$$$&": 1695,
      "$#$$$$%$$#": 1696,
      "\"$$$$'": 1697,
      "\"$$$$$$%": 1698,
      "\"$$$$$$#": 1699,
      "$#%\"$$&": 1700,
      "$#%!$$%": 1701,
      "$#%&$$&": 1702,
      "$#%#$$'": 1703,
      "$#%%$$'": 1704,
      "%$$.": 1705,
      "%$$$!": 1706,
      "$%#\"$$%": 1707,
      "\"$$.": 1708,
      "\"$$$Ğ": 1709,
      "&$$-": 1710,
      "&$$ě": 1711,
      "&$$Ĝ": 1712,
      "!$$ě": 1713,
      "!$$Ĝ": 1714,
      "!$$$&": 1715,
      "$*$$$$": 1716,
      "$$%$$$$$$$#$$$$": 1717,
      "$Ğ$$#": 1718,
      "$#\"\"$$#": 1719,
      "$#&\"$$%": 1720,
      "$&#%$$$$": 1721,
      "$&##$$%": 1722,
      "$&#%$$\"": 1723,
      "$&#&$$\"": 1724,
      "$$$\"$$$$#": 1725,
      "$$$ě": 1726,
      "%$$$$#&": 1727,
      "$\"\"$$$%": 1728,
      "$$$#$$$$$": 1729,
      "$!#&$$#": 1730,
      "ğ$$$ğ": 1731,
      "$'%$$$#": 1732,
      "$'%\"$$%": 1733,
      "&%#$$%": 1734,
      "$'#$$$#": 1735,
      "$$#$$$#$$#": 1736,
      "Ā#&": 1737,
      "Ā\"Ğ": 1738,
      "$%!#$$#": 1739,
      "$!%#$$%": 1740,
      "$,'": 1741,
      "$,(": 1742,
      "$#'&$$%": 1743,
      ")$$+": 1744,
      "$Ĝ%": 1745,
      "$Ĝ(": 1746,
      "ĀĀ$Ā%": 1747,
      "ĀĀ\"Ā'": 1748,
      "ĀĀ!Āĝ": 1749,
      "ĀĀ&Āğ": 1750,
      "ĀĀ&Ā)": 1751,
      "$\"'#$$&": 1752,
      "Ā'%": 1753,
      "$&'#$$%": 1754,
      "$$$'$$#": 1755,
      "Ā&!": 1756,
      "$&!#$$#": 1757,
      "$$$%$$%$": 1758,
      "\"#%$$#": 1759,
      "Ġ%$$$%": 1760,
      "$'&\"$$%": 1761,
      "$$$!$$$$": 1762,
      "$''%$$&": 1763,
      "$!&%$$%": 1764,
      "&$$$$##": 1765,
      "Ā)#": 1766,
      "Ğ$$,": 1767,
      "!#$$!": 1768,
      "!$$$$%#": 1769,
      "#%$$\"": 1770,
      "%ğ": 1771,
      "&ĝ": 1772,
      "&&$$%": 1773,
      "&\"$$&": 1774,
      "',": 1775,
      "'$$$$%%": 1776,
      "($$$$%": 1777,
      "),": 1778,
      "*)": 1779,
      "-\"": 1780,
      "-,": 1781,
      "-ĀĀ": 1782,
      "ě$$&": 1783,
      "Ĝ*": 1784,
      "ĝ$$(": 1785,
      "ĞĞ": 1786,
      "ğĝ": 1787,
      "ğ%$$\"": 1788,
      "ğ#$$\"": 1789,
      "Ġ&$$$$": 1790,
      "Ġ!$$%": 1791,
      "Ġ($$\"": 1792,
      "Ġ$(!": 1793,
      "$$-": 1794,
      "$$/": 1795,
      "$$$$$": 1796,
      "$%&$$": 1797,
      "$%$%$$$$$$$$": 1798,
      "$%$%$$&": 1799,
      "$%#$$%$": 1800,
      "$%!$$$\"": 1801,
      "$%$!$$&": 1802,
      "$#-": 1803,
      "$##$$$$#": 1804,
      "$#$$$#$": 1805,
      "$#$#$$\"": 1806,
      "$#$\"$$&": 1807,
      "$$%%$$\"": 1808,
      "$$%#$$$$#": 1809,
      "$$%\"$$&": 1810,
      "$$%'$$$$": 1811,
      "$$%%$$'": 1812,
      "$$%%$$$$%": 1813,
      "$$%($$%": 1814,
      "$$#$$$$$$$$$$$$": 1815,
      "$$#!$$#": 1816,
      "$$##$$$$%": 1817,
      "$&-": 1818,
      "$&$&$$$$": 1819,
      "$&$!$$%": 1820,
      "$\"Ĝ": 1821,
      "$$\"$$$%": 1822,
      "$$\"&$$\"": 1823,
      "#$$$$$$\"": 1824,
      "#$$$$'%": 1825,
      "%$$$$\"%": 1826,
      "$$$%$$%$$$%": 1827,
      "$',": 1828,
      "$'$$$$%": 1829,
      "$'$%$$#": 1830,
      "$'%$$$&": 1831,
      "$!Ĝ": 1832,
      "$%$$$$!": 1833,
      "$#$$$$'": 1834,
      "$#$$$$$%$$$$": 1835,
      "$#$$$$#$$#": 1836,
      "$(-": 1837,
      "%$$%$!": 1838,
      "$%%%$$\"": 1839,
      "$%%$$$'": 1840,
      "$#%$$$%$$#": 1841,
      "$#%&$$$$#": 1842,
      "$#%%$$%$": 1843,
      "$###$$&": 1844,
      "$###$$$$#": 1845,
      "%$$-": 1846,
      "&$$$$$\"": 1847,
      "&$$$$\"#": 1848,
      "$%#!$$$$": 1849,
      "$%#!$$#": 1850,
      "\"$$$'": 1851,
      "$ğ+": 1852,
      "&$$$": 1853,
      "&$$.": 1854,
      "$$$&$$&": 1855,
      "$$$&$$$$#": 1856,
      "$%&%$$$$": 1857,
      "$Ğ+": 1858,
      "$Ğĝ": 1859,
      "$$#$$$$$$%$$$$": 1860,
      "$&%\"$$#": 1861,
      "$&%%$$&": 1862,
      "$#\"%$$%": 1863,
      "$%\"$$$%": 1864,
      "$#&$$$#": 1865,
      "$#&%$$#": 1866,
      "$#&\"$$&": 1867,
      "$&#\"$$%": 1868,
      "$&#\"$$\"": 1869,
      "$&##$$!": 1870,
      "'$$.": 1871,
      "$\"%#$$$$": 1872,
      "$\"%'$$%": 1873,
      "Ġ$$$Ğ": 1874,
      "%%$$!": 1875,
      "%%#$$%": 1876,
      "%$$$$#\"": 1877,
      "%$$$$#$%$$$$": 1878,
      "$$$%$$$$&": 1879,
      "$$$%$$$$$$": 1880,
      "%#%$$#": 1881,
      "$+(": 1882,
      "$++": 1883,
      "$+Ğ": 1884,
      "$&$$$$$$&": 1885,
      "$&$$$$$$\"": 1886,
      "$\"\"%$$$$": 1887,
      "$%%$$$$%": 1888,
      "$%%$$$$$%%$$$$": 1889,
      "$$$$$$$$$$$$$$$$$$$$$$$$$$$$$$$$": 1890,
      "#$$'$\"": 1891,
      "$'%%$$$$": 1892,
      "$#$$$$#$": 1893,
      "$\"&%$$#": 1894,
      "$\"&#$$&": 1895,
      "$\"&%$$&": 1896,
      "ĀĀ#ĀĞ": 1897,
      "ĀĀ#Āĝ": 1898,
      "Ā\"!": 1899,
      "$%!%$$\"": 1900,
      "$#!$$$#": 1901,
      "$#!#$$#": 1902,
      "$#!%$$\"": 1903,
      "$,!": 1904,
      "$,ğ": 1905,
      "$#'$$$%": 1906,
      "$#'#$$&": 1907,
      "$#$$$$%%$$$$": 1908,
      "$Ĝ&": 1909,
      "Ġ$$#$": 1910,
      "!$$\"$&": 1911,
      "ĀĀ\"ĀĞ": 1912,
      "Ġ$$%$": 1913,
      "ĀĀ!Ā&": 1914,
      "ĀĀ!ĀĞ": 1915,
      "ĀĀ&Ā(": 1916,
      "'$$&$": 1917,
      "$$$'$$%": 1918,
      "Ā&\"": 1919,
      "$$)$": 1920,
      "$&!%$$#": 1921,
      "($$#$": 1922,
      "$$Ğ$": 1923,
      "ĀĀ'Ā'": 1924,
      "$!&$$$%": 1925,
      "$-#": 1926,
      "Ā)'": 1927,
      "$!!$$$#": 1928,
      "$(\"#$$#": 1929,
      "Ğ$$$ğ": 1930,
      "$$%#$$%$": 1931,
      "Ġğ$$#": 1932,
      "$#$%$$%$": 1933,
      "%$$$$$$#$$$$#": 1934,
      "$$##$$#$": 1935,
      "#$$$$##%$$$$": 1936,
      "%$$$$##%$$#": 1937,
      "$$$$$$$$$$$$$$$$$$$$$$$$$": 1938,
      "ĀĀĘĀ": 1939,
      "!Ě": 1940,
      "!ğ": 1941,
      "!&$$#": 1942,
      "!$$$$%%": 1943,
      "\"$%$$$$": 1944,
      "#ě": 1945,
      "#ğ": 1946,
      "%ĝ": 1947,
      "%$$$#": 1948,
      "&%$$&": 1949,
      "'$$$&": 1950,
      "*!": 1951,
      "+'": 1952,
      "+*": 1953,
      "+$$(": 1954,
      "-%": 1955,
      ".-": 1956,
      ".ĀĀ": 1957,
      "Ě$$%": 1958,
      "Ĝ$$#": 1959,
      "ĜĀĀ": 1960,
      "Ĝ$$!": 1961,
      "Ĝ$$'": 1962,
      "Ġ$$$%": 1963,
      "Ġ($$": 1964,
      "Ġ$%!": 1965,
      "Ġ$&$$#": 1966,
      "ĠĀğ": 1967,
      "Ġ$-": 1968,
      "Ġ$&$$%": 1969,
      "Ġ$$$$%%": 1970,
      "Ġ$\"(": 1971,
      "Ġ\"$$ğ": 1972,
      "$$$Ğ": 1973,
      "$%$!": 1974,
      "$%$$$%$": 1975,
      "$%$\"$$\"": 1976,
      "$#ě": 1977,
      "$#\"$$#": 1978,
      "$#$$$\"": 1979,
      "$#'$$$'": 1980,
      "$$%&$$#": 1981,
      "$$#&$$%": 1982,
      "$$##$$$$#": 1983,
      "$&$#$$$$#": 1984,
      "$&$%$$&": 1985,
      "$&#$$$!": 1986,
      "$&$#$$!": 1987,
      "$\"$&": 1988,
      "$\"$\"$$$$": 1989,
      "$\"$%$$$$#": 1990,
      "$\"$\"$$%": 1991,
      "$\"$\"$$#": 1992,
      "$\"$%$$&": 1993,
      "$$\"'$$#": 1994,
      "#$$$$$$&": 1995,
      "#$$$$$$$#": 1996,
      "#$$$$$%$$$$": 1997,
      "#$$$$$$$%$$$$": 1998,
      "#$$$$&#": 1999,
      "#$$$$\"&": 2000,
      "%$$$$$$\"": 2001,
      "$$$%$$#$$$$": 2002,
      "$$$%$$$$##": 2003,
      "$'&$$$$": 2004,
      "$!$%$$#": 2005,
      "$!!$$$$": 2006,
      "$$!$$$": 2007,
      "$$!&$$\"": 2008,
      "$$!#$$!": 2009,
      "$$'$$$'": 2010,
      "#$$%$$$$": 2011,
      "#$$ę": 2012,
      "#$$$Ğ": 2013,
      "$%%\"$$&": 2014,
      "$%%#$$'": 2015,
      "$%%#$$$$%": 2016,
      "$%%%$$$$%": 2017,
      "\"$$$$(": 2018,
      "$#%'$$#": 2019,
      "$##$$$$$$$$$$$$": 2020,
      "$##'$$$$": 2021,
      "&$$$$$$%$$$$": 2022,
      "$%#&$$$$": 2023,
      "$%#'$$#": 2024,
      "$%#%$$#$": 2025,
      "\"$$/": 2026,
      "$)Ğ": 2027,
      "!$$.": 2028,
      "!$$ę": 2029,
      "$$$&$$$$%": 2030,
      "$*+": 2031,
      "$*,": 2032,
      "$%&%$$#": 2033,
      "$Ğ*": 2034,
      "$&%\"$$&": 2035,
      "$$($": 2036,
      "$$($$$'": 2037,
      "#$$\"$$#": 2038,
      "%$$&$#&": 2039,
      "$$$$$$$$$$$$$$$#": 2040,
      "$\"#\"$$#": 2041,
      "$\"#&$$%": 2042,
      "$#\"#$$%": 2043,
      "$#\"'$$#": 2044,
      "$%\"#$$$$": 2045,
      "$%\"%$$$$": 2046,
      "$%\"#$$!": 2047
    },
    "merges": [
      "$ $",
      "$$ $$",
      "$ %",
      "$ #",
      "$$ %",
      "$$ #",
      "$ &",
      "$ \"",
      "$$ &",
      "$$ \"",
      "$$$$ $$$$",
      "# $$$$",
      "Ā Ā",
      "% $$$$",
      "$$ $%",
      "$$ $#",
      "$ '",
      "$ !",
      "$$ !",
      "$$ '",
      "$% $$$$",
      "$# $$$$",
      "$ (",
      "% $$#",
      "# $$%",
      "% $$%",
      "# $$",
      "# $$#",
      "$% %",
      "\" $$$$",
      "$# %",
      "$# #",
      "% $$",
      "& $$$$",
      "$% #",
      "\" $$",
      "$ )",
      "$ ğ",
      "& $$",
      "$$$$ #",
      "$$$$ %",
      "! $$",
      "$$ $&",
      "\" $$%",
      "& $$#",
      "$ *",
      "$$% $$$$",
      "# $$&",
      "\" $$#",
      "% $$\"",
      "$% &",
      "$ Ğ",
      "$$# $$$$",
      "$& %",
      "& $$%",
      "$$ (",
      "# $$\"",
      "% $$&",
      "$$$$$$$$ $$$$",
      "$\" #",
      "$# \"",
      "$% \"",
      "$# &",
      "$& #",
      "$$ $\"",
      "' $$",
      "$\" %",
      "$$ $",
      "#$$$$ #",
      "Ġ $$",
      "\" $$&",
      "% %",
      "$% $$#",
      "( $$",
      "$# $$#",
      "%$$$$ #",
      "$ ĝ",
      "$\" $$$$",
      "! $$$$",
      "$$$% $$$$",
      "$% $$%",
      "$# $$%",
      "% #",
      "$ +",
      "$& &",
      "$& $$$$",
      "& $$\"",
      "' $$$$",
      "$\" \"",
      "$$$# $$$$",
      "! $$%",
      "\" $$\"",
      "! $$#",
      "$% %$$$$",
      "' $$%",
      "# $$!",
      "$& \"",
      "$$$$$$$$ $$$$$$$$",
      "$# #$$$$",
      "' $$#",
      "% $$!",
      "& $$&",
      "$% '",
      "$! #",
      "# $$'",
      "ğ $$",
      "$' %",
      "& %",
      "$%$$$$ #",
      "$' #",
      "$$# $$$#",
      "$#$$$$ #",
      "$\" &",
      "Ġ $$$$",
      "Ā #",
      "ĀĀ #",
      "Ā \"",
      "$$ ğ",
      "#$$$$ %",
      "$% !",
      "$$% $$$%",
      "$# %$$$$",
      "$# !",
      "% $$'",
      "Ā !",
      "ĀĀ %",
      "$! %",
      "$% #$$$$",
      "%$$$$ %",
      "\" $$'",
      "$ ,",
      "$# '",
      "$#$$$$ %",
      ") $$",
      "! $$&",
      "$ Ĝ",
      "Ġ \"",
      "Ġ $$#",
      "ĀĀ $",
      "Ā %",
      "$%$$$$ %",
      "! $$\"",
      "' $$\"",
      "ĀĀ \"",
      "Ġ #",
      "Ġ $$%",
      "ĀĀ !",
      "ĀĀ &",
      "' $$&",
      "$\" '",
      "Ā '",
      "$$$% $",
      "$\" !",
      "& $$!",
      "$& '",
      "$$ $'",
      "Ā &",
      "$$ )",
      "$' \"",
      "$$$# $",
      "$$$% $$#",
      "$& !",
      "$$$% $$%",
      "$& $$#",
      "\" #",
      "( $$#",
      "$! \"",
      "#$$ $\"",
      "Ġ %",
      "$$$# $$%",
      "$' &",
      "& $$'",
      "$$ $!",
      "& #",
      "$% (",
      "Ā (",
      "$' '",
      "Ġ $$\"",
      "$$ Ğ",
      "\" $$!",
      "Ġ $$&",
      "$\" $$%",
      "$$$# $$#",
      "ĀĀ '",
      "$! &",
      "$ ě",
      "\" %",
      "Ġ !",
      "Ġ &",
      "#$$ (",
      "( $$$$",
      "&$$$$ #",
      "Ā ğ",
      "$# $$$$$$$$",
      "$ -",
      "$% $$$$$$$$",
      "ĀĀ ğ",
      "\"$$$$ #",
      "( $$%",
      "\"$$ $\"",
      "Ġ '",
      "$& $$%",
      "Ā )",
      "Ā Ğ",
      "$& (",
      "%$$ (",
      "$! !",
      "$( %",
      "! $$'",
      "$! $$$$",
      "$%# $$$#",
      "$\" $$#",
      "$#% $$$%",
      "$( #",
      "&$$ $&",
      "$( &",
      "$# $%$$$$",
      "$$$$# #",
      "$% $#$$$$",
      "$# (",
      "$$ *",
      "$# $#$$$$",
      "$$# %$$#",
      "$$$$# %",
      "$( \"",
      "' $$'",
      "$$$$% %",
      "( $$\"",
      "Ğ $$",
      "$$\" $$$$",
      "& &",
      "ĀĀ (",
      "$$$# $$$$$$$$",
      "$%% #$$%",
      "\"$$$$ %",
      "Ġ $",
      "\"$$ (",
      "ĀĀ )",
      "$$% %$$$$",
      "$$% #$$%",
      "Ġ ğ",
      "Ġ $$!",
      "$% $$&",
      "$! '",
      "! $$!",
      "$% $%$$$$",
      "#$$ ğ",
      "Ā ĝ",
      "' $$!",
      "Ġ $$'",
      "%$$ ğ",
      "$## $$$#",
      "\" \"",
      "( $$&",
      "Ā *",
      "ĀĀ ĝ",
      "$' !",
      "$# $%$$%",
      "$%% $$$%",
      "$$$$% #",
      "Ġ (",
      "$#$$$$ $$#",
      "Ġ $&",
      "$%$$$$ $$%",
      "#$$ )",
      "$' $$$$",
      "& \"",
      "$$% %$$%",
      "ĀĀ Ğ",
      "# $$$$$$$$",
      "ğ $$%",
      "$# $%$$#",
      "%$$ $&",
      "* $$",
      "$% $#$$#",
      "$$# #$$$$",
      "$# $$&",
      "$' (",
      "$## %$$#",
      "$ .",
      "$# $$\"",
      "$\" (",
      "$( '",
      "$$% #$$$$",
      "$#% #$$%",
      "$## %$$$$",
      "ğ $$#",
      "&$$$$ %",
      "ĝ $$",
      "$# \"$$$$",
      "$$$$ $$%",
      "$% ğ",
      "$% )",
      "%$$$$ $$#",
      "$$$% $$$$$$$$",
      "ĀĀ# Ā",
      "$$% $",
      "%$$% $",
      "\" &",
      "$& )",
      "$%# #$$#",
      "$$# #$$#",
      "$\" $$$$%",
      "$$& $$$$",
      "$ğ #",
      "ğ $$&",
      "$# $#$$%",
      "$& %$$$$",
      "$\" ğ",
      "$ Ě",
      "Ā +",
      "$% $%$$#",
      "$## #$$#",
      "! #",
      "$# ğ",
      "$$% $$$$$$$$",
      "%$$# $",
      "%$$ )",
      "% $$$$$$$$",
      "& '",
      "$$$$ $$#",
      "$% $$\"",
      "! %",
      "$% $#$$%",
      "$! (",
      "$#$$$$ $$",
      "#$$% $",
      "#$$$$# #",
      "ĀĀ +",
      "&$$ (",
      "Ġ )",
      "' %",
      "' $$(",
      "Ġ Ğ",
      "$$$$$$$$ #",
      "$( !",
      "$( (",
      "$#% %$$$$",
      "$$% $$#",
      "$& $$$$%",
      "ĀĀ Ĝ",
      "$%$$$$ $$#",
      "\"$$ )",
      "$) &",
      "$& $$$$#",
      "$#% %$$%",
      "$) \"",
      "!$$ $\"",
      "ĀĀ *",
      "$! $$%",
      "%$$$$# #",
      "' #",
      "+ $$",
      "#$$$$ $$#",
      "ĀĀ ,",
      "! \"",
      "Ġ $$(",
      "#$$$$ &",
      "$#$$$$ $$%",
      "!$$ (",
      "ĀĀ% Ā",
      "% $$$%",
      ") $$%",
      "$% $$$%",
      "$# $$$$$$$$$$$$",
      "$' $$#",
      "$) #",
      "ğ $$\"",
      ") $$#",
      "$%# #$$$$",
      "Ā ,",
      "$# )",
      "$\" #$$$$",
      "$$\" $$$#",
      "%$$$$ %%",
      "$%# %$$#",
      "$) %",
      "$# $#$$#",
      "$ğ \"",
      "( $$'",
      "Ġ %$$",
      "$$ ĝ",
      "$! $$#",
      "#$$ $&",
      "\"$$ ğ",
      "$ğ %",
      "$$#$$$$ $$#",
      "' &",
      "Ġ $'",
      "$' )",
      "$## #$$$$",
      "Ġ *",
      "$\" $$$$#",
      "%$$$$ $",
      "&$$ $'",
      "( $$!",
      "ğ $$$$",
      "Ġ $%",
      "#$$$$ $$%",
      "$%& $$$%",
      "\" !",
      ") $$$$",
      "ğ $$'",
      "Ġ $$$\"",
      "$$& $$$%",
      "#$$$$ $",
      "ĀĀ .",
      "ĀĀ& Ā",
      "Ġ #$$",
      "$$ $(",
      "$% $%$$%",
      "$$% $$$&",
      "$\" $$&",
      "%$$$$ $$%",
      "$$#$$$$ $",
      "#$$$$# %",
      "$ ę",
      "Ğ $$#",
      "Ġ Ā",
      "$%$$$$ $$",
      "&$$ ğ",
      "ĀĀ\" Ā",
      "Ġ $$$#",
      "$\" )",
      "$%% #$$$$",
      "%$$ *",
      "&$$ )",
      "ĀĀ$ Ā",
      "ĀĀ! Ā",
      "$% &$$$$",
      "$# Ğ",
      "$\" $$\"",
      "$%% %$$%",
      "$% Ğ",
      "$# #$$#",
      "%$$$$ &",
      "$) '",
      "$ /",
      "$ ĀĀ",
      "( %",
      ") $$&",
      ") $$\"",
      "$$ +",
      "$# $$$#",
      "$%% %$$$$",
      "\"$$ $!",
      "$ğ !",
      "$#\" $$$#",
      "$& Ğ",
      "$\" $%$$$$",
      "$! ğ",
      "$%% $$$#",
      "$$%$$$$ $$#",
      "$$$$$$$$$$$$$$$$ $$$$$$$$",
      "Ġ #$$#",
      "$& ğ",
      "$& $$&",
      "ĀĀ /",
      "#$$ *",
      "#$$ $!",
      "$) !",
      "!$$ )",
      "!$$ $!",
      "$#& $$$%",
      "'$$ ğ",
      "& $$$%",
      "Ġ #$$\"",
      "$$ ,",
      "$& #$$$$",
      "$& $#$$$$",
      "! !",
      "Ġ %$$#",
      "$% \"$$$$",
      "$# &$$$$",
      "$$% $$%",
      "$$# %$$$$",
      "$$# $$$%",
      "ĀĀ -",
      "$&% $$$%",
      "Ġ \"$$",
      "$% *",
      "$$\" %$$#",
      "\"$$# $",
      "\" '",
      "\" (",
      "& )",
      "ğ $$!",
      "Ġ %$$\"",
      "$\" Ğ",
      "$$& %$$%",
      "$$\" #$$#",
      "ĀĀ ě",
      "$' *",
      "$## $$$%",
      "$%& #$$%",
      "$%\" $$$#",
      "'$$ $'",
      "%$$$$# %",
      "! '",
      "& (",
      "Ğ $$%",
      "Ġ ĝ",
      "$% $$$$$$$$$$$$",
      "$% $\"$$$$",
      "#$$$$ %%",
      "%$$$$ $$",
      "$$%$$$$ $",
      "ĀĀğ Ā",
      "$# $$!",
      "$$# $$$\"",
      "$& $$\"",
      "$& $#$$#",
      "$\" *",
      "$$$$$$$$ %",
      "ĀĀ Ě",
      "$' ğ",
      "$%$$$$ &",
      "$%% $$$&",
      "$* #",
      "'$$ Ğ",
      "! $$$$#",
      "$% %$$%",
      "$$& #$$%",
      "#$$$$ $$",
      "$! $$&",
      "#$$ Ğ",
      "$$$$% &",
      "$* &",
      "($$ )",
      "$$$#$$$$ $$#",
      "* $$#",
      "$$ Ĝ",
      "$# *",
      "$# %$$#",
      "#$$$$ %#",
      "$' $$%",
      "$! )",
      "$( )",
      "$%% \"$$%",
      "$$$$% \"",
      "Ġ$$ ğ",
      "! &",
      "# #",
      "' \"",
      "Ğ $$$$",
      "Ġ $\"",
      "Ġ $)",
      "Ġ #$$!",
      "$% $",
      "$$% %$$#",
      "$& *",
      "$\" $%$$#",
      "%$$ Ğ",
      "$ğ &",
      "$* %",
      "$$$%$$$$ $$#",
      "Ğ $$!",
      "Ġ $(",
      "$% #$$$\"",
      "$! Ğ",
      "#$$ +",
      "$%% #$$#",
      "ĀĀ( Ā",
      "# $$$#",
      "' (",
      "Ġ &$$",
      "$$ $)",
      "$$% $$$#",
      "ĀĀ ę",
      "&$$$$ \"",
      "\"$$ *",
      "$) (",
      "$ğ '",
      "$$$& $$$$",
      "\"$$% $",
      "$\"# %$$#",
      "$%\" %$$#",
      "$&# #$$#",
      "Ġ$$ $!",
      "ĀĀ' Ā",
      "# %$$#",
      "Ġ $#",
      "$\" $%$$%",
      "$$$% $$$$#",
      "$#$$$$ &",
      "!$$ *",
      "$$$& $$#",
      "$$%$$$$ $$%",
      "$$$\" $$$$",
      "' *",
      "$% #$$%",
      "$# $#$$$$#",
      "$( $$$$",
      "$&% #$$%",
      "ĀĀ) Ā",
      "ğ #",
      "ğ %",
      "$% $$'",
      "$% $#$$$$#",
      "$# $",
      "$$$$$$$$ $$$%",
      "$%% %$$#",
      "$$#$$$$ $$%",
      "$$$\" $$%",
      "$##$$$$ $",
      "\" %$$$$",
      "\" $$$#",
      "' '",
      "( #",
      "( &",
      "* $$$$",
      "Ġ &$$#",
      "Ġ \"$$\"",
      "$# $&$$$$",
      "$$$$$$$$ $#",
      "$$$$$$$$ $$#",
      "$## #$$%",
      "%$$ +",
      "%$$ ĝ",
      "\"$$ Ğ",
      "\"$$ $&",
      "$Ğ #",
      "$#\" #$$#",
      "\" %$$#",
      "$ Ę",
      "( (",
      "* ĀĀ",
      "Ĝ $$",
      "ğ !",
      "Ġ %$$!",
      "$% +",
      "$% $\"$$#",
      "$$% &$$$$",
      "$& $#$$%",
      "$' Ğ",
      "$! ĝ",
      "\"$$$$ \"",
      "\"$$$$ &",
      "$#\" %$$#",
      "$\"% %$$%",
      "&% $$'",
      "' $$$$#",
      "* $$%",
      "Ğ %",
      "Ğ $$&",
      "Ġ &$$\"",
      "$# +",
      "$$# &$$#",
      "#$$$$ \"",
      "$$$# $$$$#",
      "\"$$$$ %#",
      "$#% $$$#",
      "%$$ $\"",
      "$%# %$$$$",
      "$%# #$$\"",
      "$ğ $$$$",
      "$Ğ %",
      "$%\" #$$#",
      "$#& #$$%",
      "Ġ$$ )",
      "Ġ ,",
      "Ġ $$$",
      "$% $&$$#",
      "$# $&$$#",
      "$$% #$$#",
      "$& $%$$$$",
      "$$& $$$&",
      "$$\" $$$\"",
      "$' $$$$#",
      "$Ğ !",
      "$&% $$$#",
      "&$$% $",
      "$\"# &$$#",
      "$#& %$$%",
      "$&# $$$#",
      "$%%$$$$ $",
      "\" #$$#",
      "# #$$$$",
      "' )",
      "ĝ $$%",
      "$& $%$$#",
      "$\" %$$$$",
      "$$$$$$$$ $$$$#",
      "$$$% $$&",
      "$$$# $$\"",
      "$! *",
      "$#$$$$ \"",
      "$#% #$$&",
      "$%# $$$%",
      "!$$ ğ",
      "$%& %$$%",
      "$&% %$$%",
      "%$$& $",
      "'$$ *",
      "$&\" $$$#",
      ")$$ $'",
      "# &",
      ", ĀĀ",
      "Ġ +",
      "Ġ $$$$#",
      "$% $$!",
      "$# $%$$$$#",
      "$$# #$$%",
      "$$$# $$&",
      "$! $$$$#",
      "$%$$$$ \"",
      "$( ğ",
      "$## &$$#",
      "&$$$$ &",
      "&$$ Ğ",
      "'$$ )",
      "$\"% #$$%",
      "% #$$%",
      "& #$$$$",
      "( )",
      ") %",
      "* $$\"",
      "Ġ $*",
      "$% ĝ",
      "$% &$$$&",
      "$# #$$$\"",
      "$$$$$$$$ $$$#",
      "%$$$$ %#",
      "$%% #$$&",
      "%$$ $'",
      "$%# \"$$$$",
      "&$$ ĝ",
      "$$$%$$$$ $$%",
      "ĀĀĝ Ā",
      "ĀĀĞ Ā",
      "\" ĀĀ",
      "ĝ $$&",
      "Ġ $!",
      "Ġ '$$#",
      "$% $#",
      "$% \"$$$\"",
      "$$% \"$$%",
      "$& &$$$$",
      "$\" $#$$%",
      "$$$$$$$$ $$$",
      "#$$ ĝ",
      "$#% #$$$$",
      "$#% $$$&",
      "$%# \"$$#",
      "$ğ )",
      "&$$ *",
      "$$$$$$$$$$$$ $",
      "$&# \"$$#",
      "$\"% $$$%",
      "$$$ +",
      "$$#$$$# $",
      "! $$$$%",
      "' !",
      "' $$$$%",
      "( '",
      ") $$!",
      "Ě $$",
      "Ġ ĀĀ",
      "$# $&",
      "$# \"$$$\"",
      "$& ĝ",
      "$$$$$$$$ $$$$%",
      "$%$$$$ $",
      "$#$$$$ $",
      "#$$# $",
      "$## &$$$$",
      "\"$$ +",
      "$ğ (",
      "$ğ Ğ",
      "#$$& $",
      "$Ğ \"",
      "$\"# $$$%",
      "$$$\" $$#",
      "$$%$$$% $",
      "ĀĀ% Ā!",
      "# %$$$$",
      "& ĀĀ",
      ") $$(",
      "Ğ $$\"",
      "Ġ Ĝ",
      "$$ ě",
      "$% Ĝ",
      "$$# \"$$#",
      "$\" ĝ",
      "$! $$$$%",
      "$#$$$$ $$$#",
      "#$$ $'",
      "$#% %$$#",
      "%$$ ě",
      "$ğ ğ",
      "$* \"",
      "$* (",
      "$* ğ",
      "#$$\" $",
      "$\"# #$$#",
      "$#\" &$$#",
      "($$ $(",
      "$$$#$$$$ $$%",
      "& %$$$$",
      "& #$$%",
      "( *",
      "+ $$$$",
      "ğ (",
      "Ġ ě",
      "$% $&$$$$",
      "$# $&$$%",
      "$# $%$$&",
      "$$\" #$$$$",
      "$' $$&",
      "$%$$$$ $$$%",
      "$#$$$$ $$%$$$$",
      "#$$ $",
      "#$$ Ĝ",
      "$## %$$%",
      "&$$$$ %%",
      "$%# &$$#",
      "$) ğ",
      "!$$ $",
      "$* !",
      "$Ğ '",
      "($$ $'",
      "ğ$$ $!",
      "+ )",
      "ĝ $$#",
      "Ğ $$'",
      "$# ĝ",
      "$$# $",
      "$& $$$%",
      "$\" $$!",
      "$\" \"$$$$",
      "#$$$$ $$#$$$$",
      "$$$% $$$$%",
      "$%$$$$ $$&",
      "$%$$$$ $$$#",
      "$#$$$$ $$$%",
      "$%# #$$%",
      "$) *",
      "&$$ +",
      "&$$ $\"",
      "&$$ $(",
      "%$$\" $",
      "$\"# %$$$$",
      "$\"# $$$#",
      "$#& &$$%",
      "$$$ ,",
      "($$ +",
      "$%' $$$%",
      "$#! %$$#",
      "! (",
      "% %$$$$",
      "% %$$%",
      "& %$$%",
      ") &",
      "+ $$&",
      "Ĝ #",
      "ĝ $$$$",
      "Ġ $+",
      "$% $$$$$$$$$$$$$$$$",
      "$% $#$$\"",
      "$# $#",
      "$# $%$$$$%",
      "$& $",
      "$& \"$$$$",
      "$& #$$$\"",
      "$\" $$",
      "$\" $#$$$$",
      "$$& %$$&",
      "$$\" $",
      "$$$$$$$$ $$$$$$$$$$$$",
      "#$$$$ '",
      "$! $%$$%",
      "$%$$$$ $$#$$$$",
      "$#$$$$ $$&",
      "$( +",
      "$#% $$$%$",
      "&$$$$ %#",
      "$%# %$$%",
      "\"$$ $",
      "$) )",
      "&$$ ,",
      "$%& #$$&",
      "$\"$$$$ $$%",
      "'$$% $",
      "ĀĀ# Ā!",
      ")$$ $(",
      "\" )",
      "+ ĀĀ",
      "Ĝ %",
      "ğ ğ",
      "Ġ #$$$$",
      "Ġ $%%",
      "$# ,",
      "$$% #$$&",
      "$$# $$#",
      "$$# \"$$$$",
      "#$$$$ $%",
      "$' ĝ",
      "$( Ğ",
      "$#% &$$%",
      "\"$$ ,",
      "\"$$ ĝ",
      "!$$ +",
      "!$$ Ğ",
      "$$%$$$$ $$%$$$$",
      "$Ğ &",
      "$&% %$$$$",
      "$&# %$$#",
      "$&& $$$%",
      "ğ$$ *",
      "Ā% !",
      "ĀĀ& Ā!",
      "ĀĀĜ Ā",
      "ĀĀ* Ā",
      "! ĀĀ",
      "\" *",
      "# #$$#",
      "( $$(",
      ") )",
      "+ $$'",
      "Ĝ $$%",
      "Ğ #",
      "Ġ $%#",
      "Ġ !$$#",
      "Ġ &$$!",
      "$% %$$#",
      "$% $#$$$$%",
      "$# !$$$$",
      "$$% \"$$$$",
      "$$# #$$\"",
      "$& $%$$%",
      "$\" +",
      "$$$$$$$$ $$%",
      "%$$$$ $#",
      "$' +",
      "$( *",
      "#$$ ,",
      "$#% %$$&",
      "%$$ ,",
      "\"$$ Ĝ",
      "$%& \"$$&",
      "$&% #$$$$",
      "$&% %$$#",
      "$\"# #$$$$",
      "$#& #$$&",
      "$#& %$$&",
      "$\"% $$$#",
      "Ġ$$ *",
      "$\"$$$$ &",
      "&$$\" $",
      "$&\" %$$#",
      "$%' #$$%",
      "ğ$$ )",
      "ĀĀ# Ā#",
      "ĀĀ% Ā\"",
      "ĀĀ\" Ā#",
      "ĀĀ. Ā",
      "ĀĀ/ Ā",
      "\" +",
      "# %",
      "# $$$$$$$$$$$$",
      "$ ė",
      "* '",
      "ğ $$(",
      "Ġ %$$$$",
      "Ġ \"$$#",
      "$$$$ $$\"",
      "$% $%$$$$#",
      "$% $\"$$%",
      "$# $$'",
      "$# &$$$&",
      "$$# %$$%",
      "$$& #$$&",
      "$$$$$$$$ $%",
      "ĀĀ Ę",
      "%$$$$ \"",
      "$%$$$$ %%",
      "$( $$#",
      "$%% &$$$$",
      "$#% &$$$$",
      "$## %$$\"",
      "$) +",
      "&$$# $",
      "$* '",
      "$* *",
      "$#\" #$$$$",
      "'$$ +",
      "Ġ$$ ĝ",
      "($$ ğ",
      "%# $$'",
      "$&& #$$%",
      "$&$$$$ \"",
      "'$$$$ &",
      "$\"\" #$$#",
      "ğ$$ Ğ",
      "ğ$$ ğ",
      "ĀĀ\" Ā\"",
      "ĀĀ, Ā",
      "ĀĀě Ā",
      "! )",
      "\" %$$\"",
      ") $$'",
      "* $$&",
      ", $$",
      "ę $$",
      "ě $$",
      "Ĝ ğ",
      "ĝ #",
      "Ġ $&#",
      "Ġ !$$\"",
      "$% $$",
      "$% $$(",
      "$# $\"$$%",
      "$# $'$$#",
      "$$% %$$&",
      "$$# %$$\"",
      "$& +",
      "$& \"$$$\"",
      "$\" $#$$#",
      "$\" $&$$#",
      "$\" \"$$$\"",
      "$\" &$$$&",
      "$$$$$$$$ #$$$$",
      "$$$% $$\"",
      "$$$# $$$$%",
      "$' Ĝ",
      "$' $$\"",
      "$$! %$$#",
      "$( $$%",
      "%$$ Ĝ",
      "!$$ ĝ",
      "$$$& $",
      "$%\" &$$#",
      "$&# $$$%",
      "'$$ $(",
      "Ġ$$ +",
      "($$ ĝ",
      "($$ Ğ",
      "$ĝ !",
      "$ĝ \"",
      "$ĝ '",
      "$+ !",
      "$+ %",
      "$+ &",
      "$\"\" %$$#",
      "!$$# $",
      "$$$$$$$$$$$$$$$$ $$",
      "#$$' $",
      "$'# #$$#",
      "$#%$$$$ $",
      "$Ĝ !",
      "Ġ\" $$!",
      "ĀĀ$ Ā#",
      "ĀĀ! Ā\"",
      "Ā& &",
      "\"$$$$# #",
      "% #$$$$",
      ") #",
      ") '",
      "+ $$%",
      "- $",
      "ğ \"",
      "ğ *",
      "Ġ .",
      "Ġ $$$$%",
      "$% $%$$$$%",
      "$# $\"",
      "$& $\"$$%",
      "$$& $$#",
      "$$\" $$%",
      "$$\" %$$$$",
      "%$$$$ $$#$$$$",
      "%$$$$ &%",
      "$$$# $$$$%#",
      "$#$$$$ $$#$$$$",
      "$#$$$$ $$$%$$$$",
      "%$$% $\"",
      "$%% %$$&",
      "$%% $$$%$",
      "\"$$$$ %%",
      "$#% #$$#",
      "$## $$$#$",
      "$%# %$$\"",
      "$* )",
      "$Ğ ğ",
      "$%\" #$$\"",
      "$#& %$$$$",
      "Ġ$$ Ğ",
      "$ĝ #",
      "$+ #",
      "$%$$$$# $",
      "$\"& %$$%",
      "ĀĀ# Ā\"",
      "ĀĀ% Ā#",
      "ĀĀ$ ĀĞ",
      "ĀĀ! Ā#",
      "Ġ! $$!",
      "$#$$$$$$$$ $$$",
      "! ĝ",
      ") \"",
      "+ $$#",
      "Ğ )",
      "Ġ !$$",
      "$% $&$$%",
      "$% $#$$&",
      "$% $%$$\"",
      "$# $#$$$$%",
      "$$% &$$%",
      "$$\" $$#",
      "$$\" %$$\"",
      "ĀĀ ė",
      "$$$% $\"",
      "$$$# $#%",
      "$' %$$$$",
      "#$$ ě",
      "$#% \"$$%",
      "$## #$$\"",
      "$ğ *",
      "&$$ $)",
      "$%& #$$$$",
      "$%& \"$$%",
      "$$$$$$$$$$$$ $%$$$$",
      "$$$$$$$$$$$$ $$$",
      "$\"# %$$%",
      "$#\" %$$$$",
      "$%\" %$$\"",
      "'$$ ĝ",
      "Ġ$$ ,",
      "\"$$& $",
      "$ĝ ĝ",
      "$&\" %$$\"",
      "ĀĀ# Ā'",
      "$#$$$$% $",
      "$Ĝ #",
      "ĀĀ$ Ā'",
      "ĀĀ! Ā!",
      "Ġ' $$!",
      "#$$$$$$$$ $$$",
      "\" ğ",
      "& ,",
      "' #$$%",
      "' %$$%",
      "( !",
      "( ĀĀ",
      "( $$$$#",
      "+ %",
      "- $$",
      "ĝ \"",
      "ĝ &",
      "Ġ -",
      "$$ $ğ",
      "$# $'",
      "$# $%$$$$$$$$",
      "$$% $$$\"",
      "$$% &$$&",
      "$& $\"$$#",
      "$\" ,",
      "$\" ě",
      "$\" #$$#",
      "$\" $&$$%",
      "$$$$$$$$ %%",
      "#$$$$ $$$%",
      "#$$$$ $#$$$$",
      "$' $#$$$$",
      "$' #$$$\"",
      "$$' $",
      "$$' %$$&",
      "$%$$$$ #$$%",
      "$( $$\"",
      "\"$$$$ !",
      "\"$$$$ &#",
      "$## \"$$%",
      "$$$& $$%",
      "$$%$$$$ $$#$$$$",
      "$%& %$$&",
      "$Ğ (",
      "$Ğ Ğ",
      "$&% \"$$%",
      "$%\" &$$\"",
      "$%\" !$$#",
      "$\"% %$$&",
      "#$$$$# $%$$$$",
      "Ġ$$ Ĝ",
      "$ĝ &",
      "$\"$$$$ $$#",
      "$&& #$$$$",
      "$&$$$$ &",
      "$&$$$$ $$%",
      "$&\" #$$#",
      "$!# %$$#",
      "$'% $$$%",
      "#$$$$% %$$$$",
      "$, \"",
      "$, %",
      ")$$ Ğ",
      "$$$' $$$$",
      "&$$$$# %",
      "Āğ \"",
      "\" \"$$$$",
      "% $$$$$$$$$$$$",
      "+ ,",
      ", $$#",
      ". $$",
      "Ě $$$$",
      "ě $$$$",
      "Ğ ğ",
      "Ğ $$(",
      "Ġ %$$%",
      "$% $!$$$$",
      "$% $&$$&",
      "$$# $$%",
      "$& $\"$$$$",
      "$& %$$$&",
      "$\" $$'",
      "$\" %$$#",
      "$\" %$$$&",
      "$$& \"$$%",
      "$$& &$$%",
      "$$\" #$$\"",
      "#$$$$ &%",
      "ĀĀ Ė",
      "%$$$$ $$%$$$$",
      "$$$% $#",
      "$$$% $$$$$$$$$$$$",
      "$' $",
      "$' #$$$$",
      "$! $$\"",
      "$$! $$$\"",
      "$#$$$$ $$\"",
      "$#$$$$ %#",
      "#$$ $ğ",
      "$%% &$$%",
      "\"$$$$ \"#",
      "$#% $$$'",
      "$%# $$$#$",
      "$$$$% %$$$$",
      "$\"# #$$%",
      "$&# #$$\"",
      "$\"% %$$$$",
      "$\"% %$$#",
      "$\"% \"$$%",
      "$\"% &$$%",
      "$$$ ĝ",
      "($$ *",
      "($$ $)",
      "$#$$# $",
      "$+ '",
      "$+ )",
      "$&& #$$&",
      "$\"\" &$$#",
      "!$$% $",
      "#$$! $",
      "$&\" \"$$#",
      "Ā# (",
      "ĀĀ# Ā&",
      "#$$$$% $%$$$$",
      "Ā! #",
      "$%#$$$$ $",
      "\"$$' $",
      "Ā% \"",
      "Ā% &",
      "Ā% )",
      "$\"! %$$#",
      "$$$%$$# $",
      "\"$$$$# %",
      "ĀĀ+ Ā",
      "% *",
      ") ĀĀ",
      ") $$ğ",
      "* #",
      "* $$'",
      "+ #",
      "+ $$\"",
      "Ĝ $$$$",
      "ĝ $$\"",
      "ĝ $$!",
      "ğ &",
      "Ġ /",
      "Ġ $%&",
      "Ġ '$$",
      "Ġ $'%",
      "Ġ $'#",
      "Ġ $#!",
      "$% ě",
      "$# &$$",
      "$# $$$$$$$$$$$$$$$$",
      "$# $'$$$$",
      "$$# &$$$$",
      "$& #$$%",
      "$& %$$%",
      "$\" \"$$",
      "$$\" &$$#",
      "$$\" \"$$#",
      "$$$$$$$$ %$$$$",
      "#$$$$ !",
      "ĀĀ Ĕ",
      "%$$$$ '",
      "$$$# $\"",
      "$$$# $$$$##",
      "$' $#$$#",
      "$$! #$$#",
      "$$' $$$$",
      "$%$$$$ '",
      "$#$$$$ %$$%",
      "$( $",
      "#$$# $\"",
      "$%% \"$$#",
      "$%% !$$%",
      "$#% &$$#",
      "$#% '$$%",
      "$## \"$$#",
      "\"$$ -",
      "$* $",
      "$&% #$$#",
      "$%\" \"$$#",
      "$$$ .",
      "#$$$$# #$$$$",
      "$ĝ ğ",
      "$\"$$$$ \"",
      "$\"$$$$ '",
      "$+ \"",
      "$&$$$$ $$#",
      "$!# $$$%",
      "ğ$$ Ĝ",
      "$\"& &$$%",
      "Ġ$$$$ &",
      "$%! $$$#",
      "%$$$$% \"",
      "ĀĀ$ Ā!",
      "ĀĀ$ Ā(",
      "Ā% '",
      "Ā% *",
      "ĀĀ& Ā#",
      "Ā' &",
      "$'& $$$%",
      "$#$$$$$$$$ $$$%",
      "$%$$$$$$$$ $$$",
      "ĀĀĚ Ā",
      "ĀĀę Ā",
      "! ,",
      "! %$$#",
      "! #$$#",
      "# '",
      "% \"",
      "( ,",
      "* ,",
      "* $$!",
      "ě %",
      "Ĝ &",
      "Ğ $$ğ",
      "ğ '",
      "ğ Ğ",
      "Ġ $#\"",
      "Ġ $%\"",
      "Ġ $,",
      "Ġ '$$\"",
      "Ġ $$$$#%",
      "$% $&",
      "$% \"$$",
      "$% \"$$%",
      "$% #$$$&",
      "$% $\"$$&",
      "$# $(",
      "$# #$$%",
      "$# $$(",
      "$# '$$$$",
      "$# #$$$&",
      "$# $&$$&",
      "$$% $$$'",
      "$$# !$$$$",
      "$& $&$$#",
      "$& $#$$&",
      "$\" $$$#",
      "$$& $",
      "$$$# $&",
      "$$$# $%%",
      "$' $$!",
      "$' $\"$$%",
      "$! $&",
      "$! $$'",
      "$$! $",
      "$$' $$$%",
      "$%$$$$ %$$%",
      "$%% \"$$$$",
      "$%% &$$#",
      "$#% %$$\"",
      "$## \"$$$$",
      "$## &$$%",
      "%$$ $",
      "&$$$$ '",
      "$ğ ĝ",
      "!$$ -",
      "$%& $$%",
      "$%& $$$#",
      "$Ğ $$$$",
      "$&% #$$&",
      "$\"# %$$\"",
      "$#\" %$$\"",
      "($$ ě",
      "%$$$$# #$$$$",
      "$ĝ (",
      "!$$$$ &",
      "$+ ğ",
      "$&& %$$%",
      "\"$$\" $",
      "&$$& $",
      "&% #$$$$",
      "ĀĀ# Ā)",
      "Ā\" &",
      "Ā\" )",
      "#$$$$% &",
      "%$$' $",
      "ĀĀ% Ā&",
      "$#' %$$%",
      "$#' $$$&",
      "$Ĝ \"",
      "ĀĀ\" Ā(",
      "$$$! $$%",
      "#$$( $",
      "$%$$$$$$$$ $$$$$$$$$$$$",
      "ĀĀğ Ā#",
      "ĀĀğ Ā!",
      "$$\"$$$$ $$#",
      "*$$ $(",
      "%$$$$$$$$ $#",
      "! +",
      "\" Ĝ",
      "\" Ğ",
      "% &",
      "% $$$%$",
      "' ĀĀ",
      "' $$$%",
      "' $$$$#%",
      "* (",
      "- +",
      "- $$#",
      ". ,",
      "ě ĝ",
      "ě ğ",
      "Ġ \"$$$$",
      "Ġ $ğ",
      "Ġ ğ$$",
      "Ġ ($$#",
      "Ġ #$$ğ",
      "$$ Ě",
      "$% $%",
      "$% $\"",
      "$% $!$$%",
      "$% &$$$'",
      "$# Ĝ",
      "$# $$",
      "$# $\"$$#",
      "$# $!$$%",
      "$& $!",
      "$& $#$$\"",
      "$\" &$$$$",
      "$\" $&$$$$",
      "$\" #$$$\"",
      "$\" $#$$&",
      "$$& #$$$$",
      "$$& \"$$&",
      "$$\" #$$%",
      "ĀĀ ē",
      "%$$$$ $##$$$$",
      "$$$# $$$$%%",
      "$! +",
      "$! $%$$&",
      "$! %$$$&",
      "$$! #$$\"",
      "$$' %$$%",
      "$$' $$$&",
      "$%$$$$ $$%$$$$",
      "$%$$$$ $$$%$$$$",
      "$( ,",
      "$( ĝ",
      "#$$ -",
      "#$$ .",
      "$%% $$$$$$$$$$$$",
      "$#% \"$$$$",
      "$#% %$$$$#",
      "$## %$$$$#",
      "$## &$$\"",
      "$## %$$$$%",
      "%$$ Ě",
      "&$$$$ (",
      "&$$$$ $$%",
      "$%# #$$&",
      "$%# \"$$\"",
      "$) $$$$",
      "&$$ Ě",
      "$$$$# #$$$$",
      "!$$ ,",
      "!$$ $ğ",
      "$$$& $$\"",
      "$%& &$$%",
      "$%& !$$%",
      "$Ğ )",
      "$$#$$$$ $$#$$$$",
      "$&% \"$$$$",
      "$\"# &$$$$",
      "$&# #$$$$",
      "$$$\" $",
      "'$$ Ĝ",
      "#$$$$# &",
      "%% $$'",
      "$\"$$$$ !",
      "$\"$$$$ $$&",
      "$#$$% $",
      "$&& &$$%",
      "$\"\" $$$#",
      "$\"\" %$$\"",
      "\"$$\" $\"",
      "$$$$$$$$$$$$$$$$ $$$",
      "%$$! $",
      "$%' $$$&",
      "$!# #$$$$",
      "$!# %$$%",
      "$!# \"$$#",
      "$\"& #$$%",
      "Ā# #",
      "ĀĀ# Ā%",
      "Ā\" #",
      "Ā\" +",
      "#$$$$% $#$$$$",
      "$%! #$$\"",
      "ĀĀ% Āğ",
      "$!% %$$%",
      ")$$ )",
      ")$$ *",
      "ĀĀ\" Ā!",
      "$\"! $$$#",
      "$&' $$$%",
      "$&' #$$&",
      "Ā& #",
      "\"# %$$$$",
      "Ā( &",
      "$$$#$$# %$$#",
      "\"% %$$%",
      "$!$$$$ &",
      "\"\" %$$#",
      "#$$$$$$$$ $$$%",
      "$#$$$$$$$$$$$$ $",
      "! $",
      "! *",
      "! Ğ",
      "! $$$#",
      "! $$$$#%",
      "\" #$$$$",
      "\" &$$#",
      "# Ğ",
      "$ ĕ",
      "% )",
      "( ĝ",
      "* $$(",
      "* $$ğ",
      "+ !",
      ", $$%",
      "Ā .",
      "ě $$%",
      "ě $$#",
      "Ğ $$)",
      "Ğ $$Ğ",
      "Ġ Ě",
      "Ġ $$$&",
      "Ġ !$$$$",
      "Ġ $&&",
      "Ġ $&\"",
      "Ġ $#'",
      "$$ .",
      "$% ,",
      "$% $$$#",
      "$% '$$$$",
      "$% $#$$$$$$$$",
      "$% !$$$!",
      "$# $\"$$$$",
      "$# $#$$&",
      "$$% $$$$$$$$$$$$",
      "$$# \"$$%",
      "$$# \"$$\"",
      "$$# %$$$$%",
      "$$# $$$!",
      "$& ě",
      "$& Ĝ",
      "$$& %$$$$",
      "$$& &$$&",
      "$$\" $$$!",
      "$$$$$$$$ %#",
      "%$$$$ $&",
      "%$$$$ &#",
      "$$$% $$$$%%",
      "$$$# $$$$#%",
      "$! #$$$$",
      "$! \"$$$$",
      "$! $&$$#",
      "$$! $$$$",
      "$$! $$$#",
      "$$! %$$\"",
      "$$' #$$%",
      "$$' #$$&",
      "$%$$$$ $$\"",
      "$%$$$$ #$$#",
      "$%$$$$ $$$&",
      "$#$$$$ %$$#",
      "\"$$$$ '",
      "\"$$$$ $$%",
      "\"$$$$ $$#",
      "$#% \"$$&",
      "$#% !$$%",
      "$#% &$$&",
      "$#% #$$'",
      "$#% %$$'",
      "%$$ .",
      "%$$ $!",
      "$%# \"$$%",
      "\"$$ .",
      "\"$$ $Ğ",
      "&$$ -",
      "&$$ ě",
      "&$$ Ĝ",
      "!$$ ě",
      "!$$ Ĝ",
      "!$$ $&",
      "$* $$$$",
      "$$%$$$$ $$$#$$$$",
      "$Ğ $$#",
      "$#\" \"$$#",
      "$#& \"$$%",
      "$&# %$$$$",
      "$&# #$$%",
      "$&# %$$\"",
      "$&# &$$\"",
      "$$$\" $$$$#",
      "$$$ ě",
      "%$$$$# &",
      "$\"\" $$$%",
      "$$$#$$$$ $",
      "$!# &$$#",
      "ğ$$ $ğ",
      "$'% $$$#",
      "$'% \"$$%",
      "&% #$$%",
      "$'# $$$#",
      "$$#$$$# $$#",
      "Ā# &",
      "Ā\" Ğ",
      "$%! #$$#",
      "$!% #$$%",
      "$, '",
      "$, (",
      "$#' &$$%",
      ")$$ +",
      "$Ĝ %",
      "$Ĝ (",
      "ĀĀ$ Ā%",
      "ĀĀ\" Ā'",
      "ĀĀ! Āĝ",
      "ĀĀ& Āğ",
      "ĀĀ& Ā)",
      "$\"' #$$&",
      "Ā' %",
      "$&' #$$%",
      "$$$' $$#",
      "Ā& !",
      "$&! #$$#",
      "$$$%$$% $",
      "\"# %$$#",
      "Ġ% $$$%",
      "$'& \"$$%",
      "$$$! $$$$",
      "$'' %$$&",
      "$!& %$$%",
      "&$$$$# #",
      "Ā) #",
      "Ğ$$ ,",
      "! #$$!",
      "! $$$$%#",
      "# %$$\"",
      "% ğ",
      "& ĝ",
      "& &$$%",
      "& \"$$&",
      "' ,",
      "' $$$$%%",
      "( $$$$%",
      ") ,",
      "* )",
      "- \"",
      "- ,",
      "- ĀĀ",
      "ě $$&",
      "Ĝ *",
      "ĝ $$(",
      "Ğ Ğ",
      "ğ ĝ",
      "ğ %$$\"",
      "ğ #$$\"",
      "Ġ &$$$$",
      "Ġ !$$%",
      "Ġ ($$\"",
      "Ġ $(!",
      "$$ -",
      "$$ /",
      "$$$$ $",
      "$% &$$",
      "$% $%$$$$$$$$",
      "$% $%$$&",
      "$% #$$%$",
      "$% !$$$\"",
      "$% $!$$&",
      "$# -",
      "$# #$$$$#",
      "$# $$$#$",
      "$# $#$$\"",
      "$# $\"$$&",
      "$$% %$$\"",
      "$$% #$$$$#",
      "$$% \"$$&",
      "$$% '$$$$",
      "$$% %$$'",
      "$$% %$$$$%",
      "$$% ($$%",
      "$$# $$$$$$$$$$$$",
      "$$# !$$#",
      "$$# #$$$$%",
      "$& -",
      "$& $&$$$$",
      "$& $!$$%",
      "$\" Ĝ",
      "$$\" $$$%",
      "$$\" &$$\"",
      "#$$$$ $$\"",
      "#$$$$ '%",
      "%$$$$ \"%",
      "$$$% $$%$$$%",
      "$' ,",
      "$' $$$$%",
      "$' $%$$#",
      "$' %$$$&",
      "$! Ĝ",
      "$%$$$$ !",
      "$#$$$$ '",
      "$#$$$$ $%$$$$",
      "$#$$$$ #$$#",
      "$( -",
      "%$$% $!",
      "$%% %$$\"",
      "$%% $$$'",
      "$#% $$$%$$#",
      "$#% &$$$$#",
      "$#% %$$%$",
      "$## #$$&",
      "$## #$$$$#",
      "%$$ -",
      "&$$$$ $\"",
      "&$$$$ \"#",
      "$%# !$$$$",
      "$%# !$$#",
      "\"$$ $'",
      "$ğ +",
      "&$$ $",
      "&$$ .",
      "$$$& $$&",
      "$$$& $$$$#",
      "$%& %$$$$",
      "$Ğ +",
      "$Ğ ĝ",
      "$$#$$$$ $$%$$$$",
      "$&% \"$$#",
      "$&% %$$&",
      "$#\" %$$%",
      "$%\" $$$%",
      "$#& $$$#",
      "$#& %$$#",
      "$#& \"$$&",
      "$&# \"$$%",
      "$&# \"$$\"",
      "$&# #$$!",
      "'$$ .",
      "$\"% #$$$$",
      "$\"% '$$%",
      "Ġ$$ $Ğ",
      "%% $$!",
      "%% #$$%",
      "%$$$$# \"",
      "%$$$$# $%$$$$",
      "$$$%$$$$ &",
      "$$$%$$$$ $$",
      "%# %$$#",
      "$+ (",
      "$+ +",
      "$+ Ğ",
      "$&$$$$ $$&",
      "$&$$$$ $$\"",
      "$\"\" %$$$$",
      "$%%$$$$ %",
      "$%%$$$$ $%%$$$$",
      "$$$$$$$$$$$$$$$$ $$$$$$$$$$$$$$$$",
      "#$$' $\"",
      "$'% %$$$$",
      "$#$$$$# $",
      "$\"& %$$#",
      "$\"& #$$&",
      "$\"& %$$&",
      "ĀĀ# ĀĞ",
      "ĀĀ# Āĝ",
      "Ā\" !",
      "$%! %$$\"",
      "$#! $$$#",
      "$#! #$$#",
      "$#! %$$\"",
      "$, !",
      "$, ğ",
      "$#' $$$%",
      "$#' #$$&",
      "$#$$$$% %$$$$",
      "$Ĝ &",
      "Ġ$$# $",
      "!$$\" $&",
      "ĀĀ\" ĀĞ",
      "Ġ$$% $",
      "ĀĀ! Ā&",
      "ĀĀ! ĀĞ",
      "ĀĀ& Ā(",
      "'$$& $",
      "$$$' $$%",
      "Ā& \"",
      "$$) $",
      "$&! %$$#",
      "($$# $",
      "$$Ğ $",
      "ĀĀ' Ā'",
      "$!& $$$%",
      "$- #",
      "Ā) '",
      "$!! $$$#",
      "$(\" #$$#",
      "Ğ$$ $ğ",
      "$$%#$$% $",
      "Ġğ $$#",
      "$#$%$$% $",
      "%$$$$$$# $$$$#",
      "$$##$$# $",
      "#$$$$## %$$$$",
      "%$$$$## %$$#",
      "$$$$$$$$$$$$$$$$$$$$$$$$ $",
      "ĀĀĘ Ā",
      "! Ě",
      "! ğ",
      "! &$$#",
      "! $$$$%%",
      "\" $%$$$$",
      "# ě",
      "# ğ",
      "% ĝ",
      "% $$$#",
      "& %$$&",
      "' $$$&",
      "* !",
      "+ '",
      "+ *",
      "+ $$(",
      "- %",
      ". -",
      ". ĀĀ",
      "Ě $$%",
      "Ĝ $$#",
      "Ĝ ĀĀ",
      "Ĝ $$!",
      "Ĝ $$'",
      "Ġ $$$%",
      "Ġ ($$",
      "Ġ $%!",
      "Ġ $&$$#",
      "Ġ Āğ",
      "Ġ $-",
      "Ġ $&$$%",
      "Ġ $$$$%%",
      "Ġ $\"(",
      "Ġ \"$$ğ",
      "$$ $Ğ",
      "$% $!",
      "$% $$$%$",
      "$% $\"$$\"",
      "$# ě",
      "$# \"$$#",
      "$# $$$\"",
      "$# '$$$'",
      "$$% &$$#",
      "$$# &$$%",
      "$$# #$$$$#",
      "$& $#$$$$#",
      "$& $%$$&",
      "$& #$$$!",
      "$& $#$$!",
      "$\" $&",
      "$\" $\"$$$$",
      "$\" $%$$$$#",
      "$\" $\"$$%",
      "$\" $\"$$#",
      "$\" $%$$&",
      "$$\" '$$#",
      "#$$$$ $$&",
      "#$$$$ $$$#",
      "#$$$$ $%$$$$",
      "#$$$$ $$$%$$$$",
      "#$$$$ &#",
      "#$$$$ \"&",
      "%$$$$ $$\"",
      "$$$% $$#$$$$",
      "$$$% $$$$##",
      "$' &$$$$",
      "$! $%$$#",
      "$! !$$$$",
      "$$! $$$",
      "$$! &$$\"",
      "$$! #$$!",
      "$$' $$$'",
      "#$$% $$$$",
      "#$$ ę",
      "#$$ $Ğ",
      "$%% \"$$&",
      "$%% #$$'",
      "$%% #$$$$%",
      "$%% %$$$$%",
      "\"$$$$ (",
      "$#% '$$#",
      "$## $$$$$$$$$$$$",
      "$## '$$$$",
      "&$$$$ $$%$$$$",
      "$%# &$$$$",
      "$%# '$$#",
      "$%# %$$#$",
      "\"$$ /",
      "$) Ğ",
      "!$$ .",
      "!$$ ę",
      "$$$& $$$$%",
      "$* +",
      "$* ,",
      "$%& %$$#",
      "$Ğ *",
      "$&% \"$$&",
      "$$( $",
      "$$( $$$'",
      "#$$\" $$#",
      "%$$& $#&",
      "$$$$$$$$$$$$ $$$#",
      "$\"# \"$$#",
      "$\"# &$$%",
      "$#\" #$$%",
      "$#\" '$$#",
      "$%\" #$$$$",
      "$%\" %$$$$",
      "$%\" #$$!"
    ]
  }
}