{
  "version": "1.0",
  "truncation": null,
  "padding": null,
  "added_tokens": [],
  "normalizer": null,
  "pre_tokenizer": {
    "type": "ByteLevel",
    "add_prefix_space": false,
    "trim_offsets": true,
    "use_regex": true
  },
  "post_processor": {
    "type": "ByteLevel",
    "add_prefix_space": true,
    "trim_offsets": false,
    "use_regex": true
  },
  "decoder": {
    "type": "ByteLevel",
    "add_prefix_space": true,
    "trim_offsets": true,
    "use_regex": true
  },
  "model": {
    "type": "BPE",
    "dropout": null,
    "unk_token": null,
    "continuing_subword_prefix": null,
    "end_of_word_suffix": null,
    "fuse_unk": false,
    "byte_fallback": false,
    "ignore_merges": false,
    "vocab": {
      "\u0000": 0,
      "\u0001": 1,
      "\u0002": 2,
      "\u0003": 3,
      "\u0004": 4,
      "\u0005": 5,
      "\u0006": 6,
      "\u0007": 7,
      "\b": 8,
      "\t": 9,
      "\n": 10,
      "\u000b": 11,
      "\f": 12,
      "\r": 13,
      "\u000e": 14,
      "\u000f": 15,
      "\u0010": 16,
      "\u0011": 17,
      "\u0012": 18,
      "\u0013": 19,
      "\u0014": 20,
      "\u0015": 21,
      "\u0016": 22,
      "\u0017": 23,
      "\u0018": 24,
      "\u0019": 25,
      "\u001a": 26,
      "\u001b": 27,
      "\u001c": 28,
      "\u001d": 29,
      "\u001e": 30,
      "\u001f": 31,
      " ": 32,
      "!": 33,
      "\"": 34,
      "#": 35,
      "$": 36,
      "%": 37,
      "&": 38,
      "'": 39,
      "(": 40,
      ")": 41,
      "*": 42,
      "+": 43,
      ",": 44,
      "-": 45,
      ".": 46,
      "/": 47,
      "0": 48,
      "1": 49,
      "2": 50,
      "3": 51,
      "4": 52,
      "5": 53,
      "6": 54,
      "7": 55,
      "8": 56,
      "9": 57,
      ":": 58,
      ";": 59,
      "<": 60,
      "=": 61,
      ">": 62,
      "?": 63,
      "@": 64,
      "A": 65,
      "B": 66,
      "C": 67,
      "D": 68,
      "E": 69,
      "F": 70,
      "G": 71,
      "H": 72,
      "I": 73,
      "J": 74,
      "K": 75,
      "L": 76,
      "Ā": 77,
      "ā": 78,
      "Ă": 79,
      "ă": 80,
      "Ą": 81,
      "ą": 82,
      "Ć": 83,
      "ć": 84,
      "Ĉ": 85,
      "ĉ": 86,
      "Ċ": 87,
      "ċ": 88,
      "Č": 89,
      "č": 90,
      "Ď": 91,
      "ď": 92,
      "Đ": 93,
      "đ": 94,
      "Ē": 95,
      "ē": 96,
      "Ĕ": 97,
      "ĕ": 98,
      "Ė": 99,
      "ė": 100,
      "Ę": 101,
      "ę": 102,
      "Ě": 103,
      "ě": 104,
      "Ĝ": 105,
      "ĝ": 106,
      "Ğ": 107,
      "ğ": 108,
      "Ġ": 109,
      "&&": 110,
      "&&&&": 111,
      "&'": 112,
      "&%": 113,
      "&&'": 114,
      "&&%": 115,
      "ĀĀ": 116,
      "&(": 117,
      "&$": 118,
      "&&(": 119,
      "&&$": 120,
      "&)": 121,
      "&#": 122,
      "%&&": 123,
      "'&&": 124,
      "%&&&&": 125,
      "'&&&&": 126,
      "&*": 127,
      "&\"": 128,
      "&&#": 129,
      "&&)": 130,
      "&'&&&&": 131,
      "&%&&&&": 132,
      "$&&": 133,
      "(&&": 134,
      "&&'&": 135,
      "&&%&": 136,
      "&+": 137,
      "#&&": 138,
      "&!": 139,
      ")&&": 140,
      "$&&&&": 141,
      "&&&&&&&&": 142,
      "(&&&&": 143,
      "&&'&'": 144,
      "&&%&'": 145,
      "&&'&%": 146,
      "&&%&%": 147,
      "*&&": 148,
      "%'": 149,
      "\"&&": 150,
      "''": 151,
      "&,": 152,
      "%%": 153,
      "&&&%": 154,
      "'%": 155,
      "&&&'": 156,
      "!&&": 157,
      "&&%&(": 158,
      "&&'&$": 159,
      "&&&&%": 160,
      "&&'&(": 161,
      "&&%&$": 162,
      "&&(&": 163,
      "&&&&'": 164,
      "&&$&": 165,
      "&&\"": 166,
      "&&*": 167,
      "&&(&%": 168,
      "&&$&'": 169,
      "&&(&'": 170,
      "&&$&%": 171,
      "('": 172,
      "(%": 173,
      "$%": 174,
      "&-": 175,
      "'&&&'": 176,
      "#&&&&": 177,
      "$'": 178,
      ")&&&&": 179,
      "%&&&%": 180,
      "%Ā": 181,
      "ĀĀ%Ā": 182,
      "&ğ": 183,
      "&Ā": 184,
      "ĀĀ&Ā": 185,
      "&&%&&&&": 186,
      "+&&": 187,
      "$Ā": 188,
      "ĀĀ$Ā": 189,
      "%(": 190,
      "&&'&&&&": 191,
      "&&'&&": 192,
      "'(": 193,
      "'$": 194,
      "Ġ&&": 195,
      "%$": 196,
      "&&%&&": 197,
      "&$&&&&": 198,
      "''&&&&": 199,
      "'Ā": 200,
      "ĀĀ'Ā": 201,
      "&&$&(": 202,
      "($": 203,
      "%%&&&&": 204,
      "&(&&&&": 205,
      "&&(&$": 206,
      "&.": 207,
      "#Ā": 208,
      "ĀĀ#Ā": 209,
      "(Ā": 210,
      "ĀĀ(Ā": 211,
      "$(": 212,
      "((": 213,
      "&&%&)": 214,
      "&&$&$": 215,
      "%'&&&&": 216,
      "&&'&#": 217,
      "&&(&(": 218,
      ",&&": 219,
      "\"Ā": 220,
      "ĀĀ\"Ā": 221,
      "$$": 222,
      "%&&)": 223,
      "&&'&)": 224,
      "'&&#": 225,
      "'%&&&&": 226,
      "&&%&#": 227,
      "%&&#": 228,
      ")Ā": 229,
      "ĀĀ)Ā": 230,
      "#'": 231,
      "&Ğ": 232,
      "'&&)": 233,
      "')": 234,
      "%)": 235,
      "&&&": 236,
      "\"&&&&": 237,
      "$&&&%": 238,
      "'#": 239,
      "%#": 240,
      "&&!": 241,
      "(&&&'": 242,
      "!Ā": 243,
      "ĀĀ!Ā": 244,
      "$)": 245,
      "*&&&&": 246,
      "&&+": 247,
      ")'": 248,
      ")%": 249,
      ")$": 250,
      "&&%&&%": 251,
      "(#": 252,
      "&&'&&'": 253,
      "&&'&&%": 254,
      "*Ā": 255,
      "ĀĀ*Ā": 256,
      "&&$&)": 257,
      "#%": 258,
      "&/": 259,
      ")(": 260,
      "#(": 261,
      "&&(&#": 262,
      "&&%&&'": 263,
      "#$": 264,
      "+Ā": 265,
      "ĀĀ+Ā": 266,
      "&&$&#": 267,
      "&&)&'": 268,
      "&&)&%": 269,
      "&&%&*": 270,
      "ĠĀ": 271,
      "&&#&'": 272,
      "ğ&&": 273,
      "&&#&%": 274,
      "()": 275,
      "&&(&)": 276,
      "'\"": 277,
      "&ĝ": 278,
      "&&'&\"": 279,
      "$#": 280,
      "&&(&&": 281,
      "'*": 282,
      "-&&": 283,
      "%&&&'": 284,
      "%&&\"": 285,
      "ğĀ": 286,
      "ĀĀğĀ": 287,
      ",Ā": 288,
      "ĀĀ,Ā": 289,
      "%&&*": 290,
      "*%": 291,
      "&&$&&": 292,
      "&&'&*": 293,
      "!&&&&": 294,
      "'&&&%": 295,
      "&&#&(": 296,
      "*(": 297,
      "&&%&\"": 298,
      "#)": 299,
      "&&)&$": 300,
      "%\"": 301,
      "'&&\"": 302,
      "%*": 303,
      "'&&*": 304,
      "-Ā": 305,
      "ĀĀ-Ā": 306,
      "))": 307,
      "&'&&&&%": 308,
      "\"'": 309,
      "*$": 310,
      "\"$": 311,
      "&Ĝ": 312,
      "##": 313,
      "Ğ&&": 314,
      "%&&&$": 315,
      "'&&&(": 316,
      "+&&&&": 317,
      "&'%": 318,
      "&&#&$": 319,
      "&&)&(": 320,
      "$&&*": 321,
      "*'": 322,
      "&#&&&&": 323,
      "'&&&&&": 324,
      "\"%": 325,
      "&%%&&&&": 326,
      "\"(": 327,
      "ĞĀ": 328,
      "ĀĀĞĀ": 329,
      "&&(&\"": 330,
      ".Ā": 331,
      "ĀĀ.Ā": 332,
      "&)&&&&": 333,
      "(%&&&&": 334,
      "$*": 335,
      "$%&&&&": 336,
      "Ġ&&&&": 337,
      "&&'&&&'": 338,
      "&%&&&&'": 339,
      "(&&&(": 340,
      "&&)&": 341,
      ")#": 342,
      "$\"": 343,
      "(*": 344,
      "(&&\"": 345,
      "&&&&&&&&&&&&": 346,
      "$'&&&&": 347,
      "&&%&&&%": 348,
      "&&(&*": 349,
      "&&#&": 350,
      "&&(&&&&": 351,
      "(\"": 352,
      "&'%&&&&": 353,
      "&%'": 354,
      "('&&&&": 355,
      "&%&&&&%": 356,
      "%&&+": 357,
      "'+": 358,
      ")*": 359,
      "&&$&*": 360,
      "$&&\"": 361,
      "&'&&&&'": 362,
      "&'&&&&&&": 363,
      "ĝĀ": 364,
      "ĀĀĝĀ": 365,
      ".&&": 366,
      ")&&&'": 367,
      "'$&&&&": 368,
      "(+": 369,
      "/Ā": 370,
      "ĀĀ/Ā": 371,
      "$&&&$": 372,
      "&&%&+": 373,
      "!(": 374,
      "ĝ&&": 375,
      "%$&&&&": 376,
      "'(&&&&": 377,
      "\")": 378,
      "&&$&\"": 379,
      "&&'&+": 380,
      "Ġ(": 381,
      "(&&*": 382,
      "!%": 383,
      "*)": 384,
      "&&$&&&&": 385,
      "$+": 386,
      "&&)&#": 387,
      "&%&'": 388,
      "&&'&&(": 389,
      "&&#&)": 390,
      "ĜĀ": 391,
      "ĀĀĜĀ": 392,
      "'&&&'&": 393,
      "!)": 394,
      ")&&\"": 395,
      "#&&*": 396,
      "&%&&&&&&": 397,
      "%(&&&&": 398,
      "&&%&&&&&&&&": 399,
      "#*": 400,
      "&&'&&&&&&&&": 401,
      "&''": 402,
      "&&)&)": 403,
      "'&&+": 404,
      "&&%&!": 405,
      "#&&\"": 406,
      "#\"": 407,
      "%+": 408,
      "&'&%": 409,
      "&''&&&&": 410,
      ")&&*": 411,
      "%&&!": 412,
      "ěĀ": 413,
      "ĀĀěĀ": 414,
      "&&'&!": 415,
      "%!": 416,
      "',": 417,
      "&&%&&$": 418,
      "&%&%": 419,
      ")\"": 420,
      "&&(&&'": 421,
      "#+": 422,
      "'&&!": 423,
      "%&&&%&": 424,
      "Ġ#": 425,
      "&&$&+": 426,
      "*#": 427,
      ")+": 428,
      "&$&%": 429,
      "&&(&!": 430,
      "&&#&*": 431,
      "/&&": 432,
      "&&$&&%": 433,
      "!$": 434,
      "+$": 435,
      "&&%&&(": 436,
      "&&#&#": 437,
      "*\"": 438,
      "Ġ%": 439,
      "&'&&&&&&&&": 440,
      "&&&%&": 441,
      "Ġ$": 442,
      "'!": 443,
      "&&#&&": 444,
      "&(&%": 445,
      "&ě": 446,
      "\"#": 447,
      "**": 448,
      "$!": 449,
      "$&&+": 450,
      "+(": 451,
      "&&$&&'": 452,
      "&%&&&&&&&&": 453,
      "\"\"": 454,
      "&&(&&%": 455,
      "-ĀĀ": 456,
      "Ĝ&&": 457,
      "&%%": 458,
      "&%(": 459,
      "&%'&&&&": 460,
      "!#": 461,
      "$&&!": 462,
      "(&&+": 463,
      "&$&'": 464,
      "&&(&+": 465,
      "&\"&&&&": 466,
      ",&&&&": 467,
      "&(&'": 468,
      "&&$&!": 469,
      "&&&'&": 470,
      "&ĀĀ": 471,
      "#&&&%": 472,
      "+%": 473,
      "+ĀĀ": 474,
      "ĚĀ": 475,
      "&'&'": 476,
      ",ĀĀ": 477,
      "(&&!": 478,
      "ęĀ": 479,
      "Ġ)": 480,
      "+'": 481,
      ",)": 482,
      "Ġ&'": 483,
      "&&'&&$": 484,
      "*&&\"": 485,
      "(!": 486,
      "&$%": 487,
      "+)": 488,
      "\"&&*": 489,
      "+#": 490,
      "%&&&&&": 491,
      "/ĀĀ": 492,
      ",(": 493,
      "Ġ'": 494,
      "&&&&&&&&&&&&&&&&": 495,
      "Ġ\"": 496,
      "&&)&\"": 497,
      "Ġ&(": 498,
      "*ĀĀ": 499,
      "'&&&&%": 500,
      "&&,": 501,
      "&&#&+": 502,
      "!'": 503,
      "&&&'&&&&": 504,
      "&%$": 505,
      "&&%&&&&&": 506,
      "((&&&&": 507,
      "($&&&&": 508,
      "&*&&&&": 509,
      "*&&*": 510,
      "ğ)": 511,
      "Ġ*": 512,
      "%&&,": 513,
      "#&&+": 514,
      ".ĀĀ": 515,
      "&&ğ": 516,
      "&#&'": 517,
      "'&&&)": 518,
      "$,": 519,
      "Ġ&)": 520,
      "&&$&,": 521,
      "&Ě": 522,
      "\"*": 523,
      "#!": 524,
      "%&&'&": 525,
      "%&&&&%": 526,
      ")!": 527,
      "&&&%&&&&": 528,
      "&&''": 529,
      "&%#": 530,
      "&&)&&": 531,
      "&&'&&&&&": 532,
      "&&%'": 533,
      "#&&!": 534,
      "$$&&&&": 535,
      "ĘĀ": 536,
      "&&%&,": 537,
      "*+": 538,
      "Ġ&": 539,
      "&('": 540,
      "Ġ+": 541,
      "&(&": 542,
      "'&&,": 543,
      "Ġ!": 544,
      "&$'": 545,
      "#&&&$": 546,
      ",'": 547,
      "&&%&&&'": 548,
      "%&&&&'": 549,
      "\"&&\"": 550,
      ")&&!": 551,
      ")&&+": 552,
      "!&&*": 553,
      "Ā+": 554,
      "&'(": 555,
      "*&&!": 556,
      "%,": 557,
      "&&'&&&%": 558,
      "&&#&\"": 559,
      "ğ(": 560,
      "&(&$": 561,
      "&&$&&$": 562,
      "$&&,": 563,
      "\"!": 564,
      "&(%": 565,
      "&&)&*": 566,
      "-(": 567,
      "ĀĀĚĀ": 568,
      "!&&\"": 569,
      "Ġ&%": 570,
      "Ġ&$": 571,
      "&&(&&(": 572,
      "'&&&&'": 573,
      "'%&&'&": 574,
      "(&&,": 575,
      "-&&&&": 576,
      "&&'%": 577,
      "ğ%": 578,
      "ĀĀęĀ": 579,
      "%&&&&&&": 580,
      ",#": 581,
      ",%": 582,
      "-'": 583,
      "%'&&%&": 584,
      "ě&&": 585,
      "&'#": 586,
      "'&&&'&%": 587,
      "!\"": 588,
      "&$&&&&'": 589,
      "&)&%": 590,
      "'&&&&&&": 591,
      "*&&&'": 592,
      ",*": 593,
      "-$": 594,
      "(&&&%": 595,
      "%%&&%&": 596,
      "!*": 597,
      "+*": 598,
      "ėĀ": 599,
      "&'$": 600,
      "ĖĀ": 601,
      "&&%%": 602,
      "&&%%&&&&": 603,
      "%&&-": 604,
      "&&'&&&'&&&&": 605,
      ")ĀĀ": 606,
      ",$": 607,
      "&&'&%&&&&": 608,
      "&#&%": 609,
      "\"&&+": 610,
      ")ğ": 611,
      "&&$&&&%": 612,
      "Ġ-": 613,
      "&(&(": 614,
      ",+": 615,
      "%&&ğ": 616,
      "&&%&&&$": 617,
      "Ġ&*": 618,
      "&&%&%&&&&": 619,
      "&$$": 620,
      "%&&&%&%": 621,
      "\"+": 622,
      "'ğ": 623,
      "&&'&&)": 624,
      "&(&&&&%": 625,
      "&&$&&(": 626,
      "'&&&$": 627,
      "'&&&&&&&&": 628,
      "(&&&'&": 629,
      "!!": 630,
      "&ę": 631,
      "&&-": 632,
      "&%)": 633,
      "#&&,": 634,
      "&&Ğ": 635,
      "'&&-": 636,
      "(,": 637,
      "*!": 638,
      "Ġğ": 639,
      "'&&&&&'": 640,
      "&&'&ğ": 641,
      "'&&&'&'": 642,
      "%&&&%&'": 643,
      "&&%&&&%&&&&": 644,
      "'-": 645,
      "&&(&&$": 646,
      "$&&-": 647,
      "\"&&&$": 648,
      "''&&'&": 649,
      "#,": 650,
      "),": 651,
      "&&%&&#": 652,
      "$&&&'": 653,
      "$Ğ": 654,
      "(ğ": 655,
      "*,": 656,
      "Ġ,": 657,
      "%&&&&&&&&": 658,
      "$(&&&&": 659,
      "&((": 660,
      "Ġ&#": 661,
      "&(&&&&'": 662,
      "&$(": 663,
      "'&&&&&%": 664,
      "&'&&&&&": 665,
      "&&'&,": 666,
      "%#&&&&": 667,
      "(ĀĀ": 668,
      "ĕĀ": 669,
      "&($": 670,
      "&&%&-": 671,
      "\"&&!": 672,
      "\"&&&%": 673,
      "$&&&%&": 674,
      "&')": 675,
      "&&)&+": 676,
      "&&%&&)": 677,
      "%ğ": 678,
      "'#&&&&": 679,
      "+\"": 680,
      "&&(&&&'": 681,
      "%&&&&&%": 682,
      "&'&&&&(": 683,
      "*&&+": 684,
      "%'&&%&'": 685,
      "$ğ": 686,
      "&$&&&&%": 687,
      "&&(&,": 688,
      "&()": 689,
      "&$#": 690,
      "%&&&&&'": 691,
      "&&&%&'": 692,
      "Ā-": 693,
      "&'&&%&": 694,
      "&'&&&&$": 695,
      ")&&,": 696,
      "%-": 697,
      "&&&&$": 698,
      "ĀĀĘĀ": 699,
      "&#'": 700,
      "&%&&&&&": 701,
      "$&&ğ": 702,
      ")&&&(": 703,
      "!+": 704,
      "ĔĀ": 705,
      "&'*": 706,
      "&&%'&&&&": 707,
      "&#&": 708,
      "&#&$": 709,
      "'&&ğ": 710,
      "Ġ&&\"": 711,
      "&&.": 712,
      "&%&&'&": 713,
      "&&)&!": 714,
      "&%&&&&(": 715,
      "(&&&&&": 716,
      "')&&&&": 717,
      ")-": 718,
      "ğ$": 719,
      "ĠĞ": 720,
      "&(*": 721,
      "&)&'": 722,
      ",\"": 723,
      "Ā.": 724,
      "Ġ&&*": 725,
      "%&&.": 726,
      "(&&ğ": 727,
      "(&&&&'": 728,
      "'%&&'&'": 729,
      "#-": 730,
      "(-": 731,
      "(.": 732,
      ").": 733,
      "%&&Ğ": 734,
      "&'&&&&&&'": 735,
      "&&'&&&%&&&&": 736,
      "\"ğ": 737,
      ")&&ğ": 738,
      "$&&&&%": 739,
      "#ĀĀ": 740,
      ")'&&&&": 741,
      "++": 742,
      "ğ\"": 743,
      "Ğ$": 744,
      "!&&+": 745,
      "'.": 746,
      "'ĀĀ": 747,
      "&'&&'&": 748,
      "&&(%": 749,
      "&&#&!": 750,
      "#&&-": 751,
      "*&&&)": 752,
      "&&&%&%": 753,
      "&&%&&&'&&&&": 754,
      ":Ā": 755,
      "ğ*": 756,
      "&(#": 757,
      "(&&-": 758,
      ")&&&)": 759,
      "''%&&&&": 760,
      "\"-": 761,
      "%Ğ": 762,
      "Ě&&": 763,
      "&&'%&&&&": 764,
      "&)$": 765,
      "'%&&'&%": 766,
      "!-": 767,
      "%.": 768,
      "%&&%&": 769,
      "+!": 770,
      "&)'": 771,
      "(&&&)": 772,
      "!&&!": 773,
      ";Ā": 774,
      "&%&&%&": 775,
      "&%$&&&&": 776,
      "&&''&&&&": 777,
      "&%&&&&$": 778,
      "(&&.": 779,
      "&!&&&&": 780,
      "(&&&&%": 781,
      "%%&&%&'": 782,
      "&&'&&&(": 783,
      "-*": 784,
      "&&&$": 785,
      "&)(": 786,
      "&#&(": 787,
      "&&'&&&$": 788,
      "\",": 789,
      "#%&&&&": 790,
      "Ğ(": 791,
      "ğ'": 792,
      "%)&&&&": 793,
      ",,": 794,
      "&'&%&&&&": 795,
      "ĀĀėĀ": 796,
      "'&&.": 797,
      "(&&&*": 798,
      "&+&&&&": 799,
      "#&&ğ": 800,
      "%&&)&%": 801,
      "%&&#&%": 802,
      "#ğ": 803,
      "ēĀ": 804,
      "ĝ$": 805,
      "Ğ\"": 806,
      "Ġ&\"": 807,
      "&)%": 808,
      "&&#&,": 809,
      "#.": 810,
      "Ġ&+": 811,
      "*&&&*": 812,
      "'&&#&%": 813,
      "!.": 814,
      "&Ę": 815,
      "*-": 816,
      "&&#'": 817,
      "(&&Ğ": 818,
      "&&$&.": 819,
      "%ĀĀ": 820,
      "Ġĝ": 821,
      "&&%$": 822,
      "&&$'": 823,
      "&\"&'": 824,
      "'''&&&&": 825,
      "!ĀĀ": 826,
      "'&&'&": 827,
      ")%&&&&": 828,
      "*.": 829,
      "Ġ.": 830,
      "Ġ&,": 831,
      "&&&(": 832,
      "''&&'&'": 833,
      "&&*&%": 834,
      "$.": 835,
      "ĠĀĀ": 836,
      "$&&.": 837,
      ")&&-": 838,
      "*&&&(": 839,
      "&&(&ğ": 840,
      "&&\"&%": 841,
      "(%&&'&": 842,
      "'&&#&'": 843,
      "\"ĝ": 844,
      "$-": 845,
      "%&&'&'": 846,
      "(Ğ": 847,
      ")/": 848,
      "ğ#": 849,
      "&&%&'&&&&": 850,
      "'&&Ğ": 851,
      "#&&&'": 852,
      "$&&&&'": 853,
      "%'&&%&%": 854,
      "''&&'&%": 855,
      "'Ğ": 856,
      "&&ĝ": 857,
      "&&&&(": 858,
      "&%*": 859,
      "&&('": 860,
      "%&&&(": 861,
      "'&&&'&$": 862,
      "!,": 863,
      "/+": 864,
      "00": 865,
      "&&&'&%": 866,
      "('&&'&": 867,
      "+&&!": 868,
      "Ġ&&!": 869,
      "&&'&&&'&": 870,
      "\"Ğ": 871,
      "#'&&&&": 872,
      "%&&%&'": 873,
      "Ā'": 874,
      "Ā(": 875,
      "&%&&'&%": 876,
      "&&'&&#": 877,
      "&$*": 878,
      "&$&$": 879,
      "&#(": 880,
      "&&)&&&&": 881,
      "%'%&&&&": 882,
      "%''&&&&": 883,
      "\"&&ğ": 884,
      "\"ĀĀ": 885,
      "#$&&&&": 886,
      "%&&%&%": 887,
      "Ā%": 888,
      "(&&&'&'": 889,
      "+,": 890,
      "-.": 891,
      "&$&&%&": 892,
      "&&$&&#": 893,
      "&#%": 894,
      "%&&ĝ": 895,
      "$&&&#": 896,
      "$&&&\"": 897,
      "#&&&#": 898,
      "*&&,": 899,
      "\"&&,": 900,
      "\"&&-": 901,
      "!&&,": 902,
      "&$&&&&(": 903,
      "%&&&'&": 904,
      "-+": 905,
      "ğ!": 906,
      "Ġ/": 907,
      "Ġ0": 908,
      "&&'(": 909,
      "&&'&'&&&&": 910,
      "&&%(": 911,
      "&$&(": 912,
      "'&&&*": 913,
      "&&)&,": 914,
      "&%&&&&&&&&&&&&": 915,
      "\"&&&#": 916,
      "%%&&%&(": 917,
      "ĝ%": 918,
      "&'\"": 919,
      "&%\"": 920,
      "&&%&Ğ": 921,
      "$'&&%&'": 922,
      "$&&&%&'": 923,
      "%&&\"&'": 924,
      "$&&'&%": 925,
      "%\"&&&&": 926,
      "*Ğ": 927,
      "+-": 928,
      ".(": 929,
      "Ā$": 930,
      "&&/": 931,
      "ĀĀĕĀ": 932,
      "&#$": 933,
      "'&&&&&(": 934,
      ")&&&%": 935,
      "&&&&'&": 936,
      "(%&&'&%": 937,
      "(&&&'&%": 938,
      "'&&&%&": 939,
      "!ğ": 940,
      "()&&&&": 941,
      "/*": 942,
      "Ā#": 943,
      "ĝ#": 944,
      "&)&$": 945,
      "&#*": 946,
      "&&%&%&'": 947,
      "%%%&&&&": 948,
      "%%'&&&&": 949,
      "&&&'&'": 950,
      "&&(&Ğ": 951,
      "%&&#&'": 952,
      "&%&&&&'&": 953,
      "%&&'&%": 954,
      "+.": 955,
      "-)": 956,
      "--": 957,
      "&&&&&&": 958,
      "&&$&&)": 959,
      "&'&&&&&&&&&&&&": 960,
      "&&'&Ğ": 961,
      "&&%&.": 962,
      "*&&-": 963,
      "'%%&&&&": 964,
      "%&&)&'": 965,
      "'&&&(&": 966,
      "#Ğ": 967,
      "&ė": 968,
      "ĝ\"": 969,
      "Ġě": 970,
      "&%&&'&'": 971,
      "&&'&&'&&&&": 972,
      "&$)": 973,
      "*&&ğ": 974,
      "%''": 975,
      "(%&&'&'": 976,
      "%%&&&&'": 977,
      "$ĀĀ": 978,
      "$)&&&&": 979,
      "Ġ&-": 980,
      "&\"%": 981,
      "%'&&%&(": 982,
      "'%&&'&(": 983,
      "!&&-": 984,
      "$%&&%&%": 985,
      "$'&&%&": 986,
      "+&&,": 987,
      "Ġ&&+": 988,
      "$&&&%&%": 989,
      "&&%&&%'": 990,
      "&&$&&&$": 991,
      "\".": 992,
      "'ĝ": 993,
      "(/": 994,
      "<Ā": 995,
      "Ĝ&": 996,
      "Ġ&!": 997,
      "%&&&\"": 998,
      "%&&&&&&&&&&&&": 999,
      "&&#&&&&": 1000,
      "&&#&-": 1001,
      "&&)&-": 1002,
      "$&&Ğ": 1003,
      "$&&&&&": 1004,
      "(&&&&&%": 1005,
      "'''": 1006,
      "%%&&%&%": 1007,
      "&&(&-": 1008,
      "'&&&'&(": 1009,
      "'&&#&": 1010,
      "'&&)&": 1011,
      "&%%&&&&&": 1012,
      "'*&&&&": 1013,
      "*/": 1014,
      "*ğ": 1015,
      "ę&&": 1016,
      "&'&$": 1017,
      "&$&)": 1018,
      "&))": 1019,
      "%&&/": 1020,
      "'&&/": 1021,
      "&\"(": 1022,
      "\"&&&\"": 1023,
      "&&%&&&(": 1024,
      ",&&!": 1025,
      "&&'&&''": 1026,
      "$&&%&%": 1027,
      "$#&&&&": 1028,
      "'/": 1029,
      "(ĝ": 1030,
      "(&&'&": 1031,
      "(#&&&&": 1032,
      ",-": 1033,
      "ĀĞ": 1034,
      "Ĝ#": 1035,
      "&&(&&)": 1036,
      "&##": 1037,
      "&*$": 1038,
      "&\"#": 1039,
      "&%&&&&&&%": 1040,
      ")&&&*": 1041,
      "$%&&%&'": 1042,
      "&$&&&&$": 1043,
      "(&&'&'": 1044,
      "Ğ&": 1045,
      "&'&&'&%": 1046,
      "&&%&&'&&&&": 1047,
      "ĀĀĖĀ": 1048,
      "&&(&&&%": 1049,
      "&)\"": 1050,
      "'&&ĝ": 1051,
      "%&&&&&(": 1052,
      "$&&/": 1053,
      "(&&ĝ": 1054,
      "!&&&\"": 1055,
      "('&&'&'": 1056,
      "'&&)&$": 1057,
      "(&&&(&": 1058,
      "$/": 1059,
      "$&&'&'": 1060,
      "%/": 1061,
      ")ĝ": 1062,
      ")Ğ": 1063,
      "Ĝ$": 1064,
      "ğ-": 1065,
      "ğ.": 1066,
      "Ġ1": 1067,
      "$&&ĝ": 1068,
      "&&*&'": 1069,
      "+&&&(": 1070,
      "!Ğ": 1071,
      "%ĝ": 1072,
      "Ā*": 1073,
      "Ā,": 1074,
      "ĝ!": 1075,
      "&'$&&&&": 1076,
      "&'&&%&'": 1077,
      "&'&&%&%": 1078,
      "&%!": 1079,
      "&&'&&\"": 1080,
      "&&%&&%&&&&": 1081,
      "&(!": 1082,
      "&(\"": 1083,
      "&(+": 1084,
      "&(&&%&": 1085,
      "&$!": 1086,
      "&$+": 1087,
      "&&$&&&&&&&&": 1088,
      "&)*": 1089,
      "&#&&&&%": 1090,
      "%&&&#": 1091,
      "&&*&": 1092,
      "&&*&\"": 1093,
      "$%&&%&": 1094,
      "&&'&&%'": 1095,
      "&'&&&&%&": 1096,
      "$&&'&": 1097,
      "'\"&&&&": 1098,
      ",ĀĀ$Ā": 1099,
      "&'+": 1100,
      "&%&%&&&&": 1101,
      "&%&&%&%": 1102,
      "&$\"": 1103,
      "&#\"": 1104,
      "&&)&ğ": 1105,
      "&&'&-": 1106,
      "\"&&&!": 1107,
      "&&\"&": 1108,
      "+&&+": 1109,
      ",&&+": 1110,
      "(&&%&'": 1111,
      "ĒĀ": 1112,
      "Ğ*": 1113,
      "ğ&&&&": 1114,
      "&'&(": 1115,
      "&'(&&&&": 1116,
      "&%+": 1117,
      "&&%&'&&&&&&": 1118,
      "&&$&&&'": 1119,
      "'&&&&&&&&&&&&": 1120,
      "&*'": 1121,
      "&&#&.": 1122,
      "'%&&'&$": 1123,
      "!&&ğ": 1124,
      "%&&)&$": 1125,
      "&&'&&%%&&&&": 1126,
      "&&%&&''": 1127,
      "&&&&&&&&&&&&&&": 1128,
      "&&&&&&&&&&&&&&&": 1129,
      "&'&&&&'&": 1130,
      "..": 1131,
      ">Ā": 1132,
      "Ğ#": 1133,
      "Ġ&&%&'": 1134,
      "&%&'&&&&": 1135,
      "&)+": 1136,
      "#&&.": 1137,
      "\"&&.": 1138,
      "'%'&&&&": 1139,
      "&&(&.": 1140,
      "&&\"&'": 1141,
      "+&&&)": 1142,
      "'&&)&'": 1143,
      "&&(&&&(": 1144,
      "&&%&&&%&": 1145,
      "-ĀĀ%Ā": 1146,
      "/)": 1147,
      "ğĀĀ": 1148,
      "&%,": 1149,
      "&%&&": 1150,
      "&&'&&*": 1151,
      "&&'&&%&&&&": 1152,
      "&)#": 1153,
      "&#)": 1154,
      "'&&&&(": 1155,
      "&%&&&&&&'": 1156,
      ")&&.": 1157,
      ")&&Ğ": 1158,
      "&&'&%&'&&&&": 1159,
      "%%&&%&$": 1160,
      "!&&&$": 1161,
      "&&&&%&'": 1162,
      "&&$&-": 1163,
      "&&$&ğ": 1164,
      "&&*&#": 1165,
      "Ġ&&,": 1166,
      "&&%&&%%": 1167,
      "&'%&&&&&": 1168,
      "$&&%&'": 1169,
      "(&&%&%": 1170,
      ")$&&&&": 1171,
      "+/": 1172,
      ",ĀĀ'Ā": 1173,
      ".&&&&": 1174,
      ".ĀĀ%Ā": 1175,
      "10": 1176,
      "Ĝ\"": 1177,
      "Ğ'": 1178,
      "Ğ)": 1179,
      "ĀĀ:Ā": 1180,
      "&&(&&&&&&&&": 1181,
      "'&&&&&$": 1182,
      "&*#": 1183,
      "&*(": 1184,
      "&&#&ğ": 1185,
      "(&&/": 1186,
      "&&'&'&%&&&&": 1187,
      "%%&&'&": 1188,
      "!&&&#": 1189,
      "$'&&%&%": 1190,
      "%&&&%&(": 1191,
      "%(&&%&'": 1192,
      "&&'&&&)": 1193,
      "%&&)&": 1194,
      "%&&#&": 1195,
      "&&%&&%%&&&&": 1196,
      "&&'&&'%&&&&": 1197,
      "$ĝ": 1198,
      "(&": 1199,
      "-#": 1200,
      "/,": 1201,
      "ĝ'": 1202,
      "&%&&%&'": 1203,
      "&(&&'&%": 1204,
      "&$&&'&": 1205,
      "&&$%": 1206,
      "&\"$": 1207,
      "#&&Ğ": 1208,
      "%'(&&&&": 1209,
      "&&&&%&": 1210,
      "&&%&&'%": 1211,
      "&&%&&''&&&&": 1212,
      "&%&&&&%&": 1213,
      "&'&&&&&&&&&&&": 1214,
      "-ĀĀ'Ā": 1215,
      "/'": 1216,
      "Ĝ(": 1217,
      "ğ,": 1218,
      "ğ/": 1219,
      "&(ğ": 1220,
      "&(&&": 1221,
      "&&(&&#": 1222,
      "&#&&&&'": 1223,
      "'&&Ĝ": 1224,
      "&*%": 1225,
      "&*+": 1226,
      "&\"'": 1227,
      "'%&&%&": 1228,
      "'%&&(&%": 1229,
      "&&&&%&%": 1230,
      "&&\"&$": 1231,
      "&&\"&)": 1232,
      "&&*&(": 1233,
      "%$&&%&'": 1234,
      "''&&&&%": 1235,
      "%&&#&$": 1236,
      "'&&)&%": 1237,
      "%&&&$&": 1238,
      "$&&&$&": 1239,
      "(Ĝ": 1240,
      "-%": 1241,
      "/ĀĀ'Ā": 1242,
      "Ā\"": 1243,
      "Ĝ!": 1244,
      "Ġ%&&": 1245,
      "&%(&&&&": 1246,
      "&**": 1247,
      "&\"\"": 1248,
      "&'&&&&#": 1249,
      "&'&&&&&&%": 1250,
      "&&'&.": 1251,
      "#&&&\"": 1252,
      ")&&/": 1253,
      ")&&ĝ": 1254,
      "$&&&&&%": 1255,
      "*&&/": 1256,
      "''&&'&$": 1257,
      "&,&&&&": 1258,
      "&&(&ĝ": 1259,
      "&&$&/": 1260,
      "%&&&%&$": 1261,
      "+&&ğ": 1262,
      "%&&)&(": 1263,
      "'&&#&$": 1264,
      "%&&&'&%": 1265,
      "&ĀĀ$Ā": 1266,
      "(&&%&": 1267,
      "Ā)": 1268,
      "ĝ+": 1269,
      "Ğ&&&&": 1270,
      "&'&&'&'": 1271,
      "'&&&&&&'": 1272,
      "&\"*": 1273,
      "&&#&&%": 1274,
      "%'&&%&$": 1275,
      "''&&%&": 1276,
      "''&&(&": 1277,
      "%%%": 1278,
      "&&&%&(": 1279,
      "('&&'&%": 1280,
      "&&%&&&&&&": 1281,
      "+&&-": 1282,
      "'(&&'&": 1283,
      ",&&,": 1284,
      "'&&#&(": 1285,
      "&&%&&'%&&&&": 1286,
      "'&&\"&'": 1287,
      ",.": 1288,
      "-\"": 1289,
      ".ĀĀ'Ā": 1290,
      "/ĀĀ%Ā": 1291,
      "20": 1292,
      "Ğ%": 1293,
      "&'!": 1294,
      "&'&'&&&&": 1295,
      "&%&(": 1296,
      "&&'$": 1297,
      "ĀĀĔĀ": 1298,
      "ĀĀ;Ā": 1299,
      "ĀĀēĀ": 1300,
      "&$,": 1301,
      "&$%&&&&": 1302,
      "&)&&&&%": 1303,
      "'&&&&$": 1304,
      "&&%&ğ": 1305,
      "#&&/": 1306,
      "%'%": 1307,
      "%'&&'&": 1308,
      "''&&(&%": 1309,
      "''&&(&'": 1310,
      "&&*&$": 1311,
      "(%&&'&$": 1312,
      "$%&&$&'": 1313,
      "&&'&&&&&&": 1314,
      "'(&&'&'": 1315,
      "&%&&&&&&&&&&&": 1316,
      "&ĀĀ%Ā": 1317,
      ")&&%&'": 1318,
      ",ĀĀ&Ā": 1319,
      "-ĀĀ&Ā": 1320,
      "/ĀĀ&Ā": 1321,
      "=Ā": 1322,
      "Ā!": 1323,
      "đĀ": 1324,
      "ě&": 1325,
      "&&&&&&&": 1326,
      "#&&&!": 1327,
      "*&&ĝ": 1328,
      "\"&&/": 1329,
      "''%": 1330,
      "&&\"&(": 1331,
      "(%&&(&": 1332,
      "$'&&$&'": 1333,
      "%%&&&&&": 1334,
      "'&&#&)": 1335,
      "&&'&&%'&&&&": 1336,
      ")&&&'&": 1337,
      "(&&'&%": 1338,
      ")(&&&&": 1339,
      ",ğ": 1340,
      ".#": 1341,
      ".$": 1342,
      ".+": 1343,
      "/$": 1344,
      "ĐĀ": 1345,
      "ĝ,": 1346,
      "ğ+": 1347,
      "&%''&&&&": 1348,
      "&&'&%&&&&&&": 1349,
      "&$&&": 1350,
      "&&($": 1351,
      "&*&%": 1352,
      "&'&&&&)": 1353,
      "(&&Ĝ": 1354,
      "&+%": 1355,
      "&+)": 1356,
      "*&&.": 1357,
      "*&&Ğ": 1358,
      "%'&&$&'": 1359,
      "''&&%&%": 1360,
      "%%&&'&'": 1361,
      "&&$&Ğ": 1362,
      "ĀĀ&Ā#": 1363,
      "%(&&%&": 1364,
      "'$&&'&%": 1365,
      "''&&&&&": 1366,
      "'%&&&&%": 1367,
      "(&&&'&$": 1368,
      "&&'&&%%": 1369,
      "ğ&&,": 1370,
      "%&&&$&'": 1371,
      "#&&&&%": 1372,
      "*ĀĀ&Ā": 1373,
      ",!": 1374,
      "-ĀĀ$Ā": 1375,
      "11": 1376,
      "?Ā": 1377,
      "ě!": 1378,
      "&''&&&&&": 1379,
      "&'&&&'&": 1380,
      "&(&&'&'": 1381,
      "&(&&%&%": 1382,
      "%&&&&$": 1383,
      "$&&Ĝ": 1384,
      "(&&&$": 1385,
      "&&%&/": 1386,
      "&+(": 1387,
      "&+&'": 1388,
      "('&&'&$": 1389,
      "'(&&'&%": 1390,
      "Ġ&&Ğ": 1391,
      "%%&&&&%": 1392,
      "%'&&&&'": 1393,
      "/-": 1394,
      "@Ā": 1395,
      "ĝ(": 1396,
      "Ğ!": 1397,
      "Ğ+": 1398,
      "Ğ,": 1399,
      "ğğ": 1400,
      "ĠĚ": 1401,
      "Ġ&&&&'": 1402,
      "Ġ,&&": 1403,
      "&&&&#": 1404,
      "&'&": 1405,
      "&&%&&\"": 1406,
      "&(,": 1407,
      "&)!": 1408,
      "&)&": 1409,
      "&#+": 1410,
      "&\")": 1411,
      "&&)&&)": 1412,
      "#&&ĝ": 1413,
      "%'&&$&": 1414,
      "!&&Ğ": 1415,
      "&&$&%&'": 1416,
      "(%&&(&%": 1417,
      "(%&&(&'": 1418,
      "$'&&$&": 1419,
      "''&&&&'": 1420,
      "%'&&&&&": 1421,
      "%&&)&#": 1422,
      "'%&&&&'": 1423,
      "'&&&%&%": 1424,
      "'&&&(&'": 1425,
      "#&&&%&": 1426,
      "$&&%&": 1427,
      "-ĀĀ#Ā": 1428,
      ".*": 1429,
      ".-": 1430,
      ".ĀĀ&Ā": 1431,
      "01": 1432,
      "ĝĀĀ": 1433,
      "ĠĜ": 1434,
      "Ġ(&&": 1435,
      "&'''&&&&": 1436,
      "&&%&&*": 1437,
      "&$&&'&%": 1438,
      "&)&(": 1439,
      "&)&&&&'": 1440,
      "&#!": 1441,
      "'&&&#": 1442,
      "'&&&&&&%": 1443,
      "&*&'": 1444,
      "&&)&&'": 1445,
      "$&&&(": 1446,
      "&+*": 1447,
      "&!!": 1448,
      "&!$": 1449,
      "&&&&&&&&&&&": 1450,
      "(&&&&(": 1451,
      "%&&&%&#": 1452,
      "'$&&'&": 1453,
      "%$&&%&": 1454,
      "&&%&&&#": 1455,
      "ğ&&ğ": 1456,
      "%&&*&%": 1457,
      "!ĝ": 1458,
      "##&&&&": 1459,
      "$&%": 1460,
      "%*&&&&": 1461,
      "&Ė": 1462,
      "'Ĝ": 1463,
      ")&&&&%": 1464,
      "))&&&&": 1465,
      "+ĀĀ$Ā": 1466,
      ".)": 1467,
      "ě%": 1468,
      "Ġ2": 1469,
      "&&((": 1470,
      "&)&&": 1471,
      "%&&&&(": 1472,
      "&&)&Ğ": 1473,
      "&!#": 1474,
      "&!(": 1475,
      "%'&&'&'": 1476,
      "%'&&$&%": 1477,
      "'%&&(&": 1478,
      "'%&&(&'": 1479,
      "('%&&&&": 1480,
      "(%&&'&(": 1481,
      "$%&&%&$": 1482,
      "%$&&%&%": 1483,
      "($&&'&'": 1484,
      ",&&-": 1485,
      "'&&)&(": 1486,
      "(&&&(&%": 1487,
      "#/": 1488,
      "(*&&&&": 1489,
      "-!": 1490,
      "Ĝ)": 1491,
      "ĝ)": 1492,
      "Ġ'&&": 1493,
      "Ġ&.": 1494,
      "&&&&\"": 1495,
      "&&'&'&&&&&&": 1496,
      "&#&&'&%": 1497,
      "&*!": 1498,
      "&%&&&&#": 1499,
      "&+$": 1500,
      "&++": 1501,
      "&+&%": 1502,
      "&!'": 1503,
      "&!&%": 1504,
      "&!&(": 1505,
      "$&&&&(": 1506,
      "%%$&&&&": 1507,
      "%%&&$&'": 1508,
      "'%&&%&'": 1509,
      "$%'&&&&": 1510,
      "$'&&%&(": 1511,
      "ĀĀ%Ā!": 1512,
      "'$&&'&'": 1513,
      "Ġ&&.": 1514,
      "((&&'&": 1515,
      ",&&ğ": 1516,
      "%&&#&(": 1517,
      "%&&#&)": 1518,
      "'&&)&#": 1519,
      "$&&&%&(": 1520,
      "&&%&&'&&&'": 1521,
      "%&&*&$": 1522,
      "'&&&%&'": 1523,
      "(&&\"&%": 1524,
      "&&&&&&&&&&&&&": 1525,
      "#ĝ": 1526,
      "#&&'&%": 1527,
      "$&'&&&&": 1528,
      "&ĀĀ)Ā": 1529,
      ")ě": 1530,
      ")&&'&%": 1531,
      ",ĀĀ#Ā": 1532,
      "-ğ": 1533,
      ".'": 1534,
      ".ĀĀ#Ā": 1535,
      "/(": 1536,
      "ĚĀĀ": 1537,
      "Ġ$&&": 1538,
      "Ġ&&(&%": 1539,
      "&&Ĝ": 1540,
      "&'&&": 1541,
      "&%&&&%": 1542,
      "&(&&'&": 1543,
      "&(&&%&'": 1544,
      "&$&&%&'": 1545,
      "&&$$": 1546,
      "&)&#": 1547,
      "%&&&&&$": 1548,
      "&&)&&%": 1549,
      "&%&&&&&&%&&&&": 1550,
      "#&&Ĝ": 1551,
      "#&&&%&%": 1552,
      ")&&Ĝ": 1553,
      "$&&&&&(": 1554,
      "(&&&&&(": 1555,
      "%'&&%&)": 1556,
      "\"&&Ğ": 1557,
      "&,#": 1558,
      "'%&&%&%": 1559,
      "!&&ĝ": 1560,
      "&&\"&*": 1561,
      "&&'&&&(&&&&": 1562,
      "Ġ&&ğ": 1563,
      "&$&&&&&&": 1564,
      ",&&&(": 1565,
      "$$&&%&'": 1566,
      "'%&&&&&": 1567,
      "#'&&$&%": 1568,
      "&&&ĝ": 1569,
      "&&+&": 1570,
      ")%&&'&'": 1571,
      "%&&\"&%": 1572,
      "%&&*&": 1573,
      "\"/": 1574,
      "#&&%&": 1575,
      "#&&'&'": 1576,
      "$&": 1577,
      "'&&'&%": 1578,
      "'!&&&&": 1579,
      ",Ğ": 1580,
      "-,": 1581,
      "Ĝ,": 1582,
      "ĜĜ": 1583,
      "ĜĀĀ": 1584,
      "ĞĞ": 1585,
      "Ġ&&'&%": 1586,
      "Ġ&/": 1587,
      "&&&*": 1588,
      "&%&$": 1589,
      "&&%&%&&&&%": 1590,
      "&$&&'&'": 1591,
      "%&&&*": 1592,
      "%&&&%&&&&": 1593,
      "'&&&&)": 1594,
      "&\"!": 1595,
      "&&#&&#": 1596,
      "(&&&+": 1597,
      "&+!": 1598,
      "#&&&": 1599,
      "&!%": 1600,
      "''&&%&'": 1601,
      "$%&&%&(": 1602,
      "$%&&$&%": 1603,
      "#&&&&$": 1604,
      "#&&&&(": 1605,
      "+&&ĝ": 1606,
      "+&&&*": 1607,
      "%(&&%&%": 1608,
      "&&'&&&$&&&&": 1609,
      "Ġ&&&\"": 1610,
      "&&%&&&(&&&&": 1611,
      "$(&&%&%": 1612,
      "#'&&%&%": 1613,
      ")%&&'&": 1614,
      "&&'&&'%": 1615,
      "&&'&&''&&&&": 1616,
      "ğ&&-": 1617,
      "'&&\"&(": 1618,
      "$&&*&'": 1619,
      "$&&&$&'": 1620,
      ")&&\"&'": 1621,
      "&&(&&'%": 1622,
      "#Ĝ": 1623,
      "#(&&&&": 1624,
      ",ĀĀ%Ā": 1625,
      "-ĀĀ(Ā": 1626,
      ".ĀĀ$Ā": 1627,
      "ďĀ": 1628,
      "Ę&&": 1629,
      "ě)": 1630,
      "ěĀĀ": 1631,
      "ĞĀĀ": 1632,
      "Ġ&&'&'": 1633,
      "&'&&%&(": 1634,
      "&&%&%&&&&&&": 1635,
      "&$&": 1636,
      "&&()": 1637,
      "&&(&&\"": 1638,
      "'&&ě": 1639,
      "'&&&'&&&&&&&&": 1640,
      "&\"ğ": 1641,
      "&+\"": 1642,
      "#&&&%&'": 1643,
      "$&&&&&'": 1644,
      "\"&&Ĝ": 1645,
      "\"&&&%&%": 1646,
      "&,*": 1647,
      "&&&'&(": 1648,
      "&&&&%&'&&&&": 1649,
      "&&&&'&%&&&&": 1650,
      "('&&(&": 1651,
      "$'&&$&%": 1652,
      "+&&.": 1653,
      "&&'&&&(&": 1654,
      "'(&&'&$": 1655,
      "&&%&&&$&&&&": 1656,
      "&(&&&&&&": 1657,
      "$$&&%&%": 1658,
      "&&!&'": 1659,
      "%&&*&(": 1660,
      "+Ğ": 1661,
      "+ğ": 1662,
      "+ĀĀ(Ā": 1663,
      "-/": 1664,
      ".%": 1665,
      "/%": 1666,
      "/ĀĀ(Ā": 1667,
      "Āğ": 1668,
      "ę&": 1669,
      "ě#": 1670,
      "ěğ": 1671,
      "ĝ*": 1672,
      "Ġ&&'&": 1673,
      "&%&": 1674,
      "&%-": 1675,
      "&%%%&&&&": 1676,
      "&&')": 1677,
      "&(&&'&(": 1678,
      "&$&&%&%": 1679,
      "&$&&'&$": 1680,
      "&)&)": 1681,
      "&#&*": 1682,
      "'&&&'&&&&": 1683,
      "%&&&&&&'": 1684,
      "%&&&&&)": 1685,
      "&*\"": 1686,
      "&+#": 1687,
      "(&&&&&'": 1688,
      "*&&ě": 1689,
      "''$&&&&": 1690,
      "'%&&(&$": 1691,
      "&&&&%&(": 1692,
      "&&*&&&&": 1693,
      "('&&'&(": 1694,
      "$'&&%&$": 1695,
      "ĀĀ$Ā#": 1696,
      "'(&&'&(": 1697,
      "Ġ&&ĝ": 1698,
      "&(&&&&(": 1699,
      "$(&&%&'": 1700,
      "&&&/": 1701,
      "$&&&%&$": 1702,
      "&&+&%": 1703,
      "'&&&%&$": 1704,
      "'&&*&$": 1705,
      "'&&&(&%": 1706,
      "$&&&$&%": 1707,
      "&ĀĀ(Ā": 1708,
      "'&&'&'": 1709,
      "'&&%&%": 1710,
      "(&&$&'": 1711,
      "(\"&&&&": 1712,
      ")%&&)": 1713,
      "+ĀĀ%Ā": 1714,
      "/ĀĀ!Ā": 1715,
      "05": 1716,
      "21": 1717,
      "Ĝ*": 1718,
      "ĝ.": 1719,
      "&%&&&%&": 1720,
      "&&'&&%&&&&&": 1721,
      "&#ğ": 1722,
      "&#&&'&": 1723,
      "&#&&%&%": 1724,
      "&*,": 1725,
      "&&#&&$": 1726,
      "&+&": 1727,
      "&!+": 1728,
      "&!&'": 1729,
      "(&&&&)": 1730,
      "&,+": 1731,
      "%%&&$&%": 1732,
      "&&(&Ĝ": 1733,
      "&&$&ĝ": 1734,
      "&&*&)": 1735,
      "%(&&%&(": 1736,
      "Ġ&&-": 1737,
      "($&&'&": 1738,
      "($&&'&%": 1739,
      "$$&&%&": 1740,
      "%)&&%&'": 1741,
      ")%&&'&%": 1742,
      "%&&&'&'": 1743,
      "%&&\"&$": 1744,
      "%&&*&'": 1745,
      "'&&*&": 1746,
      "$&&*&%": 1747,
      "&%&&&&'&'": 1748,
      "$'&&&&(": 1749,
      "%&&!&'": 1750,
      "$%&&#": 1751,
      "&ĀĀ#Ā": 1752,
      "(&&$&%": 1753,
      ")&&&&'": 1754,
      "*ĀĀ%Ā": 1755,
      "-Ĝ": 1756,
      ".ĀĀ(Ā": 1757,
      "/ĀĀ)Ā": 1758,
      "30": 1759,
      "ĘĀĀ": 1760,
      "Ě\"": 1761,
      "Ě#": 1762,
      "Ě(": 1763,
      "ě\"": 1764,
      "ě$": 1765,
      "Ġ)&&": 1766,
      "Ġ&&&&%": 1767,
      "&&ě": 1768,
      "&&&&*": 1769,
      "&(-": 1770,
      "&(&&'&$": 1771,
      "&&(&&*": 1772,
      "&&(&&%&&&%": 1773,
      "&&$&'&&&&": 1774,
      "%&&&&&&%": 1775,
      "&\"+": 1776,
      "&'&&&&&&%&&&&": 1777,
      "&%&&&&&'": 1778,
      "$&&&": 1779,
      "&+&#": 1780,
      "&!\"": 1781,
      "(&&&&&$": 1782,
      "''(&&&&": 1783,
      "''&&'&(": 1784,
      "''&&%&$": 1785,
      "&&&%&$": 1786,
      "('&&(&%": 1787,
      ")&&&&$": 1788,
      "+&&Ğ": 1789,
      "%(&&%&$": 1790,
      "''&&&&(": 1791,
      "%'&&&&%": 1792,
      "$$&&$&'": 1793,
      "%&&)&!": 1794,
      "'&&#&#": 1795,
      "(&&&'&(": 1796,
      "&&+&'": 1797,
      "&&%&&%'&&&&": 1798,
      "&'&&&&%&'": 1799,
      "$&&*&": 1800,
      "&#&&&&(": 1801,
      "(&&\"&(": 1802,
      ")&&&'&%": 1803,
      "&&(&&'$": 1804,
      "&&&&&&&&&&&&&&&&&&&&&&&&&&&&&&&&": 1805,
      "!Ĝ": 1806,
      "\"Ĝ": 1807,
      "\"&&%&'": 1808,
      "$Ĝ": 1809,
      "&ĕ": 1810,
      ")&&'&": 1811,
      "+ĀĀ&Ā": 1812,
      ".\"": 1813,
      "/ĀĀ$Ā": 1814,
      "13": 1815,
      "ęĀĀ": 1816,
      "ě'": 1817,
      "&&&&&&'": 1818,
      "&'&&'&$": 1819,
      "&%&&'&(": 1820,
      "&$&&%&$": 1821,
      "&$%(": 1822,
      "&&(&'&&&&": 1823,
      "&&$&&\"": 1824,
      "&)&&'&'": 1825,
      "%&&ě": 1826,
      "&&#&&(": 1827,
      "&&#&Ğ": 1828,
      "&&#&/": 1829,
      "&&)&ĝ": 1830,
      "&+&$": 1831,
      "&!*": 1832,
      "&&'&'&'&&&&": 1833,
      "%'&&'&%": 1834,
      "&,'": 1835,
      "%%&&'&%": 1836,
      "%%&&$&(": 1837,
      "'%$&&&&": 1838,
      "!&&.": 1839,
      "&&&&%&%&&&&": 1840,
      "&&&&'&(": 1841,
      "(%%&&&&": 1842,
      ")&&&&(": 1843,
      "'$&&'&$": 1844,
      "''&&&&$": 1845,
      "%%&&&&(": 1846,
      "((&&'&'": 1847,
      "ĀĀ\"Ā#": 1848,
      "'&&#&*": 1849,
      "'%&&&&$": 1850,
      "#'&&%&'": 1851,
      "'&&)&\"": 1852,
      "%#&&&&%": 1853,
      "&&!&": 1854,
      "&&!&%": 1855,
      "#%&&%&%": 1856,
      "'&&*&'": 1857,
      "'&&*&%": 1858,
      "%&&&$&%": 1859,
      "&)&&&&(": 1860,
      "%&&+&%": 1861,
      "'&&+&'": 1862,
      "&&%&&$%": 1863,
      "\"'&&&&": 1864,
      "#&&'&": 1865,
      "&ĀĀ\"Ā": 1866,
      "'Ě": 1867,
      ",&": 1868,
      ",ĀĀ(Ā": 1869,
      "-ĀĀ)Ā": 1870,
      ".ĀĀ)Ā": 1871,
      "/\"": 1872,
      "/&&&&": 1873,
      "12": 1874,
      "ě+": 1875,
      "Ĝ+": 1876,
      "ĝĝ": 1877,
      "Ġ5": 1878,
      "Ġ&&'&$": 1879,
      "Ġ&&$&%": 1880,
      "&&&&)": 1881,
      "&&&&&&%": 1882,
      "&''%&&&&": 1883,
      "&&'&&&&&&&&&&&&": 1884,
      "ĀĀ<Ā": 1885,
      "&$'&&&&": 1886,
      "&&(#": 1887,
      "&)ğ": 1888,
      "&)&&%&'": 1889,
      "%&&Ě": 1890,
      "'&&&&&)": 1891,
      "&&)&.": 1892,
      "(&&&#": 1893,
      "&&'&ĝ": 1894,
      "&+'": 1895,
      "&!)": 1896,
      ")&&&(&%": 1897,
      "\"&&ĝ": 1898,
      "&,\"": 1899,
      "&,$": 1900,
      "%%&&'&$": 1901,
      "&&&'&$": 1902,
      "!&&&": 1903,
      "&&&&'&'": 1904,
      "&&&&'&'&&&&": 1905,
      "&&\"&#": 1906,
      "&&\"&+": 1907,
      "&&*&*": 1908,
      "&&(&'&'": 1909,
      "$%&&$&": 1910,
      "#&&&&&(": 1911,
      "&ğ#": 1912,
      "&&%&&&&&&'&": 1913,
      "'$&&%&'": 1914,
      "'$&&(&'": 1915,
      "Ġ&&/": 1916,
      "%'&&&&(": 1917,
      "'&&)&*": 1918,
      "$)&&%&%": 1919,
      ")%&&'&$": 1920,
      "&&%&&%&&&%&": 1921,
      "&&(&&&$": 1922,
      "-&&.": 1923,
      "-&&ğ": 1924,
      "&&$&&&#": 1925,
      "'&&&%&(": 1926,
      "'&&\"&%": 1927,
      "&'%$&&&&": 1928,
      "(&&\"&": 1929,
      "'$&&&&'": 1930,
      "&&$&&%%": 1931,
      "#&&%&%": 1932,
      "$&&'&(": 1933,
      "%Ĝ": 1934,
      ")ĀĀ)Ā": 1935,
      "*ĝ": 1936,
      "*ĀĀ(Ā": 1937,
      "+ĝ": 1938,
      ".!": 1939,
      ".ğ": 1940,
      ".ĀĀ\"Ā": 1941,
      "/ğ": 1942,
      "/ĀĀ#Ā": 1943,
      "ę\"": 1944,
      "ĝ/": 1945,
      "Ğğ": 1946,
      "Ġ&&%&$": 1947,
      "Ġ&&$&'": 1948,
      "&&%&&%&&&&&": 1949,
      "&&%&&'&&&&&": 1950,
      "&('&&&&": 1951,
      "&$%&&": 1952,
      "&&(&%&&&&": 1953,
      "&&$&%&&&&": 1954,
      "&)&&%&%": 1955,
      "'&&Ě": 1956,
      "'&&&\"": 1957,
      "%&&&&&#": 1958,
      "&*&&": 1959,
      "&&#&&'": 1960,
      "&&)&&#": 1961,
      "$&&&!": 1962,
      "(&&Ě": 1963,
      "&+-": 1964,
      "#&&&$&%": 1965,
      ")&&&$": 1966,
      ")&&&(&": 1967,
      "*&&&+": 1968,
      "%'$&&&&": 1969,
      "''&&%&(": 1970,
      "%%(&&&&": 1971,
      "%%&&'&(": 1972,
      "%%&&$&": 1973,
      "('&&(&'": 1974,
      "('&&(&(": 1975,
      "(%&&%&'": 1976,
      "Ġ&&&!": 1977,
      "%$&&$&'": 1978,
      "($&&'&$": 1979,
      "((&&'&%": 1980,
      "%&&#&#": 1981,
      "#'&&$&'": 1982,
      "'&&)&)": 1983,
      "'#&&'&%": 1984,
      "&&+&(": 1985,
      "&&+&$": 1986,
      "&&%&&%$": 1987,
      "&&'&&%&&&%": 1988,
      "%&&\"&(": 1989,
      "%&&&$&(": 1990,
      "&&(&&&&&": 1991,
      "%&&+&'": 1992,
      ")&&&'&$": 1993,
      "(&&*&'": 1994,
      "#&&*&$": 1995,
      "&&%&&('": 1996,
      "'&&&&&&&&&&&": 1997,
      "\"&&'&%": 1998,
      "#&&'&$": 1999,
      "#&&(&%": 2000,
      "#\"&&&&": 2001,
      "$\"&&&&": 2002,
      "%&&(&%": 2003,
      "&ĀĀ'Ā": 2004,
      "'%&&": 2005,
      "(ę": 2006,
      "(&&'&(": 2007,
      "*ĀĀ'Ā": 2008,
      ",ĀĀ\"Ā": 2009,
      "24": 2010,
      "Ā/": 2011,
      "Ė&&": 2012,
      "ěĚ": 2013,
      "Ĝ%": 2014,
      "Ğ-": 2015,
      "Ġ3": 2016,
      "Ġ&&%&": 2017,
      "Ġ&&%&%": 2018,
      "Ġ&&&%": 2019,
      "Ġ&&%&(": 2020,
      "Ġ&&'&(": 2021,
      "&&&&&&&%": 2022,
      "&&%&'&&&&%": 2023,
      "&(Ğ": 2024,
      "&),": 2025,
      "&#&&": 2026,
      "'&&&&*": 2027,
      "&*)": 2028,
      "&*-": 2029,
      "&*ğ": 2030,
      "&\",": 2031,
      "&\"&%": 2032,
      "&&#&&)": 2033,
      "$&&&#&%": 2034,
      "#&&ě": 2035,
      ")&&&+": 2036,
      ")&&&-": 2037,
      "\"&&&": 2038,
      "&,.": 2039,
      "'%&&%&$": 2040,
      "&&(&/": 2041,
      "&&&&'&%": 2042,
      "('&&'&#": 2043,
      "&-\"": 2044,
      "'&&&'&#": 2045,
      "#&&&&&": 2046,
      "$'&&$&(": 2047,
      ")&&&&&%": 2048,
      "ĀĀ%Ā+": 2049,
      "&&%&&&%&&&&&&&&": 2050,
      "($&&(&%": 2051,
      "&(&&&&$": 2052,
      "$(&&%&(": 2053,
      "$(&&$&'": 2054,
      ",&&&*": 2055,
      "%&&)&)": 2056,
      "'%&&&&#": 2057,
      "'%&&&&(": 2058,
      "%&&#&*": 2059,
      "#'&&%&": 2060,
      "&&+&#": 2061,
      ")'&&'&": 2062,
      ")%&&(&$": 2063,
      "&&'&&'&&&'": 2064,
      "#%&&%&": 2065,
      "#%&&%&'": 2066,
      "$&&*&(": 2067,
      "$'&&&&'": 2068,
      "$&&\"&(": 2069,
      "&&'&&(%": 2070,
      "&&#&&&$": 2071,
      "&&(&&%'": 2072,
      "&&)&&&(": 2073,
      "%&&&&&&&&&&&": 2074,
      "%ě": 2075,
      "'&'&&&&": 2076,
      ")&&%&": 2077,
      ")&&%&%": 2078,
      "*ĀĀ#Ā": 2079,
      ",ĝ": 2080,
      "04": 2081,
      "22": 2082,
      "ę(": 2083,
      "Ě$": 2084,
      "Ěğ": 2085,
      "ě(": 2086,
      "ěĝ": 2087,
      "Ĝğ": 2088,
      "Ġ&&$&(": 2089,
      "&&&&!": 2090,
      "&&&&&&&'": 2091,
      "&'ğ": 2092,
      "&%%'": 2093,
      "&%&&$&%": 2094,
      "&&'&'&&&&'": 2095,
      "&&'%&&'&": 2096,
      "&&%&&$&&&&": 2097,
      "&(%&&&&": 2098,
      "&(&&%&(": 2099,
      "&)&&'&%": 2100,
      "&#&&%&": 2101,
      "%&&Ĝ": 2102,
      "%&&#&&": 2103,
      "&\"&(": 2104,
      "&&#&&&%": 2105,
      "&&)&&&'": 2106,
      "&'&&&&&'": 2107,
      "&%&&&&&%": 2108,
      "&%&&&&&&'&&&&": 2109,
      "$&&&'&%": 2110,
      "(&&ę": 2111,
      "(&&ě": 2112,
      "#&&&ğ": 2113,
      "$&&&&)": 2114,
      "$&&&&&)": 2115,
      "&&%&%&%": 2116,
      "*&&&": 2117,
      "\"&&&'": 2118,
      "!&&&!": 2119,
      "&&\"&!": 2120,
      "&&(&%&'": 2121,
      "(%&&'&)": 2122,
      "$%(&&&&": 2123,
      "'&&&'&)": 2124,
      "ĀĀ$Ā!": 2125,
      "ĀĀ$Ā*": 2126,
      "%(&&'&": 2127,
      "&&'&&&*": 2128,
      "&&'&&&'&&&&&&&&": 2129,
      "'$&&'&(": 2130,
      "ĀĀ'Ā!": 2131,
      "ĀĀ'Ā+": 2132,
      "$(&&%&$": 2133,
      ")'&&(&%": 2134,
      ")%&&(&%": 2135,
      "&&'&&'$": 2136,
      "&&'&&'&&&'&": 2137,
      "ĀĀ*Ā)": 2138,
      "#%&&$&'": 2139,
      "-&&-": 2140,
      "-&&&*": 2141,
      "%&&\"&": 2142,
      "$&&*&#": 2143,
      "(&&\"&'": 2144,
      "$&&\"&$": 2145,
      ".&&,": 2146,
      ")&&&'&'": 2147,
      "#&&\"&'": 2148,
      "#&&\"&%": 2149,
      "&&(&&''": 2150,
      "&&$&&%'": 2151,
      "&&(&&%%": 2152,
      "\"Ě": 2153,
      "\"&&'&$": 2154,
      "#&'": 2155,
      "$%&&": 2156,
      "$!&&&&": 2157,
      "&ĀĀ&Ā": 2158,
      "&ĀĀ!Ā": 2159,
      "'+&&&&": 2160,
      "(&&%&(": 2161,
      "(%&&)": 2162,
      ")ĀĀ(Ā": 2163,
      "+ĀĀ#Ā": 2164,
      ",ĀĀ!Ā": 2165,
      ",ĀĀ*Ā": 2166,
      ".Ğ": 2167,
      ".ĀĀ+Ā": 2168,
      "/ĀĀ+Ā": 2169,
      "02": 2170,
      "ė&&": 2171,
      "ě*": 2172,
      "ĜĘ": 2173,
      "ĝ-": 2174,
      "ğĞ": 2175,
      "Ġ4": 2176,
      "Ġ&&(&": 2177,
      "Ġ&ğ": 2178,
      "ĠĀĀ(Ā": 2179,
      "Ġ%&&!": 2180,
      "&',": 2181,
      "&'&&%&$": 2182,
      "&%&&%&(": 2183,
      "&&'&%&&&&'": 2184,
      "&&%#": 2185,
      "&$&%&&&&": 2186,
      "&&(&&'&&&'": 2187,
      "&&$%&&&&": 2188,
      "&&$&&%&&&&": 2189,
      "&&$&&'&&&'": 2190,
      "&).": 2191,
      "&)'%": 2192,
      "&#&&'&$": 2193,
      "%&&&%&&&&&&&&": 2194,
      "%&&&&)": 2195,
      "&\"&&": 2196,
      "&\"&&&&'": 2197,
      "&&#%": 2198,
      "&&)$": 2199,
      "$&&ě": 2200,
      "$&&&#&'": 2201,
      "&!&&": 2202,
      ")&&&(&'": 2203,
      "$&&&&#": 2204,
      "$&&&&&&": 2205,
      "&&%&'%": 2206,
      "*&&Ĝ": 2207,
      "*&&&%": 2208,
      "%'&&'&(": 2209,
      "''&&'&#": 2210,
      "''&&'&)": 2211,
      "'%&&'&#": 2212,
      "&&&&'&\"": 2213,
      "&&\"&\"": 2214,
      "&&*&!": 2215,
      "&&*&,": 2216,
      "$'&&%&)": 2217,
      "ĀĀ%Ā$": 2218,
      "&&%&&&&&&%&": 2219,
      "&&%&&&&&&%&&&&": 2220,
      "&&%&&&&&&'&&&&": 2221,
      "+&&/": 2222,
      "%(&&$&'": 2223,
      "Ġ&&&$": 2224,
      "%$&&'&'": 2225,
      "&(&&&&)": 2226,
      "&(&&&&&&%": 2227,
      "ĀĀ)Ā\"": 2228,
      "%)&&%&%": 2229,
      ")'&&'&'": 2230,
      ")'&&'&$": 2231,
      ")%&&'&(": 2232,
      "(#&&'&'": 2233,
      "(#&&(&'": 2234,
      "&&'&&'(": 2235,
      "&&'&&%$": 2236,
      "&&%&&'&&&'&": 2237,
      "#$&&%&'": 2238,
      "$#&&%&%": 2239,
      "&&(&&&%&&&&": 2240,
      "-&&,": 2241,
      "%&&&'&(": 2242,
      "%&&*&#": 2243,
      "'&&*&\"": 2244,
      "&'&&&&%&%": 2245,
      "Ğ&&,": 2246,
      "(&&&(&'": 2247,
      "&&%&&&%&'": 2248,
      "$&&\"&'": 2249,
      "$&&\"&%": 2250,
      "ĝ&&ğ": 2251,
      ")&&*&(": 2252,
      "&&%&&$'": 2253,
      "&&%'&&%&": 2254,
      "'&%&&&&": 2255,
      "(ě": 2256,
      "(+&&&&": 2257,
      ")&": 2258,
      ")&(": 2259,
      ")&&'&'": 2260,
      ")&&%&(": 2261,
      "*&&'&'": 2262,
      "*ĀĀ$Ā": 2263,
      "*ĀĀ)Ā": 2264,
      "+Ĝ": 2265,
      "+ĀĀ\"Ā": 2266,
      ",ĀĀ+Ā": 2267,
      "./": 2268,
      ".ĀĀ*Ā": 2269,
      "/!": 2270,
      "03": 2271,
      "23": 2272,
      "61": 2273,
      "ėĀĀ": 2274,
      "Ě!": 2275,
      "ĚĞ": 2276,
      "Ĝ'": 2277,
      "Ğĝ": 2278,
      "Ġę": 2279,
      "Ġ&&)": 2280,
      "Ġ%&&\"": 2281,
      "Ġ(&&\"": 2282,
      "&%&&'&$": 2283,
      "&%('": 2284,
      "&&'$&&&&": 2285,
      "&&'&&&%&": 2286,
      "ĀĀĎ": 2287,
      "ĀĀ=Ā": 2288,
      "&(&&%&$": 2289,
      "&$-": 2290,
      "&&(&$&&&&": 2291,
      "&&$#": 2292,
      "&&$(": 2293,
      "&&$'&&&&": 2294,
      "&&$&&*": 2295,
      "&&$&&'&&&&": 2296,
      "&&$&&&%&": 2297,
      "&)&&%&(": 2298,
      "&#&&'&'": 2299,
      "%&&&&#": 2300,
      "'&&&&#": 2301,
      "&*Ğ": 2302,
      "&&#&Ĝ": 2303,
      "&%&&&&)": 2304,
      "&&'&/": 2305,
      "#&&&$&'": 2306,
      ")&&Ě": 2307,
      "*&&&,": 2308,
      "*&&&'&%": 2309,
      "%'(": 2310,
      "%'&&'&$": 2311,
      "%'&&$&(": 2312,
      "%'&&$&$": 2313,
      "''(": 2314,
      "%%&&(&'": 2315,
      "'%(": 2316,
      "!&&Ĝ": 2317,
      "('&&%&%": 2318,
      "$%&&%&)": 2319,
      "%&&&%&)": 2320,
      "ĀĀ%Ā*": 2321,
      "&ğ\"": 2322,
      "ĀĀ&Ā$": 2323,
      "'(&&(&'": 2324,
      "'$&&%&": 2325,
      "'$&&%&%": 2326,
      "'$&&(&%": 2327,
      "Ġ&&&": 2328,
      "Ġ&&&#": 2329,
      "%$&&$&%": 2330,
      "&(&&&&#": 2331,
      "ĀĀ#Ā!": 2332,
      "ĀĀ(Ā#": 2333,
      ",&&&,": 2334,
      "'#&&'&$": 2335,
      "%#&&%&%": 2336,
      "(&&&'&)": 2337,
      ")$&&'&": 2338,
      "&&'&&%&&&%&": 2339,
      ")(&&'&%": 2340,
      "#(&&%&%": 2341,
      "%&&&'&#": 2342,
      "'&&\"&)": 2343,
      "&'&&&&%&'&&&&": 2344,
      "$'&&&&%": 2345,
      "&'&&&&'&'": 2346,
      ")&&\"&*": 2347,
      ")&&*&": 2348,
      "'&&!&'": 2349,
      "$&&+&'": 2350,
      "&&$&&''": 2351,
      "&&'&&$%": 2352,
      "#&&&$&": 2353,
      "&&$&&$'": 2354,
      "\"&'": 2355,
      "\"&&&&%": 2356,
      "#%&&#": 2357,
      "$&&%&(": 2358,
      "&ē": 2359,
      "(Ę": 2360,
      ")ę": 2361,
      "+ĀĀ'Ā": 2362,
      "-&&+": 2363,
      "/ĀĀ*Ā": 2364,
      "32": 2365,
      "50": 2366,
      "Ā&": 2367,
      "Āě": 2368,
      "Ā(%": 2369,
      "ę!": 2370,
      "Ěě": 2371,
      "ğĝ": 2372,
      "ĠĘ": 2373,
      "Ġ\"&&": 2374,
      "Ġ&&$&": 2375,
      "ĠĀĀ$Ā": 2376,
      "Ġ'*": 2377,
      "&&&,": 2378,
      "&&&&&": 2379,
      "&')&&&&": 2380,
      "&%&&%&$": 2381,
      "&&'(&&&&": 2382,
      "&&%&&&&&&&&&&&&": 2383,
      "ĀĀ>Ā": 2384,
      "ĀĀ?Ā": 2385,
      "&$ğ": 2386,
      "&&(&&+": 2387,
      "&&$&&!": 2388,
      "&)-": 2389,
      "&)Ğ": 2390,
      "&)&&'&": 2391,
      "%&&&)": 2392,
      "'&&&+": 2393,
      "'&&&&&&'&&&&": 2394,
      "&%&&&&&&&'": 2395,
      "$&&Ě": 2396,
      "$&&\"&&": 2397,
      "#&&&(": 2398,
      "$&&&&$": 2399,
      "$&&&&&&&&&&&&": 2400,
      "&&%&'&%&&&&": 2401,
      "%'&&%&&&&&&&&": 2402,
      "&,)": 2403,
      "'%#": 2404,
      "'%$": 2405,
      "'%&&%&(": 2406,
      "'%&&(&(": 2407,
      "&&&&%&$": 2408,
      "&&$&ě": 2409,
      "('&&%&": 2410,
      "('&&%&$": 2411,
      "$%%&&&&": 2412,
      "$%&&$&(": 2413,
      "&-%": 2414,
      "&-'": 2415,
      "&-&&&&": 2416,
      "#&&&&&%": 2417,
      ")&&&&&": 2418,
      "ĀĀ%Ā(": 2419,
      "&ğ&&&&": 2420,
      "&&%&&&&&'": 2421,
      "ĀĀ$Ā-": 2422,
      "%(&&'&'": 2423,
      "%(&&'&%": 2424,
      "&&'&&&&&&'&&&&": 2425,
      "&&'&&&#": 2426,
      "%$&&%&$": 2427,
      "&$&&&&#": 2428,
      "%%&&&&$": 2429,
      "ĀĀ#Ā#": 2430,
      "((&&'&$": 2431,
      "((&&(&'": 2432,
      ",&&.": 2433,
      ",&&Ğ": 2434,
      ",&&&)": 2435,
      "&&!&)": 2436,
      "$)&&%&'": 2437,
      "*&&&&(": 2438,
      ")'&&'&%": 2439,
      ")$&&'&%": 2440,
      ")$&&'&$": 2441,
      ")$&&(&$": 2442,
      "&&%&&%&&&%": 2443,
      ")(&&'&'": 2444,
      "#(&&%&'": 2445,
      "#(&&$&": 2446,
      "&&)&'%": 2447,
      "$#&&%&'": 2448,
      "&&(&&&)": 2449,
      "&&(&&&'&&&&": 2450,
      "-&&ĝ": 2451,
      "*%&&'&$": 2452,
      "&&$&&&(": 2453,
      "'&&\"&$": 2454,
      "'&&*&#": 2455,
      "%&&&$&$": 2456,
      "Ġ&&&&$": 2457,
      "(&&&(&(": 2458,
      "(&&&(&)": 2459,
      "$&&\"&": 2460,
      "(&&*&": 2461,
      "&&'&&((": 2462,
      ")&&\"&%": 2463,
      "#&&*&%": 2464,
      "%(&&&&(": 2465,
      "&&%&&&&&&&&&&&": 2466,
      "#&&\"&#": 2467,
      "&&#&&&#": 2468,
      "&&$&&'%": 2469,
      "&%%&&%&": 2470,
      "'&&&&%&": 2471,
      "'&&&)&'": 2472,
      "$&&&'&": 2473,
      "!&&&%": 2474,
      "\"&&&&'": 2475,
      "$&'": 2476,
      "$'&&": 2477,
      "%%&&#": 2478,
      "(&)": 2479,
      ")Ě": 2480,
      ")Ĝ": 2481,
      ")#&&&&": 2482,
      ")ĀĀ&Ā": 2483,
      ")'&&)": 2484,
      ")ĀĀ+Ā": 2485,
      "*&": 2486,
      "*$&&&&": 2487,
      "*&&'&%": 2488,
      "*ĀĀğĀ": 2489,
      "+&": 2490,
      "+&&&'": 2491,
      "-ĀĀ\"Ā": 2492,
      "-ĀĀ!Ā": 2493,
      ".ĝ": 2494,
      "/ĀĀ\"Ā": 2495,
      "25": 2496,
      "41": 2497,
      "51": 2498,
      "62": 2499,
      "Ě'": 2500,
      "ě&'": 2501,
      "Ĝ-": 2502,
      "ĝĞ": 2503,
      "Ğ.": 2504,
      "Ġė": 2505,
      "Ġ&&$": 2506,
      "Ġ+&&": 2507,
      "Ġ&&%&#": 2508,
      "Ġ&&#&%": 2509,
      "Ġ$&&!": 2510,
      "Ġ*&&\"": 2511,
      "&%&&(&%": 2512,
      "&%&&$&'": 2513,
      "&%&&%&&&&&&&&": 2514,
      "&&%)": 2515,
      "ĀĀĒĀ": 2516,
      "ĀĀĐĀ": 2517,
      "&((&&&&": 2518,
      "&$&&&%&": 2519,
      "&#,": 2520,
      "'&&&!": 2521,
      "%&&&&&&&%&&&&": 2522,
      "&&#(": 2523,
      "&&#&&\"": 2524,
      "&&#&ĝ": 2525,
      "(&&&,": 2526,
      "&+ğ": 2527,
      "&!,": 2528,
      ")&&&": 2529,
      "&&%&%''&&&&": 2530,
      "*&&&$": 2531,
      "*&&&(&$": 2532,
      "%%$": 2533,
      "%%&&(&%": 2534,
      "&&&%'&&&&": 2535,
      "&&&'&&": 2536,
      "&&&'&)": 2537,
      "!&&/": 2538,
      "&&%&(%": 2539,
      "(''&&&&": 2540,
      "('&&'&)": 2541,
      "$%&&$&$": 2542,
      "&-#": 2543,
      "#&&&&#": 2544,
      "$'(": 2545,
      ")&&&&)": 2546,
      "ĀĀ%Ā\"": 2547,
      "ĀĀ%Ā#": 2548,
      "ĀĀ%Ā.": 2549,
      "ĀĀ&Ā-": 2550,
      "ĀĀ$Ā$": 2551,
      "'(&&%&": 2552,
      "'(&&%&$": 2553,
      "%$&&%&(": 2554,
      "&$&&&&)": 2555,
      "ĀĀ'Ā\"": 2556,
      "ĀĀ'Āĝ": 2557,
      "($&&'&(": 2558,
      "&.+": 2559,
      "$(&&$&%": 2560,
      "$$&&%&$": 2561,
      "%&&#&\"": 2562,
      "#'&&%&(": 2563,
      "#'&&%&$": 2564,
      "#'&&$&": 2565,
      "')&&'&": 2566,
      "&&!&(": 2567,
      "&&!&$": 2568,
      ")'&&(&'": 2569,
      ")$&&(&%": 2570,
      ")$&&(&'": 2571,
      "&&%&&%(": 2572,
      "(#&&'&": 2573,
      "&&'&&'(&&&&": 2574,
      "ĠĀ!": 2575,
      "'\"&&'&'": 2576,
      "%&&&'&$": 2577,
      "%&&*&)": 2578,
      "&&$&&&'&&&&": 2579,
      "'&&\"&#": 2580,
      "'&&*&(": 2581,
      "\"'&&%&(": 2582,
      "*$&&'&'": 2583,
      "Ğ&&ğ": 2584,
      "'&&&(&(": 2585,
      "&'%&&'&": 2586,
      "*'&&(&$": 2587,
      "&%&&&&'&%&&&&": 2588,
      "(&&&(&$": 2589,
      ")&&&'&(": 2590,
      "(&&*&(": 2591,
      "&&'&&('": 2592,
      ")&&*&%": 2593,
      ")&&*&$": 2594,
      "'&&!&%": 2595,
      "/&&,": 2596,
      "&&(&&%(": 2597,
      "%&&&&%&": 2598,
      "'&&,&$": 2599,
      "#'&&#": 2600,
      "$$&&": 2601,
      "$'&&#": 2602,
      "%Ě": 2603,
      "%&)": 2604,
      "%&&(&": 2605,
      "%+&&&&": 2606,
      "&ĀĀ*Ā": 2607,
      "'ě": 2608,
      "''&&)": 2609,
      "(%&&": 2610,
      "(&'&&&&": 2611,
      "(ĀĀ)Ā": 2612,
      ")&&'&(": 2613,
      ")&&$&(": 2614,
      ")#&&*": 2615,
      "*Ě": 2616,
      "*ě": 2617,
      "*%&&": 2618,
      "*&&%&%": 2619,
      "*&&%&(": 2620,
      "*&&&&%": 2621,
      "*ĀĀ+Ā": 2622,
      "*+&&&&": 2623,
      ",&&*": 2624,
      "-ĝ": 2625,
      "/ĀĀ,Ā": 2626,
      "07": 2627,
      "31": 2628,
      "ćĀ": 2629,
      "Ę#": 2630,
      "ę%": 2631,
      "Ě&": 2632,
      "Ĝě": 2633,
      "Ĝĝ": 2634,
      "ĞĜ": 2635,
      "Ġ%&&&&": 2636,
      "Ġ*&&": 2637,
      "Ġ&&(&'": 2638,
      "Ġ&&(&$": 2639,
      "Ġ&Ğ": 2640,
      "Ġ&&)&%": 2641,
      "Ġ&&#&$": 2642,
      "Ġ&&)&#": 2643,
      "&&&&&'": 2644,
      "&'&&'&(": 2645,
      "&''&&&'": 2646,
      "&%ğ": 2647,
      "&%&&(&'": 2648,
      "&%%(": 2649,
      "&%%'&&&&": 2650,
      "&%&&'&#": 2651,
      "&&'&&(&&&&": 2652,
      "ĀĀđĀ": 2653,
      "&(/": 2654,
      "&(&%&&&&": 2655,
      "&$&'&&&&": 2656,
      "&$&&&%": 2657,
      "&#.": 2658,
      "&#Ğ": 2659,
      "'&&&": 2660,
      "'&&&%&&&&": 2661,
      "'&&)&&": 2662,
      "'&&&ğ": 2663,
      "%&&&&&&'&&&&": 2664,
      "&*&#": 2665,
      "&*&&&&%": 2666,
      "&\"ĝ": 2667,
      "&\"&&&&%": 2668,
      "&&)&&*": 2669,
      "&'&&&&\"": 2670,
      "(&&&%&%": 2671,
      "&+,": 2672,
      "#&&&#&'": 2673,
      "&!&#": 2674,
      ")&&&,": 2675,
      ")&&&)&%": 2676,
      "&&&&&&&&&": 2677,
      "*&&&(&%": 2678,
      "%')": 2679,
      "\"&&&%&'": 2680,
      "''&&$&'": 2681,
      "''&&(&$": 2682,
      "&,!": 2683,
      "&,%": 2684,
      "&,(": 2685,
      "&,-": 2686,
      "&&$&Ĝ": 2687,
      "&&\"&,": 2688,
      "&&(&%$": 2689,
      "('$": 2690,
      "(%&&(&$": 2691,
      "$%#": 2692,
      "&-!": 2693,
      "&-$": 2694,
      "$'&&'&(": 2695,
      "ĀĀ%Ā)": 2696,
      "&ğ(": 2697,
      "ĀĀ$Ā,": 2698,
      "&&%&&&\"": 2699,
      "&$&&&&&&'": 2700,
      "ĀĀ'Ā'": 2701,
      "ĀĀ'Ā*": 2702,
      "($&&(&": 2703,
      "&(&&&&&&'": 2704,
      "ĀĀ(Ā+": 2705,
      "$(&&%&": 2706,
      ",&&/": 2707,
      "')&&%&(": 2708,
      "')&&&&%": 2709,
      "%)&&%&": 2710,
      "'#&&'&'": 2711,
      "'#&&'&(": 2712,
      "ĀĀ!Ā\"": 2713,
      ")%&&(&'": 2714,
      "#%&&$&(": 2715,
      "ĠĀ'": 2716,
      "%&&\"&)": 2717,
      "%&&\"&*": 2718,
      "\"'&&%&%": 2719,
      "\"'&&$&'": 2720,
      "Ğ&&ĝ": 2721,
      "'&&&(&$": 2722,
      "$&&*&\"": 2723,
      "&%%&&&&&&&&&&&&": 2724,
      "&)&&&&$": 2725,
      "(%&&&&%": 2726,
      "(%&&&&'": 2727,
      "$%&&&&'": 2728,
      "Ġ&&&&#": 2729,
      "('&&&&$": 2730,
      "&%&&&&%&'": 2731,
      ".&&ğ": 2732,
      "'(&&&&%": 2733,
      ")&&*&'": 2734,
      "$&&+&%": 2735,
      "(&&+&%": 2736,
      "&&'&&$'": 2737,
      "&*&&&&$": 2738,
      "&&''&&'&'": 2739,
      "#&&&$&$": 2740,
      "'&&&&'&": 2741,
      "(&&&%&": 2742,
      "&&%&&#'": 2743,
      "!/": 2744,
      "\"&&'&": 2745,
      "\"&&'&(": 2746,
      "#&&(&'": 2747,
      "$ę": 2748,
      "$*&&&&": 2749,
      "%ę": 2750,
      ")Ę": 2751,
      ")\"&&&&": 2752,
      ")*&&&&": 2753,
      "*'&&&&": 2754,
      "*&&%&'": 2755,
      ",/": 2756,
      ",ĀĀ)Ā": 2757,
      "-Ğ": 2758,
      "-ĀĀ+Ā": 2759,
      "-ĀĀ,Ā": 2760,
      ".,": 2761,
      ".ĀĀ-Ā": 2762,
      "14": 2763,
      "Āĝ": 2764,
      "Ā&'": 2765,
      "Ā'%": 2766,
      "ěĜ": 2767,
      "ĜĚ": 2768,
      "ğ&&\"": 2769,
      "Ġ&&'": 2770,
      "Ġ$&&&&": 2771,
      "Ġ&&)&'": 2772,
      "Ġ&&#&'": 2773,
      "Ġ&&)&$": 2774,
      "Ġ&&$&*": 2775,
      "&'/": 2776,
      "&'&#": 2777,
      "&%&&(&": 2778,
      "&&%&&(&&": 2779,
      "&&%&%&&&&'": 2780,
      "&&%&'&&&&'": 2781,
      "&&%&%&&&&'&": 2782,
      "ĀĀ@Ā": 2783,
      "&('(": 2784,
      "&$&&%&(": 2785,
      "&$&&'&)": 2786,
      "&&(%&&&&": 2787,
      "&&('&&&&": 2788,
      "&&$&&%&&&%": 2789,
      "&)/": 2790,
      "&)&&%&": 2791,
      "&#((": 2792,
      "%&&&'&&&&": 2793,
      "'&&&$&%": 2794,
      "'&&&$&'": 2795,
      "&*&(": 2796,
      "&&#$": 2797,
      "&&#&&&'": 2798,
      "&&)'": 2799,
      "&&)&&$": 2800,
      "&'&&&&'&&&&": 2801,
      "$&&&%&&&&": 2802,
      "$&&&'&'": 2803,
      "&+&(": 2804,
      "#&&Ě": 2805,
      "#&&&)": 2806,
      "&!&&'&%": 2807,
      "&&&&&&&&&&&'": 2808,
      "(&&&&&&": 2809,
      "&&'&%''&&&&": 2810,
      "&&'&%%'&&&&": 2811,
      "&&%&%%'&&&&": 2812,
      "*&&Ě": 2813,
      "%'&&(&$": 2814,
      "%'&&%&#": 2815,
      "%'&&$&#": 2816,
      "%'&&%&\"": 2817,
      "''$": 2818,
      "&,&(": 2819,
      "'%#&&&&": 2820,
      "!&&ě": 2821,
      "&&&&'&#": 2822,
      "&&(&'%": 2823,
      "(%$": 2824,
      "(%&&'&#": 2825,
      "(%&&(&(": 2826,
      "$%(": 2827,
      "#&&&&)": 2828,
      "#&&&&*": 2829,
      "$'(&&&&": 2830,
      "$'&&$&$": 2831,
      ")&&&&*": 2832,
      "&ğ'": 2833,
      "&ğ+": 2834,
      "ĀĀ&Ā\"": 2835,
      "&&'&&&&&&%&": 2836,
      "'$&&'&#": 2837,
      "'$&&'&)": 2838,
      "%$&&'&": 2839,
      "&&%&&&#&&&&": 2840,
      "($&&(&'": 2841,
      "&(&&&&*": 2842,
      "&.%": 2843,
      "&.'": 2844,
      "$(&&%&#": 2845,
      "ĀĀ\"Ā!": 2846,
      "$$'&&&&": 2847,
      "$$&&$&": 2848,
      "%&&)&\"": 2849,
      "&Ğ'": 2850,
      "')&&'&%": 2851,
      "%)&&%&(": 2852,
      "%)&&$&%": 2853,
      "&&&Ĝ": 2854,
      "%#&&%&'": 2855,
      "ĀĀ!Ā!": 2856,
      "ĀĀ!Ā)": 2857,
      "(#&&(&%": 2858,
      "&&'&&%(": 2859,
      "&&'&&%(&&&&": 2860,
      "#(&&$&'": 2861,
      "&&%&&'$": 2862,
      "&&%&&'(": 2863,
      "&&%&&'(&&&&": 2864,
      "#$&&%&(": 2865,
      "#$&&%&$": 2866,
      "'\"&&'&%": 2867,
      "%&&\"&\"": 2868,
      "ĀĀ,Ā$": 2869,
      "*%&&'&'": 2870,
      "*%&&(&'": 2871,
      "&&$&&&\"": 2872,
      "&&$&&&%&&&&": 2873,
      "!&&&&)": 2874,
      "'&&\"&": 2875,
      "'&&\"&\"": 2876,
      "\"'&&$&%": 2877,
      "$&&*&$": 2878,
      "$%&&&&&": 2879,
      "(&&\"&)": 2880,
      "&%'&&%&": 2881,
      "&%'(&&&&": 2882,
      "('&&&&%": 2883,
      "&%&&&&%&'&&&&": 2884,
      "%&&+&": 2885,
      "%&&+&$": 2886,
      "%&&+&#": 2887,
      "ĝ&&Ğ": 2888,
      "'(&&&&'": 2889,
      "(&&*&$": 2890,
      "&&'&&($": 2891,
      "#&&*&'": 2892,
      "&&'&&&&&&&&&&&": 2893,
      "&''&&'&": 2894,
      "#&&\"&": 2895,
      "',&&&&": 2896,
      "/&&-": 2897,
      "/&&ğ": 2898,
      "&&%&&(%": 2899,
      "\"&&*&%": 2900,
      "\"&&*&$": 2901,
      "&&''&&'&": 2902,
      "#&&&$&(": 2903,
      "%&&&&'&": 2904,
      "&&(&&('": 2905,
      "'&&&$&": 2906,
      "!&&%&%": 2907,
      "!&&'&$": 2908,
      "\"ě": 2909,
      "\"&&%&": 2910,
      "\"&&%&%": 2911,
      "#ę": 2912,
      "#ě": 2913,
      "#&&%&'": 2914,
      "$''": 2915,
      "$'&&!": 2916,
      "%&&$&'": 2917,
      "%&&(&'": 2918,
      "%!&&&&": 2919,
      "&ĀĀ+Ā": 2920,
      "'%&&)": 2921,
      "(&%": 2922,
      ")&&%&$": 2923,
      ")ĀĀ\"Ā": 2924,
      ")ĀĀ*Ā": 2925,
      "*'&&)": 2926,
      "+ĀĀ*Ā": 2927,
      ",ě": 2928,
      "-ĀĀğĀ": 2929,
      "/ĀĀ.Ā": 2930,
      "33": 2931,
      "43": 2932,
      "ęĜ": 2933,
      "ęğ": 2934,
      "ě.": 2935,
      "ěĞ": 2936,
      "Ĝ.": 2937,
      "Ĝ/": 2938,
      "ĜĞ": 2939,
      "ĝĚ": 2940,
      "ĝğ": 2941,
      "ĝ&&&&": 2942,
      "Ğ/": 2943,
      "ğĜ": 2944,
      "Ġ'&&&&": 2945,
      "Ġ!&&": 2946,
      "Ġ&&'&#": 2947,
      "Ġ&&'&)": 2948,
      "Ġ')": 2949,
      "Ġ&&$&)": 2950,
      "Ġ&&(&#": 2951,
      "Ġ&&'&\"": 2952,
      "ĠĞ&&": 2953,
      "Ġ(*": 2954,
      "Ġ(&&!": 2955,
      "Ġ!&&\"": 2956,
      "&&ę": 2957,
      "&&&)": 2958,
      "&'$$": 2959,
      "&%.": 2960,
      "&%Ğ": 2961,
      "&%%&&&%": 2962,
      "&%\"&&&&": 2963,
      "&%'&&&&&": 2964,
      "&&'&&%&": 2965,
      "&&'&'&&&&%": 2966,
      "&&%$&&&&": 2967,
      "&(&)": 2968,
      "&(($": 2969,
      "&$.": 2970,
      "&$&&'&(": 2971,
      "&)'&&&&": 2972,
      "&#&#": 2973,
      "%&&&": 2974,
      "%&&&(&%": 2975,
      "%&&&#&'": 2976,
      "%&&&#&": 2977,
      "'&&&&&#": 2978,
      "&*.": 2979,
      "&\"&&'&'": 2980,
      "&&)&&(": 2981,
      "&'&&&&&&'&&&&": 2982,
      "&%&&&&%&&&&": 2983,
      "&&%&ĝ": 2984,
      ")&&&\"": 2985,
      "&&&&&&&&&&&%": 2986,
      "(&&&&#": 2987,
      "(&&&&&\"": 2988,
      "&&'&'%'&&&&": 2989,
      "&&%&'\"": 2990,
      "%')&&&&": 2991,
      "%'&&'&)": 2992,
      "%'&&%&*": 2993,
      "\"&&&#&'": 2994,
      "''&&(&(": 2995,
      "%%(": 2996,
      "%%&&$&$": 2997,
      "&&&%&)": 2998,
      "&&&%&&'&": 2999,
      "'%&&$&%": 3000,
      "'%&&%&#": 3001,
      "&&\"&&&&": 3002,
      "('!": 3003,
      "('&&(&$": 3004,
      "('&&'&\"": 3005,
      "$%&&'&$": 3006,
      "$%)&&&&": 3007,
      "&-*": 3008,
      "&ğ&(": 3009,
      "ĀĀ$Ā'": 3010,
      "%(&&%&)": 3011,
      "%(&&$&$": 3012,
      "%(&&#&'": 3013,
      "'(&&'&#": 3014,
      "'(&&(&#": 3015,
      "'$&&%&$": 3016,
      "'$&&(&": 3017,
      "'$&&)&%": 3018,
      "%$&&'&$": 3019,
      "%$&&(&'": 3020,
      "%$&&$&(": 3021,
      "&&%&&&)&&&&": 3022,
      "&&$&(#": 3023,
      "ĀĀ#Ā(": 3024,
      "ĀĀ#Ā+": 3025,
      "ĀĀ#Ā-": 3026,
      "ĀĀ(Ā!": 3027,
      "ĀĀ(Ā)": 3028,
      ",&&ĝ": 3029,
      "ĀĀ\"Ā\"": 3030,
      "ĀĀ\"Ā$": 3031,
      "ĀĀ\"Ā-": 3032,
      "&Ğ#": 3033,
      "%)&&&&%": 3034,
      "\"&&&&)": 3035,
      "&&!&#": 3036,
      "&&!&*": 3037,
      "&&!&\"": 3038,
      "&&!&+": 3039,
      "$)&&&&%": 3040,
      ")'&&(&": 3041,
      ")'&&(&(": 3042,
      ")%&&(&": 3043,
      ")%&&(&(": 3044,
      ")$&&'&(": 3045,
      ")$&&)&%": 3046,
      "(#&&'&%": 3047,
      "#%&&%&$": 3048,
      "#%&&%&)": 3049,
      ")(&&(&%": 3050,
      "#(&&%&(": 3051,
      "ğ&&Ě": 3052,
      "ğ&&ĝ": 3053,
      "ğ&&&\"": 3054,
      "()&&'&": 3055,
      "'\"&&(&%": 3056,
      "'*&&'&%": 3057,
      "-&&/": 3058,
      "-&&&)": 3059,
      "*%&&(&%": 3060,
      "#)&&%&(": 3061,
      "#)&&$&(": 3062,
      "%*&&%&": 3063,
      "%*&&%&%": 3064,
      "$&&*&)": 3065,
      "%&&+&)": 3066,
      "%&&+&\"": 3067,
      "$&&\"&*": 3068,
      "$&&&$&(": 3069,
      "&%&'&&'&": 3070,
      ")&&\"&": 3071,
      ")&&\"&(": 3072,
      ")&&\"&$": 3073,
      "#&&*&": 3074,
      "&&%&&&&&&&&%": 3075,
      "'&&+&": 3076,
      "#&&\"&(": 3077,
      "&''&&&&&&&&&&&&": 3078,
      "'&&!&(": 3079,
      "$&&!&'": 3080,
      "#&&&%&(": 3081,
      "&'&'&&%&": 3082,
      "(&&!&": 3083,
      "(&&!&%": 3084,
      "\"&&*&'": 3085,
      "*&&*&'": 3086,
      "'&&&)&": 3087,
      "&&%'&&%&'": 3088,
      "\"&&\"&'": 3089,
      "!&&*&'": 3090,
      "&&(&&$%": 3091,
      "&&(&&$'": 3092,
      "\"&&&$&$": 3093,
      "!&&'&'": 3094,
      "\"&)": 3095,
      "\"'&&": 3096,
      "#&": 3097,
      "#Ě": 3098,
      "#&&'&(": 3099,
      "#&&(&$": 3100,
      "#ĀĀ)Ā": 3101,
      "#!&&&&": 3102,
      "$&(": 3103,
      "$&%&&&&": 3104,
      "$&&%&$": 3105,
      "%&": 3106,
      "%'&&#": 3107,
      "&ĀĀ,Ā": 3108,
      "('&&)": 3109,
      "(!&&&&": 3110,
      ")Ė": 3111,
      ")&%": 3112,
      ")&&$&%": 3113,
      "*Ĝ": 3114,
      "*&&(&%": 3115,
      "*%&&)": 3116,
      "+ę": 3117,
      "+ě": 3118,
      "+'&&": 3119,
      "+&&'&(": 3120,
      "+ĀĀ)Ā": 3121,
      "+ĀĀ+Ā": 3122,
      ",ĀĀ,Ā": 3123,
      "-ĀĀ*Ā": 3124,
      "-ĀĀ-Ā": 3125,
      "/#": 3126,
      "/ĀĀ-Ā": 3127,
      "/ĀĀĞĀ": 3128,
      "/ĀĀĝĀ": 3129,
      "15": 3130,
      "37": 3131,
      "40": 3132,
      "ĀĘ": 3133,
      "Ā$(": 3134,
      "ĔĀĀ": 3135,
      "Ę!": 3136,
      "Ę$": 3137,
      "Ě.": 3138,
      "Ě/": 3139,
      "ĚĜ": 3140,
      "Ěĝ": 3141,
      "ě-": 3142,
      "ěĘ": 3143,
      "Ĝ&&&&": 3144,
      "Ġ6": 3145,
      "Ġ%(": 3146,
      "Ġ&&(&(": 3147,
      "Ġ$)": 3148,
      "Ġ#(": 3149,
      "Ġ&&%&\"": 3150,
      "Ġ)*": 3151,
      "Ġ%&&ğ": 3152,
      "&&*&&": 3153,
      "&&&$&&&&": 3154,
      "&&&.": 3155,
      "&'&&&'": 3156,
      "&'&&$&'": 3157,
      "&%&&$&": 3158,
      "&%$$": 3159,
      "&%&&'&)": 3160,
      "&%'&&&'&": 3161,
      "&&%&&&'&": 3162,
      "&&%&'&&&&%&": 3163,
      "ĀĀďĀ": 3164,
      "&$$&&&&": 3165,
      "&$&&(&%": 3166,
      "&&(&&'&&&&": 3167,
      "&)&&'&(": 3168,
      "&)&&$&(": 3169,
      "&#&&%&'": 3170,
      "&#&&*": 3171,
      "&#')": 3172,
      "&#&&+": 3173,
      "'&&Ę": 3174,
      "&*&&%&%": 3175,
      "&\".": 3176,
      "&\"&&%&$": 3177,
      "&&#&&*": 3178,
      "&&)&&&%": 3179,
      "&&)&&\"": 3180,
      "&&)&/": 3181,
      "&&)&Ĝ": 3182,
      "&%&&&&'&&&&": 3183,
      "$&&Ę": 3184,
      "(&&&%&'": 3185,
      "(&&&$&%": 3186,
      "&&'&Ě": 3187,
      "#&&ę": 3188,
      "&!ğ": 3189,
      "&!&$": 3190,
      "&!&&&&%": 3191,
      "$&&&&\"": 3192,
      "$&&&&&$": 3193,
      "&&&&&&&&%": 3194,
      "(&&&&&)": 3195,
      "*&&&(&'": 3196,
      "%'&&$": 3197,
      "%'&&(&": 3198,
      "%'%&&'&": 3199,
      "\"&&ě": 3200,
      "\"&&&$&%": 3201,
      "''&&$&": 3202,
      "''&&(&#": 3203,
      "&,,": 3204,
      "%%&&%&)": 3205,
      "%%&&%&#": 3206,
      "'%&&%&)": 3207,
      "'%&&%&\"": 3208,
      "&&&'&&'&'": 3209,
      "&&(&'&%": 3210,
      "$%&&'&": 3211,
      "$%&&'&%": 3212,
      "$%&&%&#": 3213,
      "$%&&$&)": 3214,
      "&-(": 3215,
      "&-,": 3216,
      "&-.": 3217,
      "&-&'": 3218,
      "$''&&&&": 3219,
      "$'&&'&%": 3220,
      "$'&&%&#": 3221,
      "%&&&%&'&&&&&&": 3222,
      "&ğ%": 3223,
      "&ğ,": 3224,
      "ĀĀ&Ā%": 3225,
      "ĀĀ&Ā(": 3226,
      "ĀĀ&ĀĞ": 3227,
      "+&&&": 3228,
      "+&&&+": 3229,
      "ĀĀ$Āĝ": 3230,
      "ĀĀ$Āğ": 3231,
      "%(&&$&": 3232,
      "%(&&$&%": 3233,
      "&&'&&&&&&'&": 3234,
      "'(%&&&&": 3235,
      "'(&&%&%": 3236,
      "'(&&%&(": 3237,
      "'$&&(&(": 3238,
      "Ġ&&ě": 3239,
      "&$&&&&*": 3240,
      "ĀĀ'Ā%": 3241,
      "ĀĀ'Ā,": 3242,
      "($&&(&$": 3243,
      "($&&'&#": 3244,
      "%%&&&&#": 3245,
      "&(&&&&&&%&&&&": 3246,
      "&.)": 3247,
      "ĀĀ#Ā)": 3248,
      "ĀĀ#Ā*": 3249,
      "$(&&$&": 3250,
      "$(&&$&$": 3251,
      "((&&(&": 3252,
      "((&&(&%": 3253,
      "%'&&&&$": 3254,
      ",&&&": 3255,
      ",&&&.": 3256,
      "ĀĀ\"Ā'": 3257,
      "ĀĀ\"Ā*": 3258,
      "'&&#&+": 3259,
      "'&&#&!": 3260,
      "%&&#&+": 3261,
      "'&&)&!": 3262,
      "%)&&%&$": 3263,
      "\"&&&&(": 3264,
      "'#&&'&": 3265,
      "'#&&)&'": 3266,
      "%#&&%&": 3267,
      "(&&&'&#": 3268,
      "&&+&*": 3269,
      ")'&&'&(": 3270,
      ")'&&(&$": 3271,
      "&&%&&%$&&&&": 3272,
      "(#&&'&$": 3273,
      "&&'&&%$&&&&": 3274,
      "ĀĀ*Ā-": 3275,
      "#%&&$&%": 3276,
      ")(&&'&": 3277,
      "#(&&%&$": 3278,
      "&&)&'(": 3279,
      "ğ&&.": 3280,
      "ğ&&Ğ": 3281,
      "()&&'&%": 3282,
      "-&&&(": 3283,
      "%&&&'&)": 3284,
      "%&&*&\"": 3285,
      "&&#&(%": 3286,
      "'&&*&*": 3287,
      "\"'&&%&'": 3288,
      "\"'&&$&": 3289,
      "##&&%&%": 3290,
      "Ğ&&Ĝ": 3291,
      "Ğ&&&$": 3292,
      "\"%&&%&%": 3293,
      "\"(&&%&'": 3294,
      "&&'&&&'&%": 3295,
      "&'%&&&&&&&&&&&&": 3296,
      "$&&\"&\"": 3297,
      "&'&&&&'&%": 3298,
      "&'&&&&'&%&&&&": 3299,
      "&'&&&&&&&%&&&&": 3300,
      "$&&&$&)": 3301,
      "%$&&&&'": 3302,
      "'&&+&%": 3303,
      ")&&*&#": 3304,
      "%&&!&": 3305,
      "%&&!&%": 3306,
      "&&$&&%$": 3307,
      "&&%&&((": 3308,
      "Ĝ&&ğ": 3309,
      "$&&!&$": 3310,
      "(&&+&": 3311,
      ",ĀĀĚĀ": 3312,
      ",ĀĀęĀ": 3313,
      "+'&&'&'": 3314,
      "%&&,&'": 3315,
      ")&&!&'": 3316,
      "*&&!&'": 3317,
      "*&&&'&": 3318,
      "&&'&%&&&&&&'": 3319,
      "'&&&$&(": 3320,
      "&'&&&&&&&&&&&&&": 3321,
      "!&": 3322,
      "!ę": 3323,
      "!$&&": 3324,
      "!&&'&(": 3325,
      "\"&$": 3326,
      "\"%&&": 3327,
      "\"%&&&&": 3328,
      "\"&&'&'": 3329,
      "\"ĀĀ%Ā": 3330,
      "\"%&&#": 3331,
      "\"\"&&&&": 3332,
      "\"&&)&%": 3333,
      "\"\"'": 3334,
      "#&)": 3335,
      "#&'&&&&": 3336,
      "#&&&&'": 3337,
      "#*&&&&": 3338,
      "#ĀĀ+Ā": 3339,
      "#&&)&'": 3340,
      "%'&&)": 3341,
      "'#&&": 3342,
      "'&&(&%": 3343,
      "(Ě": 3344,
      "(&&(&": 3345,
      "(,&&&&": 3346,
      ")&*": 3347,
      ")&&$&": 3348,
      ")&&$&'": 3349,
      "*&'": 3350,
      "*%&&&&": 3351,
      "*&&'&(": 3352,
      "*ĀĀ-Ā": 3353,
      "+Ě": 3354,
      "+(&&": 3355,
      "+ĀĀ-Ā": 3356,
      "+ĀĀĞĀ": 3357,
      ",Ĝ": 3358,
      ",&&\"": 3359,
      ",ĀĀğĀ": 3360,
      ".ę": 3361,
      ".ĀĀ,Ā": 3362,
      "80": 3363,
      "Āė": 3364,
      "Ā%!": 3365,
      "ĎĀ": 3366,
      "Ęğ": 3367,
      "ę$": 3368,
      "ę*": 3369,
      "ę&$": 3370,
      "Ě*": 3371,
      "Ĝę": 3372,
      "Ğ&&*": 3373,
      "ğ)&&": 3374,
      "Ġ&&%": 3375,
      "Ġ&&#": 3376,
      "ĠĀĀ#Ā": 3377,
      "Ġ%)": 3378,
      "Ġ\"(": 3379,
      "Ġ&&#&)": 3380,
      "Ġ#*": 3381,
      "Ġ',": 3382,
      "&&&+": 3383,
      "&&&-": 3384,
      "&&&&&&(": 3385,
      "&'-": 3386,
      "&%'(": 3387,
      "&&'&&$&&&&": 3388,
      "&&%(&&&&": 3389,
      "&&%&'&&&&&&'": 3390,
      "&(.": 3391,
      "&(&&&'&": 3392,
      "&&(&&&'&": 3393,
      "&&$)": 3394,
      "&&$&&+": 3395,
      "&)&!": 3396,
      "%&&&(&'": 3397,
      "'&&ę": 3398,
      "%&&&&&&$": 3399,
      "'&&&&&&&'&&&&": 3400,
      "&*&$": 3401,
      "&*&&&&'": 3402,
      "&\"-": 3403,
      "&&#*": 3404,
      "$&&&%&&&&&&&&": 3405,
      "$&&&#&": 3406,
      "(&&Ę": 3407,
      "&&'&ě": 3408,
      "&&%&Ĝ": 3409,
      "#&&&#&%": 3410,
      ")&&&(&(": 3411,
      "&&&&&&&&&&": 3412,
      "(&&&&&#": 3413,
      "(&&&&&&'&&&&": 3414,
      "&&'&'''&&&&": 3415,
      "&&%&'&'&&&&": 3416,
      "&&'&%'": 3417,
      "&&%&%'": 3418,
      "&&%&%&'&&&&": 3419,
      "%'$": 3420,
      "'')": 3421,
      "''&&$&$": 3422,
      "&,Ğ": 3423,
      "&,ğ": 3424,
      "%%&&%&&&&": 3425,
      "%%&&(&$": 3426,
      "%%%&&%&": 3427,
      "'%&&'": 3428,
      "'%&&(": 3429,
      "'%(&&&&": 3430,
      "&&&'&&'&%": 3431,
      "!&&&(": 3432,
      "&&'&$&'": 3433,
      "&&&&%%&&&&": 3434,
      "&&%&$&'&&&&": 3435,
      "&&&&'&$": 3436,
      "&&\"&.": 3437,
      "&&(&'+": 3438,
      "('(": 3439,
      "('&&%&'": 3440,
      "$%)": 3441,
      "$%&&'&(": 3442,
      "$%&&%&*": 3443,
      "&-+": 3444,
      "&-&%": 3445,
      "'&&&'&\"": 3446,
      "#&&&&&'": 3447,
      "#&&&&&)": 3448,
      "$'%&&&&": 3449,
      "$'&&%&*": 3450,
      ")&&&&+": 3451,
      ")&&&&&(": 3452,
      "%&&&%&*": 3453,
      "&ğ&*": 3454,
      "ĀĀ&Ā*": 3455,
      "+&&&,": 3456,
      "ĀĀ$ĀĞ": 3457,
      "%(&&'&(": 3458,
      "&&'&&&&&&%&&&&": 3459,
      "&&'&&&\"": 3460,
      "&&'&&&'&&&&%": 3461,
      "&&'&&&(&'": 3462,
      "'$%&&&&": 3463,
      "%$'&&&&": 3464,
      "%$&&'&%": 3465,
      "%$&&(&%": 3466,
      "%$&&#&%": 3467,
      "&&%&&!": 3468,
      "&&%&&&$&%": 3469,
      "''&&&&)": 3470,
      "ĀĀ'Ā$": 3471,
      "ĀĀ'Ā/": 3472,
      "ĀĀ'Āğ": 3473,
      "($&&(&(": 3474,
      "&(&&&&&": 3475,
      "&(&&&&&&(": 3476,
      "&(&&&&&&'&&&&": 3477,
      "ĀĀ(Ā%": 3478,
      "$(&&$&(": 3479,
      "$(&&%&)": 3480,
      "((&&(&(": 3481,
      "((&&)&%": 3482,
      "%'&&&&#": 3483,
      "ĀĀ\"Ā)": 3484,
      "'&&#&,": 3485,
      "ĀĀ)Ā!": 3486,
      "&Ğ$": 3487,
      "')&&%&'": 3488,
      "')&&%&%": 3489,
      "')&&'&(": 3490,
      "%#&&'&'": 3491,
      "%#&&'&(": 3492,
      "ĀĀ!Ā*": 3493,
      "&&+&\"": 3494,
      ")$&&'&'": 3495,
      "(#&&'&(": 3496,
      "&&'&&')&&&&": 3497,
      "&&'&&%%&&%&%": 3498,
      "ĀĀ*Ā'": 3499,
      "#%&&'&%": 3500,
      "#%&&%&(": 3501,
      "#%&&$&#": 3502,
      "&/-": 3503,
      ")(&&'&$": 3504,
      ")(&&'&#": 3505,
      ")(&&(&(": 3506,
      "#$&&$&'": 3507,
      "ĠĀ-": 3508,
      "()&&'&$": 3509,
      "$#&&%&(": 3510,
      "'*&&&&'": 3511,
      "-&&Ğ": 3512,
      "-&&&,": 3513,
      "'&&&%&#": 3514,
      "%\"&&&&'": 3515,
      "'&&\"&+": 3516,
      "%*&&%&'": 3517,
      "))&&'&'": 3518,
      "\"$&&%&'": 3519,
      "Ğ&&.": 3520,
      "Ğ&&Ğ": 3521,
      "'&&&(&)": 3522,
      "*'&&'&%": 3523,
      "*'&&'&$": 3524,
      "&#&&&&)": 3525,
      "\"%&&$&%": 3526,
      "\"(&&$&)": 3527,
      "(%&&&&(": 3528,
      "$*&&%&'": 3529,
      "$\"&&%&%": 3530,
      "(&&\"&*": 3531,
      "(\"&&'&%": 3532,
      "&'&&&&'&'&&&&": 3533,
      ".&&&,": 3534,
      ")&&&'&#": 3535,
      "'$&&&&)": 3536,
      "ĝ&&,": 3537,
      "ĝ&&-": 3538,
      "(&&*&%": 3539,
      ")&&\"&)": 3540,
      "#&&*&#": 3541,
      "&&%&&$(": 3542,
      "'&&!&)": 3543,
      "&&$&&%'&&&&": 3544,
      "&'&&&&&&&&%&&&&": 3545,
      "$&&+&": 3546,
      "&&(&&%%&&&&": 3547,
      "&\"&&&&(": 3548,
      "&$%&&%&": 3549,
      "'&&&&%&'&&&&": 3550,
      "#&&+&'": 3551,
      "#&&+&$": 3552,
      "&&&%&&&&&": 3553,
      "&&)&&&)": 3554,
      "#&&!&%": 3555,
      "'&&,&%": 3556,
      "&$'&&%&'": 3557,
      "*&&!&)": 3558,
      "!&&\"&%": 3559,
      "&&%%&&%&": 3560,
      "&&%&&&$&": 3561,
      "&(&&&&%&": 3562,
      "$&&-&(": 3563,
      ")&&&)&": 3564,
      "!ė": 3565,
      "!&'": 3566,
      "!&&&&%": 3567,
      "!&&&&'": 3568,
      "!%&&#": 3569,
      "!ĀĀ+Ā": 3570,
      "\"&": 3571,
      "\")&&": 3572,
      "\"&&%&$": 3573,
      "\"&&(&'": 3574,
      "\"#&&&&": 3575,
      "#%&&": 3576,
      "#&&$&": 3577,
      "#&&%&)": 3578,
      "#&&'&#": 3579,
      "#,&&&&": 3580,
      "$Ě": 3581,
      "$ě": 3582,
      "$+&&&&": 3583,
      "%&&%&(": 3584,
      "%&&(&$": 3585,
      "'&&'&$": 3586,
      "'&&(&'": 3587,
      "('&&": 3588,
      "(&&(&'": 3589,
      "(\"&&*": 3590,
      ")ĀĀ#Ā": 3591,
      "*&&'&": 3592,
      "*&&&&'": 3593,
      "+$&&": 3594,
      "+$&&&&": 3595,
      "+&&'&'": 3596,
      "+&&(&'": 3597,
      ",&&%&$": 3598,
      "-%&&": 3599,
      "-&&*": 3600,
      "-ĀĀĝĀ": 3601,
      ".ĀĀ/Ā": 3602,
      "/&": 3603,
      "/.": 3604,
      "27": 3605,
      "34": 3606,
      "42": 3607,
      "44": 3608,
      ":ĀĀ": 3609,
      "Ā%%": 3610,
      "Ā'(": 3611,
      "Ā%\"": 3612,
      "ĈĀ": 3613,
      "Ē&&": 3614,
      "Ĕ&&": 3615,
      "ĕ'": 3616,
      "ĕğ": 3617,
      "ĕĀĀ": 3618,
      "Ę(": 3619,
      "Ę-": 3620,
      "Ę.": 3621,
      "ę#": 3622,
      "ę)": 3623,
      "ę-": 3624,
      "Ě&*": 3625,
      "ě,": 3626,
      "ĝĘ": 3627,
      "ĝ&&&": 3628,
      "ğ&": 3629,
      "ğě": 3630,
      "ğ(&&": 3631,
      "Ġ#&&&&": 3632,
      "Ġ$(": 3633,
      "Ġ&&$&$": 3634,
      "Ġ#'": 3635,
      "ĠĀĀ!Ā": 3636,
      "Ġ*&&&&": 3637,
      "ĠĀĀ*Ā": 3638,
      "Ġ&&%&*": 3639,
      "Ġğ&&": 3640,
      "Ġ()": 3641,
      "ĠĀĀ,Ā": 3642,
      "Ġ&&#&(": 3643,
      "Ġ#)": 3644,
      "Ġ&Ĝ": 3645,
      "Ġ&&(&\"": 3646,
      "Ġ&&)&": 3647,
      "Ġ'&&!": 3648,
      "Ġ\"&&\"": 3649,
      "Ġ(&&ğ": 3650,
      "Ġ)&&ğ": 3651,
      "Ġ#&&ğ": 3652,
      "Ġ(&&Ğ": 3653,
      "&&&&&%": 3654,
      "&&&&&&$": 3655,
      "&'Ğ": 3656,
      "&'&&(&%": 3657,
      "&'('": 3658,
      "&'&&$&$": 3659,
      "&'&&'&)": 3660,
      "&%&&%&#": 3661,
      "&&''&&&&%": 3662,
      "&&'&'&&&&%&": 3663,
      "&&%&&$&&": 3664,
      "&&%'&&&&%": 3665,
      "&&%&%&&&&%&": 3666,
      "ĀĀ=": 3667,
      "ĀĀ@": 3668,
      "&(&&&'": 3669,
      "&(&&$&'": 3670,
      "&$(&&&&": 3671,
      "&$&&(&": 3672,
      "&$&&$&'": 3673,
      "&&(%&&'&": 3674,
      "&)Ĝ": 3675,
      "&)&&(&'": 3676,
      "&#&&%&(": 3677,
      "&#&&(&%": 3678,
      "%&&ę": 3679,
      "%&&)&&": 3680,
      "%&&&(&$": 3681,
      "%&&&#&%": 3682,
      "%&&&&*": 3683,
      "%&&&&&*": 3684,
      "&*'$": 3685,
      "&\"&&%&": 3686,
      "&&)&&''": 3687,
      "&%&&&&&&(": 3688,
      "&%&&&&&&&%": 3689,
      "&%&&&&%%&&&&": 3690,
      "$&&&*": 3691,
      "$&&&Ğ": 3692,
      "(&&&)&%": 3693,
      "&&'&!%": 3694,
      "&&%&ě": 3695,
      "&+&)": 3696,
      "&+&&%&%": 3697,
      "&+&&&&%": 3698,
      "&+&&&&'": 3699,
      "&!Ğ": 3700,
      "&!&&'&'": 3701,
      ")&&&#": 3702,
      "$&&&&&&&&": 3703,
      "&&&&&&&&&'&&&&": 3704,
      "&&'&'''": 3705,
      "&&'&''%": 3706,
      "%'#": 3707,
      "%'ĀĀ": 3708,
      "%'&&(&(": 3709,
      "%'&&$&)": 3710,
      "%'&&'&*": 3711,
      "%'&&%&&$": 3712,
      "\"&&&(": 3713,
      "\"&&&$&'": 3714,
      "''#": 3715,
      "''&&(": 3716,
      "'')&&&&": 3717,
      "''&&'&*": 3718,
      "&,&": 3719,
      "%%&&'&)": 3720,
      "&&&%&#": 3721,
      "&&&'&*": 3722,
      "!&&ę": 3723,
      "&&'&$''&&&&": 3724,
      "&&\"&&%": 3725,
      "&&(&%'": 3726,
      "('&&%&(": 3727,
      "('&&(&\"": 3728,
      "(%$&&&&": 3729,
      "(%&&%&%": 3730,
      "(%&&'&&&&&&&&": 3731,
      "&-Ğ": 3732,
      "'&&&'&*": 3733,
      "$'&&$": 3734,
      "ĀĀ%Āğ": 3735,
      "&ğ*": 3736,
      "&ğ-": 3737,
      "ĀĀ&Ā'": 3738,
      "ĀĀ&Ā+": 3739,
      "ĀĀ&Āğ": 3740,
      "&&%&&&&&%": 3741,
      "+&&ě": 3742,
      "+&&Ĝ": 3743,
      "ĀĀ$Ā)": 3744,
      "ĀĀ$ĀĜ": 3745,
      "%((": 3746,
      "%(&&$&(": 3747,
      "%(&&%&*": 3748,
      "&&'&&&)&&&&": 3749,
      "'(&&%&'": 3750,
      "'(&&)&%": 3751,
      "'(&&)&": 3752,
      "'$$": 3753,
      "'$&&$&%": 3754,
      "'$&&(&$": 3755,
      "Ġ&&Ě": 3756,
      "%$%&&&&": 3757,
      "%$&&%&)": 3758,
      "&$&&&&\"": 3759,
      "&$&&&&&&%&&&&": 3760,
      "ĀĀ'Ā)": 3761,
      "($&&%&": 3762,
      "($&&%&'": 3763,
      "($&&)&$": 3764,
      "%%&&&&&&&&": 3765,
      "%%&&&&&'": 3766,
      "&.\"": 3767,
      "&.,": 3768,
      "&.&&&&": 3769,
      "&.&%": 3770,
      "ĀĀ#Ā\"": 3771,
      "ĀĀ#Ā.": 3772,
      "ĀĀ#ĀĜ": 3773,
      "ĀĀ(Ā*": 3774,
      "ĀĀ(Ā,": 3775,
      "ĀĀ(ĀĞ": 3776,
      "ĀĀ(Āğ": 3777,
      "$(&&#&(": 3778,
      "(()": 3779,
      "((%&&&&": 3780,
      "((&&%&": 3781,
      "((&&'&(": 3782,
      "((&&'&)": 3783,
      "&&$&$'": 3784,
      "%'&&&&)": 3785,
      "%'&&&&&'": 3786,
      "$$%&&&&": 3787,
      "$$&&'&": 3788,
      "$$&&'&%": 3789,
      "$$&&%&(": 3790,
      "$$&&$&%": 3791,
      "'%&&&&&'": 3792,
      "#'&&%&)": 3793,
      "&Ğ(": 3794,
      "')&&'&'": 3795,
      "')&&&&'": 3796,
      "%)&&'&$": 3797,
      "%)&&'&(": 3798,
      "%)&&$&(": 3799,
      "%)&&%&)": 3800,
      "\"&&&&$": 3801,
      "'#(": 3802,
      "'#&&%&%": 3803,
      "'#&&(&%": 3804,
      "%#&&%&(": 3805,
      "%#&&'&$": 3806,
      "(&&&'&*": 3807,
      "ĀĀ!Ā'": 3808,
      "ĀĀ!Ā(": 3809,
      "$)(": 3810,
      "$)&&%&)": 3811,
      "$)&&#&'": 3812,
      "&&+&&&&": 3813,
      "&&+&)": 3814,
      ")'$&&&&": 3815,
      ")'&&(&#": 3816,
      ")'&&'&\"": 3817,
      ")$&&)&(": 3818,
      "&&%&&%%&&%&": 3819,
      "&&'&&'%&&'&": 3820,
      "&&'&&%#": 3821,
      "#%&&$&$": 3822,
      "&/(": 3823,
      "#(&&#&'": 3824,
      "&&%&&'$&&&&": 3825,
      "#$&&'&'": 3826,
      "#$&&#&(": 3827,
      "&&)&'#": 3828,
      "ĠĀ*": 3829,
      "ğ&&/": 3830,
      "ğ&&Ĝ": 3831,
      "&ĝ)": 3832,
      "$#&&&&'": 3833,
      "$#&&$&'": 3834,
      "&&(&&&*": 3835,
      "&&(&&&(&&&&": 3836,
      "&&(&&&(&": 3837,
      "%&&\"&#": 3838,
      "ĀĀğĀ'": 3839,
      "ĀĀ,Ā'": 3840,
      "ĀĀ,Ā(": 3841,
      "*%&&%&'": 3842,
      "*(&&'&'": 3843,
      "*(&&'&(": 3844,
      "#)&&$&'": 3845,
      "%\"&&%&'": 3846,
      "%\"&&&&%": 3847,
      "'&&\"&-": 3848,
      "%*&&%&(": 3849,
      "%*&&%&)": 3850,
      "\"$&&$&'": 3851,
      "Ğ&&-": 3852,
      "%&&&$&#": 3853,
      "&'%(&&&&": 3854,
      "&'%#&&&&": 3855,
      "&#&&&&$": 3856,
      "$*&&$&%": 3857,
      "$*&&$&(": 3858,
      "$%&&&&$": 3859,
      "$%&&&&%": 3860,
      "Ġ&&&&)": 3861,
      "&&)&Ě": 3862,
      "(&&\"&#": 3863,
      "$'&&&&#": 3864,
      "&'&&&&'&$": 3865,
      "ĀĀĝĀ(": 3866,
      ".&&Ĝ": 3867,
      "'$&&&&%": 3868,
      "ĝ&&&$": 3869,
      "%$&&&&(": 3870,
      "#&&*&(": 3871,
      "%(&&&&$": 3872,
      "%(&&&&%": 3873,
      "#*&&$&'": 3874,
      "'&&+&!": 3875,
      "#&&\"&*": 3876,
      "&'&%&&'&%": 3877,
      ")&&*&)": 3878,
      "&&$&&''&&&&": 3879,
      "&&(&&%$": 3880,
      "#&&&%&)": 3881,
      "(&&!&(": 3882,
      "&&'&&$$&&&&": 3883,
      "*&&\"&(": 3884,
      "(!&&'&%": 3885,
      "%&&,&": 3886,
      "#&&+&\"": 3887,
      "&&ğ&": 3888,
      ")&&!&(": 3889,
      "!&&*&%": 3890,
      "*&&!&%": 3891,
      "!&&\"&(": 3892,
      "(&&&%&$": 3893,
      "'&&&$&$": 3894,
      "&&-&": 3895,
      "#&&,&'": 3896,
      "\"&&&$&": 3897,
      "$&&&'&(": 3898,
      "&(&&&&'&": 3899,
      "\"&&&%&": 3900,
      "&'&&&&$&'": 3901,
      ")&&&(&#": 3902,
      "&&&$&": 3903,
      "&&$'&&%&%": 3904,
      "&&%&'&&&&&&%": 3905,
      "&%&&&&&&&&&&&&&": 3906,
      "&&$&&&$&": 3907,
      "!Ė": 3908,
      "!Ě": 3909,
      "!ě": 3910,
      "!'&&": 3911,
      "!'&&&&": 3912,
      "!&&'&": 3913,
      "!&&'&%": 3914,
      "!&&%&(": 3915,
      "!ĀĀ!Ā": 3916,
      "\"Ę": 3917,
      "\"ę": 3918,
      "\"&%": 3919,
      "\"(&&": 3920,
      "\"&&%&(": 3921,
      "\"&&$&'": 3922,
      "#''": 3923,
      "#&&(&": 3924,
      "#)&&&&": 3925,
      "#ĀĀ!Ā": 3926,
      "$$(": 3927,
      "$(&&\"": 3928,
      "%(&&": 3929,
      "%&&'&$": 3930,
      "%ĀĀ+Ā": 3931,
      "%-&&&&": 3932,
      "&Ĕ": 3933,
      "'ę": 3934,
      "'&)": 3935,
      "'&&$&%": 3936,
      "(\"'": 3937,
      "(-&&&&": 3938,
      ")&\"": 3939,
      ")&&(&%": 3940,
      "*&&$&'": 3941,
      "*ĀĀ*Ā": 3942,
      "+%&&": 3943,
      "+&&%&'": 3944,
      "+&&%&%": 3945,
      "+&&%&(": 3946,
      "+&&*": 3947,
      "+#&&&&": 3948,
      "+&&%&*": 3949,
      ",'&&&&": 3950,
      ",&&%&'": 3951,
      ",ĀĀ-Ā": 3952,
      ",ĀĀ.Ā": 3953,
      "-(&&": 3954,
      "-&&%&%": 3955,
      "-ĀĀĞĀ": 3956,
      "-ĀĀĜĀ": 3957,
      ".ě": 3958,
      "/Ĝ": 3959,
      "/&&*": 3960,
      "16": 3961,
      "52": 3962,
      "64": 3963,
      "90": 3964,
      ";ĀĀ%Ā": 3965,
      "ĀĜ": 3966,
      "Ā&*": 3967,
      "Ā((": 3968,
      "Ā%)": 3969,
      "Ā$)": 3970,
      "Ā)'": 3971,
      "Ā$#": 3972,
      "Ā\"%": 3973,
      "Ā%+": 3974,
      "ĕ\"": 3975,
      "ĕ&&": 3976,
      "ė&": 3977,
      "ė(": 3978,
      "Ę%": 3979,
      "Ę*": 3980,
      "ęĞ": 3981,
      "Ě&&,": 3982,
      "Ĝ%&&": 3983,
      "ĝĕ": 3984,
      "ĞĀĀ$Ā": 3985,
      "ğĘ": 3986,
      "ğ&&'&$": 3987,
      "ğĀĀ*Ā": 3988,
      "Ġ#&&": 3989,
      "ĠĀĀ%Ā": 3990,
      "Ġ'(": 3991,
      "Ġ&&%&)": 3992,
      "ĠĀĀ\"Ā": 3993,
      "Ġ\"&&&&": 3994,
      "Ġ&'%": 3995,
      "Ġ&&)&(": 3996,
      "Ġ.&&": 3997,
      "Ġ(+": 3998,
      "Ġ'&&ğ": 3999,
      "Ġ+&&!": 4000,
      "&&Ě": 4001,
      "&&&#": 4002,
      "&&&&+": 4003,
      "&'%&&": 4004,
      "&'&\"": 4005,
      "&'&&(&": 4006,
      "&'&&,": 4007,
      "&%#&&&&": 4008,
      "&%&&'&&'": 4009,
      "&%&&&%&%": 4010,
      "&&'&&&&%": 4011,
      "&&'&&'&&&&&": 4012,
      "&&'&&&&&&&&&&&&&&&": 4013,
      "&&%&&%&": 4014,
      "ĀĀ<": 4015,
      "ĀĀď": 4016,
      "&(&&$&": 4017,
      "&(&&%&)": 4018,
      "&('#": 4019,
      "&$Ĝ": 4020,
      "&$Ğ": 4021,
      "&$&&$&": 4022,
      "&$&&(&(": 4023,
      "&&(%&&)": 4024,
      "&&(&&!": 4025,
      "&&(&'&&&&&&": 4026,
      "&&(&&#'": 4027,
      "&&$!": 4028,
      "&&$&&'&": 4029,
      "&#ĝ": 4030,
      "&##&&": 4031,
      "&#&&%&#": 4032,
      "%&&&)&%": 4033,
      "'&&\"&&": 4034,
      "'&&&-": 4035,
      "%&&&&+": 4036,
      "%&&&&&&(": 4037,
      "'&&&&&&#": 4038,
      "'&&&&&&&%": 4039,
      "&*&&%&'": 4040,
      "&\"&": 4041,
      "&\"&&%&%": 4042,
      "&\"&&'&(": 4043,
      "&&#&&!": 4044,
      "&&#&&%%": 4045,
      "&&)&&%%": 4046,
      "&'&&&&&$": 4047,
      "&'&&&&&&(": 4048,
      "&'&&&&%&&&&&&": 4049,
      "&%&&&&!": 4050,
      "&%&&&&&%%&&&&": 4051,
      "$&&ę": 4052,
      "&+/": 4053,
      "&+&!": 4054,
      "&!&&'&$": 4055,
      "$&&&&&&'": 4056,
      "&&&&&&&&&%": 4057,
      "&&&&&&&&&&&&'": 4058,
      "(&&&&$": 4059,
      "(&&&&*": 4060,
      "(&&&&'(": 4061,
      "&&'&'%%&&&&": 4062,
      "&&%&'&'": 4063,
      "&&'&%&%": 4064,
      "&&'&%&%&&&&": 4065,
      "\"&&Ě": 4066,
      "\"&&&#&(": 4067,
      "''&&$&%": 4068,
      "''&&%&#": 4069,
      "''%&&'&": 4070,
      "%%&&$": 4071,
      "&&&%&&%&": 4072,
      "&&&%&&&%": 4073,
      "'%&&$&$": 4074,
      "&&&'&#": 4075,
      "!&&&ğ": 4076,
      "!&&&#&(": 4077,
      "!&&&$&(": 4078,
      "&&&&%&)": 4079,
      "&&'&('%&&&&": 4080,
      "&&%&$%": 4081,
      "&&(&Ě": 4082,
      "&&&&'&)": 4083,
      "&&\"&/": 4084,
      "&&*&+": 4085,
      "&&$&'$": 4086,
      "&&$&''": 4087,
      "&&(&'&%&&&&": 4088,
      "&&(&'%$": 4089,
      "&&$&%'": 4090,
      "('&&$&%": 4091,
      "(%'&&&&": 4092,
      "(%&&%&": 4093,
      "(%&&%&$": 4094,
      "$%&&$": 4095
    },
    "merges": [
      "& &",
      "&& &&",
      "& '",
      "& %",
      "&& '",
      "&& %",
      "Ā Ā",
      "& (",
      "& $",
      "&& (",
      "&& $",
      "& )",
      "& #",
      "% &&",
      "' &&",
      "% &&&&",
      "' &&&&",
      "& *",
      "& \"",
      "&& #",
      "&& )",
      "&' &&&&",
      "&% &&&&",
      "$ &&",
      "( &&",
      "&&' &",
      "&&% &",
      "& +",
      "# &&",
      "& !",
      ") &&",
      "$ &&&&",
      "&&&& &&&&",
      "( &&&&",
      "&&' &'",
      "&&% &'",
      "&&' &%",
      "&&% &%",
      "* &&",
      "% '",
      "\" &&",
      "' '",
      "& ,",
      "% %",
      "&& &%",
      "' %",
      "&& &'",
      "! &&",
      "&&% &(",
      "&&' &$",
      "&&&& %",
      "&&' &(",
      "&&% &$",
      "&&( &",
      "&&&& '",
      "&&$ &",
      "&& \"",
      "&& *",
      "&&( &%",
      "&&$ &'",
      "&&( &'",
      "&&$ &%",
      "( '",
      "( %",
      "$ %",
      "& -",
      "'&& &'",
      "# &&&&",
      "$ '",
      ") &&&&",
      "%&& &%",
      "% Ā",
      "ĀĀ %Ā",
      "& ğ",
      "& Ā",
      "ĀĀ &Ā",
      "&&% &&&&",
      "+ &&",
      "$ Ā",
      "ĀĀ $Ā",
      "% (",
      "&&' &&&&",
      "&&' &&",
      "' (",
      "' $",
      "Ġ &&",
      "% $",
      "&&% &&",
      "&$ &&&&",
      "' '&&&&",
      "' Ā",
      "ĀĀ 'Ā",
      "&&$ &(",
      "( $",
      "% %&&&&",
      "&( &&&&",
      "&&( &$",
      "& .",
      "# Ā",
      "ĀĀ #Ā",
      "( Ā",
      "ĀĀ (Ā",
      "$ (",
      "( (",
      "&&% &)",
      "&&$ &$",
      "% '&&&&",
      "&&' &#",
      "&&( &(",
      ", &&",
      "\" Ā",
      "ĀĀ \"Ā",
      "$ $",
      "%&& )",
      "&&' &)",
      "'&& #",
      "' %&&&&",
      "&&% &#",
      "%&& #",
      ") Ā",
      "ĀĀ )Ā",
      "# '",
      "& Ğ",
      "'&& )",
      "' )",
      "% )",
      "&& &",
      "\" &&&&",
      "$&& &%",
      "' #",
      "% #",
      "&& !",
      "(&& &'",
      "! Ā",
      "ĀĀ !Ā",
      "$ )",
      "* &&&&",
      "&& +",
      ") '",
      ") %",
      ") $",
      "&&% &&%",
      "( #",
      "&&' &&'",
      "&&' &&%",
      "* Ā",
      "ĀĀ *Ā",
      "&&$ &)",
      "# %",
      "& /",
      ") (",
      "# (",
      "&&( &#",
      "&&% &&'",
      "# $",
      "+ Ā",
      "ĀĀ +Ā",
      "&&$ &#",
      "&&) &'",
      "&&) &%",
      "&&% &*",
      "Ġ Ā",
      "&&# &'",
      "ğ &&",
      "&&# &%",
      "( )",
      "&&( &)",
      "' \"",
      "& ĝ",
      "&&' &\"",
      "$ #",
      "&&( &&",
      "' *",
      "- &&",
      "%&& &'",
      "%&& \"",
      "ğ Ā",
      "ĀĀ ğĀ",
      ", Ā",
      "ĀĀ ,Ā",
      "%&& *",
      "* %",
      "&&$ &&",
      "&&' &*",
      "! &&&&",
      "'&& &%",
      "&&# &(",
      "* (",
      "&&% &\"",
      "# )",
      "&&) &$",
      "% \"",
      "'&& \"",
      "% *",
      "'&& *",
      "- Ā",
      "ĀĀ -Ā",
      ") )",
      "&'&&&& %",
      "\" '",
      "* $",
      "\" $",
      "& Ĝ",
      "# #",
      "Ğ &&",
      "%&& &$",
      "'&& &(",
      "+ &&&&",
      "&' %",
      "&&# &$",
      "&&) &(",
      "$&& *",
      "* '",
      "&# &&&&",
      "'&&&& &",
      "\" %",
      "&% %&&&&",
      "\" (",
      "Ğ Ā",
      "ĀĀ ĞĀ",
      "&&( &\"",
      ". Ā",
      "ĀĀ .Ā",
      "&) &&&&",
      "( %&&&&",
      "$ *",
      "$ %&&&&",
      "Ġ &&&&",
      "&&' &&&'",
      "&%&&&& '",
      "(&& &(",
      "&&) &",
      ") #",
      "$ \"",
      "( *",
      "(&& \"",
      "&&&&&&&& &&&&",
      "$ '&&&&",
      "&&% &&&%",
      "&&( &*",
      "&&# &",
      "&&( &&&&",
      "( \"",
      "&' %&&&&",
      "&% '",
      "( '&&&&",
      "&%&&&& %",
      "%&& +",
      "' +",
      ") *",
      "&&$ &*",
      "$&& \"",
      "&'&&&& '",
      "&'&&&& &&",
      "ĝ Ā",
      "ĀĀ ĝĀ",
      ". &&",
      ")&& &'",
      "' $&&&&",
      "( +",
      "/ Ā",
      "ĀĀ /Ā",
      "$&& &$",
      "&&%& +",
      "! (",
      "ĝ &&",
      "% $&&&&",
      "' (&&&&",
      "\" )",
      "&&$ &\"",
      "&&'& +",
      "Ġ (",
      "(&& *",
      "! %",
      "* )",
      "&&$ &&&&",
      "$ +",
      "&&) &#",
      "&% &'",
      "&&' &&(",
      "&&# &)",
      "Ĝ Ā",
      "ĀĀ ĜĀ",
      "'&&&' &",
      "! )",
      ")&& \"",
      "#&& *",
      "&%&&&& &&",
      "% (&&&&",
      "&&% &&&&&&&&",
      "# *",
      "&&' &&&&&&&&",
      "&' '",
      "&&) &)",
      "'&& +",
      "&&%& !",
      "#&& \"",
      "# \"",
      "% +",
      "&' &%",
      "&' '&&&&",
      ")&& *",
      "%&& !",
      "ě Ā",
      "ĀĀ ěĀ",
      "&&'& !",
      "% !",
      "' ,",
      "&&% &&$",
      "&% &%",
      ") \"",
      "&&( &&'",
      "# +",
      "'&& !",
      "%&&&% &",
      "Ġ #",
      "&&$ &+",
      "* #",
      ") +",
      "&$ &%",
      "&&( &!",
      "&&# &*",
      "/ &&",
      "&&$ &&%",
      "! $",
      "+ $",
      "&&% &&(",
      "&&# &#",
      "* \"",
      "Ġ %",
      "&'&&&& &&&&",
      "&&&% &",
      "Ġ $",
      "' !",
      "&&# &&",
      "&( &%",
      "& ě",
      "\" #",
      "* *",
      "$ !",
      "$&& +",
      "+ (",
      "&&$ &&'",
      "&%&&&& &&&&",
      "\" \"",
      "&&( &&%",
      "- ĀĀ",
      "Ĝ &&",
      "&% %",
      "&% (",
      "&% '&&&&",
      "! #",
      "$&& !",
      "(&& +",
      "&$ &'",
      "&&( &+",
      "&\" &&&&",
      ", &&&&",
      "&( &'",
      "&&$ &!",
      "&&&' &",
      "& ĀĀ",
      "#&& &%",
      "+ %",
      "+ ĀĀ",
      "Ě Ā",
      "&' &'",
      ", ĀĀ",
      "(&& !",
      "ę Ā",
      "Ġ )",
      "+ '",
      ", )",
      "Ġ &'",
      "&&' &&$",
      "*&& \"",
      "( !",
      "&$ %",
      "+ )",
      "\"&& *",
      "+ #",
      "%&&&& &",
      "/ ĀĀ",
      ", (",
      "Ġ '",
      "&&&&&&&& &&&&&&&&",
      "Ġ \"",
      "&&) &\"",
      "Ġ &(",
      "* ĀĀ",
      "'&&&& %",
      "&& ,",
      "&&# &+",
      "! '",
      "&& &'&&&&",
      "&% $",
      "&&%&&&& &",
      "( (&&&&",
      "( $&&&&",
      "&* &&&&",
      "*&& *",
      "ğ )",
      "Ġ *",
      "%&& ,",
      "#&& +",
      ". ĀĀ",
      "&& ğ",
      "&# &'",
      "'&& &)",
      "$ ,",
      "Ġ &)",
      "&&$ &,",
      "& Ě",
      "\" *",
      "# !",
      "% &&'&",
      "%&&&& %",
      ") !",
      "&& &%&&&&",
      "&&' '",
      "&% #",
      "&&) &&",
      "&&'&&&& &",
      "&&% '",
      "#&& !",
      "$ $&&&&",
      "Ę Ā",
      "&&%& ,",
      "* +",
      "Ġ &",
      "&( '",
      "Ġ +",
      "&( &",
      "'&& ,",
      "Ġ !",
      "&$ '",
      "#&& &$",
      ", '",
      "&&% &&&'",
      "%&&&& '",
      "\"&& \"",
      ")&& !",
      ")&& +",
      "!&& *",
      "Ā +",
      "&' (",
      "*&& !",
      "% ,",
      "&&' &&&%",
      "&&# &\"",
      "ğ (",
      "&( &$",
      "&&$ &&$",
      "$&& ,",
      "\" !",
      "&( %",
      "&&) &*",
      "- (",
      "ĀĀ ĚĀ",
      "!&& \"",
      "Ġ &%",
      "Ġ &$",
      "&&( &&(",
      "'&&&& '",
      "'% &&'&",
      "(&& ,",
      "- &&&&",
      "&&' %",
      "ğ %",
      "ĀĀ ęĀ",
      "%&&&& &&",
      ", #",
      ", %",
      "- '",
      "%' &&%&",
      "ě &&",
      "&' #",
      "'&&&' &%",
      "! \"",
      "&$ &&&&'",
      "&) &%",
      "'&&&& &&",
      "*&& &'",
      ", *",
      "- $",
      "(&& &%",
      "%% &&%&",
      "! *",
      "+ *",
      "ė Ā",
      "&' $",
      "Ė Ā",
      "&&% %",
      "&&% %&&&&",
      "%&& -",
      "&&'&& &'&&&&",
      ") ĀĀ",
      ", $",
      "&&' &%&&&&",
      "&# &%",
      "\"&& +",
      ") ğ",
      "&&$ &&&%",
      "Ġ -",
      "&( &(",
      ", +",
      "%&& ğ",
      "&&%&& &$",
      "Ġ &*",
      "&&% &%&&&&",
      "&$ $",
      "%&&&% &%",
      "\" +",
      "' ğ",
      "&&' &&)",
      "&( &&&&%",
      "&&$ &&(",
      "'&& &$",
      "'&&&& &&&&",
      "(&&&' &",
      "! !",
      "& ę",
      "&& -",
      "&% )",
      "#&& ,",
      "&& Ğ",
      "'&& -",
      "( ,",
      "* !",
      "Ġ ğ",
      "'&&&& &'",
      "&&'& ğ",
      "'&&&' &'",
      "%&&&% &'",
      "&&%&& &%&&&&",
      "' -",
      "&&( &&$",
      "$&& -",
      "\"&& &$",
      "'' &&'&",
      "# ,",
      ") ,",
      "&&% &&#",
      "$&& &'",
      "$ Ğ",
      "( ğ",
      "* ,",
      "Ġ ,",
      "%&&&& &&&&",
      "$ (&&&&",
      "&( (",
      "Ġ &#",
      "&( &&&&'",
      "&$ (",
      "'&&&& &%",
      "&'&&&& &",
      "&&'& ,",
      "% #&&&&",
      "( ĀĀ",
      "ĕ Ā",
      "&( $",
      "&&%& -",
      "\"&& !",
      "\"&& &%",
      "$&&&% &",
      "&' )",
      "&&) &+",
      "&&% &&)",
      "% ğ",
      "' #&&&&",
      "+ \"",
      "&&( &&&'",
      "%&&&& &%",
      "&'&&&& (",
      "*&& +",
      "%' &&%&'",
      "$ ğ",
      "&$ &&&&%",
      "&&( &,",
      "&( )",
      "&$ #",
      "%&&&& &'",
      "&&&% &'",
      "Ā -",
      "&' &&%&",
      "&'&&&& $",
      ")&& ,",
      "% -",
      "&&&& $",
      "ĀĀ ĘĀ",
      "&# '",
      "&%&&&& &",
      "$&& ğ",
      ")&& &(",
      "! +",
      "Ĕ Ā",
      "&' *",
      "&&% '&&&&",
      "&# &",
      "&# &$",
      "'&& ğ",
      "Ġ &&\"",
      "&& .",
      "&% &&'&",
      "&&) &!",
      "&%&&&& (",
      "(&&&& &",
      "' )&&&&",
      ") -",
      "ğ $",
      "Ġ Ğ",
      "&( *",
      "&) &'",
      ", \"",
      "Ā .",
      "Ġ &&*",
      "%&& .",
      "(&& ğ",
      "(&&&& '",
      "'% &&'&'",
      "# -",
      "( -",
      "( .",
      ") .",
      "%&& Ğ",
      "&'&&&& &&'",
      "&&'&& &%&&&&",
      "\" ğ",
      ")&& ğ",
      "$&&&& %",
      "# ĀĀ",
      ") '&&&&",
      "+ +",
      "ğ \"",
      "Ğ $",
      "!&& +",
      "' .",
      "' ĀĀ",
      "&' &&'&",
      "&&( %",
      "&&# &!",
      "#&& -",
      "*&& &)",
      "&&&% &%",
      "&&%&& &'&&&&",
      ": Ā",
      "ğ *",
      "&( #",
      "(&& -",
      ")&& &)",
      "'' %&&&&",
      "\" -",
      "% Ğ",
      "Ě &&",
      "&&' %&&&&",
      "&) $",
      "'% &&'&%",
      "! -",
      "% .",
      "% &&%&",
      "+ !",
      "&) '",
      "(&& &)",
      "!&& !",
      "; Ā",
      "&% &&%&",
      "&% $&&&&",
      "&&' '&&&&",
      "&%&&&& $",
      "(&& .",
      "&! &&&&",
      "(&&&& %",
      "%% &&%&'",
      "&&'&& &(",
      "- *",
      "&& &$",
      "&) (",
      "&# &(",
      "&&'&& &$",
      "\" ,",
      "# %&&&&",
      "Ğ (",
      "ğ '",
      "% )&&&&",
      ", ,",
      "&' &%&&&&",
      "ĀĀ ėĀ",
      "'&& .",
      "(&& &*",
      "&+ &&&&",
      "#&& ğ",
      "%&&) &%",
      "%&&# &%",
      "# ğ",
      "ē Ā",
      "ĝ $",
      "Ğ \"",
      "Ġ &\"",
      "&) %",
      "&&# &,",
      "# .",
      "Ġ &+",
      "*&& &*",
      "'&&# &%",
      "! .",
      "& Ę",
      "* -",
      "&&# '",
      "(&& Ğ",
      "&&$& .",
      "% ĀĀ",
      "Ġ ĝ",
      "&&% $",
      "&&$ '",
      "&\" &'",
      "'' '&&&&",
      "! ĀĀ",
      "' &&'&",
      ") %&&&&",
      "* .",
      "Ġ .",
      "Ġ &,",
      "&& &(",
      "'' &&'&'",
      "&&* &%",
      "$ .",
      "Ġ ĀĀ",
      "$&& .",
      ")&& -",
      "*&& &(",
      "&&(& ğ",
      "&&\" &%",
      "(% &&'&",
      "'&&# &'",
      "\" ĝ",
      "$ -",
      "% &&'&'",
      "( Ğ",
      ") /",
      "ğ #",
      "&&% &'&&&&",
      "'&& Ğ",
      "#&& &'",
      "$&&&& '",
      "%' &&%&%",
      "'' &&'&%",
      "' Ğ",
      "&& ĝ",
      "&&&& (",
      "&% *",
      "&&( '",
      "%&& &(",
      "'&&&' &$",
      "! ,",
      "/ +",
      "0 0",
      "&&&' &%",
      "(' &&'&",
      "+&& !",
      "Ġ&& !",
      "&&'&&&' &",
      "\" Ğ",
      "# '&&&&",
      "% &&%&'",
      "Ā '",
      "Ā (",
      "&% &&'&%",
      "&&' &&#",
      "&$ *",
      "&$ &$",
      "&# (",
      "&&) &&&&",
      "%' %&&&&",
      "%' '&&&&",
      "\"&& ğ",
      "\" ĀĀ",
      "# $&&&&",
      "% &&%&%",
      "Ā %",
      "(&&&' &'",
      "+ ,",
      "- .",
      "&$ &&%&",
      "&&$ &&#",
      "&# %",
      "%&& ĝ",
      "$&& &#",
      "$&& &\"",
      "#&& &#",
      "*&& ,",
      "\"&& ,",
      "\"&& -",
      "!&& ,",
      "&$&&&& (",
      "%&&&' &",
      "- +",
      "ğ !",
      "Ġ /",
      "Ġ 0",
      "&&' (",
      "&&' &'&&&&",
      "&&% (",
      "&$ &(",
      "'&& &*",
      "&&) &,",
      "&%&&&& &&&&&&&&",
      "\"&& &#",
      "%% &&%&(",
      "ĝ %",
      "&' \"",
      "&% \"",
      "&&%& Ğ",
      "$' &&%&'",
      "$&&&% &'",
      "%&&\" &'",
      "$ &&'&%",
      "% \"&&&&",
      "* Ğ",
      "+ -",
      ". (",
      "Ā $",
      "&& /",
      "ĀĀ ĕĀ",
      "&# $",
      "'&&&& &(",
      ")&& &%",
      "&&&&' &",
      "(% &&'&%",
      "(&&&' &%",
      "'&&&% &",
      "! ğ",
      "( )&&&&",
      "/ *",
      "Ā #",
      "ĝ #",
      "&) &$",
      "&# *",
      "&&%&% &'",
      "%% %&&&&",
      "%% '&&&&",
      "&&&' &'",
      "&&(& Ğ",
      "%&&# &'",
      "&%&&&&' &",
      "% &&'&%",
      "+ .",
      "- )",
      "- -",
      "&&&& &&",
      "&&$ &&)",
      "&'&&&& &&&&&&&&",
      "&&'& Ğ",
      "&&%& .",
      "*&& -",
      "'% %&&&&",
      "%&&) &'",
      "'&&&( &",
      "# Ğ",
      "& ė",
      "ĝ \"",
      "Ġ ě",
      "&% &&'&'",
      "&&' &&'&&&&",
      "&$ )",
      "*&& ğ",
      "%' '",
      "(% &&'&'",
      "%%&&&& '",
      "$ ĀĀ",
      "$ )&&&&",
      "Ġ &-",
      "&\" %",
      "%' &&%&(",
      "'% &&'&(",
      "!&& -",
      "$% &&%&%",
      "$' &&%&",
      "+&& ,",
      "Ġ&& +",
      "$&&&% &%",
      "&&%&&% '",
      "&&$&& &$",
      "\" .",
      "' ĝ",
      "( /",
      "< Ā",
      "Ĝ &",
      "Ġ &!",
      "%&& &\"",
      "%&&&& &&&&&&&&",
      "&&# &&&&",
      "&&# &-",
      "&&) &-",
      "$&& Ğ",
      "$&&&& &",
      "(&&&& &%",
      "'' '",
      "%% &&%&%",
      "&&(& -",
      "'&&&' &(",
      "'&&# &",
      "'&&) &",
      "&%%&&&& &",
      "' *&&&&",
      "* /",
      "* ğ",
      "ę &&",
      "&' &$",
      "&$ &)",
      "&) )",
      "%&& /",
      "'&& /",
      "&\" (",
      "\"&& &\"",
      "&&%&& &(",
      ",&& !",
      "&&'&&' '",
      "$ &&%&%",
      "$ #&&&&",
      "' /",
      "( ĝ",
      "( &&'&",
      "( #&&&&",
      ", -",
      "Ā Ğ",
      "Ĝ #",
      "&&( &&)",
      "&# #",
      "&* $",
      "&\" #",
      "&%&&&& &&%",
      ")&& &*",
      "$% &&%&'",
      "&$&&&& $",
      "( &&'&'",
      "Ğ &",
      "&' &&'&%",
      "&&% &&'&&&&",
      "ĀĀ ĖĀ",
      "&&( &&&%",
      "&) \"",
      "'&& ĝ",
      "%&&&& &(",
      "$&& /",
      "(&& ĝ",
      "!&& &\"",
      "(' &&'&'",
      "'&&) &$",
      "(&&&( &",
      "$ /",
      "$ &&'&'",
      "% /",
      ") ĝ",
      ") Ğ",
      "Ĝ $",
      "ğ -",
      "ğ .",
      "Ġ 1",
      "$&& ĝ",
      "&&* &'",
      "+&& &(",
      "! Ğ",
      "% ĝ",
      "Ā *",
      "Ā ,",
      "ĝ !",
      "&' $&&&&",
      "&' &&%&'",
      "&' &&%&%",
      "&% !",
      "&&' &&\"",
      "&&% &&%&&&&",
      "&( !",
      "&( \"",
      "&( +",
      "&( &&%&",
      "&$ !",
      "&$ +",
      "&&$ &&&&&&&&",
      "&) *",
      "&# &&&&%",
      "%&& &#",
      "&&* &",
      "&&* &\"",
      "$% &&%&",
      "&&'&&% '",
      "&'&&&&% &",
      "$ &&'&",
      "' \"&&&&",
      ", ĀĀ$Ā",
      "&' +",
      "&% &%&&&&",
      "&% &&%&%",
      "&$ \"",
      "&# \"",
      "&&) &ğ",
      "&&'& -",
      "\"&& &!",
      "&&\" &",
      "+&& +",
      ",&& +",
      "( &&%&'",
      "Ē Ā",
      "Ğ *",
      "ğ &&&&",
      "&' &(",
      "&' (&&&&",
      "&% +",
      "&&% &'&&&&&&",
      "&&$ &&&'",
      "'&&&& &&&&&&&&",
      "&* '",
      "&&# &.",
      "'% &&'&$",
      "!&& ğ",
      "%&&) &$",
      "&&'&&% %&&&&",
      "&&%&&' '",
      "&&&&&&&&&&&& &&",
      "&&&&&&&&&&&& &&&",
      "&'&&&&' &",
      ". .",
      "> Ā",
      "Ğ #",
      "Ġ &&%&'",
      "&% &'&&&&",
      "&) +",
      "#&& .",
      "\"&& .",
      "'% '&&&&",
      "&&(& .",
      "&&\" &'",
      "+&& &)",
      "'&&) &'",
      "&&(&& &(",
      "&&%&&&% &",
      "- ĀĀ%Ā",
      "/ )",
      "ğ ĀĀ",
      "&% ,",
      "&% &&",
      "&&' &&*",
      "&&' &&%&&&&",
      "&) #",
      "&# )",
      "'&&&& (",
      "&%&&&& &&'",
      ")&& .",
      ")&& Ğ",
      "&&'&% &'&&&&",
      "%% &&%&$",
      "!&& &$",
      "&&&&% &'",
      "&&$& -",
      "&&$& ğ",
      "&&* &#",
      "Ġ&& ,",
      "&&%&&% %",
      "&'%&&&& &",
      "$ &&%&'",
      "( &&%&%",
      ") $&&&&",
      "+ /",
      ", ĀĀ'Ā",
      ". &&&&",
      ". ĀĀ%Ā",
      "1 0",
      "Ĝ \"",
      "Ğ '",
      "Ğ )",
      "ĀĀ :Ā",
      "&&( &&&&&&&&",
      "'&&&& &$",
      "&* #",
      "&* (",
      "&&# &ğ",
      "(&& /",
      "&&'&' &%&&&&",
      "%% &&'&",
      "!&& &#",
      "$' &&%&%",
      "%&&&% &(",
      "%( &&%&'",
      "&&'&& &)",
      "%&&) &",
      "%&&# &",
      "&&%&&% %&&&&",
      "&&'&&' %&&&&",
      "$ ĝ",
      "( &",
      "- #",
      "/ ,",
      "ĝ '",
      "&% &&%&'",
      "&( &&'&%",
      "&$ &&'&",
      "&&$ %",
      "&\" $",
      "#&& Ğ",
      "%' (&&&&",
      "&&&&% &",
      "&&%&&' %",
      "&&%&&' '&&&&",
      "&%&&&&% &",
      "&'&&&&&&&& &&&",
      "- ĀĀ'Ā",
      "/ '",
      "Ĝ (",
      "ğ ,",
      "ğ /",
      "&( ğ",
      "&( &&",
      "&&( &&#",
      "&# &&&&'",
      "'&& Ĝ",
      "&* %",
      "&* +",
      "&\" '",
      "'% &&%&",
      "'% &&(&%",
      "&&&&% &%",
      "&&\" &$",
      "&&\" &)",
      "&&* &(",
      "%$ &&%&'",
      "''&&&& %",
      "%&&# &$",
      "'&&) &%",
      "%&&&$ &",
      "$&&&$ &",
      "( Ĝ",
      "- %",
      "/ ĀĀ'Ā",
      "Ā \"",
      "Ĝ !",
      "Ġ %&&",
      "&% (&&&&",
      "&* *",
      "&\" \"",
      "&'&&&& #",
      "&'&&&& &&%",
      "&&'& .",
      "#&& &\"",
      ")&& /",
      ")&& ĝ",
      "$&&&& &%",
      "*&& /",
      "'' &&'&$",
      "&, &&&&",
      "&&(& ĝ",
      "&&$& /",
      "%&&&% &$",
      "+&& ğ",
      "%&&) &(",
      "'&&# &$",
      "%&&&' &%",
      "& ĀĀ$Ā",
      "( &&%&",
      "Ā )",
      "ĝ +",
      "Ğ &&&&",
      "&' &&'&'",
      "'&&&& &&'",
      "&\" *",
      "&&# &&%",
      "%' &&%&$",
      "'' &&%&",
      "'' &&(&",
      "%% %",
      "&&&% &(",
      "(' &&'&%",
      "&&%&&&& &&",
      "+&& -",
      "'( &&'&",
      ",&& ,",
      "'&&# &(",
      "&&%&&' %&&&&",
      "'&&\" &'",
      ", .",
      "- \"",
      ". ĀĀ'Ā",
      "/ ĀĀ%Ā",
      "2 0",
      "Ğ %",
      "&' !",
      "&' &'&&&&",
      "&% &(",
      "&&' $",
      "ĀĀ ĔĀ",
      "ĀĀ ;Ā",
      "ĀĀ ēĀ",
      "&$ ,",
      "&$ %&&&&",
      "&) &&&&%",
      "'&&&& $",
      "&&%& ğ",
      "#&& /",
      "%' %",
      "%' &&'&",
      "'' &&(&%",
      "'' &&(&'",
      "&&* &$",
      "(% &&'&$",
      "$% &&$&'",
      "&&'&&&& &&",
      "'( &&'&'",
      "&%&&&&&&&& &&&",
      "& ĀĀ%Ā",
      ") &&%&'",
      ", ĀĀ&Ā",
      "- ĀĀ&Ā",
      "/ ĀĀ&Ā",
      "= Ā",
      "Ā !",
      "đ Ā",
      "ě &",
      "&&&& &&&",
      "#&& &!",
      "*&& ĝ",
      "\"&& /",
      "'' %",
      "&&\" &(",
      "(% &&(&",
      "$' &&$&'",
      "%%&&&& &",
      "'&&# &)",
      "&&'&&% '&&&&",
      ")&&&' &",
      "( &&'&%",
      ") (&&&&",
      ", ğ",
      ". #",
      ". $",
      ". +",
      "/ $",
      "Đ Ā",
      "ĝ ,",
      "ğ +",
      "&% ''&&&&",
      "&&' &%&&&&&&",
      "&$ &&",
      "&&( $",
      "&* &%",
      "&'&&&& )",
      "(&& Ĝ",
      "&+ %",
      "&+ )",
      "*&& .",
      "*&& Ğ",
      "%' &&$&'",
      "'' &&%&%",
      "%% &&'&'",
      "&&$& Ğ",
      "ĀĀ&Ā #",
      "%( &&%&",
      "'$ &&'&%",
      "''&&&& &",
      "'%&&&& %",
      "(&&&' &$",
      "&&'&&% %",
      "ğ&& ,",
      "%&&&$ &'",
      "# &&&&%",
      "* ĀĀ&Ā",
      ", !",
      "- ĀĀ$Ā",
      "1 1",
      "? Ā",
      "ě !",
      "&' '&&&&&",
      "&' &&&'&",
      "&( &&'&'",
      "&( &&%&%",
      "%&&&& $",
      "$&& Ĝ",
      "(&& &$",
      "&&%& /",
      "&+ (",
      "&+ &'",
      "(' &&'&$",
      "'( &&'&%",
      "Ġ&& Ğ",
      "%%&&&& %",
      "%'&&&& '",
      "/ -",
      "@ Ā",
      "ĝ (",
      "Ğ !",
      "Ğ +",
      "Ğ ,",
      "ğ ğ",
      "Ġ Ě",
      "Ġ &&&&'",
      "Ġ ,&&",
      "&&&& #",
      "&' &",
      "&&% &&\"",
      "&( ,",
      "&) !",
      "&) &",
      "&# +",
      "&\" )",
      "&&) &&)",
      "#&& ĝ",
      "%' &&$&",
      "!&& Ğ",
      "&&$&% &'",
      "(% &&(&%",
      "(% &&(&'",
      "$' &&$&",
      "''&&&& '",
      "%'&&&& &",
      "%&&) &#",
      "'%&&&& '",
      "'&&&% &%",
      "'&&&( &'",
      "#&&&% &",
      "$ &&%&",
      "- ĀĀ#Ā",
      ". *",
      ". -",
      ". ĀĀ&Ā",
      "0 1",
      "ĝ ĀĀ",
      "Ġ Ĝ",
      "Ġ (&&",
      "&' ''&&&&",
      "&&% &&*",
      "&$ &&'&%",
      "&) &(",
      "&) &&&&'",
      "&# !",
      "'&& &#",
      "'&&&& &&%",
      "&* &'",
      "&&) &&'",
      "$&& &(",
      "&+ *",
      "&! !",
      "&! $",
      "&&&&&&&& &&&",
      "(&&&& (",
      "%&&&% &#",
      "'$ &&'&",
      "%$ &&%&",
      "&&%&& &#",
      "ğ&& ğ",
      "%&&* &%",
      "! ĝ",
      "# #&&&&",
      "$ &%",
      "% *&&&&",
      "& Ė",
      "' Ĝ",
      ") &&&&%",
      ") )&&&&",
      "+ ĀĀ$Ā",
      ". )",
      "ě %",
      "Ġ 2",
      "&&( (",
      "&) &&",
      "%&&&& (",
      "&&) &Ğ",
      "&! #",
      "&! (",
      "%' &&'&'",
      "%' &&$&%",
      "'% &&(&",
      "'% &&(&'",
      "(' %&&&&",
      "(% &&'&(",
      "$% &&%&$",
      "%$ &&%&%",
      "($ &&'&'",
      ",&& -",
      "'&&) &(",
      "(&&&( &%",
      "# /",
      "( *&&&&",
      "- !",
      "Ĝ )",
      "ĝ )",
      "Ġ '&&",
      "Ġ &.",
      "&&&& \"",
      "&&' &'&&&&&&",
      "&# &&'&%",
      "&* !",
      "&%&&&& #",
      "&+ $",
      "&+ +",
      "&+ &%",
      "&! '",
      "&! &%",
      "&! &(",
      "$&&&& (",
      "%% $&&&&",
      "%% &&$&'",
      "'% &&%&'",
      "$% '&&&&",
      "$' &&%&(",
      "ĀĀ%Ā !",
      "'$ &&'&'",
      "Ġ&& .",
      "(( &&'&",
      ",&& ğ",
      "%&&# &(",
      "%&&# &)",
      "'&&) &#",
      "$&&&% &(",
      "&&%&&' &&&'",
      "%&&* &$",
      "'&&&% &'",
      "(&&\" &%",
      "&&&&&&&&&&&& &",
      "# ĝ",
      "# &&'&%",
      "$ &'&&&&",
      "& ĀĀ)Ā",
      ") ě",
      ") &&'&%",
      ", ĀĀ#Ā",
      "- ğ",
      ". '",
      ". ĀĀ#Ā",
      "/ (",
      "Ě ĀĀ",
      "Ġ $&&",
      "Ġ &&(&%",
      "&& Ĝ",
      "&' &&",
      "&% &&&%",
      "&( &&'&",
      "&( &&%&'",
      "&$ &&%&'",
      "&&$ $",
      "&) &#",
      "%&&&& &$",
      "&&) &&%",
      "&%&&&& &&%&&&&",
      "#&& Ĝ",
      "#&& &%&%",
      ")&& Ĝ",
      "$&&&& &(",
      "(&&&& &(",
      "%' &&%&)",
      "\"&& Ğ",
      "&, #",
      "'% &&%&%",
      "!&& ĝ",
      "&&\" &*",
      "&&'&& &(&&&&",
      "Ġ&& ğ",
      "&$&&&& &&",
      ",&& &(",
      "$$ &&%&'",
      "'%&&&& &",
      "#' &&$&%",
      "&&& ĝ",
      "&&+ &",
      ")% &&'&'",
      "%&&\" &%",
      "%&&* &",
      "\" /",
      "# &&%&",
      "# &&'&'",
      "$ &",
      "' &&'&%",
      "' !&&&&",
      ", Ğ",
      "- ,",
      "Ĝ ,",
      "Ĝ Ĝ",
      "Ĝ ĀĀ",
      "Ğ Ğ",
      "Ġ &&'&%",
      "Ġ &/",
      "&& &*",
      "&% &$",
      "&&% &%&&&&%",
      "&$ &&'&'",
      "%&& &*",
      "%&& &%&&&&",
      "'&&&& )",
      "&\" !",
      "&&# &&#",
      "(&& &+",
      "&+ !",
      "#&& &",
      "&! %",
      "'' &&%&'",
      "$% &&%&(",
      "$% &&$&%",
      "#&&&& $",
      "#&&&& (",
      "+&& ĝ",
      "+&& &*",
      "%( &&%&%",
      "&&'&& &$&&&&",
      "Ġ&& &\"",
      "&&%&& &(&&&&",
      "$( &&%&%",
      "#' &&%&%",
      ")% &&'&",
      "&&'&&' %",
      "&&'&&' '&&&&",
      "ğ&& -",
      "'&&\" &(",
      "$&&* &'",
      "$&&&$ &'",
      ")&&\" &'",
      "&&(&&' %",
      "# Ĝ",
      "# (&&&&",
      ", ĀĀ%Ā",
      "- ĀĀ(Ā",
      ". ĀĀ$Ā",
      "ď Ā",
      "Ę &&",
      "ě )",
      "ě ĀĀ",
      "Ğ ĀĀ",
      "Ġ &&'&'",
      "&' &&%&(",
      "&&% &%&&&&&&",
      "&$ &",
      "&&( )",
      "&&( &&\"",
      "'&& ě",
      "'&& &'&&&&&&&&",
      "&\" ğ",
      "&+ \"",
      "#&& &%&'",
      "$&&&& &'",
      "\"&& Ĝ",
      "\"&& &%&%",
      "&, *",
      "&&&' &(",
      "&&&&% &'&&&&",
      "&&&&' &%&&&&",
      "(' &&(&",
      "$' &&$&%",
      "+&& .",
      "&&'&& &(&",
      "'( &&'&$",
      "&&%&& &$&&&&",
      "&(&&&& &&",
      "$$ &&%&%",
      "&&! &'",
      "%&&* &(",
      "+ Ğ",
      "+ ğ",
      "+ ĀĀ(Ā",
      "- /",
      ". %",
      "/ %",
      "/ ĀĀ(Ā",
      "Ā ğ",
      "ę &",
      "ě #",
      "ě ğ",
      "ĝ *",
      "Ġ &&'&",
      "&% &",
      "&% -",
      "&% %%&&&&",
      "&&' )",
      "&( &&'&(",
      "&$ &&%&%",
      "&$ &&'&$",
      "&) &)",
      "&# &*",
      "'&& &'&&&&",
      "%&&&& &&'",
      "%&&&& &)",
      "&* \"",
      "&+ #",
      "(&&&& &'",
      "*&& ě",
      "'' $&&&&",
      "'% &&(&$",
      "&&&&% &(",
      "&&* &&&&",
      "(' &&'&(",
      "$' &&%&$",
      "ĀĀ$Ā #",
      "'( &&'&(",
      "Ġ&& ĝ",
      "&(&&&& (",
      "$( &&%&'",
      "&&& /",
      "$&&&% &$",
      "&&+ &%",
      "'&&&% &$",
      "'&&* &$",
      "'&&&( &%",
      "$&&&$ &%",
      "& ĀĀ(Ā",
      "' &&'&'",
      "' &&%&%",
      "( &&$&'",
      "( \"&&&&",
      ") %&&)",
      "+ ĀĀ%Ā",
      "/ ĀĀ!Ā",
      "0 5",
      "2 1",
      "Ĝ *",
      "ĝ .",
      "&% &&&%&",
      "&&' &&%&&&&&",
      "&# ğ",
      "&# &&'&",
      "&# &&%&%",
      "&* ,",
      "&&# &&$",
      "&+ &",
      "&! +",
      "&! &'",
      "(&&&& )",
      "&, +",
      "%% &&$&%",
      "&&(& Ĝ",
      "&&$& ĝ",
      "&&* &)",
      "%( &&%&(",
      "Ġ&& -",
      "($ &&'&",
      "($ &&'&%",
      "$$ &&%&",
      "%) &&%&'",
      ")% &&'&%",
      "%&&&' &'",
      "%&&\" &$",
      "%&&* &'",
      "'&&* &",
      "$&&* &%",
      "&%&&&&' &'",
      "$'&&&& (",
      "%&&! &'",
      "$ %&&#",
      "& ĀĀ#Ā",
      "( &&$&%",
      ") &&&&'",
      "* ĀĀ%Ā",
      "- Ĝ",
      ". ĀĀ(Ā",
      "/ ĀĀ)Ā",
      "3 0",
      "Ę ĀĀ",
      "Ě \"",
      "Ě #",
      "Ě (",
      "ě \"",
      "ě $",
      "Ġ )&&",
      "Ġ &&&&%",
      "&& ě",
      "&&&& *",
      "&( -",
      "&( &&'&$",
      "&&( &&*",
      "&&( &&%&&&%",
      "&&$ &'&&&&",
      "%&&&& &&%",
      "&\" +",
      "&'&&&& &&%&&&&",
      "&%&&&& &'",
      "$&& &",
      "&+ &#",
      "&! \"",
      "(&&&& &$",
      "'' (&&&&",
      "'' &&'&(",
      "'' &&%&$",
      "&&&% &$",
      "(' &&(&%",
      ")&&&& $",
      "+&& Ğ",
      "%( &&%&$",
      "''&&&& (",
      "%'&&&& %",
      "$$ &&$&'",
      "%&&) &!",
      "'&&# &#",
      "(&&&' &(",
      "&&+ &'",
      "&&%&&% '&&&&",
      "&'&&&&% &'",
      "$&&* &",
      "&#&&&& (",
      "(&&\" &(",
      ")&&&' &%",
      "&&(&&' $",
      "&&&&&&&&&&&&&&&& &&&&&&&&&&&&&&&&",
      "! Ĝ",
      "\" Ĝ",
      "\" &&%&'",
      "$ Ĝ",
      "& ĕ",
      ") &&'&",
      "+ ĀĀ&Ā",
      ". \"",
      "/ ĀĀ$Ā",
      "1 3",
      "ę ĀĀ",
      "ě '",
      "&&&& &&'",
      "&' &&'&$",
      "&% &&'&(",
      "&$ &&%&$",
      "&$ %(",
      "&&( &'&&&&",
      "&&$ &&\"",
      "&) &&'&'",
      "%&& ě",
      "&&# &&(",
      "&&# &Ğ",
      "&&# &/",
      "&&) &ĝ",
      "&+ &$",
      "&! *",
      "&&'&' &'&&&&",
      "%' &&'&%",
      "&, '",
      "%% &&'&%",
      "%% &&$&(",
      "'% $&&&&",
      "!&& .",
      "&&&&% &%&&&&",
      "&&&&' &(",
      "(% %&&&&",
      ")&&&& (",
      "'$ &&'&$",
      "''&&&& $",
      "%%&&&& (",
      "(( &&'&'",
      "ĀĀ\"Ā #",
      "'&&# &*",
      "'%&&&& $",
      "#' &&%&'",
      "'&&) &\"",
      "%# &&&&%",
      "&&! &",
      "&&! &%",
      "#% &&%&%",
      "'&&* &'",
      "'&&* &%",
      "%&&&$ &%",
      "&)&&&& (",
      "%&&+ &%",
      "'&&+ &'",
      "&&%&&$ %",
      "\" '&&&&",
      "# &&'&",
      "& ĀĀ\"Ā",
      "' Ě",
      ", &",
      ", ĀĀ(Ā",
      "- ĀĀ)Ā",
      ". ĀĀ)Ā",
      "/ \"",
      "/ &&&&",
      "1 2",
      "ě +",
      "Ĝ +",
      "ĝ ĝ",
      "Ġ 5",
      "Ġ &&'&$",
      "Ġ &&$&%",
      "&&&& )",
      "&&&& &&%",
      "&' '%&&&&",
      "&&' &&&&&&&&&&&&",
      "ĀĀ <Ā",
      "&$ '&&&&",
      "&&( #",
      "&) ğ",
      "&) &&%&'",
      "%&& Ě",
      "'&&&& &)",
      "&&) &.",
      "(&& &#",
      "&&'& ĝ",
      "&+ '",
      "&! )",
      ")&& &(&%",
      "\"&& ĝ",
      "&, \"",
      "&, $",
      "%% &&'&$",
      "&&&' &$",
      "!&& &",
      "&&&&' &'",
      "&&&&' &'&&&&",
      "&&\" &#",
      "&&\" &+",
      "&&* &*",
      "&&(&' &'",
      "$% &&$&",
      "#&&&& &(",
      "&ğ #",
      "&&%&&&& &&'&",
      "'$ &&%&'",
      "'$ &&(&'",
      "Ġ&& /",
      "%'&&&& (",
      "'&&) &*",
      "$) &&%&%",
      ")% &&'&$",
      "&&%&&% &&&%&",
      "&&(&& &$",
      "-&& .",
      "-&& ğ",
      "&&$&& &#",
      "'&&&% &(",
      "'&&\" &%",
      "&'% $&&&&",
      "(&&\" &",
      "'$&&&& '",
      "&&$&&% %",
      "# &&%&%",
      "$ &&'&(",
      "% Ĝ",
      ") ĀĀ)Ā",
      "* ĝ",
      "* ĀĀ(Ā",
      "+ ĝ",
      ". !",
      ". ğ",
      ". ĀĀ\"Ā",
      "/ ğ",
      "/ ĀĀ#Ā",
      "ę \"",
      "ĝ /",
      "Ğ ğ",
      "Ġ &&%&$",
      "Ġ &&$&'",
      "&&% &&%&&&&&",
      "&&% &&'&&&&&",
      "&( '&&&&",
      "&$ %&&",
      "&&( &%&&&&",
      "&&$ &%&&&&",
      "&) &&%&%",
      "'&& Ě",
      "'&& &\"",
      "%&&&& &#",
      "&* &&",
      "&&# &&'",
      "&&) &&#",
      "$&& &!",
      "(&& Ě",
      "&+ -",
      "#&& &$&%",
      ")&& &$",
      ")&& &(&",
      "*&& &+",
      "%' $&&&&",
      "'' &&%&(",
      "%% (&&&&",
      "%% &&'&(",
      "%% &&$&",
      "(' &&(&'",
      "(' &&(&(",
      "(% &&%&'",
      "Ġ&& &!",
      "%$ &&$&'",
      "($ &&'&$",
      "(( &&'&%",
      "%&&# &#",
      "#' &&$&'",
      "'&&) &)",
      "'# &&'&%",
      "&&+ &(",
      "&&+ &$",
      "&&%&&% $",
      "&&'&&% &&&%",
      "%&&\" &(",
      "%&&&$ &(",
      "&&(&&&& &",
      "%&&+ &'",
      ")&&&' &$",
      "(&&* &'",
      "#&&* &$",
      "&&%&&( '",
      "'&&&&&&&& &&&",
      "\" &&'&%",
      "# &&'&$",
      "# &&(&%",
      "# \"&&&&",
      "$ \"&&&&",
      "% &&(&%",
      "& ĀĀ'Ā",
      "' %&&",
      "( ę",
      "( &&'&(",
      "* ĀĀ'Ā",
      ", ĀĀ\"Ā",
      "2 4",
      "Ā /",
      "Ė &&",
      "ě Ě",
      "Ĝ %",
      "Ğ -",
      "Ġ 3",
      "Ġ &&%&",
      "Ġ &&%&%",
      "Ġ &&&%",
      "Ġ &&%&(",
      "Ġ &&'&(",
      "&&&& &&&%",
      "&&% &'&&&&%",
      "&( Ğ",
      "&) ,",
      "&# &&",
      "'&&&& *",
      "&* )",
      "&* -",
      "&* ğ",
      "&\" ,",
      "&\" &%",
      "&&# &&)",
      "$&& &#&%",
      "#&& ě",
      ")&& &+",
      ")&& &-",
      "\"&& &",
      "&, .",
      "'% &&%&$",
      "&&(& /",
      "&&&&' &%",
      "(' &&'&#",
      "&- \"",
      "'&&&' &#",
      "#&&&& &",
      "$' &&$&(",
      ")&&&& &%",
      "ĀĀ%Ā +",
      "&&%&& &%&&&&&&&&",
      "($ &&(&%",
      "&(&&&& $",
      "$( &&%&(",
      "$( &&$&'",
      ",&& &*",
      "%&&) &)",
      "'%&&&& #",
      "'%&&&& (",
      "%&&# &*",
      "#' &&%&",
      "&&+ &#",
      ")' &&'&",
      ")% &&(&$",
      "&&'&&' &&&'",
      "#% &&%&",
      "#% &&%&'",
      "$&&* &(",
      "$'&&&& '",
      "$&&\" &(",
      "&&'&&( %",
      "&&#&& &$",
      "&&(&&% '",
      "&&)&& &(",
      "%&&&&&&&& &&&",
      "% ě",
      "' &'&&&&",
      ") &&%&",
      ") &&%&%",
      "* ĀĀ#Ā",
      ", ĝ",
      "0 4",
      "2 2",
      "ę (",
      "Ě $",
      "Ě ğ",
      "ě (",
      "ě ĝ",
      "Ĝ ğ",
      "Ġ &&$&(",
      "&&&& !",
      "&&&& &&&'",
      "&' ğ",
      "&% %'",
      "&% &&$&%",
      "&&' &'&&&&'",
      "&&' %&&'&",
      "&&% &&$&&&&",
      "&( %&&&&",
      "&( &&%&(",
      "&) &&'&%",
      "&# &&%&",
      "%&& Ĝ",
      "%&& #&&",
      "&\" &(",
      "&&# &&&%",
      "&&) &&&'",
      "&'&&&& &'",
      "&%&&&& &%",
      "&%&&&& &&'&&&&",
      "$&& &'&%",
      "(&& ę",
      "(&& ě",
      "#&& &ğ",
      "$&&&& )",
      "$&&&& &)",
      "&&%&% &%",
      "*&& &",
      "\"&& &'",
      "!&& &!",
      "&&\" &!",
      "&&(&% &'",
      "(% &&'&)",
      "$% (&&&&",
      "'&&&' &)",
      "ĀĀ$Ā !",
      "ĀĀ$Ā *",
      "%( &&'&",
      "&&'&& &*",
      "&&'&& &'&&&&&&&&",
      "'$ &&'&(",
      "ĀĀ'Ā !",
      "ĀĀ'Ā +",
      "$( &&%&$",
      ")' &&(&%",
      ")% &&(&%",
      "&&'&&' $",
      "&&'&&' &&&'&",
      "ĀĀ*Ā )",
      "#% &&$&'",
      "-&& -",
      "-&& &*",
      "%&&\" &",
      "$&&* &#",
      "(&&\" &'",
      "$&&\" &$",
      ".&& ,",
      ")&&&' &'",
      "#&&\" &'",
      "#&&\" &%",
      "&&(&&' '",
      "&&$&&% '",
      "&&(&&% %",
      "\" Ě",
      "\" &&'&$",
      "# &'",
      "$ %&&",
      "$ !&&&&",
      "& ĀĀ&Ā",
      "& ĀĀ!Ā",
      "' +&&&&",
      "( &&%&(",
      "( %&&)",
      ") ĀĀ(Ā",
      "+ ĀĀ#Ā",
      ", ĀĀ!Ā",
      ", ĀĀ*Ā",
      ". Ğ",
      ". ĀĀ+Ā",
      "/ ĀĀ+Ā",
      "0 2",
      "ė &&",
      "ě *",
      "Ĝ Ę",
      "ĝ -",
      "ğ Ğ",
      "Ġ 4",
      "Ġ &&(&",
      "Ġ &ğ",
      "Ġ ĀĀ(Ā",
      "Ġ %&&!",
      "&' ,",
      "&' &&%&$",
      "&% &&%&(",
      "&&' &%&&&&'",
      "&&% #",
      "&$ &%&&&&",
      "&&( &&'&&&'",
      "&&$ %&&&&",
      "&&$ &&%&&&&",
      "&&$ &&'&&&'",
      "&) .",
      "&) '%",
      "&# &&'&$",
      "%&& &%&&&&&&&&",
      "%&&&& )",
      "&\" &&",
      "&\" &&&&'",
      "&&# %",
      "&&) $",
      "$&& ě",
      "$&& &#&'",
      "&! &&",
      ")&& &(&'",
      "$&&&& #",
      "$&&&& &&",
      "&&%&' %",
      "*&& Ĝ",
      "*&& &%",
      "%' &&'&(",
      "'' &&'&#",
      "'' &&'&)",
      "'% &&'&#",
      "&&&&' &\"",
      "&&\" &\"",
      "&&* &!",
      "&&* &,",
      "$' &&%&)",
      "ĀĀ%Ā $",
      "&&%&&&& &&%&",
      "&&%&&&& &&%&&&&",
      "&&%&&&& &&'&&&&",
      "+&& /",
      "%( &&$&'",
      "Ġ&& &$",
      "%$ &&'&'",
      "&(&&&& )",
      "&(&&&& &&%",
      "ĀĀ)Ā \"",
      "%) &&%&%",
      ")' &&'&'",
      ")' &&'&$",
      ")% &&'&(",
      "(# &&'&'",
      "(# &&(&'",
      "&&'&&' (",
      "&&'&&% $",
      "&&%&&' &&&'&",
      "#$ &&%&'",
      "$# &&%&%",
      "&&(&& &%&&&&",
      "-&& ,",
      "%&&&' &(",
      "%&&* &#",
      "'&&* &\"",
      "&'&&&&% &%",
      "Ğ&& ,",
      "(&&&( &'",
      "&&%&&&% &'",
      "$&&\" &'",
      "$&&\" &%",
      "ĝ&& ğ",
      ")&&* &(",
      "&&%&&$ '",
      "&&%' &&%&",
      "' &%&&&&",
      "( ě",
      "( +&&&&",
      ") &",
      ") &(",
      ") &&'&'",
      ") &&%&(",
      "* &&'&'",
      "* ĀĀ$Ā",
      "* ĀĀ)Ā",
      "+ Ĝ",
      "+ ĀĀ\"Ā",
      ", ĀĀ+Ā",
      ". /",
      ". ĀĀ*Ā",
      "/ !",
      "0 3",
      "2 3",
      "6 1",
      "ė ĀĀ",
      "Ě !",
      "Ě Ğ",
      "Ĝ '",
      "Ğ ĝ",
      "Ġ ę",
      "Ġ &&)",
      "Ġ %&&\"",
      "Ġ (&&\"",
      "&% &&'&$",
      "&% ('",
      "&&' $&&&&",
      "&&' &&&%&",
      "ĀĀ Ď",
      "ĀĀ =Ā",
      "&( &&%&$",
      "&$ -",
      "&&( &$&&&&",
      "&&$ #",
      "&&$ (",
      "&&$ '&&&&",
      "&&$ &&*",
      "&&$ &&'&&&&",
      "&&$ &&&%&",
      "&) &&%&(",
      "&# &&'&'",
      "%&&&& #",
      "'&&&& #",
      "&* Ğ",
      "&&# &Ĝ",
      "&%&&&& )",
      "&&'& /",
      "#&& &$&'",
      ")&& Ě",
      "*&& &,",
      "*&& &'&%",
      "%' (",
      "%' &&'&$",
      "%' &&$&(",
      "%' &&$&$",
      "'' (",
      "%% &&(&'",
      "'% (",
      "!&& Ĝ",
      "(' &&%&%",
      "$% &&%&)",
      "%&&&% &)",
      "ĀĀ%Ā *",
      "&ğ \"",
      "ĀĀ&Ā $",
      "'( &&(&'",
      "'$ &&%&",
      "'$ &&%&%",
      "'$ &&(&%",
      "Ġ&& &",
      "Ġ&& &#",
      "%$ &&$&%",
      "&(&&&& #",
      "ĀĀ#Ā !",
      "ĀĀ(Ā #",
      ",&& &,",
      "'# &&'&$",
      "%# &&%&%",
      "(&&&' &)",
      ")$ &&'&",
      "&&'&&% &&&%&",
      ")( &&'&%",
      "#( &&%&%",
      "%&&&' &#",
      "'&&\" &)",
      "&'&&&&% &'&&&&",
      "$'&&&& %",
      "&'&&&&' &'",
      ")&&\" &*",
      ")&&* &",
      "'&&! &'",
      "$&&+ &'",
      "&&$&&' '",
      "&&'&&$ %",
      "#&&&$ &",
      "&&$&&$ '",
      "\" &'",
      "\" &&&&%",
      "# %&&#",
      "$ &&%&(",
      "& ē",
      "( Ę",
      ") ę",
      "+ ĀĀ'Ā",
      "- &&+",
      "/ ĀĀ*Ā",
      "3 2",
      "5 0",
      "Ā &",
      "Ā ě",
      "Ā (%",
      "ę !",
      "Ě ě",
      "ğ ĝ",
      "Ġ Ę",
      "Ġ \"&&",
      "Ġ &&$&",
      "Ġ ĀĀ$Ā",
      "Ġ '*",
      "&& &,",
      "&&&& &",
      "&' )&&&&",
      "&% &&%&$",
      "&&' (&&&&",
      "&&% &&&&&&&&&&&&",
      "ĀĀ >Ā",
      "ĀĀ ?Ā",
      "&$ ğ",
      "&&( &&+",
      "&&$ &&!",
      "&) -",
      "&) Ğ",
      "&) &&'&",
      "%&& &)",
      "'&& &+",
      "'&&&& &&'&&&&",
      "&%&&&& &&&'",
      "$&& Ě",
      "$&& \"&&",
      "#&& &(",
      "$&&&& $",
      "$&&&& &&&&&&&&",
      "&&%&' &%&&&&",
      "%' &&%&&&&&&&&",
      "&, )",
      "'% #",
      "'% $",
      "'% &&%&(",
      "'% &&(&(",
      "&&&&% &$",
      "&&$& ě",
      "(' &&%&",
      "(' &&%&$",
      "$% %&&&&",
      "$% &&$&(",
      "&- %",
      "&- '",
      "&- &&&&",
      "#&&&& &%",
      ")&&&& &",
      "ĀĀ%Ā (",
      "&ğ &&&&",
      "&&%&&&& &'",
      "ĀĀ$Ā -",
      "%( &&'&'",
      "%( &&'&%",
      "&&'&&&& &&'&&&&",
      "&&'&& &#",
      "%$ &&%&$",
      "&$&&&& #",
      "%%&&&& $",
      "ĀĀ#Ā #",
      "(( &&'&$",
      "(( &&(&'",
      ",&& .",
      ",&& Ğ",
      ",&& &)",
      "&&! &)",
      "$) &&%&'",
      "*&&&& (",
      ")' &&'&%",
      ")$ &&'&%",
      ")$ &&'&$",
      ")$ &&(&$",
      "&&%&&% &&&%",
      ")( &&'&'",
      "#( &&%&'",
      "#( &&$&",
      "&&)&' %",
      "$# &&%&'",
      "&&(&& &)",
      "&&(&& &'&&&&",
      "-&& ĝ",
      "*% &&'&$",
      "&&$&& &(",
      "'&&\" &$",
      "'&&* &#",
      "%&&&$ &$",
      "Ġ&&&& $",
      "(&&&( &(",
      "(&&&( &)",
      "$&&\" &",
      "(&&* &",
      "&&'&&( (",
      ")&&\" &%",
      "#&&* &%",
      "%(&&&& (",
      "&&%&&&&&&&& &&&",
      "#&&\" &#",
      "&&#&& &#",
      "&&$&&' %",
      "&%% &&%&",
      "'&&&&% &",
      "'&&&) &'",
      "$&&&' &",
      "! &&&%",
      "\" &&&&'",
      "$ &'",
      "$ '&&",
      "% %&&#",
      "( &)",
      ") Ě",
      ") Ĝ",
      ") #&&&&",
      ") ĀĀ&Ā",
      ") '&&)",
      ") ĀĀ+Ā",
      "* &",
      "* $&&&&",
      "* &&'&%",
      "* ĀĀğĀ",
      "+ &",
      "+ &&&'",
      "- ĀĀ\"Ā",
      "- ĀĀ!Ā",
      ". ĝ",
      "/ ĀĀ\"Ā",
      "2 5",
      "4 1",
      "5 1",
      "6 2",
      "Ě '",
      "ě &'",
      "Ĝ -",
      "ĝ Ğ",
      "Ğ .",
      "Ġ ė",
      "Ġ &&$",
      "Ġ +&&",
      "Ġ &&%&#",
      "Ġ &&#&%",
      "Ġ $&&!",
      "Ġ *&&\"",
      "&% &&(&%",
      "&% &&$&'",
      "&% &&%&&&&&&&&",
      "&&% )",
      "ĀĀ ĒĀ",
      "ĀĀ ĐĀ",
      "&( (&&&&",
      "&$ &&&%&",
      "&# ,",
      "'&& &!",
      "%&&&& &&&%&&&&",
      "&&# (",
      "&&# &&\"",
      "&&# &ĝ",
      "(&& &,",
      "&+ ğ",
      "&! ,",
      ")&& &",
      "&&%&% ''&&&&",
      "*&& &$",
      "*&& &(&$",
      "%% $",
      "%% &&(&%",
      "&&&% '&&&&",
      "&&&' &&",
      "&&&' &)",
      "!&& /",
      "&&%&( %",
      "(' '&&&&",
      "(' &&'&)",
      "$% &&$&$",
      "&- #",
      "#&&&& #",
      "$' (",
      ")&&&& )",
      "ĀĀ%Ā \"",
      "ĀĀ%Ā #",
      "ĀĀ%Ā .",
      "ĀĀ&Ā -",
      "ĀĀ$Ā $",
      "'( &&%&",
      "'( &&%&$",
      "%$ &&%&(",
      "&$&&&& )",
      "ĀĀ'Ā \"",
      "ĀĀ'Ā ĝ",
      "($ &&'&(",
      "&. +",
      "$( &&$&%",
      "$$ &&%&$",
      "%&&# &\"",
      "#' &&%&(",
      "#' &&%&$",
      "#' &&$&",
      "') &&'&",
      "&&! &(",
      "&&! &$",
      ")' &&(&'",
      ")$ &&(&%",
      ")$ &&(&'",
      "&&%&&% (",
      "(# &&'&",
      "&&'&&' (&&&&",
      "ĠĀ !",
      "'\" &&'&'",
      "%&&&' &$",
      "%&&* &)",
      "&&$&& &'&&&&",
      "'&&\" &#",
      "'&&* &(",
      "\"' &&%&(",
      "*$ &&'&'",
      "Ğ&& ğ",
      "'&&&( &(",
      "&'% &&'&",
      "*' &&(&$",
      "&%&&&&' &%&&&&",
      "(&&&( &$",
      ")&&&' &(",
      "(&&* &(",
      "&&'&&( '",
      ")&&* &%",
      ")&&* &$",
      "'&&! &%",
      "/&& ,",
      "&&(&&% (",
      "%&&&&% &",
      "'&&, &$",
      "# '&&#",
      "$ $&&",
      "$ '&&#",
      "% Ě",
      "% &)",
      "% &&(&",
      "% +&&&&",
      "& ĀĀ*Ā",
      "' ě",
      "' '&&)",
      "( %&&",
      "( &'&&&&",
      "( ĀĀ)Ā",
      ") &&'&(",
      ") &&$&(",
      ") #&&*",
      "* Ě",
      "* ě",
      "* %&&",
      "* &&%&%",
      "* &&%&(",
      "* &&&&%",
      "* ĀĀ+Ā",
      "* +&&&&",
      ", &&*",
      "- ĝ",
      "/ ĀĀ,Ā",
      "0 7",
      "3 1",
      "ć Ā",
      "Ę #",
      "ę %",
      "Ě &",
      "Ĝ ě",
      "Ĝ ĝ",
      "Ğ Ĝ",
      "Ġ %&&&&",
      "Ġ *&&",
      "Ġ &&(&'",
      "Ġ &&(&$",
      "Ġ &Ğ",
      "Ġ &&)&%",
      "Ġ &&#&$",
      "Ġ &&)&#",
      "&&&& &'",
      "&' &&'&(",
      "&' '&&&'",
      "&% ğ",
      "&% &&(&'",
      "&% %(",
      "&% %'&&&&",
      "&% &&'&#",
      "&&' &&(&&&&",
      "ĀĀ đĀ",
      "&( /",
      "&( &%&&&&",
      "&$ &'&&&&",
      "&$ &&&%",
      "&# .",
      "&# Ğ",
      "'&& &",
      "'&& &%&&&&",
      "'&& )&&",
      "'&& &ğ",
      "%&&&& &&'&&&&",
      "&* &#",
      "&* &&&&%",
      "&\" ĝ",
      "&\" &&&&%",
      "&&) &&*",
      "&'&&&& \"",
      "(&& &%&%",
      "&+ ,",
      "#&& &#&'",
      "&! &#",
      ")&& &,",
      ")&& &)&%",
      "&&&&&&&& &",
      "*&& &(&%",
      "%' )",
      "\"&& &%&'",
      "'' &&$&'",
      "'' &&(&$",
      "&, !",
      "&, %",
      "&, (",
      "&, -",
      "&&$& Ĝ",
      "&&\" &,",
      "&&(&% $",
      "(' $",
      "(% &&(&$",
      "$% #",
      "&- !",
      "&- $",
      "$' &&'&(",
      "ĀĀ%Ā )",
      "&ğ (",
      "ĀĀ$Ā ,",
      "&&%&& &\"",
      "&$&&&& &&'",
      "ĀĀ'Ā '",
      "ĀĀ'Ā *",
      "($ &&(&",
      "&(&&&& &&'",
      "ĀĀ(Ā +",
      "$( &&%&",
      ",&& /",
      "') &&%&(",
      "') &&&&%",
      "%) &&%&",
      "'# &&'&'",
      "'# &&'&(",
      "ĀĀ!Ā \"",
      ")% &&(&'",
      "#% &&$&(",
      "ĠĀ '",
      "%&&\" &)",
      "%&&\" &*",
      "\"' &&%&%",
      "\"' &&$&'",
      "Ğ&& ĝ",
      "'&&&( &$",
      "$&&* &\"",
      "&%%&&&& &&&&&&&&",
      "&)&&&& $",
      "(%&&&& %",
      "(%&&&& '",
      "$%&&&& '",
      "Ġ&&&& #",
      "('&&&& $",
      "&%&&&&% &'",
      ".&& ğ",
      "'(&&&& %",
      ")&&* &'",
      "$&&+ &%",
      "(&&+ &%",
      "&&'&&$ '",
      "&*&&&& $",
      "&&'' &&'&'",
      "#&&&$ &$",
      "'&&&&' &",
      "(&&&% &",
      "&&%&&# '",
      "! /",
      "\" &&'&",
      "\" &&'&(",
      "# &&(&'",
      "$ ę",
      "$ *&&&&",
      "% ę",
      ") Ę",
      ") \"&&&&",
      ") *&&&&",
      "* '&&&&",
      "* &&%&'",
      ", /",
      ", ĀĀ)Ā",
      "- Ğ",
      "- ĀĀ+Ā",
      "- ĀĀ,Ā",
      ". ,",
      ". ĀĀ-Ā",
      "1 4",
      "Ā ĝ",
      "Ā &'",
      "Ā '%",
      "ě Ĝ",
      "Ĝ Ě",
      "ğ &&\"",
      "Ġ &&'",
      "Ġ $&&&&",
      "Ġ &&)&'",
      "Ġ &&#&'",
      "Ġ &&)&$",
      "Ġ &&$&*",
      "&' /",
      "&' &#",
      "&% &&(&",
      "&&% &&(&&",
      "&&% &%&&&&'",
      "&&% &'&&&&'",
      "&&% &%&&&&'&",
      "ĀĀ @Ā",
      "&( '(",
      "&$ &&%&(",
      "&$ &&'&)",
      "&&( %&&&&",
      "&&( '&&&&",
      "&&$ &&%&&&%",
      "&) /",
      "&) &&%&",
      "&# ((",
      "%&& &'&&&&",
      "'&& &$&%",
      "'&& &$&'",
      "&* &(",
      "&&# $",
      "&&# &&&'",
      "&&) '",
      "&&) &&$",
      "&'&&&& '&&&&",
      "$&& &%&&&&",
      "$&& &'&'",
      "&+ &(",
      "#&& Ě",
      "#&& &)",
      "&! &&'&%",
      "&&&&&&&& &&&'",
      "(&&&& &&",
      "&&'&% ''&&&&",
      "&&'&% %'&&&&",
      "&&%&% %'&&&&",
      "*&& Ě",
      "%' &&(&$",
      "%' &&%&#",
      "%' &&$&#",
      "%' &&%&\"",
      "'' $",
      "&, &(",
      "'% #&&&&",
      "!&& ě",
      "&&&&' &#",
      "&&(&' %",
      "(% $",
      "(% &&'&#",
      "(% &&(&(",
      "$% (",
      "#&&&& )",
      "#&&&& *",
      "$' (&&&&",
      "$' &&$&$",
      ")&&&& *",
      "&ğ '",
      "&ğ +",
      "ĀĀ&Ā \"",
      "&&'&&&& &&%&",
      "'$ &&'&#",
      "'$ &&'&)",
      "%$ &&'&",
      "&&%&& &#&&&&",
      "($ &&(&'",
      "&(&&&& *",
      "&. %",
      "&. '",
      "$( &&%&#",
      "ĀĀ\"Ā !",
      "$$ '&&&&",
      "$$ &&$&",
      "%&&) &\"",
      "&Ğ '",
      "') &&'&%",
      "%) &&%&(",
      "%) &&$&%",
      "&&& Ĝ",
      "%# &&%&'",
      "ĀĀ!Ā !",
      "ĀĀ!Ā )",
      "(# &&(&%",
      "&&'&&% (",
      "&&'&&% (&&&&",
      "#( &&$&'",
      "&&%&&' $",
      "&&%&&' (",
      "&&%&&' (&&&&",
      "#$ &&%&(",
      "#$ &&%&$",
      "'\" &&'&%",
      "%&&\" &\"",
      "ĀĀ,Ā $",
      "*% &&'&'",
      "*% &&(&'",
      "&&$&& &\"",
      "&&$&& &%&&&&",
      "!&&&& )",
      "'&&\" &",
      "'&&\" &\"",
      "\"' &&$&%",
      "$&&* &$",
      "$%&&&& &",
      "(&&\" &)",
      "&%' &&%&",
      "&%' (&&&&",
      "('&&&& %",
      "&%&&&&% &'&&&&",
      "%&&+ &",
      "%&&+ &$",
      "%&&+ &#",
      "ĝ&& Ğ",
      "'(&&&& '",
      "(&&* &$",
      "&&'&&( $",
      "#&&* &'",
      "&&'&&&&&&&& &&&",
      "&'' &&'&",
      "#&&\" &",
      "', &&&&",
      "/&& -",
      "/&& ğ",
      "&&%&&( %",
      "\"&&* &%",
      "\"&&* &$",
      "&&'' &&'&",
      "#&&&$ &(",
      "%&&&&' &",
      "&&(&&( '",
      "'&&&$ &",
      "! &&%&%",
      "! &&'&$",
      "\" ě",
      "\" &&%&",
      "\" &&%&%",
      "# ę",
      "# ě",
      "# &&%&'",
      "$ ''",
      "$ '&&!",
      "% &&$&'",
      "% &&(&'",
      "% !&&&&",
      "& ĀĀ+Ā",
      "' %&&)",
      "( &%",
      ") &&%&$",
      ") ĀĀ\"Ā",
      ") ĀĀ*Ā",
      "* '&&)",
      "+ ĀĀ*Ā",
      ", ě",
      "- ĀĀğĀ",
      "/ ĀĀ.Ā",
      "3 3",
      "4 3",
      "ę Ĝ",
      "ę ğ",
      "ě .",
      "ě Ğ",
      "Ĝ .",
      "Ĝ /",
      "Ĝ Ğ",
      "ĝ Ě",
      "ĝ ğ",
      "ĝ &&&&",
      "Ğ /",
      "ğ Ĝ",
      "Ġ '&&&&",
      "Ġ !&&",
      "Ġ &&'&#",
      "Ġ &&'&)",
      "Ġ ')",
      "Ġ &&$&)",
      "Ġ &&(&#",
      "Ġ &&'&\"",
      "Ġ Ğ&&",
      "Ġ (*",
      "Ġ (&&!",
      "Ġ !&&\"",
      "&& ę",
      "&& &)",
      "&' $$",
      "&% .",
      "&% Ğ",
      "&% %&&&%",
      "&% \"&&&&",
      "&% '&&&&&",
      "&&' &&%&",
      "&&' &'&&&&%",
      "&&% $&&&&",
      "&( &)",
      "&( ($",
      "&$ .",
      "&$ &&'&(",
      "&) '&&&&",
      "&# &#",
      "%&& &",
      "%&& &(&%",
      "%&& &#&'",
      "%&& &#&",
      "'&&&& &#",
      "&* .",
      "&\" &&'&'",
      "&&) &&(",
      "&'&&&& &&'&&&&",
      "&%&&&& %&&&&",
      "&&%& ĝ",
      ")&& &\"",
      "&&&&&&&& &&&%",
      "(&&&& #",
      "(&&&& &\"",
      "&&'&' %'&&&&",
      "&&%&' \"",
      "%' )&&&&",
      "%' &&'&)",
      "%' &&%&*",
      "\"&& &#&'",
      "'' &&(&(",
      "%% (",
      "%% &&$&$",
      "&&&% &)",
      "&&&% &&'&",
      "'% &&$&%",
      "'% &&%&#",
      "&&\" &&&&",
      "(' !",
      "(' &&(&$",
      "(' &&'&\"",
      "$% &&'&$",
      "$% )&&&&",
      "&- *",
      "&ğ &(",
      "ĀĀ$Ā '",
      "%( &&%&)",
      "%( &&$&$",
      "%( &&#&'",
      "'( &&'&#",
      "'( &&(&#",
      "'$ &&%&$",
      "'$ &&(&",
      "'$ &&)&%",
      "%$ &&'&$",
      "%$ &&(&'",
      "%$ &&$&(",
      "&&%&& &)&&&&",
      "&&$&( #",
      "ĀĀ#Ā (",
      "ĀĀ#Ā +",
      "ĀĀ#Ā -",
      "ĀĀ(Ā !",
      "ĀĀ(Ā )",
      ",&& ĝ",
      "ĀĀ\"Ā \"",
      "ĀĀ\"Ā $",
      "ĀĀ\"Ā -",
      "&Ğ #",
      "%) &&&&%",
      "\"&&&& )",
      "&&! &#",
      "&&! &*",
      "&&! &\"",
      "&&! &+",
      "$) &&&&%",
      ")' &&(&",
      ")' &&(&(",
      ")% &&(&",
      ")% &&(&(",
      ")$ &&'&(",
      ")$ &&)&%",
      "(# &&'&%",
      "#% &&%&$",
      "#% &&%&)",
      ")( &&(&%",
      "#( &&%&(",
      "ğ&& Ě",
      "ğ&& ĝ",
      "ğ&& &\"",
      "() &&'&",
      "'\" &&(&%",
      "'* &&'&%",
      "-&& /",
      "-&& &)",
      "*% &&(&%",
      "#) &&%&(",
      "#) &&$&(",
      "%* &&%&",
      "%* &&%&%",
      "$&&* &)",
      "%&&+ &)",
      "%&&+ &\"",
      "$&&\" &*",
      "$&&&$ &(",
      "&%&' &&'&",
      ")&&\" &",
      ")&&\" &(",
      ")&&\" &$",
      "#&&* &",
      "&&%&&&&&&&& %",
      "'&&+ &",
      "#&&\" &(",
      "&''&&&& &&&&&&&&",
      "'&&! &(",
      "$&&! &'",
      "#&&&% &(",
      "&'&' &&%&",
      "(&&! &",
      "(&&! &%",
      "\"&&* &'",
      "*&&* &'",
      "'&&&) &",
      "&&%' &&%&'",
      "\"&&\" &'",
      "!&&* &'",
      "&&(&&$ %",
      "&&(&&$ '",
      "\"&&&$ &$",
      "! &&'&'",
      "\" &)",
      "\" '&&",
      "# &",
      "# Ě",
      "# &&'&(",
      "# &&(&$",
      "# ĀĀ)Ā",
      "# !&&&&",
      "$ &(",
      "$ &%&&&&",
      "$ &&%&$",
      "% &",
      "% '&&#",
      "& ĀĀ,Ā",
      "( '&&)",
      "( !&&&&",
      ") Ė",
      ") &%",
      ") &&$&%",
      "* Ĝ",
      "* &&(&%",
      "* %&&)",
      "+ ę",
      "+ ě",
      "+ '&&",
      "+ &&'&(",
      "+ ĀĀ)Ā",
      "+ ĀĀ+Ā",
      ", ĀĀ,Ā",
      "- ĀĀ*Ā",
      "- ĀĀ-Ā",
      "/ #",
      "/ ĀĀ-Ā",
      "/ ĀĀĞĀ",
      "/ ĀĀĝĀ",
      "1 5",
      "3 7",
      "4 0",
      "Ā Ę",
      "Ā $(",
      "Ĕ ĀĀ",
      "Ę !",
      "Ę $",
      "Ě .",
      "Ě /",
      "Ě Ĝ",
      "Ě ĝ",
      "ě -",
      "ě Ę",
      "Ĝ &&&&",
      "Ġ 6",
      "Ġ %(",
      "Ġ &&(&(",
      "Ġ $)",
      "Ġ #(",
      "Ġ &&%&\"",
      "Ġ )*",
      "Ġ %&&ğ",
      "&& *&&",
      "&& &$&&&&",
      "&& &.",
      "&' &&&'",
      "&' &&$&'",
      "&% &&$&",
      "&% $$",
      "&% &&'&)",
      "&% '&&&'&",
      "&&% &&&'&",
      "&&% &'&&&&%&",
      "ĀĀ ďĀ",
      "&$ $&&&&",
      "&$ &&(&%",
      "&&( &&'&&&&",
      "&) &&'&(",
      "&) &&$&(",
      "&# &&%&'",
      "&# &&*",
      "&# ')",
      "&# &&+",
      "'&& Ę",
      "&* &&%&%",
      "&\" .",
      "&\" &&%&$",
      "&&# &&*",
      "&&) &&&%",
      "&&) &&\"",
      "&&) &/",
      "&&) &Ĝ",
      "&%&&&& '&&&&",
      "$&& Ę",
      "(&& &%&'",
      "(&& &$&%",
      "&&'& Ě",
      "#&& ę",
      "&! ğ",
      "&! &$",
      "&! &&&&%",
      "$&&&& \"",
      "$&&&& &$",
      "&&&&&&&& %",
      "(&&&& &)",
      "*&& &(&'",
      "%' &&$",
      "%' &&(&",
      "%' %&&'&",
      "\"&& ě",
      "\"&& &$&%",
      "'' &&$&",
      "'' &&(&#",
      "&, ,",
      "%% &&%&)",
      "%% &&%&#",
      "'% &&%&)",
      "'% &&%&\"",
      "&&&' &&'&'",
      "&&(&' &%",
      "$% &&'&",
      "$% &&'&%",
      "$% &&%&#",
      "$% &&$&)",
      "&- (",
      "&- ,",
      "&- .",
      "&- &'",
      "$' '&&&&",
      "$' &&'&%",
      "$' &&%&#",
      "%&&&% &'&&&&&&",
      "&ğ %",
      "&ğ ,",
      "ĀĀ&Ā %",
      "ĀĀ&Ā (",
      "ĀĀ&Ā Ğ",
      "+&& &",
      "+&& &+",
      "ĀĀ$Ā ĝ",
      "ĀĀ$Ā ğ",
      "%( &&$&",
      "%( &&$&%",
      "&&'&&&& &&'&",
      "'( %&&&&",
      "'( &&%&%",
      "'( &&%&(",
      "'$ &&(&(",
      "Ġ&& ě",
      "&$&&&& *",
      "ĀĀ'Ā %",
      "ĀĀ'Ā ,",
      "($ &&(&$",
      "($ &&'&#",
      "%%&&&& #",
      "&(&&&& &&%&&&&",
      "&. )",
      "ĀĀ#Ā )",
      "ĀĀ#Ā *",
      "$( &&$&",
      "$( &&$&$",
      "(( &&(&",
      "(( &&(&%",
      "%'&&&& $",
      ",&& &",
      ",&& &.",
      "ĀĀ\"Ā '",
      "ĀĀ\"Ā *",
      "'&&# &+",
      "'&&# &!",
      "%&&# &+",
      "'&&) &!",
      "%) &&%&$",
      "\"&&&& (",
      "'# &&'&",
      "'# &&)&'",
      "%# &&%&",
      "(&&&' &#",
      "&&+ &*",
      ")' &&'&(",
      ")' &&(&$",
      "&&%&&% $&&&&",
      "(# &&'&$",
      "&&'&&% $&&&&",
      "ĀĀ*Ā -",
      "#% &&$&%",
      ")( &&'&",
      "#( &&%&$",
      "&&)&' (",
      "ğ&& .",
      "ğ&& Ğ",
      "() &&'&%",
      "-&& &(",
      "%&&&' &)",
      "%&&* &\"",
      "&&#&( %",
      "'&&* &*",
      "\"' &&%&'",
      "\"' &&$&",
      "## &&%&%",
      "Ğ&& Ĝ",
      "Ğ&& &$",
      "\"% &&%&%",
      "\"( &&%&'",
      "&&'&&&' &%",
      "&'%&&&& &&&&&&&&",
      "$&&\" &\"",
      "&'&&&&' &%",
      "&'&&&&' &%&&&&",
      "&'&&&&&& &%&&&&",
      "$&&&$ &)",
      "%$&&&& '",
      "'&&+ &%",
      ")&&* &#",
      "%&&! &",
      "%&&! &%",
      "&&$&&% $",
      "&&%&&( (",
      "Ĝ&& ğ",
      "$&&! &$",
      "(&&+ &",
      ",ĀĀ ĚĀ",
      ",ĀĀ ęĀ",
      "+' &&'&'",
      "%&&, &'",
      ")&&! &'",
      "*&&! &'",
      "*&&&' &",
      "&&'&%&&&& &&'",
      "'&&&$ &(",
      "&'&&&&&&&&&&&& &",
      "! &",
      "! ę",
      "! $&&",
      "! &&'&(",
      "\" &$",
      "\" %&&",
      "\" %&&&&",
      "\" &&'&'",
      "\" ĀĀ%Ā",
      "\" %&&#",
      "\" \"&&&&",
      "\" &&)&%",
      "\" \"'",
      "# &)",
      "# &'&&&&",
      "# &&&&'",
      "# *&&&&",
      "# ĀĀ+Ā",
      "# &&)&'",
      "% '&&)",
      "' #&&",
      "' &&(&%",
      "( Ě",
      "( &&(&",
      "( ,&&&&",
      ") &*",
      ") &&$&",
      ") &&$&'",
      "* &'",
      "* %&&&&",
      "* &&'&(",
      "* ĀĀ-Ā",
      "+ Ě",
      "+ (&&",
      "+ ĀĀ-Ā",
      "+ ĀĀĞĀ",
      ", Ĝ",
      ", &&\"",
      ", ĀĀğĀ",
      ". ę",
      ". ĀĀ,Ā",
      "8 0",
      "Ā ė",
      "Ā %!",
      "Ď Ā",
      "Ę ğ",
      "ę $",
      "ę *",
      "ę &$",
      "Ě *",
      "Ĝ ę",
      "Ğ &&*",
      "ğ )&&",
      "Ġ &&%",
      "Ġ &&#",
      "Ġ ĀĀ#Ā",
      "Ġ %)",
      "Ġ \"(",
      "Ġ &&#&)",
      "Ġ #*",
      "Ġ ',",
      "&& &+",
      "&& &-",
      "&&&& &&(",
      "&' -",
      "&% '(",
      "&&' &&$&&&&",
      "&&% (&&&&",
      "&&% &'&&&&&&'",
      "&( .",
      "&( &&&'&",
      "&&( &&&'&",
      "&&$ )",
      "&&$ &&+",
      "&) &!",
      "%&& &(&'",
      "'&& ę",
      "%&&&& &&$",
      "'&&&& &&&'&&&&",
      "&* &$",
      "&* &&&&'",
      "&\" -",
      "&&# *",
      "$&& &%&&&&&&&&",
      "$&& &#&",
      "(&& Ę",
      "&&'& ě",
      "&&%& Ĝ",
      "#&& &#&%",
      ")&& &(&(",
      "&&&&&&&& &&",
      "(&&&& &#",
      "(&&&& &&'&&&&",
      "&&'&' ''&&&&",
      "&&%&' &'&&&&",
      "&&'&% '",
      "&&%&% '",
      "&&%&% &'&&&&",
      "%' $",
      "'' )",
      "'' &&$&$",
      "&, Ğ",
      "&, ğ",
      "%% &&%&&&&",
      "%% &&(&$",
      "%% %&&%&",
      "'% &&'",
      "'% &&(",
      "'% (&&&&",
      "&&&' &&'&%",
      "!&& &(",
      "&&'&$ &'",
      "&&&&% %&&&&",
      "&&%&$ &'&&&&",
      "&&&&' &$",
      "&&\" &.",
      "&&(&' +",
      "(' (",
      "(' &&%&'",
      "$% )",
      "$% &&'&(",
      "$% &&%&*",
      "&- +",
      "&- &%",
      "'&&&' &\"",
      "#&&&& &'",
      "#&&&& &)",
      "$' %&&&&",
      "$' &&%&*",
      ")&&&& +",
      ")&&&& &(",
      "%&&&% &*",
      "&ğ &*",
      "ĀĀ&Ā *",
      "+&& &,",
      "ĀĀ$Ā Ğ",
      "%( &&'&(",
      "&&'&&&& &&%&&&&",
      "&&'&& &\"",
      "&&'&& &'&&&&%",
      "&&'&& &(&'",
      "'$ %&&&&",
      "%$ '&&&&",
      "%$ &&'&%",
      "%$ &&(&%",
      "%$ &&#&%",
      "&&%&& !",
      "&&%&& &$&%",
      "''&&&& )",
      "ĀĀ'Ā $",
      "ĀĀ'Ā /",
      "ĀĀ'Ā ğ",
      "($ &&(&(",
      "&(&&&& &",
      "&(&&&& &&(",
      "&(&&&& &&'&&&&",
      "ĀĀ(Ā %",
      "$( &&$&(",
      "$( &&%&)",
      "(( &&(&(",
      "(( &&)&%",
      "%'&&&& #",
      "ĀĀ\"Ā )",
      "'&&# &,",
      "ĀĀ)Ā !",
      "&Ğ $",
      "') &&%&'",
      "') &&%&%",
      "') &&'&(",
      "%# &&'&'",
      "%# &&'&(",
      "ĀĀ!Ā *",
      "&&+ &\"",
      ")$ &&'&'",
      "(# &&'&(",
      "&&'&&' )&&&&",
      "&&'&&% %&&%&%",
      "ĀĀ*Ā '",
      "#% &&'&%",
      "#% &&%&(",
      "#% &&$&#",
      "&/ -",
      ")( &&'&$",
      ")( &&'&#",
      ")( &&(&(",
      "#$ &&$&'",
      "ĠĀ -",
      "() &&'&$",
      "$# &&%&(",
      "'* &&&&'",
      "-&& Ğ",
      "-&& &,",
      "'&&&% &#",
      "%\" &&&&'",
      "'&&\" &+",
      "%* &&%&'",
      ")) &&'&'",
      "\"$ &&%&'",
      "Ğ&& .",
      "Ğ&& Ğ",
      "'&&&( &)",
      "*' &&'&%",
      "*' &&'&$",
      "&#&&&& )",
      "\"% &&$&%",
      "\"( &&$&)",
      "(%&&&& (",
      "$* &&%&'",
      "$\" &&%&%",
      "(&&\" &*",
      "(\" &&'&%",
      "&'&&&&' &'&&&&",
      ".&& &,",
      ")&&&' &#",
      "'$&&&& )",
      "ĝ&& ,",
      "ĝ&& -",
      "(&&* &%",
      ")&&\" &)",
      "#&&* &#",
      "&&%&&$ (",
      "'&&! &)",
      "&&$&&% '&&&&",
      "&'&&&&&&&& %&&&&",
      "$&&+ &",
      "&&(&&% %&&&&",
      "&\"&&&& (",
      "&$% &&%&",
      "'&&&&% &'&&&&",
      "#&&+ &'",
      "#&&+ &$",
      "&&&%&&&& &",
      "&&)&& &)",
      "#&&! &%",
      "'&&, &%",
      "&$' &&%&'",
      "*&&! &)",
      "!&&\" &%",
      "&&%% &&%&",
      "&&%&&&$ &",
      "&(&&&&% &",
      "$&&- &(",
      ")&&&) &",
      "! ė",
      "! &'",
      "! &&&&%",
      "! &&&&'",
      "! %&&#",
      "! ĀĀ+Ā",
      "\" &",
      "\" )&&",
      "\" &&%&$",
      "\" &&(&'",
      "\" #&&&&",
      "# %&&",
      "# &&$&",
      "# &&%&)",
      "# &&'&#",
      "# ,&&&&",
      "$ Ě",
      "$ ě",
      "$ +&&&&",
      "% &&%&(",
      "% &&(&$",
      "' &&'&$",
      "' &&(&'",
      "( '&&",
      "( &&(&'",
      "( \"&&*",
      ") ĀĀ#Ā",
      "* &&'&",
      "* &&&&'",
      "+ $&&",
      "+ $&&&&",
      "+ &&'&'",
      "+ &&(&'",
      ", &&%&$",
      "- %&&",
      "- &&*",
      "- ĀĀĝĀ",
      ". ĀĀ/Ā",
      "/ &",
      "/ .",
      "2 7",
      "3 4",
      "4 2",
      "4 4",
      ": ĀĀ",
      "Ā %%",
      "Ā '(",
      "Ā %\"",
      "Ĉ Ā",
      "Ē &&",
      "Ĕ &&",
      "ĕ '",
      "ĕ ğ",
      "ĕ ĀĀ",
      "Ę (",
      "Ę -",
      "Ę .",
      "ę #",
      "ę )",
      "ę -",
      "Ě &*",
      "ě ,",
      "ĝ Ę",
      "ĝ &&&",
      "ğ &",
      "ğ ě",
      "ğ (&&",
      "Ġ #&&&&",
      "Ġ $(",
      "Ġ &&$&$",
      "Ġ #'",
      "Ġ ĀĀ!Ā",
      "Ġ *&&&&",
      "Ġ ĀĀ*Ā",
      "Ġ &&%&*",
      "Ġ ğ&&",
      "Ġ ()",
      "Ġ ĀĀ,Ā",
      "Ġ &&#&(",
      "Ġ #)",
      "Ġ &Ĝ",
      "Ġ &&(&\"",
      "Ġ &&)&",
      "Ġ '&&!",
      "Ġ \"&&\"",
      "Ġ (&&ğ",
      "Ġ )&&ğ",
      "Ġ #&&ğ",
      "Ġ (&&Ğ",
      "&&&& &%",
      "&&&& &&$",
      "&' Ğ",
      "&' &&(&%",
      "&' ('",
      "&' &&$&$",
      "&' &&'&)",
      "&% &&%&#",
      "&&' '&&&&%",
      "&&' &'&&&&%&",
      "&&% &&$&&",
      "&&% '&&&&%",
      "&&% &%&&&&%&",
      "ĀĀ =",
      "ĀĀ @",
      "&( &&&'",
      "&( &&$&'",
      "&$ (&&&&",
      "&$ &&(&",
      "&$ &&$&'",
      "&&( %&&'&",
      "&) Ĝ",
      "&) &&(&'",
      "&# &&%&(",
      "&# &&(&%",
      "%&& ę",
      "%&& )&&",
      "%&& &(&$",
      "%&& &#&%",
      "%&&&& *",
      "%&&&& &*",
      "&* '$",
      "&\" &&%&",
      "&&) &&''",
      "&%&&&& &&(",
      "&%&&&& &&&%",
      "&%&&&& %%&&&&",
      "$&& &*",
      "$&& &Ğ",
      "(&& &)&%",
      "&&'& !%",
      "&&%& ě",
      "&+ &)",
      "&+ &&%&%",
      "&+ &&&&%",
      "&+ &&&&'",
      "&! Ğ",
      "&! &&'&'",
      ")&& &#",
      "$&&&& &&&&",
      "&&&&&&&& &'&&&&",
      "&&'&' ''",
      "&&'&' '%",
      "%' #",
      "%' ĀĀ",
      "%' &&(&(",
      "%' &&$&)",
      "%' &&'&*",
      "%' &&%&&$",
      "\"&& &(",
      "\"&& &$&'",
      "'' #",
      "'' &&(",
      "'' )&&&&",
      "'' &&'&*",
      "&, &",
      "%% &&'&)",
      "&&&% &#",
      "&&&' &*",
      "!&& ę",
      "&&'&$ ''&&&&",
      "&&\" &&%",
      "&&(&% '",
      "(' &&%&(",
      "(' &&(&\"",
      "(% $&&&&",
      "(% &&%&%",
      "(% &&'&&&&&&&&",
      "&- Ğ",
      "'&&&' &*",
      "$' &&$",
      "ĀĀ%Ā ğ",
      "&ğ *",
      "&ğ -",
      "ĀĀ&Ā '",
      "ĀĀ&Ā +",
      "ĀĀ&Ā ğ",
      "&&%&&&& &%",
      "+&& ě",
      "+&& Ĝ",
      "ĀĀ$Ā )",
      "ĀĀ$Ā Ĝ",
      "%( (",
      "%( &&$&(",
      "%( &&%&*",
      "&&'&& &)&&&&",
      "'( &&%&'",
      "'( &&)&%",
      "'( &&)&",
      "'$ $",
      "'$ &&$&%",
      "'$ &&(&$",
      "Ġ&& Ě",
      "%$ %&&&&",
      "%$ &&%&)",
      "&$&&&& \"",
      "&$&&&& &&%&&&&",
      "ĀĀ'Ā )",
      "($ &&%&",
      "($ &&%&'",
      "($ &&)&$",
      "%%&&&& &&&&",
      "%%&&&& &'",
      "&. \"",
      "&. ,",
      "&. &&&&",
      "&. &%",
      "ĀĀ#Ā \"",
      "ĀĀ#Ā .",
      "ĀĀ#Ā Ĝ",
      "ĀĀ(Ā *",
      "ĀĀ(Ā ,",
      "ĀĀ(Ā Ğ",
      "ĀĀ(Ā ğ",
      "$( &&#&(",
      "(( )",
      "(( %&&&&",
      "(( &&%&",
      "(( &&'&(",
      "(( &&'&)",
      "&&$&$ '",
      "%'&&&& )",
      "%'&&&& &'",
      "$$ %&&&&",
      "$$ &&'&",
      "$$ &&'&%",
      "$$ &&%&(",
      "$$ &&$&%",
      "'%&&&& &'",
      "#' &&%&)",
      "&Ğ (",
      "') &&'&'",
      "') &&&&'",
      "%) &&'&$",
      "%) &&'&(",
      "%) &&$&(",
      "%) &&%&)",
      "\"&&&& $",
      "'# (",
      "'# &&%&%",
      "'# &&(&%",
      "%# &&%&(",
      "%# &&'&$",
      "(&&&' &*",
      "ĀĀ!Ā '",
      "ĀĀ!Ā (",
      "$) (",
      "$) &&%&)",
      "$) &&#&'",
      "&&+ &&&&",
      "&&+ &)",
      ")' $&&&&",
      ")' &&(&#",
      ")' &&'&\"",
      ")$ &&)&(",
      "&&%&&% %&&%&",
      "&&'&&' %&&'&",
      "&&'&&% #",
      "#% &&$&$",
      "&/ (",
      "#( &&#&'",
      "&&%&&' $&&&&",
      "#$ &&'&'",
      "#$ &&#&(",
      "&&)&' #",
      "ĠĀ *",
      "ğ&& /",
      "ğ&& Ĝ",
      "&ĝ )",
      "$# &&&&'",
      "$# &&$&'",
      "&&(&& &*",
      "&&(&& &(&&&&",
      "&&(&& &(&",
      "%&&\" &#",
      "ĀĀğĀ '",
      "ĀĀ,Ā '",
      "ĀĀ,Ā (",
      "*% &&%&'",
      "*( &&'&'",
      "*( &&'&(",
      "#) &&$&'",
      "%\" &&%&'",
      "%\" &&&&%",
      "'&&\" &-",
      "%* &&%&(",
      "%* &&%&)",
      "\"$ &&$&'",
      "Ğ&& -",
      "%&&&$ &#",
      "&'% (&&&&",
      "&'% #&&&&",
      "&#&&&& $",
      "$* &&$&%",
      "$* &&$&(",
      "$%&&&& $",
      "$%&&&& %",
      "Ġ&&&& )",
      "&&)& Ě",
      "(&&\" &#",
      "$'&&&& #",
      "&'&&&&' &$",
      "ĀĀĝĀ (",
      ".&& Ĝ",
      "'$&&&& %",
      "ĝ&& &$",
      "%$&&&& (",
      "#&&* &(",
      "%(&&&& $",
      "%(&&&& %",
      "#* &&$&'",
      "'&&+ &!",
      "#&&\" &*",
      "&'&% &&'&%",
      ")&&* &)",
      "&&$&&' '&&&&",
      "&&(&&% $",
      "#&&&% &)",
      "(&&! &(",
      "&&'&&$ $&&&&",
      "*&&\" &(",
      "(! &&'&%",
      "%&&, &",
      "#&&+ &\"",
      "&&ğ &",
      ")&&! &(",
      "!&&* &%",
      "*&&! &%",
      "!&&\" &(",
      "(&&&% &$",
      "'&&&$ &$",
      "&&- &",
      "#&&, &'",
      "\"&&&$ &",
      "$&&&' &(",
      "&(&&&&' &",
      "\"&&&% &",
      "&'&&&&$ &'",
      ")&&&( &#",
      "&&&$ &",
      "&&$' &&%&%",
      "&&%&'&&&& &&%",
      "&%&&&&&&&&&&&& &",
      "&&$&&&$ &",
      "! Ė",
      "! Ě",
      "! ě",
      "! '&&",
      "! '&&&&",
      "! &&'&",
      "! &&'&%",
      "! &&%&(",
      "! ĀĀ!Ā",
      "\" Ę",
      "\" ę",
      "\" &%",
      "\" (&&",
      "\" &&%&(",
      "\" &&$&'",
      "# ''",
      "# &&(&",
      "# )&&&&",
      "# ĀĀ!Ā",
      "$ $(",
      "$ (&&\"",
      "% (&&",
      "% &&'&$",
      "% ĀĀ+Ā",
      "% -&&&&",
      "& Ĕ",
      "' ę",
      "' &)",
      "' &&$&%",
      "( \"'",
      "( -&&&&",
      ") &\"",
      ") &&(&%",
      "* &&$&'",
      "* ĀĀ*Ā",
      "+ %&&",
      "+ &&%&'",
      "+ &&%&%",
      "+ &&%&(",
      "+ &&*",
      "+ #&&&&",
      "+ &&%&*",
      ", '&&&&",
      ", &&%&'",
      ", ĀĀ-Ā",
      ", ĀĀ.Ā",
      "- (&&",
      "- &&%&%",
      "- ĀĀĞĀ",
      "- ĀĀĜĀ",
      ". ě",
      "/ Ĝ",
      "/ &&*",
      "1 6",
      "5 2",
      "6 4",
      "9 0",
      "; ĀĀ%Ā",
      "Ā Ĝ",
      "Ā &*",
      "Ā ((",
      "Ā %)",
      "Ā $)",
      "Ā )'",
      "Ā $#",
      "Ā \"%",
      "Ā %+",
      "ĕ \"",
      "ĕ &&",
      "ė &",
      "ė (",
      "Ę %",
      "Ę *",
      "ę Ğ",
      "Ě &&,",
      "Ĝ %&&",
      "ĝ ĕ",
      "Ğ ĀĀ$Ā",
      "ğ Ę",
      "ğ &&'&$",
      "ğ ĀĀ*Ā",
      "Ġ #&&",
      "Ġ ĀĀ%Ā",
      "Ġ '(",
      "Ġ &&%&)",
      "Ġ ĀĀ\"Ā",
      "Ġ \"&&&&",
      "Ġ &'%",
      "Ġ &&)&(",
      "Ġ .&&",
      "Ġ (+",
      "Ġ '&&ğ",
      "Ġ +&&!",
      "&& Ě",
      "&& &#",
      "&&&& +",
      "&' %&&",
      "&' &\"",
      "&' &&(&",
      "&' &&,",
      "&% #&&&&",
      "&% &&'&&'",
      "&% &&&%&%",
      "&&' &&&&%",
      "&&' &&'&&&&&",
      "&&' &&&&&&&&&&&&&&&",
      "&&% &&%&",
      "ĀĀ <",
      "ĀĀ ď",
      "&( &&$&",
      "&( &&%&)",
      "&( '#",
      "&$ Ĝ",
      "&$ Ğ",
      "&$ &&$&",
      "&$ &&(&(",
      "&&( %&&)",
      "&&( &&!",
      "&&( &'&&&&&&",
      "&&( &&#'",
      "&&$ !",
      "&&$ &&'&",
      "&# ĝ",
      "&# #&&",
      "&# &&%&#",
      "%&& &)&%",
      "'&& \"&&",
      "'&& &-",
      "%&&&& +",
      "%&&&& &&(",
      "'&&&& &&#",
      "'&&&& &&&%",
      "&* &&%&'",
      "&\" &",
      "&\" &&%&%",
      "&\" &&'&(",
      "&&# &&!",
      "&&# &&%%",
      "&&) &&%%",
      "&'&&&& &$",
      "&'&&&& &&(",
      "&'&&&& %&&&&&&",
      "&%&&&& !",
      "&%&&&& &%%&&&&",
      "$&& ę",
      "&+ /",
      "&+ &!",
      "&! &&'&$",
      "$&&&& &&'",
      "&&&&&&&& &%",
      "&&&&&&&& &&&&'",
      "(&&&& $",
      "(&&&& *",
      "(&&&& '(",
      "&&'&' %%&&&&",
      "&&%&' &'",
      "&&'&% &%",
      "&&'&% &%&&&&",
      "\"&& Ě",
      "\"&& &#&(",
      "'' &&$&%",
      "'' &&%&#",
      "'' %&&'&",
      "%% &&$",
      "&&&% &&%&",
      "&&&% &&&%",
      "'% &&$&$",
      "&&&' &#",
      "!&& &ğ",
      "!&& &#&(",
      "!&& &$&(",
      "&&&&% &)",
      "&&'&( '%&&&&",
      "&&%&$ %",
      "&&(& Ě",
      "&&&&' &)",
      "&&\" &/",
      "&&* &+",
      "&&$&' $",
      "&&$&' '",
      "&&(&' &%&&&&",
      "&&(&' %$",
      "&&$&% '",
      "(' &&$&%",
      "(% '&&&&",
      "(% &&%&",
      "(% &&%&$",
      "$% &&$"
    ]
  }
}