{
  "version": "1.0",
  "truncation": null,
  "padding": null,
  "added_tokens": [],
  "normalizer": null,
  "pre_tokenizer": {
    "type": "ByteLevel",
    "add_prefix_space": false,
    "trim_offsets": true,
    "use_regex": true
  },
  "post_processor": {
    "type": "ByteLevel",
    "add_prefix_space": true,
    "trim_offsets": false,
    "use_regex": true
  },
  "decoder": {
    "type": "ByteLevel",
    "add_prefix_space": true,
    "trim_offsets": true,
    "use_regex": true
  },
  "model": {
    "type": "BPE",
    "dropout": null,
    "unk_token": null,
    "continuing_subword_prefix": null,
    "end_of_word_suffix": null,
    "fuse_unk": false,
    "byte_fallback": false,
    "ignore_merges": false,
    "vocab": {
      "\u0000": 0,
      "\u0001": 1,
      "\u0002": 2,
      "\u0003": 3,
      "\u0004": 4,
      "\u0005": 5,
      "\u0006": 6,
      "\u0007": 7,
      "\b": 8,
      "\t": 9,
      "\n": 10,
      "\u000b": 11,
      "\f": 12,
      "\r": 13,
      "\u000e": 14,
      "\u000f": 15,
      "\u0010": 16,
      "\u0011": 17,
      "\u0012": 18,
      "\u0013": 19,
      "\u0014": 20,
      "\u0015": 21,
      "\u0016": 22,
      "\u0017": 23,
      "\u0018": 24,
      "\u0019": 25,
      "\u001a": 26,
      "\u001b": 27,
      "\u001c": 28,
      "\u001d": 29,
      "\u001e": 30,
      "\u001f": 31,
      " ": 32,
      "!": 33,
      "\"": 34,
      "#": 35,
      "$": 36,
      "%": 37,
      "&": 38,
      "'": 39,
      "(": 40,
      ")": 41,
      "*": 42,
      "+": 43,
      ",": 44,
      "-": 45,
      ".": 46,
      "/": 47,
      "0": 48,
      "1": 49,
      "2": 50,
      "3": 51,
      "4": 52,
      "5": 53,
      "6": 54,
      "7": 55,
      "8": 56,
      "9": 57,
      ":": 58,
      ";": 59,
      "<": 60,
      "=": 61,
      ">": 62,
      "?": 63,
      "@": 64,
      "A": 65,
      "B": 66,
      "Ā": 67,
      "Ą": 68,
      "ą": 69,
      "Ć": 70,
      "ć": 71,
      "Ĉ": 72,
      "ĉ": 73,
      "Ċ": 74,
      "ċ": 75,
      "Č": 76,
      "č": 77,
      "Ď": 78,
      "ď": 79,
      "Đ": 80,
      "đ": 81,
      "Ē": 82,
      "ē": 83,
      "Ĕ": 84,
      "ĕ": 85,
      "Ė": 86,
      "ė": 87,
      "Ę": 88,
      "ę": 89,
      "Ě": 90,
      "ě": 91,
      "Ĝ": 92,
      "ĝ": 93,
      "Ğ": 94,
      "ğ": 95,
      "Ġ": 96,
      "$$": 97,
      "$$$$": 98,
      "$%": 99,
      "$#": 100,
      "$$#": 101,
      "$$%": 102,
      "$&": 103,
      "$\"": 104,
      "$$\"": 105,
      "$$&": 106,
      "$$$$$$$$": 107,
      "#$$$$": 108,
      "%$$$$": 109,
      "ĀĀ": 110,
      "$$$#": 111,
      "$$$%": 112,
      "$'": 113,
      "$!": 114,
      "$$!": 115,
      "$$'": 116,
      "$$$$%": 117,
      "$$$$#": 118,
      "$(": 119,
      "%$$#": 120,
      "#$$%": 121,
      "%$$": 122,
      "#$$#": 123,
      "%$$%": 124,
      "#$$": 125,
      "$#$$$$": 126,
      "$%$$$$": 127,
      "$##": 128,
      "$%%": 129,
      "$#%": 130,
      "$%#": 131,
      "$)": 132,
      "\"$$": 133,
      "$ğ": 134,
      "&$$": 135,
      "\"$$$$": 136,
      "&$$$$": 137,
      "\"$$%": 138,
      "'$$": 139,
      "&$$#": 140,
      "!$$": 141,
      "$$#$$$$": 142,
      "%$$\"": 143,
      "#$$&": 144,
      "$$%$$$$": 145,
      "$*": 146,
      "\"$$#": 147,
      "&$$%": 148,
      "$Ğ": 149,
      "$$$$$$$$$$$$": 150,
      "%$$&": 151,
      "#$$\"": 152,
      "$%&": 153,
      "$#\"": 154,
      "$&%": 155,
      "Ġ$$": 156,
      "$\"#": 157,
      "$%\"": 158,
      "$&#": 159,
      "($$": 160,
      "$\"%": 161,
      "$#&": 162,
      "$$$&": 163,
      "$$$\"": 164,
      "#$$$$#": 165,
      "%$$$$#": 166,
      "#$$$$%": 167,
      "$ĝ": 168,
      "$+": 169,
      "\"$$&": 170,
      "%$$$$%": 171,
      "$$(": 172,
      "$%$$#": 173,
      "$&&": 174,
      "&$$\"": 175,
      "$%$$%": 176,
      "$\"\"": 177,
      "$#$$%": 178,
      "$#$$#": 179,
      "!$$$$": 180,
      "$\"$$$$": 181,
      "'$$$$": 182,
      "$$$%$$$$": 183,
      "$$$#$$$$": 184,
      "$&$$$$": 185,
      "\"$$\"": 186,
      "$$$$$$$$$$$$$$$$": 187,
      "!$$%": 188,
      "&$$&": 189,
      "'$$#": 190,
      "$$$": 191,
      "%$$!": 192,
      "$%$$$$#": 193,
      "$#$$$$%": 194,
      "#$$'": 195,
      "!$$#": 196,
      "'$$%": 197,
      "$%%$$$$": 198,
      "$\"&": 199,
      "$%$$$$%": 200,
      "$##$$$$": 201,
      "$'%": 202,
      "#$$!": 203,
      "$#$$$$#": 204,
      "$$#$$$#": 205,
      "$&\"": 206,
      "$!#": 207,
      "$$%$$$%": 208,
      "%$$'": 209,
      "$%'": 210,
      "ğ$$": 211,
      ")$$": 212,
      "$#!": 213,
      "Ā%": 214,
      "Ā\"": 215,
      "Ā#": 216,
      "$%!": 217,
      "$'#": 218,
      "$!%": 219,
      "ĀĀ$": 220,
      "$,": 221,
      "ĀĀ%": 222,
      "Ġ$$$$": 223,
      "$Ĝ": 224,
      "ĀĀ\"": 225,
      "ĀĀ#": 226,
      "$%#$$$$": 227,
      "$#'": 228,
      "$#%$$$$": 229,
      "Ā!": 230,
      "\"$$'": 231,
      "&%": 232,
      "Ġ\"": 233,
      "$\"!": 234,
      "'$$\"": 235,
      "#$$$#": 236,
      "!$$&": 237,
      "$$ğ": 238,
      "Ā&": 239,
      "Ġ$$#": 240,
      "&$$!": 241,
      "$!\"": 242,
      "$&'": 243,
      "Ā'": 244,
      "Ġ#": 245,
      "$$)": 246,
      "$$$%$$%": 247,
      "Ġ%": 248,
      "$'&": 249,
      "ĀĀ!": 250,
      "Ġ$$%": 251,
      "($$#": 252,
      "ĀĀ&": 253,
      "$'\"": 254,
      "!$$\"": 255,
      "$$$$%%": 256,
      "$$$%$": 257,
      "#$$$\"": 258,
      "$$$%$$#": 259,
      "%$$$&": 260,
      "'$$&": 261,
      "\"#": 262,
      "&$$'": 263,
      "Āğ": 264,
      "$$$#$$#": 265,
      "$$$#$$%": 266,
      "($$$$": 267,
      "($$%": 268,
      "$\"'": 269,
      "$$$$#%": 270,
      "\"%": 271,
      "$!&": 272,
      "Ā(": 273,
      "$&!": 274,
      "$ě": 275,
      "$$$$##": 276,
      "$\"$$%": 277,
      "$&$$#": 278,
      "Ġ!": 279,
      "$%#$$$#": 280,
      "ĀĀ'": 281,
      "Ġ&": 282,
      "\"$$!": 283,
      "$$$'": 284,
      "$-": 285,
      "#$$(": 286,
      "&#": 287,
      "$$Ğ": 288,
      "$\"$$#": 289,
      "$&$$%": 290,
      "$''": 291,
      "$##$$$#": 292,
      "%$$(": 293,
      "$%(": 294,
      "$!$$$$": 295,
      "$$$$%#": 296,
      "ĀĞ": 297,
      "$#$$$$$$$$": 298,
      "$(%": 299,
      "$!!": 300,
      "$%$$$$$$$$": 301,
      "Ġ$$&": 302,
      "Ġ'": 303,
      "ĀĀğ": 304,
      "Ġ$$\"": 305,
      "$$*": 306,
      "$$$!": 307,
      "$#%$$$%": 308,
      "&&": 309,
      "\"$$$\"": 310,
      "Ā)": 311,
      "$%%$$$%": 312,
      "&$$$&": 313,
      "$#(": 314,
      "!$$'": 315,
      "$&(": 316,
      "$%$#$$$$": 317,
      "$(&": 318,
      "$#$%$$$$": 319,
      "$'$$$$": 320,
      "$$\"$$$$": 321,
      "\"\"": 322,
      "\"$$(": 323,
      "$(#": 324,
      "Ġ(": 325,
      "$$#%$$#": 326,
      "$$$#$": 327,
      "$'!": 328,
      "$$%%$$$$": 329,
      "$!'": 330,
      "ĀĀ(": 331,
      "$$%#$$%": 332,
      "Ğ$$": 333,
      "$#$$$$$$#": 334,
      "ĀĀĞ": 335,
      "$$&$$$$": 336,
      "$$%%$$%": 337,
      "'$$!": 338,
      "'$$'": 339,
      "#$$$$$$$$": 340,
      "$%$%$$$$": 341,
      "ĀĀ)": 342,
      "$%%#$$%": 343,
      "Āĝ": 344,
      "#$$ğ": 345,
      "\"&": 346,
      "ĀĀĝ": 347,
      "($$\"": 348,
      "*$$": 349,
      "$%$$&": 350,
      "$(\"": 351,
      "%$$$%": 352,
      "Ġ$": 353,
      "Ġğ": 354,
      "%$$ğ": 355,
      "$#$$\"": 356,
      "$$##$$$$": 357,
      "\"$$$$%": 358,
      "Ġ$$'": 359,
      "$#$#$$$$": 360,
      "$$$$$$$$%": 361,
      "#$$)": 362,
      "&$$(": 363,
      "$('": 364,
      "Ā*": 365,
      "$#$%$$%": 366,
      "$\"(": 367,
      "%$$#$": 368,
      "!$$!": 369,
      "$$##$$#": 370,
      "$$%$": 371,
      "%$$)": 372,
      "$&$$$$#": 373,
      "$'(": 374,
      "\"$$$$#": 375,
      "$$$$$$$$#": 376,
      "%$$$$$$$$": 377,
      "($$&": 378,
      "$\"$$$$%": 379,
      "$%##$$#": 380,
      "&$$$$#": 381,
      "$##%$$#": 382,
      "&$$$$%": 383,
      "#$$%$": 384,
      "$%$$$$$$%": 385,
      "#$$$$$$#": 386,
      "$%$#$$#": 387,
      "$#$$&": 388,
      "$.": 389,
      "$Ě": 390,
      "%$$$$$$%": 391,
      "&\"": 392,
      "ĝ$$": 393,
      "$%$$\"": 394,
      "$#%%$$%": 395,
      ")$$#": 396,
      "$#$%$$#": 397,
      "#$$$$$$%": 398,
      "$#$$$$$$%": 399,
      "$%)": 400,
      "$$$$$$#": 401,
      "!$$$\"": 402,
      "Ġ$$!": 403,
      "ĀĀ#Ā": 404,
      "!#": 405,
      "$#$#$$%": 406,
      "$%$%$$#": 407,
      "'%": 408,
      "ğ$$#": 409,
      "Ġ)": 410,
      "$&%$$$$": 411,
      "#$$$$$%": 412,
      "'$$$&": 413,
      "ĀĀ*": 414,
      "#$$$$$#": 415,
      "$%ğ": 416,
      "$%$$$$$$#": 417,
      "$%#%$$#": 418,
      ")$$%": 419,
      "$#%#$$%": 420,
      "ĀĀ\"Ā": 421,
      "&'": 422,
      "%$$$$$$#": 423,
      "ĀĀ%Ā": 424,
      "$%$#$$%": 425,
      "+$$": 426,
      "$&$$$$%": 427,
      "$\"$$$$#": 428,
      "ĠĞ": 429,
      "$$$$$$%": 430,
      "$$\"$$$#": 431,
      "%$$$$$#": 432,
      "!%": 433,
      "$ĀĀ": 434,
      "$!(": 435,
      "$#ğ": 436,
      "$&)": 437,
      "$\"ğ": 438,
      "ğ$$%": 439,
      "\"$$)": 440,
      ")$$$$": 441,
      "$###$$#": 442,
      "ĀĀ$Ā": 443,
      "$)%": 444,
      "$)&": 445,
      "'#": 446,
      "Ġ$&": 447,
      "$(!": 448,
      "%$$$$##": 449,
      "$)#": 450,
      "$ğ\"": 451,
      "$#)": 452,
      "ĀĀ+": 453,
      "$ğ%": 454,
      "$$&$$$%": 455,
      "ĀĀĜ": 456,
      "\"!": 457,
      "%$$$$$%": 458,
      "$#$$$$$$": 459,
      "'&": 460,
      "%$$$$%%": 461,
      "$ğ#": 462,
      "$#\"$$$$": 463,
      "$$$%$$$$$$$$": 464,
      "ğ$$&": 465,
      "$'$$#": 466,
      "%$$%$": 467,
      "$%$%$$%": 468,
      "#$$$$$": 469,
      "#$$$$&": 470,
      "$((": 471,
      "ĀĀ!Ā": 472,
      "ğ$$$$": 473,
      "Ĝ$$": 474,
      "%$$$$&": 475,
      "$%&$$$$": 476,
      "#$$$&": 477,
      "'$$(": 478,
      "%$$Ğ": 479,
      "\"$$ğ": 480,
      "$!$$%": 481,
      "%$$$$$": 482,
      "$!$$#": 483,
      "($$!": 484,
      "$$$#$$$$$$$$": 485,
      "#$$$$##": 486,
      "&$$ğ": 487,
      "$#$#$$#": 488,
      "$%$$$$$$": 489,
      "$'$$%": 490,
      "ĀĀ&Ā": 491,
      "!\"": 492,
      "!$$(": 493,
      "#$$$$\"": 494,
      "$$%$$$$$$#": 495,
      "$')": 496,
      "#$$$$%%": 497,
      "($$'": 498,
      "$!ğ": 499,
      "$#$$$$$$$$$$$$": 500,
      "%$$$\"": 501,
      "#$$Ğ": 502,
      "$)\"": 503,
      "Ġ*": 504,
      "&$$)": 505,
      "ĀĀ,": 506,
      "%$$$$\"": 507,
      "$ę": 508,
      "$)'": 509,
      "$ğ&": 510,
      "$$#$$$$$$#": 511,
      "Ġ$%": 512,
      "\"$$$!": 513,
      "$%&$$$%": 514,
      "$#\"$$$#": 515,
      "$\")": 516,
      "$$#$$$$$": 517,
      "Ġ$$$\"": 518,
      "$$%$$$$$$$$": 519,
      "$\"#$$$$": 520,
      "$$+": 521,
      "$$ĝ": 522,
      "$$\"%$$#": 523,
      "#$$#$": 524,
      "$%\"$$$#": 525,
      "%$$*": 526,
      "$%%%$$%": 527,
      "$##%$$$$": 528,
      "$%%$$$#": 529,
      ")$$\"": 530,
      "$&ğ": 531,
      ")$$&": 532,
      "&$$$'": 533,
      "Ā+": 534,
      "#$$*": 535,
      "#$$$$#%": 536,
      "(%": 537,
      "Ġ$#": 538,
      "ĀĀ/": 539,
      "%$$$'": 540,
      "Ġ%$$\"": 541,
      "$\"$$&": 542,
      "#$$$!": 543,
      "$$$$$$$$$$$$$$$$$$$$$$$$": 544,
      "$%$$$$$$$$$$$$": 545,
      "$$&#$$%": 546,
      "ĀĀě": 547,
      "\"$$$#": 548,
      "$%*": 549,
      "$&$$\"": 550,
      "ĀĀ.": 551,
      "$/": 552,
      "Ġ$'": 553,
      "$($$$$": 554,
      "Ġ$$(": 555,
      "$$%$$$$$": 556,
      "Ġ%$$#": 557,
      "Ġ$$$#": 558,
      "ĀĀ-": 559,
      "ğ$$\"": 560,
      "$\"$$\"": 561,
      "$ğ!": 562,
      "$$%$$$&": 563,
      "$$#$": 564,
      "%$$$$%#": 565,
      "$#Ğ": 566,
      "$##$$$%": 567,
      "!&": 568,
      "'$$$$%": 569,
      "ĠĀ": 570,
      "Ġ%$$": 571,
      "'$$ğ": 572,
      "$%Ğ": 573,
      "$&$$&": 574,
      "#$$$$%#": 575,
      "!$$$$%": 576,
      "$%$$$%": 577,
      "$$#$$$$$$%": 578,
      "'(": 579,
      "$%%#$$$$": 580,
      "$#$$$#": 581,
      "''": 582,
      "Ġĝ": 583,
      "$ğ'": 584,
      "'$$$'": 585,
      "$#&$$$%": 586,
      "Ġ#$$\"": 587,
      "$$$(": 588,
      "$$#$$$%": 589,
      "$&#$$$#": 590,
      "#$$$$$$": 591,
      "$()": 592,
      "($$$&": 593,
      "$'*": 594,
      "%$$$$#%": 595,
      "!!": 596,
      "$\"$%$$%": 597,
      "\"$$*": 598,
      "!$$$!": 599,
      "$$$\"$$$$": 600,
      "ĀĀĚ": 601,
      "'\"": 602,
      "!$$)": 603,
      "Ġ#$$#": 604,
      "$#*": 605,
      "$#&$$$$": 606,
      "$&*": 607,
      "ĀĀ'Ā": 608,
      "&$$$%": 609,
      "$\"Ğ": 610,
      "$%##$$$$": 611,
      "$\"%$$$%": 612,
      "$)!": 613,
      "$%&#$$%": 614,
      "$$#%$$$$": 615,
      "%$$$$$$": 616,
      "$$%$$$$$$%": 617,
      "$#$$$$&": 618,
      "$%$$$$&": 619,
      "$%%\"$$%": 620,
      "$!)": 621,
      "$\"%$$$$": 622,
      "ĀĀę": 623,
      "ğ$$'": 624,
      "$*%": 625,
      "$$Ĝ": 626,
      "$$#$$$\"": 627,
      "$'ğ": 628,
      "&$$Ğ": 629,
      "$#%%$$$$": 630,
      "$Ğ#": 631,
      "(&": 632,
      "&$$$$\"": 633,
      "'$$$$#": 634,
      "(#": 635,
      "Ġ$\"": 636,
      "Ġ+": 637,
      "ĀĀğĀ": 638,
      "$&$#$$#": 639,
      "$&%$$$%": 640,
      "$%\"$$$$": 641,
      "$\"$%$$$$": 642,
      "$$&%$$%": 643,
      "$$\"#$$#": 644,
      "$###$$$$": 645,
      "$$,": 646,
      "$%%%$$$$": 647,
      "$#\"%$$#": 648,
      "$\"#$$$#": 649,
      "($$(": 650,
      "Ġ%$$!": 651,
      "$*&": 652,
      "!'": 653,
      "$!Ğ": 654,
      "!$$$$#": 655,
      "$%$#$$$$#": 656,
      "*$$#": 657,
      "$#$$!": 658,
      "$$%$$#": 659,
      "$\"%%$$%": 660,
      "$%$": 661,
      "$$\"$$$\"": 662,
      "$&%#$$%": 663,
      "$#$&$$$$": 664,
      "$$%#$$$$": 665,
      "$*#": 666,
      "$Ğ%": 667,
      ")$$!": 668,
      "$#%$$$&": 669,
      "Ġ$$$!": 670,
      "&#$$%": 671,
      "Ġ\"$$": 672,
      "$\"*": 673,
      "$$$#$$$$$$#": 674,
      "&(": 675,
      "$#$%$$$$%": 676,
      "$$%$$$#": 677,
      "$&Ğ": 678,
      "$&$#$$$$": 679,
      "$%$$$$\"": 680,
      "$$$&$$$$": 681,
      "##": 682,
      "Ğ$$#": 683,
      "$%#$$$\"": 684,
      "\"$$#$": 685,
      "Ġ#$$": 686,
      "Ġ&$$\"": 687,
      "$%%#$$#": 688,
      "&$$*": 689,
      "ĀĀ)Ā": 690,
      "ě$$": 691,
      "$%$$'": 692,
      "$%$\"$$$$": 693,
      "\"$$%$": 694,
      "'$$)": 695,
      "Ġ$(": 696,
      "$%#$$%": 697,
      "$#$$'": 698,
      "$)(": 699,
      "$Ę": 700,
      "$#%#$$$$": 701,
      "\"$$+": 702,
      "Ġ$$)": 703,
      "$$$&$$#": 704,
      "Ğ$$%": 705,
      "$$$#$$$$#": 706,
      "#$$+": 707,
      "$#\"#$$#": 708,
      "Ġ$$ğ": 709,
      "*$$$$": 710,
      "$$%%$$#": 711,
      "$$$$$$$$$#": 712,
      "$$$%$$$$$$#": 713,
      "Ġ$!": 714,
      "$&#$$$$": 715,
      "&$$%$": 716,
      "$&##$$#": 717,
      "$#&#$$%": 718,
      "*$$%": 719,
      "$#$$$$\"": 720,
      "('": 721,
      "Ā,": 722,
      "ğ%": 723,
      "Ġ&$$#": 724,
      "%$$ĝ": 725,
      "$##$$$$$": 726,
      "\"%$$#": 727,
      "Ğ$$$$": 728,
      "$###$$%": 729,
      "&)": 730,
      ",$$": 731,
      "Ğ$$&": 732,
      "$$##$$%": 733,
      "$\"#%$$#": 734,
      "$$&$$$&": 735,
      "%$$+": 736,
      "$%$$!": 737,
      "$$$$$$$$$$#": 738,
      "$$$%$$$$%": 739,
      "$#%$$$#": 740,
      "$##&$$#": 741,
      "'$$Ğ": 742,
      "#%$$#": 743,
      "%#": 744,
      "ğ#": 745,
      "$%$#$$$$%": 746,
      "$$$#$$$$%": 747,
      "$%%$$$$$": 748,
      "$%+": 749,
      "$&&$$$$": 750,
      "$$$$$$$$$$$$$": 751,
      "($$ğ": 752,
      "\"'": 753,
      "$#$%$$$$#": 754,
      "\"$$Ğ": 755,
      "&$$$\"": 756,
      "Ġ\"$$\"": 757,
      "!$$ğ": 758,
      "$$%$$$%$": 759,
      "%%": 760,
      "*$$\"": 761,
      "$*'": 762,
      "$%\"%$$#": 763,
      "$%\"#$$#": 764,
      "\"#$$#": 765,
      "ğ$$!": 766,
      "Ġ#$$!": 767,
      "$%%$$$&": 768,
      "$$$%$$$$$$%": 769,
      "Ġ$$$$#": 770,
      "$%$\"$$#": 771,
      "$$#&$$#": 772,
      "$!$$$$%": 773,
      "$%#%$$$$": 774,
      "$%#$$$%": 775,
      "$%#\"$$#": 776,
      ")$$'": 777,
      "'$$*": 778,
      "#$$\"$": 779,
      "$$$#$$$$$$%": 780,
      "\"$$$$\"": 781,
      "$Ğ!": 782,
      "%$$&$": 783,
      "ĀĀ(Ā": 784,
      "$##%$$%": 785,
      "($$$'": 786,
      "$$#$$$#$": 787,
      "%$$\"$": 788,
      "%#$$%": 789,
      "\"$$$$&": 790,
      "#$$&$": 791,
      "ĀĀĞĀ": 792,
      "$$$%$$\"": 793,
      "$%&%$$%": 794,
      "$#%$$#": 795,
      "$\"$%$$#": 796,
      "%%$$%": 797,
      "$%$%$$$$%": 798,
      "$##$$$\"": 799,
      "$$$#$$\"": 800,
      "$#&%$$%": 801,
      "$$$\"$$%": 802,
      "!(": 803,
      "Ġ$$$$%": 804,
      "Ġ$)": 805,
      "$\"$#$$%": 806,
      "$(ğ": 807,
      "!$$$": 808,
      "$Ğ\"": 809,
      ")#": 810,
      "Ě$$": 811,
      "&$$+": 812,
      "!$$*": 813,
      "($$)": 814,
      "$\"%#$$%": 815,
      "ĀĀĝĀ": 816,
      "ğ!": 817,
      "$$$%$$$$#": 818,
      "$%##$$%": 819,
      "$Ğ&": 820,
      "$&#%$$#": 821,
      "*$$&": 822,
      "$$%\"$$%": 823,
      "*ĀĀ": 824,
      "$&$#$$%": 825,
      "$'$$$$#": 826,
      "$#$$$$$": 827,
      "ĠĜ": 828,
      "#$$ĝ": 829,
      "\"$$ĝ": 830,
      "\"ĀĀ": 831,
      "Ğ$$\"": 832,
      "ĠĀĀ": 833,
      "$#$#$$$$#": 834,
      "$'Ğ": 835,
      "$!$$&": 836,
      "$%$$$$$": 837,
      "\"$$$&": 838,
      "&$$#$": 839,
      "$*(": 840,
      "$$$#$$&": 841,
      "$#%&$$%": 842,
      "$*!": 843,
      "&%$$%": 844,
      "$#ĝ": 845,
      "$\"$#$$$$": 846,
      "$\"\"$$$$": 847,
      "#$$$$'": 848,
      "$%%%$$#": 849,
      "Ġ,": 850,
      "$%$&$$#": 851,
      "$\"ĝ": 852,
      "$$$$$$$$$$$%": 853,
      "$&&#$$%": 854,
      "$%%$$%": 855,
      "+ĀĀ": 856,
      "Ġ\"$$#": 857,
      "$%$\"$$%": 858,
      "$$%&$$%": 859,
      "$'$$&": 860,
      "$(*": 861,
      "$))": 862,
      "$ğ(": 863,
      "$ğğ": 864,
      "$*\"": 865,
      "$Ğ'": 866,
      "$$$$$$$$$$%": 867,
      "$$$$$$$$$$$$#": 868,
      "##$$$$": 869,
      "ĝ$$%": 870,
      "$!$$$$#": 871,
      "##$$#": 872,
      "$#+": 873,
      "$#$&$$#": 874,
      "$%$$$$$$$%": 875,
      "&$$ĝ": 876,
      "\"(": 877,
      ")%": 878,
      "ğ$$(": 879,
      "$$$$$$$$$$$$$$$$$$": 880,
      "Ğ%": 881,
      "$##$$#": 882,
      "$$%#$$#": 883,
      "%$$$$$$#$$$$": 884,
      "#$$$": 885,
      "$)$$$$": 886,
      "&$$$(": 887,
      "&ĀĀ": 888,
      ")$$(": 889,
      "$#$&$$%": 890,
      "$$$$$$$$$%": 891,
      "$$$$$$$$$$$#": 892,
      "&$$$$&": 893,
      ")ĀĀ": 894,
      "Ġ!$$": 895,
      "$#$$": 896,
      "$#$#$$$$%": 897,
      "$ğ)": 898,
      "$$$\"$$#": 899,
      "$%ĝ": 900,
      "$&$%$$#": 901,
      "$$&#$$&": 902,
      "$#$$$$$$$#": 903,
      "$#%%$$#": 904,
      "$&%%$$%": 905,
      "$ĝ\"": 906,
      "ğ$$$!": 907,
      ")$$$'": 908,
      "$$%#$$&": 909,
      "%$$$!": 910,
      "$&%$$$#": 911,
      "$#$": 912,
      "$$##$$\"": 913,
      "$%#%$$\"": 914,
      "$ğ$$$$": 915,
      "$\"#$$$%": 916,
      "$$#\"$$#": 917,
      "$$$$$$$$$$$$%": 918,
      "$!*": 919,
      "#$$,": 920,
      "$%$$$$$$$#": 921,
      "$\"\"%$$#": 922,
      "%#$$$$": 923,
      "&%$$$$": 924,
      "'*": 925,
      "((": 926,
      "ĝ$$#": 927,
      "$%$%$$$$#": 928,
      "$$$$$$$$$$$": 929,
      "$$$%$$&": 930,
      "$#%\"$$%": 931,
      "$#%%$$&": 932,
      "$%#&$$#": 933,
      "($$$(": 934,
      "$&ĝ": 935,
      "\"$$$": 936,
      "$%&$$$&": 937,
      "$!$$\"": 938,
      "$#$$$$$$%$$$$": 939,
      "Ġ&$$!": 940,
      "$&$%$$$$": 941,
      "$##%$$\"": 942,
      "\"$$,": 943,
      "$&%#$$$$": 944,
      "Ġ$$$": 945,
      "\"$$$$%%": 946,
      "')": 947,
      "Ġ'$$\"": 948,
      "#$$$'": 949,
      "$#%#$$&": 950,
      "'$$ĝ": 951,
      "Ġ$$Ğ": 952,
      "Ġ\"$$!": 953,
      "$#$&": 954,
      "$#\"$$$\"": 955,
      "$\"+": 956,
      "$%##$$\"": 957,
      "$ĝ#": 958,
      "$\"\"$$$#": 959,
      "$\"$$$$$$#": 960,
      "ĀĀ*Ā": 961,
      "'!": 962,
      "(ĀĀ": 963,
      "$$#\"$$$$": 964,
      "$$$$$$$$$$$$$$$$$$$$": 965,
      "$#%&$$$$": 966,
      "#$$$$$$$$$$$$": 967,
      "-$$": 968,
      "$$#%$$\"": 969,
      "$$%%$$&": 970,
      "$&$$$%": 971,
      "$&#$$$\"": 972,
      "#$$$$$$#$$$$": 973,
      "$%%#$$&": 974,
      "$%#%$$%": 975,
      "$\"#%$$$$": 976,
      "($$Ğ": 977,
      "$&$$$$\"": 978,
      "#$$$#$": 979,
      "&$$$$%%": 980,
      "'ĀĀ": 981,
      "+$$&": 982,
      "$$#%$$%": 983,
      "$$$%$\"": 984,
      "$(+": 985,
      "$(Ğ": 986,
      "%$$Ĝ": 987,
      "$%#\"$$$$": 988,
      "'$$$(": 989,
      "!$$Ğ": 990,
      "Ā\"#": 991,
      "\"$$$$##": 992,
      "$%$$$$$$%$$$$": 993,
      "$\"##$$#": 994,
      "$+'": 995,
      "\")": 996,
      "&!": 997,
      "*#": 998,
      "+$$#": 999,
      "$#$\"$$%": 1000,
      "$'+": 1001,
      "$'$$\"": 1002,
      "&$$,": 1003,
      "$\"$$$$$$%": 1004,
      "\"$$$$#%": 1005,
      "ĝ$$$$": 1006,
      "$$ě": 1007,
      "$%$#$$\"": 1008,
      "$$!$$$$": 1009,
      "$)ğ": 1010,
      "$&\"$$$#": 1011,
      "\"$$$$%#": 1012,
      "Ġ!$$#": 1013,
      "$%$\"": 1014,
      "$!ĝ": 1015,
      "$($$#": 1016,
      "$#$$$$$$$%": 1017,
      "$#\"&$$#": 1018,
      "$\"&%$$%": 1019,
      "$%'$$$%": 1020,
      "Ā%#": 1021,
      "Ġ&$$": 1022,
      "$($$%": 1023,
      "Ĝ#": 1024,
      "Ġ#$$$$": 1025,
      "Ġ'$$#": 1026,
      "$$#$$#": 1027,
      "$$%&$$$$": 1028,
      "%$$$$$$%$$$$": 1029,
      "!$$+": 1030,
      "$&%\"$$%": 1031,
      "$%\"%$$\"": 1032,
      "!*": 1033,
      "$ė": 1034,
      "+$$\"": 1035,
      "$#&$$$&": 1036,
      "$&\"$$$$": 1037,
      "$'$$$$%": 1038,
      "%$$,": 1039,
      "$#$$$$$$&": 1040,
      "Ġ$$+": 1041,
      ")$$ğ": 1042,
      "ĀĀ$Ā#": 1043,
      "Ğ#": 1044,
      "Ġě": 1045,
      "$&+": 1046,
      "$$'$$$$": 1047,
      "$&&$$$%": 1048,
      "$%#$$$$$": 1049,
      "!ĀĀ": 1050,
      "%$$$$$$$$$$$$": 1051,
      "*$$'": 1052,
      "Ğ$$!": 1053,
      "$$-": 1054,
      "$$$)": 1055,
      "$#$%$$&": 1056,
      "$&$": 1057,
      "$&$\"$$#": 1058,
      "#$$$$$$%$$$$": 1059,
      "#$$Ĝ": 1060,
      "$ğĞ": 1061,
      "$+%": 1062,
      "&$$$$%#": 1063,
      "($$$$%": 1064,
      "$%&\"$$%": 1065,
      "$#\"%$$\"": 1066,
      "\"$$&$": 1067,
      "$$$$$$$$$$$$$$$$$$$": 1068,
      "#%$$$$": 1069,
      "+$$$$": 1070,
      "Ğ$$'": 1071,
      "$%$&$$$$": 1072,
      "$%$$$$$$\"": 1073,
      "\"$$Ĝ": 1074,
      "$*ğ": 1075,
      "$%&#$$&": 1076,
      "$+\"": 1077,
      "$&\"%$$#": 1078,
      "ğ$$Ğ": 1079,
      "$#!%$$#": 1080,
      "ĀĀ%Ā#": 1081,
      ")\"": 1082,
      "Ā-": 1083,
      "$$$ğ": 1084,
      "$&$%$$%": 1085,
      "$\"$$$#": 1086,
      "$\"%$$#": 1087,
      "$%$$$$$$&": 1088,
      "$)*": 1089,
      "$Ğ(": 1090,
      "$&#\"$$#": 1091,
      "$+!": 1092,
      "$+&": 1093,
      "$\"$$$$\"": 1094,
      "&$$$$##": 1095,
      "ğ\"": 1096,
      "$$#$$%": 1097,
      "$$\"%$$\"": 1098,
      "%$$ě": 1099,
      "$#$$$$$$#$$$$": 1100,
      "$%$$$$$$#$$$$": 1101,
      "$*)": 1102,
      "Ġ$$*": 1103,
      "$$$&$$%": 1104,
      "$ĝ!": 1105,
      "&$$\"$": 1106,
      "#$$'$": 1107,
      "$\"&$$$%": 1108,
      "ĀĀ%Ā\"": 1109,
      "$#%$$$$$": 1110,
      ",ĀĀ": 1111,
      "ĝ%": 1112,
      "Ġ-": 1113,
      "$%\"$$$\"": 1114,
      "$\"%$$$&": 1115,
      "$#$$$$$$\"": 1116,
      "$##\"$$#": 1117,
      "#$$$$%&": 1118,
      "$+#": 1119,
      "$\"$$$$&": 1120,
      ")$$$(": 1121,
      "!)": 1122,
      ")'": 1123,
      "ĝ$$&": 1124,
      "$$&%$$&": 1125,
      "%$$$(": 1126,
      "$%%&$$%": 1127,
      "$&%#$$#": 1128,
      "$%\"#$$\"": 1129,
      "$\"%%$$&": 1130,
      "$ĝ%": 1131,
      "ğ$$)": 1132,
      "ĀĀěĀ": 1133,
      "&*": 1134,
      "($$$$#": 1135,
      "+$$%": 1136,
      "Ġ\"$$$$": 1137,
      "$%%&$$$$": 1138,
      "$#%$$$%$": 1139,
      "ĀĀ\"Ā#": 1140,
      "ĀĀ&Ā!": 1141,
      "$##$$$#$": 1142,
      "$&#$$%": 1143,
      "$$\"$$%": 1144,
      "$%%\"$$$$": 1145,
      "'$$+": 1146,
      "$Ğğ": 1147,
      "$\"#&$$#": 1148,
      "$#&%$$&": 1149,
      "$\"\"#$$#": 1150,
      "ğ$$ğ": 1151,
      "ĀĀ\"Ā\"": 1152,
      "$##\"$$$$": 1153,
      "$##&$$$$": 1154,
      "($$ĝ": 1155,
      "$ĝ&": 1156,
      "!$$#$": 1157,
      "Ā%%": 1158,
      "ĀĀ\"Ā!": 1159,
      "$\"$&$$$$": 1160,
      "$$\"#$$\"": 1161,
      "$$$$$$$$#$$$$": 1162,
      "$'ĝ": 1163,
      "($$+": 1164,
      "%$$$$#\"": 1165,
      "ĀĀ#Ā!": 1166,
      "ĀĀĜĀ": 1167,
      "*$$!": 1168,
      "$$$$$$\"": 1169,
      "$#$\"": 1170,
      "#$$-": 1171,
      "$%%%$$&": 1172,
      "&$$Ĝ": 1173,
      "()": 1174,
      "ĝ#": 1175,
      "Ġ'$$": 1176,
      "Ġ!$$\"": 1177,
      "$#$\"$$$$": 1178,
      "$\"$#$$#": 1179,
      "$###$$\"": 1180,
      "($$*": 1181,
      "$&$$$$$$%": 1182,
      "ĀĀ#Ā#": 1183,
      "$%#$$$#$": 1184,
      "!ğ": 1185,
      "$%'$$$$": 1186,
      "$$#&$$$$": 1187,
      "$$%$$%": 1188,
      "$$\"#$$$$": 1189,
      "$+)": 1190,
      "ĀĀ%Ā!": 1191,
      "ĀĀ#Ā\"": 1192,
      "ğĞ": 1193,
      "$$&\"$$%": 1194,
      "$$'$$$%": 1195,
      "$&%%$$$$": 1196,
      "$\"#%$$%": 1197,
      "$%\"&$$#": 1198,
      "$#!$$$#": 1199,
      "!$$$#": 1200,
      "!%$$#": 1201,
      "ĝ$$\"": 1202,
      "$$$$$$$$%$$$$": 1203,
      "$'%$$$$": 1204,
      "$#%#$$#": 1205,
      "$ğ*": 1206,
      "$%&#$$$$": 1207,
      "$\"##$$$$": 1208,
      "$#&&$$%": 1209,
      "&$$&$": 1210,
      "Ā%&": 1211,
      "ĀĀ$Ā'": 1212,
      "\"*": 1213,
      "%%$$$$": 1214,
      "&$$$$#%": 1215,
      "(!": 1216,
      ")&": 1217,
      "+$$'": 1218,
      "ğğ": 1219,
      "Ġ%$$$$": 1220,
      "$%,": 1221,
      "$%$#$$&": 1222,
      "$\"$&$$#": 1223,
      "#$$ě": 1224,
      "$##'$$#": 1225,
      "$#\"%$$$$": 1226,
      "$\"%%$$$$": 1227,
      "$%$$$$#$": 1228,
      "ĀĀ$Ā!": 1229,
      "\"#$$$$": 1230,
      "$#,": 1231,
      "$#$\"$$#": 1232,
      "$#$#$$&": 1233,
      "$#$%$$\"": 1234,
      "$\"&$$$&": 1235,
      "$$\"&$$#": 1236,
      "$$!%$$#": 1237,
      "$$!$$$\"": 1238,
      "$#%&$$#": 1239,
      "$%#\"$$%": 1240,
      "$#&#$$&": 1241,
      "$\"\"&$$#": 1242,
      "'$$%$": 1243,
      "$&\"#$$#": 1244,
      "Ġ'$$!": 1245,
      "ĀĀ+Ā": 1246,
      "ĀĀ/Ā": 1247,
      "%ĀĀ": 1248,
      "'#$$%": 1249,
      "Ġ$*": 1250,
      "$%$$": 1251,
      "$%$$$$$$$$$$$$$$$$": 1252,
      "$$%\"$$$$": 1253,
      "$&$$'": 1254,
      "$$&%$$$$": 1255,
      "$'$#$$#": 1256,
      "$!+": 1257,
      "$!$%$$%": 1258,
      "#$$$$#&": 1259,
      ")$$)": 1260,
      "Ā%!": 1261,
      "$'##$$#": 1262,
      "ĀĀ$Ā&": 1263,
      "$\"!%$$#": 1264,
      ",$$#": 1265,
      "Ğğ": 1266,
      "$%$&$$%": 1267,
      "$#Ĝ": 1268,
      "$#!$$$$": 1269,
      "$$'#$$%": 1270,
      "%$$-": 1271,
      "$%%$$$%$": 1272,
      "$&%\"$$$$": 1273,
      "$\"%\"$$%": 1274,
      "%$$$$%%$$$$": 1275,
      "$&&%$$%": 1276,
      "'$$$$&": 1277,
      "ğ$$*": 1278,
      ")$$*": 1279,
      ")$$Ğ": 1280,
      "ĀĀ%Ā&": 1281,
      "ĀĀ%Āğ": 1282,
      "(*": 1283,
      "Ĝ$$%": 1284,
      "$$\"\"$$#": 1285,
      "$$&$": 1286,
      "$!\"$$$$": 1287,
      "$%%\"$$&": 1288,
      "#$$$$%%$$$$": 1289,
      "Ā%\"": 1290,
      "Ā'%": 1291,
      "\"+": 1292,
      "#%": 1293,
      "',": 1294,
      "$%Ĝ": 1295,
      "$&$$!": 1296,
      "Ġ$$ĝ": 1297,
      "$%\"\"$$#": 1298,
      "$&$$$$$$#": 1299,
      "!$$%$": 1300,
      "$$%$$$$$$$$$$$$": 1301,
      "$&\"$$$\"": 1302,
      "$\"$&$$%": 1303,
      "$$!$$$#": 1304,
      "$$!#$$#": 1305,
      "%$$.": 1306,
      "$%%#$$$$#": 1307,
      "$**": 1308,
      "$\"%$$$#": 1309,
      "%$$$$##$$$$": 1310,
      "$&$$$$&": 1311,
      "$#$$$$%$": 1312,
      "$%$$$$$$$$$$$": 1313,
      "\"%$$$$": 1314,
      "$#$#": 1315,
      "$&$\"": 1316,
      "$&$\"$$%": 1317,
      "$\"#$$#": 1318,
      "$$'$$$&": 1319,
      "$%%!$$%": 1320,
      "$ğĝ": 1321,
      "$&%%$$#": 1322,
      "Ġ$$,": 1323,
      "$&##$$$$": 1324,
      "%$$$$%&": 1325,
      "$&&#$$&": 1326,
      "$$$,": 1327,
      "$\"&#$$%": 1328,
      "$'%#$$%": 1329,
      "Ā%'": 1330,
      "ĀĀ$ĀĞ": 1331,
      "ĀĀ!Ā\"": 1332,
      "ĀĀ!Ā!": 1333,
      "$$$'$$$$": 1334,
      "\"ğ": 1335,
      "(+": 1336,
      "Ġ!$$$$": 1337,
      "$%$%$$&": 1338,
      "$%$%$$\"": 1339,
      "$$#$$$&": 1340,
      "$\",": 1341,
      "$)+": 1342,
      "!$$ĝ": 1343,
      "$&#%$$\"": 1344,
      "$&##$$\"": 1345,
      "$\"%&$$%": 1346,
      "ĀĀ!Ā#": 1347,
      "ĀĀ,Ā": 1348,
      "!Ğ": 1349,
      "\"\"$$$$": 1350,
      "\"&$$#": 1351,
      "Ġ.": 1352,
      "Ġ$%#": 1353,
      "$&,": 1354,
      "$\"#$$$\"": 1355,
      "ĀĀĘ": 1356,
      "$!$$'": 1357,
      "$(ĝ": 1358,
      "$($$\"": 1359,
      "($$$)": 1360,
      "$%'#$$%": 1361,
      "ĀĀ#Ā&": 1362,
      "$&'$$$%": 1363,
      "$#$$$$$$$$$$$%": 1364,
      "#$$$$$$$$$$$": 1365,
      "ĀĀ.Ā": 1366,
      "ĀĀĚĀ": 1367,
      "\"Ğ": 1368,
      "&,": 1369,
      "+%": 1370,
      "$$$$$$&": 1371,
      "$&$\"$$$$": 1372,
      "$$'%$$%": 1373,
      "#$$.": 1374,
      "'$$$\"": 1375,
      "$$%$$$$$$#$$$$": 1376,
      "$%&\"$$&": 1377,
      "Ġ$$Ĝ": 1378,
      "$'#$$$#": 1379,
      "ĀĀ$Ā\"": 1380,
      "ĀĀ$Āğ": 1381,
      "'$$$%": 1382,
      "$%$$(": 1383,
      "$$#$$$$$$$$$$$$": 1384,
      "$$%#$$$$#": 1385,
      "$&$$": 1386,
      "ĀĀė": 1387,
      "$'$%$$#": 1388,
      "$###$$$$#": 1389,
      "$#\"#$$$$": 1390,
      "$&##$$%": 1391,
      "$+(": 1392,
      "$&&\"$$%": 1393,
      "$$$$$$$$$$$$$$$$$$$$$$$$$$$$$$$$": 1394,
      "$#'$$$%": 1395,
      "\"$$'$": 1396,
      "ĀĀ&Ā#": 1397,
      "&&$$$$": 1398,
      ")(": 1399,
      "Ğ$$(": 1400,
      "Ġ$ğ": 1401,
      "$\"&$$$$": 1402,
      "$$\"%$$$$": 1403,
      "$!Ĝ": 1404,
      "$#$$$$$$$%$$$$": 1405,
      "\"$$-": 1406,
      "&$$-": 1407,
      "$$$$$$$$$$$$$$$": 1408,
      "$#\"\"$$#": 1409,
      "$\"##$$%": 1410,
      "$&#$$$%": 1411,
      "$&&#$$$$": 1412,
      "$%!#$$#": 1413,
      "ĀĀ$Ā(": 1414,
      "$Ĝ%": 1415,
      "$\"!$$$#": 1416,
      "\"#%$$#": 1417,
      "$#$$$$$$$$$$$": 1418,
      "ĀĀęĀ": 1419,
      "'+": 1420,
      "*%": 1421,
      "ğ*": 1422,
      "Ġ/": 1423,
      "ĠĀ#": 1424,
      "$#$#$$\"": 1425,
      "$##$$$&": 1426,
      "$&%$$%": 1427,
      "$$&$$#": 1428,
      "$'$": 1429,
      "$'Ĝ": 1430,
      "#$$$ğ": 1431,
      "$#$$$$$$$#$$$$": 1432,
      "$##\"$$%": 1433,
      "$#%\"$$$$": 1434,
      "'$$Ĝ": 1435,
      "$$#$$$$$$#$$$$": 1436,
      "$Ğ)": 1437,
      "$ĞĞ": 1438,
      "$&%#$$&": 1439,
      "($$,": 1440,
      "$&\"%$$\"": 1441,
      "$%!$$$#": 1442,
      "&+": 1443,
      "&&$$%": 1444,
      "'%$$%": 1445,
      "Ġ#$$ğ": 1446,
      "$\"\"$$$\"": 1447,
      "$'$$!": 1448,
      "$!#$$$$": 1449,
      "$%$$$$$$$#$$$$": 1450,
      "&$$ě": 1451,
      "'$$ě": 1452,
      "#$$!$": 1453,
      "%$$'$": 1454,
      "$!%$$$%": 1455,
      "&%#$$$$": 1456,
      "Ġ!$$!": 1457,
      "Ĝ%": 1458,
      "ĝ$$'": 1459,
      "Ğ!": 1460,
      "$%$!$$$$": 1461,
      "$$%%$$$$%": 1462,
      "$$&&$$%": 1463,
      "%$$$$$$$#": 1464,
      "$$$$%&": 1465,
      "$(,": 1466,
      "$%%$$$$$$$$$$$$": 1467,
      "!$$-": 1468,
      "$\"%#$$&": 1469,
      "$\"\"%$$$$": 1470,
      "$\"&%$$&": 1471,
      "$#!#$$#": 1472,
      "(\"": 1473,
      ".$$": 1474,
      "ě#": 1475,
      "ĝ$$!": 1476,
      "Ġ$%%": 1477,
      "Ġ$,": 1478,
      "$#$%$$$$$$$$": 1479,
      "$#$'$$$$": 1480,
      "$#!$$$\"": 1481,
      "#$$$$$$\"": 1482,
      "$'$#$$$$": 1483,
      "$Ğ*": 1484,
      "$!#$$$%": 1485,
      "$!#%$$#": 1486,
      "$!#%$$%": 1487,
      "$%'%$$%": 1488,
      "ĀĀ\"Āğ": 1489,
      "ĀĀ'Ā!": 1490,
      "ĀĀ-Ā": 1491,
      "%$$$#": 1492,
      "Ĝ!": 1493,
      "ğ(": 1494,
      "$#$'$$#": 1495,
      "$$%&$$#": 1496,
      "$&%$$$&": 1497,
      "$\"Ĝ": 1498,
      "$'#$$$$": 1499,
      "$($$$$#": 1500,
      "$)Ğ": 1501,
      "&$$$$'": 1502,
      "!$$,": 1503,
      "$%&%$$&": 1504,
      "$%\"#$$$$": 1505,
      "$ĝğ": 1506,
      "ğ$$+": 1507,
      "$Ĝ!": 1508,
      "$Ĝ#": 1509,
      "ĀĀ#Āğ": 1510,
      "$&'#$$%": 1511,
      "ĀĀ&Āğ": 1512,
      "Ĝ$$$$": 1513,
      "Ĝ$$#": 1514,
      "ĠĚ": 1515,
      "$$$!$$$$": 1516,
      "$#%$$": 1517,
      "$$%$$$\"": 1518,
      "$&Ĝ": 1519,
      "$&$#$$\"": 1520,
      "$$\"$": 1521,
      "$',": 1522,
      "$'&$$$$": 1523,
      "$#%'$$%": 1524,
      "$ĝ'": 1525,
      "$ĝ(": 1526,
      "\"$$\"$": 1527,
      "'$$#$": 1528,
      "$\"&#$$&": 1529,
      "$%$$$$%%": 1530,
      "ğ$$$ğ": 1531,
      "$#!%$$\"": 1532,
      "ĀĀ\"Ā&": 1533,
      "$!!$$$#": 1534,
      ")*": 1535,
      ")+": 1536,
      "$\"ě": 1537,
      "ĀĀĖ": 1538,
      "$$$#$$$$$$$$$$$$": 1539,
      "$%$$$$$$$%$$$$": 1540,
      "$##&$$%": 1541,
      "$##%$$&": 1542,
      "$%%\"$$#": 1543,
      "$%##$$$$#": 1544,
      "&$$$)": 1545,
      "\"$$$$$$#": 1546,
      "$%&&$$%": 1547,
      "$#\"#$$\"": 1548,
      "$&#&$$#": 1549,
      "$\"%%$$#": 1550,
      "$\"&&$$%": 1551,
      "Ā%(": 1552,
      "$,\"": 1553,
      "Ġ$$$$&": 1554,
      "ĀĀ\"Ā'": 1555,
      "&%$$$%": 1556,
      "&-": 1557,
      ",*": 1558,
      ",,": 1559,
      "ğĝ": 1560,
      "$#'$$$&": 1561,
      "$$%&$$&": 1562,
      "$&'$$$$": 1563,
      "%$$$$'": 1564,
      "$!$$": 1565,
      "$##%$$$$#": 1566,
      "$+ğ": 1567,
      "%$$$$%\"": 1568,
      "$$$Ĝ": 1569,
      "$%$$$$##": 1570,
      "$'%$$$%": 1571,
      "$!#$$$#": 1572,
      "$!%%$$%": 1573,
      "$Ĝ&": 1574,
      "Ā'#": 1575,
      "%$$$$$$$$$$$": 1576,
      "!ĝ": 1577,
      "#*": 1578,
      "%*": 1579,
      "%$$$%$": 1580,
      "Ĝ\"": 1581,
      "Ĝğ": 1582,
      "ğ'": 1583,
      "Ġ%$$%": 1584,
      "$%$#": 1585,
      "$%\"$$": 1586,
      "$##$$%": 1587,
      "$$%\"$$&": 1588,
      "$&&$$$&": 1589,
      "$$\"&$$\"": 1590,
      "$'#$$$\"": 1591,
      "$$!%$$\"": 1592,
      "$%$$$$'": 1593,
      "&$$$$$$%": 1594,
      "'$$$)": 1595,
      "$\"#&$$$$": 1596,
      "$\"#%$$\"": 1597,
      "$%\"&$$\"": 1598,
      "$%\"!$$#": 1599,
      "$ĝĞ": 1600,
      "$#$$#$": 1601,
      "$'%#$$#": 1602,
      "$&\"\"$$#": 1603,
      "ğ$$Ĝ": 1604,
      "$Ĝ\"": 1605,
      "ĀĀ\"ĀĞ": 1606,
      "%$$$$$$$$$$$%": 1607,
      "Ġ#$$%": 1608,
      "$$#\"$$%": 1609,
      "$$#&$$\"": 1610,
      "$&$#$$$$%": 1611,
      "$\"!$$$$": 1612,
      "$\"$%$$&": 1613,
      "$$&#$$$$": 1614,
      "$)$$#": 1615,
      "&$$$!": 1616,
      "!$$$ğ": 1617,
      "$%&$$$#": 1618,
      "$#&#$$'": 1619,
      "$ĝ)": 1620,
      "'$$$$\"": 1621,
      "$&$$$$$$\"": 1622,
      "$%$$$$%$": 1623,
      "$%'#$$&": 1624,
      "$#'%$$%": 1625,
      "$'&$$$%": 1626,
      "ĀĀ!Āğ": 1627,
      "$$$#$$%$": 1628,
      "\"%%$$%": 1629,
      "$$$!$$%": 1630,
      "#$$$%": 1631,
      "$Ė": 1632,
      "Ġ$$$%": 1633,
      "$%'$$$&": 1634,
      "$$\"$$$!": 1635,
      "#$$$$!": 1636,
      "$##$$$$$$$$$$$$": 1637,
      "$##&$$\"": 1638,
      "$#%&$$&": 1639,
      "!$$Ĝ": 1640,
      "$$$-": 1641,
      "$'%$$$#": 1642,
      "$#$$$$#$": 1643,
      "$%!#$$\"": 1644,
      "$,(": 1645,
      "ĀĀ\"Ā(": 1646,
      "ĀĀ#ĀĞ": 1647,
      "$#'&$$%": 1648,
      "#$$($": 1649,
      "$#$$$$$$$$$$$#": 1650,
      "$#$$$$$$$$$$$$$": 1651,
      "$%%$$": 1652,
      "$$%!$$%": 1653,
      "#$$$$$$$%": 1654,
      "%$$$$$$$%": 1655,
      "$!%$$$&": 1656,
      "\"$$$$!": 1657,
      "$$%$$$$$$%$$$$": 1658,
      "$*+": 1659,
      "#$$$$%\"": 1660,
      "#$$$$%$%$$$$": 1661,
      "Ā%ğ": 1662,
      "$,%": 1663,
      "ĀĀ#Ā(": 1664,
      "$#'#$$%": 1665,
      "$!\"%$$#": 1666,
      "ĀĀ&Ā\"": 1667,
      "$$$'$$#": 1668,
      "$$$'$$%": 1669,
      "#$$$$$$$$$$$%": 1670,
      "!#$$#": 1671,
      "&ĝ": 1672,
      ",%": 1673,
      "ě%": 1674,
      "Ĝ$$\"": 1675,
      "Ġ$%\"": 1676,
      "Ġ$'%": 1677,
      "$%$\"$$&": 1678,
      "$$%%$$$$#": 1679,
      "$$\"$$$%": 1680,
      "$!$%$$&": 1681,
      "$%#&$$$$": 1682,
      "$%#\"$$\"": 1683,
      "$)ĝ": 1684,
      "\"$$.": 1685,
      "$ğĜ": 1686,
      "$\"%'$$%": 1687,
      "%$$!$": 1688,
      "$%!%$$#": 1689,
      "Ġ$$#$": 1690,
      "$$$%$$#$": 1691,
      "$$$$#%$$$%": 1692,
      "$$$$#%%$$%": 1693,
      "\"%$$$%": 1694,
      "ĀĀğĀ#": 1695,
      "Ġ($$\"": 1696,
      "%$$$$$#$$$#": 1697,
      "$ĕ": 1698,
      "'-": 1699,
      "ěĝ": 1700,
      "Ğ$$ğ": 1701,
      "Ğ$$)": 1702,
      "ğ&": 1703,
      "Ġ$&#": 1704,
      "Ġ$+": 1705,
      "ĠĀ!": 1706,
      "$$Ě": 1707,
      "$%$%": 1708,
      "$%%$$#": 1709,
      "$&$#$$$$#": 1710,
      "$$\"$$#": 1711,
      "$$&%$$#": 1712,
      "$$$%$$$$%%": 1713,
      "$!$%$$$$": 1714,
      "$$!$": 1715,
      "$$!#$$\"": 1716,
      "$$'%$$&": 1717,
      "$$'$$$'": 1718,
      "$$$$%$": 1719,
      "$#%\"$$&": 1720,
      "&$$Ě": 1721,
      "'$$,": 1722,
      "$Ğĝ": 1723,
      "$%&%$$$$": 1724,
      "$\"##$$\"": 1725,
      "$#&\"$$%": 1726,
      "$&&$$$#": 1727,
      "$\"\"%$$\"": 1728,
      "$$#$$$#$$#": 1729,
      "$!#&$$#": 1730,
      "$%'\"$$%": 1731,
      "Ā&\"": 1732,
      "ĀĀ&ĀĞ": 1733,
      "$'\"$$$#": 1734,
      "$!&%$$%": 1735,
      "*\"": 1736,
      "+#": 1737,
      "ě$$$$": 1738,
      "Ĝ$$&": 1739,
      "$$$Ğ": 1740,
      "$#&$$#": 1741,
      "$&$&$$#": 1742,
      "$\"$$!": 1743,
      "$\"$$'": 1744,
      "$\"$#$$&": 1745,
      "$$\"#$$%": 1746,
      "#$$$$$$$#": 1747,
      "$%#&$$\"": 1748,
      "$*$$$$": 1749,
      "$%&%$$#": 1750,
      "$#&$$$#": 1751,
      "$#$$%$": 1752,
      "$\"$$$$$$&": 1753,
      "$'%\"$$%": 1754,
      "$#'#$$&": 1755,
      "ĀĀ'Ā\"": 1756,
      "ĀĀ'Ā#": 1757,
      "&##$$#": 1758,
      "+(": 1759,
      "+)": 1760,
      "-ĀĀ": 1761,
      ".,": 1762,
      "Ğ\"": 1763,
      "$%#$$": 1764,
      "$#-": 1765,
      "$#\"$$": 1766,
      "$#%$$$'": 1767,
      "$$#$$$!": 1768,
      "$$&$$$#": 1769,
      "$$&\"$$&": 1770,
      "%$$$$!": 1771,
      "$!$%$$#": 1772,
      "$$!\"$$#": 1773,
      "$%$$$$!": 1774,
      "$#%#$$$$#": 1775,
      "$#%'$$$$": 1776,
      "$#%!$$%": 1777,
      "$),": 1778,
      "$*Ğ": 1779,
      "Ġ$$-": 1780,
      "$#&&$$&": 1781,
      "!$$$$\"": 1782,
      "!$$$$&": 1783,
      "ĀĀ%Ā'": 1784,
      "ĀĀ!Ā'": 1785,
      "Ā)%": 1786,
      "#$$$$$%$$$%": 1787,
      "%$$$$$%$$$%": 1788,
      "&#$$&": 1789,
      ",$$$$": 1790,
      "ě$$%": 1791,
      "ĠĀ\"": 1792,
      "$%#$$$&": 1793,
      "$%$&$$\"": 1794,
      "$#$$$$$$$$$$$$$$$$": 1795,
      "$#$&$$&": 1796,
      "$\"$": 1797,
      "$\"$$": 1798,
      "$\"$\"$$%": 1799,
      "%$$$$&%": 1800,
      "ĀĀĔ": 1801,
      "$!,": 1802,
      "$$'#$$&": 1803,
      "$%%&$$#": 1804,
      "$)$$%": 1805,
      "$ğ$$#": 1806,
      "($$ě": 1807,
      "$ĝĝ": 1808,
      "%$$$$%$#$$$$": 1809,
      "$&&%$$&": 1810,
      "$\"&\"$$%": 1811,
      "ğ$$ĝ": 1812,
      ")$$Ĝ": 1813,
      "Ā%)": 1814,
      "ĀĀ#Ā'": 1815,
      "$!\"$$$#": 1816,
      "$'&#$$%": 1817,
      "\"#%$$$$": 1818,
      "&#%$$#": 1819,
      "*$$$(": 1820,
      "#$$$$$#$$$#": 1821,
      ")!": 1822,
      "))": 1823,
      "+*": 1824,
      "-,": 1825,
      "ěğ": 1826,
      "ĝ$$(": 1827,
      "Ġ&$$$$": 1828,
      "Ġ\"$$%": 1829,
      "$%$&": 1830,
      "$%#$$$!": 1831,
      "$#$'$$%": 1832,
      "$$##$$$$#": 1833,
      "$$#\"$$\"": 1834,
      "$$%$$$'": 1835,
      "$\"$\"$$$$": 1836,
      "$$\"\"$$$$": 1837,
      "#$$$$$$&": 1838,
      "#$$$$$%$$$$": 1839,
      "$$$$%%$$$$": 1840,
      "%$$$": 1841,
      "$%%%$$\"": 1842,
      "$#%%$$$$#": 1843,
      "$%##$$&": 1844,
      "$%##$$$$%": 1845,
      "$%#!$$#": 1846,
      "$ğ+": 1847,
      "&$$$": 1848,
      "&$$.": 1849,
      "$$#$$$$$$%$$$$": 1850,
      "$&%%$$&": 1851,
      "$\"#\"$$#": 1852,
      "$\"%#$$$$": 1853,
      "$$$&$": 1854,
      "$%$$%$": 1855,
      "$$%$$$%$$$$$$$$": 1856,
      ")$$+": 1857,
      "$%!%$$\"": 1858,
      "$'#%$$#": 1859,
      "$,!": 1860,
      "$,'": 1861,
      "$,*": 1862,
      "$Ĝ'": 1863,
      "Ā&'": 1864,
      "$'&\"$$%": 1865,
      "$%$$$$$$$$$$$#": 1866,
      "$%$$$$$$$$$$$$$$$$$$$$": 1867,
      "%$$$$$$$$$$$#": 1868,
      "$$$$$$$$$$$$$$$$$$$$$$$$$": 1869,
      "%$$$$$$$$$$$$$$$$": 1870,
      "*'": 1871,
      "-+": 1872,
      "ĜĞ": 1873,
      "Ğ&": 1874,
      "Ġ$&&": 1875,
      "Ġ'$$$$": 1876,
      "$%$'": 1877,
      "$%$!$$%": 1878,
      "$#ě": 1879,
      "$#$!$$$$": 1880,
      "$&$#$$&": 1881,
      "$\"$%$$\"": 1882,
      "$\"'$$$&": 1883,
      "#$$$$$$$%$$$$": 1884,
      "$'$\"$$#": 1885,
      "$$!&$$#": 1886,
      "$$!#$$!": 1887,
      "$$'$": 1888,
      "$$$$%\"": 1889,
      "$$$$#\"": 1890,
      "$#$$$$$$%%$$$$": 1891,
      "$###$$$$%": 1892,
      "$%%#$$$$%": 1893,
      "$%#'$$#": 1894,
      "\"$$$ğ": 1895,
      "$ğ$$%": 1896,
      "$Ğ$$$$": 1897,
      "$\"#&$$%": 1898,
      "$&#%$$$$": 1899,
      "$&#\"$$$$": 1900,
      "$&#\"$$%": 1901,
      "$&#\"$$\"": 1902,
      "($$Ĝ": 1903,
      "$#&%$$$$": 1904,
      "$\"\"\"$$#": 1905,
      "$$$ě": 1906,
      "$'%#$$$$": 1907,
      "Ā%*": 1908,
      "$%!&$$#": 1909,
      "$,#": 1910,
      "$$)$": 1911,
      "$$$%$$%$": 1912,
      "$'\"#$$#": 1913,
      "$!&$$$%": 1914,
      "$''#$$%": 1915,
      "ĀĀğĀ\"": 1916,
      "$$\"$$$$$": 1917,
      "*$$ĝ": 1918,
      "!$$$$#%": 1919,
      "'ğ": 1920,
      "'$$$$%%": 1921,
      "*(": 1922,
      ",$$&": 1923,
      "ę$$": 1924,
      "Ġ$##": 1925,
      "Ġ$%&": 1926,
      "Ġ$&%": 1927,
      "Ġ\"$$ğ": 1928,
      "$%ě": 1929,
      "$%\"$$%": 1930,
      "$%!$$$\"": 1931,
      "$%%$$$\"": 1932,
      "$%'$$$'": 1933,
      "$#'$$$$": 1934,
      "$#$\"$$&": 1935,
      "$$#&$$%": 1936,
      "$$#%$$$$%": 1937,
      "$$%#$$$$%": 1938,
      "$\"-": 1939,
      "$\"$\"$$#": 1940,
      "%$$$$$$$#$$$$": 1941,
      "$$$#$$$$%%": 1942,
      "$'\"$$$\"": 1943,
      "$!$$!": 1944,
      "$$$$##$$$$": 1945,
      "$%$$$$$$%%$$$$": 1946,
      "'$$-": 1947,
      "$#\"$$$%": 1948,
      "$#\"#$$%": 1949,
      "Ġ$$$ğ": 1950,
      "($$-": 1951,
      "$\"%&$$$$": 1952,
      "$#&\"$$&": 1953,
      "#$$$$%$": 1954,
      "$&\"#$$\"": 1955,
      "$!#%$$$$": 1956,
      "ğ$$,": 1957,
      "$,&": 1958,
      "ĀĀ%ĀĞ": 1959,
      "ĀĀ\"Ā)": 1960,
      "$\"!%$$\"": 1961,
      "$$$#$$#%$$#": 1962,
      "$&!#$$#": 1963,
      "$ě%": 1964,
      "ĀĀ'Āğ": 1965,
      "$$&$$$$$": 1966,
      "$$##$$#$": 1967,
      "\"$": 1968,
      "&#$$$$": 1969,
      "'$$$$##": 1970,
      "+$$!": 1971,
      "Ĝĝ": 1972,
      "Ĝ$$'": 1973,
      "Ġ%$$ğ": 1974,
      "$%-": 1975,
      "$%!$$$$": 1976,
      "$%%$$$'": 1977,
      "$#$'": 1978,
      "$#$$(": 1979,
      "$#$!$$%": 1980,
      "$$#%$$$$#": 1981,
      "$&$%$$\"": 1982,
      "$&!$$$\"": 1983,
      "$&%$$$\"": 1984,
      "%$$$$$$$%$$$$": 1985,
      "$$$#$$$$%#": 1986,
      "$$$%$$$$$$$$$$$$": 1987,
      "$!$#$$%": 1988,
      "$!!$$$$": 1989,
      "$##'$$$$": 1990,
      "$%%%$$$$#": 1991,
      "\"$$ě": 1992,
      "&$$$$$": 1993,
      "&$$$$$$#": 1994,
      "$$$$$$$$$$$$$$$#": 1995,
      "$#\"&$$\"": 1996,
      "$#\"'$$#": 1997,
      "$&&&$$%": 1998,
      "$&$$$$$$&": 1999,
      "$$$.": 2000,
      "$&\"&$$\"": 2001,
      ")$$ĝ": 2002,
      "$#!&$$\"": 2003,
      "$!%#$$%": 2004,
      "ĀĀ%Ā(": 2005,
      "&%#$$%": 2006,
      "ĀĀ!Ā&": 2007,
      "'$$&$": 2008,
      "$-%": 2009,
      "ĀĀğĀ!": 2010,
      "Ğ$$ĝ": 2011,
      "$#%%$$%$": 2012,
      "'$$$$#%": 2013,
      "'$$$$%#": 2014,
      "+,": 2015,
      "-#": 2016,
      "Ğ$$Ğ": 2017,
      "Ġ$'#": 2018,
      "Ġ($$#": 2019,
      "$%$!$$#": 2020,
      "$%$\"$$\"": 2021,
      "$$%%$$\"": 2022,
      "$$%\"$$#": 2023,
      "$&\"$$$!": 2024,
      "$\"$&": 2025,
      "$\"$%$$$$#": 2026,
      "$$\"\"$$\"": 2027,
      "$!#$$$\"": 2028,
      "$#%%$$\"": 2029,
      "$#%$$$%$$#": 2030,
      "$%##$$!": 2031,
      "\"$$$'": 2032,
      "\"$$$$$$%": 2033,
      "$#\"%$$%": 2034,
      "$&%!$$%": 2035,
      "$%\"\"$$\"": 2036,
      "$&#%$$%": 2037,
      "#$$$$#\"": 2038,
      "$ĝ*": 2039,
      "$$%$$$%$$%": 2040,
      ")$$$)": 2041,
      "$'#\"$$#": 2042,
      "$&'%$$%": 2043,
      "Ġ%$$$%": 2044,
      "$$$#$$#$": 2045,
      "&&$$$%": 2046,
      "&&#$$%": 2047,
      "+'": 2048,
      "ě$$'": 2049,
      "ĝ$$ğ": 2050,
      "ĠĘ": 2051,
      "Ġę": 2052,
      "Ġ$%!": 2053,
      "Ġ$-": 2054,
      "Ġ%$$Ğ": 2055,
      "$%$\"$$$$#": 2056,
      "$%!$$$!": 2057,
      "$$#!$$#": 2058,
      "$$&#$$#": 2059,
      "$$$%$$$$##": 2060,
      "$'$\"$$%": 2061,
      "$!%$$$$": 2062,
      "$$'\"$$%": 2063,
      "$($": 2064,
      "%$$Ě": 2065,
      "$#$$$$'": 2066,
      "$#%$$$$$$$$$$$$": 2067,
      "\"$$$$\"#": 2068,
      "$#\"\"$$%": 2069,
      "$\"%#$$#": 2070,
      "$$$&$$&": 2071,
      "$$$\"$$&": 2072,
      "$$($": 2073,
      "$\"$$$$$$\"": 2074,
      "$$$%$$$$$$": 2075,
      "$%%$$$$$$#$$$$": 2076,
      "ĀĀğĀ&": 2077,
      "\"\"$$$#": 2078,
      "ĀĀ(Ā!": 2079,
      "$$%#$$%$": 2080,
      "ĀĀĞĀ#": 2081,
      "ĀĀĞĀ!": 2082,
      "ĀĀĝĀ\"": 2083,
      "%$$$$$#%$$#": 2084,
      "#&": 2085,
      "&$": 2086,
      "(.": 2087,
      "),": 2088,
      ",$$\"": 2089,
      "ě$$#": 2090,
      "ĝ&": 2091,
      "$$.": 2092,
      "$$$*": 2093,
      "$%$#$$$$$$$$": 2094,
      "$%$'$$$$": 2095,
      "$&$&$$$$": 2096,
      "$\"\"$$#": 2097,
      "#$$$$&%": 2098,
      "%$$$$(": 2099,
      "$'ě": 2100,
      "$!$": 2101,
      "$!$&$$%": 2102,
      "$$'&$$%": 2103,
      "$$$$%$#$$$$": 2104,
      "$%$$$$$$$&": 2105,
      "$##%$$!": 2106,
      "\"$$$$$": 2107,
      "\"$$$$'": 2108,
      "&$$$$!": 2109,
      "!$$$&": 2110,
      "$&%&$$%": 2111,
      "$#&%$$#": 2112,
      "$$$\"$": 2113,
      "$$$\"$$$$#": 2114,
      "#$$$$##$$$$": 2115,
      "$++": 2116,
      "$\"\"$$$%": 2117,
      "$\"$$$$$$": 2118,
      "$%$$$$%#": 2119,
      "$'%%$$#": 2120,
      "$#$$$$##": 2121,
      "$%'\"$$&": 2122,
      "$!%%$$&": 2123,
      "$,ğ": 2124,
      "ĀĀ%Ā)": 2125,
      "$#'\"$$&": 2126,
      "$!\"&$$#": 2127,
      "$$$%$$%#$$%": 2128,
      "!$$\"$": 2129,
      "($$%$": 2130,
      "$ě#": 2131,
      "ĀĀ'ĀĞ": 2132,
      "$#$$$$$$$$$$$$$$$$$$$$": 2133,
      "Ğ$$,": 2134,
      "$$%%$$%$": 2135,
      "*$$$)": 2136,
      "$$$$$$$$%%": 2137,
      "$%##$$#$": 2138,
      "!+": 2139,
      "!$$$$%%": 2140,
      "%\"": 2141,
      "Ğ*": 2142,
      "Ġ$#\"": 2143,
      "Ġ($$": 2144,
      "Ġ$\"%": 2145,
      "Ġ$\"&": 2146,
      "Ġ$#!": 2147,
      "Ġ$'\"": 2148,
      "ĠĀĞ": 2149,
      "$%&$$%": 2150,
      "$%$$$&": 2151,
      "$%&$$$'": 2152,
      "$#$%": 2153,
      "$$#!$$$$": 2154,
      "$$\"%$$!": 2155,
      "%$$$$$$\"": 2156,
      "$'$#$$\"": 2157,
      "%$$Ę": 2158,
      "$##%$$$$%": 2159,
      "$%%!$$$$": 2160,
      "$%%#$$'": 2161,
      "$#%#$$'": 2162,
      "$%#!$$$$": 2163,
      "\"$$ę": 2164,
      "'$$Ě": 2165,
      "$%&!$$%": 2166,
      "$$$#$$$$$$": 2167,
      "$&$$$$$$": 2168,
      "$'%%$$%": 2169,
      "$$#$$$#$$$$$$$$": 2170,
      "$%'&$$%": 2171,
      "ğ$$.": 2172,
      "Ā#\"": 2173,
      "$'##$$$$": 2174,
      "$!%%$$$$": 2175,
      "ĀĀ$Āĝ": 2176,
      "Ġ$$$$\"": 2177,
      "$Ĝ(": 2178,
      "$Ĝğ": 2179,
      "ĀĀ#Āĝ": 2180,
      "$!\"#$$#": 2181,
      "$&'#$$&": 2182,
      "$'&%$$%": 2183,
      "ĀĀ&Ā&": 2184,
      "ĀĀ&Ā'": 2185,
      "\"%#$$%": 2186,
      "Ā(&": 2187,
      "$ěğ": 2188,
      "$!$$$$\"": 2189,
      "#$$$$$$$$$$$#": 2190,
      "ĀĀĝĀ!": 2191,
      "$$$$$$$$##": 2192,
      "!$$$$##": 2193,
      "\"\"$$#": 2194,
      "'$": 2195,
      "ğ$$$$#": 2196,
      "$%($$$&": 2197,
      "$#%$$$\"": 2198,
      "$#\"$$$!": 2199,
      "$#&$$$'": 2200,
      "$#$&$$\"": 2201,
      "$&ě": 2202,
      "$&$&$$%": 2203,
      "$\"$$(": 2204,
      "$$&$$$'": 2205,
      "$$$$$$$$$%$$$$": 2206,
      "#$$$$$#$$$$": 2207,
      "$$!&$$\"": 2208,
      "$(-": 2209,
      "$($$&": 2210,
      "#$$/": 2211,
      "$##\"$$\"": 2212,
      "$%%#$$\"": 2213,
      "$#%#$$%$": 2214,
      "$%#$$&": 2215,
      "&$$$*": 2216,
      "'$$$*": 2217,
      "$*,": 2218,
      "$Ğ+": 2219,
      "$%&\"$$$$": 2220,
      "$&%&$$$$": 2221,
      "Ġ$$$&": 2222,
      "$\"#'$$#": 2223,
      "$%\"$$$%": 2224,
      "$%\"#$$%": 2225,
      "$%\"#$$!": 2226,
      "$#&'$$%": 2227,
      "$#&%$$'": 2228,
      "#$$$$%#$$$$": 2229,
      "$&&\"$$&": 2230,
      "$#$$$$%%": 2231,
      "#$$'$\"": 2232,
      "$%%$$$$$$%$$$$": 2233,
      "$%'%$$&": 2234,
      "Ġ$$$$'": 2235,
      "$#'%$$&": 2236,
      "Ġ\"#$$#": 2237,
      "!$$&$": 2238,
      "$\"'$$$%": 2239,
      "Ā(#": 2240,
      "$ě!": 2241,
      "ĀĀ'Ā'": 2242,
      "$!$$$$&": 2243,
      "$$$!$$#": 2244,
      "$'$$$$\"": 2245,
      "$$$$$$$$#%": 2246,
      "#$$$$$#%$$#": 2247,
      "%$$$$##%$$#": 2248,
      "$$$$$$$$$$$$$$$$$$$$$$$$$$$": 2249,
      "$%$$$$$$$$$$$$$": 2250,
      "!$$$$%#": 2251,
      "(,": 2252,
      "*$$(": 2253,
      "*$$ğ": 2254,
      ",&": 2255,
      ".%": 2256,
      "Ě#": 2257,
      "Ĝ&": 2258,
      "ĝ!": 2259,
      "Ğ$$*": 2260,
      "Ġ$&$$$$": 2261,
      "Ġ$$$$%%": 2262,
      "Ġ$$$$#%": 2263,
      "Ġ$''": 2264,
      "$%\"$$$!": 2265,
      "$##$$": 2266,
      "$#'$$$'": 2267,
      "$#$#$$!": 2268,
      "$$#'$$#": 2269,
      "$$%$$$$#": 2270,
      "$&$!$$%": 2271,
      "$\"&$$#": 2272,
      "$$&!$$%": 2273,
      "%$$$$$##$$$$": 2274,
      "ĀĀē": 2275,
      "$$$#$$$$##": 2276,
      "$'$$'": 2277,
      "$'$#$$%": 2278,
      "$'%$$$&": 2279,
      "$!-": 2280,
      "$$$$%#$$$$": 2281,
      "$#$$$$!": 2282,
      "$%#%$$!": 2283,
      "$%#%$$#$": 2284,
      "\"$$/": 2285,
      "&$$$$$$\"": 2286,
      "!$$/": 2287,
      "!$$$Ğ": 2288,
      "$$#$$$$$$%$$$%": 2289,
      "%$$\"$\"": 2290,
      "$%&#$$#": 2291,
      "$%\"%$$$$": 2292,
      "$$$&$$\"": 2293,
      "%$$$$#&": 2294,
      "$%$$#$": 2295,
      "$&&%$$#": 2296,
      "$$$%$$$$$$#$$$$": 2297,
      "$$$#$$$$$$#$$$$": 2298,
      "Ā%+": 2299,
      "$%!\"$$#": 2300,
      "$!%\"$$%": 2301,
      "Ġ$$$$!": 2302,
      "$\"!#$$#": 2303,
      "Ġ$$%$": 2304,
      "Ā()": 2305,
      "$ě'": 2306,
      "$''$$$%": 2307,
      "%$$($": 2308,
      "$%$$$$$$$$$$$%": 2309,
      "ĀĀğĀğ": 2310,
      "Ā)&": 2311,
      "!$$'$": 2312,
      "$&(%$$%": 2313,
      "$$\"$$$$$$#": 2314,
      "\"\"%$$#": 2315,
      "\"\"#$$#": 2316,
      "Ġğ$$#": 2317,
      "$#$%$$%$": 2318,
      "'\"$$%": 2319,
      ")-": 2320,
      "+$$(": 2321,
      ".-": 2322,
      "ğ$$$$%": 2323,
      "Ġ&$$%": 2324,
      "Ġ$Ğ": 2325,
      "Ġ$%'": 2326,
      "Ġ$Ĝ": 2327,
      "ĠĀ&": 2328,
      "ĠĀğ": 2329,
      "$#\"$$#": 2330,
      "$#$&$$$$#": 2331,
      "$#$&$$$$%": 2332,
      "$#($$$&": 2333,
      "$$%'$$$$": 2334,
      "$&'$$$&": 2335,
      "$&#$$$!": 2336,
      "$\"$$$\"": 2337,
      "$\"$'$$%": 2338,
      "$$&$$%": 2339,
      "$$&&$$&": 2340,
      "$!$&$$#": 2341,
      "$!!$$$\"": 2342,
      "$($$": 2343,
      "$($$!": 2344,
      "#$$Ě": 2345,
      "$##$$\"": 2346,
      "$#%%$$'": 2347,
      "$#\"#$$!": 2348,
      "($$$*": 2349,
      "#$$$$#$%$$$$": 2350,
      "$+*": 2351,
      "$+Ğ": 2352,
      "$&&#$$#": 2353,
      "$\"\"#$$\"": 2354,
      "$\"\"&$$\"": 2355,
      "$$$#$$$$$$%$$$$": 2356,
      "$#$$$$%#": 2357,
      "$\"&&$$&": 2358,
      "$!##$$#": 2359,
      ")$$,": 2360,
      "$#!&$$#": 2361,
      "$#!#$$\"": 2362,
      "$%!\"$$\"": 2363,
      "ĀĀ%Ā*": 2364,
      "$!\"$$$%": 2365,
      "Ā'(": 2366,
      "$$$%$$%%$$%": 2367,
      "$'\"%$$#": 2368,
      "$'\"%$$\"": 2369,
      "$\"'#$$&": 2370,
      "Ā('": 2371,
      "$&!$$$#": 2372,
      "$ě&": 2373,
      "ĀĀ'Ā&": 2374,
      "$$#%$$#$": 2375,
      "$%%#$$%$": 2376,
      "Ā*&": 2377,
      "%$$)$": 2378,
      "%$$$$$$$$$#": 2379,
      "$#$#$$#$": 2380,
      "$$$$$$$$$$$$$$$$$$$$$$$$$$": 2381,
      "!,": 2382,
      "!\"$$#": 2383,
      "&\"$$%": 2384,
      "'%$$&": 2385,
      "*$$)": 2386,
      "*$$*": 2387,
      "$$/": 2388,
      "$%!$$": 2389,
      "$%$'$$#": 2390,
      "$%$&$$&": 2391,
      "$$#%$$&": 2392,
      "$&\"$$%": 2393,
      "$&$%$$$$#": 2394,
      "$&$\"$$\"": 2395,
      "$\"\"$$": 2396,
      "$\"!$$$\"": 2397,
      "$$\"'$$#": 2398,
      "$$\"!$$#": 2399,
      "ĀĀĕ": 2400,
      "$$$#$$!": 2401,
      "$$$#$$'": 2402,
      "$'$$$%": 2403,
      "$''$$$$": 2404,
      "$!%$$#": 2405,
      "$!$\"$$%": 2406,
      "$$$$#$": 2407,
      "$(.": 2408,
      "%$$$)": 2409,
      "$##($$#": 2410,
      "$#%\"$$#": 2411,
      "$#%%$$$$%": 2412,
      "$%#%$$$$%": 2413,
      "$Ğ$$#": 2414,
      "$$$$$$$$$$$$$$$%": 2415,
      "$%&&$$$$": 2416,
      "$%&&$$&": 2417,
      "Ġ$$.": 2418,
      "$$$&$$$$%": 2419,
      "$\"$$$$!": 2420,
      "$$$%$$$$$": 2421,
      "Ā#%": 2422,
      "ĀĀ$Ā)": 2423,
      "$,)": 2424,
      "$#'&$$&": 2425,
      "&%%$$%": 2426,
      "#$$$#$$$$$$$$": 2427,
      "Ġ%%$$%": 2428,
      "ĀĀ!Ā%": 2429,
      "ĀĀ!ĀĞ": 2430,
      "&$$'$": 2431,
      "\"%%$$$$": 2432,
      "$&!%$$\"": 2433,
      "$ě\"": 2434,
      "$-)": 2435,
      "$%($$$%": 2436,
      "$%(#$$&": 2437,
      "$(%$$$#": 2438,
      "Ġ$$&$": 2439,
      "$$\"$$$$$$%": 2440,
      "\"$$($": 2441,
      "ĀĀĝĀ&": 2442,
      "$'(#$$%": 2443,
      "$%$$$$$$%%": 2444,
      "ĝ$$$ğ": 2445,
      "#$$$$$##$$#": 2446,
      "#$$$$%#%$$#": 2447,
      "\",": 2448,
      "#Ğ": 2449,
      "#ğ": 2450,
      "%Ğ": 2451,
      "&'$$%": 2452,
      "'#$$&": 2453,
      "--": 2454,
      "-$$$$": 2455,
      "-$$#": 2456,
      ".)": 2457,
      "Ě$": 2458,
      "Ě%": 2459,
      "Ěğ": 2460,
      "Ě$$$$": 2461,
      "ě$$\"": 2462,
      "ĞĞ": 2463,
      "Ġ0": 2464,
      "Ġ'$$%": 2465,
      "Ġ$!#": 2466,
      "Ġ$\"!": 2467,
      "Ġ$&!": 2468,
      "Ġ$&$$%": 2469,
      "Ġ$'!": 2470,
      "$#$!$$#": 2471,
      "$#$#$$'": 2472,
      "$$%!$$$$": 2473,
      "$&.": 2474,
      "$&$$$$$$$$$$$$": 2475,
      "$&$$$&": 2476,
      "$&$!$$#": 2477,
      "$\"#$$": 2478,
      "$\"%$$\"": 2479,
      "$\"$&$$&": 2480,
      "$$\"$$$#$": 2481,
      "$$&#$$'": 2482,
      "$$&$$$%$": 2483,
      "$$$%$$!": 2484,
      "$$!$$$!": 2485,
      "$(Ĝ": 2486,
      "%$$/": 2487,
      "$%$$$$$$##$$$$": 2488,
      "$###$$&": 2489,
      "$%%%$$'": 2490,
      "$%#$$$$$$$$$$$$": 2491,
      "$)$$\"": 2492,
      "$ğ,": 2493,
      "'$$.": 2494,
      "$$$$$$$$$$$$$%": 2495,
      "$%&#$$'": 2496,
      "$#\"&$$$$": 2497,
      "$&%\"$$#": 2498,
      "$\"##$$&": 2499,
      "$&#%$$!": 2500,
      "($$.": 2501,
      "$\"\"#$$$$": 2502,
      "$\"\"%$$!": 2503,
      "$$$%$$$$&": 2504,
      "$$$#$$$$$": 2505,
      "$\"&%$$'": 2506,
      "$$#$$$#$$%": 2507,
      "Ā##": 2508,
      "Ġ#$$$%": 2509,
      "ĀĀ!Āĝ": 2510,
      "$!&#$$&": 2511,
      "ĀĀ'Āĝ": 2512,
      "$!!%$$#": 2513,
      "$(##$$#": 2514,
      "ĀĀ(Ā\"": 2515,
      "#$$$$$$$$$$$$#": 2516,
      "\"&$$$%": 2517,
      "&$$$$#\"": 2518,
      "ĝ$$+": 2519,
      "$&%$$$$$": 2520,
      "$%$%$$%$": 2521,
      "#ĝ": 2522,
      "(#$$&": 2523,
      "+!": 2524,
      "-%": 2525,
      "ě!": 2526,
      "Ġ#$$&": 2527,
      "Ġ%$$&": 2528,
      "Ġ$\"#": 2529,
      "Ġ$&\"": 2530,
      "Ġ$&'": 2531,
      "Ġ#$$Ğ": 2532,
      "$$$$$$%$": 2533,
      "$%&$$": 2534,
      "$%$\"$$$$%": 2535,
      "$#!$$$!": 2536,
      "$$#$$$$$$$$": 2537,
      "$$##$$$$%": 2538,
      "$$%#$$'": 2539,
      "$&-": 2540,
      "$\"$$$$$$$$": 2541,
      "$\"#$$$&": 2542,
      "$$\"&$$$$": 2543,
      "$$&\"$$$$": 2544,
      "$$$$$$$$$$%$$$$": 2545,
      "$'&$$$&": 2546,
      "$!$#$$$$": 2547,
      "$!$#$$#": 2548,
      "$$'#$$'": 2549,
      "$(&$$$$": 2550,
      "#$$ę": 2551,
      "$#$$$$$#": 2552,
      "$##$$$$$$$$": 2553,
      "$%%%$$$$%": 2554,
      "$%%'$$$$": 2555,
      "$$#$$$$$$": 2556,
      "$&%\"$$&": 2557,
      "$&#&$$\"": 2558,
      "$&#!$$#": 2559,
      "$\"%&$$&": 2560,
      "$$$&$$$$#": 2561,
      "$$$\"$$$$%": 2562,
      "%$$$$#%$$$$": 2563,
      "#$$$$%%$$$%": 2564,
      "$ĝ+": 2565,
      "$+ĝ": 2566,
      "$$($$$%": 2567,
      "$$(#$$%": 2568,
      "$$(#$$&": 2569,
      "$&&!$$%": 2570,
      "$$$%$$$$$$%$$$$": 2571,
      "$\"&\"$$&": 2572,
      "$##$$$$$$%$$$$": 2573,
      "$'%\"$$$$": 2574,
      "$'%\"$$#": 2575,
      "$'%!$$%": 2576,
      "$!##$$$$": 2577,
      "$%'%$$'": 2578,
      ")$$$*": 2579,
      "Ā%Ğ": 2580,
      "$%!%$$!": 2581,
      "$'#&$$#": 2582,
      "$'#%$$\"": 2583,
      "ĀĀ$Ā%": 2584,
      "ĀĀ%Āĝ": 2585,
      "$ĜĞ": 2586,
      "'$$\"$": 2587,
      "&$$!$": 2588,
      "$&'\"$$%": 2589,
      "$'&#$$&": 2590,
      "$'\"\"$$#": 2591,
      "($$$$!": 2592,
      "$\"'%$$%": 2593,
      "$\"'%$$&": 2594,
      "Ā(\"": 2595,
      "$-#": 2596,
      "&#\"$$#": 2597,
      "Ğ$$+": 2598,
      "Ğ$$Ĝ": 2599,
      "#$$$$$$$$$%": 2600,
      "ĀĀ)Ā\"": 2601,
      "&$$($": 2602,
      "%$$$$$$$$$%": 2603,
      "%$$$$%%#$$%": 2604,
      "$$$#$$$$$$$$$$$": 2605,
      "\"$$$$$$$$": 2606,
      "\"#$$\"": 2607,
      "#,": 2608,
      "&%$$&": 2609,
      ".ĀĀ": 2610,
      "Ĝ*": 2611,
      "ĜĀĀ": 2612,
      "Ġė": 2613,
      "Ġ#$$$#": 2614,
      "Ġ$'&": 2615,
      "Ġ$#ğ": 2616,
      "$%%$$$$%": 2617,
      "$#!$$": 2618,
      "$##$$$!": 2619,
      "$#\"$$$&": 2620,
      "$&$!$$$$": 2621,
      "$\"$#$$$$#": 2622,
      "$\"$#$$\"": 2623,
      "$$&&$$#": 2624,
      "$$&%$$'": 2625,
      "%$$$$$%$$$$": 2626,
      "$$$%$$$%": 2627,
      "$'$$": 2628,
      "$'$%$$$$": 2629,
      "$'%$$$\"": 2630,
      "$'\"$$$!": 2631,
      "$!.": 2632,
      "$!ě": 2633,
      "$!#$$#": 2634,
      "$!$&$$$$": 2635,
      "$!\"$$$\"": 2636,
      "$$$$#$%$$$$": 2637,
      "$(ě": 2638,
      "$#%$$\"": 2639,
      "$)$": 2640,
      "$ğ$$\"": 2641,
      "$*ĝ": 2642,
      "$Ğ$$%": 2643,
      "$$$$$$$$$$$$$%$$$$": 2644,
      "$#\"%$$!": 2645,
      "$&#!$$$$": 2646,
      "#$$$$#$": 2647,
      "%$$$$#$#$$$$": 2648,
      "$ĝ$$$$": 2649,
      "$+$$$$": 2650,
      "$\"\"#$$%": 2651,
      "$\"$$$$'": 2652,
      "$$$Ě": 2653,
      "$$%$$$%$$#": 2654,
      "$'#$$$%": 2655,
      "$!%&$$%": 2656,
      "$Ĝ)": 2657,
      "$$ğ$": 2658,
      "Ā'&": 2659,
      "$$*$": 2660,
      "ĀĀ(Āğ": 2661,
      "ĀĀĞĀ&": 2662,
      "\"&%$$%": 2663,
      "$#$#$$%$": 2664,
      "+$$+": 2665,
      "%$$$$$%#$$%": 2666,
      "!&$$#": 2667,
      "!%$$\"": 2668,
      "#(": 2669,
      "%ĝ": 2670,
      "&Ğ": 2671,
      "&ğ": 2672,
      "'&$$%": 2673,
      "(ĝ": 2674,
      "(#$$%": 2675,
      ")ĝ": 2676,
      ")$$$$#": 2677,
      "++": 2678,
      ",$$%": 2679,
      "-$$!": 2680,
      "Ě!": 2681,
      "ě\"": 2682,
      "ě$": 2683,
      "Ġğ$$": 2684,
      "Ġ$#'": 2685,
      "Ġ$(!": 2686,
      "Ġ'$$ğ": 2687,
      "$%$!": 2688,
      "$%$#$$'": 2689,
      "$#&$$": 2690,
      "$#$#$$$$$$$$": 2691,
      "$$#($$#": 2692,
      "$$%!$$&": 2693,
      "$&&$$$'": 2694,
      "$\"Ě": 2695,
      "$\"$'$$$$": 2696,
      "$\"$'$$#": 2697,
      "$\"%$$$\"": 2698,
      "$$&&$$$$": 2699,
      "$$&'$$%": 2700,
      "$$$$$$$$&": 2701,
      "$$$$$$$$#$$$$%": 2702,
      "%$$$$$$&": 2703,
      "$$$%$$$$#%": 2704,
      "$''$$$&": 2705,
      "$($$$$%": 2706,
      "%$$ę": 2707,
      "$##!$$#": 2708,
      "$%%$$$%$$#": 2709,
      "$%#&$$%": 2710,
      "$%#$$$#$$%": 2711,
      "\"$$Ě": 2712,
      "'$$$!": 2713,
      "!$$.": 2714,
      "$#\"\"$$\"": 2715,
      "$&%&$$#": 2716,
      "$\"#\"$$$$": 2717,
      "$\"#&$$\"": 2718,
      "$#&#$$$$": 2719,
      "%$$$$#$": 2720,
      "%$$$$##$$$#": 2721,
      "$&&%$$$$": 2722,
      "$$$#$$$$\"": 2723,
      "$%$$$$#%": 2724,
      "$'%#$$&": 2725,
      "$&\"\"$$\"": 2726,
      "$!#\"$$#": 2727,
      "$%'&$$&": 2728,
      "Ā#(": 2729,
      "$'##$$\"": 2730,
      "ĀĀ%Ā%": 2731,
      "ĀĀ\"Āĝ": 2732,
      "$%#$$$$$$%$$$$": 2733,
      "&%\"$$%": 2734,
      "$\"!#$$\"": 2735,
      "Ā'\"": 2736,
      "($$#$": 2737,
      "$$$$%%$$$%": 2738,
      "\"%&$$%": 2739,
      "$-\"": 2740,
      "$%(#$$%": 2741,
      "$!!%$$\"": 2742,
      "$#($$$%": 2743,
      "$&(#$$%": 2744,
      "Ġ($$!": 2745,
      "ĀĀĞĀğ": 2746,
      "#$$$$$$#$$%": 2747,
      "%$$$$$$%$$#": 2748,
      "ĝ$$ĝ": 2749,
      "$#$%$$#$": 2750,
      "#$$$$$%%$$%": 2751,
      "%$$$$$$#$$%": 2752,
      "$%$#$$%$": 2753,
      "%$$$$##%$$$$": 2754,
      "ĀĀ+Ā\"": 2755,
      "#\"$$$$": 2756,
      "#&$$#": 2757,
      "&!$$%": 2758,
      ")ğ": 2759,
      "+$$Ğ": 2760,
      ".+": 2761,
      "Ě$$%": 2762,
      "Ĝ$$)": 2763,
      "Ġ$%$$%": 2764,
      "Ġ!$$%": 2765,
      "Ġ$&$$#": 2766,
      "Ġ$(\"": 2767,
      "Ġ&$$ğ": 2768,
      "Ġ&$$Ğ": 2769,
      "$$$+": 2770,
      "$%.": 2771,
      "$%($$$$": 2772,
      "$%$%$$$$$$$$": 2773,
      "$%$%$$'": 2774,
      "$#$$$%": 2775,
      "$#$$$\"": 2776,
      "$#$$$#$": 2777,
      "$#$\"$$\"": 2778,
      "$$#$$$$%": 2779,
      "$$#!$$%": 2780,
      "$&$%$$&": 2781,
      "$\"$%$$'": 2782,
      "$$\"%$$%": 2783,
      "$!&$$$$": 2784,
      "$!'$$$&": 2785,
      "$$!\"$$\"": 2786,
      "$##!$$%": 2787,
      "$##%$$#$": 2788,
      "$%%#$$!": 2789,
      "$%#'$$$$": 2790,
      "$%#\"$$$$%": 2791,
      "$)Ĝ": 2792,
      "$ğě": 2793,
      "&$$$$(": 2794,
      "$%&%$$'": 2795,
      "$&%#$$\"": 2796,
      "$&%#$$'": 2797,
      "$%\"'$$#": 2798,
      "$&##$$!": 2799,
      "$#&&$$$$": 2800,
      "$#&!$$%": 2801,
      "#$$$$#%$$$%": 2802,
      "%$$$$#$%$$$$": 2803,
      "%$$$$#%$$$%": 2804,
      "$$(%$$&": 2805,
      "$&&\"$$$$": 2806,
      "$\"\"%$$%": 2807,
      "$&$$$$!": 2808,
      "$%%$$$$$%%$$$$": 2809,
      "$'%%$$$$": 2810,
      ")$$-": 2811,
      "$#!\"$$\"": 2812,
      "$#!#$$!": 2813,
      "Ā%Ĝ": 2814,
      "$%!&$$\"": 2815,
      "$!%%$$#": 2816,
      "$!%&$$$$": 2817,
      "$Ĝĝ": 2818,
      "ĀĀ\"Ā*": 2819,
      "ĀĀ#Ā)": 2820,
      "$#%$$$$$$%$$$$": 2821,
      "Ġ\"$$$#": 2822,
      "Ġ#%$$%": 2823,
      "$$$%$$%%$$$$": 2824,
      "ĀĀ!Ā)": 2825,
      "#$$$\"$": 2826,
      "$$$#$$##$$#": 2827,
      "$&!%$$#": 2828,
      "Ġ&%$$%": 2829,
      "\"$$!$": 2830,
      "$%(%$$%": 2831,
      "$$$$%#%$$#": 2832,
      "$&($$$%": 2833,
      "$#$$$$$$#%": 2834,
      "ĀĀĞĀ\"": 2835,
      "$$&$$$$$$%": 2836,
      "*$$-": 2837,
      "($$&$": 2838,
      "$$$$$$#$": 2839,
      "Ġ)$$\"": 2840,
      "+$$$(": 2841,
      "%$$$$$##$$#": 2842,
      "%$$$$%##$$#": 2843,
      "!$": 2844,
      "!#$$$$": 2845,
      "#%$$%": 2846,
      "-\"": 2847,
      "-*": 2848,
      ".#": 2849,
      "Ěě": 2850,
      "ě$$&": 2851,
      "Ĝ)": 2852,
      "Ĝ+": 2853,
      "Ĝ$$!": 2854,
      "Ĝ$$(": 2855,
      "Ğ)": 2856,
      "ğ)": 2857,
      "ğĚ": 2858,
      "ğĀĀ": 2859,
      "Ġ1": 2860,
      "Ġ$%$$$$": 2861,
      "Ġ$%$$#": 2862,
      "Ġ$\"'": 2863,
      "ĠĀ)": 2864,
      "Ġ$!'": 2865,
      "Ġ$'(": 2866,
      "$$Ę": 2867,
      "$#$($$$$": 2868,
      "$#$%$$'": 2869,
      "$$##$$&": 2870,
      "$$#%$$!": 2871,
      "$$%%$$'": 2872,
      "$&%$$$'": 2873,
      "$&$#$$!": 2874,
      "$&$%$$!": 2875,
      "$\"\"$$$!": 2876,
      "$$$$$$$$\"": 2877,
      "#$$$$$%%$$$$": 2878,
      "ĀĀĒ": 2879,
      "$$$#$$$#": 2880,
      "$'-": 2881,
      "$!&$$$&": 2882,
      "$$$$#$#$$$$": 2883,
      "$#$$$$#$$$$": 2884,
      "$#$$$$$$!": 2885,
      "$#$$$$$$$&": 2886,
      "$###$$!": 2887,
      "$%%&$$&": 2888,
      "$%%'$$%": 2889,
      "$ğ$$&": 2890,
      "&$$Ę": 2891,
      "$Ğ,": 2892,
      "$$$$$$$$$$$$$#": 2893,
      "$&%#$$$$#": 2894,
      "Ġ$$$'": 2895,
      "Ġ$$$Ğ": 2896,
      "$\"#'$$$$": 2897,
      "$%\"\"$$$$": 2898,
      "($$Ě": 2899,
      "$$$\"$$\"": 2900,
      "%$$$$%%$$$%": 2901,
      "!$$$$'": 2902,
      "!$$$$&#": 2903,
      "$$$%$$$$$%": 2904,
      "Ā#!": 2905,
      "$,-": 2906,
      "$#'#$$'": 2907,
      "Ā!#": 2908,
      "$\"!\"$$#": 2909,
      "$!\"%$$%": 2910,
      "Ā''": 2911,
      "Ā')": 2912,
      "ĀĀ&Āĝ": 2913,
      "Ā((": 2914,
      "ĀĀğĀĞ": 2915,
      "&&\"$$%": 2916,
      "Ğ$$$ğ": 2917,
      "*$$,": 2918,
      "$$$$$$$$##$$$$": 2919,
      "#$$$$$$%$$#": 2920,
      "$ĀĀ+": 2921,
      "%$$$$%%#$$$$": 2922,
      "Ā+&": 2923,
      "Ġ%$$ĝ": 2924,
      "$#$$$$$$$#$$$#": 2925,
      "!!$$#": 2926,
      "\"%$$\"": 2927,
      "&\"$$$$": 2928,
      "'/": 2929,
      "'%$$$$": 2930,
      ",(": 2931,
      ".*": 2932,
      ".$$#": 2933,
      "Ğĝ": 2934,
      "Ġ)$$": 2935,
      "Ġ$!%": 2936,
      "Ġ$!\"": 2937,
      "Ġ%$$$&": 2938,
      "$$$ĝ": 2939,
      "$%$%$$!": 2940,
      "$#%$$%": 2941,
      "$$#'$$\"": 2942,
      "$&!$$$!": 2943,
      "$\"$%$$$$%": 2944,
      "$$\"\"$$%": 2945,
      "$$$$$$$$$#$$$$": 2946,
      "$$$$$$$$$$#$$$$": 2947,
      "#$$$$$&": 2948,
      "$$$#$$$$#%": 2949,
      "$'#$$%": 2950,
      "$'$%$$%": 2951,
      "$'$\"$$$$": 2952,
      "$'$&$$#": 2953,
      "$'!$$$\"": 2954,
      "$'$!$$#": 2955,
      "$!$'$$%": 2956,
      "$$'!$$&": 2957,
      "$##'$$%": 2958,
      "$%%$$$%$$%": 2959,
      "$#%#$$$$%": 2960,
      "$#%!$$&": 2961,
      "$%#'$$\"": 2962,
      "!$$ę": 2963,
      "$$#$$$$$$$#$$$$": 2964,
      "$$%$$$$$$": 2965,
      "$$$$$$$$$$$$$#$$$$": 2966,
      "$#\"!$$#": 2967,
      "$\"#%$$&": 2968,
      "$%\"%$$!": 2969,
      "$&#$$$#$": 2970,
      "($$/": 2971,
      "($$$\"": 2972,
      "$\"%&$$#": 2973,
      "$#&#$$#": 2974,
      "#$$$$##$$$#": 2975,
      "$\"&%$$#": 2976,
      "$#$$$$#$%$$$$": 2977,
      "$$#$$$#$$#$$$#": 2978,
      "$&\"#$$!": 2979,
      "Ā%ĝ": 2980,
      "Ā#&": 2981,
      "$Ĝ*": 2982,
      "Ā&&": 2983,
      "$&'\"$$&": 2984,
      "$&'!$$%": 2985,
      "Ġ#%$$#": 2986,
      "Ġ%&$$%": 2987,
      "$'\"#$$\"": 2988,
      "\"#$$$%": 2989,
      "\"#&$$$$": 2990,
      "$\"'#$$%": 2991,
      "$!&#$$%": 2992,
      "$!&&$$%": 2993,
      "Ā(%": 2994,
      "$ě(": 2995,
      "$''\"$$%": 2996,
      "$#(%$$&": 2997,
      "$#$$$$$$#$$$$%": 2998,
      "'$$'$": 2999,
      "#$$$$$$$$$#": 3000,
      "#$$$$$$$$$$$$%": 3001,
      "ĀĀ)Āğ": 3002,
      "$(\"#$$#": 3003,
      "$.%": 3004,
      "$%$$$$$$#$$$$%": 3005,
      "%$$$$$%%$$%": 3006,
      "$$$%$$$$$$$$$$$": 3007,
      "#$$$$#%#$$%": 3008,
      "\"\"$$\"": 3009,
      "%&": 3010,
      "&\"$$&": 3011,
      "'ĝ": 3012,
      "(ğ": 3013,
      "*!": 3014,
      ",\"": 3015,
      ",$$!": 3016,
      "ĝĀĀ": 3017,
      "ğ%$$!": 3018,
      "Ġ$\"$$%": 3019,
      "Ġ*$$": 3020,
      "Ġ$)&": 3021,
      "$$ę": 3022,
      "$%$!$$&": 3023,
      "$#.": 3024,
      "$#$'$$&": 3025,
      "$$#$$$$#": 3026,
      "$$%'$$#": 3027,
      "$$%\"$$$$#": 3028,
      "$&$$$$$$$$": 3029,
      "$\"$#$$$$%": 3030,
      "$\"$!$$$$": 3031,
      "$$&\"$$'": 3032,
      "#$$$$'%": 3033,
      "ĀĀ:": 3034,
      "$$$%$$'": 3035,
      "$'$%$$\"": 3036,
      "$'$!$$%": 3037,
      "$$'\"$$&": 3038,
      "$$'!$$%": 3039,
      "$$'$$$(": 3040,
      "$(%$$$$": 3041,
      "$#$$$$$%": 3042,
      "$###$$$$%%": 3043,
      "$%%\"$$\"": 3044,
      "$%%$$$#$": 3045,
      "&$$/": 3046,
      "\"$$$$\"%": 3047,
      "&$$$$$%": 3048,
      "!$$Ę": 3049,
      "!$$Ě": 3050,
      "!$$ě": 3051,
      "$$#$$$$$$\"": 3052,
      "$$%$$$$$$\"": 3053,
      "$$%$$$$$$#$$$#": 3054,
      "$*Ĝ": 3055,
      "$%&'$$%": 3056,
      "$%&!$$&": 3057,
      "$#\"%$$": 3058,
      "$#\"\"$$$$": 3059,
      "$#\"&$$!": 3060,
      "$&%%$$\"": 3061,
      "$%\"%$$%": 3062,
      "($$$": 3063,
      "$\"%#$$\"": 3064,
      "$\"%%$$'": 3065,
      "$ĝě": 3066,
      "$$($$$$": 3067,
      "!$$$$!": 3068,
      "$$$/": 3069,
      "$%$$$$#$$$$$$$$": 3070,
      "$##$$$$$##$$$$": 3071,
      "$'%%$$&": 3072,
      "$&\"&$$#": 3073,
      "$&\"!$$#": 3074,
      "$!##$$%": 3075,
      "$!#&$$$$": 3076,
      "$!#&$$%": 3077,
      "$%'%$$#": 3078,
      "$%'!$$%": 3079,
      "Ā\"%": 3080,
      "Ā#)": 3081,
      "$!%$$$#": 3082,
      "Ġ\"%$$#": 3083,
      "$&'%$$&": 3084,
      "\"##$$#": 3085,
      "$\"'\"$$%": 3086,
      "$\"'&$$%": 3087,
      "ĀĀ'Ā)": 3088,
      "Ġ&#$$&": 3089,
      "ĀĞ#": 3090,
      "$&(#$$&": 3091,
      "$(&$$$%": 3092,
      "$#$$$$$$#%$$$$": 3093,
      "'$$!$": 3094,
      "*$$+": 3095,
      "#$$)$": 3096,
      "$Ě%": 3097,
      "&\"#$$#": 3098,
      "$#$$$$$$%%": 3099,
      "$#$$$$$$%#$$$$": 3100,
      "+$$$)": 3101,
      "%$$$$&%$$$$": 3102,
      "!%$$$$": 3103,
      "#\"$$#": 3104,
      "#$$$$$$$$$$$$$$$$": 3105,
      "&$$$#": 3106,
      "*ğ": 3107,
      "+\"": 3108,
      "+-": 3109,
      ",#": 3110,
      "/*": 3111,
      "ęğ": 3112,
      "Ĝ$$ğ": 3113,
      "ğ%$$\"": 3114,
      "Ġ\"$$&": 3115,
      "Ġ$#$$#": 3116,
      "Ġ#$$'": 3117,
      "Ġ$$$$%#": 3118,
      "Ġ$(#": 3119,
      "Ġ$\"(": 3120,
      "$%$$$#": 3121,
      "$%$$)": 3122,
      "$%$#$$!": 3123,
      "$%&$$$\"": 3124,
      "$#%$$$!": 3125,
      "$$%#$$\"": 3126,
      "$&$!": 3127,
      "$&&$$%": 3128,
      "$&$$(": 3129,
      "$&$$$$%%": 3130,
      "$&$\"$$&": 3131,
      "$\"#$$$$$": 3132,
      "$\"&$$$'": 3133,
      "#$$$$&&": 3134,
      "%$$$$\"%": 3135,
      "%$$$$'&": 3136,
      "$$$#$$": 3137,
      "$$$%$$": 3138,
      "$'$!$$$$": 3139,
      "$!Ě": 3140,
      "$!#$$$&": 3141,
      "$$'&$$&": 3142,
      "%$$#$$#": 3143,
      "%$$$ğ": 3144,
      "#$$$)": 3145,
      "$#$$$$%$$$$$$%": 3146,
      "$%$$$$$$!": 3147,
      "$%$$$$#$$$$$$#": 3148,
      "$%%!$$#": 3149,
      "$%%\"$$'": 3150,
      "$#%'$$#": 3151,
      "$%#$$$$$$$$": 3152,
      "$%#!$$%": 3153,
      "$)$$&": 3154,
      "&$$ę": 3155,
      "'$$/": 3156,
      "$*$": 3157,
      "$ĞĜ": 3158,
      "$Ğ$$&": 3159,
      "$$$$$$$$$$$$#$$$$": 3160,
      "$#\"($$#": 3161,
      "$&%\"$$\"": 3162,
      "$%\"%$$": 3163,
      "($$$+": 3164,
      "$\"%!$$%": 3165,
      "$\"%'$$#": 3166,
      "$\"%$$$%$": 3167,
      "$#&&$$#": 3168,
      "#$$$$%#$$$#": 3169,
      "%$$$$%#$$$#": 3170,
      "$&&!$$&": 3171,
      "$\"\"&$$$$": 3172,
      "$\"\"%$$&": 3173,
      "$\"\"'$$#": 3174,
      "'$$$$&%": 3175,
      "$$$%$$$$$$\"": 3176,
      "$$$#$$$$$%": 3177,
      "$\"&'$$%": 3178,
      "$%$$$$%$$$$$$$$": 3179,
      "$'%&$$#": 3180,
      "$'%&$$%": 3181,
      "$#$$$$#$$$$$$$$": 3182,
      "ğ$$ě": 3183,
      "ğ$$$Ğ": 3184,
      ")$$$+": 3185,
      "$#!\"$$#": 3186,
      "Ā\")": 3187,
      "Ġ\"&$$#": 3188,
      "Ā&ğ": 3189,
      "$!\"#$$%": 3190,
      "$!\"%$$\"": 3191,
      "$!\"\"$$#": 3192,
      "$!\"'$$#": 3193,
      "$'&#$$$$": 3194,
      "$'&&$$%": 3195,
      "ĀĀ!Ā*": 3196,
      "ĀĀ&Ā*": 3197,
      "\"#&$$#": 3198,
      "$\"'&$$&": 3199,
      "$!&%$$&": 3200,
      "$!&&$$&": 3201,
      "Ā(!": 3202,
      "$&!#$$\"": 3203,
      "$&!\"$$\"": 3204,
      "$$$$##%$$#": 3205,
      "$-(": 3206,
      "$!!&$$#": 3207,
      "$(#%$$#": 3208,
      "$'!$$$#": 3209,
      "Ğ$$-": 3210,
      "ĀĀĝĀğ": 3211,
      "$$$$$$$$%#$$$$": 3212,
      "$$$$$$$$%%$$$$": 3213,
      "$$$$$$$$%#$$$#": 3214,
      "$.&": 3215,
      "$%$%$$#$": 3216,
      "+$$Ĝ": 3217,
      "ĠĞ$$$$": 3218,
      "$ĀĀĚ": 3219,
      "%$$$$###$$$$": 3220,
      "%$$$$###$$#": 3221,
      "ĀĀ+Āğ": 3222,
      "'$$($": 3223,
      "#$$$$##%$$$$": 3224,
      "%$$$$%#%$$#": 3225,
      "#$$$$%##$$#": 3226,
      "ĀĀĘĀ": 3227,
      "!#$$\"": 3228,
      "##$$%": 3229,
      "##$$\"": 3230,
      "%#$$&": 3231,
      "'Ğ": 3232,
      "*$$Ğ": 3233,
      "+&": 3234,
      ",)": 3235,
      "Ā.": 3236,
      "Āě": 3237,
      "Ě$$\"": 3238,
      "Ĝ'": 3239,
      "ĝ*": 3240,
      "ĝ$$)": 3241,
      "ĝ$$*": 3242,
      "ğ#$$\"": 3243,
      "ğ$$%$": 3244,
      "Ġ$#%": 3245,
      "Ġ$#$$%": 3246,
      "Ġ($$$$": 3247,
      "Ġ$%(": 3248,
      "Ġ$#(": 3249,
      "ĠĀĝ": 3250,
      "Ġ$%ğ": 3251,
      "$%($$$'": 3252,
      "$#$$ğ": 3253,
      "$$%'$$%": 3254,
      "$&!$$": 3255,
      "$&$'$$#": 3256,
      "$\"$!$$%": 3257,
      "$\"%$$$'": 3258,
      "$\"$#$$'": 3259,
      "$$\"#$$!": 3260,
      "$$$$$$$$$%$$$%": 3261,
      "$$$%$$$$%#": 3262,
      "$'$&$$%": 3263,
      "$$!%$$%": 3264,
      "$$!%$$!": 3265,
      "$(#$$$$": 3266,
      "$($$'": 3267,
      "$('$$$$": 3268,
      "$(%$$$&": 3269,
      "#$$($$%": 3270,
      "$#$$$$$%$$$$": 3271,
      "$##$$$$$$$$$$$$$$$$": 3272,
      "$##'$$\"": 3273,
      "$##&$$!": 3274,
      "$%%$$$$$$$$": 3275,
      "$%%#$$$$$%": 3276,
      "$#%$$$$$$$$": 3277,
      "$#%!$$$$": 3278,
      "$%#%$$&": 3279,
      "$%#&$$!": 3280,
      "$)-": 3281,
      "$ğ-": 3282,
      "$$%$$$$$$&": 3283,
      "$*$$\"": 3284,
      "$&%!$$#": 3285,
      "$\"#\"$$%": 3286,
      "$%\"'$$\"": 3287,
      "$&#'$$#": 3288,
      "$\"%\"$$#": 3289,
      "$&&#$$'": 3290,
      "$\"\"\"$$$$": 3291,
      "$\"\"\"$$%": 3292,
      "'$$$$'": 3293,
      "$$$#$$$$&": 3294,
      "$&$$$$'": 3295,
      "$%$$$$#$#$$$$": 3296,
      "$\"&%$$$$": 3297,
      "$\"&#$$#": 3298,
      "$'%%$$\"": 3299,
      "$'%\"$$&": 3300,
      "$'%!$$$$": 3301,
      "$%'!$$&": 3302,
      "$%!#$$!": 3303,
      "$!%&$$&": 3304,
      "$!%'$$%": 3305,
      "ĀĀ$Ā*": 3306,
      "$,+": 3307,
      "$,ĝ": 3308,
      "ĀĀ\"Ā%": 3309,
      "$#'\"$$%": 3310,
      "$#'%$$'": 3311,
      "Ā!%": 3312,
      "Ġ\"$$$%": 3313,
      "$\"!&$$#": 3314,
      "Ā'Ğ": 3315,
      "Ġ%'$$%": 3316,
      "ĀĀ&Ā)": 3317,
      "$'\"!$$#": 3318,
      "$$$%$$#%$$#": 3319,
      "\"##$$%": 3320,
      "($$$$&": 3321,
      "$$$$#%#$$%": 3322,
      "$ě)": 3323,
      "$$$$###$$#": 3324,
      "Ġ!ĀĀ": 3325,
      "ĀĀ'Ā(": 3326,
      "$$$'$$\"": 3327,
      "$-&": 3328,
      "$-'": 3329,
      "$-ğ": 3330,
      "$%$$$$$$$$#$$$$": 3331,
      "Ā)'": 3332,
      "$#(#$$%": 3333,
      "$%$#$$$$\"": 3334,
      "$%$#$$$$&": 3335,
      "$(&\"$$%": 3336,
      "$!'%$$%": 3337,
      "Ğ$$ě": 3338,
      "Ġ$$'$": 3339,
      "&$$$$%\"": 3340,
      "$Ě#": 3341,
      "ĝ$$,": 3342,
      "&'$$$%": 3343,
      "+$$,": 3344,
      "+$$ĝ": 3345,
      "Ġ$&$$&": 3346,
      "\"!%$$#": 3347,
      "#$$$$#%%$$%": 3348,
      "$#$$$$&$": 3349,
      "(Ğ": 3350,
      "(&$$%": 3351,
      "(%$$&": 3352,
      "($$$$%%": 3353,
      "(ĀĀ$Ā": 3354,
      "*&": 3355,
      ",!": 3356,
      ",$$'": 3357,
      ",$$(": 3358,
      "-.": 3359,
      "-Ğ": 3360,
      "/-": 3361,
      "ę#": 3362,
      "ę$$&": 3363,
      "Ě'": 3364,
      "Ě)": 3365,
      "Ě$$&": 3366,
      "ěě": 3367,
      "ěĞ": 3368,
      "ĜĜ": 3369,
      "ĝ$$Ğ": 3370,
      "Ġ$'$$$$": 3371,
      "Ġ&$$$'": 3372,
      "$$($$$&": 3373,
      "$%$&$$$$%": 3374,
      "$#&$$$(": 3375,
      "$$#$$$": 3376,
      "$$#$$$%$": 3377,
      "$$%'$$&": 3378,
      "$&#$$": 3379,
      "$&#$$&": 3380,
      "$&$%$$$$%": 3381,
      "$&$\"$$$$%": 3382,
      "$&#$$$&": 3383,
      "$&$&$$&": 3384,
      "$\".": 3385,
      "$\"$$$$$$$$$$$$": 3386,
      "$\"'$$$'": 3387,
      "$\"$($$#": 3388,
      "$\"$($$%": 3389,
      "$$\"!$$$$": 3390,
      "$$\"&$$!": 3391,
      "%$$$$$%%$$$$": 3392,
      "%$$$$&\"": 3393,
      "$'.": 3394,
      "$'\"$$$$": 3395,
      "$!$#$$&": 3396,
      "$!%$$$'": 3397,
      "$!$&$$&": 3398,
      "$!'$$$'": 3399,
      "$$!'$$\"": 3400,
      "$$!&$$!": 3401,
      "$$'$$#": 3402,
      "$$'%$$#": 3403,
      "$($%$$#": 3404,
      "$($#$$%": 3405,
      "$($#$$#": 3406,
      "$($#$$\"": 3407,
      "$###$$$$$%": 3408,
      "$%%!$$&": 3409,
      "$%%%$$%$": 3410,
      "$#%#$$\"": 3411,
      "$#%&$$'": 3412,
      "$#%&$$$$#": 3413,
      "$%#\"$$!": 3414,
      "$)$$!": 3415,
      "$)$$$$#": 3416,
      "\"$$$$&#": 3417,
      "&$$$$$\"": 3418,
      "&$$$$\"%": 3419,
      "'$$$": 3420,
      "$Ğě": 3421,
      "$%&\"$$'": 3422,
      "$#\"&$$%": 3423,
      "$#\"'$$\"": 3424,
      "$#\"$$$#$": 3425,
      "Ġ$$Ě": 3426,
      "$%\"#$$&": 3427,
      "$#&\"$$'": 3428,
      "#$$$$#$%$$$$%": 3429,
      "%$$$$#$$$$$$$$": 3430,
      "$ĝĜ": 3431,
      "$&&&$$&": 3432,
      "$&&\"$$'": 3433,
      "$\"\"!$$#": 3434,
      "$\"\"'$$\"": 3435,
      "'$$$$!": 3436,
      "$$$$$$$$$$$$$$$$$$$$#": 3437,
      "$%$$$$%$#$$$$#": 3438,
      "$&\"#$$%": 3439,
      "$!#\"$$%": 3440,
      "$!#%$$&": 3441,
      "$%'#$$'": 3442,
      "$%''$$%": 3443,
      "ğ$$Ě": 3444,
      "$#!%$$$$": 3445,
      "$#!&$$!": 3446,
      "$%!&$$!": 3447,
      "$,Ğ": 3448,
      "$\"!'$$\"": 3449,
      "Ġ##$$%": 3450,
      "Ġ##$$#": 3451,
      "$$)$$$&": 3452,
      "Ġ%#$$%": 3453,
      "$'&#$$#": 3454,
      "$'&\"$$&": 3455,
      "$'\"#$$!": 3456,
      "$$$%$$##$$#": 3457,
      "$$$#$$##$$$$": 3458,
      "$\"'\"$$&": 3459,
      "Ġ&$$$%": 3460,
      "$$$'$": 3461,
      "$-!": 3462,
      "$''%$$&": 3463,
      "$!$$$$$$#": 3464,
      "$#$$$$$$$$%$$$$": 3465,
      "$!!%$$!": 3466,
      "&&%$$%": 3467,
      "$!'#$$&": 3468,
      "ĀĀ(Ā&": 3469,
      "ĀĀĞĀĞ": 3470,
      "$(\"%$$\"": 3471,
      "$#$#$$$$&": 3472,
      "$$$$$$$$%#": 3473,
      "$('\"$$&": 3474,
      "Ā*%": 3475,
      "Ā*'": 3476,
      "$$$$$$$$#%$$$%": 3477,
      "$%$#$$#$": 3478,
      "ĝ$$Ĝ": 3479,
      "$ĀĀ-": 3480,
      "\"$$)$": 3481,
      "Ĝ$$ĝ": 3482,
      "#$$$$###$$$$": 3483,
      "!$$($": 3484,
      "#$$$$%%%$$$$": 3485,
      "#$$$$%%#$$%": 3486,
      "#$$*$": 3487,
      "%$$$$#%#$$$$": 3488,
      "!$$$$#\"": 3489,
      "!%$$!": 3490,
      "\"&$$\"": 3491,
      "$Ĕ": 3492,
      "$ĀĀ%Ā": 3493,
      "%ğ": 3494,
      "%#$$#": 3495,
      "&$$$$$$$$": 3496,
      "&$$$%$": 3497,
      "'&$$$$": 3498,
      "''$$%": 3499,
      "(%$$%": 3500,
      ")Ğ": 3501,
      ")$$$$%": 3502,
      "+ğ": 3503,
      "+$$)": 3504,
      ".'": 3505,
      "Ę!": 3506,
      "ę$$!": 3507,
      "Ě$$!": 3508,
      "ě&": 3509,
      "Ġ\"$$'": 3510,
      "Ġ!$$&": 3511,
      "Ġ$(%": 3512,
      "Ġ$$$#$": 3513,
      "Ġ!$$$\"": 3514,
      "ĠĀĀ\"Ā": 3515,
      "Ġ$)#": 3516,
      "Ġ$'$$%": 3517,
      "$$$($$$$": 3518,
      "$%$$ğ": 3519,
      "$%%$$$!": 3520,
      "$#$$)": 3521,
      "$#\"$$$": 3522,
      "$##$$$'": 3523,
      "$$#$$$%$$%": 3524,
      "$$#&$$$$#": 3525,
      "$&Ě": 3526,
      "$&%$$&": 3527,
      "$&'$$$'": 3528,
      "$\"&$$": 3529,
      "$\"#$$\"": 3530,
      "$\"$\"$$&": 3531,
      "$\"#$$$!": 3532,
      "$\"$&$$\"": 3533,
      "$$&!$$'": 3534,
      "$$&$$$(": 3535,
      "$$$$$$$$#$$$$#": 3536,
      "#$$$$$$$#$$$$": 3537,
      "%$$$$$$%%$$$$": 3538,
      "%$$$$$$##$$$$": 3539,
      "%$$$$!#": 3540,
      "$$$#$$#$$$#": 3541,
      "$'Ě": 3542,
      "$'#$$&": 3543,
      "$$!!$$#": 3544,
      "$$$$#&": 3545,
      "$(#$$$#": 3546,
      "$(#$$$\"": 3547,
      "$($%$$\"": 3548,
      "%$$$*": 3549,
      "$##\"$$$$%": 3550,
      "$#%($$%": 3551,
      "\"$$Ę": 3552,
      "$ğ$": 3553,
      "$ğ$$!": 3554,
      "\"$$$$(": 3555,
      "'$$ę": 3556,
      "$$#$$$$$%#$$$$": 3557,
      "$*$$#": 3558,
      "Ġ$$/": 3559,
      "Ġ$$ę": 3560,
      "$\"#!$$#": 3561,
      "$\"#'$$\"": 3562,
      "$%\"#$$": 3563,
      "($$$!": 3564,
      "$\"%\"$$&": 3565,
      "$\"%#$$'": 3566,
      "$ĝ-": 3567,
      "$+,": 3568,
      "%$$$$%$%$$$$": 3569,
      "$\"\"\"$$\"": 3570,
      "!$$$$&%": 3571,
      "$$$%$$$$$#": 3572,
      "$$$#$$$$$$%$$$$$$$$": 3573,
      "$'%#$$\"": 3574,
      "#$$!$'": 3575,
      "$$#$$$#$##$$$$": 3576,
      "$&\"$$$%": 3577,
      "$$%$$$%$$#$$$$": 3578,
      "ğ$$-": 3579,
      "Ā\"\"": 3580,
      "$%!%$$": 3581,
      "$,$$$$": 3582,
      "ĀĀ#Ā%": 3583,
      "$#'!$$%": 3584,
      "Ġ\"#$$\"": 3585,
      "$&'&$$%": 3586,
      "$$$$%%#$$%": 3587,
      "\"##$$$$": 3588,
      "$\"''$$%": 3589,
      "$&!%$$!": 3590,
      "$ěĞ": 3591,
      "$%(%$$&": 3592,
      "$!$$$$$$%": 3593,
      "$(%%$$#": 3594,
      "$!!#$$#": 3595,
      "ĀĀğĀ%": 3596,
      "$(&#$$%": 3597,
      "$(#\"$$#": 3598,
      "$'!%$$\"": 3599,
      "$!'$$$%": 3600,
      "ĀĀ(Āĝ": 3601,
      "Ğ$$$Ğ": 3602,
      "ĀĀ)Ā!": 3603,
      "ĀĀ)Āĝ": 3604,
      "Ġğ$$$$": 3605,
      "Ġğ$$!": 3606,
      "Ā*\"": 3607,
      "$$$$$$$$##$$$#": 3608,
      "$.)": 3609,
      "%$$$$$$%$$%": 3610,
      "$#$$$$$$%$$$$%": 3611,
      "ğ$$#$": 3612,
      "%$$$$$$#$$#": 3613,
      "%$$$$$$#$$$$%": 3614,
      "$ĀĀ.": 3615,
      "$\"ğ%$$\"": 3616,
      "$#\"$$$$$": 3617,
      "#$$$$##%$$#": 3618,
      "Ā+%": 3619,
      "$\"$%$$%$": 3620,
      "$#$&$$'": 3621,
      "$$$$$$$$$$$$$$$$$$$$$$": 3622,
      "$ĀĀ$Ā": 3623,
      "%(": 3624,
      "%%$$#": 3625,
      "'%$$'": 3626,
      "($$$%": 3627,
      "*)": 3628,
      "+/": 3629,
      ",ğ": 3630,
      ",$$Ğ": 3631,
      "-/": 3632,
      "-$$%": 3633,
      "Ā$": 3634,
      "Ā/": 3635,
      "Ā$%": 3636,
      "ę\"": 3637,
      "ĚĜ": 3638,
      "ě'": 3639,
      "Ĝ$$Ğ": 3640,
      "ĝĞ": 3641,
      "ĠĠ": 3642,
      "Ġ$#$$$$": 3643,
      "Ġ&$$&": 3644,
      "Ġ#$$$\"": 3645,
      "Ġ$!&": 3646,
      "Ġ$$$$##": 3647,
      "ĠĞ$$": 3648,
      "ĠĀ*": 3649,
      "Ġ!$$ğ": 3650,
      "$%$&$$$$#": 3651,
      "$#Ě": 3652,
      "$##$$$$#": 3653,
      "$$#\"$$&": 3654,
      "$$#'$$$$": 3655,
      "$$#$$$#$$$$$$#": 3656,
      "$&!$$$$": 3657,
      "$&($$$$": 3658,
      "$\"$&$$$$#": 3659,
      "$\"$($$$$": 3660,
      "$\"$'$$&": 3661,
      "$$\"$$$$#": 3662,
      "$$\"'$$\"": 3663,
      "$$\"!$$\"": 3664,
      "$$\"$$$#$$%": 3665,
      "$$&%$$\"": 3666,
      "$$&\"$$#": 3667,
      "$$&$$$%$$%": 3668,
      "#$$$$$%#$$$$": 3669,
      "ĀĀđ": 3670,
      "$$$#$ğ": 3671,
      "$$$#$$%$$$$": 3672,
      "$'$\"$$&": 3673,
      "$!\"$$$&": 3674,
      "$$'%$$$$": 3675,
      "$$''$$%": 3676,
      "$(\"$$$\"": 3677,
      "$#$$$$#$$$$$$": 3678,
      "$##\"$$&": 3679,
      "$###$$'": 3680,
      "$##$$$%$": 3681,
      "$%%$$&": 3682,
      "$%%'$$#": 3683,
      "$%%%$$$$$$$$": 3684,
      "$%%#$$$$$#": 3685,
      "$#%$$$%$$%": 3686,
      "$#%($$#": 3687,
      "$#%'$$&": 3688,
      "$#%($$$$": 3689,
      "$%#%$$$$#": 3690,
      "$).": 3691,
      "$)ě": 3692,
      "$)$$": 3693,
      "$)ĀĀ": 3694,
      "\"$$$$$$": 3695,
      "\"$$$$$%": 3696,
      "&$$$$$$": 3697,
      "'$$$+": 3698,
      "$*-": 3699,
      "$Ğ-": 3700,
      "$%&$$$%$": 3701,
      "$#\"#$$&": 3702,
      "$&%'$$#": 3703,
      "Ġ$$ě": 3704,
      "$\"#%$$!": 3705,
      "$\"##$$!": 3706,
      "$\"#($$#": 3707,
      "$%\"\"$$%": 3708,
      "$&##$$&": 3709,
      "$&#&$$%": 3710,
      "$\"%\"$$$$": 3711,
      "$\"%%$$$$#": 3712,
      "$#&!$$&": 3713,
      "$#&'$$&": 3714,
      "$#&#$$(": 3715,
      "$$$\"$$!": 3716,
      "%$$$$%$": 3717,
      "$&&%$$'": 3718,
      "$&&$$$%$": 3719,
      "$\"\"&$$%": 3720,
      "$\"\"($$#": 3721,
      "'$$$$&#": 3722,
      "$$$%$$$$\"": 3723,
      "$$$$$$$$$$$$$$$$$$$$$$$$$$$$$": 3724,
      "$#$$$$%%$$$$": 3725,
      "$%$$$$%$%$$$$": 3726,
      "$&\"%$$$$": 3727,
      "$&\"%$$!": 3728,
      "$&\"!$$\"": 3729,
      "ğ$$/": 3730,
      "$#!#$$%": 3731,
      "$!%&$$#": 3732,
      "$!%#$$&": 3733,
      "Ġ\"\"$$#": 3734,
      "$\"!&$$\"": 3735,
      "Ā&!": 3736,
      "$!\"%$$$$": 3737,
      "$!\"&$$\"": 3738,
      "Ġ#&$$#": 3739,
      "Ġ%\"$$%": 3740,
      "$'&!$$%": 3741,
      "ĀĀ&Ā(": 3742,
      "$'\"&$$#": 3743,
      "$$$$%%%$$%": 3744,
      "%$$$&$": 3745,
      "$!&%$$'": 3746,
      "$&!\"$$#": 3747,
      "$$$$###$$$$": 3748,
      "Ġ&%$$&": 3749,
      "$$$$%##$$$$": 3750,
      "$$$$%##$$#": 3751,
      "$(%#$$%": 3752,
      "Ā)#": 3753,
      "Ā))": 3754,
      "$#(#$$&": 3755,
      "$#(\"$$&": 3756,
      "$#$%$$$$&": 3757,
      "$'$$$$!": 3758,
      "\"\"%$$$$": 3759,
      "$'!#$$#": 3760,
      "$'!%$$!": 3761,
      "$#$$$$$$##": 3762,
      "$#$$$$$$##$$$$": 3763,
      "#$$ğ$": 3764,
      "ĀĀĝĀĞ": 3765,
      "ĀĀĝĀĝ": 3766,
      "*$$ě": 3767,
      "Ġ$/": 3768,
      "%$$ğ$": 3769,
      "$('%$$%": 3770,
      "$\"(%$$&": 3771,
      "!$$!$": 3772,
      "&$$$$%&": 3773,
      "#$$$$$$#$$#": 3774,
      "'$$$&$": 3775,
      "ĀĀ*Ā#": 3776,
      "&'#$$%": 3777,
      "+$$$*": 3778,
      "$ĀĀ,": 3779,
      "$ĀĀę": 3780,
      "ĀĀĜĀğ": 3781,
      "%$$$$%%%$$$$": 3782,
      "$$$%$$$$$$$$$$$%": 3783,
      "$$$%$$$$$$$$$$$$%": 3784,
      "Ĝ$$Ĝ": 3785,
      "!\"$$$#": 3786,
      "$$#$$$$$$%$$$$$$$$$$$$": 3787,
      "$$$($$#": 3788,
      "%$$$$#%#$$%": 3789,
      "!$$)$": 3790,
      "$%$$$$$$$%$$$%": 3791,
      "!&$$\"": 3792,
      "!\"$$\"": 3793,
      "!\"$$!": 3794,
      "\"ě": 3795,
      "\"$(": 3796,
      "\"#$$%": 3797,
      "\"$$$#$": 3798,
      "#$%": 3799,
      "$ĀĀ#Ā": 3800,
      "+.": 3801,
      ",+": 3802,
      ",.": 3803,
      ".!": 3804,
      "Ę#": 3805,
      "Ę$": 3806,
      "ę!": 3807,
      "ę$$\"": 3808,
      "Ě\"": 3809,
      "Ě*": 3810,
      "Ě$$'": 3811,
      "ě$$!": 3812,
      "Ĝ(": 3813,
      "Ĝ$$*": 3814,
      "ĝ(": 3815,
      "Ġ&$$$&": 3816,
      "Ġ$!(": 3817,
      "Ġ$\"ğ": 3818,
      "Ġ$#)": 3819,
      "Ġ$)\"": 3820,
      "Ġ($$ğ": 3821,
      "$$$$$": 3822,
      "$%'$$": 3823,
      "$%$$+": 3824,
      "$#$!": 3825,
      "$#$%$$!": 3826,
      "$#($$$'": 3827,
      "$#$#$$": 3828,
      "$#'$$$(": 3829,
      "$#%$$$(": 3830,
      "$$#\"$$$$%": 3831,
      "$$%($$%": 3832,
      "$$%\"$$$$%": 3833,
      "$&%$$": 3834,
      "$&$$$%$": 3835,
      "$&%$$$$$$%": 3836,
      "$&$&$$\"": 3837,
      "$&&$$$\"": 3838,
      "$&#$$$": 3839,
      "$&$'$$\"": 3840,
      "$\"$'": 3841,
      "$$\"'$$!": 3842,
      "$$\"#$$\"$": 3843,
      "$$$$$$$$$#$$$#": 3844,
      "#$$$$&#": 3845,
      "#$$$$$$%%$$$$": 3846,
      "%$$$$$\"": 3847,
      "ĀĀ;": 3848,
      "ĀĀ<": 3849,
      "$$$%$!": 3850,
      "$'\"$$%": 3851,
      "$'($$$$": 3852,
      "$!$&": 3853,
      "$!$$$#": 3854,
      "$!$\"$$$$": 3855,
      "$!&$$$'": 3856,
      "$$!$$$": 3857,
      "$$'$$%": 3858,
      "$(Ě": 3859,
      "$($\"$$\"": 3860,
      "#$$$Ğ": 3861,
      "$%$$$$(": 3862,
      "$##$$$#$$%": 3863,
      "$##%$$$$$#": 3864,
      "$##$$$#$$$$$$#": 3865,
      "$##$$$$$$$$$$$": 3866,
      "$%%%$$!": 3867,
      "$%%\"$$$$#": 3868,
      "$#%#$$(": 3869,
      "$%#\"$$$$#": 3870,
      "\"$$$Ğ": 3871,
      "\"$$$ĝ": 3872,
      "\"$$$$&%": 3873,
      "!$$$(": 3874,
      "!$$$ĝ": 3875,
      "$$#$$$$$$#$$$#": 3876,
      "$$%$$$$$%#$$$$": 3877,
      "$%&!$$$$": 3878,
      "$%&'$$&": 3879,
      "$\"##$$$$#": 3880,
      "$\"#\"$$\"": 3881,
      "$%\"\"$$!": 3882,
      "$&#&$$$$": 3883,
      "$&#!$$%": 3884,
      "$#&$$$%$": 3885,
      "$#&&$$'": 3886,
      "$#&($$%": 3887,
      "$#&%$$%$": 3888,
      "$$$&$$'": 3889,
      "%$$$$#$%$$%": 3890,
      "#$$$$%'": 3891,
      "#$$$$%$#$$$$": 3892,
      "$ĝĚ": 3893,
      "$$(&$$%": 3894,
      "$&&&$$#": 3895,
      "$\"\"#$$&": 3896,
      "$\"\"!$$$$": 3897,
      "$\"\"$$$#$": 3898,
      "!$$$$\"%": 3899,
      "$$$#$$$$$$&": 3900,
      "$%$$$$#$%$$$$": 3901,
      "$#$$$$%$%$$$$": 3902,
      "$%%$$$$$#%$$$$": 3903,
      "$\"&\"$$'": 3904,
      "$#$$$$#%": 3905,
      "$#$$$$#$%$$$$%": 3906,
      "$$#$$$#$$%$$$$": 3907,
      "$!#%$$\"": 3908,
      "$!##$$\"": 3909,
      "$!#&$$\"": 3910,
      "$!#'$$#": 3911,
      "$!#'$$%": 3912,
      "$!#%$$'": 3913,
      "$#!%$$!": 3914,
      "Ā\"'": 3915,
      "$%!'$$#": 3916,
      "$%!!$$#": 3917,
      "$'#!$$#": 3918,
      "$,,": 3919,
      "$,.": 3920,
      "$ĜĜ": 3921,
      "$%#$$$$$%%$$$$": 3922,
      "$#''$$&": 3923,
      "Ā!&": 3924,
      "Ġ\"#$$%": 3925,
      "Ā&#": 3926,
      "Ā&)": 3927,
      "$!\"#$$\"": 3928,
      "$&'&$$&": 3929,
      "$&'#$$'": 3930,
      "Ā'!": 3931,
      "Ġ%%$$&": 3932,
      "$'&$$$#": 3933,
      "$&!&$$#": 3934,
      "Ġ!$$$#": 3935,
      "Ġ&#$$%": 3936,
      "$-,": 3937,
      "$''#$$&": 3938,
      "$(%$$$%": 3939,
      "$(%#$$&": 3940,
      "$!!&$$\"": 3941,
      "ĀĀğĀ'": 3942,
      "ĀĀğĀ*": 3943,
      "Ġ$$\"$": 3944,
      "Ā)!": 3945,
      "$'!#$$\"": 3946,
      "$!'%$$&": 3947,
      "$#$$$$$$#$$$$$$$$$$$$": 3948,
      "ĀĀĞĀ%": 3949,
      "ĀĀ)ĀĞ": 3950,
      "$\"(%$$%": 3951,
      "$\"$$$$%$": 3952,
      "$%$$$$$$%#": 3953,
      "$.#": 3954,
      "$.ğ": 3955,
      ")$$#$": 3956,
      "$#$$$$$$%$$$$#": 3957,
      "$#$$$$$$%#$$$#": 3958,
      "$%)%$$&": 3959,
      "ĀĀ*Āğ": 3960,
      "#$$$$$#$$$$$$$$$$$$": 3961,
      "ĀĀ\"Ā,": 3962,
      "Ĝ$$,": 3963,
      "$%&$$$$$": 3964,
      "\"$$ğ$": 3965,
      "$$%$$$$$$$$$$$$$$$$$$$$": 3966,
      "%$$*$": 3967,
      "Ġ$'Ğ": 3968,
      "ĀĀ-Ā\"": 3969,
      "'$$$$%\"": 3970,
      "$&$#$$#$": 3971,
      "$%$$$$\"$": 3972,
      "Ġ#$$ĝ": 3973,
      "$$$#$$$$##$$$$": 3974,
      ",$$$)": 3975,
      "%#%": 3976,
      "$%$$$$$$%$$$$$$": 3977,
      "#\"": 3978,
      "#&$$$$": 3979,
      "%'": 3980,
      "%&$$$$": 3981,
      "&%$$#": 3982,
      "'ĀĀ#Ā": 3983,
      "'ĀĀ%Ā": 3984,
      "(&$$&": 3985,
      ")$$$&": 3986,
      ")$$%$": 3987,
      ")ĀĀ%Ā": 3988,
      "*Ğ": 3989,
      "*$$$$#": 3990,
      "+ĝ": 3991,
      "+$$ğ": 3992,
      "-(": 3993,
      ".&": 3994,
      ".ğ": 3995,
      "Ā$\"": 3996,
      "ĘĞ": 3997,
      "Ěĝ": 3998,
      "ĚĞ": 3999,
      "Ě$$#": 4000,
      "ě*": 4001,
      "Ĝě": 4002,
      "Ġ$#&": 4003,
      "Ġ$ĝ": 4004,
      "Ġ%$$'": 4005,
      "Ġ$!!": 4006,
      "Ġ$&(": 4007,
      "Ġ$!ğ": 4008,
      "ĠĀĀ'Ā": 4009,
      "Ġ'$$Ğ": 4010,
      "$$)$$$'": 4011,
      "$%#$$#": 4012,
      "$%#$$%$": 4013,
      "$%!$$$": 4014,
      "$%$$$$$$$$$$$$$$$$$$": 4015,
      "$#'$$": 4016,
      "$$#&$$": 4017,
      "$$##$$!": 4018,
      "$$#&$$!": 4019,
      "$$%&$$\"": 4020,
      "$$%&$$$$%": 4021,
      "$$%%$$$$%%": 4022,
      "$&($$$&": 4023,
      "$&$#$$'": 4024,
      "$&$!$$&": 4025,
      "$\"$$ğ": 4026,
      "$\"%$$$$$": 4027,
      "$\"$\"$$\"": 4028,
      "$\"($$$&": 4029,
      "$$\"$$$": 4030,
      "$$\"($$#": 4031,
      "$$\"%$$#$": 4032,
      "$$&'$$$$": 4033,
      "$$&'$$#": 4034,
      "$$&&$$'": 4035,
      "#$$$$%$$#": 4036,
      "#$$$$$##$$$$": 4037,
      "#$$$$\"\"": 4038,
      "%$$$$!\"": 4039,
      "$$$#$$%$$$%": 4040,
      "$$$%$$#$$$#": 4041,
      "$$$%$$%$$$%": 4042,
      "$'%$$%": 4043,
      "$'&$$%": 4044,
      "$'$#$$&": 4045,
      "$'#$$$!": 4046,
      "$'$\"$$\"": 4047,
      "$!%$$\"": 4048,
      "$!\"$$#": 4049,
      "$!$%$$\"": 4050,
      "$!$%$$'": 4051,
      "$$!'$$#": 4052,
      "$$'&$$'": 4053,
      "$($\"$$#": 4054,
      "%$$($$": 4055,
      "#$$Ę": 4056,
      "#$$$(": 4057,
      "$#$$$$&%": 4058,
      "$%$$$$$%%$$$$": 4059,
      "$%$$$$$##$$$$": 4060,
      "$##$$$#$$#": 4061,
      "$%%&$$'": 4062,
      "$%%#$$$$##": 4063,
      "$#%!$$#": 4064,
      "$#%\"$$'": 4065,
      "$#%\"$$$$#": 4066,
      "$#%)$$$$": 4067,
      "$%#($$#": 4068,
      "$%#!$$\"": 4069,
      "$ğ$%$$%": 4070,
      "\"$$%$'": 4071,
      "'$$Ę": 4072,
      "&$$#$#%": 4073,
      "!$$$'": 4074,
      "$*$$%": 4075,
      "$ĞĚ": 4076,
      "$%&&$$#": 4077,
      "$%&\"$$#": 4078,
      "$%&&$$\"": 4079,
      "$%&'$$$$": 4080,
      "$%&#$$%$": 4081,
      "$#\"%$$&": 4082,
      "$#\"%$$$$%": 4083,
      "$&%!$$&": 4084,
      "Ġ$$Ę": 4085,
      "$%\"%$$&": 4086,
      "$%\"($$#": 4087,
      "$%\"!$$\"": 4088,
      "$%\"$$$#$": 4089,
      "$$$\"$$$$$$%": 4090,
      "#$$$$#%$$$$": 4091,
      "%$$$$#!": 4092,
      "%$$$$%'": 4093,
      "$$(%$$%": 4094,
      "$$(\"$$%": 4095
    },
    "merges": [
      "$ $",
      "$$ $$",
      "$ %",
      "$ #",
      "$$ #",
      "$$ %",
      "$ &",
      "$ \"",
      "$$ \"",
      "$$ &",
      "$$$$ $$$$",
      "# $$$$",
      "% $$$$",
      "Ā Ā",
      "$$ $#",
      "$$ $%",
      "$ '",
      "$ !",
      "$$ !",
      "$$ '",
      "$$$$ %",
      "$$$$ #",
      "$ (",
      "% $$#",
      "# $$%",
      "% $$",
      "# $$#",
      "% $$%",
      "# $$",
      "$# $$$$",
      "$% $$$$",
      "$# #",
      "$% %",
      "$# %",
      "$% #",
      "$ )",
      "\" $$",
      "$ ğ",
      "& $$",
      "\" $$$$",
      "& $$$$",
      "\" $$%",
      "' $$",
      "& $$#",
      "! $$",
      "$$# $$$$",
      "% $$\"",
      "# $$&",
      "$$% $$$$",
      "$ *",
      "\" $$#",
      "& $$%",
      "$ Ğ",
      "$$$$$$$$ $$$$",
      "% $$&",
      "# $$\"",
      "$% &",
      "$# \"",
      "$& %",
      "Ġ $$",
      "$\" #",
      "$% \"",
      "$& #",
      "( $$",
      "$\" %",
      "$# &",
      "$$ $&",
      "$$ $\"",
      "#$$$$ #",
      "%$$$$ #",
      "#$$$$ %",
      "$ ĝ",
      "$ +",
      "\" $$&",
      "%$$$$ %",
      "$$ (",
      "$% $$#",
      "$& &",
      "& $$\"",
      "$% $$%",
      "$\" \"",
      "$# $$%",
      "$# $$#",
      "! $$$$",
      "$\" $$$$",
      "' $$$$",
      "$$$% $$$$",
      "$$$# $$$$",
      "$& $$$$",
      "\" $$\"",
      "$$$$$$$$ $$$$$$$$",
      "! $$%",
      "& $$&",
      "' $$#",
      "$$ $",
      "% $$!",
      "$% $$$$#",
      "$# $$$$%",
      "# $$'",
      "! $$#",
      "' $$%",
      "$% %$$$$",
      "$\" &",
      "$% $$$$%",
      "$# #$$$$",
      "$' %",
      "# $$!",
      "$# $$$$#",
      "$$# $$$#",
      "$& \"",
      "$! #",
      "$$% $$$%",
      "% $$'",
      "$% '",
      "ğ $$",
      ") $$",
      "$# !",
      "Ā %",
      "Ā \"",
      "Ā #",
      "$% !",
      "$' #",
      "$! %",
      "ĀĀ $",
      "$ ,",
      "ĀĀ %",
      "Ġ $$$$",
      "$ Ĝ",
      "ĀĀ \"",
      "ĀĀ #",
      "$% #$$$$",
      "$# '",
      "$# %$$$$",
      "Ā !",
      "\" $$'",
      "& %",
      "Ġ \"",
      "$\" !",
      "' $$\"",
      "# $$$#",
      "! $$&",
      "$$ ğ",
      "Ā &",
      "Ġ $$#",
      "& $$!",
      "$! \"",
      "$& '",
      "Ā '",
      "Ġ #",
      "$$ )",
      "$$$% $$%",
      "Ġ %",
      "$' &",
      "ĀĀ !",
      "Ġ $$%",
      "( $$#",
      "ĀĀ &",
      "$' \"",
      "! $$\"",
      "$$$$% %",
      "$$$% $",
      "#$$ $\"",
      "$$$% $$#",
      "%$$ $&",
      "' $$&",
      "\" #",
      "& $$'",
      "Ā ğ",
      "$$$# $$#",
      "$$$# $$%",
      "( $$$$",
      "( $$%",
      "$\" '",
      "$$$$# %",
      "\" %",
      "$! &",
      "Ā (",
      "$& !",
      "$ ě",
      "$$$$# #",
      "$\" $$%",
      "$& $$#",
      "Ġ !",
      "$%# $$$#",
      "ĀĀ '",
      "Ġ &",
      "\" $$!",
      "$$ $'",
      "$ -",
      "#$$ (",
      "& #",
      "$$ Ğ",
      "$\" $$#",
      "$& $$%",
      "$' '",
      "$## $$$#",
      "%$$ (",
      "$% (",
      "$! $$$$",
      "$$$$% #",
      "Ā Ğ",
      "$# $$$$$$$$",
      "$( %",
      "$! !",
      "$% $$$$$$$$",
      "Ġ $$&",
      "Ġ '",
      "ĀĀ ğ",
      "Ġ $$\"",
      "$$ *",
      "$$ $!",
      "$#% $$$%",
      "& &",
      "\"$$ $\"",
      "Ā )",
      "$%% $$$%",
      "&$$ $&",
      "$# (",
      "! $$'",
      "$& (",
      "$% $#$$$$",
      "$( &",
      "$# $%$$$$",
      "$' $$$$",
      "$$\" $$$$",
      "\" \"",
      "\"$$ (",
      "$( #",
      "Ġ (",
      "$$# %$$#",
      "$$$# $",
      "$' !",
      "$$% %$$$$",
      "$! '",
      "ĀĀ (",
      "$$% #$$%",
      "Ğ $$",
      "$#$$$$ $$#",
      "ĀĀ Ğ",
      "$$& $$$$",
      "$$% %$$%",
      "' $$!",
      "' $$'",
      "# $$$$$$$$",
      "$% $%$$$$",
      "ĀĀ )",
      "$%% #$$%",
      "Ā ĝ",
      "#$$ ğ",
      "\" &",
      "ĀĀ ĝ",
      "( $$\"",
      "* $$",
      "$% $$&",
      "$( \"",
      "% $$$%",
      "Ġ $",
      "Ġ ğ",
      "%$$ ğ",
      "$# $$\"",
      "$$# #$$$$",
      "\" $$$$%",
      "Ġ $$'",
      "$# $#$$$$",
      "$$$$$$$$ %",
      "#$$ )",
      "&$$ (",
      "$( '",
      "Ā *",
      "$# $%$$%",
      "$\" (",
      "%$$# $",
      "! $$!",
      "$$# #$$#",
      "$$% $",
      "%$$ )",
      "$& $$$$#",
      "$' (",
      "\" $$$$#",
      "$$$$$$$$ #",
      "% $$$$$$$$",
      "( $$&",
      "$\" $$$$%",
      "$%# #$$#",
      "& $$$$#",
      "$## %$$#",
      "& $$$$%",
      "#$$% $",
      "$%$$$$ $$%",
      "#$$$$ $$#",
      "$% $#$$#",
      "$# $$&",
      "$ .",
      "$ Ě",
      "%$$$$ $$%",
      "& \"",
      "ĝ $$",
      "$% $$\"",
      "$#% %$$%",
      ") $$#",
      "$# $%$$#",
      "#$$$$ $$%",
      "$#$$$$ $$%",
      "$% )",
      "$$$$ $$#",
      "!$$ $\"",
      "Ġ $$!",
      "ĀĀ# Ā",
      "! #",
      "$# $#$$%",
      "$% $%$$#",
      "' %",
      "ğ $$#",
      "Ġ )",
      "$& %$$$$",
      "#$$$$ $%",
      "'$$ $&",
      "ĀĀ *",
      "#$$$$ $#",
      "$% ğ",
      "$%$$$$ $$#",
      "$%# %$$#",
      ") $$%",
      "$#% #$$%",
      "ĀĀ\" Ā",
      "& '",
      "%$$$$ $$#",
      "ĀĀ% Ā",
      "$% $#$$%",
      "+ $$",
      "$& $$$$%",
      "$\" $$$$#",
      "Ġ Ğ",
      "$$$$ $$%",
      "$$\" $$$#",
      "%$$$$ $#",
      "! %",
      "$ ĀĀ",
      "$! (",
      "$# ğ",
      "$& )",
      "$\" ğ",
      "ğ $$%",
      "\"$$ )",
      ") $$$$",
      "$## #$$#",
      "ĀĀ$ Ā",
      "$) %",
      "$) &",
      "' #",
      "Ġ $&",
      "$( !",
      "%$$$$# #",
      "$) #",
      "$ğ \"",
      "$# )",
      "ĀĀ +",
      "$ğ %",
      "$$& $$$%",
      "ĀĀ Ĝ",
      "\" !",
      "%$$$$ $%",
      "$#$$$$ $$",
      "' &",
      "%$$$$% %",
      "$ğ #",
      "$# \"$$$$",
      "$$$% $$$$$$$$",
      "ğ $$&",
      "$' $$#",
      "%$$% $",
      "$% $%$$%",
      "#$$$$ $",
      "#$$$$ &",
      "$( (",
      "ĀĀ! Ā",
      "ğ $$$$",
      "Ĝ $$",
      "%$$$$ &",
      "$% &$$$$",
      "#$$ $&",
      "'$$ (",
      "%$$ Ğ",
      "\"$$ ğ",
      "$! $$%",
      "%$$$$ $",
      "$! $$#",
      "( $$!",
      "$$$# $$$$$$$$",
      "#$$$$# #",
      "&$$ ğ",
      "$# $#$$#",
      "$%$$$$ $$",
      "$' $$%",
      "ĀĀ& Ā",
      "! \"",
      "!$$ (",
      "#$$$$ \"",
      "$$%$$$$ $$#",
      "$' )",
      "#$$$$% %",
      "( $$'",
      "$! ğ",
      "$# $$$$$$$$$$$$",
      "%$$ $\"",
      "#$$ Ğ",
      "$) \"",
      "Ġ *",
      "&$$ )",
      "ĀĀ ,",
      "%$$$$ \"",
      "$ ę",
      "$) '",
      "$ğ &",
      "$$#$$$$ $$#",
      "Ġ $%",
      "\"$$ $!",
      "$%& $$$%",
      "$#\" $$$#",
      "$\" )",
      "$$#$$$$ $",
      "Ġ$$ $\"",
      "$$% $$$$$$$$",
      "$\" #$$$$",
      "$$ +",
      "$$ ĝ",
      "$$\" %$$#",
      "#$$# $",
      "$%\" $$$#",
      "%$$ *",
      "$%% %$$%",
      "$## %$$$$",
      "$%% $$$#",
      ") $$\"",
      "$& ğ",
      ") $$&",
      "&$$ $'",
      "Ā +",
      "#$$ *",
      "#$$$$# %",
      "( %",
      "Ġ $#",
      "ĀĀ /",
      "%$$ $'",
      "Ġ %$$\"",
      "$\" $$&",
      "#$$ $!",
      "$$$$$$$$$$$$$$$$ $$$$$$$$",
      "$% $$$$$$$$$$$$",
      "$$& #$$%",
      "ĀĀ ě",
      "\" $$$#",
      "$% *",
      "$& $$\"",
      "ĀĀ .",
      "$ /",
      "Ġ $'",
      "$( $$$$",
      "Ġ$$ (",
      "$$%$$$$ $",
      "Ġ %$$#",
      "Ġ $$$#",
      "ĀĀ -",
      "ğ $$\"",
      "$\" $$\"",
      "$ğ !",
      "$$% $$$&",
      "$$# $",
      "%$$$$% #",
      "$# Ğ",
      "$## $$$%",
      "! &",
      "' $$$$%",
      "Ġ Ā",
      "Ġ %$$",
      "'$$ ğ",
      "$% Ğ",
      "$& $$&",
      "#$$$$% #",
      "! $$$$%",
      "$% $$$%",
      "$$#$$$$ $$%",
      "' (",
      "$%% #$$$$",
      "$# $$$#",
      "' '",
      "Ġ ĝ",
      "$ğ '",
      "'$$ $'",
      "$#& $$$%",
      "Ġ #$$\"",
      "$$ $(",
      "$$# $$$%",
      "$&# $$$#",
      "#$$$$ $$",
      "$( )",
      "($$ $&",
      "$' *",
      "%$$$$# %",
      "! !",
      "$\" $%$$%",
      "\"$$ *",
      "!$$ $!",
      "$$$\" $$$$",
      "ĀĀ Ě",
      "' \"",
      "!$$ )",
      "Ġ #$$#",
      "$# *",
      "$# &$$$$",
      "$& *",
      "ĀĀ' Ā",
      "& $$$%",
      "$\" Ğ",
      "$%# #$$$$",
      "$\"% $$$%",
      "$) !",
      "$%& #$$%",
      "$$# %$$$$",
      "%$$$$ $$",
      "$$%$$$$ $$%",
      "$#$$$$ &",
      "$%$$$$ &",
      "$%% \"$$%",
      "$! )",
      "$\" %$$$$",
      "ĀĀ ę",
      "ğ $$'",
      "$* %",
      "$$ Ĝ",
      "$$# $$$\"",
      "$' ğ",
      "&$$ Ğ",
      "$#% %$$$$",
      "$Ğ #",
      "( &",
      "&$$$$ \"",
      "' $$$$#",
      "( #",
      "Ġ $\"",
      "Ġ +",
      "ĀĀğ Ā",
      "$& $#$$#",
      "$&% $$$%",
      "$% \"$$$$",
      "$\" $%$$$$",
      "$$& %$$%",
      "$$\" #$$#",
      "$## #$$$$",
      "$$ ,",
      "$%% %$$$$",
      "$#\" %$$#",
      "$\"# $$$#",
      "($$ (",
      "Ġ %$$!",
      "$* &",
      "! '",
      "$! Ğ",
      "! $$$$#",
      "$% $#$$$$#",
      "* $$#",
      "$# $$!",
      "$$% $$#",
      "$\"% %$$%",
      "$% $",
      "$$\" $$$\"",
      "$&% #$$%",
      "$# $&$$$$",
      "$$% #$$$$",
      "$* #",
      "$Ğ %",
      ") $$!",
      "$# %$$$&",
      "Ġ$$ $!",
      "& #$$%",
      "Ġ \"$$",
      "$\" *",
      "$$$#$$$$ $$#",
      "& (",
      "$# $%$$$$%",
      "$$% $$$#",
      "$& Ğ",
      "$& $#$$$$",
      "$%$$$$ \"",
      "$$$& $$$$",
      "# #",
      "Ğ $$#",
      "$% #$$$\"",
      "\"$$# $",
      "Ġ #$$",
      "Ġ &$$\"",
      "$%% #$$#",
      "&$$ *",
      "ĀĀ) Ā",
      "ě $$",
      "$% $$'",
      "$% $\"$$$$",
      "\"$$% $",
      "'$$ )",
      "Ġ $(",
      "$% #$$%",
      "$# $$'",
      "$) (",
      "$ Ę",
      "$#% #$$$$",
      "\"$$ +",
      "Ġ$$ )",
      "$$$& $$#",
      "Ğ $$%",
      "$$$# $$$$#",
      "#$$ +",
      "$#\" #$$#",
      "Ġ$$ ğ",
      "* $$$$",
      "$$% %$$#",
      "$$$$$$$$ $#",
      "$$$%$$$$ $$#",
      "Ġ $!",
      "$& #$$$$",
      "&$$% $",
      "$&# #$$#",
      "$#& #$$%",
      "* $$%",
      "$#$$$$ \"",
      "( '",
      "Ā ,",
      "ğ %",
      "Ġ &$$#",
      "%$$ ĝ",
      "$##$$$$ $",
      "\" %$$#",
      "Ğ $$$$",
      "$## #$$%",
      "& )",
      ", $$",
      "Ğ $$&",
      "$$# #$$%",
      "$\"# %$$#",
      "$$& $$$&",
      "%$$ +",
      "$% $$!",
      "$$$$$$$$ $$#",
      "$$$% $$$$%",
      "$#% $$$#",
      "$## &$$#",
      "'$$ Ğ",
      "# %$$#",
      "% #",
      "ğ #",
      "$% $#$$$$%",
      "$$$# $$$$%",
      "$%%$$$$ $",
      "$% +",
      "$& &$$$$",
      "$$$$$$$$$$$$ $",
      "($$ ğ",
      "\" '",
      "$# $%$$$$#",
      "\"$$ Ğ",
      "&$$ $\"",
      "Ġ \"$$\"",
      "!$$ ğ",
      "$$%$$$% $",
      "% %",
      "* $$\"",
      "$* '",
      "$%\" %$$#",
      "$%\" #$$#",
      "\" #$$#",
      "ğ $$!",
      "Ġ #$$!",
      "$% %$$$&",
      "$$$%$$$$ $$%",
      "Ġ $$$$#",
      "$% $\"$$#",
      "$$# &$$#",
      "$! $$$$%",
      "$%# %$$$$",
      "$%# $$$%",
      "$%# \"$$#",
      ") $$'",
      "'$$ *",
      "#$$\" $",
      "$$$#$$$$ $$%",
      "\"$$$$ \"",
      "$Ğ !",
      "%$$& $",
      "ĀĀ( Ā",
      "$## %$$%",
      "($$ $'",
      "$$#$$$# $",
      "%$$\" $",
      "% #$$%",
      "\"$$$$ &",
      "#$$& $",
      "ĀĀĞ Ā",
      "$$$% $$\"",
      "$%& %$$%",
      "$# %$$#",
      "$\" $%$$#",
      "% %$$%",
      "$% $%$$$$%",
      "$# #$$$\"",
      "$$$# $$\"",
      "$#& %$$%",
      "$$$\" $$%",
      "! (",
      "Ġ $$$$%",
      "Ġ $)",
      "$\" $#$$%",
      "$( ğ",
      "!$$ $",
      "$Ğ \"",
      ") #",
      "Ě $$",
      "&$$ +",
      "!$$ *",
      "($$ )",
      "$\"% #$$%",
      "ĀĀĝ Ā",
      "ğ !",
      "$$$% $$$$#",
      "$%# #$$%",
      "$Ğ &",
      "$&# %$$#",
      "* $$&",
      "$$% \"$$%",
      "* ĀĀ",
      "$& $#$$%",
      "$' $$$$#",
      "$#$$$$ $",
      "Ġ Ĝ",
      "#$$ ĝ",
      "\"$$ ĝ",
      "\" ĀĀ",
      "Ğ $$\"",
      "Ġ ĀĀ",
      "$# $#$$$$#",
      "$' Ğ",
      "$! $$&",
      "$%$$$$ $",
      "\"$$ $&",
      "&$$# $",
      "$* (",
      "$$$# $$&",
      "$#% &$$%",
      "$* !",
      "& %$$%",
      "$# ĝ",
      "$\" $#$$$$",
      "$\" \"$$$$",
      "#$$$$ '",
      "$%% %$$#",
      "Ġ ,",
      "$% $&$$#",
      "$\" ĝ",
      "$$$$$$$$ $$$%",
      "$&& #$$%",
      "$% %$$%",
      "+ ĀĀ",
      "Ġ \"$$#",
      "$% $\"$$%",
      "$$% &$$%",
      "$' $$&",
      "$( *",
      "$) )",
      "$ğ (",
      "$ğ ğ",
      "$* \"",
      "$Ğ '",
      "$$$$$$$$ $$%",
      "$$$$$$$$ $$$$#",
      "# #$$$$",
      "ĝ $$%",
      "$! $$$$#",
      "# #$$#",
      "$# +",
      "$# $&$$#",
      "$%$$$$ $$$%",
      "&$$ ĝ",
      "\" (",
      ") %",
      "ğ $$(",
      "$$$$$$$$$$$$$$$$ $$",
      "Ğ %",
      "$# #$$#",
      "$$% #$$#",
      "%$$$$ $$#$$$$",
      "#$$ $",
      "$) $$$$",
      "&$$ $(",
      "& ĀĀ",
      ") $$(",
      "$# $&$$%",
      "$$$$$$$$ $%",
      "$$$$$$$$ $$$#",
      "&$$$$ &",
      ") ĀĀ",
      "Ġ !$$",
      "$# $$",
      "$# $#$$$$%",
      "$ğ )",
      "$$$\" $$#",
      "$% ĝ",
      "$& $%$$#",
      "$$& #$$&",
      "$#$$$$ $$$#",
      "$#% %$$#",
      "$&% %$$%",
      "$ĝ \"",
      "ğ$$ $!",
      ")$$ $'",
      "$$% #$$&",
      "%$$ $!",
      "$&% $$$#",
      "$# $",
      "$$# #$$\"",
      "$%# %$$\"",
      "$ğ $$$$",
      "$\"# $$$%",
      "$$# \"$$#",
      "$$$$$$$$ $$$$%",
      "$! *",
      "#$$ ,",
      "$%$$$$ $$$#",
      "$\"\" %$$#",
      "% #$$$$",
      "& %$$$$",
      "' *",
      "( (",
      "ĝ $$#",
      "$% $%$$$$#",
      "$$$$$$$$ $$$",
      "$$$% $$&",
      "$#% \"$$%",
      "$#% %$$&",
      "$%# &$$#",
      "($$ $(",
      "$& ĝ",
      "\"$$ $",
      "$% &$$$&",
      "$! $$\"",
      "$#$$$$ $$%$$$$",
      "Ġ &$$!",
      "$& $%$$$$",
      "$## %$$\"",
      "\"$$ ,",
      "$&% #$$$$",
      "Ġ$$ $",
      "\" $$$$%%",
      "' )",
      "Ġ '$$\"",
      "#$$ $'",
      "$#% #$$&",
      "'$$ ĝ",
      "Ġ$$ Ğ",
      "Ġ\" $$!",
      "$# $&",
      "$# \"$$$\"",
      "$\" +",
      "$%# #$$\"",
      "$ĝ #",
      "$\"\" $$$#",
      "$\"$$$$ $$#",
      "ĀĀ* Ā",
      "' !",
      "( ĀĀ",
      "$$# \"$$$$",
      "$$$$$$$$ $$$$$$$$$$$$",
      "$#% &$$$$",
      "# $$$$$$$$$$$$",
      "- $$",
      "$$# %$$\"",
      "$$% %$$&",
      "$& $$$%",
      "$& #$$$\"",
      "#$$$$ $$#$$$$",
      "$%% #$$&",
      "$%# %$$%",
      "$\"# %$$$$",
      "($$ Ğ",
      "$&$$$$ \"",
      "#$$$# $",
      "& $$$$%%",
      "' ĀĀ",
      "+ $$&",
      "$$# %$$%",
      "$$$% $\"",
      "$( +",
      "$( Ğ",
      "%$$ Ĝ",
      "$%# \"$$$$",
      "'$$ $(",
      "!$$ Ğ",
      "Ā\" #",
      "\" $$$$##",
      "$%$$$$ $$%$$$$",
      "$\"# #$$#",
      "$+ '",
      "\" )",
      "& !",
      "* #",
      "+ $$#",
      "$# $\"$$%",
      "$' +",
      "$' $$\"",
      "&$$ ,",
      "$\"$$$$ $$%",
      "\" $$$$#%",
      "ĝ $$$$",
      "$$ ě",
      "$% $#$$\"",
      "$$! $$$$",
      "$) ğ",
      "$&\" $$$#",
      "\" $$$$%#",
      "Ġ !$$#",
      "$% $\"",
      "$! ĝ",
      "$( $$#",
      "$#$$$$ $$$%",
      "$#\" &$$#",
      "$\"& %$$%",
      "$%' $$$%",
      "Ā% #",
      "Ġ &$$",
      "$( $$%",
      "Ĝ #",
      "Ġ #$$$$",
      "Ġ '$$#",
      "$$# $$#",
      "$$% &$$$$",
      "%$$$$ $$%$$$$",
      "!$$ +",
      "$&% \"$$%",
      "$%\" %$$\"",
      "! *",
      "$ ė",
      "+ $$\"",
      "$# &$$$&",
      "$& \"$$$$",
      "$' $$$$%",
      "%$$ ,",
      "$#$$$$ $$&",
      "Ġ$$ +",
      ")$$ ğ",
      "ĀĀ$ Ā#",
      "Ğ #",
      "Ġ ě",
      "$& +",
      "$$' $$$$",
      "$&& $$$%",
      "$%#$$$$ $",
      "! ĀĀ",
      "% $$$$$$$$$$$$",
      "* $$'",
      "Ğ $$!",
      "$$ -",
      "$$ $)",
      "$# $%$$&",
      "$& $",
      "$& $\"$$#",
      "#$$$$ $$%$$$$",
      "#$$ Ĝ",
      "$ğ Ğ",
      "$+ %",
      "& $$$$%#",
      "( $$$$%",
      "$%& \"$$%",
      "$#\" %$$\"",
      "\"$$& $",
      "$$$$$$$$$$$$$$$$ $$$",
      "# %$$$$",
      "+ $$$$",
      "Ğ $$'",
      "$% $&$$$$",
      "$%$$$$ $$\"",
      "\"$$ Ĝ",
      "$* ğ",
      "$%& #$$&",
      "$+ \"",
      "$&\" %$$#",
      "ğ$$ Ğ",
      "$#! %$$#",
      "ĀĀ% Ā#",
      ") \"",
      "Ā -",
      "$$ $ğ",
      "$& $%$$%",
      "$\" $$$#",
      "$\" %$$#",
      "$%$$$$ $$&",
      "$) *",
      "$Ğ (",
      "$&# \"$$#",
      "$+ !",
      "$+ &",
      "$\"$$$$ \"",
      "& $$$$##",
      "ğ \"",
      "$$# $$%",
      "$$\" %$$\"",
      "%$$ ě",
      "$#$$$$ $$#$$$$",
      "$%$$$$ $$#$$$$",
      "$* )",
      "Ġ$$ *",
      "$$$& $$%",
      "$ĝ !",
      "&$$\" $",
      "#$$' $",
      "$\"& $$$%",
      "ĀĀ% Ā\"",
      "$#%$$$$ $",
      ", ĀĀ",
      "ĝ %",
      "Ġ -",
      "$% \"$$$\"",
      "$\" %$$$&",
      "$#$$$$ $$\"",
      "$## \"$$#",
      "#$$$$% &",
      "$+ #",
      "$\"$$$$ &",
      ")$$ $(",
      "! )",
      ") '",
      "ĝ $$&",
      "$$& %$$&",
      "%$$ $(",
      "$%% &$$%",
      "$&% #$$#",
      "$%\" #$$\"",
      "$\"% %$$&",
      "$ĝ %",
      "ğ$$ )",
      "ĀĀě Ā",
      "& *",
      "( $$$$#",
      "+ $$%",
      "Ġ \"$$$$",
      "$%% &$$$$",
      "$#% $$$%$",
      "ĀĀ\" Ā#",
      "ĀĀ& Ā!",
      "$##$$$# $",
      "$& #$$%",
      "$$\" $$%",
      "$%% \"$$$$",
      "'$$ +",
      "$Ğ ğ",
      "$\"# &$$#",
      "$#& %$$&",
      "$\"\" #$$#",
      "ğ$$ ğ",
      "ĀĀ\" Ā\"",
      "$## \"$$$$",
      "$## &$$$$",
      "($$ ĝ",
      "$ĝ &",
      "!$$# $",
      "Ā% %",
      "ĀĀ\" Ā!",
      "$\" $&$$$$",
      "$$\" #$$\"",
      "$$$$$$$$ #$$$$",
      "$' ĝ",
      "($$ +",
      "%$$$$# \"",
      "ĀĀ# Ā!",
      "ĀĀĜ Ā",
      "* $$!",
      "$$$$ $$\"",
      "$# $\"",
      "#$$ -",
      "$%% %$$&",
      "&$$ Ĝ",
      "( )",
      "ĝ #",
      "Ġ '$$",
      "Ġ !$$\"",
      "$# $\"$$$$",
      "$\" $#$$#",
      "$## #$$\"",
      "($$ *",
      "$&$$$$ $$%",
      "ĀĀ# Ā#",
      "$%#$$$# $",
      "! ğ",
      "$% '$$$$",
      "$$# &$$$$",
      "$$% $$%",
      "$$\" #$$$$",
      "$+ )",
      "ĀĀ% Ā!",
      "ĀĀ# Ā\"",
      "ğ Ğ",
      "$$& \"$$%",
      "$$' $$$%",
      "$&% %$$$$",
      "$\"# %$$%",
      "$%\" &$$#",
      "$#! $$$#",
      "! $$$#",
      "! %$$#",
      "ĝ $$\"",
      "$$$$$$$$ %$$$$",
      "$' %$$$$",
      "$#% #$$#",
      "$ğ *",
      "$%& #$$$$",
      "$\"# #$$$$",
      "$#& &$$%",
      "&$$& $",
      "Ā% &",
      "ĀĀ$ Ā'",
      "\" *",
      "% %$$$$",
      "& $$$$#%",
      "( !",
      ") &",
      "+ $$'",
      "ğ ğ",
      "Ġ %$$$$",
      "$% ,",
      "$% $#$$&",
      "$\" $&$$#",
      "#$$ ě",
      "$## '$$#",
      "$#\" %$$$$",
      "$\"% %$$$$",
      "$%$$$$# $",
      "ĀĀ$ Ā!",
      "\" #$$$$",
      "$# ,",
      "$# $\"$$#",
      "$# $#$$&",
      "$# $%$$\"",
      "$\" &$$$&",
      "$$\" &$$#",
      "$$! %$$#",
      "$$! $$$\"",
      "$#% &$$#",
      "$%# \"$$%",
      "$#& #$$&",
      "$\"\" &$$#",
      "'$$% $",
      "$&\" #$$#",
      "Ġ' $$!",
      "ĀĀ+ Ā",
      "ĀĀ/ Ā",
      "% ĀĀ",
      "' #$$%",
      "Ġ $*",
      "$% $$",
      "$% $$$$$$$$$$$$$$$$",
      "$$% \"$$$$",
      "$& $$'",
      "$$& %$$$$",
      "$' $#$$#",
      "$! +",
      "$! $%$$%",
      "#$$$$# &",
      ")$$ )",
      "Ā% !",
      "$'# #$$#",
      "ĀĀ$ Ā&",
      "$\"! %$$#",
      ", $$#",
      "Ğ ğ",
      "$% $&$$%",
      "$# Ĝ",
      "$# !$$$$",
      "$$' #$$%",
      "%$$ -",
      "$%% $$$%$",
      "$&% \"$$$$",
      "$\"% \"$$%",
      "%$$$$% %$$$$",
      "$&& %$$%",
      "'$$$$ &",
      "ğ$$ *",
      ")$$ *",
      ")$$ Ğ",
      "ĀĀ% Ā&",
      "ĀĀ% Āğ",
      "( *",
      "Ĝ $$%",
      "$$\" \"$$#",
      "$$& $",
      "$! \"$$$$",
      "$%% \"$$&",
      "#$$$$% %$$$$",
      "Ā% \"",
      "Ā' %",
      "\" +",
      "# %",
      "' ,",
      "$% Ĝ",
      "$& $$!",
      "Ġ$$ ĝ",
      "$%\" \"$$#",
      "$&$$$$ $$#",
      "!$$% $",
      "$$% $$$$$$$$$$$$",
      "$& \"$$$\"",
      "$\" $&$$%",
      "$$! $$$#",
      "$$! #$$#",
      "%$$ .",
      "$%% #$$$$#",
      "$* *",
      "$\"% $$$#",
      "%$$$$# #$$$$",
      "$&$$$$ &",
      "$#$$$$% $",
      "$%$$$$$$$$ $$$",
      "\" %$$$$",
      "$# $#",
      "$& $\"",
      "$& $\"$$%",
      "$\" #$$#",
      "$$' $$$&",
      "$%% !$$%",
      "$ğ ĝ",
      "$&% %$$#",
      "Ġ$$ ,",
      "$&# #$$$$",
      "%$$$$% &",
      "$&& #$$&",
      "$$$ ,",
      "$\"& #$$%",
      "$'% #$$%",
      "Ā% '",
      "ĀĀ$ ĀĞ",
      "ĀĀ! Ā\"",
      "ĀĀ! Ā!",
      "$$$' $$$$",
      "\" ğ",
      "( +",
      "Ġ !$$$$",
      "$% $%$$&",
      "$% $%$$\"",
      "$$# $$$&",
      "$\" ,",
      "$) +",
      "!$$ ĝ",
      "$&# %$$\"",
      "$&# #$$\"",
      "$\"% &$$%",
      "ĀĀ! Ā#",
      "ĀĀ, Ā",
      "! Ğ",
      "\" \"$$$$",
      "\" &$$#",
      "Ġ .",
      "Ġ $%#",
      "$& ,",
      "$\" #$$$\"",
      "ĀĀ Ę",
      "$! $$'",
      "$( ĝ",
      "$( $$\"",
      "($$ $)",
      "$%' #$$%",
      "ĀĀ# Ā&",
      "$&' $$$%",
      "$#$$$$$$$$ $$$%",
      "#$$$$$$$$ $$$",
      "ĀĀ. Ā",
      "ĀĀĚ Ā",
      "\" Ğ",
      "& ,",
      "+ %",
      "$$$$ $$&",
      "$& $\"$$$$",
      "$$' %$$%",
      "#$$ .",
      "'$$ $\"",
      "$$%$$$$ $$#$$$$",
      "$%& \"$$&",
      "Ġ$$ Ĝ",
      "$'# $$$#",
      "ĀĀ$ Ā\"",
      "ĀĀ$ Āğ",
      "' $$$%",
      "$% $$(",
      "$$# $$$$$$$$$$$$",
      "$$% #$$$$#",
      "$& $$",
      "ĀĀ ė",
      "$' $%$$#",
      "$## #$$$$#",
      "$#\" #$$$$",
      "$&# #$$%",
      "$+ (",
      "$&& \"$$%",
      "$$$$$$$$$$$$$$$$ $$$$$$$$$$$$$$$$",
      "$#' $$$%",
      "\"$$' $",
      "ĀĀ& Ā#",
      "& &$$$$",
      ") (",
      "Ğ $$(",
      "Ġ $ğ",
      "$\" &$$$$",
      "$$\" %$$$$",
      "$! Ĝ",
      "$#$$$$ $$$%$$$$",
      "\"$$ -",
      "&$$ -",
      "$$$$$$$$$$$$ $$$",
      "$#\" \"$$#",
      "$\"# #$$%",
      "$&# $$$%",
      "$&& #$$$$",
      "$%! #$$#",
      "ĀĀ$ Ā(",
      "$Ĝ %",
      "$\"! $$$#",
      "\"# %$$#",
      "$#$$$$$$$$ $$$",
      "ĀĀę Ā",
      "' +",
      "* %",
      "ğ *",
      "Ġ /",
      "Ġ Ā#",
      "$# $#$$\"",
      "$# #$$$&",
      "$& %$$%",
      "$$& $$#",
      "$' $",
      "$' Ĝ",
      "#$$ $ğ",
      "$#$$$$ $$$#$$$$",
      "$## \"$$%",
      "$#% \"$$$$",
      "'$$ Ĝ",
      "$$#$$$$ $$#$$$$",
      "$Ğ )",
      "$Ğ Ğ",
      "$&% #$$&",
      "($$ ,",
      "$&\" %$$\"",
      "$%! $$$#",
      "& +",
      "& &$$%",
      "' %$$%",
      "Ġ #$$ğ",
      "$\" \"$$$\"",
      "$' $$!",
      "$! #$$$$",
      "$%$$$$ $$$#$$$$",
      "&$$ ě",
      "'$$ ě",
      "#$$! $",
      "%$$' $",
      "$!% $$$%",
      "&% #$$$$",
      "Ġ! $$!",
      "Ĝ %",
      "ĝ $$'",
      "Ğ !",
      "$% $!$$$$",
      "$$% %$$$$%",
      "$$& &$$%",
      "%$$$$ $$$#",
      "$$$$% &",
      "$( ,",
      "$%% $$$$$$$$$$$$",
      "!$$ -",
      "$\"% #$$&",
      "$\"\" %$$$$",
      "$\"& %$$&",
      "$#! #$$#",
      "( \"",
      ". $$",
      "ě #",
      "ĝ $$!",
      "Ġ $%%",
      "Ġ $,",
      "$# $%$$$$$$$$",
      "$# $'$$$$",
      "$# !$$$\"",
      "#$$$$ $$\"",
      "$' $#$$$$",
      "$Ğ *",
      "$!# $$$%",
      "$!# %$$#",
      "$!# %$$%",
      "$%' %$$%",
      "ĀĀ\" Āğ",
      "ĀĀ' Ā!",
      "ĀĀ- Ā",
      "% $$$#",
      "Ĝ !",
      "ğ (",
      "$# $'$$#",
      "$$% &$$#",
      "$& %$$$&",
      "$\" Ĝ",
      "$' #$$$$",
      "$( $$$$#",
      "$) Ğ",
      "&$$$$ '",
      "!$$ ,",
      "$%& %$$&",
      "$%\" #$$$$",
      "$ĝ ğ",
      "ğ$$ +",
      "$Ĝ !",
      "$Ĝ #",
      "ĀĀ# Āğ",
      "$&' #$$%",
      "ĀĀ& Āğ",
      "Ĝ $$$$",
      "Ĝ $$#",
      "Ġ Ě",
      "$$ $!$$$$",
      "$# %$$",
      "$$% $$$\"",
      "$& Ĝ",
      "$& $#$$\"",
      "$$\" $",
      "$' ,",
      "$' &$$$$",
      "$#% '$$%",
      "$ĝ '",
      "$ĝ (",
      "\"$$\" $",
      "'$$# $",
      "$\"& #$$&",
      "$%$$$$% %",
      "ğ$$ $ğ",
      "$#! %$$\"",
      "ĀĀ\" Ā&",
      "$!! $$$#",
      ") *",
      ") +",
      "$\" ě",
      "ĀĀ Ė",
      "$$$# $$$$$$$$$$$$",
      "$%$$$$ $$$%$$$$",
      "$## &$$%",
      "$## %$$&",
      "$%% \"$$#",
      "$%# #$$$$#",
      "&$$ $)",
      "\"$$$$ $$#",
      "$%& &$$%",
      "$#\" #$$\"",
      "$&# &$$#",
      "$\"% %$$#",
      "$\"& &$$%",
      "Ā% (",
      "$, \"",
      "Ġ$$$$ &",
      "ĀĀ\" Ā'",
      "&% $$$%",
      "& -",
      ", *",
      ", ,",
      "ğ ĝ",
      "$# '$$$&",
      "$$% &$$&",
      "$& '$$$$",
      "%$$$$ '",
      "$! $$",
      "$## %$$$$#",
      "$+ ğ",
      "%$$$$% \"",
      "$$$ Ĝ",
      "$%$$$$# #",
      "$'% $$$%",
      "$!# $$$#",
      "$!% %$$%",
      "$Ĝ &",
      "Ā' #",
      "%$$$$$$$$ $$$",
      "! ĝ",
      "# *",
      "% *",
      "% $$$%$",
      "Ĝ \"",
      "Ĝ ğ",
      "ğ '",
      "Ġ %$$%",
      "$% $#",
      "$% \"$$",
      "$# #$$%",
      "$$% \"$$&",
      "$& &$$$&",
      "$$\" &$$\"",
      "$' #$$$\"",
      "$$! %$$\"",
      "$%$$$$ '",
      "&$$$$ $$%",
      "'$$ $)",
      "$\"# &$$$$",
      "$\"# %$$\"",
      "$%\" &$$\"",
      "$%\" !$$#",
      "$ĝ Ğ",
      "$#$$# $",
      "$'% #$$#",
      "$&\" \"$$#",
      "ğ$$ Ĝ",
      "$Ĝ \"",
      "ĀĀ\" ĀĞ",
      "%$$$$$$$$ $$$%",
      "Ġ #$$%",
      "$$# \"$$%",
      "$$# &$$\"",
      "$& $#$$$$%",
      "$\" !$$$$",
      "$\" $%$$&",
      "$$& #$$$$",
      "$) $$#",
      "&$$ $!",
      "!$$ $ğ",
      "$%& $$$#",
      "$#& #$$'",
      "$ĝ )",
      "'$$$$ \"",
      "$&$$$$ $$\"",
      "$%$$$$% $",
      "$%' #$$&",
      "$#' %$$%",
      "$'& $$$%",
      "ĀĀ! Āğ",
      "$$$#$$% $",
      "\"% %$$%",
      "$$$! $$%",
      "# $$$%",
      "$ Ė",
      "Ġ $$$%",
      "$% '$$$&",
      "$$\" $$$!",
      "#$$$$ !",
      "$## $$$$$$$$$$$$",
      "$## &$$\"",
      "$#% &$$&",
      "!$$ Ĝ",
      "$$$ -",
      "$'% $$$#",
      "$#$$$$# $",
      "$%! #$$\"",
      "$, (",
      "ĀĀ\" Ā(",
      "ĀĀ# ĀĞ",
      "$#' &$$%",
      "#$$( $",
      "$#$$$$$$$$ $$$#",
      "$#$$$$$$$$$$$$ $",
      "$% %$$",
      "$$% !$$%",
      "#$$$$ $$$%",
      "%$$$$ $$$%",
      "$! %$$$&",
      "\"$$$$ !",
      "$$%$$$$ $$%$$$$",
      "$* +",
      "#$$$$% \"",
      "#$$$$% $%$$$$",
      "Ā% ğ",
      "$, %",
      "ĀĀ# Ā(",
      "$#' #$$%",
      "$!\" %$$#",
      "ĀĀ& Ā\"",
      "$$$' $$#",
      "$$$' $$%",
      "#$$$$$$$$ $$$%",
      "! #$$#",
      "& ĝ",
      ", %",
      "ě %",
      "Ĝ $$\"",
      "Ġ $%\"",
      "Ġ $'%",
      "$% $\"$$&",
      "$$% %$$$$#",
      "$$\" $$$%",
      "$! $%$$&",
      "$%# &$$$$",
      "$%# \"$$\"",
      "$) ĝ",
      "\"$$ .",
      "$ğ Ĝ",
      "$\"% '$$%",
      "%$$! $",
      "$%! %$$#",
      "Ġ$$# $",
      "$$$%$$# $",
      "$$$$#% $$$%",
      "$$$$#% %$$%",
      "\"% $$$%",
      "ĀĀğ Ā#",
      "Ġ( $$\"",
      "%$$$$$# $$$#",
      "$ ĕ",
      "' -",
      "ě ĝ",
      "Ğ $$ğ",
      "Ğ $$)",
      "ğ &",
      "Ġ $&#",
      "Ġ $+",
      "Ġ Ā!",
      "$$ Ě",
      "$% $%",
      "$% %$$#",
      "$& $#$$$$#",
      "$$\" $$#",
      "$$& %$$#",
      "$$$% $$$$%%",
      "$! $%$$$$",
      "$$! $",
      "$$! #$$\"",
      "$$' %$$&",
      "$$' $$$'",
      "$$$$% $",
      "$#% \"$$&",
      "&$$ Ě",
      "'$$ ,",
      "$Ğ ĝ",
      "$%& %$$$$",
      "$\"# #$$\"",
      "$#& \"$$%",
      "$&& $$$#",
      "$\"\" %$$\"",
      "$$#$$$# $$#",
      "$!# &$$#",
      "$%' \"$$%",
      "Ā& \"",
      "ĀĀ& ĀĞ",
      "$'\" $$$#",
      "$!& %$$%",
      "* \"",
      "+ #",
      "ě $$$$",
      "Ĝ $$&",
      "$$ $Ğ",
      "$# &$$#",
      "$& $&$$#",
      "$\" $$!",
      "$\" $$'",
      "$\" $#$$&",
      "$$\" #$$%",
      "#$$$$ $$$#",
      "$%# &$$\"",
      "$* $$$$",
      "$%& %$$#",
      "$#& $$$#",
      "$#$$% $",
      "$\"$$$$ $$&",
      "$'% \"$$%",
      "$#' #$$&",
      "ĀĀ' Ā\"",
      "ĀĀ' Ā#",
      "&# #$$#",
      "+ (",
      "+ )",
      "- ĀĀ",
      ". ,",
      "Ğ \"",
      "$% #$$",
      "$# -",
      "$# \"$$",
      "$# %$$$'",
      "$$# $$$!",
      "$$& $$$#",
      "$$& \"$$&",
      "%$$$$ !",
      "$! $%$$#",
      "$$! \"$$#",
      "$%$$$$ !",
      "$#% #$$$$#",
      "$#% '$$$$",
      "$#% !$$%",
      "$) ,",
      "$* Ğ",
      "Ġ$$ -",
      "$#& &$$&",
      "!$$$$ \"",
      "!$$$$ &",
      "ĀĀ% Ā'",
      "ĀĀ! Ā'",
      "Ā) %",
      "#$$$$$% $$$%",
      "%$$$$$% $$$%",
      "& #$$&",
      ", $$$$",
      "ě $$%",
      "Ġ Ā\"",
      "$% #$$$&",
      "$% $&$$\"",
      "$# $$$$$$$$$$$$$$$$",
      "$# $&$$&",
      "$\" $",
      "$\" $$",
      "$\" $\"$$%",
      "%$$$$ &%",
      "ĀĀ Ĕ",
      "$! ,",
      "$$' #$$&",
      "$%% &$$#",
      "$) $$%",
      "$ğ $$#",
      "($$ ě",
      "$ĝ ĝ",
      "%$$$$% $#$$$$",
      "$&& %$$&",
      "$\"& \"$$%",
      "ğ$$ ĝ",
      ")$$ Ĝ",
      "Ā% )",
      "ĀĀ# Ā'",
      "$!\" $$$#",
      "$'& #$$%",
      "\"# %$$$$",
      "&# %$$#",
      "*$$ $(",
      "#$$$$$# $$$#",
      ") !",
      ") )",
      "+ *",
      "- ,",
      "ě ğ",
      "ĝ $$(",
      "Ġ &$$$$",
      "Ġ \"$$%",
      "$% $&",
      "$% #$$$!",
      "$# $'$$%",
      "$$# #$$$$#",
      "$$# \"$$\"",
      "$$% $$$'",
      "$\" $\"$$$$",
      "$$\" \"$$$$",
      "#$$$$ $$&",
      "#$$$$ $%$$$$",
      "$$$$% %$$$$",
      "%$$ $",
      "$%% %$$\"",
      "$#% %$$$$#",
      "$%# #$$&",
      "$%# #$$$$%",
      "$%# !$$#",
      "$ğ +",
      "&$$ $",
      "&$$ .",
      "$$#$$$$ $$%$$$$",
      "$&% %$$&",
      "$\"# \"$$#",
      "$\"% #$$$$",
      "$$$& $",
      "$%$$% $",
      "$$%$$$% $$$$$$$$",
      ")$$ +",
      "$%! %$$\"",
      "$'# %$$#",
      "$, !",
      "$, '",
      "$, *",
      "$Ĝ '",
      "Ā& '",
      "$'& \"$$%",
      "$%$$$$$$$$ $$$#",
      "$%$$$$$$$$ $$$$$$$$$$$$",
      "%$$$$$$$$ $$$#",
      "$$$$$$$$$$$$$$$$$$$$$$$$ $",
      "% $$$$$$$$$$$$$$$$",
      "* '",
      "- +",
      "Ĝ Ğ",
      "Ğ &",
      "Ġ $&&",
      "Ġ '$$$$",
      "$% $'",
      "$% $!$$%",
      "$# ě",
      "$# $!$$$$",
      "$& $#$$&",
      "$\" $%$$\"",
      "$\" '$$$&",
      "#$$$$ $$$%$$$$",
      "$' $\"$$#",
      "$$! &$$#",
      "$$! #$$!",
      "$$' $",
      "$$$$% \"",
      "$$$$# \"",
      "$#$$$$ $$%%$$$$",
      "$## #$$$$%",
      "$%% #$$$$%",
      "$%# '$$#",
      "\"$$ $ğ",
      "$ğ $$%",
      "$Ğ $$$$",
      "$\"# &$$%",
      "$&# %$$$$",
      "$&# \"$$$$",
      "$&# \"$$%",
      "$&# \"$$\"",
      "($$ Ĝ",
      "$#& %$$$$",
      "$\"\" \"$$#",
      "$$$ ě",
      "$'% #$$$$",
      "Ā% *",
      "$%! &$$#",
      "$, #",
      "$$) $",
      "$$$%$$% $",
      "$'\" #$$#",
      "$!& $$$%",
      "$'' #$$%",
      "ĀĀğ Ā\"",
      "$$\"$$$$ $",
      "*$$ ĝ",
      "! $$$$#%",
      "' ğ",
      "' $$$$%%",
      "* (",
      ", $$&",
      "ę $$",
      "Ġ $##",
      "Ġ $%&",
      "Ġ $&%",
      "Ġ \"$$ğ",
      "$% ě",
      "$% \"$$%",
      "$% !$$$\"",
      "$% %$$$\"",
      "$% '$$$'",
      "$# '$$$$",
      "$# $\"$$&",
      "$$# &$$%",
      "$$# %$$$$%",
      "$$% #$$$$%",
      "$\" -",
      "$\" $\"$$#",
      "%$$$$ $$$#$$$$",
      "$$$# $$$$%%",
      "$' \"$$$\"",
      "$! $$!",
      "$$$$# #$$$$",
      "$%$$$$ $$%%$$$$",
      "'$$ -",
      "$#\" $$$%",
      "$#\" #$$%",
      "Ġ$$ $ğ",
      "($$ -",
      "$\"% &$$$$",
      "$#& \"$$&",
      "#$$$$% $",
      "$&\" #$$\"",
      "$!# %$$$$",
      "ğ$$ ,",
      "$, &",
      "ĀĀ% ĀĞ",
      "ĀĀ\" Ā)",
      "$\"! %$$\"",
      "$$$#$$# %$$#",
      "$&! #$$#",
      "$ě %",
      "ĀĀ' Āğ",
      "$$&$$$$ $",
      "$$##$$# $",
      "\" $",
      "& #$$$$",
      "' $$$$##",
      "+ $$!",
      "Ĝ ĝ",
      "Ĝ $$'",
      "Ġ %$$ğ",
      "$% -",
      "$% !$$$$",
      "$% %$$$'",
      "$# $'",
      "$# $$(",
      "$# $!$$%",
      "$$# %$$$$#",
      "$& $%$$\"",
      "$& !$$$\"",
      "$& %$$$\"",
      "%$$$$ $$$%$$$$",
      "$$$# $$$$%#",
      "$$$% $$$$$$$$$$$$",
      "$! $#$$%",
      "$! !$$$$",
      "$## '$$$$",
      "$%% %$$$$#",
      "\"$$ ě",
      "&$$$$ $",
      "&$$$$ $$#",
      "$$$$$$$$$$$$ $$$#",
      "$#\" &$$\"",
      "$#\" '$$#",
      "$&& &$$%",
      "$&$$$$ $$&",
      "$$$ .",
      "$&\" &$$\"",
      ")$$ ĝ",
      "$#! &$$\"",
      "$!% #$$%",
      "ĀĀ% Ā(",
      "&% #$$%",
      "ĀĀ! Ā&",
      "'$$& $",
      "$- %",
      "ĀĀğ Ā!",
      "Ğ$$ ĝ",
      "$#%%$$% $",
      "' $$$$#%",
      "' $$$$%#",
      "+ ,",
      "- #",
      "Ğ $$Ğ",
      "Ġ $'#",
      "Ġ ($$#",
      "$% $!$$#",
      "$% $\"$$\"",
      "$$% %$$\"",
      "$$% \"$$#",
      "$& \"$$$!",
      "$\" $&",
      "$\" $%$$$$#",
      "$$\" \"$$\"",
      "$! #$$$\"",
      "$#% %$$\"",
      "$#% $$$%$$#",
      "$%# #$$!",
      "\"$$ $'",
      "\"$$$$ $$%",
      "$#\" %$$%",
      "$&% !$$%",
      "$%\" \"$$\"",
      "$&# %$$%",
      "#$$$$# \"",
      "$ĝ *",
      "$$%$$$% $$%",
      ")$$ $)",
      "$'# \"$$#",
      "$&' %$$%",
      "Ġ% $$$%",
      "$$$#$$# $",
      "&& $$$%",
      "&& #$$%",
      "+ '",
      "ě $$'",
      "ĝ $$ğ",
      "Ġ Ę",
      "Ġ ę",
      "Ġ $%!",
      "Ġ $-",
      "Ġ %$$Ğ",
      "$% $\"$$$$#",
      "$% !$$$!",
      "$$# !$$#",
      "$$& #$$#",
      "$$$% $$$$##",
      "$' $\"$$%",
      "$! %$$$$",
      "$$' \"$$%",
      "$( $",
      "%$$ Ě",
      "$#$$$$ '",
      "$#% $$$$$$$$$$$$",
      "\"$$$$ \"#",
      "$#\" \"$$%",
      "$\"% #$$#",
      "$$$& $$&",
      "$$$\" $$&",
      "$$( $",
      "$\"$$$$ $$\"",
      "$$$%$$$$ $$",
      "$%%$$$$ $$#$$$$",
      "ĀĀğ Ā&",
      "\"\" $$$#",
      "ĀĀ( Ā!",
      "$$%#$$% $",
      "ĀĀĞ Ā#",
      "ĀĀĞ Ā!",
      "ĀĀĝ Ā\"",
      "%$$$$$# %$$#",
      "# &",
      "& $",
      "( .",
      ") ,",
      ", $$\"",
      "ě $$#",
      "ĝ &",
      "$$ .",
      "$$ $*",
      "$% $#$$$$$$$$",
      "$% $'$$$$",
      "$& $&$$$$",
      "$\" \"$$#",
      "#$$$$ &%",
      "%$$$$ (",
      "$' ě",
      "$! $",
      "$! $&$$%",
      "$$' &$$%",
      "$$$$% $#$$$$",
      "$%$$$$ $$$&",
      "$## %$$!",
      "\"$$$$ $",
      "\"$$$$ '",
      "&$$$$ !",
      "!$$ $&",
      "$&% &$$%",
      "$#& %$$#",
      "$$$\" $",
      "$$$\" $$$$#",
      "#$$$$# #$$$$",
      "$+ +",
      "$\"\" $$$%",
      "$\"$$$$ $$",
      "$%$$$$% #",
      "$'% %$$#",
      "$#$$$$# #",
      "$%' \"$$&",
      "$!% %$$&",
      "$, ğ",
      "ĀĀ% Ā)",
      "$#' \"$$&",
      "$!\" &$$#",
      "$$$%$$% #$$%",
      "!$$\" $",
      "($$% $",
      "$ě #",
      "ĀĀ' ĀĞ",
      "$#$$$$$$$$ $$$$$$$$$$$$",
      "Ğ$$ ,",
      "$$%%$$% $",
      "*$$ $)",
      "$$$$$$$$% %",
      "$%##$$# $",
      "! +",
      "! $$$$%%",
      "% \"",
      "Ğ *",
      "Ġ $#\"",
      "Ġ ($$",
      "Ġ $\"%",
      "Ġ $\"&",
      "Ġ $#!",
      "Ġ $'\"",
      "Ġ ĀĞ",
      "$% &$$%",
      "$% $$$&",
      "$% &$$$'",
      "$# $%",
      "$$# !$$$$",
      "$$\" %$$!",
      "%$$$$ $$\"",
      "$' $#$$\"",
      "%$$ Ę",
      "$## %$$$$%",
      "$%% !$$$$",
      "$%% #$$'",
      "$#% #$$'",
      "$%# !$$$$",
      "\"$$ ę",
      "'$$ Ě",
      "$%& !$$%",
      "$$$#$$$$ $$",
      "$&$$$$ $$",
      "$'% %$$%",
      "$$#$$$# $$$$$$$$",
      "$%' &$$%",
      "ğ$$ .",
      "Ā# \"",
      "$'# #$$$$",
      "$!% %$$$$",
      "ĀĀ$ Āĝ",
      "Ġ$$$$ \"",
      "$Ĝ (",
      "$Ĝ ğ",
      "ĀĀ# Āĝ",
      "$!\" #$$#",
      "$&' #$$&",
      "$'& %$$%",
      "ĀĀ& Ā&",
      "ĀĀ& Ā'",
      "\"% #$$%",
      "Ā( &",
      "$ě ğ",
      "$!$$$$ \"",
      "#$$$$$$$$ $$$#",
      "ĀĀĝ Ā!",
      "$$$$$$$$# #",
      "! $$$$##",
      "\" \"$$#",
      "' $",
      "ğ $$$$#",
      "$% ($$$&",
      "$# %$$$\"",
      "$# \"$$$!",
      "$# &$$$'",
      "$# $&$$\"",
      "$& ě",
      "$& $&$$%",
      "$\" $$(",
      "$$& $$$'",
      "$$$$$$$$ $%$$$$",
      "#$$$$ $#$$$$",
      "$$! &$$\"",
      "$( -",
      "$( $$&",
      "#$$ /",
      "$## \"$$\"",
      "$%% #$$\"",
      "$#% #$$%$",
      "$%# $$&",
      "&$$ $*",
      "'$$ $*",
      "$* ,",
      "$Ğ +",
      "$%& \"$$$$",
      "$&% &$$$$",
      "Ġ$$ $&",
      "$\"# '$$#",
      "$%\" $$$%",
      "$%\" #$$%",
      "$%\" #$$!",
      "$#& '$$%",
      "$#& %$$'",
      "#$$$$% #$$$$",
      "$&& \"$$&",
      "$#$$$$% %",
      "#$$' $\"",
      "$%%$$$$ $$%$$$$",
      "$%' %$$&",
      "Ġ$$$$ '",
      "$#' %$$&",
      "Ġ\" #$$#",
      "!$$& $",
      "$\"' $$$%",
      "Ā( #",
      "$ě !",
      "ĀĀ' Ā'",
      "$!$$$$ &",
      "$$$! $$#",
      "$'$$$$ \"",
      "$$$$$$$$# %",
      "#$$$$$# %$$#",
      "%$$$$## %$$#",
      "$$$$$$$$$$$$$$$$$$$$$$$$ $$$",
      "$%$$$$$$$$$$$$ $",
      "! $$$$%#",
      "( ,",
      "* $$(",
      "* $$ğ",
      ", &",
      ". %",
      "Ě #",
      "Ĝ &",
      "ĝ !",
      "Ğ $$*",
      "Ġ $&$$$$",
      "Ġ $$$$%%",
      "Ġ $$$$#%",
      "Ġ $''",
      "$% \"$$$!",
      "$# #$$",
      "$# '$$$'",
      "$# $#$$!",
      "$$# '$$#",
      "$$% $$$$#",
      "$& $!$$%",
      "$\" &$$#",
      "$$& !$$%",
      "%$$$$ $##$$$$",
      "ĀĀ ē",
      "$$$# $$$$##",
      "$' $$'",
      "$' $#$$%",
      "$' %$$$&",
      "$! -",
      "$$$$% #$$$$",
      "$#$$$$ !",
      "$%# %$$!",
      "$%# %$$#$",
      "\"$$ /",
      "&$$$$ $$\"",
      "!$$ /",
      "!$$ $Ğ",
      "$$#$$$$ $$%$$$%",
      "%$$\" $\"",
      "$%& #$$#",
      "$%\" %$$$$",
      "$$$& $$\"",
      "%$$$$# &",
      "$%$$# $",
      "$&& %$$#",
      "$$$%$$$$ $$#$$$$",
      "$$$#$$$$ $$#$$$$",
      "Ā% +",
      "$%! \"$$#",
      "$!% \"$$%",
      "Ġ$$$$ !",
      "$\"! #$$#",
      "Ġ$$% $",
      "Ā( )",
      "$ě '",
      "$'' $$$%",
      "%$$( $",
      "$%$$$$$$$$ $$$%",
      "ĀĀğ Āğ",
      "Ā) &",
      "!$$' $",
      "$&( %$$%",
      "$$\"$$$$ $$#",
      "\"\" %$$#",
      "\"\" #$$#",
      "Ġğ $$#",
      "$#$%$$% $",
      "' \"$$%",
      ") -",
      "+ $$(",
      ". -",
      "ğ $$$$%",
      "Ġ &$$%",
      "Ġ $Ğ",
      "Ġ $%'",
      "Ġ $Ĝ",
      "Ġ Ā&",
      "Ġ Āğ",
      "$# \"$$#",
      "$# $&$$$$#",
      "$# $&$$$$%",
      "$# ($$$&",
      "$$% '$$$$",
      "$& '$$$&",
      "$& #$$$!",
      "$\" $$$\"",
      "$\" $'$$%",
      "$$& $$%",
      "$$& &$$&",
      "$! $&$$#",
      "$! !$$$\"",
      "$( $$",
      "$( $$!",
      "#$$ Ě",
      "$## $$\"",
      "$#% %$$'",
      "$#\" #$$!",
      "($$ $*",
      "#$$$$# $%$$$$",
      "$+ *",
      "$+ Ğ",
      "$&& #$$#",
      "$\"\" #$$\"",
      "$\"\" &$$\"",
      "$$$#$$$$ $$%$$$$",
      "$#$$$$% #",
      "$\"& &$$&",
      "$!# #$$#",
      ")$$ ,",
      "$#! &$$#",
      "$#! #$$\"",
      "$%! \"$$\"",
      "ĀĀ% Ā*",
      "$!\" $$$%",
      "Ā' (",
      "$$$%$$% %$$%",
      "$'\" %$$#",
      "$'\" %$$\"",
      "$\"' #$$&",
      "Ā( '",
      "$&! $$$#",
      "$ě &",
      "ĀĀ' Ā&",
      "$$#%$$# $",
      "$%%#$$% $",
      "Ā* &",
      "%$$) $",
      "%$$$$$$$$ $#",
      "$#$#$$# $",
      "$$$$$$$$$$$$$$$$$$$$$$$$ $$",
      "! ,",
      "! \"$$#",
      "& \"$$%",
      "' %$$&",
      "* $$)",
      "* $$*",
      "$$ /",
      "$% !$$",
      "$% $'$$#",
      "$% $&$$&",
      "$$# %$$&",
      "$& \"$$%",
      "$& $%$$$$#",
      "$& $\"$$\"",
      "$\" \"$$",
      "$\" !$$$\"",
      "$$\" '$$#",
      "$$\" !$$#",
      "ĀĀ ĕ",
      "$$$# $$!",
      "$$$# $$'",
      "$' $$$%",
      "$' '$$$$",
      "$! %$$#",
      "$! $\"$$%",
      "$$$$# $",
      "$( .",
      "%$$ $)",
      "$## ($$#",
      "$#% \"$$#",
      "$#% %$$$$%",
      "$%# %$$$$%",
      "$Ğ $$#",
      "$$$$$$$$$$$$ $$$%",
      "$%& &$$$$",
      "$%& &$$&",
      "Ġ$$ .",
      "$$$& $$$$%",
      "$\"$$$$ !",
      "$$$%$$$$ $",
      "Ā# %",
      "ĀĀ$ Ā)",
      "$, )",
      "$#' &$$&",
      "&% %$$%",
      "#$$$# $$$$$$$$",
      "Ġ% %$$%",
      "ĀĀ! Ā%",
      "ĀĀ! ĀĞ",
      "&$$' $",
      "\"% %$$$$",
      "$&! %$$\"",
      "$ě \"",
      "$- )",
      "$%( $$$%",
      "$%( #$$&",
      "$(% $$$#",
      "Ġ$$& $",
      "$$\"$$$$ $$%",
      "\"$$( $",
      "ĀĀĝ Ā&",
      "$'( #$$%",
      "$%$$$$$$% %",
      "ĝ$$ $ğ",
      "#$$$$$# #$$#",
      "#$$$$%# %$$#",
      "\" ,",
      "# Ğ",
      "# ğ",
      "% Ğ",
      "& '$$%",
      "' #$$&",
      "- -",
      "- $$$$",
      "- $$#",
      ". )",
      "Ě $",
      "Ě %",
      "Ě ğ",
      "Ě $$$$",
      "ě $$\"",
      "Ğ Ğ",
      "Ġ 0",
      "Ġ '$$%",
      "Ġ $!#",
      "Ġ $\"!",
      "Ġ $&!",
      "Ġ $&$$%",
      "Ġ $'!",
      "$# $!$$#",
      "$# $#$$'",
      "$$% !$$$$",
      "$& .",
      "$& $$$$$$$$$$$$",
      "$& $$$&",
      "$& $!$$#",
      "$\" #$$",
      "$\" %$$\"",
      "$\" $&$$&",
      "$$\" $$$#$",
      "$$& #$$'",
      "$$& $$$%$",
      "$$$% $$!",
      "$$! $$$!",
      "$( Ĝ",
      "%$$ /",
      "$%$$$$ $$##$$$$",
      "$## #$$&",
      "$%% %$$'",
      "$%# $$$$$$$$$$$$",
      "$) $$\"",
      "$ğ ,",
      "'$$ .",
      "$$$$$$$$$$$$ $%",
      "$%& #$$'",
      "$#\" &$$$$",
      "$&% \"$$#",
      "$\"# #$$&",
      "$&# %$$!",
      "($$ .",
      "$\"\" #$$$$",
      "$\"\" %$$!",
      "$$$%$$$$ &",
      "$$$#$$$$ $",
      "$\"& %$$'",
      "$$#$$$# $$%",
      "Ā# #",
      "Ġ# $$$%",
      "ĀĀ! Āĝ",
      "$!& #$$&",
      "ĀĀ' Āĝ",
      "$!! %$$#",
      "$(# #$$#",
      "ĀĀ( Ā\"",
      "#$$$$$$$$ $$$$#",
      "\"& $$$%",
      "&$$$$# \"",
      "ĝ$$ +",
      "$&%$$$$ $",
      "$%$%$$% $",
      "# ĝ",
      "( #$$&",
      "+ !",
      "- %",
      "ě !",
      "Ġ #$$&",
      "Ġ %$$&",
      "Ġ $\"#",
      "Ġ $&\"",
      "Ġ $&'",
      "Ġ #$$Ğ",
      "$$$$ $$%$",
      "$% &$$",
      "$% $\"$$$$%",
      "$# !$$$!",
      "$$# $$$$$$$$",
      "$$# #$$$$%",
      "$$% #$$'",
      "$& -",
      "$\" $$$$$$$$",
      "$\" #$$$&",
      "$$\" &$$$$",
      "$$& \"$$$$",
      "$$$$$$$$ $$%$$$$",
      "$' &$$$&",
      "$! $#$$$$",
      "$! $#$$#",
      "$$' #$$'",
      "$( &$$$$",
      "#$$ ę",
      "$#$$$$ $#",
      "$## $$$$$$$$",
      "$%% %$$$$%",
      "$%% '$$$$",
      "$$#$$$$ $$",
      "$&% \"$$&",
      "$&# &$$\"",
      "$&# !$$#",
      "$\"% &$$&",
      "$$$& $$$$#",
      "$$$\" $$$$%",
      "%$$$$# %$$$$",
      "#$$$$% %$$$%",
      "$ĝ +",
      "$+ ĝ",
      "$$( $$$%",
      "$$( #$$%",
      "$$( #$$&",
      "$&& !$$%",
      "$$$%$$$$ $$%$$$$",
      "$\"& \"$$&",
      "$##$$$$ $$%$$$$",
      "$'% \"$$$$",
      "$'% \"$$#",
      "$'% !$$%",
      "$!# #$$$$",
      "$%' %$$'",
      ")$$ $*",
      "Ā% Ğ",
      "$%! %$$!",
      "$'# &$$#",
      "$'# %$$\"",
      "ĀĀ$ Ā%",
      "ĀĀ% Āĝ",
      "$Ĝ Ğ",
      "'$$\" $",
      "&$$! $",
      "$&' \"$$%",
      "$'& #$$&",
      "$'\" \"$$#",
      "($$$$ !",
      "$\"' %$$%",
      "$\"' %$$&",
      "Ā( \"",
      "$- #",
      "&# \"$$#",
      "Ğ$$ +",
      "Ğ$$ Ĝ",
      "#$$$$$$$$ $%",
      "ĀĀ) Ā\"",
      "&$$( $",
      "%$$$$$$$$ $%",
      "%$$$$%% #$$%",
      "$$$#$$$$$$$$ $$$",
      "\" $$$$$$$$",
      "\" #$$\"",
      "# ,",
      "& %$$&",
      ". ĀĀ",
      "Ĝ *",
      "Ĝ ĀĀ",
      "Ġ ė",
      "Ġ #$$$#",
      "Ġ $'&",
      "Ġ $#ğ",
      "$% %$$$$%",
      "$# !$$",
      "$# #$$$!",
      "$# \"$$$&",
      "$& $!$$$$",
      "$\" $#$$$$#",
      "$\" $#$$\"",
      "$$& &$$#",
      "$$& %$$'",
      "%$$$$ $%$$$$",
      "$$$% $$$%",
      "$' $$",
      "$' $%$$$$",
      "$' %$$$\"",
      "$' \"$$$!",
      "$! .",
      "$! ě",
      "$! #$$#",
      "$! $&$$$$",
      "$! \"$$$\"",
      "$$$$# $%$$$$",
      "$( ě",
      "$#% $$\"",
      "$) $",
      "$ğ $$\"",
      "$* ĝ",
      "$Ğ $$%",
      "$$$$$$$$$$$$ $%$$$$",
      "$#\" %$$!",
      "$&# !$$$$",
      "#$$$$# $",
      "%$$$$# $#$$$$",
      "$ĝ $$$$",
      "$+ $$$$",
      "$\"\" #$$%",
      "$\"$$$$ '",
      "$$$ Ě",
      "$$%$$$% $$#",
      "$'# $$$%",
      "$!% &$$%",
      "$Ĝ )",
      "$$ğ $",
      "Ā' &",
      "$$* $",
      "ĀĀ( Āğ",
      "ĀĀĞ Ā&",
      "\"& %$$%",
      "$#$#$$% $",
      "+$$ +",
      "%$$$$$% #$$%",
      "! &$$#",
      "! %$$\"",
      "# (",
      "% ĝ",
      "& Ğ",
      "& ğ",
      "' &$$%",
      "( ĝ",
      "( #$$%",
      ") ĝ",
      ") $$$$#",
      "+ +",
      ", $$%",
      "- $$!",
      "Ě !",
      "ě \"",
      "ě $",
      "Ġ ğ$$",
      "Ġ $#'",
      "Ġ $(!",
      "Ġ '$$ğ",
      "$% $!",
      "$% $#$$'",
      "$# &$$",
      "$# $#$$$$$$$$",
      "$$# ($$#",
      "$$% !$$&",
      "$& &$$$'",
      "$\" Ě",
      "$\" $'$$$$",
      "$\" $'$$#",
      "$\" %$$$\"",
      "$$& &$$$$",
      "$$& '$$%",
      "$$$$$$$$ &",
      "$$$$$$$$ #$$$$%",
      "%$$$$ $$&",
      "$$$% $$$$#%",
      "$' '$$$&",
      "$( $$$$%",
      "%$$ ę",
      "$## !$$#",
      "$%% $$$%$$#",
      "$%# &$$%",
      "$%# $$$#$$%",
      "\"$$ Ě",
      "'$$ $!",
      "!$$ .",
      "$#\" \"$$\"",
      "$&% &$$#",
      "$\"# \"$$$$",
      "$\"# &$$\"",
      "$#& #$$$$",
      "%$$$$# $",
      "%$$$$# #$$$#",
      "$&& %$$$$",
      "$$$#$$$$ \"",
      "$%$$$$# %",
      "$'% #$$&",
      "$&\" \"$$\"",
      "$!# \"$$#",
      "$%' &$$&",
      "Ā# (",
      "$'# #$$\"",
      "ĀĀ% Ā%",
      "ĀĀ\" Āĝ",
      "$%#$$$$ $$%$$$$",
      "&% \"$$%",
      "$\"! #$$\"",
      "Ā' \"",
      "($$# $",
      "$$$$%% $$$%",
      "\"% &$$%",
      "$- \"",
      "$%( #$$%",
      "$!! %$$\"",
      "$#( $$$%",
      "$&( #$$%",
      "Ġ( $$!",
      "ĀĀĞ Āğ",
      "#$$$$$$# $$%",
      "%$$$$$$% $$#",
      "ĝ$$ ĝ",
      "$#$%$$# $",
      "#$$$$$% %$$%",
      "%$$$$$$# $$%",
      "$%$#$$% $",
      "%$$$$## %$$$$",
      "ĀĀ+ Ā\"",
      "# \"$$$$",
      "# &$$#",
      "& !$$%",
      ") ğ",
      "+ $$Ğ",
      ". +",
      "Ě $$%",
      "Ĝ $$)",
      "Ġ $%$$%",
      "Ġ !$$%",
      "Ġ $&$$#",
      "Ġ $(\"",
      "Ġ &$$ğ",
      "Ġ &$$Ğ",
      "$$ $+",
      "$% .",
      "$% ($$$$",
      "$% $%$$$$$$$$",
      "$% $%$$'",
      "$# $$$%",
      "$# $$$\"",
      "$# $$$#$",
      "$# $\"$$\"",
      "$$# $$$$%",
      "$$# !$$%",
      "$& $%$$&",
      "$\" $%$$'",
      "$$\" %$$%",
      "$! &$$$$",
      "$! '$$$&",
      "$$! \"$$\"",
      "$## !$$%",
      "$## %$$#$",
      "$%% #$$!",
      "$%# '$$$$",
      "$%# \"$$$$%",
      "$) Ĝ",
      "$ğ ě",
      "&$$$$ (",
      "$%& %$$'",
      "$&% #$$\"",
      "$&% #$$'",
      "$%\" '$$#",
      "$&# #$$!",
      "$#& &$$$$",
      "$#& !$$%",
      "#$$$$# %$$$%",
      "%$$$$# $%$$$$",
      "%$$$$# %$$$%",
      "$$( %$$&",
      "$&& \"$$$$",
      "$\"\" %$$%",
      "$&$$$$ !",
      "$%%$$$$ $%%$$$$",
      "$'% %$$$$",
      ")$$ -",
      "$#! \"$$\"",
      "$#! #$$!",
      "Ā% Ĝ",
      "$%! &$$\"",
      "$!% %$$#",
      "$!% &$$$$",
      "$Ĝ ĝ",
      "ĀĀ\" Ā*",
      "ĀĀ# Ā)",
      "$#%$$$$ $$%$$$$",
      "Ġ\" $$$#",
      "Ġ# %$$%",
      "$$$%$$% %$$$$",
      "ĀĀ! Ā)",
      "#$$$\" $",
      "$$$#$$# #$$#",
      "$&! %$$#",
      "Ġ& %$$%",
      "\"$$! $",
      "$%( %$$%",
      "$$$$%# %$$#",
      "$&( $$$%",
      "$#$$$$$$# %",
      "ĀĀĞ Ā\"",
      "$$&$$$$ $$%",
      "*$$ -",
      "($$& $",
      "$$$$$$# $",
      "Ġ) $$\"",
      "+$$ $(",
      "%$$$$$# #$$#",
      "%$$$$%# #$$#",
      "! $",
      "! #$$$$",
      "# %$$%",
      "- \"",
      "- *",
      ". #",
      "Ě ě",
      "ě $$&",
      "Ĝ )",
      "Ĝ +",
      "Ĝ $$!",
      "Ĝ $$(",
      "Ğ )",
      "ğ )",
      "ğ Ě",
      "ğ ĀĀ",
      "Ġ 1",
      "Ġ $%$$$$",
      "Ġ $%$$#",
      "Ġ $\"'",
      "Ġ Ā)",
      "Ġ $!'",
      "Ġ $'(",
      "$$ Ę",
      "$# $($$$$",
      "$# $%$$'",
      "$$# #$$&",
      "$$# %$$!",
      "$$% %$$'",
      "$& %$$$'",
      "$& $#$$!",
      "$& $%$$!",
      "$\" \"$$$!",
      "$$$$$$$$ \"",
      "#$$$$ $%%$$$$",
      "ĀĀ Ē",
      "$$$# $$$#",
      "$' -",
      "$! &$$$&",
      "$$$$# $#$$$$",
      "$#$$$$ #$$$$",
      "$#$$$$ $$!",
      "$#$$$$ $$$&",
      "$## #$$!",
      "$%% &$$&",
      "$%% '$$%",
      "$ğ $$&",
      "&$$ Ę",
      "$Ğ ,",
      "$$$$$$$$$$$$ $#",
      "$&% #$$$$#",
      "Ġ$$ $'",
      "Ġ$$ $Ğ",
      "$\"# '$$$$",
      "$%\" \"$$$$",
      "($$ Ě",
      "$$$\" $$\"",
      "%$$$$% %$$$%",
      "!$$$$ '",
      "!$$$$ &#",
      "$$$%$$$$ $%",
      "Ā# !",
      "$, -",
      "$#' #$$'",
      "Ā! #",
      "$\"! \"$$#",
      "$!\" %$$%",
      "Ā' '",
      "Ā' )",
      "ĀĀ& Āĝ",
      "Ā( (",
      "ĀĀğ ĀĞ",
      "&& \"$$%",
      "Ğ$$ $ğ",
      "*$$ ,",
      "$$$$$$$$# #$$$$",
      "#$$$$$$% $$#",
      "$ĀĀ +",
      "%$$$$%% #$$$$",
      "Ā+ &",
      "Ġ%$$ ĝ",
      "$#$$$$$$$# $$$#",
      "! !$$#",
      "\" %$$\"",
      "& \"$$$$",
      "' /",
      "' %$$$$",
      ", (",
      ". *",
      ". $$#",
      "Ğ ĝ",
      "Ġ )$$",
      "Ġ $!%",
      "Ġ $!\"",
      "Ġ %$$$&",
      "$$ $ĝ",
      "$% $%$$!",
      "$# %$$%",
      "$$# '$$\"",
      "$& !$$$!",
      "$\" $%$$$$%",
      "$$\" \"$$%",
      "$$$$$$$$ $#$$$$",
      "$$$$$$$$ $$#$$$$",
      "#$$$$ $&",
      "$$$# $$$$#%",
      "$' #$$%",
      "$' $%$$%",
      "$' $\"$$$$",
      "$' $&$$#",
      "$' !$$$\"",
      "$' $!$$#",
      "$! $'$$%",
      "$$' !$$&",
      "$## '$$%",
      "$%% $$$%$$%",
      "$#% #$$$$%",
      "$#% !$$&",
      "$%# '$$\"",
      "!$$ ę",
      "$$#$$$$ $$$#$$$$",
      "$$%$$$$ $$",
      "$$$$$$$$$$$$ $#$$$$",
      "$#\" !$$#",
      "$\"# %$$&",
      "$%\" %$$!",
      "$&# $$$#$",
      "($$ /",
      "($$ $\"",
      "$\"% &$$#",
      "$#& #$$#",
      "#$$$$# #$$$#",
      "$\"& %$$#",
      "$#$$$$# $%$$$$",
      "$$#$$$# $$#$$$#",
      "$&\" #$$!",
      "Ā% ĝ",
      "Ā# &",
      "$Ĝ *",
      "Ā& &",
      "$&' \"$$&",
      "$&' !$$%",
      "Ġ# %$$#",
      "Ġ% &$$%",
      "$'\" #$$\"",
      "\"# $$$%",
      "\"# &$$$$",
      "$\"' #$$%",
      "$!& #$$%",
      "$!& &$$%",
      "Ā( %",
      "$ě (",
      "$'' \"$$%",
      "$#( %$$&",
      "$#$$$$$$# $$$$%",
      "'$$' $",
      "#$$$$$$$$ $#",
      "#$$$$$$$$ $$$$%",
      "ĀĀ) Āğ",
      "$(\" #$$#",
      "$. %",
      "$%$$$$$$# $$$$%",
      "%$$$$$% %$$%",
      "$$$%$$$$$$$$ $$$",
      "#$$$$#% #$$%",
      "\" \"$$\"",
      "% &",
      "& \"$$&",
      "' ĝ",
      "( ğ",
      "* !",
      ", \"",
      ", $$!",
      "ĝ ĀĀ",
      "ğ %$$!",
      "Ġ $\"$$%",
      "Ġ *$$",
      "Ġ $)&",
      "$$ ę",
      "$% $!$$&",
      "$# .",
      "$# $'$$&",
      "$$# $$$$#",
      "$$% '$$#",
      "$$% \"$$$$#",
      "$& $$$$$$$$",
      "$\" $#$$$$%",
      "$\" $!$$$$",
      "$$& \"$$'",
      "#$$$$ '%",
      "ĀĀ :",
      "$$$% $$'",
      "$' $%$$\"",
      "$' $!$$%",
      "$$' \"$$&",
      "$$' !$$%",
      "$$' $$$(",
      "$( %$$$$",
      "$#$$$$ $%",
      "$## #$$$$%%",
      "$%% \"$$\"",
      "$%% $$$#$",
      "&$$ /",
      "\"$$$$ \"%",
      "&$$$$ $%",
      "!$$ Ę",
      "!$$ Ě",
      "!$$ ě",
      "$$#$$$$ $$\"",
      "$$%$$$$ $$\"",
      "$$%$$$$ $$#$$$#",
      "$* Ĝ",
      "$%& '$$%",
      "$%& !$$&",
      "$#\" %$$",
      "$#\" \"$$$$",
      "$#\" &$$!",
      "$&% %$$\"",
      "$%\" %$$%",
      "($$ $",
      "$\"% #$$\"",
      "$\"% %$$'",
      "$ĝ ě",
      "$$( $$$$",
      "!$$$$ !",
      "$$$ /",
      "$%$$$$# $$$$$$$$",
      "$##$$$$ $##$$$$",
      "$'% %$$&",
      "$&\" &$$#",
      "$&\" !$$#",
      "$!# #$$%",
      "$!# &$$$$",
      "$!# &$$%",
      "$%' %$$#",
      "$%' !$$%",
      "Ā\" %",
      "Ā# )",
      "$!% $$$#",
      "Ġ\" %$$#",
      "$&' %$$&",
      "\"# #$$#",
      "$\"' \"$$%",
      "$\"' &$$%",
      "ĀĀ' Ā)",
      "Ġ& #$$&",
      "ĀĞ #",
      "$&( #$$&",
      "$(& $$$%",
      "$#$$$$$$# %$$$$",
      "'$$! $",
      "*$$ +",
      "#$$) $",
      "$Ě %",
      "&\" #$$#",
      "$#$$$$$$% %",
      "$#$$$$$$% #$$$$",
      "+$$ $)",
      "%$$$$& %$$$$",
      "! %$$$$",
      "# \"$$#",
      "# $$$$$$$$$$$$$$$$",
      "& $$$#",
      "* ğ",
      "+ \"",
      "+ -",
      ", #",
      "/ *",
      "ę ğ",
      "Ĝ $$ğ",
      "ğ %$$\"",
      "Ġ \"$$&",
      "Ġ $#$$#",
      "Ġ #$$'",
      "Ġ $$$$%#",
      "Ġ $(#",
      "Ġ $\"(",
      "$% $$$#",
      "$% $$)",
      "$% $#$$!",
      "$% &$$$\"",
      "$# %$$$!",
      "$$% #$$\"",
      "$& $!",
      "$& &$$%",
      "$& $$(",
      "$& $$$$%%",
      "$& $\"$$&",
      "$\" #$$$$$",
      "$\" &$$$'",
      "#$$$$ &&",
      "%$$$$ \"%",
      "%$$$$ '&",
      "$$$# $$",
      "$$$% $$",
      "$' $!$$$$",
      "$! Ě",
      "$! #$$$&",
      "$$' &$$&",
      "%$$# $$#",
      "%$$ $ğ",
      "#$$ $)",
      "$#$$$$ %$$$$$$%",
      "$%$$$$ $$!",
      "$%$$$$ #$$$$$$#",
      "$%% !$$#",
      "$%% \"$$'",
      "$#% '$$#",
      "$%# $$$$$$$$",
      "$%# !$$%",
      "$) $$&",
      "&$$ ę",
      "'$$ /",
      "$* $",
      "$Ğ Ĝ",
      "$Ğ $$&",
      "$$$$$$$$$$$$ #$$$$",
      "$#\" ($$#",
      "$&% \"$$\"",
      "$%\" %$$",
      "($$ $+",
      "$\"% !$$%",
      "$\"% '$$#",
      "$\"% $$$%$",
      "$#& &$$#",
      "#$$$$% #$$$#",
      "%$$$$% #$$$#",
      "$&& !$$&",
      "$\"\" &$$$$",
      "$\"\" %$$&",
      "$\"\" '$$#",
      "'$$$$ &%",
      "$$$%$$$$ $$\"",
      "$$$#$$$$ $%",
      "$\"& '$$%",
      "$%$$$$% $$$$$$$$",
      "$'% &$$#",
      "$'% &$$%",
      "$#$$$$# $$$$$$$$",
      "ğ$$ ě",
      "ğ$$ $Ğ",
      ")$$ $+",
      "$#! \"$$#",
      "Ā\" )",
      "Ġ\" &$$#",
      "Ā& ğ",
      "$!\" #$$%",
      "$!\" %$$\"",
      "$!\" \"$$#",
      "$!\" '$$#",
      "$'& #$$$$",
      "$'& &$$%",
      "ĀĀ! Ā*",
      "ĀĀ& Ā*",
      "\"# &$$#",
      "$\"' &$$&",
      "$!& %$$&",
      "$!& &$$&",
      "Ā( !",
      "$&! #$$\"",
      "$&! \"$$\"",
      "$$$$## %$$#",
      "$- (",
      "$!! &$$#",
      "$(# %$$#",
      "$'! $$$#",
      "Ğ$$ -",
      "ĀĀĝ Āğ",
      "$$$$$$$$% #$$$$",
      "$$$$$$$$% %$$$$",
      "$$$$$$$$% #$$$#",
      "$. &",
      "$%$%$$# $",
      "+$$ Ĝ",
      "ĠĞ $$$$",
      "$ĀĀ Ě",
      "%$$$$## #$$$$",
      "%$$$$## #$$#",
      "ĀĀ+ Āğ",
      "'$$( $",
      "#$$$$## %$$$$",
      "%$$$$%# %$$#",
      "#$$$$%# #$$#",
      "ĀĀĘ Ā",
      "! #$$\"",
      "# #$$%",
      "# #$$\"",
      "% #$$&",
      "' Ğ",
      "* $$Ğ",
      "+ &",
      ", )",
      "Ā .",
      "Ā ě",
      "Ě $$\"",
      "Ĝ '",
      "ĝ *",
      "ĝ $$)",
      "ĝ $$*",
      "ğ #$$\"",
      "ğ $$%$",
      "Ġ $#%",
      "Ġ $#$$%",
      "Ġ ($$$$",
      "Ġ $%(",
      "Ġ $#(",
      "Ġ Āĝ",
      "Ġ $%ğ",
      "$% ($$$'",
      "$# $$ğ",
      "$$% '$$%",
      "$& !$$",
      "$& $'$$#",
      "$\" $!$$%",
      "$\" %$$$'",
      "$\" $#$$'",
      "$$\" #$$!",
      "$$$$$$$$ $%$$$%",
      "$$$% $$$$%#",
      "$' $&$$%",
      "$$! %$$%",
      "$$! %$$!",
      "$( #$$$$",
      "$( $$'",
      "$( '$$$$",
      "$( %$$$&",
      "#$$ ($$%",
      "$#$$$$ $%$$$$",
      "$## $$$$$$$$$$$$$$$$",
      "$## '$$\"",
      "$## &$$!",
      "$%% $$$$$$$$",
      "$%% #$$$$$%",
      "$#% $$$$$$$$",
      "$#% !$$$$",
      "$%# %$$&",
      "$%# &$$!",
      "$) -",
      "$ğ -",
      "$$%$$$$ $$&",
      "$* $$\"",
      "$&% !$$#",
      "$\"# \"$$%",
      "$%\" '$$\"",
      "$&# '$$#",
      "$\"% \"$$#",
      "$&& #$$'",
      "$\"\" \"$$$$",
      "$\"\" \"$$%",
      "'$$$$ '",
      "$$$#$$$$ &",
      "$&$$$$ '",
      "$%$$$$# $#$$$$",
      "$\"& %$$$$",
      "$\"& #$$#",
      "$'% %$$\"",
      "$'% \"$$&",
      "$'% !$$$$",
      "$%' !$$&",
      "$%! #$$!",
      "$!% &$$&",
      "$!% '$$%",
      "ĀĀ$ Ā*",
      "$, +",
      "$, ĝ",
      "ĀĀ\" Ā%",
      "$#' \"$$%",
      "$#' %$$'",
      "Ā! %",
      "Ġ\" $$$%",
      "$\"! &$$#",
      "Ā' Ğ",
      "Ġ% '$$%",
      "ĀĀ& Ā)",
      "$'\" !$$#",
      "$$$%$$# %$$#",
      "\"# #$$%",
      "($$$$ &",
      "$$$$#% #$$%",
      "$ě )",
      "$$$$## #$$#",
      "Ġ! ĀĀ",
      "ĀĀ' Ā(",
      "$$$' $$\"",
      "$- &",
      "$- '",
      "$- ğ",
      "$%$$$$$$$$ #$$$$",
      "Ā) '",
      "$#( #$$%",
      "$%$#$$$$ \"",
      "$%$#$$$$ &",
      "$(& \"$$%",
      "$!' %$$%",
      "Ğ$$ ě",
      "Ġ$$' $",
      "&$$$$% \"",
      "$Ě #",
      "ĝ$$ ,",
      "&' $$$%",
      "+$$ ,",
      "+$$ ĝ",
      "Ġ$& $$&",
      "\"! %$$#",
      "#$$$$#% %$$%",
      "$#$$$$& $",
      "( Ğ",
      "( &$$%",
      "( %$$&",
      "( $$$$%%",
      "( ĀĀ$Ā",
      "* &",
      ", !",
      ", $$'",
      ", $$(",
      "- .",
      "- Ğ",
      "/ -",
      "ę #",
      "ę $$&",
      "Ě '",
      "Ě )",
      "Ě $$&",
      "ě ě",
      "ě Ğ",
      "Ĝ Ĝ",
      "ĝ $$Ğ",
      "Ġ $'$$$$",
      "Ġ &$$$'",
      "$$ ($$$&",
      "$% $&$$$$%",
      "$# &$$$(",
      "$$# $$$",
      "$$# $$$%$",
      "$$% '$$&",
      "$& #$$",
      "$& #$$&",
      "$& $%$$$$%",
      "$& $\"$$$$%",
      "$& #$$$&",
      "$& $&$$&",
      "$\" .",
      "$\" $$$$$$$$$$$$",
      "$\" '$$$'",
      "$\" $($$#",
      "$\" $($$%",
      "$$\" !$$$$",
      "$$\" &$$!",
      "%$$$$ $%%$$$$",
      "%$$$$ &\"",
      "$' .",
      "$' \"$$$$",
      "$! $#$$&",
      "$! %$$$'",
      "$! $&$$&",
      "$! '$$$'",
      "$$! '$$\"",
      "$$! &$$!",
      "$$' $$#",
      "$$' %$$#",
      "$( $%$$#",
      "$( $#$$%",
      "$( $#$$#",
      "$( $#$$\"",
      "$## #$$$$$%",
      "$%% !$$&",
      "$%% %$$%$",
      "$#% #$$\"",
      "$#% &$$'",
      "$#% &$$$$#",
      "$%# \"$$!",
      "$) $$!",
      "$) $$$$#",
      "\"$$$$ &#",
      "&$$$$ $\"",
      "&$$$$ \"%",
      "'$$ $",
      "$Ğ ě",
      "$%& \"$$'",
      "$#\" &$$%",
      "$#\" '$$\"",
      "$#\" $$$#$",
      "Ġ$$ Ě",
      "$%\" #$$&",
      "$#& \"$$'",
      "#$$$$# $%$$$$%",
      "%$$$$# $$$$$$$$",
      "$ĝ Ĝ",
      "$&& &$$&",
      "$&& \"$$'",
      "$\"\" !$$#",
      "$\"\" '$$\"",
      "'$$$$ !",
      "$$$$$$$$$$$$$$$$ $$$$#",
      "$%$$$$% $#$$$$#",
      "$&\" #$$%",
      "$!# \"$$%",
      "$!# %$$&",
      "$%' #$$'",
      "$%' '$$%",
      "ğ$$ Ě",
      "$#! %$$$$",
      "$#! &$$!",
      "$%! &$$!",
      "$, Ğ",
      "$\"! '$$\"",
      "Ġ# #$$%",
      "Ġ# #$$#",
      "$$) $$$&",
      "Ġ% #$$%",
      "$'& #$$#",
      "$'& \"$$&",
      "$'\" #$$!",
      "$$$%$$# #$$#",
      "$$$#$$# #$$$$",
      "$\"' \"$$&",
      "Ġ& $$$%",
      "$$$' $",
      "$- !",
      "$'' %$$&",
      "$!$$$$ $$#",
      "$#$$$$$$$$ %$$$$",
      "$!! %$$!",
      "&& %$$%",
      "$!' #$$&",
      "ĀĀ( Ā&",
      "ĀĀĞ ĀĞ",
      "$(\" %$$\"",
      "$#$#$$$$ &",
      "$$$$$$$$% #",
      "$(' \"$$&",
      "Ā* %",
      "Ā* '",
      "$$$$$$$$# %$$$%",
      "$%$#$$# $",
      "ĝ$$ Ĝ",
      "$ĀĀ -",
      "\"$$) $",
      "Ĝ$$ ĝ",
      "#$$$$## #$$$$",
      "!$$( $",
      "#$$$$%% %$$$$",
      "#$$$$%% #$$%",
      "#$$* $",
      "%$$$$#% #$$$$",
      "!$$$$# \"",
      "! %$$!",
      "\" &$$\"",
      "$ Ĕ",
      "$ ĀĀ%Ā",
      "% ğ",
      "% #$$#",
      "& $$$$$$$$",
      "& $$$%$",
      "' &$$$$",
      "' '$$%",
      "( %$$%",
      ") Ğ",
      ") $$$$%",
      "+ ğ",
      "+ $$)",
      ". '",
      "Ę !",
      "ę $$!",
      "Ě $$!",
      "ě &",
      "Ġ \"$$'",
      "Ġ !$$&",
      "Ġ $(%",
      "Ġ $$$#$",
      "Ġ !$$$\"",
      "Ġ ĀĀ\"Ā",
      "Ġ $)#",
      "Ġ $'$$%",
      "$$ $($$$$",
      "$% $$ğ",
      "$% %$$$!",
      "$# $$)",
      "$# \"$$$",
      "$# #$$$'",
      "$$# $$$%$$%",
      "$$# &$$$$#",
      "$& Ě",
      "$& %$$&",
      "$& '$$$'",
      "$\" &$$",
      "$\" #$$\"",
      "$\" $\"$$&",
      "$\" #$$$!",
      "$\" $&$$\"",
      "$$& !$$'",
      "$$& $$$(",
      "$$$$$$$$ #$$$$#",
      "#$$$$ $$$#$$$$",
      "%$$$$ $$%%$$$$",
      "%$$$$ $$##$$$$",
      "%$$$$ !#",
      "$$$# $$#$$$#",
      "$' Ě",
      "$' #$$&",
      "$$! !$$#",
      "$$$$# &",
      "$( #$$$#",
      "$( #$$$\"",
      "$( $%$$\"",
      "%$$ $*",
      "$## \"$$$$%",
      "$#% ($$%",
      "\"$$ Ę",
      "$ğ $",
      "$ğ $$!",
      "\"$$$$ (",
      "'$$ ę",
      "$$#$$$$ $%#$$$$",
      "$* $$#",
      "Ġ$$ /",
      "Ġ$$ ę",
      "$\"# !$$#",
      "$\"# '$$\"",
      "$%\" #$$",
      "($$ $!",
      "$\"% \"$$&",
      "$\"% #$$'",
      "$ĝ -",
      "$+ ,",
      "%$$$$% $%$$$$",
      "$\"\" \"$$\"",
      "!$$$$ &%",
      "$$$%$$$$ $#",
      "$$$#$$$$ $$%$$$$$$$$",
      "$'% #$$\"",
      "#$$! $'",
      "$$#$$$# $##$$$$",
      "$&\" $$$%",
      "$$%$$$% $$#$$$$",
      "ğ$$ -",
      "Ā\" \"",
      "$%! %$$",
      "$, $$$$",
      "ĀĀ# Ā%",
      "$#' !$$%",
      "Ġ\" #$$\"",
      "$&' &$$%",
      "$$$$%% #$$%",
      "\"# #$$$$",
      "$\"' '$$%",
      "$&! %$$!",
      "$ě Ğ",
      "$%( %$$&",
      "$!$$$$ $$%",
      "$(% %$$#",
      "$!! #$$#",
      "ĀĀğ Ā%",
      "$(& #$$%",
      "$(# \"$$#",
      "$'! %$$\"",
      "$!' $$$%",
      "ĀĀ( Āĝ",
      "Ğ$$ $Ğ",
      "ĀĀ) Ā!",
      "ĀĀ) Āĝ",
      "Ġğ $$$$",
      "Ġğ $$!",
      "Ā* \"",
      "$$$$$$$$# #$$$#",
      "$. )",
      "%$$$$$$% $$%",
      "$#$$$$$$% $$$$%",
      "ğ$$# $",
      "%$$$$$$# $$#",
      "%$$$$$$# $$$$%",
      "$ĀĀ .",
      "$\"ğ %$$\"",
      "$#\"$$$$ $",
      "#$$$$## %$$#",
      "Ā+ %",
      "$\"$%$$% $",
      "$#$& $$'",
      "$$$$$$$$$$$$$$$$$$$$ $$",
      "$ ĀĀ$Ā",
      "% (",
      "% %$$#",
      "' %$$'",
      "( $$$%",
      "* )",
      "+ /",
      ", ğ",
      ", $$Ğ",
      "- /",
      "- $$%",
      "Ā $",
      "Ā /",
      "Ā $%",
      "ę \"",
      "Ě Ĝ",
      "ě '",
      "Ĝ $$Ğ",
      "ĝ Ğ",
      "Ġ Ġ",
      "Ġ $#$$$$",
      "Ġ &$$&",
      "Ġ #$$$\"",
      "Ġ $!&",
      "Ġ $$$$##",
      "Ġ Ğ$$",
      "Ġ Ā*",
      "Ġ !$$ğ",
      "$% $&$$$$#",
      "$# Ě",
      "$# #$$$$#",
      "$$# \"$$&",
      "$$# '$$$$",
      "$$# $$$#$$$$$$#",
      "$& !$$$$",
      "$& ($$$$",
      "$\" $&$$$$#",
      "$\" $($$$$",
      "$\" $'$$&",
      "$$\" $$$$#",
      "$$\" '$$\"",
      "$$\" !$$\"",
      "$$\" $$$#$$%",
      "$$& %$$\"",
      "$$& \"$$#",
      "$$& $$$%$$%",
      "#$$$$ $%#$$$$",
      "ĀĀ đ",
      "$$$# $ğ",
      "$$$# $$%$$$$",
      "$' $\"$$&",
      "$! \"$$$&",
      "$$' %$$$$",
      "$$' '$$%",
      "$( \"$$$\"",
      "$#$$$$ #$$$$$$",
      "$## \"$$&",
      "$## #$$'",
      "$## $$$%$",
      "$%% $$&",
      "$%% '$$#",
      "$%% %$$$$$$$$",
      "$%% #$$$$$#",
      "$#% $$$%$$%",
      "$#% ($$#",
      "$#% '$$&",
      "$#% ($$$$",
      "$%# %$$$$#",
      "$) .",
      "$) ě",
      "$) $$",
      "$) ĀĀ",
      "\"$$$$ $$",
      "\"$$$$ $%",
      "&$$$$ $$",
      "'$$ $+",
      "$* -",
      "$Ğ -",
      "$%& $$$%$",
      "$#\" #$$&",
      "$&% '$$#",
      "Ġ$$ ě",
      "$\"# %$$!",
      "$\"# #$$!",
      "$\"# ($$#",
      "$%\" \"$$%",
      "$&# #$$&",
      "$&# &$$%",
      "$\"% \"$$$$",
      "$\"% %$$$$#",
      "$#& !$$&",
      "$#& '$$&",
      "$#& #$$(",
      "$$$\" $$!",
      "%$$$$% $",
      "$&& %$$'",
      "$&& $$$%$",
      "$\"\" &$$%",
      "$\"\" ($$#",
      "'$$$$ &#",
      "$$$%$$$$ \"",
      "$$$$$$$$$$$$$$$$ $$$$$$$$$$$$$",
      "$#$$$$% %$$$$",
      "$%$$$$% $%$$$$",
      "$&\" %$$$$",
      "$&\" %$$!",
      "$&\" !$$\"",
      "ğ$$ /",
      "$#! #$$%",
      "$!% &$$#",
      "$!% #$$&",
      "Ġ\" \"$$#",
      "$\"! &$$\"",
      "Ā& !",
      "$!\" %$$$$",
      "$!\" &$$\"",
      "Ġ# &$$#",
      "Ġ% \"$$%",
      "$'& !$$%",
      "ĀĀ& Ā(",
      "$'\" &$$#",
      "$$$$%% %$$%",
      "%$$$& $",
      "$!& %$$'",
      "$&! \"$$#",
      "$$$$## #$$$$",
      "Ġ& %$$&",
      "$$$$%# #$$$$",
      "$$$$%# #$$#",
      "$(% #$$%",
      "Ā) #",
      "Ā) )",
      "$#( #$$&",
      "$#( \"$$&",
      "$#$%$$$$ &",
      "$'$$$$ !",
      "\"\" %$$$$",
      "$'! #$$#",
      "$'! %$$!",
      "$#$$$$$$# #",
      "$#$$$$$$# #$$$$",
      "#$$ğ $",
      "ĀĀĝ ĀĞ",
      "ĀĀĝ Āĝ",
      "*$$ ě",
      "Ġ$ /",
      "%$$ğ $",
      "$(' %$$%",
      "$\"( %$$&",
      "!$$! $",
      "&$$$$% &",
      "#$$$$$$# $$#",
      "'$$$& $",
      "ĀĀ* Ā#",
      "&' #$$%",
      "+$$ $*",
      "$ĀĀ ,",
      "$ĀĀ ę",
      "ĀĀĜ Āğ",
      "%$$$$%% %$$$$",
      "$$$%$$$$$$$$ $$$%",
      "$$$%$$$$$$$$ $$$$%",
      "Ĝ$$ Ĝ",
      "!\" $$$#",
      "$$#$$$$$$% $$$$$$$$$$$$",
      "$$$( $$#",
      "%$$$$#% #$$%",
      "!$$) $",
      "$%$$$$$$$% $$$%",
      "! &$$\"",
      "! \"$$\"",
      "! \"$$!",
      "\" ě",
      "\" $(",
      "\" #$$%",
      "\" $$$#$",
      "# $%",
      "$ ĀĀ#Ā",
      "+ .",
      ", +",
      ", .",
      ". !",
      "Ę #",
      "Ę $",
      "ę !",
      "ę $$\"",
      "Ě \"",
      "Ě *",
      "Ě $$'",
      "ě $$!",
      "Ĝ (",
      "Ĝ $$*",
      "ĝ (",
      "Ġ &$$$&",
      "Ġ $!(",
      "Ġ $\"ğ",
      "Ġ $#)",
      "Ġ $)\"",
      "Ġ ($$ğ",
      "$$$$ $",
      "$% '$$",
      "$% $$+",
      "$# $!",
      "$# $%$$!",
      "$# ($$$'",
      "$# $#$$",
      "$# '$$$(",
      "$# %$$$(",
      "$$# \"$$$$%",
      "$$% ($$%",
      "$$% \"$$$$%",
      "$& %$$",
      "$& $$$%$",
      "$& %$$$$$$%",
      "$& $&$$\"",
      "$& &$$$\"",
      "$& #$$$",
      "$& $'$$\"",
      "$\" $'",
      "$$\" '$$!",
      "$$\" #$$\"$",
      "$$$$$$$$ $#$$$#",
      "#$$$$ &#",
      "#$$$$ $$%%$$$$",
      "%$$$$ $\"",
      "ĀĀ ;",
      "ĀĀ <",
      "$$$% $!",
      "$' \"$$%",
      "$' ($$$$",
      "$! $&",
      "$! $$$#",
      "$! $\"$$$$",
      "$! &$$$'",
      "$$! $$$",
      "$$' $$%",
      "$( Ě",
      "$( $\"$$\"",
      "#$$ $Ğ",
      "$%$$$$ (",
      "$## $$$#$$%",
      "$## %$$$$$#",
      "$## $$$#$$$$$$#",
      "$## $$$$$$$$$$$",
      "$%% %$$!",
      "$%% \"$$$$#",
      "$#% #$$(",
      "$%# \"$$$$#",
      "\"$$ $Ğ",
      "\"$$ $ĝ",
      "\"$$$$ &%",
      "!$$ $(",
      "!$$ $ĝ",
      "$$#$$$$ $$#$$$#",
      "$$%$$$$ $%#$$$$",
      "$%& !$$$$",
      "$%& '$$&",
      "$\"# #$$$$#",
      "$\"# \"$$\"",
      "$%\" \"$$!",
      "$&# &$$$$",
      "$&# !$$%",
      "$#& $$$%$",
      "$#& &$$'",
      "$#& ($$%",
      "$#& %$$%$",
      "$$$& $$'",
      "%$$$$# $%$$%",
      "#$$$$% '",
      "#$$$$% $#$$$$",
      "$ĝ Ě",
      "$$( &$$%",
      "$&& &$$#",
      "$\"\" #$$&",
      "$\"\" !$$$$",
      "$\"\" $$$#$",
      "!$$$$ \"%",
      "$$$#$$$$ $$&",
      "$%$$$$# $%$$$$",
      "$#$$$$% $%$$$$",
      "$%%$$$$ $#%$$$$",
      "$\"& \"$$'",
      "$#$$$$# %",
      "$#$$$$# $%$$$$%",
      "$$#$$$# $$%$$$$",
      "$!# %$$\"",
      "$!# #$$\"",
      "$!# &$$\"",
      "$!# '$$#",
      "$!# '$$%",
      "$!# %$$'",
      "$#! %$$!",
      "Ā\" '",
      "$%! '$$#",
      "$%! !$$#",
      "$'# !$$#",
      "$, ,",
      "$, .",
      "$Ĝ Ĝ",
      "$%#$$$$ $%%$$$$",
      "$#' '$$&",
      "Ā! &",
      "Ġ\" #$$%",
      "Ā& #",
      "Ā& )",
      "$!\" #$$\"",
      "$&' &$$&",
      "$&' #$$'",
      "Ā' !",
      "Ġ% %$$&",
      "$'& $$$#",
      "$&! &$$#",
      "Ġ! $$$#",
      "Ġ& #$$%",
      "$- ,",
      "$'' #$$&",
      "$(% $$$%",
      "$(% #$$&",
      "$!! &$$\"",
      "ĀĀğ Ā'",
      "ĀĀğ Ā*",
      "Ġ$$\" $",
      "Ā) !",
      "$'! #$$\"",
      "$!' %$$&",
      "$#$$$$$$# $$$$$$$$$$$$",
      "ĀĀĞ Ā%",
      "ĀĀ) ĀĞ",
      "$\"( %$$%",
      "$\"$$$$% $",
      "$%$$$$$$% #",
      "$. #",
      "$. ğ",
      ")$$# $",
      "$#$$$$$$% $$$$#",
      "$#$$$$$$% #$$$#",
      "$%) %$$&",
      "ĀĀ* Āğ",
      "#$$$$$# $$$$$$$$$$$$",
      "ĀĀ\"Ā ,",
      "Ĝ$$ ,",
      "$%&$$$$ $",
      "\"$$ğ $",
      "$$%$$$$$$$$ $$$$$$$$$$$$",
      "%$$* $",
      "Ġ$' Ğ",
      "ĀĀ- Ā\"",
      "'$$$$% \"",
      "$&$#$$# $",
      "$%$$$$\" $",
      "Ġ#$$ ĝ",
      "$$$#$$$$# #$$$$",
      ",$$ $)",
      "%# %",
      "$%$$$$$$%$$$$ $$",
      "# \"",
      "# &$$$$",
      "% '",
      "% &$$$$",
      "& %$$#",
      "' ĀĀ#Ā",
      "' ĀĀ%Ā",
      "( &$$&",
      ") $$$&",
      ") $$%$",
      ") ĀĀ%Ā",
      "* Ğ",
      "* $$$$#",
      "+ ĝ",
      "+ $$ğ",
      "- (",
      ". &",
      ". ğ",
      "Ā $\"",
      "Ę Ğ",
      "Ě ĝ",
      "Ě Ğ",
      "Ě $$#",
      "ě *",
      "Ĝ ě",
      "Ġ $#&",
      "Ġ $ĝ",
      "Ġ %$$'",
      "Ġ $!!",
      "Ġ $&(",
      "Ġ $!ğ",
      "Ġ ĀĀ'Ā",
      "Ġ '$$Ğ",
      "$$ )$$$'",
      "$% #$$#",
      "$% #$$%$",
      "$% !$$$",
      "$% $$$$$$$$$$$$$$$$$$",
      "$# '$$",
      "$$# &$$",
      "$$# #$$!",
      "$$# &$$!",
      "$$% &$$\"",
      "$$% &$$$$%",
      "$$% %$$$$%%",
      "$& ($$$&",
      "$& $#$$'",
      "$& $!$$&",
      "$\" $$ğ",
      "$\" %$$$$$",
      "$\" $\"$$\"",
      "$\" ($$$&",
      "$$\" $$$",
      "$$\" ($$#",
      "$$\" %$$#$",
      "$$& '$$$$",
      "$$& '$$#",
      "$$& &$$'",
      "#$$$$ %$$#",
      "#$$$$ $##$$$$",
      "#$$$$ \"\"",
      "%$$$$ !\"",
      "$$$# $$%$$$%",
      "$$$% $$#$$$#",
      "$$$% $$%$$$%",
      "$' %$$%",
      "$' &$$%",
      "$' $#$$&",
      "$' #$$$!",
      "$' $\"$$\"",
      "$! %$$\"",
      "$! \"$$#",
      "$! $%$$\"",
      "$! $%$$'",
      "$$! '$$#",
      "$$' &$$'",
      "$( $\"$$#",
      "%$$ ($$",
      "#$$ Ę",
      "#$$ $(",
      "$#$$$$ &%",
      "$%$$$$ $%%$$$$",
      "$%$$$$ $##$$$$",
      "$## $$$#$$#",
      "$%% &$$'",
      "$%% #$$$$##",
      "$#% !$$#",
      "$#% \"$$'",
      "$#% \"$$$$#",
      "$#% )$$$$",
      "$%# ($$#",
      "$%# !$$\"",
      "$ğ $%$$%",
      "\"$$% $'",
      "'$$ Ę",
      "&$$# $#%",
      "!$$ $'",
      "$* $$%",
      "$Ğ Ě",
      "$%& &$$#",
      "$%& \"$$#",
      "$%& &$$\"",
      "$%& '$$$$",
      "$%& #$$%$",
      "$#\" %$$&",
      "$#\" %$$$$%",
      "$&% !$$&",
      "Ġ$$ Ę",
      "$%\" %$$&",
      "$%\" ($$#",
      "$%\" !$$\"",
      "$%\" $$$#$",
      "$$$\" $$$$$$%",
      "#$$$$# %$$$$",
      "%$$$$# !",
      "%$$$$% '",
      "$$( %$$%",
      "$$( \"$$%"
    ]
  }
}