{
  "version": "1.0",
  "truncation": null,
  "padding": null,
  "added_tokens": [],
  "normalizer": null,
  "pre_tokenizer": {
    "type": "ByteLevel",
    "add_prefix_space": false,
    "trim_offsets": true,
    "use_regex": true
  },
  "post_processor": {
    "type": "ByteLevel",
    "add_prefix_space": true,
    "trim_offsets": false,
    "use_regex": true
  },
  "decoder": {
    "type": "ByteLevel",
    "add_prefix_space": true,
    "trim_offsets": true,
    "use_regex": true
  },
  "model": {
    "type": "BPE",
    "dropout": null,
    "unk_token": null,
    "continuing_subword_prefix": null,
    "end_of_word_suffix": null,
    "fuse_unk": false,
    "byte_fallback": false,
    "ignore_merges": false,
    "vocab": {
      "\u0000": 0,
      "\u0001": 1,
      "\u0002": 2,
      "\u0003": 3,
      "\u0004": 4,
      "\u0005": 5,
      "\u0006": 6,
      "\u0007": 7,
      "\b": 8,
      "\t": 9,
      "\n": 10,
      "\u000b": 11,
      "\f": 12,
      "\r": 13,
      "\u000e": 14,
      "\u000f": 15,
      "\u0010": 16,
      "\u0011": 17,
      "\u0012": 18,
      "\u0013": 19,
      "\u0014": 20,
      "\u0015": 21,
      "\u0016": 22,
      "\u0017": 23,
      "\u0018": 24,
      "\u0019": 25,
      "\u001a": 26,
      "\u001b": 27,
      "\u001c": 28,
      "\u001d": 29,
      "\u001e": 30,
      "\u001f": 31,
      " ": 32,
      "!": 33,
      "\"": 34,
      "#": 35,
      "$": 36,
      "%": 37,
      "&": 38,
      "'": 39,
      "(": 40,
      ")": 41,
      "*": 42,
      "+": 43,
      ",": 44,
      "-": 45,
      ".": 46,
      "/": 47,
      "0": 48,
      "1": 49,
      "2": 50,
      "3": 51,
      "4": 52,
      "5": 53,
      "6": 54,
      "7": 55,
      "8": 56,
      "9": 57,
      ":": 58,
      ";": 59,
      "<": 60,
      "=": 61,
      ">": 62,
      "?": 63,
      "@": 64,
      "Ā": 65,
      "ā": 66,
      "ă": 67,
      "Ą": 68,
      "ą": 69,
      "Ć": 70,
      "ć": 71,
      "Ĉ": 72,
      "ĉ": 73,
      "Ċ": 74,
      "ċ": 75,
      "Č": 76,
      "č": 77,
      "Ď": 78,
      "ď": 79,
      "Đ": 80,
      "đ": 81,
      "Ē": 82,
      "ē": 83,
      "Ĕ": 84,
      "ĕ": 85,
      "Ė": 86,
      "ė": 87,
      "Ę": 88,
      "ę": 89,
      "Ě": 90,
      "ě": 91,
      "Ĝ": 92,
      "ĝ": 93,
      "Ğ": 94,
      "ğ": 95,
      "Ġ": 96,
      "ĠĠ": 97,
      "Ġ!": 98,
      "Ġğ": 99,
      "ĠĠĠĠ": 100,
      "Ġ\"": 101,
      "ĠĞ": 102,
      "ĠĠĠ": 103,
      "ĀĀ": 104,
      "Ġĝ": 105,
      "Ġ#": 106,
      "Ġ$": 107,
      "ĠĠĠĠĠ": 108,
      "ĠĜ": 109,
      "Ġě": 110,
      "Ġ!!": 111,
      "Ġğğ": 112,
      "Ġ!ğ": 113,
      "ĠĠĠĠĠĠĠĠ": 114,
      "Ġ%": 115,
      "Ġğ!": 116,
      "Ġ&": 117,
      "ĠĚ": 118,
      "Ġ\"!": 119,
      "Ġ'": 120,
      "ĠğĞ": 121,
      "ĠĞğ": 122,
      "Ġ!\"": 123,
      "ĠĞ!": 124,
      "Ġę": 125,
      "Ġ\"ğ": 126,
      "Ġ!Ğ": 127,
      "Ġğ\"": 128,
      "ĠĠĠĠĠĠ": 129,
      "ĠĘ": 130,
      "Ġ(": 131,
      "Ġ\"\"": 132,
      "Āğ": 133,
      "Ā!": 134,
      "ĠĞĞ": 135,
      "Ġ\"Ğ": 136,
      "Ā\"": 137,
      "ĠĞ\"": 138,
      "ĀĀğ": 139,
      "Ġ#!": 140,
      "ĀĞ": 141,
      "Ġ#ğ": 142,
      "ĀĀ!": 143,
      "ĀĀĞ": 144,
      "Ġĝğ": 145,
      "Ġ)": 146,
      "Ġė": 147,
      "Ā#": 148,
      "Ġĝ!": 149,
      "Ġ!ĝ": 150,
      "Ġ!#": 151,
      "Āĝ": 152,
      "Ġğ#": 153,
      "ĀĜ": 154,
      "Ġğĝ": 155,
      "ĀĀĝ": 156,
      "ĀĀ\"": 157,
      "Ġğğ!": 158,
      "Ġ!!ğ": 159,
      "Ā$": 160,
      "ĠĠĠĠĠĠĠ": 161,
      "Ġ!ğğ": 162,
      "Ġ*": 163,
      "Ġ\"#": 164,
      "Ġ#\"": 165,
      "Ġğ!!": 166,
      "ĀĀ#": 167,
      "ĀĀĜ": 168,
      "Āě": 169,
      "ĠĖ": 170,
      "Ā%": 171,
      "Ġ\"ĝ": 172,
      "ĠĝĞ": 173,
      "Ġ!!!": 174,
      "Ġ#Ğ": 175,
      "Ġĝ\"": 176,
      "Ġ!ğ!": 177,
      "ĠĞ#": 178,
      "ĠĞĝ": 179,
      "ĠĠĠĠĠĠĠĠĠĠĠ": 180,
      "Ġğğğ": 181,
      "Ĝ!": 182,
      "Ġğ!ğ": 183,
      "ĠĠĠĠĠĠĠĠĠĠĠĠ": 184,
      "Ā&": 185,
      "$ğ": 186,
      "ĀĀě": 187,
      "Ĝğ": 188,
      "ğğ": 189,
      "Ġ+": 190,
      "$!": 191,
      "ĀĚ": 192,
      "ĀĀ$": 193,
      "Ġĝĝ": 194,
      "!!": 195,
      "Ġ$\"": 196,
      "ĀĀĚ": 197,
      "Ĝ\"": 198,
      "$\"": 199,
      "ĀĀ%": 200,
      "Ġ##": 201,
      "Ğ!": 202,
      "$Ğ": 203,
      "!ğ": 204,
      "ĜĞ": 205,
      "Ġ$ğ": 206,
      "Ġ#ĝ": 207,
      "ĠĠĠĠĠĠĠĠĠĠ": 208,
      "Ġĕ": 209,
      "ĀĀ&": 210,
      "Ā'": 211,
      "Ġĝ#": 212,
      "ĠĜğ": 213,
      "ěğ": 214,
      "ĠĜ\"": 215,
      "Ġ\"!ğ": 216,
      "ĠĞğ!": 217,
      "Ġ!ğĞ": 218,
      "Ğğ": 219,
      "ĀĀ(": 220,
      "ĠĜ!": 221,
      "ĠğĞ!": 222,
      "\"!": 223,
      "Āę": 224,
      "Ġ!!Ğ": 225,
      "Ġ\"ğğ": 226,
      "ě!": 227,
      "Ġ!\"ğ": 228,
      "ĀĀĘ": 229,
      "#ğ": 230,
      "$#": 231,
      "Ĝĝ": 232,
      "Ġ$!": 233,
      "Ĝ#": 234,
      "ĀĀ'": 235,
      "ĝğ": 236,
      "ĠĔ": 237,
      "ĀĀę": 238,
      "ğ!": 239,
      "Ġ,": 240,
      "%!": 241,
      "Ā(": 242,
      "ĝ\"": 243,
      "Ġğğ\"": 244,
      "ĠğĞğ": 245,
      "ĠĞ!!": 246,
      "%ğ": 247,
      "Ğ\"": 248,
      "ě\"": 249,
      "\"ğ": 250,
      "#!": 251,
      "ĀĀė": 252,
      "Ġğ\"!": 253,
      "ĠĠĠĠĠĠĠĠĠĠĠĠĠĠĠĠ": 254,
      "#\"": 255,
      "$ĝ": 256,
      "ĀĘ": 257,
      "ĞĞ": 258,
      "Ġğ!\"": 259,
      "%\"": 260,
      "ĝ!": 261,
      "ĝĞ": 262,
      "Ġ\"!!": 263,
      "Ġ!\"!": 264,
      "Ā)": 265,
      "Ġ!!\"": 266,
      "ĀĀ)": 267,
      "%Ğ": 268,
      "Ğĝ": 269,
      "ĠĞ!ğ": 270,
      "ěĞ": 271,
      "ĀĀĖ": 272,
      "&!": 273,
      "Ěğ": 274,
      "Ġ!Ğğ": 275,
      "\"\"": 276,
      "$$": 277,
      "Ġğ\"ğ": 278,
      "!Ğ": 279,
      "\"Ğ": 280,
      "%#": 281,
      "Ě\"": 282,
      "ĠğğĞ": 283,
      "Āė": 284,
      "!\"": 285,
      "ğĞ": 286,
      "Ġ!Ĝ": 287,
      "ĀĀ+": 288,
      "Ġ!ğ\"": 289,
      "ě#": 290,
      "ĠğĜ": 291,
      "Ġ!Ğ!": 292,
      "ĠĞğğ": 293,
      "ğ\"": 294,
      "Ġ\"!Ğ": 295,
      "#Ğ": 296,
      "ĠĞğ\"": 297,
      "ĝ#": 298,
      "!#": 299,
      "&\"": 300,
      "$ĀĀ": 301,
      "ĠĜĞ": 302,
      "Ġ\"\"ğ": 303,
      "%ĀĀ": 304,
      "Ġ!$": 305,
      "Ġğ!Ğ": 306,
      "'ĀĀ": 307,
      "Ě!": 308,
      "ěĝ": 309,
      "ĠĠĠĠĠĠĠĠĠ": 310,
      "&ĀĀ": 311,
      "ĠĞĞ!": 312,
      "Ġ-": 313,
      "ĠĠĠĠĠĠĠĠĠĠĠĠĠ": 314,
      "ĠĞ!\"": 315,
      "ĀĀğĀ": 316,
      "!ĝ": 317,
      "&ğ": 318,
      "Ġ\"ğ!": 319,
      "Ġ!ĞĞ": 320,
      "%ĝ": 321,
      "ğ#": 322,
      "Ġ#!ğ": 323,
      "ğĝ": 324,
      "%$": 325,
      "Ġ\"ğĞ": 326,
      "Ġğ\"\"": 327,
      "Ġ\"Ğğ": 328,
      "\"#": 329,
      "\"ĝ": 330,
      "(ĀĀ": 331,
      "Ġ.": 332,
      "Ġ!\"Ğ": 333,
      "ĠĞĜ": 334,
      "&Ğ": 335,
      "Ā*": 336,
      "ĠĀĀ": 337,
      "ĠěĞ": 338,
      "ĠĞ\"!": 339,
      "##": 340,
      "ĝĝ": 341,
      "Ġē": 342,
      "ęğ": 343,
      "ĜĜ": 344,
      "Ġğ$": 345,
      "#$": 346,
      "Ěĝ": 347,
      "Ĝ$": 348,
      "Ġ$Ğ": 349,
      "ĠĞĞğ": 350,
      "ĚĞ": 351,
      "ě$": 352,
      "Ġ#ğğ": 353,
      "Ġĝ!!": 354,
      "\"$": 355,
      "ęĞ": 356,
      "Ě#": 357,
      "Ġ\"$": 358,
      "Ġ\"Ğ!": 359,
      "Ġĝğ!": 360,
      "#ĝ": 361,
      "ę!": 362,
      "ěě": 363,
      "ĠğĞ\"": 364,
      "ĀĖ": 365,
      "Ġ!ğĝ": 366,
      "ĚĜ": 367,
      "ĠĞ$": 368,
      "Ġ\"\"!": 369,
      "Ġ!!ĝ": 370,
      "'!": 371,
      "Ġě!": 372,
      "&ĝ": 373,
      "'\"": 374,
      "ěĜ": 375,
      "ĝĜ": 376,
      "ĀĀĕ": 377,
      "#Ĝ": 378,
      "ĠĀ": 379,
      "Ġ\"\"Ğ": 380,
      "'ğ": 381,
      "(\"": 382,
      "ĝ$": 383,
      "ĀĀ,": 384,
      "Ġ%!": 385,
      "%Ĝ": 386,
      "&#": 387,
      "ğĜ": 388,
      "ĀĀĞĀ": 389,
      "Ġ!#ğ": 390,
      "ĠĞğ#": 391,
      "Ġ!\"\"": 392,
      "Ġğ!#": 393,
      "&$": 394,
      "ě%": 395,
      "Ğ#": 396,
      "ĀĀ!Ā": 397,
      "\"%": 398,
      "Ęĝ": 399,
      "Ęğ": 400,
      "Ġ#$": 401,
      "Ġ#!!": 402,
      "Ġğ\"Ğ": 403,
      "ĠĞĞ\"": 404,
      "ĠĞ\"ğ": 405,
      "Ġ!ĝğ": 406,
      "Ġ#\"ğ": 407,
      "ĠĞ!Ğ": 408,
      "Ġĝğğ": 409,
      "ĀĀ\"Ā": 410,
      "'#": 411,
      ")ĀĀ": 412,
      "ĞĜ": 413,
      "Ġğ%": 414,
      "ęĝ": 415,
      "ğě": 416,
      "ĠĒ": 417,
      "Ġğğ#": 418,
      "ĠĞğĞ": 419,
      "Ġ#!Ğ": 420,
      "Ġğ#ğ": 421,
      "ėĞ": 422,
      "Ġğğĝ": 423,
      "Ġ\"!ĝ": 424,
      "ĠğĞ#": 425,
      "&&": 426,
      "*ĀĀ": 427,
      "Ġğě": 428,
      "ĀĀ-": 429,
      "ĠĝĜ": 430,
      "ĠğĞĞ": 431,
      "Ġ\"ĞĞ": 432,
      "\"Ĝ": 433,
      "'Ğ": 434,
      "(!": 435,
      "Ġĝ$": 436,
      "Ġ$ĝ": 437,
      "Ġěğ": 438,
      "ĠĠĠĠĠĠĠĠĠĠĠĠĠĠĠ": 439,
      "Ġ\"!\"": 440,
      "Ġ#ğ!": 441,
      "Ġ#ğĞ": 442,
      "ĀĀĞĀğ": 443,
      "Ġĝ!\"": 444,
      "Ġğĝğ": 445,
      "ĀĀ#Ā": 446,
      "ĠĞĝ!": 447,
      "!$": 448,
      "Ě$": 449,
      "Ĝě": 450,
      "ĝ%": 451,
      "Ġ!%": 452,
      "Ġ\"ğ\"": 453,
      "Ġĝğ\"": 454,
      "!Ĝ": 455,
      "ę\"": 456,
      "ğ%": 457,
      "ĠĜĝ": 458,
      "Ġ!!Ĝ": 459,
      "ĀĀ!Ā!": 460,
      "Ġ!ĝ!": 461,
      "ĀĀĜĀ": 462,
      "ĠĝĞ!": 463,
      "Ę\"": 464,
      "Ěě": 465,
      "Ġ/": 466,
      "Ġğĝ!": 467,
      "ĀĀěĀ": 468,
      "#%": 469,
      "$Ĝ": 470,
      "Ę!": 471,
      "Ğě": 472,
      "ğĚ": 473,
      "ĀĀē": 474,
      "Ġğ!ĝ": 475,
      "\"ě": 476,
      "#&": 477,
      "Ę#": 478,
      "ĠĞ%": 479,
      "Ġ!Ğ\"": 480,
      "Ġ!Ğĝ": 481,
      "Ġ!ĝĞ": 482,
      "&%": 483,
      "Ğ$": 484,
      "ğ$": 485,
      "Ġ\"%": 486,
      "ĠĠĠĠĠĠĠĠĠĠĠĠĠĠĠĠĠĠ": 487,
      "ĠĞ!#": 488,
      "Ġ\"\"ĝ": 489,
      "ĀĀğĀ\"": 490,
      "Ġğ#!": 491,
      "Ġ\"#ğ": 492,
      "!%": 493,
      "ęĜ": 494,
      "ĀĀ*": 495,
      "Ġ\"Ğĝ": 496,
      "ĠĞ\"\"": 497,
      "Ġ!#Ğ": 498,
      "ĀĀĝĀ": 499,
      "ĀĀĝĀ!": 500,
      "Ġ\"#!": 501,
      "Ġ\"#Ğ": 502,
      "Ġ#ĞĞ": 503,
      "'$": 504,
      "(ğ": 505,
      ")!": 506,
      "ę$": 507,
      "Ğ%": 508,
      "ĠĀ!": 509,
      "Ġ!Ě": 510,
      "Ġ!ě": 511,
      "Ġ\"Ĝ": 512,
      "ĠĞě": 513,
      "ĀĀ/": 514,
      "Ġ#Ĝ": 515,
      "Ġ$ğğ": 516,
      "Ġ$!ğ": 517,
      "Ġ!ğ#": 518,
      "Ġ!#!": 519,
      "&Ĝ": 520,
      "ė\"": 521,
      "Ġğ\"#": 522,
      "ĀĀğĀğ": 523,
      "ĀĀ!Āğ": 524,
      "!ě": 525,
      "ėğ": 526,
      "ĠĀğ": 527,
      "ĀĀ.": 528,
      "Ġ!\"ĝ": 529,
      "Ġĝ!ğ": 530,
      "Ġğ#Ğ": 531,
      "Ġ#\"!": 532,
      "'%": 533,
      "(#": 534,
      "(Ğ": 535,
      "ĘĜ": 536,
      "ĘĞ": 537,
      "ĀĀĔ": 538,
      "Ġ!ğĜ": 539,
      "Ġ%ğ": 540,
      "ĀĀ!Āĝ": 541,
      "ĀĀĞĀ!": 542,
      "Ġ#Ğğ": 543,
      "(Ĝ": 544,
      "Ā+": 545,
      "ę%": 546,
      "ęě": 547,
      "ĝĚ": 548,
      "ĠĀĞ": 549,
      "Ġě\"": 550,
      "Ġ\"ğĝ": 551,
      "Ġ\"Ğ\"": 552,
      "ĀĀğĀĞ": 553,
      "ĀĀ!Ā\"": 554,
      "ĀĀĞĀĞ": 555,
      "Ġ!#\"": 556,
      "ĠğĝĞ": 557,
      "Ġĝ\"!": 558,
      "Ġĝ\"ğ": 559,
      "ĠĞ#!": 560,
      "$ě": 561,
      ")ğ": 562,
      "ėĝ": 563,
      "Ġ!&": 564,
      "ĀĀđ": 565,
      "ĠĠĠĠĠĠĠĠĠĠĠĠĠĠĠĠĠĠĠĠ": 566,
      "Ġ\"\"\"": 567,
      "Ġğĝ\"": 568,
      "ĀĀĝĀ\"": 569,
      "Ġ\"ĝ!": 570,
      "Ġĝĝğ": 571,
      "&'": 572,
      ")\"": 573,
      "ęĚ": 574,
      "ĝě": 575,
      "ĀĀĒ": 576,
      "Ġ#%": 577,
      "Ġ$#": 578,
      "Ġ\"ğĜ": 579,
      "Ġ!Ğ#": 580,
      "Ġğ#\"": 581,
      "ĀĀ\"Āğ": 582,
      "'&": 583,
      "(%": 584,
      "(&": 585,
      "Ę$": 586,
      "ę#": 587,
      "Ġ0": 588,
      "ĠĀĝ": 589,
      "Ġ!$ğ": 590,
      "ĠĜ#": 591,
      "Ġ!!#": 592,
      "Ġ\"!Ĝ": 593,
      "ĀĀğĀ#": 594,
      "Ġ#ğĝ": 595,
      "ĀĀ!ĀĞ": 596,
      "Ġ#\"Ğ": 597,
      "Ġ#Ğ!": 598,
      "ĠĜğ\"": 599,
      "!&": 600,
      "%%": 601,
      "'Ĝ": 602,
      "($": 603,
      "ĜĚ": 604,
      "Ġđ": 605,
      "ĠĀ\"": 606,
      "ĠĀĜ": 607,
      "Ġ#ě": 608,
      "Ġ%Ğ": 609,
      "Ġğ!$": 610,
      "ĀĀĝĀ#": 611,
      "ĀĀĜĀ!": 612,
      "Ġ##ğ": 613,
      "\"&": 614,
      "ė!": 615,
      "Ġ\"$ğ": 616,
      "Ġ$Ğ!": 617,
      "ĠĜ!!": 618,
      "Ġ\"!#": 619,
      "ĠğĞĝ": 620,
      "Ġ\"ĞĜ": 621,
      "Ġ#!ĝ": 622,
      "ĀĀĞĀ\"": 623,
      "ĀĀĝĀğ": 624,
      "ĀĀĝĀĞ": 625,
      "Ġ\"ĝğ": 626,
      "Ġ$\"Ğ": 627,
      "$%": 628,
      ",ĀĀ": 629,
      "Ġ\"ě": 630,
      "ĠĜĜ": 631,
      "Ġěĝ": 632,
      "ĠĞ!ĝ": 633,
      "ĠĞ\"Ğ": 634,
      "ĀĀğĀ!": 635,
      "ĀĀ!ĀĜ": 636,
      "ĀĀĞĀĜ": 637,
      "ĀĀ\"Ā!": 638,
      "ĀĀ\"Āĝ": 639,
      "ĀĀ#Ā\"": 640,
      "ĠĞ#\"": 641,
      "Ġĝĝ!": 642,
      "ĀĀ%Ā": 643,
      "''": 644,
      "'ĝ": 645,
      "(ĝ": 646,
      "*!": 647,
      "ĠĀě": 648,
      "Ġ$$": 649,
      "Ġ$Ğğ": 650,
      "Ġ!ğ$": 651,
      "Ġ%\"": 652,
      "ĠĞĞ#": 653,
      "ĠĞĞĞ": 654,
      "ĀĀğĀĜ": 655,
      "Ġĝğ#": 656,
      "ĀĀ#Ā!": 657,
      "ĀĀĚĀ": 658,
      "ĀĀ&Ā": 659,
      "#Ě": 660,
      "#ě": 661,
      "%&": 662,
      "'(": 663,
      ")$": 664,
      "*#": 665,
      "Ėĝ": 666,
      "ĖĞ": 667,
      "Ęę": 668,
      "Ęě": 669,
      "ğ&": 670,
      "ĠĐ": 671,
      "ĠĀ#": 672,
      "Ġ!$!": 673,
      "Ġğ$ğ": 674,
      "ĀĀ!Ā#": 675,
      "Ġ\"ĝ\"": 676,
      "Ġ\"ĝĞ": 677,
      "ĠĝĞ\"": 678,
      "ĠĝĞğ": 679,
      "Ġ$ğĞ": 680,
      "!Ě": 681,
      "+ĀĀ": 682,
      "ęę": 683,
      "ĞĚ": 684,
      "ğ'": 685,
      "ğę": 686,
      "Ġğ$!": 687,
      "ĠĞĜ!": 688,
      "Ġğğ$": 689,
      "ĠĞ\"#": 690,
      "ĀĀĞĀĝ": 691,
      "Ġĝ!#": 692,
      "Ġ!ĝ\"": 693,
      "ĀĀĝĀĝ": 694,
      "ĀĀ\"ĀĞ": 695,
      "Ġ\"#ĝ": 696,
      ")%": 697,
      "Ė!": 698,
      "ėĜ": 699,
      "Ě%": 700,
      "Ě&": 701,
      "ĝ&": 702,
      "ĠĀ$": 703,
      "Ġ!Ĝğ": 704,
      "Ġ\"$Ğ": 705,
      "Ġĝ%": 706,
      "Ġ$%": 707,
      "ĠğğĜ": 708,
      "Ġğ!%": 709,
      "ĠĚğ": 710,
      "ĠğĞĜ": 711,
      "ĠĞ!$": 712,
      "Ġğ\"ĝ": 713,
      "Ġ#ğ\"": 714,
      "ĀĀĞĀ$": 715,
      "ĀĀ\"Ā$": 716,
      "ĀĀ$Ā": 717,
      "Ġ$\"!": 718,
      "Ġ##Ğ": 719,
      "ĀĀĘĀ": 720,
      ")#": 721,
      "ĕ\"": 722,
      "Ė\"": 723,
      "ė#": 724,
      "ė$": 725,
      "ĚĚ": 726,
      "Ĝ%": 727,
      "Ġ!Ĝ!": 728,
      "ĠĞĜğ": 729,
      "Ġ#$Ğ": 730,
      "ĠĜğğ": 731,
      "Ġğ!Ĝ": 732,
      "Ġ!\"#": 733,
      "ĀĀğĀĝ": 734,
      "ĀĀğĀě": 735,
      "Ġ#!\"": 736,
      "ĀĀĞĀ#": 737,
      "Ġ!#ĝ": 738,
      "Ġğ#ĝ": 739,
      "ĀĀ#Āğ": 740,
      "ĠĝĞ#": 741,
      "ĠĝĝĞ": 742,
      "Ġ$\"ğ": 743,
      "Ġ#ĝĞ": 744,
      "Ġĝ#!": 745,
      "ĠĜğ!": 746,
      "Ġ$!Ğ": 747,
      "$&": 748,
      "))": 749,
      "*\"": 750,
      "*$": 751,
      "+!": 752,
      "Ėğ": 753,
      "ğĘ": 754,
      "Ġ\"&": 755,
      "ĠĞĜ\"": 756,
      "ĠĝĜ!": 757,
      "Ġ$ě": 758,
      "Ġğğ%": 759,
      "ĠĚĝ": 760,
      "ĀĀğĀ$": 761,
      "Ġ#ğĜ": 762,
      "Ġ#Ğĝ": 763,
      "Ġĝ\"\"": 764,
      "Ġ##!": 765,
      "ĀĀ'Ā": 766,
      "ĀĀęĀ": 767,
      "#ĀĀ": 768,
      ")ĝ": 769,
      "ĕ!": 770,
      "ĕĝ": 771,
      "ėĚ": 772,
      "Ę%": 773,
      "Ğ&": 774,
      "Ġ!$\"": 775,
      "ĠğĜ!": 776,
      "ĠğĜğ": 777,
      "Ġ\"Ě": 778,
      "Ġ\"Ĝğ": 779,
      "Ġ#$ğ": 780,
      "Ġ$!!": 781,
      "Ġě#": 782,
      "Ġ!!$": 783,
      "ĠĠĠĠĠĠĠĠĠĠĠĠĠĠĠĠĠĠĠ": 784,
      "Ġ%#": 785,
      "Ġğ\"$": 786,
      "Ġ#!#": 787,
      "Ġ#\"\"": 788,
      "ĠĞ#ğ": 789,
      "ĠĞĝğ": 790,
      "ĀĀěĀ\"": 791,
      "Ġĝĝ\"": 792,
      "ĀĀĚĀğ": 793,
      "ĀĀ(Ā": 794,
      "ĠĜ!\"": 795,
      "ĠĠĠĠĠĠĠĠĠĠĠĠĠĠĠĠĠĠĠĠĠĠĠĠĠĠĠĠĠĠĠĠ": 796,
      "ĀĀ+Ā": 797,
      "ĔĜ": 798,
      "Ėě": 799,
      "ėę": 800,
      "ĘĀĀ": 801,
      "Ğ(": 802,
      "Ğę": 803,
      "Ġğ&": 804,
      "Ġğ$\"": 805,
      "Ġĝ$!": 806,
      "ĠĜ$": 807,
      "ĠĜĞ!": 808,
      "ĀĀğĀĚ": 809,
      "ĀĀ!Āě": 810,
      "ĀĀĞĀě": 811,
      "Ġĝ!$": 812,
      "Ġĝ!Ğ": 813,
      "Ġ!ĝ#": 814,
      "Ġ!ĝĝ": 815,
      "Ġğ##": 816,
      "ĀĀ\"Ā\"": 817,
      "ĀĀ\"Ā#": 818,
      "ĀĀĜĀ\"": 819,
      "ĀĀĜĀĜ": 820,
      "ĀĀ$Ā!": 821,
      "ĀĀĚĀ!": 822,
      "\"Ě": 823,
      "'ě": 824,
      "(ě": 825,
      ")(": 826,
      "*Ğ": 827,
      "ĖĜ": 828,
      "ė&": 829,
      "Ġ!ěğ": 830,
      "Ġğ$Ğ": 831,
      "Ġĝě": 832,
      "Ġ$Ĝ": 833,
      "ĠĜ!ğ": 834,
      "ĠĜĝ!": 835,
      "ĠěĜ": 836,
      "Ġ%$": 837,
      "Ġ&!": 838,
      "ĠĚ!": 839,
      "ĠĞğ$": 840,
      "Ġę!": 841,
      "ĀĀğĀ%": 842,
      "Ġ#ğ#": 843,
      "ĀĀĞĀ%": 844,
      "ĠĝğĞ": 845,
      "ĀĀ\"Āě": 846,
      "ĀĀ#Āĝ": 847,
      "ĀĀĜĀĝ": 848,
      "Ġ\"ĝĝ": 849,
      "Ġĝ\"#": 850,
      "ĠĞ##": 851,
      "Ġ$\"ĝ": 852,
      "ĀĀ%Āğ": 853,
      "Ġ$ğ!": 854,
      "Ġ#ĝğ": 855,
      "\"ę": 856,
      "%'": 857,
      "%Ě": 858,
      "*(": 859,
      "ĕĜ": 860,
      "ėě": 861,
      "ě&": 862,
      "ĜĘ": 863,
      "Ĝę": 864,
      "ĠğĜ\"": 865,
      "Ġ\"ĜĞ": 866,
      "ĠĞ$!": 867,
      "Ġ$#ğ": 868,
      "ĠĜě": 869,
      "ĠĜĝğ": 870,
      "Ġěğ\"": 871,
      "ĠğĞ$": 872,
      "Ġ\"ğ#": 873,
      "Ġ\"ğ$": 874,
      "Ġ#!Ĝ": 875,
      "ĀĀĞĀ&": 876,
      "ĀĀĝĀĜ": 877,
      "ĀĀ\"ĀĜ": 878,
      "ĀĀ#ĀĞ": 879,
      "ĀĀ#ĀĜ": 880,
      "ĀĀĜĀĞ": 881,
      "Ġĝ\"ĝ": 882,
      "ĠĞĝ#": 883,
      "ĀĀ$Āĝ": 884,
      "ĀĀ%Ā\"": 885,
      "Ġ##\"": 886,
      "Ġ$ğĝ": 887,
      "ĀĀ&Āğ": 888,
      "ĀĀ&Āĝ": 889,
      "Ġĝ#\"": 890,
      "Ġĝ#Ğ": 891,
      "ĠĜ\"\"": 892,
      "\"'": 893,
      "\"Ę": 894,
      "%ě": 895,
      "'ĀĀě": 896,
      "*'": 897,
      "ĕĀĀ": 898,
      "ėė": 899,
      "ěĀĀ": 900,
      "Ğ'": 901,
      "Ġď": 902,
      "Ġ!Ĝĝ": 903,
      "ĠğĚ": 904,
      "ĠğĜĞ": 905,
      "Ġ\"Ĝ!": 906,
      "Ġ\"$!": 907,
      "Ġě!!": 908,
      "Ġ\"ğě": 909,
      "Ġ!Ğě": 910,
      "Ġğ\"Ĝ": 911,
      "ĠĞĞĝ": 912,
      "Ġ\"Ğ#": 913,
      "ĠĞ\"ĝ": 914,
      "ĀĀ!Ā%": 915,
      "ĠĞ#ĝ": 916,
      "ĠĞĝĞ": 917,
      "ĀĀ$Āğ": 918,
      "ĀĀ$Āě": 919,
      "ĀĀ&Ā\"": 920,
      "!'": 921,
      "\"ĀĀ": 922,
      "%ę": 923,
      "&ě": 924,
      ")&": 925,
      ")Ğ": 926,
      "*ğ": 927,
      "+'": 928,
      "Ĕ#": 929,
      "Ĕě": 930,
      "ĕĚ": 931,
      "ĕĞ": 932,
      "ĕğ": 933,
      "ĘĚ": 934,
      "ę&": 935,
      "Ĝ'": 936,
      "ĠĀ%": 937,
      "ĠĀĚ": 938,
      "Ġ!Ĝ\"": 939,
      "Ġ!ĜĞ": 940,
      "ĠĞ$Ğ": 941,
      "ĠĜĞğ": 942,
      "ĠĜĝ\"": 943,
      "ĠĜĝĞ": 944,
      "Ġ!ğě": 945,
      "Ġ%\"ğ": 946,
      "Ġ&$": 947,
      "Ġ&ğğ": 948,
      "Ġ\"!ě": 949,
      "ĠĞğĝ": 950,
      "Ġ!ĞĜ": 951,
      "ĀĀ!Ā$": 952,
      "Ġ!##": 953,
      "ĀĀĝĀ$": 954,
      "ĀĀ\"Ā&": 955,
      "Ġ\"#Ĝ": 956,
      "Ġ#\"ĝ": 957,
      "ĀĀ#Ā$": 958,
      "ĀĀĜĀğ": 959,
      "Ġ#Ğ\"": 960,
      "Ġĝ\"Ğ": 961,
      "ĀĀ$ĀĜ": 962,
      "ĀĀ%Ā$": 963,
      "Ġ#ĝ!": 964,
      "ĠĜ\"#": 965,
      "ĠĜ\"ğ": 966,
      "ĠĜ!#": 967,
      "ĀĀĘĀğ": 968,
      "ĀĀęĀğ": 969,
      "ĀĀ)Ā": 970,
      "!(": 971,
      "\"ĕ": 972,
      "$(": 973,
      "+#": 974,
      "Ĕĝ": 975,
      "Ĕğ": 976,
      "ĕ#": 977,
      "Ė#": 978,
      "ėĘ": 979,
      "ęĀĀ": 980,
      "Ĝ(": 981,
      "Ğ)": 982,
      "ĠĎ": 983,
      "ĠĀĘ": 984,
      "Ġ\"%Ğ": 985,
      "Ġ#Ĝ!": 986,
      "Ġ#ĜĞ": 987,
      "Ġ$$Ğ": 988,
      "Ġ$Ğĝ": 989,
      "ĠĜĞ\"": 990,
      "Ġě\"ğ": 991,
      "ĠĠĠĠĠĠĠĠĠĠĠĠĠĠ": 992,
      "Ġ%ĝ": 993,
      "Ġ%!!": 994,
      "Ġ%\"!": 995,
      "Ġ%\"Ğ": 996,
      "Ġ&\"": 997,
      "Ġ&ĝ": 998,
      "Ġ!\"$": 999,
      "Ġ!\"Ĝ": 1000,
      "Ġę#": 1001,
      "Ġ!Ğ$": 1002,
      "ĀĀğĀę": 1003,
      "ĀĀğĀĘ": 1004,
      "ĀĀ!Ā&": 1005,
      "ĀĀĞĀĚ": 1006,
      "Ġ!ĝ$": 1007,
      "ĀĀĝĀ%": 1008,
      "ĀĀĜĀ$": 1009,
      "ĠĝĞĞ": 1010,
      "ĠĞĝ\"": 1011,
      "ĀĀěĀĞ": 1012,
      "ĀĀěĀ#": 1013,
      "ĀĀ$Ā\"": 1014,
      "ĀĀĚĀ#": 1015,
      "ĀĀ%Ā#": 1016,
      "Ġ#ĝĝ": 1017,
      "Ġĝ#ğ": 1018,
      "ĠĜ\"!": 1019,
      "ĀĀęĀ!": 1020,
      "\"(": 1021,
      "$Ě": 1022,
      "'Ę": 1023,
      "+ĝ": 1024,
      ".ĀĀ": 1025,
      "ēĝ": 1026,
      "Ę&": 1027,
      "Ę'": 1028,
      "ěę": 1029,
      "Ĝ&": 1030,
      "ĝĘ": 1031,
      "Ġ!$#": 1032,
      "Ġ!%ğ": 1033,
      "ĠğĜ#": 1034,
      "Ġ\"$\"": 1035,
      "Ġ\"$ĝ": 1036,
      "ĠĞ&": 1037,
      "ĠĞĚ": 1038,
      "Ġ$&": 1039,
      "Ġ$%ğ": 1040,
      "Ġ$ĞĞ": 1041,
      "Ġ$ĝ!": 1042,
      "Ġ$#Ğ": 1043,
      "Ġ$#ĝ": 1044,
      "ĠĜĚ": 1045,
      "ĠĜĜ\"": 1046,
      "Ġ%ğ!": 1047,
      "Ġ%ğĞ": 1048,
      "Ġğ!ě": 1049,
      "Ġ\"!Ě": 1050,
      "Ġ'ĝ": 1051,
      "ĠĞ!Ĝ": 1052,
      "ĠęĞ": 1053,
      "Ġğ\"%": 1054,
      "Ġ\"Ğ$": 1055,
      "ĀĀğĀ&": 1056,
      "Ġ#!ě": 1057,
      "ĀĀ!Āę": 1058,
      "Ġĝğ$": 1059,
      "Ġğ#Ĝ": 1060,
      "Ġğĝ#": 1061,
      "ĀĀĝĀ&": 1062,
      "ĀĀ\"ĀĚ": 1063,
      "Ġ\"#\"": 1064,
      "Ġ#\"Ĝ": 1065,
      "ĀĀ#Ā#": 1066,
      "ĀĀĜĀ#": 1067,
      "Ġ\"ĝĜ": 1068,
      "ĠĞ#Ğ": 1069,
      "ĀĀěĀğ": 1070,
      "ĀĀ$ĀĞ": 1071,
      "ĀĀ$Ā#": 1072,
      "ĀĀĚĀĞ": 1073,
      "Ġ$ğ\"": 1074,
      "ĠĜ!Ğ": 1075,
      "#(": 1076,
      "#ę": 1077,
      "'+": 1078,
      "'Ě": 1079,
      ")'": 1080,
      ")*": 1081,
      "*+": 1082,
      ",\"": 1083,
      ",#": 1084,
      "ėĀĀ": 1085,
      "ęė": 1086,
      "ěĚ": 1087,
      "ğĕ": 1088,
      "Ġ2": 1089,
      "ĠĀ&": 1090,
      "Ġ!$ĝ": 1091,
      "Ġğě!": 1092,
      "Ġğ$#": 1093,
      "Ġ\"ěğ": 1094,
      "ĠĞě!": 1095,
      "ĠĞ$#": 1096,
      "Ġĝ&": 1097,
      "ĠĝĜğ": 1098,
      "Ġ#&": 1099,
      "Ġ#Ě": 1100,
      "Ġ$ĝĞ": 1101,
      "Ġ$#Ĝ": 1102,
      "ĠĜ#!": 1103,
      "Ġěě": 1104,
      "ĠěĜ!": 1105,
      "ĠěĞğ": 1106,
      "Ġ%Ğ!": 1107,
      "Ġ&Ğ": 1108,
      "Ġ'!": 1109,
      "Ġęğ": 1110,
      "ĠĞ\"$": 1111,
      "ĀĀğĀ'": 1112,
      "ĀĀ!ĀĚ": 1113,
      "Ġ!#Ĝ": 1114,
      "Ġğĝĝ": 1115,
      "ĀĀĝĀě": 1116,
      "ĀĀĝĀĚ": 1117,
      "Ġ#\"#": 1118,
      "ĀĀ#Ā&": 1119,
      "ĀĀĜĀě": 1120,
      "Ġ\"ĝ#": 1121,
      "Ġ\"ĝ$": 1122,
      "ĀĀěĀ$": 1123,
      "ĀĀĚĀ\"": 1124,
      "Ġ##ĝ": 1125,
      "ĀĀ&Ā!": 1126,
      "ĠĜğ#": 1127,
      "ĀĀ(Ā\"": 1128,
      "ĀĀĘĀĜ": 1129,
      "Ġ$!\"": 1130,
      "ĀĀ'Āğ": 1131,
      "ĀĀ'Ā\"": 1132,
      "ĀĀėĀ": 1133,
      "ĀĀĖĀ$": 1134,
      "!)": 1135,
      "!ę": 1136,
      "$ę": 1137,
      "(*": 1138,
      ")-": 1139,
      ")ě": 1140,
      ")ĀĀ)": 1141,
      "*ĝ": 1142,
      "+%": 1143,
      ",*": 1144,
      "-ĀĀ": 1145,
      "Ā-": 1146,
      "ĕ$": 1147,
      "Ė$": 1148,
      "Ėę": 1149,
      "ĚĀĀ": 1150,
      "ĜĔ": 1151,
      "Ĝė": 1152,
      "ĝĖ": 1153,
      "ĝĀĀ": 1154,
      "ĞĀĀ": 1155,
      "Ġ1": 1156,
      "ĠĀę": 1157,
      "Ġ!'": 1158,
      "Ġ!$Ğ": 1159,
      "Ġğ%ğ": 1160,
      "Ġ\"ę": 1161,
      "Ġ\"Ĝ\"": 1162,
      "Ġ\"&Ğ": 1163,
      "ĠĞ$ğ": 1164,
      "ĠĞĜĞ": 1165,
      "ĠĞěğ": 1166,
      "ĠĞěĝ": 1167,
      "ĀĀĐ": 1168,
      "Ġĝę": 1169,
      "ĠĝĜ#": 1170,
      "Ġ#Ĝğ": 1171,
      "Ġ#$!": 1172,
      "Ġ$Ĝ!": 1173,
      "Ġ$$!": 1174,
      "Ġ$ěğ": 1175,
      "ĠĜěğ": 1176,
      "ĠĜĝĝ": 1177,
      "ĠěĞ!": 1178,
      "Ġě!ğ": 1179,
      "Ġě#\"": 1180,
      "ĠěĝĞ": 1181,
      "Ġě!#": 1182,
      "Ġ!!ě": 1183,
      "Ġğğ&": 1184,
      "Ġğğě": 1185,
      "Ġ%$ğ": 1186,
      "Ġ%!ğ": 1187,
      "Ġ&ğ": 1188,
      "ĠĚ\"": 1189,
      "ĠĚĞ": 1190,
      "Ġ'\"": 1191,
      "Ġ!\"ě": 1192,
      "Ġ\"\"#": 1193,
      "Ġĝğĝ": 1194,
      "Ġĝ!%": 1195,
      "Ġĝ!ĝ": 1196,
      "Ġ!ĝě": 1197,
      "Ġğĝ$": 1198,
      "ĀĀ\"Āę": 1199,
      "ĀĀĜĀĚ": 1200,
      "Ġ#Ğě": 1201,
      "ĠĞĝ$": 1202,
      "ĀĀěĀĜ": 1203,
      "ĀĀěĀ'": 1204,
      "Ġĝĝ#": 1205,
      "Ġ$\"\"": 1206,
      "Ġ$\"Ĝ": 1207,
      "ĀĀĚĀ&": 1208,
      "ĀĀ%ĀĞ": 1209,
      "ĀĀ&ĀĜ": 1210,
      "Ġĝ#ĝ": 1211,
      "ĀĀ(Āĝ": 1212,
      "ĀĀ(ĀĚ": 1213,
      "ĀĀĘĀ\"": 1214,
      "Ġ$!ĝ": 1215,
      "ĀĀ'ĀĞ": 1216,
      "ĀĀ)Ā#": 1217,
      "ĀĀĖĀ\"": 1218,
      "ĀĀ+Ā\"": 1219,
      "#)": 1220,
      "%Ę": 1221,
      "'*": 1222,
      "()": 1223,
      "(Ě": 1224,
      ")Ĝ": 1225,
      "*%": 1226,
      "**": 1227,
      "+ğ": 1228,
      ",$": 1229,
      "ēę": 1230,
      "ĖĚ": 1231,
      "ęĖ": 1232,
      "Ěę": 1233,
      "ěė": 1234,
      "ěĘ": 1235,
      "Ĝĕ": 1236,
      "ĜĀĀ": 1237,
      "ĝ,": 1238,
      "ĠĀ'": 1239,
      "Ġ!ě!": 1240,
      "Ġ!%!": 1241,
      "Ġ!%\"": 1242,
      "Ġ!%Ğ": 1243,
      "Ġğ%!": 1244,
      "Ġğ%Ğ": 1245,
      "Ġ\"ě!": 1246,
      "ĠĞ$\"": 1247,
      "ĀĀď": 1248,
      "ĠĜě#": 1249,
      "Ġě%": 1250,
      "ĠěĞ\"": 1251,
      "Ġ!ğ%": 1252,
      "Ġ%ğğ": 1253,
      "Ġ%ĝğ": 1254,
      "Ġ%!Ğ": 1255,
      "Ġ%#Ğ": 1256,
      "Ġğ!Ě": 1257,
      "Ġ&#": 1258,
      "Ġ&%": 1259,
      "Ġ&ğ!": 1260,
      "Ġ&ğĝ": 1261,
      "ĠĚğ\"": 1262,
      "Ġ!\"%": 1263,
      "Ġę\"": 1264,
      "ĠĘĞ": 1265,
      "ĠĘğ": 1266,
      "Ġ\"\"Ĝ": 1267,
      "Ġ\"Ğ%": 1268,
      "ĠĞ\"ě": 1269,
      "ĠĞ\"Ĝ": 1270,
      "ĀĀĞĀĘ": 1271,
      "ĠĝğĜ": 1272,
      "ĀĀ\"Ā%": 1273,
      "Ġ#\"ě": 1274,
      "ĀĀ#Ā%": 1275,
      "ĀĀĜĀ%": 1276,
      "ĠĠĠĠĠĠĠĠĠĠĠĠĠĠĠĠĠ": 1277,
      "ĀĀěĀ%": 1278,
      "ĀĀ$Ā%": 1279,
      "ĀĀĚĀĝ": 1280,
      "ĀĀ%ĀĜ": 1281,
      "ĀĀ%Ā&": 1282,
      "Ġ$ğ#": 1283,
      "Ġ$ğě": 1284,
      "Ġ#ĝ\"": 1285,
      "ĀĀ&ĀĞ": 1286,
      "ĀĀ&Ā#": 1287,
      "ĠĜğĝ": 1288,
      "ĠĜğĞ": 1289,
      "ĀĀ(Ā#": 1290,
      "ĀĀĘĀ#": 1291,
      "ĀĀęĀĝ": 1292,
      "ĀĀęĀě": 1293,
      "ĀĀėĀ!": 1294,
      "ĀĀ+Āğ": 1295,
      "#'": 1296,
      "$Ė": 1297,
      "'-": 1298,
      "+&": 1299,
      "+*": 1300,
      "-'": 1301,
      "Ē!": 1302,
      "ēĞ": 1303,
      "Ĕ\"": 1304,
      "Ĕĕ": 1305,
      "ĔĚ": 1306,
      "Ėė": 1307,
      "ėĕ": 1308,
      "ĘĖ": 1309,
      "Ęė": 1310,
      "ĘĘ": 1311,
      "ĝ(": 1312,
      "ĝę": 1313,
      "Ğė": 1314,
      "ĞĘ": 1315,
      "ğė": 1316,
      "Ġ!ĀĀ": 1317,
      "Ġ!&!": 1318,
      "Ġ!Ěğ": 1319,
      "Ġ!$$": 1320,
      "Ġ!%#": 1321,
      "Ġğę": 1322,
      "Ġğěğ": 1323,
      "ĠğĜĝ": 1324,
      "Ġ\"'": 1325,
      "Ġ\"$#": 1326,
      "Ġ\"ě\"": 1327,
      "Ġ\"%\"": 1328,
      "Ġĝ(": 1329,
      "ĠĝĜ\"": 1330,
      "ĠĝĜĞ": 1331,
      "Ġĝ%!": 1332,
      "Ġ#'": 1333,
      "Ġ#%Ğ": 1334,
      "Ġ$ĝğ": 1335,
      "Ġ$ĝ\"": 1336,
      "Ġ$#\"": 1337,
      "Ġ$$ĝ": 1338,
      "ĠĜ&": 1339,
      "ĠĜĜĞ": 1340,
      "ĠĜ#ğ": 1341,
      "ĠĜĞĝ": 1342,
      "ĠĜĝ#": 1343,
      "Ġě$": 1344,
      "ĠěĜğ": 1345,
      "Ġěğğ": 1346,
      "Ġě!Ğ": 1347,
      "Ġ%#ğ": 1348,
      "Ġ%Ğĝ": 1349,
      "Ġ%ğě": 1350,
      "Ġ&Ĝĝ": 1351,
      "Ġ&ĝğ": 1352,
      "Ġ&#!": 1353,
      "ĠĚĜ": 1354,
      "ĠĚğğ": 1355,
      "ĠĚ\"#": 1356,
      "Ġ\"!$": 1357,
      "ĠĞğ%": 1358,
      "ĠĞ!ě": 1359,
      "Ġęĝ": 1360,
      "Ġ(!": 1361,
      "Ġ(\"": 1362,
      "ĠĞĞĜ": 1363,
      "ĠĞ\"%": 1364,
      "ĀĀğĀ(": 1365,
      "ĀĀğĀė": 1366,
      "ĀĀ!Ā'": 1367,
      "ĀĀ!ĀĘ": 1368,
      "ĀĀĞĀ'": 1369,
      "Ġĝğ%": 1370,
      "Ġ!ĝĜ": 1371,
      "Ġğ#$": 1372,
      "ĀĀĝĀ'": 1373,
      "ĀĀĝĀ)": 1374,
      "ĀĀ\"Ā'": 1375,
      "ĀĀ\"Ā)": 1376,
      "ĀĀ#Āę": 1377,
      "ĀĀ#ĀĖ": 1378,
      "ĀĀĜĀ&": 1379,
      "Ġĝ\"$": 1380,
      "ĠĞ#$": 1381,
      "ĀĀěĀ!": 1382,
      "ĀĀěĀĝ": 1383,
      "ĀĀ$Ā&": 1384,
      "Ġ$\"#": 1385,
      "ĀĀĚĀĜ": 1386,
      "ĀĀ%Āĝ": 1387,
      "ĀĀ%Āě": 1388,
      "Ġ$ğĜ": 1389,
      "Ġĝ##": 1390,
      "ĠĜ\"$": 1391,
      "ĀĀ(Ā$": 1392,
      "ĠĜ!$": 1393,
      "Ġ$!Ĝ": 1394,
      "ĀĀ'Ā!": 1395,
      "ĀĀ'Āĝ": 1396,
      "ĀĀėĀ%": 1397,
      "ĀĀėĀĚ": 1398,
      "ĀĀ)ĀĜ": 1399,
      "ĀĀĖĀ!": 1400,
      "ĀĀĖĀĞ": 1401,
      "Ġ!ĜĜ": 1402,
      "ĀĀ+ĀĞ": 1403,
      "ĠĜĞ#": 1404,
      "ĀĀ,Ā\"": 1405,
      "ĀĀ-Ā": 1406,
      "ĠĠĠĠĠĠĠĠĠĠĠĠĠĠĠĠĠĠĠĠĠĠĠĠĠ": 1407,
      "$'": 1408,
      "$Ę": 1409,
      "&(": 1410,
      "')": 1411,
      "(,": 1412,
      "),": 1413,
      "*ě": 1414,
      "+$": 1415,
      "+(": 1416,
      "+ě": 1417,
      "+Ĝ": 1418,
      ",(": 1419,
      "-!": 1420,
      "-#": 1421,
      "-*": 1422,
      ".$": 1423,
      ".&": 1424,
      "Ā,": 1425,
      "Ēĝ": 1426,
      "ĔĞ": 1427,
      "ė%": 1428,
      "ėĖ": 1429,
      "ĘĒ": 1430,
      "ĝē": 1431,
      "ğ)": 1432,
      "ĠĀ(": 1433,
      "Ġ!&\"": 1434,
      "Ġ!&ğ": 1435,
      "Ġ!%ĝ": 1436,
      "Ġğě\"": 1437,
      "Ġğ%\"": 1438,
      "ĠğěĞ": 1439,
      "Ġğ%#": 1440,
      "ĠĞĜ#": 1441,
      "ĠĞ$ĝ": 1442,
      "ĠĞĚğ": 1443,
      "ĠĞě#": 1444,
      "ĠĞ%Ĝ": 1445,
      "ĠĝĚ": 1446,
      "Ġĝ$\"": 1447,
      "Ġĝě!": 1448,
      "ĠĝĜĝ": 1449,
      "Ġĝ$ĝ": 1450,
      "Ġĝ%\"": 1451,
      "Ġ#Ę": 1452,
      "Ġ#&ğ": 1453,
      "Ġ$$ğ": 1454,
      "Ġ$Ĝğ": 1455,
      "Ġ$Ĝĝ": 1456,
      "Ġ$%ĝ": 1457,
      "ĠĜĜ!": 1458,
      "ĠĜ$ğ": 1459,
      "Ġě#ğ": 1460,
      "Ġěğ!": 1461,
      "Ġěĝ\"": 1462,
      "Ġ%Ě": 1463,
      "Ġ%ě": 1464,
      "Ġ%\"\"": 1465,
      "Ġ%!ĝ": 1466,
      "Ġ%ğĝ": 1467,
      "Ġ&ě": 1468,
      "Ġ&Ĝ": 1469,
      "Ġ&\"ğ": 1470,
      "Ġ&!Ğ": 1471,
      "Ġ&ğě": 1472,
      "ĠĚ#": 1473,
      "ĠĚ\"Ğ": 1474,
      "ĠĚ\"%": 1475,
      "Ġ'#": 1476,
      "ĠĞğĚ": 1477,
      "ĠĞğě": 1478,
      "Ġğ\"ě": 1479,
      "ĠĘ!": 1480,
      "Ġ(#": 1481,
      "ĀĀ!Ā(": 1482,
      "Ġĝ!Ĝ": 1483,
      "ĀĀĝĀ*": 1484,
      "ĀĀ#ĀĚ": 1485,
      "ĀĀ#Ā'": 1486,
      "ĀĀ#Āė": 1487,
      "ĀĀĜĀ'": 1488,
      "ĀĀĜĀ)": 1489,
      "Ġ#ĞĜ": 1490,
      "Ġĝ\"Ĝ": 1491,
      "ĠĞ#Ĝ": 1492,
      "ĠĞĝě": 1493,
      "ĠĞĝĝ": 1494,
      "ĀĀěĀě": 1495,
      "ĀĀěĀ&": 1496,
      "Ġĝĝĝ": 1497,
      "ĀĀĚĀ$": 1498,
      "Ġ#ĝ#": 1499,
      "ĀĀ&Ā&": 1500,
      "ĠĜ\"ĝ": 1501,
      "ĀĀ(Āğ": 1502,
      "ĀĀ(Ā!": 1503,
      "ĀĀĘĀ!": 1504,
      "ĀĀĘĀĞ": 1505,
      "ĀĀĘĀě": 1506,
      "ĀĀ'Ā#": 1507,
      "ĀĀ'Ā$": 1508,
      "ĀĀęĀ\"": 1509,
      "ĀĀęĀĞ": 1510,
      "ĀĀėĀě": 1511,
      "ĀĀėĀ&": 1512,
      "ĀĀ)ĀĞ": 1513,
      "ĀĀ)Ā%": 1514,
      "ĠğĜĜ": 1515,
      "ĠĀĀ-": 1516,
      "Ġě!$": 1517,
      "ĀĀĕĀğ": 1518,
      "Ġ%!ě": 1519,
      "Ġ%!Ĝ": 1520,
      "!Ę": 1521,
      "#Ę": 1522,
      "%ĀĀğĀ": 1523,
      "'ė": 1524,
      "('": 1525,
      "(-": 1526,
      "(ĕ": 1527,
      "*&": 1528,
      "+\"": 1529,
      "+)": 1530,
      "++": 1531,
      ",)": 1532,
      ",Ğ": 1533,
      "-)": 1534,
      ".ğ": 1535,
      "/#": 1536,
      "/ĀĀ": 1537,
      "čĠ": 1538,
      "Ēě": 1539,
      "ē#": 1540,
      "ēĘ": 1541,
      "ēě": 1542,
      "ēĀĀ": 1543,
      "ĔĘ": 1544,
      "ĔĀĀ": 1545,
      "ĕ%": 1546,
      "ĕĔ": 1547,
      "ė'": 1548,
      "Ęĕ": 1549,
      "Ě)": 1550,
      "ĚĘ": 1551,
      "ě)": 1552,
      "ěĕ": 1553,
      "ĝė": 1554,
      "Ġ3": 1555,
      "Ġ4": 1556,
      "ĠĀĀğĀ": 1557,
      "Ġ!(": 1558,
      "Ġ!ě\"": 1559,
      "Ġ!Ě!": 1560,
      "Ġğ(": 1561,
      "ĠğĘ": 1562,
      "Ġğ$ĝ": 1563,
      "Ġğ$$": 1564,
      "ĠğĚ!": 1565,
      "Ġğěĝ": 1566,
      "Ġğę!": 1567,
      "Ġ\"%!": 1568,
      "Ġ\"Ěğ": 1569,
      "Ġ\"ĜĜ": 1570,
      "ĠĞę": 1571,
      "ĠĞ&ğ": 1572,
      "ĀĀ;": 1573,
      "ĠĝĚ\"": 1574,
      "Ġ#Ĝ\"": 1575,
      "Ġ#Ĝĝ": 1576,
      "Ġ#%ğ": 1577,
      "Ġ#$ĝ": 1578,
      "Ġ#%\"": 1579,
      "Ġ#Ěğ": 1580,
      "Ġ$$\"": 1581,
      "Ġ$ĜĞ": 1582,
      "Ġ$&ğ": 1583,
      "Ġ$$Ĝ": 1584,
      "ĠĜ%": 1585,
      "ĠĜ$\"": 1586,
      "ĠĜ#\"": 1587,
      "ĠěĜĞ": 1588,
      "Ġě\"\"": 1589,
      "Ġě\"Ğ": 1590,
      "Ġě!\"": 1591,
      "Ġě\"#": 1592,
      "Ġ!ğĚ": 1593,
      "Ġ%Ĝ": 1594,
      "Ġ%Ĝ!": 1595,
      "Ġ%ĜĞ": 1596,
      "Ġ%Ğğ": 1597,
      "Ġ%#!": 1598,
      "Ġ%ĞĞ": 1599,
      "Ġ%ĝ!": 1600,
      "Ġ%Ğě": 1601,
      "Ġ&!!": 1602,
      "Ġ&!ğ": 1603,
      "Ġ&Ğğ": 1604,
      "Ġ&#ğ": 1605,
      "Ġ&ğĞ": 1606,
      "ĠĚ$": 1607,
      "ĠĚ&": 1608,
      "ĠĚ!!": 1609,
      "ĠĚĞ!": 1610,
      "ĠĚĝğ": 1611,
      "Ġ'#Ğ": 1612,
      "ĠğĞě": 1613,
      "Ġ!Ğ%": 1614,
      "ĠĘĝ": 1615,
      "Ġ(ĝ": 1616,
      "Ġ\"\"$": 1617,
      "ĠĞĞ$": 1618,
      "ĠĞĞě": 1619,
      "Ġ#ğę": 1620,
      "Ġ#ğĚ": 1621,
      "Ġ#ğě": 1622,
      "ĀĀĞĀ(": 1623,
      "ĀĀĞĀė": 1624,
      "Ġ!#$": 1625,
      "ĀĀĝĀė": 1626,
      "ĀĀ\"ĀĘ": 1627,
      "ĀĀĜĀę": 1628,
      "ĀĀĜĀ(": 1629,
      "ĀĀĜĀė": 1630,
      "ĠĝĞ$": 1631,
      "ĠĝĞ%": 1632,
      "Ġĝ\"%": 1633,
      "ĀĀ$ĀĚ": 1634,
      "Ġĝĝě": 1635,
      "ĀĀĚĀ%": 1636,
      "ĀĀĚĀĚ": 1637,
      "ĀĀĚĀ(": 1638,
      "ĀĀ%Ā!": 1639,
      "ĀĀ%ĀĚ": 1640,
      "Ġ###": 1641,
      "Ġ##Ĝ": 1642,
      "Ġ#ĝĜ": 1643,
      "ĠĜ\"Ğ": 1644,
      "ĀĀ(ĀĞ": 1645,
      "ĀĀ(ĀĜ": 1646,
      "ĀĀ(Āě": 1647,
      "ĀĀ(Ā%": 1648,
      "ĀĀ(Ā'": 1649,
      "ĀĀĘĀ&": 1650,
      "ĀĀ'Āę": 1651,
      "ĀĀęĀĜ": 1652,
      "ĀĀėĀğ": 1653,
      "ĀĀėĀ\"": 1654,
      "ĀĀėĀĞ": 1655,
      "ĀĀėĀĜ": 1656,
      "ĀĀėĀ$": 1657,
      "ĠĠĠĠĠĠĠĠĠĠĠĠĠĠĠĠĠĠĠĠĠĠ": 1658,
      "ĠĠĠĠĠĠĠĠĠĠĠĠĠĠĠĠĠĠĠĠĠĠĠĠĠĠĠ": 1659,
      "ĀĀĖĀ": 1660,
      "ĀĀĖĀĝ": 1661,
      "ĀĀ+Ā#": 1662,
      "ĠĜĞ$": 1663,
      "%ĀĀ*": 1664,
      "&ĀĀĔ": 1665,
      "ĠěĞ%": 1666,
      "Ġ\"$Ĝ": 1667,
      "Ġě!%": 1668,
      "ĀĀēĀĝ": 1669,
      "ĀĀ*Ā": 1670,
      "ĀĀ/Ā": 1671,
      "!ė": 1672,
      "#Ė": 1673,
      "#ė": 1674,
      "$)": 1675,
      "$/": 1676,
      "%(": 1677,
      "%)": 1678,
      "&)": 1679,
      "&+": 1680,
      "&ė": 1681,
      "&ę": 1682,
      "((": 1683,
      "(ę": 1684,
      "*(ĀĀ": 1685,
      "+,": 1686,
      "+Ğ": 1687,
      "-%": 1688,
      "-Ğ": 1689,
      "-ğ": 1690,
      "/!": 1691,
      "/\"": 1692,
      "/(": 1693,
      "Ā.": 1694,
      "ďĀ!": 1695,
      "đę": 1696,
      "Ēę": 1697,
      "ĒĞ": 1698,
      "Ēğ": 1699,
      "ē!": 1700,
      "ēĚ": 1701,
      "Ĕ!": 1702,
      "ĔĒ": 1703,
      "Ė%": 1704,
      "Ė&": 1705,
      "Ė)": 1706,
      "ĖĘ": 1707,
      "ĖĀĀ": 1708,
      "ĘĔ": 1709,
      "ę'": 1710,
      "Ěĕ": 1711,
      "Ěė": 1712,
      "ě'": 1713,
      "ěĖ": 1714,
      "Ĝ)": 1715,
      "Ĝ.": 1716,
      "ĝ'": 1717,
      "ğ(": 1718,
      "ĠĀė": 1719,
      "Ġ!Ĝ#": 1720,
      "Ġ!ěĞ": 1721,
      "Ġ!ěĝ": 1722,
      "Ġğ'": 1723,
      "Ġğě#": 1724,
      "Ġğ%ĝ": 1725,
      "ĠğĚĝ": 1726,
      "Ġ\"Ĝĝ": 1727,
      "Ġ\"Ě\"": 1728,
      "Ġ\"%Ĝ": 1729,
      "Ġ\"Ĝě": 1730,
      "ĠĞ%!": 1731,
      "ĠĞě\"": 1732,
      "ĠĞ&!": 1733,
      "ĠĞ$$": 1734,
      "ĠĞ%#": 1735,
      "ĠĞ%$": 1736,
      "ĠĞę!": 1737,
      "ĠĞ&#": 1738,
      "ĀĀ<": 1739,
      "ĀĀĈ": 1740,
      "Ġĝė": 1741,
      "Ġĝ&Ğ": 1742,
      "Ġ#ĀĀ": 1743,
      "Ġ#ě#": 1744,
      "Ġ#&\"": 1745,
      "Ġ#%ĝ": 1746,
      "Ġ#ĜĜ": 1747,
      "Ġ#Ěĝ": 1748,
      "Ġ$ę": 1749,
      "Ġ$ĀĀ": 1750,
      "Ġ$Ĝ\"": 1751,
      "Ġ$ě!": 1752,
      "Ġ$Ĝ#": 1753,
      "Ġ$Ğ\"": 1754,
      "Ġ$%Ğ": 1755,
      "Ġ$ěĞ": 1756,
      "Ġ$&!": 1757,
      "Ġ$ĝĝ": 1758,
      "Ġ$ĜĜ": 1759,
      "Ġ$ĝĜ": 1760,
      "ĠĜĞĞ": 1761,
      "ĠĜĚ!": 1762,
      "ĠĜ#ĝ": 1763,
      "Ġěě!": 1764,
      "ĠěĞĞ": 1765,
      "Ġěĝ!": 1766,
      "ĠěĞĝ": 1767,
      "Ġěğ#": 1768,
      "Ġ!!Ę": 1769,
      "Ġ%$!": 1770,
      "Ġ%$Ğ": 1771,
      "Ġ%%ğ": 1772,
      "Ġ%ĝĞ": 1773,
      "Ġ%%Ğ": 1774,
      "Ġ%\"ĝ": 1775,
      "Ġ%\"Ĝ": 1776,
      "Ġğ!&": 1777,
      "Ġ&&": 1778,
      "Ġ&Ğĝ": 1779,
      "Ġ&\"ĝ": 1780,
      "ĠĚě": 1781,
      "ĠĚ$\"": 1782,
      "ĠĚĞ\"": 1783,
      "ĠĚ$ĝ": 1784,
      "ĠĚ!\"": 1785,
      "ĠĚğĞ": 1786,
      "Ġ''": 1787,
      "Ġ'(": 1788,
      "Ġ'ě": 1789,
      "Ġ'\"!": 1790,
      "Ġ'Ğ\"": 1791,
      "Ġ'#\"": 1792,
      "Ġ'!Ğ": 1793,
      "Ġ'\"Ğ": 1794,
      "ĠęĜ": 1795,
      "ĠęĞ\"": 1796,
      "ĠĘ#": 1797,
      "Ġ\"\"ě": 1798,
      "Ġ\"Ğě": 1799,
      "ĠĞ\"Ě": 1800,
      "ĀĀğĀ)": 1801,
      "ĀĀ!ĀĖ": 1802,
      "Ġ)ğ": 1803,
      "ĀĀĝĀ(": 1804,
      "ĀĀ\"Āė": 1805,
      "Ġ\"##": 1806,
      "ĀĀ#ĀĘ": 1807,
      "ĀĀĜĀĘ": 1808,
      "Ġ\"ĝě": 1809,
      "ĠĝĞĜ": 1810,
      "Ġ#Ğ#": 1811,
      "ĠĞ#ě": 1812,
      "ĀĀ$ĀĖ": 1813,
      "Ġĝĝ$": 1814,
      "!!ĀĀ": 1815,
      "ĀĀĚĀě": 1816,
      "ĀĀĚĀ)": 1817,
      "ĀĀ%Ā'": 1818,
      "ĀĀ%ĀĘ": 1819,
      "Ġ##$": 1820,
      "Ġ$ğ$": 1821,
      "Ġ#ĝ%": 1822,
      "ĀĀ&Ā$": 1823,
      "ĀĀ&Āě": 1824,
      "ĀĀ&Ā%": 1825,
      "ĀĀ&Āę": 1826,
      "Ġĝ#$": 1827,
      "ĀĀ(Ā&": 1828,
      "ĠĜ!%": 1829,
      "ĀĀĘĀĝ": 1830,
      "ĀĀĘĀ%": 1831,
      "ĀĀ'Āě": 1832,
      "ĀĀęĀ$": 1833,
      "%!ĀĀ": 1834,
      "#!ĀĀ": 1835,
      "ĀĀėĀ#": 1836,
      "ĀĀėĀĝ": 1837,
      "ĠĠĠĠĠĠĠĠĠĠĠĠĠĠĠĠĠĠĠĠĠĠĠĠĠĠ": 1838,
      "ĀĀ)Ā!": 1839,
      "ĀĀ)Āĝ": 1840,
      "ĀĀĖĀğ": 1841,
      "ĀĀĖĀ(": 1842,
      "ĀĀ+ĀĜ": 1843,
      "ĠğĜ$": 1844,
      "$ĀĀē": 1845,
      "%ĀĀ-": 1846,
      "'ĀĀ*": 1847,
      "ĠĀĀ*": 1848,
      "Ġğ$Ĝ": 1849,
      "Ġě!ě": 1850,
      "ĀĀĕĀ!": 1851,
      "ĀĀĕĀĞ": 1852,
      "ĀĀ,Ā": 1853,
      "ĀĀ,Āğ": 1854,
      "ĀĀ/Ā!": 1855,
      "ĀĀđĀ": 1856,
      "\"Ĝ!": 1857,
      "\"ěĞ": 1858,
      "#ē": 1859,
      "#ĕ": 1860,
      "$ĀĀğĀ$": 1861,
      "%*": 1862,
      "%,": 1863,
      "&Ę": 1864,
      "&Ě": 1865,
      "'ę": 1866,
      "'ĀĀ!Āĝ": 1867,
      "(ĀĀ)": 1868,
      "*Ě": 1869,
      "+-": 1870,
      "+&ĀĀ": 1871,
      ",&": 1872,
      ",+": 1873,
      ",ĝ": 1874,
      "-\"": 1875,
      ".\"": 1876,
      ".#": 1877,
      "/,": 1878,
      "/ğ": 1879,
      "Āē": 1880,
      "Āĕ": 1881,
      "ĎĀĞ": 1882,
      "Đĝ": 1883,
      "ĐĀ$": 1884,
      "đğ": 1885,
      "ĒĚ": 1886,
      "ē$": 1887,
      "ēĕ": 1888,
      "Ĕ$": 1889,
      "Ĕė": 1890,
      "ĕ&": 1891,
      "ĕĕ": 1892,
      "ĕĘ": 1893,
      "ĕě": 1894,
      "ĖĖ": 1895,
      "ęĘ": 1896,
      "ěđ": 1897,
      "ěē": 1898,
      "ěĔ": 1899,
      "ĜĖ": 1900,
      "ğē": 1901,
      "ğĖ": 1902,
      "ğ!!": 1903,
      "Ġ5": 1904,
      "ĠĀ)": 1905,
      "ĠĀ*": 1906,
      "ĠĀĀ!Ā\"": 1907,
      "ĠĀĀĞĀĝ": 1908,
      "Ġ!Ě\"": 1909,
      "Ġ!&Ğ": 1910,
      "Ġ!ĚĞ": 1911,
      "Ġ!ěĜ": 1912,
      "Ġ!'ğ": 1913,
      "Ġ!&#": 1914,
      "Ġ!ě%": 1915,
      "Ġ!Ęĝ": 1916,
      "Ġ!Ęğ": 1917,
      "ĠğĚğ": 1918,
      "Ġğ&\"": 1919,
      "Ġğ&ĝ": 1920,
      "Ġ\"Ę": 1921,
      "Ġ\"Ĝ#": 1922,
      "Ġ\"%ğ": 1923,
      "Ġ\"ěĞ": 1924,
      "Ġ\"%#": 1925,
      "Ġ\"&\"": 1926,
      "Ġ\"&ğ": 1927,
      "Ġ\"Ĝ$": 1928,
      "Ġ\"ěĜ": 1929,
      "Ġ\"ėĞ": 1930,
      "Ġ\"&&": 1931,
      "ĠĞ)": 1932,
      "ĠĞĘ": 1933,
      "ĠĞ%ğ": 1934,
      "ĠĞ%\"": 1935,
      "ĠĞěĞ": 1936,
      "ĠĞ%ĝ": 1937,
      "ĠĞĚĞ": 1938,
      "ĠĞ'ğ": 1939,
      "ĠĞęĝ": 1940,
      "ĠĞęĜ": 1941,
      "ĀĀ:": 1942,
      "ĀĀ>": 1943,
      "ĀĀĄ": 1944,
      "ĀĀą": 1945,
      "ĀĀć": 1946,
      "Ġĝ$ğ": 1947,
      "Ġĝ%ğ": 1948,
      "Ġĝě#": 1949,
      "Ġĝ'\"": 1950,
      "Ġ#%!": 1951,
      "Ġ#ě\"": 1952,
      "Ġ#$$": 1953,
      "Ġ#&Ğ": 1954,
      "Ġ#ěĜ": 1955,
      "Ġ#'&": 1956,
      "Ġ$'": 1957,
      "Ġ$$#": 1958,
      "Ġ$%!": 1959,
      "Ġ$#!": 1960,
      "Ġ$ěĝ": 1961,
      "ĠĜĜğ": 1962,
      "ĠĜ$#": 1963,
      "ĠĜĜĝ": 1964,
      "ĠĜĜ#": 1965,
      "ĠĜ%!": 1966,
      "ĠĜ%ğ": 1967,
      "ĠĜ%Ğ": 1968,
      "ĠĜ%#": 1969,
      "ĠĜěĝ": 1970,
      "ĠĜ##": 1971,
      "ĠĜęğ": 1972,
      "ĠĜĜ$": 1973,
      "Ġě\"!": 1974,
      "Ġě$#": 1975,
      "ĠěĜ#": 1976,
      "Ġěĝğ": 1977,
      "Ġě$$": 1978,
      "ĠěğĞ": 1979,
      "Ġěĝ#": 1980,
      "Ġěğĝ": 1981,
      "Ġě\"ĝ": 1982,
      "Ġěęğ": 1983,
      "Ġě\"$": 1984,
      "Ġ!!&": 1985,
      "Ġğğę": 1986,
      "Ġ%Ĝğ": 1987,
      "Ġ%Ĝ\"": 1988,
      "Ġ%ě\"": 1989,
      "Ġ%$ĝ": 1990,
      "Ġ%!\"": 1991,
      "Ġ%ě#": 1992,
      "Ġ%#Ĝ": 1993,
      "Ġ%ğĜ": 1994,
      "Ġ&'": 1995,
      "Ġ&$!": 1996,
      "Ġ&\"!": 1997,
      "Ġ&ě!": 1998,
      "Ġ&ĞĞ": 1999,
      "Ġ&ğ\"": 2000,
      "Ġ&#Ğ": 2001,
      "Ġ&!ĝ": 2002,
      "Ġ&!ě": 2003,
      "ĠĚ$ğ": 2004,
      "ĠĚĜĞ": 2005,
      "ĠĚğ!": 2006,
      "ĠĚ%!": 2007,
      "ĠĚĝ\"": 2008,
      "ĠĚğ#": 2009,
      "ĠĚę!": 2010,
      "ĠĚğě": 2011,
      "ĠĚĞě": 2012,
      "Ġ'$": 2013,
      "Ġ'Ĝ": 2014,
      "Ġ'Ğ": 2015,
      "Ġ'!!": 2016,
      "Ġ'ěğ": 2017,
      "Ġ'ĝ\"": 2018,
      "Ġ'!ĝ": 2019,
      "ĠğĞ%": 2020,
      "ĠĞğĜ": 2021,
      "ĠĞ!%": 2022,
      "ĠĞ!'": 2023,
      "ĠĞ!Ě": 2024,
      "ĠęĜ\"": 2025,
      "Ġ\"ğĘ": 2026,
      "Ġ\"ğę": 2027,
      "Ġğ\"Ě": 2028,
      "ĠĘ\"": 2029,
      "ĠĘ%": 2030,
      "ĠĘ'": 2031,
      "ĠĘĜ": 2032,
      "Ġ(!ĝ": 2033,
      "Ġ\"\"Ě": 2034,
      "ĠĞĞę": 2035,
      "Ġ\"Ğę": 2036,
      "Ġ\"ĞĚ": 2037,
      "Ġ#!$": 2038,
      "Ġĝğę": 2039,
      "Ġėğ": 2040,
      "Ā#ĝĞ": 2041,
      "Ġĝ!&": 2042,
      "Ġĝ!ě": 2043,
      "Ġ!ĝ%": 2044,
      "Ġ!ĝ&": 2045,
      "Ġ!ĝĚ": 2046,
      "Ġğĝě": 2047,
      "ĀĀĝĀę": 2048,
      "ĀĀĝĀĘ": 2049,
      "ĀĀ\"Ā*": 2050,
      "Ġ\"#%": 2051,
      "Ġ#\"$": 2052,
      "ĀĀĜĀ*": 2053,
      "ĠĝĞĝ": 2054,
      "Ġĝ\"ě": 2055,
      "ĠĞĝĜ": 2056,
      "ĀĀěĀĚ": 2057,
      "ĀĀěĀę": 2058,
      "ĀĀ$Ā$": 2059,
      "ĀĀ$ĀĘ": 2060,
      "Ġĝĝ%": 2061,
      "ĀĀĚĀę": 2062,
      "!ğ%": 2063,
      "Ġ#ĝě": 2064,
      "ĀĀ&ĀĘ": 2065,
      "ĠĜğ$": 2066,
      "ĠĜğ%": 2067,
      "Ğğ#": 2068,
      "ĠĜ!&": 2069,
      "ĠĜ!ĝ": 2070,
      "ĀĀĘĀ$": 2071,
      "Ġ$!#": 2072,
      "Ġ$!$": 2073,
      "Ġ$!ě": 2074,
      "ĀĀ'Ā%": 2075,
      "ĀĀ'Ā&": 2076,
      "ĀĀ'Āė": 2077,
      "ĀĀęĀ)": 2078,
      "ĠĠĠĠĠĠĠĠĠĠĠĠĠĠĠĠĠĠĠĠĠĠĠĠĠĠĠĠĠĠĠĠĠĠĠĠ": 2079,
      "ĀĀ)Āğ": 2080,
      "ĀĀ)Āė": 2081,
      "%#ĀĀ": 2082,
      "Ġ!Ĝě": 2083,
      "ĀĀ+Ā!": 2084,
      "ĀĀ+Ā$": 2085,
      "ĀĀ+Ā%": 2086,
      "ĀĀ+ĀĚ": 2087,
      "ĠğĜ%": 2088,
      "ĠğĜ&": 2089,
      "ĠğĜě": 2090,
      "$ĀĀ*": 2091,
      "ĠĜĞ%": 2092,
      "%ĀĀď": 2093,
      "%ĀĀĔ": 2094,
      "Ġ!$Ĝ": 2095,
      "'ĀĀ-": 2096,
      "ĀĀğĀĕ": 2097,
      "ĠěĞ#": 2098,
      "Ġ$Ğě": 2099,
      "ĠĞ$%": 2100,
      "ĀĀĕĀĜ": 2101,
      "ĀĀĕĀ%": 2102,
      "ĀĀ,Ā!": 2103,
      "ĀĀ,ĀĜ": 2104,
      "ĀĀĞĀĕ": 2105,
      "ĘğĀĀ": 2106,
      ")ĀĀē": 2107,
      "ĠĝĜ%": 2108,
      "ĀĀēĀ$": 2109,
      "Ġ#ĜĚ": 2110,
      "ĀĀ.Āğ": 2111,
      "ĠĠĠĠĠĠĠĠĠĠĠĠĠĠĠĠĠĠĠĠĠĠĠĠĠĠĠĠĠĠĠĠĠĠĠĠĠĠĠĠĠĠĠĠĠĠĠĠ": 2112,
      "!Ĝ!": 2113,
      "!\"\"": 2114,
      "\")": 2115,
      "\"ė": 2116,
      "$đ": 2117,
      "$ė": 2118,
      "$Ĝ!": 2119,
      "%Ĕ": 2120,
      "%Ė": 2121,
      "%ĀĀĞĀ\"": 2122,
      "%ĀĀ\"Ā\"": 2123,
      "&-": 2124,
      "&ĀĀğĀ!": 2125,
      "'$\"": 2126,
      "'ĀĀĝĀ!": 2127,
      "(Ė": 2128,
      "(ĀĀĞĀ": 2129,
      ").": 2130,
      ")ĀĀ!Ā": 2131,
      "*,": 2132,
      "*-": 2133,
      "*ė": 2134,
      "*Ę": 2135,
      "*ę": 2136,
      "+.": 2137,
      ",!": 2138,
      ",%": 2139,
      ",'": 2140,
      ",-": 2141,
      "-&": 2142,
      ".%": 2143,
      "/%": 2144,
      "Ā/": 2145,
      "ĀĔ": 2146,
      "ĎĀ$": 2147,
      "Đ#": 2148,
      "Đğ": 2149,
      "đ'": 2150,
      "đĕ": 2151,
      "đě": 2152,
      "đĀĜ": 2153,
      "Ē&": 2154,
      "ĒĀ!": 2155,
      "ēĐ": 2156,
      "ēĖ": 2157,
      "ēğ": 2158,
      "Ĕ%": 2159,
      "Ĕ&": 2160,
      "Ĕę": 2161,
      "ĕ+": 2162,
      "ę(": 2163,
      "ęđ": 2164,
      "ę!#": 2165,
      "Ě'": 2166,
      "Ě(": 2167,
      "ě!!": 2168,
      "Ĝ+": 2169,
      "Ĝ$$": 2170,
      "ĝĐ": 2171,
      "ĝĕ": 2172,
      "ĝě#": 2173,
      "Ğ*": 2174,
      "Ğ.": 2175,
      "Ğē": 2176,
      "ĞĔ": 2177,
      "Ğĕ": 2178,
      "ĞĖ": 2179,
      "ĞĜ#": 2180,
      "ĞĞ\"": 2181,
      "ğĒ": 2182,
      "ĠĀĀĞĀ": 2183,
      "ĠĀĀ$Ā!": 2184,
      "ĠĠč": 2185,
      "Ġ!Ĕ": 2186,
      "Ġ!Ę": 2187,
      "Ġ!ę": 2188,
      "Ġ!ě#": 2189,
      "Ġ!%$": 2190,
      "Ġ!ęğ": 2191,
      "Ġ!ęĞ": 2192,
      "Ġ!&$": 2193,
      "Ġ!(!": 2194,
      "Ġ!ė\"": 2195,
      "Ġ!ėğ": 2196,
      "ĠğĚ\"": 2197,
      "ĠğĚĞ": 2198,
      "ĠğĚ#": 2199,
      "Ġğěě": 2200,
      "Ġğ&$": 2201,
      "Ġğě%": 2202,
      "ĠğĘ\"": 2203,
      "Ġ\"ė": 2204,
      "Ġ\"ĀĀ": 2205,
      "Ġ\"&!": 2206,
      "Ġ\"ě#": 2207,
      "Ġ\"ěĝ": 2208,
      "Ġ\"ěě": 2209,
      "Ġ\"&ĝ": 2210,
      "Ġ\"ęĝ": 2211,
      "Ġ\"ĘĞ": 2212,
      "ĠĞ'": 2213,
      "ĠĞĜĝ": 2214,
      "ĠĞĚ\"": 2215,
      "ĠĞĚĝ": 2216,
      "ĠĞěě": 2217,
      "ĠĞ(!": 2218,
      "ĠĞĚ$": 2219,
      "ĠĞę\"": 2220,
      "ĠĞ'Ĝ": 2221,
      "ĀĀă": 2222,
      "ĀĀĆ": 2223,
      "Ġĝ'": 2224,
      "ĠĝĖ": 2225,
      "ĠĝĘ": 2226,
      "Ġĝ$#": 2227,
      "Ġĝ%Ğ": 2228,
      "Ġĝ&!": 2229,
      "Ġĝ$$": 2230,
      "Ġĝ&\"": 2231,
      "Ġĝěĝ": 2232,
      "Ġĝęğ": 2233,
      "ĠĝĜĜ": 2234,
      "ĠĝĜ$": 2235,
      "ĠĝęĞ": 2236,
      "Ġĝě%": 2237,
      "ĠĝĘğ": 2238,
      "Ġĝ(Ğ": 2239,
      "Ġ#ę": 2240,
      "Ġ#ě!": 2241,
      "Ġ#Ĝ#": 2242,
      "Ġ#Ě\"": 2243,
      "Ġ#ę!": 2244,
      "Ġ#ĚĜ": 2245,
      "Ġ#'\"": 2246,
      "Ġ#ě%": 2247,
      "Ġ#ę\"": 2248,
      "Ġ#&Ĝ": 2249,
      "Ġ#(Ğ": 2250,
      "Ġ#'Ĝ": 2251,
      "Ġ$(": 2252,
      "Ġ$+": 2253,
      "Ġ$Ě": 2254,
      "Ġ$%#": 2255,
      "Ġ$ě#": 2256,
      "Ġ$ĝ#": 2257,
      "Ġ$&\"": 2258,
      "Ġ$Ě!": 2259,
      "Ġ$##": 2260,
      "Ġ$ěě": 2261,
      "Ġ$Ĝě": 2262,
      "Ġ$(Ĝ": 2263,
      "Ġ$$ě": 2264,
      "ĠĜĘ": 2265,
      "ĠĜ$Ğ": 2266,
      "ĠĜě\"": 2267,
      "ĠĜ$ĝ": 2268,
      "ĠĜ&!": 2269,
      "ĠĜĚğ": 2270,
      "ĠĜ#Ĝ": 2271,
      "ĠĜĝ$": 2272,
      "ĠĜĘĝ": 2273,
      "ĠĜ#%": 2274,
      "ĠĜ$Ĝ": 2275,
      "ĠěĖ": 2276,
      "ĠěĘ": 2277,
      "Ġě$ğ": 2278,
      "Ġě$!": 2279,
      "Ġě%ğ": 2280,
      "Ġě&!": 2281,
      "ĠěĚ\"": 2282,
      "Ġě##": 2283,
      "Ġě#ĝ": 2284,
      "ĠěğĜ": 2285,
      "Ġěĝ%": 2286,
      "ĠěĜ%": 2287,
      "Ġ!!%": 2288,
      "Ġ!!'": 2289,
      "Ġ!!ę": 2290,
      "Ġ!!Ě": 2291,
      "ĠğğĚ": 2292,
      "Ġ!ğę": 2293,
      "Ġ%%": 2294,
      "Ġ%'": 2295,
      "Ġ%*": 2296,
      "Ġ%+": 2297,
      "Ġ%Ğ\"": 2298,
      "Ġ%#\"": 2299,
      "Ġ%ěĞ": 2300,
      "Ġ%&!": 2301,
      "Ġ%Ěğ": 2302,
      "Ġ%ğ\"": 2303,
      "Ġ%ěĝ": 2304,
      "Ġ%ĝĝ": 2305,
      "Ġ%Ěĝ": 2306,
      "Ġ%#ĝ": 2307,
      "Ġ%ĝĜ": 2308,
      "Ġ%Ğ#": 2309,
      "Ġ%ĞĜ": 2310,
      "Ġ%Ĝě": 2311,
      "Ġ%\"ě": 2312,
      "Ġ%%ě": 2313,
      "Ġğ!ė": 2314,
      "Ġ&ę": 2315,
      "Ġ&ĀĀ": 2316,
      "Ġ&Ğ!": 2317,
      "Ġ&$Ğ": 2318,
      "Ġ&ĜĞ": 2319,
      "Ġ&ĝ\"": 2320,
      "Ġ&#\"": 2321,
      "Ġ&ěĞ": 2322,
      "Ġ&\"\"": 2323,
      "Ġ&\"Ğ": 2324,
      "Ġ&!\"": 2325,
      "Ġ&%ĝ": 2326,
      "Ġ&\"ě": 2327,
      "ĠĚ#ğ": 2328,
      "ĠĚ$#": 2329,
      "ĠĚ\"ğ": 2330,
      "ĠĚ!#": 2331,
      "ĠĚğĜ": 2332,
      "ĠĚĞ#": 2333,
      "ĠĚĞĜ": 2334,
      "ĠĚ!$": 2335,
      "ĠĚ%&": 2336,
      "Ġ'ğ": 2337,
      "Ġ'Ĝğ": 2338,
      "Ġ'ğğ": 2339,
      "Ġ'!ğ": 2340,
      "Ġ'#ğ": 2341,
      "Ġ'%ğ": 2342,
      "Ġ'\"\"": 2343,
      "Ġ'ğě": 2344,
      "Ġ!\"Ě": 2345,
      "ĠĞ!&": 2346,
      "ĠęĜğ": 2347,
      "Ġę$!": 2348,
      "Ġę\"!": 2349,
      "Ġęĝğ": 2350,
      "Ġęğ!": 2351,
      "Ġę#!": 2352,
      "Ġęğ#": 2353,
      "ĠęĞĜ": 2354,
      "Ġ\"ğ%": 2355,
      "Ġ(%": 2356,
      "Ġ(Ĝ": 2357,
      "Ġ(ěğ": 2358,
      "Ġ(#!": 2359,
      "Ġ\"\"%": 2360,
      "ĠĞĞ%": 2361,
      "ĠĞĞ&": 2362,
      "Ġ\"Ğ&": 2363,
      "ĠĞ\"&": 2364,
      "ĠĞ\"'": 2365,
      "Ġ#!Ě": 2366,
      "ĀĀ!Ā)": 2367,
      "ĀĀ!Āė": 2368,
      "ĀĀĞĀ*": 2369,
      "Ġĝğě": 2370,
      "Ġ)!": 2371,
      "Ġ)#": 2372,
      "Ġ)ĝ": 2373,
      "Ġė!": 2374,
      "ĠėĞ": 2375,
      "ĠėĀĀ": 2376,
      "Ġė!ğ": 2377,
      "Ġė\"\"": 2378,
      "Ġė##": 2379,
      "Ġĝ!Ě": 2380,
      "Ġ!#%": 2381,
      "Ġ!#ě": 2382,
      "Ġğ#&": 2383,
      "Ġğ#Ě": 2384,
      "Ġğĝ%": 2385,
      "ĠğĝĜ": 2386,
      "ĀĀ\"Ā(": 2387,
      "Ġ*$ğ": 2388,
      "Ġ*!ĝ": 2389,
      "Ġ#\"%": 2390,
      "Ġ#\"Ě": 2391,
      "ĀĀ#Āě": 2392,
      "ĀĀ#Ā)": 2393,
      "ĀĀĜĀĖ": 2394,
      "ĠĖĚ": 2395,
      "ĠĖğ": 2396,
      "ĠĝĞĚ": 2397,
      "ĠĞ#ę": 2398,
      "ĀĀěĀ(": 2399,
      "ĀĀěĀ)": 2400,
      "ĀĀ$Ā(": 2401,
      "ĀĀ$Ā)": 2402,
      "ĀĀ$Ā+": 2403,
      "ĠĝĝĜ": 2404,
      "!!Ğ": 2405,
      "Ġ$\"$": 2406,
      "Ġ$\"%": 2407,
      "Ġ$\"ě": 2408,
      "ĀĀĚĀ'": 2409,
      "ĀĀĚĀĘ": 2410,
      "ĀĀ%Ā%": 2411,
      "Ġ##ě": 2412,
      "Ğ!#": 2413,
      "Ġ$ğĚ": 2414,
      "ĀĀ&Ā'": 2415,
      "ĠĜğ&": 2416,
      "ěğ\"": 2417,
      "ĠĜ\"&": 2418,
      "ĠĜ\"'": 2419,
      "ĠĜ\"Ĝ": 2420,
      "ĀĀ(Āę": 2421,
      "ĀĀ(Ā)": 2422,
      "ĀĀ(Āė": 2423,
      "\"!$": 2424,
      "ě!#": 2425,
      "ĀĀĘĀĚ": 2426,
      "ĀĀĘĀė": 2427,
      "ĀĀ'ĀĚ": 2428,
      "ĀĀęĀ#": 2429,
      "ĀĀęĀ%": 2430,
      "ĀĀęĀ&": 2431,
      "ĀĀęĀ'": 2432,
      "ĀĀęĀ(": 2433,
      "ğ!#": 2434,
      "Ğ\"#": 2435,
      "ě\"*": 2436,
      "\"ğ$": 2437,
      "ĀĀėĀ'": 2438,
      "ĀĀėĀ)": 2439,
      "%\"ĀĀ": 2440,
      "ĀĀ)Ā\"": 2441,
      "ĀĀ)Ā&": 2442,
      "ĀĀ)ĀĚ": 2443,
      "ĀĀĖĀĜ": 2444,
      "ĀĀĖĀě": 2445,
      "ĀĀĖĀĚ": 2446,
      "ĀĀĖĀ'": 2447,
      "&!ĀĀ": 2448,
      "!Ğ&": 2449,
      "Ě\"ĀĀ": 2450,
      "ĀĀ+Āĝ": 2451,
      "ĝ##": 2452,
      "!#%": 2453,
      "$ĀĀ-": 2454,
      "$ĀĀĕ": 2455,
      "ĠĜĞĜ": 2456,
      "%ĀĀ,": 2457,
      "%ĀĀ.": 2458,
      "Ġ!$%": 2459,
      "Ġ!$Ě": 2460,
      "'ĀĀĒ": 2461,
      "'ĀĀĕ": 2462,
      "&ĀĀ*": 2463,
      "&ĀĀē": 2464,
      "ĀĀğĀĖ": 2465,
      "(ĀĀ*": 2466,
      "(ĀĀĎ": 2467,
      "(ĀĀĕ": 2468,
      "ĠĞĜ$": 2469,
      "ĠĞĜ%": 2470,
      "ĠĀĀĔ": 2471,
      "ĠěĞ$": 2472,
      "ĠěĞĚ": 2473,
      "Ġ$ĞĜ": 2474,
      "Ġ\"$ě": 2475,
      "ĠĞ$Ĝ": 2476,
      "ĀĀĕĀĝ": 2477,
      "ĠĀĔ": 2478,
      "ĀĀ,Ā#": 2479,
      "ĀĀ,Ā+": 2480,
      "ĀĀĞĀ,": 2481,
      "Ġ#$%": 2482,
      "ĀĀ\"Ā/": 2483,
      "Ġğ%%": 2484,
      "Ġğ%ě": 2485,
      "ĀĀ-Ā!": 2486,
      "ĀĀ-ĀĞ": 2487,
      "Ġ!%ě": 2488,
      "ĠĜĝě": 2489,
      "#&+": 2490,
      "ĀĀ*Āğ": 2491,
      "ĀĀ*Ā\"": 2492,
      "ĀĀ*ĀĞ": 2493,
      "Ġ!ĚĚ": 2494,
      "ĀĀ/Āě": 2495,
      "ĀĀ.Ā#": 2496,
      "ĀĀ.Āĝ": 2497,
      "ĀĀ.Ā(": 2498,
      "ĀĀĔĀ": 2499,
      "ĀĀĒĀ$": 2500,
      "!+": 2501,
      "!-": 2502,
      "!ē": 2503,
      "!Ĕ": 2504,
      "!Ė": 2505,
      "!Ğ!": 2506,
      "!$#": 2507,
      "!%!": 2508,
      "!ĝ\"": 2509,
      "!ĘğĀĀ": 2510,
      "\",": 2511,
      "\".": 2512,
      "\"đ": 2513,
      "\"Ė": 2514,
      "\"ğğ": 2515,
      "\"ğ!": 2516,
      "\"#\"": 2517,
      "\"ĝ!": 2518,
      "\"Ğĝ": 2519,
      "\"Ě\"": 2520,
      "\"ĝ#": 2521,
      "\"Ĝ$": 2522,
      "\"&%": 2523,
      "#Ē": 2524,
      "#$#": 2525,
      "#ě\"": 2526,
      "##\"": 2527,
      "#Ğĝ": 2528,
      "#%$": 2529,
      "#ĚĞ": 2530,
      "$ē": 2531,
      "$ěĞ": 2532,
      "$ĀĀĞĀğ": 2533,
      "%$\"": 2534,
      "%#\"": 2535,
      "%&!": 2536,
      "%ĀĀ!Ā!": 2537,
      "%ĀĀĞĀ!": 2538,
      "%ĀĀĜĀ!": 2539,
      "%ĀĀ$Āě": 2540,
      "&Ĕ": 2541,
      "&$ğ": 2542,
      "&ğ!": 2543,
      "&Ę!": 2544,
      "&ĀĀĝĀ!": 2545,
      "&ĀĀ!Āğ": 2546,
      "&ęĚ": 2547,
      "&ĀĀĞĀ&": 2548,
      "'Ē": 2549,
      "'##": 2550,
      "'#$": 2551,
      "'ĀĀ\"Ā": 2552,
      "'ĀĀ!Āğ": 2553,
      "(ĀĀğĀ": 2554,
      "(ĀĀğĀğ": 2555,
      "(ĀĀ!Āĝ": 2556,
      "(ĀĀ!Ā\"": 2557,
      "(ĀĀğĀĝ": 2558,
      "(ĀĀ&Āğ": 2559,
      "(ĀĀĖĀ$": 2560,
      ")ė": 2561,
      ")ę": 2562,
      ")Ě": 2563,
      ")ĀĀĞĀ": 2564,
      ")ĀĀ#Ā": 2565,
      ")ĀĀĝĀ\"": 2566,
      ")ĀĀ$Ā": 2567,
      "*ď": 2568,
      "*Ĝ": 2569,
      "+Ė": 2570,
      "+ę": 2571,
      ",.": 2572,
      ",Ā": 2573,
      ",Ė": 2574,
      ",ě": 2575,
      ",ğ": 2576,
      "-(": 2577,
      "-Ĝ": 2578,
      ".)": 2579,
      ".ě": 2580,
      ".Ğ": 2581,
      ".Ā!": 2582,
      "/$": 2583,
      "/)": 2584,
      "/+": 2585,
      "/ĕ": 2586,
      "/ę": 2587,
      "/ě": 2588,
      ";Ā": 2589,
      "@Ā": 2590,
      "ďĚ": 2591,
      "ďĝ": 2592,
      "ďĞ": 2593,
      "ďĀĞ": 2594,
      "ĐĀ\"": 2595,
      "đ\"": 2596,
      "đ#": 2597,
      "đđ": 2598,
      "đĚ": 2599,
      "đĜ": 2600,
      "đĞ": 2601,
      "đ'+": 2602,
      "Ē\"": 2603,
      "Ē#": 2604,
      "Ē$": 2605,
      "ĒĀ": 2606,
      "ē\"": 2607,
      "ē%": 2608,
      "ē&": 2609,
      "ē)": 2610,
      "ēĚĝ": 2611,
      "Ĕ.": 2612,
      "ĔĔ": 2613,
      "ĔĚĜ": 2614,
      "Ĕ++": 2615,
      "ĕ,": 2616,
      "ĕĖ": 2617,
      "Ė'": 2618,
      "ĖĔ": 2619,
      "Ėĕ": 2620,
      "ė(": 2621,
      "ė)": 2622,
      "ė*": 2623,
      "ė+": 2624,
      "ėĔ": 2625,
      "Ę*": 2626,
      "ĘĐ": 2627,
      "ĘĞ\"": 2628,
      "Ę&$": 2629,
      "ę)": 2630,
      "ę*": 2631,
      "ę%$": 2632,
      "ę##": 2633,
      "ęĜ$": 2634,
      "ĚĒ": 2635,
      "Ěē": 2636,
      "ĚĔ": 2637,
      "ĚĖ": 2638,
      "Ěěğ": 2639,
      "Ě%\"": 2640,
      "Ě!#": 2641,
      "Ě#$": 2642,
      "ĚĀĀĒ": 2643,
      "Ě'&": 2644,
      "Ě+'": 2645,
      "ě,": 2646,
      "ě\"!": 2647,
      "ěĞ\"": 2648,
      "ěĝ!": 2649,
      "ěėĞ": 2650,
      "Ĝ*": 2651,
      "Ĝ-": 2652,
      "Ĝđ": 2653,
      "ĜĒ": 2654,
      "Ĝē": 2655,
      "ĜĀĀğĀ": 2656,
      "ĜĘ!": 2657,
      "ĜęĚ": 2658,
      "ĝ)": 2659,
      "ĝĒ": 2660,
      "ĝĞ!": 2661,
      "ĝ\"!": 2662,
      "ĝě\"": 2663,
      "Ğď": 2664,
      "Ğđ": 2665,
      "ĞĒ": 2666,
      "ĞĞ!": 2667,
      "ğ*": 2668,
      "ğ+": 2669,
      "ğĐ": 2670,
      "ğĀĀ": 2671,
      "ğ$#": 2672,
      "ğĜ#": 2673,
      "ğĞ\"": 2674,
      "ğĝ!": 2675,
      "ğ\"\"": 2676,
      "ĠĀĀ%": 2677,
      "ĠĀĖ": 2678,
      "ĠĀĀğĀ\"": 2679,
      "ĠĀĀ!Āĝ": 2680,
      "ĠĀĀ\"ĀĞ": 2681,
      "ĠĀĀęĀ": 2682,
      "ĠĀĀĞĀ&": 2683,
      "ĠĀĀ&Āğ": 2684,
      "ĠĀĀėĀ#": 2685,
      "ĠĠċ": 2686,
      "Ġ!)": 2687,
      "Ġ!*": 2688,
      "Ġ!Ěĝ": 2689,
      "Ġ!ě$": 2690,
      "Ġ!Ě#": 2691,
      "Ġ!ę!": 2692,
      "Ġ!(\"": 2693,
      "Ġ!'Ğ": 2694,
      "Ġ!Ěě": 2695,
      "Ġ!&Ĝ": 2696,
      "Ġ!(#": 2697,
      "Ġ!ęě": 2698,
      "Ġ!'Ĝ": 2699,
      "Ġ!(ĝ": 2700,
      "Ġ!*!": 2701,
      "Ġ!Ėĝ": 2702,
      "Ġ!Ęě": 2703,
      "ĠğĒ": 2704,
      "ĠğĖ": 2705,
      "Ġğė": 2706,
      "ĠğĀĀ": 2707,
      "Ġğ&ğ": 2708,
      "Ġğ%$": 2709,
      "Ġğ&Ğ": 2710,
      "Ġğě$": 2711,
      "ĠğęĞ": 2712,
      "ĠğĚĜ": 2713,
      "Ġğ'\"": 2714,
      "ĠğěĜ": 2715,
      "Ġğ&#": 2716,
      "ĠğĘğ": 2717,
      "Ġğ'Ğ": 2718,
      "ĠğęĜ": 2719,
      "Ġğęě": 2720,
      "Ġğę#": 2721,
      "Ġğėě": 2722,
      "Ġ\"%ĝ": 2723,
      "Ġ\"ęğ": 2724,
      "Ġ\"ĚĞ": 2725,
      "Ġ\"'!": 2726,
      "Ġ\"'ğ": 2727,
      "Ġ\"(\"": 2728,
      "Ġ\"'Ğ": 2729,
      "Ġ\"($": 2730,
      "ĠĞ(": 2731,
      "ĠĞĖ": 2732,
      "ĠĞė": 2733,
      "ĠĞ&Ğ": 2734,
      "ĠĞęğ": 2735,
      "ĠĞĚĜ": 2736,
      "ĠĞ&ĝ": 2737,
      "ĠĞ'\"": 2738,
      "ĠĞĘ\"": 2739,
      "ĠĞ(Ğ": 2740,
      "ĠĞ(ĝ": 2741,
      "ĀĀ=": 2742,
      "ĀĀā": 2743,
      "Ġĝě\"": 2744,
      "ĠĝěĞ": 2745,
      "ĠĝĚğ": 2746,
      "Ġĝ%ĝ": 2747,
      "Ġĝ%$": 2748,
      "ĠĝĚĞ": 2749,
      "Ġĝě$": 2750,
      "Ġĝ'!": 2751,
      "ĠĝěĜ": 2752,
      "Ġĝ'ğ": 2753,
      "Ġĝ%Ĝ": 2754,
      "Ġĝ'#": 2755,
      "Ġĝę\"": 2756,
      "Ġĝ)\"": 2757,
      "Ġ#$\"": 2758,
      "Ġ#$#": 2759,
      "Ġ#ěĞ": 2760,
      "Ġ#&!": 2761,
      "Ġ#Ě!": 2762,
      "Ġ#%$": 2763,
      "Ġ#ęĞ": 2764,
      "Ġ#ěě": 2765,
      "Ġ#'!": 2766,
      "Ġ#%Ĝ": 2767,
      "Ġ#&$": 2768,
      "Ġ#Ĝě": 2769,
      "Ġ#(ğ": 2770,
      "Ġ#)!": 2771,
      "Ġ#ęĚ": 2772,
      "Ġ#)$": 2773,
      "Ġ$$$": 2774,
      "Ġ$%$": 2775,
      "Ġ$&Ğ": 2776,
      "Ġ$Ĝ$": 2777,
      "Ġ$ĚĜ": 2778,
      "Ġ$'!": 2779,
      "Ġ$'ğ": 2780,
      "Ġ$Ęğ": 2781,
      "Ġ$'#": 2782,
      "Ġ$#%": 2783,
      "Ġ$(ĝ": 2784,
      "Ġ$)ĝ": 2785,
      "Ġ$ėę": 2786,
      "ĠĜĔ": 2787,
      "ĠĜĕ": 2788,
      "ĠĜĀĀ": 2789,
      "ĠĜě!": 2790,
      "ĠĜ%\"": 2791,
      "ĠĜěĞ": 2792,
      "ĠĜ&Ğ": 2793,
      "ĠĜ#$": 2794,
      "ĠĜĚĞ": 2795,
      "ĠĜęĞ": 2796,
      "ĠĜĝĜ": 2797,
      "ĠĜ'ğ": 2798,
      "ĠĜę\"": 2799,
      "ĠĜĚě": 2800,
      "ĠĜ'ĝ": 2801,
      "Ġě(": 2802,
      "ĠěĚ": 2803,
      "Ġě$Ğ": 2804,
      "ĠěĜĝ": 2805,
      "Ġě%!": 2806,
      "Ġěě\"": 2807,
      "Ġě#!": 2808,
      "Ġě%Ğ": 2809,
      "ĠěěĞ": 2810,
      "Ġěě#": 2811,
      "Ġě&\"": 2812,
      "Ġě#$": 2813,
      "Ġěě$": 2814,
      "ĠěĚĜ": 2815,
      "Ġě'ğ": 2816,
      "Ġěĝ$": 2817,
      "Ġě&$": 2818,
      "Ġě\"Ĝ": 2819,
      "Ġě(!": 2820,
      "ĠěĘ\"": 2821,
      "Ġ!!Ė": 2822,
      "Ġğğ'": 2823,
      "Ġ!ğ&": 2824,
      "Ġ%&": 2825,
      "Ġ%ę": 2826,
      "Ġ%ĀĀ": 2827,
      "Ġ%Ĝĝ": 2828,
      "Ġ%Ĝ#": 2829,
      "Ġ%ĝ\"": 2830,
      "Ġ%%#": 2831,
      "Ġ%ĝ#": 2832,
      "Ġ%%ĝ": 2833,
      "Ġ%\"#": 2834,
      "Ġ%##": 2835,
      "Ġ%'!": 2836,
      "Ġ%'ğ": 2837,
      "Ġ%ĝ$": 2838,
      "Ġ%%Ĝ": 2839,
      "Ġ%\"%": 2840,
      "Ġ%'Ğ": 2841,
      "Ġ%$Ĝ": 2842,
      "Ġ%ę$": 2843,
      "Ġ%%&": 2844,
      "Ġ%)ĝ": 2845,
      "Ġğ!'": 2846,
      "Ġğ!Ę": 2847,
      "Ġ&*": 2848,
      "Ġ&+": 2849,
      "Ġ&Ę": 2850,
      "Ġ&ě\"": 2851,
      "Ġ&ĝĞ": 2852,
      "Ġ&ĝ#": 2853,
      "Ġ&&\"": 2854,
      "Ġ&Ě!": 2855,
      "Ġ&ĚĞ": 2856,
      "Ġ&ĝĜ": 2857,
      "Ġ&(\"": 2858,
      "Ġ&\"Ĝ": 2859,
      "Ġ&!Ĝ": 2860,
      "Ġ&&Ĝ": 2861,
      "Ġ&ĝĚ": 2862,
      "Ġ&#ě": 2863,
      "Ġ&!Ě": 2864,
      "Ġ&ğĘ": 2865,
      "Ġ&)Ğ": 2866,
      "ĠĚĘ": 2867,
      "ĠĚę": 2868,
      "ĠĚĚ": 2869,
      "ĠĚĜ\"": 2870,
      "ĠĚ!ğ": 2871,
      "ĠĚ\"!": 2872,
      "ĠĚĜĝ": 2873,
      "ĠĚĜ#": 2874,
      "ĠĚě\"": 2875,
      "ĠĚ#!": 2876,
      "ĠĚĞĞ": 2877,
      "ĠĚĝ!": 2878,
      "ĠĚ%Ğ": 2879,
      "ĠĚĞĝ": 2880,
      "ĠĚ&!": 2881,
      "ĠĚĝ#": 2882,
      "ĠĚĜ$": 2883,
      "ĠĚĝĜ": 2884,
      "ĠĚ#Ĝ": 2885,
      "ĠĚ'#": 2886,
      "ĠĚ!%": 2887,
      "Ġ\"!&": 2888,
      "Ġ\"!ę": 2889,
      "Ġ'ĀĀ": 2890,
      "Ġ'Ğ!": 2891,
      "Ġ'ĜĞ": 2892,
      "Ġ'Ğğ": 2893,
      "Ġ'Ĝĝ": 2894,
      "Ġ'ĝğ": 2895,
      "Ġ'\"ğ": 2896,
      "Ġ'#!": 2897,
      "Ġ'ĝĞ": 2898,
      "Ġ'Ěğ": 2899,
      "Ġ'Ě\"": 2900,
      "Ġ'ğ\"": 2901,
      "Ġ''ğ": 2902,
      "Ġ'ĞĜ": 2903,
      "Ġ'!Ĝ": 2904,
      "Ġ'Ğě": 2905,
      "Ġ'\"ě": 2906,
      "ĠğĞ&": 2907,
      "ĠğĞę": 2908,
      "ĠğĞĚ": 2909,
      "Ġ!\"ę": 2910,
      "Ġę$": 2911,
      "Ġę%": 2912,
      "ĠęĖ": 2913,
      "Ġę$ğ": 2914,
      "Ġę!!": 2915,
      "ĠęĞ!": 2916,
      "Ġę$Ğ": 2917,
      "Ġę$#": 2918,
      "Ġę\"ğ": 2919,
      "ĠęĞĝ": 2920,
      "Ġę!#": 2921,
      "ĠęĚ!": 2922,
      "Ġę#$": 2923,
      "ĠęĚĞ": 2924,
      "Ġęĝ$": 2925,
      "ĠęĞ#": 2926,
      "Ġę'Ğ": 2927,
      "Ġęğ$": 2928,
      "Ġ\"ğ&": 2929,
      "Ġ!Ğ&": 2930,
      "Ġ!Ğ(": 2931,
      "Ġ!Ğę": 2932,
      "Ġğ\"ė": 2933,
      "Ġğ\"Ę": 2934,
      "ĠĘ$": 2935,
      "ĠĘĜ\"": 2936,
      "ĠĘ!ğ": 2937,
      "ĠĘĜ#": 2938,
      "ĠĘ\"ğ": 2939,
      "ĠĘĝĞ": 2940,
      "ĠĘğĝ": 2941,
      "ĠĘĝ$": 2942,
      "Ġ(&": 2943,
      "Ġ(ę": 2944,
      "Ġ(Ğ": 2945,
      "Ġ(ğ": 2946,
      "Ġ($ğ": 2947,
      "Ġ(Ĝğ": 2948,
      "Ġ(\"\"": 2949,
      "Ġ(\"Ğ": 2950,
      "Ġ(\"ĝ": 2951,
      "Ġ(ğĚ": 2952,
      "Ġ\"\"ę": 2953,
      "Ā!ğ%": 2954,
      "ĠĞĞĘ": 2955,
      "Ā\"ĝğ": 2956,
      "Ġ#!ę": 2957,
      "ĀĞ!ğ": 2958,
      "Ġ#ğ$": 2959,
      "ĀĀ!Ā*": 2960,
      "ĀĀĞĀę": 2961,
      "ĀĀĞĀ)": 2962,
      "Ġĝğ&": 2963,
      "ĠĝğĚ": 2964,
      "Ġ)\"": 2965,
      "Ġ)\"ğ": 2966,
      "Ġ)\"Ğ": 2967,
      "Ġ)ĜĜ": 2968,
      "Ġė\"": 2969,
      "Ġė#": 2970,
      "ĠėĜ": 2971,
      "Ġėĝ": 2972,
      "Ġėğ!": 2973,
      "Ā#ğ!": 2974,
      "Ġĝ!'": 2975,
      "Ġ!#ę": 2976,
      "Āĝ!\"": 2977,
      "Āĝ\"$": 2978,
      "Ġğ#%": 2979,
      "Ġğ#ě": 2980,
      "Ġğĝ&": 2981,
      "ĀĀ\"ĀĖ": 2982,
      "Ġ*!": 2983,
      "Ġ*'": 2984,
      "Ġ*ğĜ": 2985,
      "Ġ\"#$": 2986,
      "Ġ\"#Ě": 2987,
      "ĀĀ#Ā(": 2988,
      "ĀĀ#Ā*": 2989,
      "ĠĖĞ": 2990,
      "ĠĖĝ\"": 2991,
      "Ġ\"ĝ%": 2992,
      "Ġ\"ĝ&": 2993,
      "Ġĝ\"&": 2994,
      "ĠĞ#%": 2995,
      "ĠĞ#'": 2996,
      "ĠĞ#Ě": 2997,
      "ĠĞĝ%": 2998,
      "$ğ!": 2999,
      "ĀĀěĀĖ": 3000,
      "Ĝğ%": 3001,
      "ğğ\"": 3002,
      "ğğ%": 3003,
      "Ġ+!": 3004,
      "Ġ+#": 3005,
      "ĀĀ$Ā'": 3006,
      "Ġ$\"ę": 3007,
      "Ġ$\"Ě": 3008,
      "Ĝ\"$": 3009,
      "Ĝ\"'": 3010,
      "Ĝ\",": 3011,
      "$\"#": 3012,
      "$\"Ğ": 3013,
      "ĀĀ%Āę": 3014,
      "ĀĀ%Ā+": 3015,
      "Ġ##%": 3016,
      "Ġ##Ě": 3017,
      "Ğ!ĀĀ": 3018,
      "$ĞĀĀ": 3019,
      "!ğ#": 3020,
      "Ġ$ğę": 3021,
      "Ġ#ĝ$": 3022,
      "Ġ#ĝĚ": 3023,
      "Ġĕ!": 3024,
      "Ġĝ#Ĝ": 3025,
      "ĠĜğĚ": 3026,
      "ĠĜğě": 3027,
      "Ğğ)": 3028,
      "ĀĀ(ĀĘ": 3029,
      "ĀĀ(ĀĖ": 3030,
      "ĠĜ!Ě": 3031,
      "ĠĜ!ě": 3032,
      "\"!\"": 3033,
      "\"!&": 3034,
      "ě!&": 3035,
      "ĀĀĘĀę": 3036,
      "ĀĀĘĀ(": 3037,
      "ĀĀĘĀ*": 3038,
      "#ğ'": 3039,
      "$#!": 3040,
      "$#*": 3041,
      "Ĝĝ!": 3042,
      "Ġ$!&": 3043,
      "ĀĀ'ĀĜ": 3044,
      "ĀĀ'Ā(": 3045,
      "ĀĀ'ĀĘ": 3046,
      "ĀĀ'Ā)": 3047,
      "ĝğĀĀ": 3048,
      "ĠĔ#!": 3049,
      "ĀĀęĀĚ": 3050,
      "ĝ\"\"": 3051,
      "ĝ\"%": 3052,
      "Ğ\"&": 3053,
      "ě\"$": 3054,
      "#!)": 3055,
      "ĀĀėĀ(": 3056,
      "ĠĠĠĠĠĠĠĠĠĠĠĠĠĠĠĠĠĠĠĠĠ": 3057,
      "ĠĠĠĠĠĠĠĠĠĠĠĠĠĠĠĠĠĠĠĠĠĠĠĠĠĠĠĠĠ": 3058,
      "$ĝ%": 3059,
      "Ā)Ĝė": 3060,
      "ĀĀ)Ā'": 3061,
      "Ğĝ$": 3062,
      "Ğĝ*": 3063,
      "ěĞ#": 3064,
      "ĀĀĖĀ#": 3065,
      "ĀĀĖĀ%": 3066,
      "ĀĀĖĀ&": 3067,
      "ĀĀĖĀę": 3068,
      "ĀĀĖĀė": 3069,
      "ĀĀĖĀĖ": 3070,
      "ĀĀĖĀ-": 3071,
      "\"Ğ&": 3072,
      "Ġ!Ĝ%": 3073,
      "Ġ!Ĝ&": 3074,
      "ĀĀ+Ā&": 3075,
      "ğ\"$": 3076,
      "#ĞĀĀ": 3077,
      "ĝ#ĀĀ": 3078,
      "&\"%": 3079,
      "$ĀĀď": 3080,
      "ĠĜĞĚ": 3081,
      "Ġ!$ě": 3082,
      "'ĀĀ,": 3083,
      "'ĀĀ/": 3084,
      "'ĀĀđ": 3085,
      "&ĀĀ,": 3086,
      "&ĀĀ.": 3087,
      "&ĀĀĕ": 3088,
      "ĀĀğĀ*": 3089,
      "ĀĀğĀĔ": 3090,
      "!ĝĀĀ": 3091,
      "ğ#'": 3092,
      "ğ#)": 3093,
      "%$(": 3094,
      "(ĀĀ/": 3095,
      "ĠĀĀ.": 3096,
      "ĠĀĀđ": 3097,
      "ĠĀĀĕ": 3098,
      "ĝĝĀĀ": 3099,
      "ĜĜ%": 3100,
      "Ġğ$&": 3101,
      "Ġ$Ğ)": 3102,
      "ě$,": 3103,
      "\"$&": 3104,
      "Ě#&": 3105,
      "Ě#-": 3106,
      "ĠĞ$ě": 3107,
      "'\"ĀĀ": 3108,
      "ĀĀĕĀ": 3109,
      "ĀĀĕĀ\"": 3110,
      "ĀĀĕĀ&": 3111,
      "ĀĀĕĀ'": 3112,
      "ĀĀĕĀę": 3113,
      "ĠĀ,": 3114,
      "ĠĀē": 3115,
      "ĠĀĕ": 3116,
      "ĝ$)": 3117,
      "ĀĀ,Ā'": 3118,
      "Ġ%!ę": 3119,
      "ĀĀĞĀ-": 3120,
      "ě%)": 3121,
      "Ġ#$ę": 3122,
      ")ĀĀ-": 3123,
      ")ĀĀ/": 3124,
      "ĠĒĀĀ": 3125,
      "*ĀĀē": 3126,
      "*ĀĀĔ": 3127,
      "ĠğěĚ": 3128,
      "ĀĀ-Ā#": 3129,
      "ĀĀ-Ā%": 3130,
      "ĀĀ-Āę": 3131,
      "(!ĀĀ": 3132,
      "Ġěğ'": 3133,
      "ĀĀ#Āĕ": 3134,
      "Ě$&": 3135,
      "ĝ%'": 3136,
      "Ġ!%Ě": 3137,
      "ĀĀĜĀ+": 3138,
      "ĀĀěĀ+": 3139,
      "ĀĀēĀ!": 3140,
      "ĀĀēĀĜ": 3141,
      "ĠĞ%ě": 3142,
      "Ġ\"%ě": 3143,
      "ĀĀ*Ā#": 3144,
      "ĀĀ*Ā*": 3145,
      "Ğ%%": 3146,
      "ĀĀ/Ā#": 3147,
      "ĀĀ/Āė": 3148,
      "Ġ#Ĝę": 3149,
      "ĠĀğĜ": 3150,
      "ĀĀ.Ā": 3151,
      "ĀĀ.ĀĞ": 3152,
      "ĀĀĔĀ\"": 3153,
      "ĀĀĔĀ#": 3154,
      "ĀĀĔĀ&": 3155,
      "ĠĀĞğğ": 3156,
      "ĀĀğĀĞ\"\"": 3157,
      ")ğĀĀ": 3158,
      "ĀĀđĀ\"": 3159,
      "ĀĀđĀĞ": 3160,
      "ĀĀđĀ#": 3161,
      "ĀĀđĀĚ": 3162,
      "ĀĀĒĀ\"": 3163,
      "ĀĀĒĀ#": 3164,
      "ĀĀĒĀ(": 3165,
      "Ġ#%ě": 3166,
      "Ġ$#Ě": 3167,
      "Ġ$#ě": 3168,
      "ĀĀ!ĀĞ!\"": 3169,
      "Ġ%ĞĚ": 3170,
      "ĀĀĞĀ\"ě": 3171,
      "ĠĜĜ'": 3172,
      "ĀĀĞĀĜĝğ": 3173,
      "Ġ$$&": 3174,
      "Ġ%\"Ě": 3175,
      "ĀĀ&Āĕ": 3176,
      "+ĀĀď": 3177,
      "ĀĀĘĀ.": 3178,
      "Ġ\"&ę": 3179,
      "Ġ\"&Ě": 3180,
      "Ġ\"&ě": 3181,
      "ĀĀĜĀĜĞ": 3182,
      "ė&+": 3183,
      "'ĀĀěĀğ": 3184,
      "Ę',": 3185,
      "Ġ#ĚĘ": 3186,
      "ĠĀĀ-Āğ": 3187,
      "$ĀĀēĀ": 3188,
      "ĠĀĀ*Ā": 3189,
      "ĠĠĠĠĠĠĠĠĠĠĠĠĠĠĠĠĠĠĠĠĠĠĠĠĠĠĠĠĠĠĠĠĠĠĠĠĠĠĠĠĠĠĠĠĠĠĠĠĠĠĠĠĠĠĠĠĠĠĠĠĠĠĠ": 3190,
      "!*": 3191,
      "!,": 3192,
      "!ď": 3193,
      "!Ē": 3194,
      "!ĕ": 3195,
      "!Ĝğ": 3196,
      "!$\"": 3197,
      "!Ğğ": 3198,
      "!\"!": 3199,
      "!ě!": 3200,
      "!#ğ": 3201,
      "!Ğ\"": 3202,
      "!&!": 3203,
      "!%$": 3204,
      "!Ĝ$": 3205,
      "!'\"": 3206,
      "!Ęĝ": 3207,
      "!&&": 3208,
      "!Ě$": 3209,
      "!ęě": 3210,
      "!''": 3211,
      "!Ęę": 3212,
      "!Ĕĝ": 3213,
      "!Ė#": 3214,
      "!+)": 3215,
      "!#!ĀĀ": 3216,
      "\"+": 3217,
      "\"-": 3218,
      "\"Ď": 3219,
      "\"$ğ": 3220,
      "\"Ğ!": 3221,
      "\"ěğ": 3222,
      "\"\"!": 3223,
      "\"$#": 3224,
      "\"Ĝĝ": 3225,
      "\"ĞĞ": 3226,
      "\"$$": 3227,
      "\"ěĝ": 3228,
      "\"ĚĜ": 3229,
      "\"&$": 3230,
      "\"&&": 3231,
      "\"ĀĀğĀ#": 3232,
      "\"ĀĀğĀ!": 3233,
      "\"'ĝ": 3234,
      "\"ėĜ": 3235,
      "\"ĚĚ": 3236,
      "\")*": 3237,
      "\"+*": 3238,
      "\"+(": 3239,
      "#*": 3240,
      "#-": 3241,
      "#đ": 3242,
      "#Ĝ!": 3243,
      "#Ğğ": 3244,
      "#\"!": 3245,
      "#ě!": 3246,
      "##ğ": 3247,
      "#ĝ\"": 3248,
      "#ĞĞ": 3249,
      "#ĝ!": 3250,
      "#&!": 3251,
      "#ě#": 3252,
      "#ĀĀğĀ": 3253,
      "#ĜĜ": 3254,
      "#Ęĝ": 3255,
      "#'#": 3256,
      "#ĀĀğĀğ": 3257,
      "#(#": 3258,
      "#'&": 3259,
      "#*#": 3260,
      "#*$": 3261,
      "#ĀĀĜĀĝ": 3262,
      "#ėė": 3263,
      "#/#": 3264,
      "$ď": 3265,
      "$Ē": 3266,
      "$ĕ": 3267,
      "$Ĝğ": 3268,
      "$Ĝ\"": 3269,
      "$ĜĞ": 3270,
      "$Ĝĝ": 3271,
      "$'!": 3272,
      "$'Ğ": 3273,
      "$ĀĀěĀ": 3274,
      "$ĀĀĝĀ!": 3275,
      "$(Ĝ": 3276,
      "$ėĝ": 3277,
      "$ĀĀĝĀ\"": 3278,
      "$ĀĀĞĀĝ": 3279,
      "$'Ě": 3280,
      "%+": 3281,
      "%-": 3282,
      "%.": 3283,
      "%Ē": 3284,
      "%ē": 3285,
      "%ė": 3286,
      "%Ĝğ": 3287,
      "%ĜĞ": 3288,
      "%ğ!": 3289,
      "%%\"": 3290,
      "%%#": 3291,
      "%&#": 3292,
      "%ĀĀ!Ā": 3293,
      "%&&": 3294,
      "%(ğ": 3295,
      "%ĀĀ!Ā\"": 3296,
      "%ĀĀĞĀ$": 3297,
      "%ĀĀ!Ā&": 3298,
      "%ĀĀĘĀ\"": 3299,
      "%ĀĀĖĀ\"": 3300,
      "%ĀĀ$Ā%": 3301,
      "%ėĖ": 3302,
      "%ĀĀęĀĞ": 3303,
      "&*": 3304,
      "&,": 3305,
      "&Ė": 3306,
      "&Ĝ!": 3307,
      "&ěğ": 3308,
      "&ě\"": 3309,
      "&$ĝ": 3310,
      "&ĞĞ": 3311,
      "&&ğ": 3312,
      "&'#": 3313,
      "&(!": 3314,
      "&ĀĀĞĀğ": 3315,
      "&ĀĀěĀ": 3316,
      "&ĀĀğĀğ": 3317,
      "&ĀĀĞĀĞ": 3318,
      "&ĀĀ\"Āğ": 3319,
      "&ĀĀĞĀ\"": 3320,
      "&ĀĀ\"Ā!": 3321,
      "&ĀĀğĀĜ": 3322,
      "&ĀĀ\"Ā$": 3323,
      "&ĀĀĞĀ#": 3324,
      "&Ėğ": 3325,
      "&ĀĀ!Āě": 3326,
      "&ĀĀĜĀĝ": 3327,
      "&*(": 3328,
      "&ĀĀĜĀ#": 3329,
      "&,$": 3330,
      "&ĀĀĖĀ!": 3331,
      "'Đ": 3332,
      "'Ĕ": 3333,
      "'ĕ": 3334,
      "'ĝ!": 3335,
      "'ěĞ": 3336,
      "'%$": 3337,
      "'\"ĝ": 3338,
      "'Ĝ$": 3339,
      "'ĝĚ": 3340,
      "'ėĝ": 3341,
      "'($": 3342,
      "'ĀĀĞĀ\"": 3343,
      "'ĀĀĝĀĞ": 3344,
      "'ĀĀğĀ!": 3345,
      "'ĀĀ#Ā\"": 3346,
      "'ĀĀ%Ā": 3347,
      "'ĀĀ#Ā!": 3348,
      "'ĀĀĚĀ": 3349,
      "'ėĜ": 3350,
      "'ĀĀğĀě": 3351,
      "'ĀĀĞĀ#": 3352,
      "'*\"": 3353,
      "'ĀĀ!Āě": 3354,
      "'ĀĀ%Āğ": 3355,
      "'ĀĀĝĀĜ": 3356,
      "'ĀĀ#ĀĜ": 3357,
      "'ĀĀ$ĀĜ": 3358,
      "'ėĘ": 3359,
      "'ĀĀ'Āğ": 3360,
      "'ĀĀ\"Āę": 3361,
      "'Ėė": 3362,
      "'ĀĀĝĀ(": 3363,
      "(/": 3364,
      "(Ĕ": 3365,
      "(\"ğ": 3366,
      "($$": 3367,
      "(Ě\"": 3368,
      "(!#": 3369,
      "(\"#": 3370,
      "(ĜĜ": 3371,
      "(ę!": 3372,
      "(Ğ#": 3373,
      "(ĀĀ!Ā": 3374,
      "(ĀĀ\"Ā": 3375,
      "('Ğ": 3376,
      "(ĀĀĞĀğ": 3377,
      "(ĀĀĜĀ": 3378,
      "(ĀĀĝĀ!": 3379,
      "(ĀĀĞĀ!": 3380,
      "(ĀĀ!ĀĞ": 3381,
      "(ĀĀĜĀ!": 3382,
      "(ĀĀĝĀğ": 3383,
      "(ĀĀ!ĀĜ": 3384,
      "(ĀĀ!Ā#": 3385,
      "(ĀĀ\"ĀĜ": 3386,
      "(ĀĀ$Āĝ": 3387,
      "(ėė": 3388,
      "(ĀĀ\"Ā&": 3389,
      "(ĀĀ%Ā#": 3390,
      ")+": 3391,
      ")ĕ": 3392,
      ")Ę": 3393,
      ")ĀĀ&": 3394,
      ")ĀĀğĀ": 3395,
      ")ĀĀ\"Ā": 3396,
      ")!Ĝ": 3397,
      ")ĀĀğĀ\"": 3398,
      ")ĀĀ#Ā\"": 3399,
      ")ĀĀ#Ā!": 3400,
      ")ĀĀ'Ā": 3401,
      ")ĀĀęĀ": 3402,
      ")ĀĀ$Āĝ": 3403,
      ")ĀĀĚĀ#": 3404,
      ")ĀĀěĀ'": 3405,
      ")ĀĀĞĀ(": 3406,
      "*)": 3407,
      "*ĀĀĞĀ": 3408,
      "*ĀĀ!Ā!": 3409,
      "*ĀĀĝĀ!": 3410,
      "*ĀĀ\"Āğ": 3411,
      "*ĀĀğĀ#": 3412,
      "*ĀĀ#Ā\"": 3413,
      "*ĀĀĝĀĜ": 3414,
      "*ĀĀĚĀĜ": 3415,
      "*ĀĀ%ĀĚ": 3416,
      "*ĀĀĜĀĘ": 3417,
      "*ĀĀ&Āě": 3418,
      "+ď": 3419,
      "+ė": 3420,
      "+\"ğ": 3421,
      "+'ĀĀ": 3422,
      "+ĀĀ!Ā": 3423,
      "+)ĀĀ": 3424,
      "+ĀĀ-": 3425,
      "+ĀĀĞĀğ": 3426,
      "+ĀĀĜĀ": 3427,
      "+Ěě": 3428,
      "+ĀĀěĀ": 3429,
      "+ĀĀĝĀ!": 3430,
      "+ĀĀĝĀğ": 3431,
      "+,ĀĀ": 3432,
      "+ĀĀĝĀĝ": 3433,
      "+ĀĀğĀě": 3434,
      "+\"(": 3435,
      "+ĀĀ$Ā#": 3436,
      "+ĀĀĚĀĞ": 3437,
      "+ĀĀ)Āė": 3438,
      ",đ": 3439,
      ",ę": 3440,
      ",ĀĀ!Ā!": 3441,
      ",ĀĀĝĀ": 3442,
      ",ĀĀ!Āĝ": 3443,
      ",ĀĀğĀĞ": 3444,
      ",ĀĀğĀ#": 3445,
      ",ĀĀ%Ā": 3446,
      ",ĀĀĚĀ": 3447,
      ",ĀĀ\"Āě": 3448,
      ",ĀĀĜĀĞ": 3449,
      ",ĀĀĜĀ#": 3450,
      ",ĜĔ": 3451,
      ",ĀĀ!ĀĘ": 3452,
      ",Ęĕ": 3453,
      "-Đ": 3454,
      "-ě": 3455,
      "-ĝ": 3456,
      "-&$": 3457,
      "-ĀĀ!ĀĜ": 3458,
      "-ĀĀ\"Āĝ": 3459,
      "-ĀĀ%Ā": 3460,
      "-ĀĀğĀĜ": 3461,
      "-ĀĀĜĀ\"": 3462,
      "-ĀĀ$Ā!": 3463,
      "-ĀĀğĀ%": 3464,
      ".'": 3465,
      ".*": 3466,
      ".+": 3467,
      ".,": 3468,
      ".Ě": 3469,
      ".Ā$": 3470,
      ".(ĀĀ": 3471,
      ".ĀĀ\"Ā": 3472,
      ".ĀĀ\"Ā!": 3473,
      ".ĀĀğĀĝ": 3474,
      ".ĀĀĜĀĜ": 3475,
      ".ĀĀěĀĞ": 3476,
      "/&": 3477,
      "/'": 3478,
      "/ĀĀğĀ": 3479,
      "/ĀĀ!Ā!": 3480,
      "/ĀĀğĀĞ": 3481,
      "/ĀĀĝĀĝ": 3482,
      "/ĀĀ$Āğ": 3483,
      "10": 3484,
      ":Ā!": 3485,
      ";Ā&": 3486,
      "<Ā": 3487,
      "<Ā#": 3488,
      "ćě": 3489,
      "ćĀĞ": 3490,
      "ćĀ%": 3491,
      "ĎĚ": 3492,
      "Ďĝ": 3493,
      "ĎĀĜ": 3494,
      "ĎĀ*": 3495,
      "ďĀğ": 3496,
      "ďĀ&": 3497,
      "Đ\"": 3498,
      "Đ%": 3499,
      "Đě": 3500,
      "ĐĀĀ": 3501,
      "ĐĀğ": 3502,
      "ĐĀ)": 3503,
      "Đ!$": 3504,
      "đ&": 3505,
      "đĘ": 3506,
      "đě%": 3507,
      "đĀĀ+Ā": 3508,
      "đĀĀĘĀĝ": 3509,
      "Ē)": 3510,
      "ĒĖ": 3511,
      "ĒĀĀ": 3512,
      "ĒĀğ": 3513,
      "ĒĀ\"": 3514,
      "ĒĀ#": 3515,
      "ĒĀĀ/": 3516,
      "ĒĖ$": 3517,
      "Ē(-": 3518,
      "ē(": 3519,
      "ēē": 3520,
      "ēĜ": 3521,
      "ēĀ&": 3522,
      "ēĀĀ/Ā!": 3523,
      "Ĕ+": 3524,
      "Ĕē": 3525,
      "ĔĀĜ": 3526,
      "ĔĞ!": 3527,
      "Ĕ$$": 3528,
      "ĔĚ\"": 3529,
      "Ĕ!#": 3530,
      "ĔğĜ": 3531,
      "ĔĘĝ": 3532,
      "ĕ(": 3533,
      "ĕę": 3534,
      "ĕĘ#": 3535,
      "ĕĀĀ%Ā": 3536,
      "ĕ))": 3537,
      "ĕĀĀĚĀ#": 3538,
      "Ė.": 3539,
      "Ėđ": 3540,
      "Ė$ğ": 3541,
      "Ėğğ": 3542,
      "Ėě\"": 3543,
      "ĖĞĞ": 3544,
      "ĖĚ\"": 3545,
      "ĖĀĀğĀ": 3546,
      "Ėęğ": 3547,
      "Ėę\"": 3548,
      "ĖĀĀĜĀ!": 3549,
      "Ė*+": 3550,
      "ĖĀĀĘĀ#": 3551,
      "Ė'-": 3552,
      "ĖĀĀ,Ā!": 3553,
      "ėđ": 3554,
      "ėĒ": 3555,
      "ė\"!": 3556,
      "ė$#": 3557,
      "ėğ!": 3558,
      "ėĝ#": 3559,
      "ėĚ!": 3560,
      "ė#&": 3561,
      "ėĚ&": 3562,
      "ėĀĀ(Ā": 3563,
      "ė*(": 3564,
      "Ę(": 3565,
      "Ę/": 3566,
      "ĘĜ\"": 3567,
      "Ęěğ": 3568,
      "Ę#\"": 3569,
      "ĘĀĀ\"Ā": 3570,
      "ĘĀĀ#Ā": 3571,
      "ĘĞ%": 3572,
      "ĘĀĀ$Ā&": 3573,
      "ĘĀĀĞĀ)": 3574,
      "ęĒ": 3575,
      "ęĜğ": 3576,
      "ę#\"": 3577,
      "ęĝ#": 3578,
      "ę\"$": 3579,
      "ęĚ#": 3580,
      "ę\"%": 3581,
      "ę&%": 3582,
      "ę)!": 3583,
      "ęę%": 3584,
      "ęĀĀĞĀĜ": 3585,
      "ęĘĚ": 3586,
      "ę.)": 3587,
      "Ě*": 3588,
      "Ě,": 3589,
      "Ěğğ": 3590,
      "Ě!ğ": 3591,
      "Ě$$": 3592,
      "Ě!\"": 3593,
      "ĚĚ!": 3594,
      "Ě'#": 3595,
      "Ěę%": 3596,
      "ĚĀĀğĀĞ": 3597,
      "Ě'(": 3598,
      "ĚĔĝ": 3599,
      "Ě)*": 3600,
      "Ě,*": 3601,
      "Ě(-": 3602,
      "Ě,)": 3603,
      "Ě%!ĀĀ": 3604,
      "ě*": 3605,
      "ě-": 3606,
      "ěĒ": 3607,
      "ěĜ\"": 3608,
      "ěě!": 3609,
      "ě$#": 3610,
      "ěĜ#": 3611,
      "ěĞĞ": 3612,
      "ě%\"": 3613,
      "ě'\"": 3614,
      "ěĀĀ\"Ā": 3615,
      "ěĀĀĜĀ": 3616,
      "ěĀĀĝĀ!": 3617,
      "ě(#": 3618,
      "ěĀĀĞĀ!": 3619,
      "ě'&": 3620,
      "ě'(": 3621,
      "ěĀĀĝĀĝ": 3622,
      "ěĚ%": 3623,
      "ěė#": 3624,
      "ě(*": 3625,
      "ěĀĀ(Ā'": 3626,
      "ě#!ĀĀ": 3627,
      "Ĝ,": 3628,
      "ĜĜğ": 3629,
      "Ĝ$!": 3630,
      "Ĝ%$": 3631,
      "ĜęĞ": 3632,
      "ĜĚ#": 3633,
      "Ĝ(\"": 3634,
      "ĜĘğ": 3635,
      "Ĝ&'": 3636,
      "Ĝ(&": 3637,
      "ĜĀĀ#Ā!": 3638,
      "Ĝęę": 3639,
      "Ĝ*'": 3640,
      "Ĝ,#": 3641,
      "ĝ*": 3642,
      "ĝĔ": 3643,
      "ĝěğ": 3644,
      "ĝ#\"": 3645,
      "ĝĞĞ": 3646,
      "ĝĝ!": 3647,
      "ĝ%#": 3648,
      "ĝ%$": 3649,
      "ĝĚ#": 3650,
      "ĝĀĀ,": 3651,
      "ĝ&&": 3652,
      "ĝ'Ğ": 3653,
      "ĝĀĀ#Ā": 3654,
      "ĝ&'": 3655,
      "ĝ(%": 3656,
      "ĝ(&": 3657,
      "ĝ($": 3658,
      "ĝĖĞ": 3659,
      "ĝ)#": 3660,
      "ĝ)(": 3661,
      "ĝ*'": 3662,
      "ĝ)&": 3663,
      "ĝę&": 3664,
      "ĝ)'": 3665,
      "ĝ)-": 3666,
      "Ğ,": 3667,
      "Ğ-": 3668,
      "ĞĐ": 3669,
      "Ğ!!": 3670,
      "Ğ%$": 3671,
      "Ğ##": 3672,
      "ĞĜĜ": 3673,
      "ĞĚĞ": 3674,
      "ĞĚ#": 3675,
      "ĞĚ$": 3676,
      "Ğę$": 3677,
      "ĞĀĀğĀğ": 3678,
      "Ğ)\"": 3679,
      "ĞĖĞ": 3680,
      "Ğ))": 3681,
      "Ğĕĝ": 3682,
      "Ğ)(": 3683,
      "Ğėě": 3684,
      "Ğ+'": 3685,
      "ĞĀĀ%ĀĞ": 3686,
      "Ğ*(ĀĀ": 3687,
      "ğđ": 3688,
      "ğĔ": 3689,
      "ğ!ğ": 3690,
      "ğ\"!": 3691,
      "ğĝğ": 3692,
      "ğĝ\"": 3693,
      "ğ%ğ": 3694,
      "ğě\"": 3695,
      "ğ#!": 3696,
      "ğ#\"": 3697,
      "ğĞĝ": 3698,
      "ğ$$": 3699,
      "ğ%#": 3700,
      "ğ&Ğ": 3701,
      "ğĚĝ": 3702,
      "ğĚĜ": 3703,
      "ğ&#": 3704,
      "ğėĞ": 3705,
      "ğ'Ğ": 3706,
      "ğ(!": 3707,
      "ğĚ$": 3708,
      "ğ'$": 3709,
      "ğ&'": 3710,
      "ğ)\"": 3711,
      "ğ+!": 3712,
      "ğĀĀėĀ": 3713,
      "ĠĀĀ!Ā": 3714,
      "ĠĀĀ\"Ā": 3715,
      "ĠĀĀĝĀ": 3716,
      "ĠĀĀğĀğ": 3717,
      "ĠĀĀ!Āğ": 3718,
      "ĠĀĀĞĀ!": 3719,
      "ĠĀĀĝĀ\"": 3720,
      "ĠĀĀ\"Āğ": 3721,
      "ĠĀĀğĀ#": 3722,
      "ĠĀĀĜĀ!": 3723,
      "ĠĀĀ!ĀĜ": 3724,
      "ĠĀĀ\"Āĝ": 3725,
      "ĠĀĀğĀĜ": 3726,
      "ĠĀĀ!Ā#": 3727,
      "ĠĀĀĚĀğ": 3728,
      "ĠĀĀ(Ā": 3729,
      "ĠĀĀ+Ā": 3730,
      "ĠĀĀğĀĚ": 3731,
      "ĠĀĀĜĀĜ": 3732,
      "ĠĀĀğĀ%": 3733,
      "ĠĀĀĜĀĝ": 3734,
      "ĠĀĀ%Ā\"": 3735,
      "ĠĀĀ&Āĝ": 3736,
      "ĠĀĀ#Ā$": 3737,
      "ĠĀĀĜĀğ": 3738,
      "ĠĀĀ$ĀĜ": 3739,
      "ĠĀĀ%Ā$": 3740,
      "ĠĀĀęĀğ": 3741,
      "ĠĀĀěĀ#": 3742,
      "ĠĀĀěĀ$": 3743,
      "ĠĀĀĚĀ\"": 3744,
      "ĠĀĀĘĀ\"": 3745,
      "ĠĀĀ'ĀĞ": 3746,
      "ĠĀĀĖĀ\"": 3747,
      "ĠĀĀ+Ā\"": 3748,
      "ĠĀĀğĀė": 3749,
      "ĠĀĀ(Ā$": 3750,
      "ĠĀĀĖĀğ": 3751,
      "ĠĀĀĘĀĚ": 3752,
      "ĠĠĊ": 3753,
      "ĠĠČ": 3754,
      "Ġ!ė": 3755,
      "Ġ!$ĀĀ": 3756,
      "Ġ!'!": 3757,
      "Ġ!&ĝ": 3758,
      "Ġ!%Ĝ": 3759,
      "Ġ!ęĝ": 3760,
      "Ġ!ėĞ": 3761,
      "Ġ!'$": 3762,
      "Ġ!ĘĜ": 3763,
      "Ġ!ę%": 3764,
      "Ġ!ę#": 3765,
      "Ġ!Ė!": 3766,
      "Ġ!ĀĀ#Āğ": 3767,
      "Ġ!ę&": 3768,
      "Ġ!ĕ#": 3769,
      "Ġ!-&": 3770,
      "Ġğ-": 3771,
      "Ġğ&!": 3772,
      "ĠğĘĝ": 3773,
      "Ġğ'#": 3774,
      "ĠğėĞ": 3775,
      "ĠğĚ$": 3776,
      "ĠğĘ#": 3777,
      "Ġğ(ğ": 3778,
      "Ġğę$": 3779,
      "Ġğė\"": 3780,
      "Ġğ(#": 3781,
      "ĠğĘĞ": 3782,
      "Ġğ&'": 3783,
      "Ġğ)\"": 3784,
      "ĠğęĚ": 3785,
      "Ġğ*!": 3786,
      "ĠğėĜ": 3787,
      "ĠğĚ%": 3788,
      "ĠğĚĚ": 3789,
      "ĠğĘ%": 3790,
      "ĠğĖě": 3791,
      "Ġğ'ě": 3792,
      "Ġğ)&": 3793,
      "Ġğ*ğ": 3794,
      "ĠğĖ#": 3795,
      "Ġ\"(": 3796,
      "Ġ\")": 3797,
      "Ġ\"Ē": 3798,
      "Ġ\"ē": 3799,
      "Ġ\"$$": 3800,
      "Ġ\"'ĀĀ": 3801,
      "Ġ\"Ě!": 3802,
      "Ġ\"%$": 3803,
      "Ġ\"ęĞ": 3804,
      "Ġ\"ę!": 3805,
      "Ġ\"ĚĜ": 3806,
      "Ġ\"Ęĝ": 3807,
      "Ġ\"'#": 3808,
      "Ġ\"ĀĀ-": 3809,
      "Ġ\"Ě$": 3810,
      "Ġ\"Ěě": 3811,
      "Ġ\"&Ĝ": 3812,
      "Ġ\"'%": 3813,
      "Ġ\"(Ĝ": 3814,
      "Ġ\"'&": 3815,
      "Ġ\"'Ĝ": 3816,
      "Ġ\"ĀĀĜĀ!": 3817,
      "Ġ\"(ĝ": 3818,
      "Ġ\"Ėĝ": 3819,
      "Ġ\"Ė!": 3820,
      "Ġ\")#": 3821,
      "Ġ\"Ė\"": 3822,
      "Ġ\"'ě": 3823,
      "Ġ\"ėě": 3824,
      "Ġ\"ĘĚ": 3825,
      "Ġ\"ĀĀď": 3826,
      "Ġ\"(ę": 3827,
      "ĠĞ*": 3828,
      "ĠĞĔ": 3829,
      "ĠĞĚ!": 3830,
      "ĠĞęĞ": 3831,
      "ĠĞěĜ": 3832,
      "ĠĞ&$": 3833,
      "ĠĞě%": 3834,
      "ĠĞĘğ": 3835,
      "ĠĞ'Ğ": 3836,
      "ĠĞĘ#": 3837,
      "ĠĞ(ğ": 3838,
      "ĠĞė\"": 3839,
      "ĠĞ(#": 3840,
      "ĠĞ(Ĝ": 3841,
      "ĠĞĀĀ#Ā!": 3842,
      "ĠĞĚ%": 3843,
      "ĠĞĕ\"": 3844,
      "ĠĞė#": 3845,
      "ĠĞėĚ": 3846,
      "ĠĞĘ%": 3847,
      "ĠĞĕĞ": 3848,
      "ĠĞĖ$": 3849,
      "ĠĞĘė": 3850,
      "Ġĝ$Ğ": 3851,
      "Ġĝěğ": 3852,
      "Ġĝ%#": 3853,
      "ĠĝĚ!": 3854,
      "Ġĝ&ğ": 3855,
      "ĠĝĚĝ": 3856,
      "Ġĝę!": 3857,
      "Ġĝ&ĝ": 3858,
      "Ġĝ&#": 3859,
      "Ġĝ&$": 3860,
      "Ġĝ'Ğ": 3861,
      "ĠĝĘ\"": 3862,
      "Ġĝ)!": 3863,
      "ĠĝĘĞ": 3864,
      "ĠĝĘ$": 3865,
      "ĠĝĔĜ": 3866,
      "ĠĝĖĜ": 3867,
      "Ġĝ+#": 3868,
      "Ġĝė%": 3869,
      "Ġ#)": 3870,
      "Ġ#ė": 3871,
      "Ġ#ěğ": 3872,
      "Ġ#%#": 3873,
      "Ġ#%ĀĀ": 3874,
      "Ġ#ě$": 3875,
      "Ġ#Ě#": 3876,
      "Ġ#(\"": 3877,
      "Ġ#Ęğ": 3878,
      "Ġ#'#": 3879,
      "Ġ#'Ğ": 3880,
      "Ġ#Ę\"": 3881,
      "Ġ#ęĜ": 3882,
      "Ġ#)ğ": 3883,
      "Ġ#*!": 3884,
      "Ġ#ĀĀĞĀ#": 3885,
      "Ġ#ėę": 3886,
      "Ġ#ĀĀğĀĚ": 3887,
      "Ġ#(ě": 3888,
      "Ġ#Ėę": 3889,
      "Ġ#ĖĚ": 3890,
      "Ġ#ĔĚ": 3891,
      "Ġ$)": 3892,
      "Ġ$ē": 3893,
      "Ġ$ė": 3894,
      "Ġ$Ę": 3895,
      "Ġ$%\"": 3896,
      "Ġ$Ěğ": 3897,
      "Ġ$#$": 3898,
      "Ġ$ĚĞ": 3899,
      "Ġ$ě$": 3900,
      "Ġ$ęĞ": 3901,
      "Ġ$ę!": 3902,
      "Ġ$(\"": 3903,
      "Ġ$Ęĝ": 3904,
      "Ġ$Ě$": 3905,
      "Ġ$'$": 3906,
      "Ġ$)ğ": 3907,
      "Ġ$'ĝ": 3908,
      "Ġ$Ĝ%": 3909,
      "Ġ$*$": 3910,
      "Ġ$(ě": 3911,
      "Ġ$ĕĞ": 3912,
      "Ġ$'Ě": 3913,
      "Ġ$-ĀĀ": 3914,
      "Ġ$Ěę": 3915,
      "ĠĜ$!": 3916,
      "ĠĜ#Ğ": 3917,
      "ĠĜ$ĀĀ": 3918,
      "ĠĜ%ĝ": 3919,
      "ĠĜě$": 3920,
      "ĠĜĚ#": 3921,
      "ĠĜĚĜ": 3922,
      "ĠĜ&ĝ": 3923,
      "ĠĜěĜ": 3924,
      "ĠĜ&$": 3925,
      "ĠĜęĝ": 3926,
      "ĠĜ'Ğ": 3927,
      "ĠĜĜě": 3928,
      "ĠĜĘ#": 3929,
      "ĠĜęĜ": 3930,
      "ĠĜ&Ĝ": 3931,
      "ĠĜėğ": 3932,
      "ĠĜ'%": 3933,
      "ĠĜ)ğ": 3934,
      "ĠĜĀĀĝĀ\"": 3935,
      "ĠĜ)\"": 3936,
      "ĠĜ'Ĝ": 3937,
      "ĠĜĜĚ": 3938,
      "ĠĜė$": 3939,
      "ĠĜ$&": 3940,
      "ĠĜĕ!": 3941,
      "ĠĜĔě": 3942,
      "Ġě&": 3943,
      "Ġěė": 3944,
      "ĠěĀĀ": 3945,
      "ĠěĜ\"": 3946,
      "ĠěĚğ": 3947,
      "Ġě#Ğ": 3948,
      "Ġě!ĝ": 3949,
      "Ġě&ğ": 3950,
      "Ġě&Ğ": 3951,
      "Ġěĝĝ": 3952,
      "ĠěĜĜ": 3953,
      "ĠěĚĞ": 3954,
      "ĠěęĞ": 3955,
      "ĠěĚ#": 3956,
      "Ġě&ĝ": 3957,
      "Ġě'\"": 3958,
      "ĠěěĜ": 3959,
      "Ġě(\"": 3960,
      "Ġěğě": 3961,
      "Ġě'$": 3962,
      "Ġě)!": 3963,
      "Ġě(Ğ": 3964,
      "Ġě)ğ": 3965,
      "Ġě%%": 3966,
      "ĠěĜĚ": 3967,
      "Ġě$%": 3968,
      "Ġě(ĝ": 3969,
      "ĠěĖ!": 3970,
      "ĠěėĜ": 3971,
      "Ġěė$": 3972,
      "Ġě%Ě": 3973,
      "Ġě%ę": 3974,
      "Ġě+Ğ": 3975,
      "Ġ!ğ(": 3976,
      "Ġ!ğĘ": 3977,
      "Ġ%(": 3978,
      "Ġ%,": 3979,
      "Ġ%ė": 3980,
      "Ġ%ěğ": 3981,
      "Ġ%ě!": 3982,
      "Ġ%$$": 3983,
      "Ġ%Ě\"": 3984,
      "Ġ%&\"": 3985,
      "Ġ%%ĀĀ": 3986,
      "Ġ%ğ#": 3987,
      "Ġ%&Ğ": 3988,
      "Ġ%#$": 3989,
      "Ġ%&ĝ": 3990,
      "Ġ%ěĜ": 3991,
      "Ġ%&$": 3992,
      "Ġ%Ęĝ": 3993,
      "Ġ%'#": 3994,
      "Ġ%&&": 3995,
      "Ġ%ę\"": 3996,
      "Ġ%ğ%": 3997,
      "Ġ%Ę!": 3998,
      "Ġ%(Ğ": 3999,
      "Ġ%$ě": 4000,
      "Ġ%'Ĝ": 4001,
      "Ġ%#Ě": 4002,
      "Ġ%ęę": 4003,
      "Ġ%Ě%": 4004,
      "Ġ%$&": 4005,
      "Ġ%ĔĜ": 4006,
      "Ġ%Ēĝ": 4007,
      "Ġ%ęĘ": 4008,
      "Ġğ!ę": 4009,
      "Ġ&(": 4010,
      "Ġ&)": 4011,
      "Ġ&ė": 4012,
      "Ġ&Ě": 4013,
      "Ġ&Ĝ!": 4014,
      "Ġ&$ğ": 4015,
      "Ġ&Ĝğ": 4016,
      "Ġ&ěğ": 4017,
      "Ġ&%!": 4018,
      "Ġ&Ğ\"": 4019,
      "Ġ&$ĝ": 4020,
      "Ġ&%Ğ": 4021,
      "Ġ&Ě\"": 4022,
      "Ġ&ě#": 4023,
      "Ġ&ěĝ": 4024,
      "Ġ&&ğ": 4025,
      "Ġ&(ĀĀ": 4026,
      "Ġ&ĝĝ": 4027,
      "Ġ&#$": 4028,
      "Ġ&Ěĝ": 4029,
      "Ġ&ě$": 4030,
      "Ġ&Ě#": 4031,
      "Ġ&#ĝ": 4032,
      "Ġ&ę!": 4033,
      "Ġ&'!": 4034,
      "Ġ&&ĝ": 4035,
      "Ġ&'\"": 4036,
      "Ġ&'#": 4037,
      "Ġ&ĞĜ": 4038,
      "Ġ&Ĝě": 4039,
      "Ġ&$Ĝ": 4040,
      "Ġ&Ğě": 4041,
      "Ġ&ğĚ": 4042,
      "Ġ&Ğ$": 4043,
      "Ġ&ĘĜ": 4044,
      "Ġ&$ě": 4045,
      "Ġ&%%": 4046,
      "Ġ&'ĝ": 4047,
      "Ġ&ĕ!": 4048,
      "Ġ&Ğ(": 4049,
      "Ġ&Ğę": 4050,
      "Ġ&\"Ě": 4051,
      "Ġ&%Ě": 4052,
      "Ġ&)Ĝ": 4053,
      "ĠĚĖ": 4054,
      "ĠĚĀĀ": 4055,
      "ĠĚĜ!": 4056,
      "ĠĚĜğ": 4057,
      "ĠĚě!": 4058,
      "ĠĚ%ğ": 4059,
      "ĠĚěĞ": 4060,
      "ĠĚ%#": 4061,
      "ĠĚĚ!": 4062,
      "ĠĚěĝ": 4063,
      "ĠĚ!ĝ": 4064,
      "ĠĚ&ğ": 4065,
      "ĠĚğĝ": 4066,
      "ĠĚ\"ĝ": 4067,
      "ĠĚĝĝ": 4068,
      "ĠĚĚĞ": 4069,
      "ĠĚ#ĝ": 4070,
      "ĠĚ'!": 4071,
      "ĠĚ&ĝ": 4072,
      "ĠĚ'ğ": 4073,
      "ĠĚ(\"": 4074,
      "ĠĚĝ$": 4075,
      "ĠĚĘĝ": 4076,
      "ĠĚęĝ": 4077,
      "ĠĚĝ%": 4078,
      "ĠĚ!Ĝ": 4079,
      "ĠĚĚě": 4080,
      "ĠĚĘ!": 4081,
      "ĠĚğ$": 4082,
      "ĠĚĞ%": 4083,
      "ĠĚĜĚ": 4084,
      "ĠĚ*#": 4085,
      "ĠĚĖ\"": 4086,
      "ĠĚ%ę": 4087,
      "ĠĚ#ę": 4088,
      "Ġ\"!%": 4089,
      "Ġ\"!'": 4090,
      "Ġ')": 4091,
      "Ġ'ė": 4092,
      "Ġ'$ğ": 4093,
      "Ġ'ě!": 4094,
      "Ġ'ğ!": 4095
    },
    "merges": [
      "Ġ Ġ",
      "Ġ !",
      "Ġ ğ",
      "ĠĠ ĠĠ",
      "Ġ \"",
      "Ġ Ğ",
      "ĠĠ Ġ",
      "Ā Ā",
      "Ġ ĝ",
      "Ġ #",
      "Ġ $",
      "ĠĠĠĠ Ġ",
      "Ġ Ĝ",
      "Ġ ě",
      "Ġ! !",
      "Ġğ ğ",
      "Ġ! ğ",
      "ĠĠĠĠ ĠĠĠĠ",
      "Ġ %",
      "Ġğ !",
      "Ġ &",
      "Ġ Ě",
      "Ġ\" !",
      "Ġ '",
      "Ġğ Ğ",
      "ĠĞ ğ",
      "Ġ! \"",
      "ĠĞ !",
      "Ġ ę",
      "Ġ\" ğ",
      "Ġ! Ğ",
      "Ġğ \"",
      "ĠĠĠĠ ĠĠ",
      "Ġ Ę",
      "Ġ (",
      "Ġ\" \"",
      "Ā ğ",
      "Ā !",
      "ĠĞ Ğ",
      "Ġ\" Ğ",
      "Ā \"",
      "ĠĞ \"",
      "ĀĀ ğ",
      "Ġ# !",
      "Ā Ğ",
      "Ġ# ğ",
      "ĀĀ !",
      "ĀĀ Ğ",
      "Ġĝ ğ",
      "Ġ )",
      "Ġ ė",
      "Ā #",
      "Ġĝ !",
      "Ġ! ĝ",
      "Ġ! #",
      "Ā ĝ",
      "Ġğ #",
      "Ā Ĝ",
      "Ġğ ĝ",
      "ĀĀ ĝ",
      "ĀĀ \"",
      "Ġğğ !",
      "Ġ!! ğ",
      "Ā $",
      "ĠĠĠĠ ĠĠĠ",
      "Ġ!ğ ğ",
      "Ġ *",
      "Ġ\" #",
      "Ġ# \"",
      "Ġğ! !",
      "ĀĀ #",
      "ĀĀ Ĝ",
      "Ā ě",
      "Ġ Ė",
      "Ā %",
      "Ġ\" ĝ",
      "Ġĝ Ğ",
      "Ġ!! !",
      "Ġ# Ğ",
      "Ġĝ \"",
      "Ġ!ğ !",
      "ĠĞ #",
      "ĠĞ ĝ",
      "ĠĠĠĠĠĠĠĠ ĠĠĠ",
      "Ġğğ ğ",
      "Ĝ !",
      "Ġğ! ğ",
      "ĠĠĠĠĠĠĠĠ ĠĠĠĠ",
      "Ā &",
      "$ ğ",
      "ĀĀ ě",
      "Ĝ ğ",
      "ğ ğ",
      "Ġ +",
      "$ !",
      "Ā Ě",
      "ĀĀ $",
      "Ġĝ ĝ",
      "! !",
      "Ġ$ \"",
      "ĀĀ Ě",
      "Ĝ \"",
      "$ \"",
      "ĀĀ %",
      "Ġ# #",
      "Ğ !",
      "$ Ğ",
      "! ğ",
      "Ĝ Ğ",
      "Ġ$ ğ",
      "Ġ# ĝ",
      "ĠĠĠĠĠĠĠĠ ĠĠ",
      "Ġ ĕ",
      "ĀĀ &",
      "Ā '",
      "Ġĝ #",
      "ĠĜ ğ",
      "ě ğ",
      "ĠĜ \"",
      "Ġ\"! ğ",
      "ĠĞğ !",
      "Ġ!ğ Ğ",
      "Ğ ğ",
      "ĀĀ (",
      "ĠĜ !",
      "ĠğĞ !",
      "\" !",
      "Ā ę",
      "Ġ!! Ğ",
      "Ġ\"ğ ğ",
      "ě !",
      "Ġ!\" ğ",
      "ĀĀ Ę",
      "# ğ",
      "$ #",
      "Ĝ ĝ",
      "Ġ$ !",
      "Ĝ #",
      "ĀĀ '",
      "ĝ ğ",
      "Ġ Ĕ",
      "ĀĀ ę",
      "ğ !",
      "Ġ ,",
      "% !",
      "Ā (",
      "ĝ \"",
      "Ġğğ \"",
      "ĠğĞ ğ",
      "ĠĞ! !",
      "% ğ",
      "Ğ \"",
      "ě \"",
      "\" ğ",
      "# !",
      "ĀĀ ė",
      "Ġğ\" !",
      "ĠĠĠĠĠĠĠĠ ĠĠĠĠĠĠĠĠ",
      "# \"",
      "$ ĝ",
      "Ā Ę",
      "Ğ Ğ",
      "Ġğ! \"",
      "% \"",
      "ĝ !",
      "ĝ Ğ",
      "Ġ\"! !",
      "Ġ!\" !",
      "Ā )",
      "Ġ!! \"",
      "ĀĀ )",
      "% Ğ",
      "Ğ ĝ",
      "ĠĞ! ğ",
      "ě Ğ",
      "ĀĀ Ė",
      "& !",
      "Ě ğ",
      "Ġ!Ğ ğ",
      "\" \"",
      "$ $",
      "Ġğ\" ğ",
      "! Ğ",
      "\" Ğ",
      "% #",
      "Ě \"",
      "Ġğğ Ğ",
      "Ā ė",
      "! \"",
      "ğ Ğ",
      "Ġ! Ĝ",
      "ĀĀ +",
      "Ġ!ğ \"",
      "ě #",
      "Ġğ Ĝ",
      "Ġ!Ğ !",
      "ĠĞğ ğ",
      "ğ \"",
      "Ġ\"! Ğ",
      "# Ğ",
      "ĠĞğ \"",
      "ĝ #",
      "! #",
      "& \"",
      "$ ĀĀ",
      "ĠĜ Ğ",
      "Ġ\"\" ğ",
      "% ĀĀ",
      "Ġ! $",
      "Ġğ! Ğ",
      "' ĀĀ",
      "Ě !",
      "ě ĝ",
      "ĠĠĠĠ ĠĠĠĠĠ",
      "& ĀĀ",
      "ĠĞĞ !",
      "Ġ -",
      "ĠĠĠĠĠĠĠĠ ĠĠĠĠĠ",
      "ĠĞ! \"",
      "ĀĀğ Ā",
      "! ĝ",
      "& ğ",
      "Ġ\"ğ !",
      "Ġ!Ğ Ğ",
      "% ĝ",
      "ğ #",
      "Ġ#! ğ",
      "ğ ĝ",
      "% $",
      "Ġ\"ğ Ğ",
      "Ġğ\" \"",
      "Ġ\"Ğ ğ",
      "\" #",
      "\" ĝ",
      "( ĀĀ",
      "Ġ .",
      "Ġ!\" Ğ",
      "ĠĞ Ĝ",
      "& Ğ",
      "Ā *",
      "Ġ ĀĀ",
      "Ġě Ğ",
      "ĠĞ\" !",
      "# #",
      "ĝ ĝ",
      "Ġ ē",
      "ę ğ",
      "Ĝ Ĝ",
      "Ġğ $",
      "# $",
      "Ě ĝ",
      "Ĝ $",
      "Ġ$ Ğ",
      "ĠĞĞ ğ",
      "Ě Ğ",
      "ě $",
      "Ġ#ğ ğ",
      "Ġĝ! !",
      "\" $",
      "ę Ğ",
      "Ě #",
      "Ġ\" $",
      "Ġ\"Ğ !",
      "Ġĝğ !",
      "# ĝ",
      "ę !",
      "ě ě",
      "ĠğĞ \"",
      "Ā Ė",
      "Ġ!ğ ĝ",
      "Ě Ĝ",
      "ĠĞ $",
      "Ġ\"\" !",
      "Ġ!! ĝ",
      "' !",
      "Ġě !",
      "& ĝ",
      "' \"",
      "ě Ĝ",
      "ĝ Ĝ",
      "ĀĀ ĕ",
      "# Ĝ",
      "Ġ Ā",
      "Ġ\"\" Ğ",
      "' ğ",
      "( \"",
      "ĝ $",
      "ĀĀ ,",
      "Ġ% !",
      "% Ĝ",
      "& #",
      "ğ Ĝ",
      "ĀĀĞ Ā",
      "Ġ!# ğ",
      "ĠĞğ #",
      "Ġ!\" \"",
      "Ġğ! #",
      "& $",
      "ě %",
      "Ğ #",
      "ĀĀ! Ā",
      "\" %",
      "Ę ĝ",
      "Ę ğ",
      "Ġ# $",
      "Ġ#! !",
      "Ġğ\" Ğ",
      "ĠĞĞ \"",
      "ĠĞ\" ğ",
      "Ġ!ĝ ğ",
      "Ġ#\" ğ",
      "ĠĞ! Ğ",
      "Ġĝğ ğ",
      "ĀĀ\" Ā",
      "' #",
      ") ĀĀ",
      "Ğ Ĝ",
      "Ġğ %",
      "ę ĝ",
      "ğ ě",
      "Ġ Ē",
      "Ġğğ #",
      "ĠĞğ Ğ",
      "Ġ#! Ğ",
      "Ġğ# ğ",
      "ė Ğ",
      "Ġğğ ĝ",
      "Ġ\"! ĝ",
      "ĠğĞ #",
      "& &",
      "* ĀĀ",
      "Ġğ ě",
      "ĀĀ -",
      "Ġĝ Ĝ",
      "ĠğĞ Ğ",
      "Ġ\"Ğ Ğ",
      "\" Ĝ",
      "' Ğ",
      "( !",
      "Ġĝ $",
      "Ġ$ ĝ",
      "Ġě ğ",
      "ĠĠĠĠĠĠĠĠ ĠĠĠĠĠĠĠ",
      "Ġ\"! \"",
      "Ġ#ğ !",
      "Ġ#ğ Ğ",
      "ĀĀĞ Āğ",
      "Ġĝ! \"",
      "Ġğĝ ğ",
      "ĀĀ# Ā",
      "ĠĞĝ !",
      "! $",
      "Ě $",
      "Ĝ ě",
      "ĝ %",
      "Ġ! %",
      "Ġ\"ğ \"",
      "Ġĝğ \"",
      "! Ĝ",
      "ę \"",
      "ğ %",
      "ĠĜ ĝ",
      "Ġ!! Ĝ",
      "ĀĀ! Ā!",
      "Ġ!ĝ !",
      "ĀĀĜ Ā",
      "ĠĝĞ !",
      "Ę \"",
      "Ě ě",
      "Ġ /",
      "Ġğĝ !",
      "ĀĀě Ā",
      "# %",
      "$ Ĝ",
      "Ę !",
      "Ğ ě",
      "ğ Ě",
      "ĀĀ ē",
      "Ġğ! ĝ",
      "\" ě",
      "# &",
      "Ę #",
      "ĠĞ %",
      "Ġ!Ğ \"",
      "Ġ!Ğ ĝ",
      "Ġ!ĝ Ğ",
      "& %",
      "Ğ $",
      "ğ $",
      "Ġ\" %",
      "ĠĠĠĠĠĠĠĠ ĠĠĠĠĠĠĠĠĠĠ",
      "ĠĞ! #",
      "Ġ\"\" ĝ",
      "ĀĀğ Ā\"",
      "Ġğ# !",
      "Ġ\"# ğ",
      "! %",
      "ę Ĝ",
      "ĀĀ *",
      "Ġ\"Ğ ĝ",
      "ĠĞ\" \"",
      "Ġ!# Ğ",
      "ĀĀĝ Ā",
      "ĀĀĝ Ā!",
      "Ġ\"# !",
      "Ġ\"# Ğ",
      "Ġ#Ğ Ğ",
      "' $",
      "( ğ",
      ") !",
      "ę $",
      "Ğ %",
      "Ġ Ā!",
      "Ġ! Ě",
      "Ġ! ě",
      "Ġ\" Ĝ",
      "ĠĞ ě",
      "ĀĀ /",
      "Ġ# Ĝ",
      "Ġ$ ğğ",
      "Ġ$ !ğ",
      "Ġ!ğ #",
      "Ġ!# !",
      "& Ĝ",
      "ė \"",
      "Ġğ\" #",
      "ĀĀğ Āğ",
      "ĀĀ! Āğ",
      "! ě",
      "ė ğ",
      "Ġ Āğ",
      "ĀĀ .",
      "Ġ!\" ĝ",
      "Ġĝ! ğ",
      "Ġğ# Ğ",
      "Ġ#\" !",
      "' %",
      "( #",
      "( Ğ",
      "Ę Ĝ",
      "Ę Ğ",
      "ĀĀ Ĕ",
      "Ġ!ğ Ĝ",
      "Ġ% ğ",
      "ĀĀ! Āĝ",
      "ĀĀĞ Ā!",
      "Ġ#Ğ ğ",
      "( Ĝ",
      "Ā +",
      "ę %",
      "ę ě",
      "ĝ Ě",
      "Ġ ĀĞ",
      "Ġě \"",
      "Ġ\"ğ ĝ",
      "Ġ\"Ğ \"",
      "ĀĀğ ĀĞ",
      "ĀĀ! Ā\"",
      "ĀĀĞ ĀĞ",
      "Ġ!# \"",
      "Ġğĝ Ğ",
      "Ġĝ\" !",
      "Ġĝ\" ğ",
      "ĠĞ# !",
      "$ ě",
      ") ğ",
      "ė ĝ",
      "Ġ! &",
      "ĀĀ đ",
      "ĠĠĠĠĠĠĠĠ ĠĠĠĠĠĠĠĠĠĠĠĠ",
      "Ġ\"\" \"",
      "Ġğĝ \"",
      "ĀĀĝ Ā\"",
      "Ġ\"ĝ !",
      "Ġĝĝ ğ",
      "& '",
      ") \"",
      "ę Ě",
      "ĝ ě",
      "ĀĀ Ē",
      "Ġ# %",
      "Ġ$ #",
      "Ġ\"ğ Ĝ",
      "Ġ!Ğ #",
      "Ġğ# \"",
      "ĀĀ\" Āğ",
      "' &",
      "( %",
      "( &",
      "Ę $",
      "ę #",
      "Ġ 0",
      "Ġ Āĝ",
      "Ġ! $ğ",
      "ĠĜ #",
      "Ġ!! #",
      "Ġ\"! Ĝ",
      "ĀĀğ Ā#",
      "Ġ#ğ ĝ",
      "ĀĀ! ĀĞ",
      "Ġ#\" Ğ",
      "Ġ#Ğ !",
      "ĠĜğ \"",
      "! &",
      "% %",
      "' Ĝ",
      "( $",
      "Ĝ Ě",
      "Ġ đ",
      "Ġ Ā\"",
      "Ġ ĀĜ",
      "Ġ# ě",
      "Ġ% Ğ",
      "Ġğ! $",
      "ĀĀĝ Ā#",
      "ĀĀĜ Ā!",
      "Ġ## ğ",
      "\" &",
      "ė !",
      "Ġ\" $ğ",
      "Ġ$ Ğ!",
      "ĠĜ !!",
      "Ġ\"! #",
      "ĠğĞ ĝ",
      "Ġ\"Ğ Ĝ",
      "Ġ#! ĝ",
      "ĀĀĞ Ā\"",
      "ĀĀĝ Āğ",
      "ĀĀĝ ĀĞ",
      "Ġ\"ĝ ğ",
      "Ġ$\" Ğ",
      "$ %",
      ", ĀĀ",
      "Ġ\" ě",
      "ĠĜ Ĝ",
      "Ġě ĝ",
      "ĠĞ! ĝ",
      "ĠĞ\" Ğ",
      "ĀĀğ Ā!",
      "ĀĀ! ĀĜ",
      "ĀĀĞ ĀĜ",
      "ĀĀ\" Ā!",
      "ĀĀ\" Āĝ",
      "ĀĀ# Ā\"",
      "ĠĞ# \"",
      "Ġĝĝ !",
      "ĀĀ% Ā",
      "' '",
      "' ĝ",
      "( ĝ",
      "* !",
      "Ġ Āě",
      "Ġ$ $",
      "Ġ$ Ğğ",
      "Ġ!ğ $",
      "Ġ% \"",
      "ĠĞĞ #",
      "ĠĞĞ Ğ",
      "ĀĀğ ĀĜ",
      "Ġĝğ #",
      "ĀĀ# Ā!",
      "ĀĀĚ Ā",
      "ĀĀ& Ā",
      "# Ě",
      "# ě",
      "% &",
      "' (",
      ") $",
      "* #",
      "Ė ĝ",
      "Ė Ğ",
      "Ę ę",
      "Ę ě",
      "ğ &",
      "Ġ Đ",
      "Ġ Ā#",
      "Ġ! $!",
      "Ġğ $ğ",
      "ĀĀ! Ā#",
      "Ġ\"ĝ \"",
      "Ġ\"ĝ Ğ",
      "ĠĝĞ \"",
      "ĠĝĞ ğ",
      "Ġ$ğ Ğ",
      "! Ě",
      "+ ĀĀ",
      "ę ę",
      "Ğ Ě",
      "ğ '",
      "ğ ę",
      "Ġğ $!",
      "ĠĞ Ĝ!",
      "Ġğğ $",
      "ĠĞ\" #",
      "ĀĀĞ Āĝ",
      "Ġĝ! #",
      "Ġ!ĝ \"",
      "ĀĀĝ Āĝ",
      "ĀĀ\" ĀĞ",
      "Ġ\"# ĝ",
      ") %",
      "Ė !",
      "ė Ĝ",
      "Ě %",
      "Ě &",
      "ĝ &",
      "Ġ Ā$",
      "Ġ! Ĝğ",
      "Ġ\" $Ğ",
      "Ġĝ %",
      "Ġ$ %",
      "Ġğğ Ĝ",
      "Ġğ! %",
      "ĠĚ ğ",
      "ĠğĞ Ĝ",
      "ĠĞ! $",
      "Ġğ\" ĝ",
      "Ġ#ğ \"",
      "ĀĀĞ Ā$",
      "ĀĀ\" Ā$",
      "ĀĀ$ Ā",
      "Ġ$\" !",
      "Ġ## Ğ",
      "ĀĀĘ Ā",
      ") #",
      "ĕ \"",
      "Ė \"",
      "ė #",
      "ė $",
      "Ě Ě",
      "Ĝ %",
      "Ġ! Ĝ!",
      "ĠĞ Ĝğ",
      "Ġ# $Ğ",
      "ĠĜ ğğ",
      "Ġğ! Ĝ",
      "Ġ!\" #",
      "ĀĀğ Āĝ",
      "ĀĀğ Āě",
      "Ġ#! \"",
      "ĀĀĞ Ā#",
      "Ġ!# ĝ",
      "Ġğ# ĝ",
      "ĀĀ# Āğ",
      "ĠĝĞ #",
      "Ġĝĝ Ğ",
      "Ġ$\" ğ",
      "Ġ#ĝ Ğ",
      "Ġĝ# !",
      "ĠĜğ !",
      "Ġ$! Ğ",
      "$ &",
      ") )",
      "* \"",
      "* $",
      "+ !",
      "Ė ğ",
      "ğ Ę",
      "Ġ\" &",
      "ĠĞ Ĝ\"",
      "Ġĝ Ĝ!",
      "Ġ$ ě",
      "Ġğğ %",
      "ĠĚ ĝ",
      "ĀĀğ Ā$",
      "Ġ#ğ Ĝ",
      "Ġ#Ğ ĝ",
      "Ġĝ\" \"",
      "Ġ## !",
      "ĀĀ' Ā",
      "ĀĀę Ā",
      "# ĀĀ",
      ") ĝ",
      "ĕ !",
      "ĕ ĝ",
      "ė Ě",
      "Ę %",
      "Ğ &",
      "Ġ! $\"",
      "Ġğ Ĝ!",
      "Ġğ Ĝğ",
      "Ġ\" Ě",
      "Ġ\" Ĝğ",
      "Ġ# $ğ",
      "Ġ$ !!",
      "Ġě #",
      "Ġ!! $",
      "ĠĠĠĠĠĠĠĠ ĠĠĠĠĠĠĠĠĠĠĠ",
      "Ġ% #",
      "Ġğ\" $",
      "Ġ#! #",
      "Ġ#\" \"",
      "ĠĞ# ğ",
      "ĠĞĝ ğ",
      "ĀĀě Ā\"",
      "Ġĝĝ \"",
      "ĀĀĚ Āğ",
      "ĀĀ( Ā",
      "ĠĜ! \"",
      "ĠĠĠĠĠĠĠĠĠĠĠĠĠĠĠĠ ĠĠĠĠĠĠĠĠĠĠĠĠĠĠĠĠ",
      "ĀĀ+ Ā",
      "Ĕ Ĝ",
      "Ė ě",
      "ė ę",
      "Ę ĀĀ",
      "Ğ (",
      "Ğ ę",
      "Ġğ &",
      "Ġğ $\"",
      "Ġĝ $!",
      "ĠĜ $",
      "ĠĜ Ğ!",
      "ĀĀğ ĀĚ",
      "ĀĀ! Āě",
      "ĀĀĞ Āě",
      "Ġĝ! $",
      "Ġĝ! Ğ",
      "Ġ!ĝ #",
      "Ġ!ĝ ĝ",
      "Ġğ# #",
      "ĀĀ\" Ā\"",
      "ĀĀ\" Ā#",
      "ĀĀĜ Ā\"",
      "ĀĀĜ ĀĜ",
      "ĀĀ$ Ā!",
      "ĀĀĚ Ā!",
      "\" Ě",
      "' ě",
      "( ě",
      ") (",
      "* Ğ",
      "Ė Ĝ",
      "ė &",
      "Ġ! ěğ",
      "Ġğ $Ğ",
      "Ġĝ ě",
      "Ġ$ Ĝ",
      "ĠĜ !ğ",
      "ĠĜ ĝ!",
      "Ġě Ĝ",
      "Ġ% $",
      "Ġ& !",
      "ĠĚ !",
      "ĠĞğ $",
      "Ġę !",
      "ĀĀğ Ā%",
      "Ġ#ğ #",
      "ĀĀĞ Ā%",
      "Ġĝğ Ğ",
      "ĀĀ\" Āě",
      "ĀĀ# Āĝ",
      "ĀĀĜ Āĝ",
      "Ġ\"ĝ ĝ",
      "Ġĝ\" #",
      "ĠĞ# #",
      "Ġ$\" ĝ",
      "ĀĀ% Āğ",
      "Ġ$ğ !",
      "Ġ#ĝ ğ",
      "\" ę",
      "% '",
      "% Ě",
      "* (",
      "ĕ Ĝ",
      "ė ě",
      "ě &",
      "Ĝ Ę",
      "Ĝ ę",
      "Ġğ Ĝ\"",
      "Ġ\" ĜĞ",
      "ĠĞ $!",
      "Ġ$ #ğ",
      "ĠĜ ě",
      "ĠĜ ĝğ",
      "Ġě ğ\"",
      "ĠğĞ $",
      "Ġ\"ğ #",
      "Ġ\"ğ $",
      "Ġ#! Ĝ",
      "ĀĀĞ Ā&",
      "ĀĀĝ ĀĜ",
      "ĀĀ\" ĀĜ",
      "ĀĀ# ĀĞ",
      "ĀĀ# ĀĜ",
      "ĀĀĜ ĀĞ",
      "Ġĝ\" ĝ",
      "ĠĞĝ #",
      "ĀĀ$ Āĝ",
      "ĀĀ% Ā\"",
      "Ġ## \"",
      "Ġ$ğ ĝ",
      "ĀĀ& Āğ",
      "ĀĀ& Āĝ",
      "Ġĝ# \"",
      "Ġĝ# Ğ",
      "ĠĜ\" \"",
      "\" '",
      "\" Ę",
      "% ě",
      "' ĀĀě",
      "* '",
      "ĕ ĀĀ",
      "ė ė",
      "ě ĀĀ",
      "Ğ '",
      "Ġ ď",
      "Ġ! Ĝĝ",
      "Ġğ Ě",
      "Ġğ ĜĞ",
      "Ġ\" Ĝ!",
      "Ġ\" $!",
      "Ġě !!",
      "Ġ\"ğ ě",
      "Ġ!Ğ ě",
      "Ġğ\" Ĝ",
      "ĠĞĞ ĝ",
      "Ġ\"Ğ #",
      "ĠĞ\" ĝ",
      "ĀĀ! Ā%",
      "ĠĞ# ĝ",
      "ĠĞĝ Ğ",
      "ĀĀ$ Āğ",
      "ĀĀ$ Āě",
      "ĀĀ& Ā\"",
      "! '",
      "\" ĀĀ",
      "% ę",
      "& ě",
      ") &",
      ") Ğ",
      "* ğ",
      "+ '",
      "Ĕ #",
      "Ĕ ě",
      "ĕ Ě",
      "ĕ Ğ",
      "ĕ ğ",
      "Ę Ě",
      "ę &",
      "Ĝ '",
      "Ġ Ā%",
      "Ġ ĀĚ",
      "Ġ! Ĝ\"",
      "Ġ! ĜĞ",
      "ĠĞ $Ğ",
      "ĠĜ Ğğ",
      "ĠĜ ĝ\"",
      "ĠĜ ĝĞ",
      "Ġ!ğ ě",
      "Ġ% \"ğ",
      "Ġ& $",
      "Ġ& ğğ",
      "Ġ\"! ě",
      "ĠĞğ ĝ",
      "Ġ!Ğ Ĝ",
      "ĀĀ! Ā$",
      "Ġ!# #",
      "ĀĀĝ Ā$",
      "ĀĀ\" Ā&",
      "Ġ\"# Ĝ",
      "Ġ#\" ĝ",
      "ĀĀ# Ā$",
      "ĀĀĜ Āğ",
      "Ġ#Ğ \"",
      "Ġĝ\" Ğ",
      "ĀĀ$ ĀĜ",
      "ĀĀ% Ā$",
      "Ġ#ĝ !",
      "ĠĜ\" #",
      "ĠĜ\" ğ",
      "ĠĜ! #",
      "ĀĀĘ Āğ",
      "ĀĀę Āğ",
      "ĀĀ) Ā",
      "! (",
      "\" ĕ",
      "$ (",
      "+ #",
      "Ĕ ĝ",
      "Ĕ ğ",
      "ĕ #",
      "Ė #",
      "ė Ę",
      "ę ĀĀ",
      "Ĝ (",
      "Ğ )",
      "Ġ Ď",
      "Ġ ĀĘ",
      "Ġ\" %Ğ",
      "Ġ# Ĝ!",
      "Ġ# ĜĞ",
      "Ġ$ $Ğ",
      "Ġ$ Ğĝ",
      "ĠĜ Ğ\"",
      "Ġě \"ğ",
      "ĠĠĠĠĠĠĠĠ ĠĠĠĠĠĠ",
      "Ġ% ĝ",
      "Ġ% !!",
      "Ġ% \"!",
      "Ġ% \"Ğ",
      "Ġ& \"",
      "Ġ& ĝ",
      "Ġ!\" $",
      "Ġ!\" Ĝ",
      "Ġę #",
      "Ġ!Ğ $",
      "ĀĀğ Āę",
      "ĀĀğ ĀĘ",
      "ĀĀ! Ā&",
      "ĀĀĞ ĀĚ",
      "Ġ!ĝ $",
      "ĀĀĝ Ā%",
      "ĀĀĜ Ā$",
      "ĠĝĞ Ğ",
      "ĠĞĝ \"",
      "ĀĀě ĀĞ",
      "ĀĀě Ā#",
      "ĀĀ$ Ā\"",
      "ĀĀĚ Ā#",
      "ĀĀ% Ā#",
      "Ġ#ĝ ĝ",
      "Ġĝ# ğ",
      "ĠĜ\" !",
      "ĀĀę Ā!",
      "\" (",
      "$ Ě",
      "' Ę",
      "+ ĝ",
      ". ĀĀ",
      "ē ĝ",
      "Ę &",
      "Ę '",
      "ě ę",
      "Ĝ &",
      "ĝ Ę",
      "Ġ! $#",
      "Ġ! %ğ",
      "Ġğ Ĝ#",
      "Ġ\" $\"",
      "Ġ\" $ĝ",
      "ĠĞ &",
      "ĠĞ Ě",
      "Ġ$ &",
      "Ġ$ %ğ",
      "Ġ$ ĞĞ",
      "Ġ$ ĝ!",
      "Ġ$ #Ğ",
      "Ġ$ #ĝ",
      "ĠĜ Ě",
      "ĠĜ Ĝ\"",
      "Ġ% ğ!",
      "Ġ% ğĞ",
      "Ġğ! ě",
      "Ġ\"! Ě",
      "Ġ' ĝ",
      "ĠĞ! Ĝ",
      "Ġę Ğ",
      "Ġğ\" %",
      "Ġ\"Ğ $",
      "ĀĀğ Ā&",
      "Ġ#! ě",
      "ĀĀ! Āę",
      "Ġĝğ $",
      "Ġğ# Ĝ",
      "Ġğĝ #",
      "ĀĀĝ Ā&",
      "ĀĀ\" ĀĚ",
      "Ġ\"# \"",
      "Ġ#\" Ĝ",
      "ĀĀ# Ā#",
      "ĀĀĜ Ā#",
      "Ġ\"ĝ Ĝ",
      "ĠĞ# Ğ",
      "ĀĀě Āğ",
      "ĀĀ$ ĀĞ",
      "ĀĀ$ Ā#",
      "ĀĀĚ ĀĞ",
      "Ġ$ğ \"",
      "ĠĜ! Ğ",
      "# (",
      "# ę",
      "' +",
      "' Ě",
      ") '",
      ") *",
      "* +",
      ", \"",
      ", #",
      "ė ĀĀ",
      "ę ė",
      "ě Ě",
      "ğ ĕ",
      "Ġ 2",
      "Ġ Ā&",
      "Ġ! $ĝ",
      "Ġğ ě!",
      "Ġğ $#",
      "Ġ\" ěğ",
      "ĠĞ ě!",
      "ĠĞ $#",
      "Ġĝ &",
      "Ġĝ Ĝğ",
      "Ġ# &",
      "Ġ# Ě",
      "Ġ$ ĝĞ",
      "Ġ$ #Ĝ",
      "ĠĜ #!",
      "Ġě ě",
      "Ġě Ĝ!",
      "Ġě Ğğ",
      "Ġ% Ğ!",
      "Ġ& Ğ",
      "Ġ' !",
      "Ġę ğ",
      "ĠĞ\" $",
      "ĀĀğ Ā'",
      "ĀĀ! ĀĚ",
      "Ġ!# Ĝ",
      "Ġğĝ ĝ",
      "ĀĀĝ Āě",
      "ĀĀĝ ĀĚ",
      "Ġ#\" #",
      "ĀĀ# Ā&",
      "ĀĀĜ Āě",
      "Ġ\"ĝ #",
      "Ġ\"ĝ $",
      "ĀĀě Ā$",
      "ĀĀĚ Ā\"",
      "Ġ## ĝ",
      "ĀĀ& Ā!",
      "ĠĜğ #",
      "ĀĀ( Ā\"",
      "ĀĀĘ ĀĜ",
      "Ġ$! \"",
      "ĀĀ' Āğ",
      "ĀĀ' Ā\"",
      "ĀĀė Ā",
      "ĀĀĖ Ā$",
      "! )",
      "! ę",
      "$ ę",
      "( *",
      ") -",
      ") ě",
      ") ĀĀ)",
      "* ĝ",
      "+ %",
      ", *",
      "- ĀĀ",
      "Ā -",
      "ĕ $",
      "Ė $",
      "Ė ę",
      "Ě ĀĀ",
      "Ĝ Ĕ",
      "Ĝ ė",
      "ĝ Ė",
      "ĝ ĀĀ",
      "Ğ ĀĀ",
      "Ġ 1",
      "Ġ Āę",
      "Ġ! '",
      "Ġ! $Ğ",
      "Ġğ %ğ",
      "Ġ\" ę",
      "Ġ\" Ĝ\"",
      "Ġ\" &Ğ",
      "ĠĞ $ğ",
      "ĠĞ ĜĞ",
      "ĠĞ ěğ",
      "ĠĞ ěĝ",
      "ĀĀ Đ",
      "Ġĝ ę",
      "Ġĝ Ĝ#",
      "Ġ# Ĝğ",
      "Ġ# $!",
      "Ġ$ Ĝ!",
      "Ġ$ $!",
      "Ġ$ ěğ",
      "ĠĜ ěğ",
      "ĠĜ ĝĝ",
      "Ġě Ğ!",
      "Ġě !ğ",
      "Ġě #\"",
      "Ġě ĝĞ",
      "Ġě !#",
      "Ġ!! ě",
      "Ġğğ &",
      "Ġğğ ě",
      "Ġ% $ğ",
      "Ġ% !ğ",
      "Ġ& ğ",
      "ĠĚ \"",
      "ĠĚ Ğ",
      "Ġ' \"",
      "Ġ!\" ě",
      "Ġ\"\" #",
      "Ġĝğ ĝ",
      "Ġĝ! %",
      "Ġĝ! ĝ",
      "Ġ!ĝ ě",
      "Ġğĝ $",
      "ĀĀ\" Āę",
      "ĀĀĜ ĀĚ",
      "Ġ#Ğ ě",
      "ĠĞĝ $",
      "ĀĀě ĀĜ",
      "ĀĀě Ā'",
      "Ġĝĝ #",
      "Ġ$\" \"",
      "Ġ$\" Ĝ",
      "ĀĀĚ Ā&",
      "ĀĀ% ĀĞ",
      "ĀĀ& ĀĜ",
      "Ġĝ# ĝ",
      "ĀĀ( Āĝ",
      "ĀĀ( ĀĚ",
      "ĀĀĘ Ā\"",
      "Ġ$! ĝ",
      "ĀĀ' ĀĞ",
      "ĀĀ) Ā#",
      "ĀĀĖ Ā\"",
      "ĀĀ+ Ā\"",
      "# )",
      "% Ę",
      "' *",
      "( )",
      "( Ě",
      ") Ĝ",
      "* %",
      "* *",
      "+ ğ",
      ", $",
      "ē ę",
      "Ė Ě",
      "ę Ė",
      "Ě ę",
      "ě ė",
      "ě Ę",
      "Ĝ ĕ",
      "Ĝ ĀĀ",
      "ĝ ,",
      "Ġ Ā'",
      "Ġ! ě!",
      "Ġ! %!",
      "Ġ! %\"",
      "Ġ! %Ğ",
      "Ġğ %!",
      "Ġğ %Ğ",
      "Ġ\" ě!",
      "ĠĞ $\"",
      "ĀĀ ď",
      "ĠĜ ě#",
      "Ġě %",
      "Ġě Ğ\"",
      "Ġ!ğ %",
      "Ġ% ğğ",
      "Ġ% ĝğ",
      "Ġ% !Ğ",
      "Ġ% #Ğ",
      "Ġğ! Ě",
      "Ġ& #",
      "Ġ& %",
      "Ġ& ğ!",
      "Ġ& ğĝ",
      "ĠĚ ğ\"",
      "Ġ!\" %",
      "Ġę \"",
      "ĠĘ Ğ",
      "ĠĘ ğ",
      "Ġ\"\" Ĝ",
      "Ġ\"Ğ %",
      "ĠĞ\" ě",
      "ĠĞ\" Ĝ",
      "ĀĀĞ ĀĘ",
      "Ġĝğ Ĝ",
      "ĀĀ\" Ā%",
      "Ġ#\" ě",
      "ĀĀ# Ā%",
      "ĀĀĜ Ā%",
      "ĠĠĠĠĠĠĠĠĠĠĠĠ ĠĠĠĠĠ",
      "ĀĀě Ā%",
      "ĀĀ$ Ā%",
      "ĀĀĚ Āĝ",
      "ĀĀ% ĀĜ",
      "ĀĀ% Ā&",
      "Ġ$ğ #",
      "Ġ$ğ ě",
      "Ġ#ĝ \"",
      "ĀĀ& ĀĞ",
      "ĀĀ& Ā#",
      "ĠĜğ ĝ",
      "ĠĜğ Ğ",
      "ĀĀ( Ā#",
      "ĀĀĘ Ā#",
      "ĀĀę Āĝ",
      "ĀĀę Āě",
      "ĀĀė Ā!",
      "ĀĀ+ Āğ",
      "# '",
      "$ Ė",
      "' -",
      "+ &",
      "+ *",
      "- '",
      "Ē !",
      "ē Ğ",
      "Ĕ \"",
      "Ĕ ĕ",
      "Ĕ Ě",
      "Ė ė",
      "ė ĕ",
      "Ę Ė",
      "Ę ė",
      "Ę Ę",
      "ĝ (",
      "ĝ ę",
      "Ğ ė",
      "Ğ Ę",
      "ğ ė",
      "Ġ! ĀĀ",
      "Ġ! &!",
      "Ġ! Ěğ",
      "Ġ! $$",
      "Ġ! %#",
      "Ġğ ę",
      "Ġğ ěğ",
      "Ġğ Ĝĝ",
      "Ġ\" '",
      "Ġ\" $#",
      "Ġ\" ě\"",
      "Ġ\" %\"",
      "Ġĝ (",
      "Ġĝ Ĝ\"",
      "Ġĝ ĜĞ",
      "Ġĝ %!",
      "Ġ# '",
      "Ġ# %Ğ",
      "Ġ$ ĝğ",
      "Ġ$ ĝ\"",
      "Ġ$ #\"",
      "Ġ$ $ĝ",
      "ĠĜ &",
      "ĠĜ ĜĞ",
      "ĠĜ #ğ",
      "ĠĜ Ğĝ",
      "ĠĜ ĝ#",
      "Ġě $",
      "Ġě Ĝğ",
      "Ġě ğğ",
      "Ġě !Ğ",
      "Ġ% #ğ",
      "Ġ% Ğĝ",
      "Ġ% ğě",
      "Ġ& Ĝĝ",
      "Ġ& ĝğ",
      "Ġ& #!",
      "ĠĚ Ĝ",
      "ĠĚ ğğ",
      "ĠĚ \"#",
      "Ġ\"! $",
      "ĠĞğ %",
      "ĠĞ! ě",
      "Ġę ĝ",
      "Ġ( !",
      "Ġ( \"",
      "ĠĞĞ Ĝ",
      "ĠĞ\" %",
      "ĀĀğ Ā(",
      "ĀĀğ Āė",
      "ĀĀ! Ā'",
      "ĀĀ! ĀĘ",
      "ĀĀĞ Ā'",
      "Ġĝğ %",
      "Ġ!ĝ Ĝ",
      "Ġğ# $",
      "ĀĀĝ Ā'",
      "ĀĀĝ Ā)",
      "ĀĀ\" Ā'",
      "ĀĀ\" Ā)",
      "ĀĀ# Āę",
      "ĀĀ# ĀĖ",
      "ĀĀĜ Ā&",
      "Ġĝ\" $",
      "ĠĞ# $",
      "ĀĀě Ā!",
      "ĀĀě Āĝ",
      "ĀĀ$ Ā&",
      "Ġ$\" #",
      "ĀĀĚ ĀĜ",
      "ĀĀ% Āĝ",
      "ĀĀ% Āě",
      "Ġ$ğ Ĝ",
      "Ġĝ# #",
      "ĠĜ\" $",
      "ĀĀ( Ā$",
      "ĠĜ! $",
      "Ġ$! Ĝ",
      "ĀĀ' Ā!",
      "ĀĀ' Āĝ",
      "ĀĀė Ā%",
      "ĀĀė ĀĚ",
      "ĀĀ) ĀĜ",
      "ĀĀĖ Ā!",
      "ĀĀĖ ĀĞ",
      "Ġ!Ĝ Ĝ",
      "ĀĀ+ ĀĞ",
      "ĠĜĞ #",
      "ĀĀ, Ā\"",
      "ĀĀ- Ā",
      "ĠĠĠĠĠĠĠĠĠĠĠĠĠĠĠĠĠĠĠĠ ĠĠĠĠĠ",
      "$ '",
      "$ Ę",
      "& (",
      "' )",
      "( ,",
      ") ,",
      "* ě",
      "+ $",
      "+ (",
      "+ ě",
      "+ Ĝ",
      ", (",
      "- !",
      "- #",
      "- *",
      ". $",
      ". &",
      "Ā ,",
      "Ē ĝ",
      "Ĕ Ğ",
      "ė %",
      "ė Ė",
      "Ę Ē",
      "ĝ ē",
      "ğ )",
      "Ġ Ā(",
      "Ġ! &\"",
      "Ġ! &ğ",
      "Ġ! %ĝ",
      "Ġğ ě\"",
      "Ġğ %\"",
      "Ġğ ěĞ",
      "Ġğ %#",
      "ĠĞ Ĝ#",
      "ĠĞ $ĝ",
      "ĠĞ Ěğ",
      "ĠĞ ě#",
      "ĠĞ %Ĝ",
      "Ġĝ Ě",
      "Ġĝ $\"",
      "Ġĝ ě!",
      "Ġĝ Ĝĝ",
      "Ġĝ $ĝ",
      "Ġĝ %\"",
      "Ġ# Ę",
      "Ġ# &ğ",
      "Ġ$ $ğ",
      "Ġ$ Ĝğ",
      "Ġ$ Ĝĝ",
      "Ġ$ %ĝ",
      "ĠĜ Ĝ!",
      "ĠĜ $ğ",
      "Ġě #ğ",
      "Ġě ğ!",
      "Ġě ĝ\"",
      "Ġ% Ě",
      "Ġ% ě",
      "Ġ% \"\"",
      "Ġ% !ĝ",
      "Ġ% ğĝ",
      "Ġ& ě",
      "Ġ& Ĝ",
      "Ġ& \"ğ",
      "Ġ& !Ğ",
      "Ġ& ğě",
      "ĠĚ #",
      "ĠĚ \"Ğ",
      "ĠĚ \"%",
      "Ġ' #",
      "ĠĞğ Ě",
      "ĠĞğ ě",
      "Ġğ\" ě",
      "ĠĘ !",
      "Ġ( #",
      "ĀĀ! Ā(",
      "Ġĝ! Ĝ",
      "ĀĀĝ Ā*",
      "ĀĀ# ĀĚ",
      "ĀĀ# Ā'",
      "ĀĀ# Āė",
      "ĀĀĜ Ā'",
      "ĀĀĜ Ā)",
      "Ġ#Ğ Ĝ",
      "Ġĝ\" Ĝ",
      "ĠĞ# Ĝ",
      "ĠĞĝ ě",
      "ĠĞĝ ĝ",
      "ĀĀě Āě",
      "ĀĀě Ā&",
      "Ġĝĝ ĝ",
      "ĀĀĚ Ā$",
      "Ġ#ĝ #",
      "ĀĀ& Ā&",
      "ĠĜ\" ĝ",
      "ĀĀ( Āğ",
      "ĀĀ( Ā!",
      "ĀĀĘ Ā!",
      "ĀĀĘ ĀĞ",
      "ĀĀĘ Āě",
      "ĀĀ' Ā#",
      "ĀĀ' Ā$",
      "ĀĀę Ā\"",
      "ĀĀę ĀĞ",
      "ĀĀė Āě",
      "ĀĀė Ā&",
      "ĀĀ) ĀĞ",
      "ĀĀ) Ā%",
      "ĠğĜ Ĝ",
      "ĠĀĀ -",
      "Ġě! $",
      "ĀĀĕ Āğ",
      "Ġ%! ě",
      "Ġ%! Ĝ",
      "! Ę",
      "# Ę",
      "% ĀĀğĀ",
      "' ė",
      "( '",
      "( -",
      "( ĕ",
      "* &",
      "+ \"",
      "+ )",
      "+ +",
      ", )",
      ", Ğ",
      "- )",
      ". ğ",
      "/ #",
      "/ ĀĀ",
      "č Ġ",
      "Ē ě",
      "ē #",
      "ē Ę",
      "ē ě",
      "ē ĀĀ",
      "Ĕ Ę",
      "Ĕ ĀĀ",
      "ĕ %",
      "ĕ Ĕ",
      "ė '",
      "Ę ĕ",
      "Ě )",
      "Ě Ę",
      "ě )",
      "ě ĕ",
      "ĝ ė",
      "Ġ 3",
      "Ġ 4",
      "Ġ ĀĀğĀ",
      "Ġ! (",
      "Ġ! ě\"",
      "Ġ! Ě!",
      "Ġğ (",
      "Ġğ Ę",
      "Ġğ $ĝ",
      "Ġğ $$",
      "Ġğ Ě!",
      "Ġğ ěĝ",
      "Ġğ ę!",
      "Ġ\" %!",
      "Ġ\" Ěğ",
      "Ġ\" ĜĜ",
      "ĠĞ ę",
      "ĠĞ &ğ",
      "ĀĀ ;",
      "Ġĝ Ě\"",
      "Ġ# Ĝ\"",
      "Ġ# Ĝĝ",
      "Ġ# %ğ",
      "Ġ# $ĝ",
      "Ġ# %\"",
      "Ġ# Ěğ",
      "Ġ$ $\"",
      "Ġ$ ĜĞ",
      "Ġ$ &ğ",
      "Ġ$ $Ĝ",
      "ĠĜ %",
      "ĠĜ $\"",
      "ĠĜ #\"",
      "Ġě ĜĞ",
      "Ġě \"\"",
      "Ġě \"Ğ",
      "Ġě !\"",
      "Ġě \"#",
      "Ġ!ğ Ě",
      "Ġ% Ĝ",
      "Ġ% Ĝ!",
      "Ġ% ĜĞ",
      "Ġ% Ğğ",
      "Ġ% #!",
      "Ġ% ĞĞ",
      "Ġ% ĝ!",
      "Ġ% Ğě",
      "Ġ& !!",
      "Ġ& !ğ",
      "Ġ& Ğğ",
      "Ġ& #ğ",
      "Ġ& ğĞ",
      "ĠĚ $",
      "ĠĚ &",
      "ĠĚ !!",
      "ĠĚ Ğ!",
      "ĠĚ ĝğ",
      "Ġ' #Ğ",
      "ĠğĞ ě",
      "Ġ!Ğ %",
      "ĠĘ ĝ",
      "Ġ( ĝ",
      "Ġ\"\" $",
      "ĠĞĞ $",
      "ĠĞĞ ě",
      "Ġ#ğ ę",
      "Ġ#ğ Ě",
      "Ġ#ğ ě",
      "ĀĀĞ Ā(",
      "ĀĀĞ Āė",
      "Ġ!# $",
      "ĀĀĝ Āė",
      "ĀĀ\" ĀĘ",
      "ĀĀĜ Āę",
      "ĀĀĜ Ā(",
      "ĀĀĜ Āė",
      "ĠĝĞ $",
      "ĠĝĞ %",
      "Ġĝ\" %",
      "ĀĀ$ ĀĚ",
      "Ġĝĝ ě",
      "ĀĀĚ Ā%",
      "ĀĀĚ ĀĚ",
      "ĀĀĚ Ā(",
      "ĀĀ% Ā!",
      "ĀĀ% ĀĚ",
      "Ġ## #",
      "Ġ## Ĝ",
      "Ġ#ĝ Ĝ",
      "ĠĜ\" Ğ",
      "ĀĀ( ĀĞ",
      "ĀĀ( ĀĜ",
      "ĀĀ( Āě",
      "ĀĀ( Ā%",
      "ĀĀ( Ā'",
      "ĀĀĘ Ā&",
      "ĀĀ' Āę",
      "ĀĀę ĀĜ",
      "ĀĀė Āğ",
      "ĀĀė Ā\"",
      "ĀĀė ĀĞ",
      "ĀĀė ĀĜ",
      "ĀĀė Ā$",
      "ĠĠĠĠĠĠĠĠĠĠĠĠĠĠĠĠ ĠĠĠĠĠĠ",
      "ĠĠĠĠĠĠĠĠĠĠĠĠĠĠĠĠ ĠĠĠĠĠĠĠĠĠĠĠ",
      "ĀĀĖ Ā",
      "ĀĀĖ Āĝ",
      "ĀĀ+ Ā#",
      "ĠĜĞ $",
      "%ĀĀ *",
      "&ĀĀ Ĕ",
      "ĠěĞ %",
      "Ġ\"$ Ĝ",
      "Ġě! %",
      "ĀĀē Āĝ",
      "ĀĀ* Ā",
      "ĀĀ/ Ā",
      "! ė",
      "# Ė",
      "# ė",
      "$ )",
      "$ /",
      "% (",
      "% )",
      "& )",
      "& +",
      "& ė",
      "& ę",
      "( (",
      "( ę",
      "* (ĀĀ",
      "+ ,",
      "+ Ğ",
      "- %",
      "- Ğ",
      "- ğ",
      "/ !",
      "/ \"",
      "/ (",
      "Ā .",
      "ď Ā!",
      "đ ę",
      "Ē ę",
      "Ē Ğ",
      "Ē ğ",
      "ē !",
      "ē Ě",
      "Ĕ !",
      "Ĕ Ē",
      "Ė %",
      "Ė &",
      "Ė )",
      "Ė Ę",
      "Ė ĀĀ",
      "Ę Ĕ",
      "ę '",
      "Ě ĕ",
      "Ě ė",
      "ě '",
      "ě Ė",
      "Ĝ )",
      "Ĝ .",
      "ĝ '",
      "ğ (",
      "Ġ Āė",
      "Ġ! Ĝ#",
      "Ġ! ěĞ",
      "Ġ! ěĝ",
      "Ġğ '",
      "Ġğ ě#",
      "Ġğ %ĝ",
      "Ġğ Ěĝ",
      "Ġ\" Ĝĝ",
      "Ġ\" Ě\"",
      "Ġ\" %Ĝ",
      "Ġ\" Ĝě",
      "ĠĞ %!",
      "ĠĞ ě\"",
      "ĠĞ &!",
      "ĠĞ $$",
      "ĠĞ %#",
      "ĠĞ %$",
      "ĠĞ ę!",
      "ĠĞ &#",
      "ĀĀ <",
      "ĀĀ Ĉ",
      "Ġĝ ė",
      "Ġĝ &Ğ",
      "Ġ# ĀĀ",
      "Ġ# ě#",
      "Ġ# &\"",
      "Ġ# %ĝ",
      "Ġ# ĜĜ",
      "Ġ# Ěĝ",
      "Ġ$ ę",
      "Ġ$ ĀĀ",
      "Ġ$ Ĝ\"",
      "Ġ$ ě!",
      "Ġ$ Ĝ#",
      "Ġ$ Ğ\"",
      "Ġ$ %Ğ",
      "Ġ$ ěĞ",
      "Ġ$ &!",
      "Ġ$ ĝĝ",
      "Ġ$ ĜĜ",
      "Ġ$ ĝĜ",
      "ĠĜ ĞĞ",
      "ĠĜ Ě!",
      "ĠĜ #ĝ",
      "Ġě ě!",
      "Ġě ĞĞ",
      "Ġě ĝ!",
      "Ġě Ğĝ",
      "Ġě ğ#",
      "Ġ!! Ę",
      "Ġ% $!",
      "Ġ% $Ğ",
      "Ġ% %ğ",
      "Ġ% ĝĞ",
      "Ġ% %Ğ",
      "Ġ% \"ĝ",
      "Ġ% \"Ĝ",
      "Ġğ! &",
      "Ġ& &",
      "Ġ& Ğĝ",
      "Ġ& \"ĝ",
      "ĠĚ ě",
      "ĠĚ $\"",
      "ĠĚ Ğ\"",
      "ĠĚ $ĝ",
      "ĠĚ !\"",
      "ĠĚ ğĞ",
      "Ġ' '",
      "Ġ' (",
      "Ġ' ě",
      "Ġ' \"!",
      "Ġ' Ğ\"",
      "Ġ' #\"",
      "Ġ' !Ğ",
      "Ġ' \"Ğ",
      "Ġę Ĝ",
      "Ġę Ğ\"",
      "ĠĘ #",
      "Ġ\"\" ě",
      "Ġ\"Ğ ě",
      "ĠĞ\" Ě",
      "ĀĀğ Ā)",
      "ĀĀ! ĀĖ",
      "Ġ) ğ",
      "ĀĀĝ Ā(",
      "ĀĀ\" Āė",
      "Ġ\"# #",
      "ĀĀ# ĀĘ",
      "ĀĀĜ ĀĘ",
      "Ġ\"ĝ ě",
      "ĠĝĞ Ĝ",
      "Ġ#Ğ #",
      "ĠĞ# ě",
      "ĀĀ$ ĀĖ",
      "Ġĝĝ $",
      "!! ĀĀ",
      "ĀĀĚ Āě",
      "ĀĀĚ Ā)",
      "ĀĀ% Ā'",
      "ĀĀ% ĀĘ",
      "Ġ## $",
      "Ġ$ğ $",
      "Ġ#ĝ %",
      "ĀĀ& Ā$",
      "ĀĀ& Āě",
      "ĀĀ& Ā%",
      "ĀĀ& Āę",
      "Ġĝ# $",
      "ĀĀ( Ā&",
      "ĠĜ! %",
      "ĀĀĘ Āĝ",
      "ĀĀĘ Ā%",
      "ĀĀ' Āě",
      "ĀĀę Ā$",
      "%! ĀĀ",
      "#! ĀĀ",
      "ĀĀė Ā#",
      "ĀĀė Āĝ",
      "ĠĠĠĠĠĠĠĠĠĠĠĠĠĠĠĠ ĠĠĠĠĠĠĠĠĠĠ",
      "ĀĀ) Ā!",
      "ĀĀ) Āĝ",
      "ĀĀĖ Āğ",
      "ĀĀĖ Ā(",
      "ĀĀ+ ĀĜ",
      "ĠğĜ $",
      "$ĀĀ ē",
      "%ĀĀ -",
      "'ĀĀ *",
      "ĠĀĀ *",
      "Ġğ$ Ĝ",
      "Ġě! ě",
      "ĀĀĕ Ā!",
      "ĀĀĕ ĀĞ",
      "ĀĀ, Ā",
      "ĀĀ, Āğ",
      "ĀĀ/ Ā!",
      "ĀĀđ Ā",
      "\" Ĝ!",
      "\" ěĞ",
      "# ē",
      "# ĕ",
      "$ ĀĀğĀ$",
      "% *",
      "% ,",
      "& Ę",
      "& Ě",
      "' ę",
      "' ĀĀ!Āĝ",
      "( ĀĀ)",
      "* Ě",
      "+ -",
      "+ &ĀĀ",
      ", &",
      ", +",
      ", ĝ",
      "- \"",
      ". \"",
      ". #",
      "/ ,",
      "/ ğ",
      "Ā ē",
      "Ā ĕ",
      "Ď ĀĞ",
      "Đ ĝ",
      "Đ Ā$",
      "đ ğ",
      "Ē Ě",
      "ē $",
      "ē ĕ",
      "Ĕ $",
      "Ĕ ė",
      "ĕ &",
      "ĕ ĕ",
      "ĕ Ę",
      "ĕ ě",
      "Ė Ė",
      "ę Ę",
      "ě đ",
      "ě ē",
      "ě Ĕ",
      "Ĝ Ė",
      "ğ ē",
      "ğ Ė",
      "ğ !!",
      "Ġ 5",
      "Ġ Ā)",
      "Ġ Ā*",
      "Ġ ĀĀ!Ā\"",
      "Ġ ĀĀĞĀĝ",
      "Ġ! Ě\"",
      "Ġ! &Ğ",
      "Ġ! ĚĞ",
      "Ġ! ěĜ",
      "Ġ! 'ğ",
      "Ġ! &#",
      "Ġ! ě%",
      "Ġ! Ęĝ",
      "Ġ! Ęğ",
      "Ġğ Ěğ",
      "Ġğ &\"",
      "Ġğ &ĝ",
      "Ġ\" Ę",
      "Ġ\" Ĝ#",
      "Ġ\" %ğ",
      "Ġ\" ěĞ",
      "Ġ\" %#",
      "Ġ\" &\"",
      "Ġ\" &ğ",
      "Ġ\" Ĝ$",
      "Ġ\" ěĜ",
      "Ġ\" ėĞ",
      "Ġ\" &&",
      "ĠĞ )",
      "ĠĞ Ę",
      "ĠĞ %ğ",
      "ĠĞ %\"",
      "ĠĞ ěĞ",
      "ĠĞ %ĝ",
      "ĠĞ ĚĞ",
      "ĠĞ 'ğ",
      "ĠĞ ęĝ",
      "ĠĞ ęĜ",
      "ĀĀ :",
      "ĀĀ >",
      "ĀĀ Ą",
      "ĀĀ ą",
      "ĀĀ ć",
      "Ġĝ $ğ",
      "Ġĝ %ğ",
      "Ġĝ ě#",
      "Ġĝ '\"",
      "Ġ# %!",
      "Ġ# ě\"",
      "Ġ# $$",
      "Ġ# &Ğ",
      "Ġ# ěĜ",
      "Ġ# '&",
      "Ġ$ '",
      "Ġ$ $#",
      "Ġ$ %!",
      "Ġ$ #!",
      "Ġ$ ěĝ",
      "ĠĜ Ĝğ",
      "ĠĜ $#",
      "ĠĜ Ĝĝ",
      "ĠĜ Ĝ#",
      "ĠĜ %!",
      "ĠĜ %ğ",
      "ĠĜ %Ğ",
      "ĠĜ %#",
      "ĠĜ ěĝ",
      "ĠĜ ##",
      "ĠĜ ęğ",
      "ĠĜ Ĝ$",
      "Ġě \"!",
      "Ġě $#",
      "Ġě Ĝ#",
      "Ġě ĝğ",
      "Ġě $$",
      "Ġě ğĞ",
      "Ġě ĝ#",
      "Ġě ğĝ",
      "Ġě \"ĝ",
      "Ġě ęğ",
      "Ġě \"$",
      "Ġ!! &",
      "Ġğğ ę",
      "Ġ% Ĝğ",
      "Ġ% Ĝ\"",
      "Ġ% ě\"",
      "Ġ% $ĝ",
      "Ġ% !\"",
      "Ġ% ě#",
      "Ġ% #Ĝ",
      "Ġ% ğĜ",
      "Ġ& '",
      "Ġ& $!",
      "Ġ& \"!",
      "Ġ& ě!",
      "Ġ& ĞĞ",
      "Ġ& ğ\"",
      "Ġ& #Ğ",
      "Ġ& !ĝ",
      "Ġ& !ě",
      "ĠĚ $ğ",
      "ĠĚ ĜĞ",
      "ĠĚ ğ!",
      "ĠĚ %!",
      "ĠĚ ĝ\"",
      "ĠĚ ğ#",
      "ĠĚ ę!",
      "ĠĚ ğě",
      "ĠĚ Ğě",
      "Ġ' $",
      "Ġ' Ĝ",
      "Ġ' Ğ",
      "Ġ' !!",
      "Ġ' ěğ",
      "Ġ' ĝ\"",
      "Ġ' !ĝ",
      "ĠğĞ %",
      "ĠĞğ Ĝ",
      "ĠĞ! %",
      "ĠĞ! '",
      "ĠĞ! Ě",
      "Ġę Ĝ\"",
      "Ġ\"ğ Ę",
      "Ġ\"ğ ę",
      "Ġğ\" Ě",
      "ĠĘ \"",
      "ĠĘ %",
      "ĠĘ '",
      "ĠĘ Ĝ",
      "Ġ( !ĝ",
      "Ġ\"\" Ě",
      "ĠĞĞ ę",
      "Ġ\"Ğ ę",
      "Ġ\"Ğ Ě",
      "Ġ#! $",
      "Ġĝğ ę",
      "Ġė ğ",
      "Ā# ĝĞ",
      "Ġĝ! &",
      "Ġĝ! ě",
      "Ġ!ĝ %",
      "Ġ!ĝ &",
      "Ġ!ĝ Ě",
      "Ġğĝ ě",
      "ĀĀĝ Āę",
      "ĀĀĝ ĀĘ",
      "ĀĀ\" Ā*",
      "Ġ\"# %",
      "Ġ#\" $",
      "ĀĀĜ Ā*",
      "ĠĝĞ ĝ",
      "Ġĝ\" ě",
      "ĠĞĝ Ĝ",
      "ĀĀě ĀĚ",
      "ĀĀě Āę",
      "ĀĀ$ Ā$",
      "ĀĀ$ ĀĘ",
      "Ġĝĝ %",
      "ĀĀĚ Āę",
      "!ğ %",
      "Ġ#ĝ ě",
      "ĀĀ& ĀĘ",
      "ĠĜğ $",
      "ĠĜğ %",
      "Ğğ #",
      "ĠĜ! &",
      "ĠĜ! ĝ",
      "ĀĀĘ Ā$",
      "Ġ$! #",
      "Ġ$! $",
      "Ġ$! ě",
      "ĀĀ' Ā%",
      "ĀĀ' Ā&",
      "ĀĀ' Āė",
      "ĀĀę Ā)",
      "ĠĠĠĠĠĠĠĠĠĠĠĠĠĠĠĠ ĠĠĠĠĠĠĠĠĠĠĠĠĠĠĠĠĠĠĠĠ",
      "ĀĀ) Āğ",
      "ĀĀ) Āė",
      "%# ĀĀ",
      "Ġ!Ĝ ě",
      "ĀĀ+ Ā!",
      "ĀĀ+ Ā$",
      "ĀĀ+ Ā%",
      "ĀĀ+ ĀĚ",
      "ĠğĜ %",
      "ĠğĜ &",
      "ĠğĜ ě",
      "$ĀĀ *",
      "ĠĜĞ %",
      "%ĀĀ ď",
      "%ĀĀ Ĕ",
      "Ġ!$ Ĝ",
      "'ĀĀ -",
      "ĀĀğĀ ĕ",
      "ĠěĞ #",
      "Ġ$Ğ ě",
      "ĠĞ$ %",
      "ĀĀĕ ĀĜ",
      "ĀĀĕ Ā%",
      "ĀĀ, Ā!",
      "ĀĀ, ĀĜ",
      "ĀĀĞĀ ĕ",
      "Ęğ ĀĀ",
      ")ĀĀ ē",
      "ĠĝĜ %",
      "ĀĀē Ā$",
      "Ġ#Ĝ Ě",
      "ĀĀ. Āğ",
      "ĠĠĠĠĠĠĠĠĠĠĠĠĠĠĠĠĠĠĠĠĠĠĠĠĠĠĠĠĠĠĠĠ ĠĠĠĠĠĠĠĠĠĠĠĠĠĠĠĠ",
      "! Ĝ!",
      "! \"\"",
      "\" )",
      "\" ė",
      "$ đ",
      "$ ė",
      "$ Ĝ!",
      "% Ĕ",
      "% Ė",
      "% ĀĀĞĀ\"",
      "% ĀĀ\"Ā\"",
      "& -",
      "& ĀĀğĀ!",
      "' $\"",
      "' ĀĀĝĀ!",
      "( Ė",
      "( ĀĀĞĀ",
      ") .",
      ") ĀĀ!Ā",
      "* ,",
      "* -",
      "* ė",
      "* Ę",
      "* ę",
      "+ .",
      ", !",
      ", %",
      ", '",
      ", -",
      "- &",
      ". %",
      "/ %",
      "Ā /",
      "Ā Ĕ",
      "Ď Ā$",
      "Đ #",
      "Đ ğ",
      "đ '",
      "đ ĕ",
      "đ ě",
      "đ ĀĜ",
      "Ē &",
      "Ē Ā!",
      "ē Đ",
      "ē Ė",
      "ē ğ",
      "Ĕ %",
      "Ĕ &",
      "Ĕ ę",
      "ĕ +",
      "ę (",
      "ę đ",
      "ę !#",
      "Ě '",
      "Ě (",
      "ě !!",
      "Ĝ +",
      "Ĝ $$",
      "ĝ Đ",
      "ĝ ĕ",
      "ĝ ě#",
      "Ğ *",
      "Ğ .",
      "Ğ ē",
      "Ğ Ĕ",
      "Ğ ĕ",
      "Ğ Ė",
      "Ğ Ĝ#",
      "Ğ Ğ\"",
      "ğ Ē",
      "Ġ ĀĀĞĀ",
      "Ġ ĀĀ$Ā!",
      "ĠĠ č",
      "Ġ! Ĕ",
      "Ġ! Ę",
      "Ġ! ę",
      "Ġ! ě#",
      "Ġ! %$",
      "Ġ! ęğ",
      "Ġ! ęĞ",
      "Ġ! &$",
      "Ġ! (!",
      "Ġ! ė\"",
      "Ġ! ėğ",
      "Ġğ Ě\"",
      "Ġğ ĚĞ",
      "Ġğ Ě#",
      "Ġğ ěě",
      "Ġğ &$",
      "Ġğ ě%",
      "Ġğ Ę\"",
      "Ġ\" ė",
      "Ġ\" ĀĀ",
      "Ġ\" &!",
      "Ġ\" ě#",
      "Ġ\" ěĝ",
      "Ġ\" ěě",
      "Ġ\" &ĝ",
      "Ġ\" ęĝ",
      "Ġ\" ĘĞ",
      "ĠĞ '",
      "ĠĞ Ĝĝ",
      "ĠĞ Ě\"",
      "ĠĞ Ěĝ",
      "ĠĞ ěě",
      "ĠĞ (!",
      "ĠĞ Ě$",
      "ĠĞ ę\"",
      "ĠĞ 'Ĝ",
      "ĀĀ ă",
      "ĀĀ Ć",
      "Ġĝ '",
      "Ġĝ Ė",
      "Ġĝ Ę",
      "Ġĝ $#",
      "Ġĝ %Ğ",
      "Ġĝ &!",
      "Ġĝ $$",
      "Ġĝ &\"",
      "Ġĝ ěĝ",
      "Ġĝ ęğ",
      "Ġĝ ĜĜ",
      "Ġĝ Ĝ$",
      "Ġĝ ęĞ",
      "Ġĝ ě%",
      "Ġĝ Ęğ",
      "Ġĝ (Ğ",
      "Ġ# ę",
      "Ġ# ě!",
      "Ġ# Ĝ#",
      "Ġ# Ě\"",
      "Ġ# ę!",
      "Ġ# ĚĜ",
      "Ġ# '\"",
      "Ġ# ě%",
      "Ġ# ę\"",
      "Ġ# &Ĝ",
      "Ġ# (Ğ",
      "Ġ# 'Ĝ",
      "Ġ$ (",
      "Ġ$ +",
      "Ġ$ Ě",
      "Ġ$ %#",
      "Ġ$ ě#",
      "Ġ$ ĝ#",
      "Ġ$ &\"",
      "Ġ$ Ě!",
      "Ġ$ ##",
      "Ġ$ ěě",
      "Ġ$ Ĝě",
      "Ġ$ (Ĝ",
      "Ġ$ $ě",
      "ĠĜ Ę",
      "ĠĜ $Ğ",
      "ĠĜ ě\"",
      "ĠĜ $ĝ",
      "ĠĜ &!",
      "ĠĜ Ěğ",
      "ĠĜ #Ĝ",
      "ĠĜ ĝ$",
      "ĠĜ Ęĝ",
      "ĠĜ #%",
      "ĠĜ $Ĝ",
      "Ġě Ė",
      "Ġě Ę",
      "Ġě $ğ",
      "Ġě $!",
      "Ġě %ğ",
      "Ġě &!",
      "Ġě Ě\"",
      "Ġě ##",
      "Ġě #ĝ",
      "Ġě ğĜ",
      "Ġě ĝ%",
      "Ġě Ĝ%",
      "Ġ!! %",
      "Ġ!! '",
      "Ġ!! ę",
      "Ġ!! Ě",
      "Ġğğ Ě",
      "Ġ!ğ ę",
      "Ġ% %",
      "Ġ% '",
      "Ġ% *",
      "Ġ% +",
      "Ġ% Ğ\"",
      "Ġ% #\"",
      "Ġ% ěĞ",
      "Ġ% &!",
      "Ġ% Ěğ",
      "Ġ% ğ\"",
      "Ġ% ěĝ",
      "Ġ% ĝĝ",
      "Ġ% Ěĝ",
      "Ġ% #ĝ",
      "Ġ% ĝĜ",
      "Ġ% Ğ#",
      "Ġ% ĞĜ",
      "Ġ% Ĝě",
      "Ġ% \"ě",
      "Ġ% %ě",
      "Ġğ! ė",
      "Ġ& ę",
      "Ġ& ĀĀ",
      "Ġ& Ğ!",
      "Ġ& $Ğ",
      "Ġ& ĜĞ",
      "Ġ& ĝ\"",
      "Ġ& #\"",
      "Ġ& ěĞ",
      "Ġ& \"\"",
      "Ġ& \"Ğ",
      "Ġ& !\"",
      "Ġ& %ĝ",
      "Ġ& \"ě",
      "ĠĚ #ğ",
      "ĠĚ $#",
      "ĠĚ \"ğ",
      "ĠĚ !#",
      "ĠĚ ğĜ",
      "ĠĚ Ğ#",
      "ĠĚ ĞĜ",
      "ĠĚ !$",
      "ĠĚ %&",
      "Ġ' ğ",
      "Ġ' Ĝğ",
      "Ġ' ğğ",
      "Ġ' !ğ",
      "Ġ' #ğ",
      "Ġ' %ğ",
      "Ġ' \"\"",
      "Ġ' ğě",
      "Ġ!\" Ě",
      "ĠĞ! &",
      "Ġę Ĝğ",
      "Ġę $!",
      "Ġę \"!",
      "Ġę ĝğ",
      "Ġę ğ!",
      "Ġę #!",
      "Ġę ğ#",
      "Ġę ĞĜ",
      "Ġ\"ğ %",
      "Ġ( %",
      "Ġ( Ĝ",
      "Ġ( ěğ",
      "Ġ( #!",
      "Ġ\"\" %",
      "ĠĞĞ %",
      "ĠĞĞ &",
      "Ġ\"Ğ &",
      "ĠĞ\" &",
      "ĠĞ\" '",
      "Ġ#! Ě",
      "ĀĀ! Ā)",
      "ĀĀ! Āė",
      "ĀĀĞ Ā*",
      "Ġĝğ ě",
      "Ġ) !",
      "Ġ) #",
      "Ġ) ĝ",
      "Ġė !",
      "Ġė Ğ",
      "Ġė ĀĀ",
      "Ġė !ğ",
      "Ġė \"\"",
      "Ġė ##",
      "Ġĝ! Ě",
      "Ġ!# %",
      "Ġ!# ě",
      "Ġğ# &",
      "Ġğ# Ě",
      "Ġğĝ %",
      "Ġğĝ Ĝ",
      "ĀĀ\" Ā(",
      "Ġ* $ğ",
      "Ġ* !ĝ",
      "Ġ#\" %",
      "Ġ#\" Ě",
      "ĀĀ# Āě",
      "ĀĀ# Ā)",
      "ĀĀĜ ĀĖ",
      "ĠĖ Ě",
      "ĠĖ ğ",
      "ĠĝĞ Ě",
      "ĠĞ# ę",
      "ĀĀě Ā(",
      "ĀĀě Ā)",
      "ĀĀ$ Ā(",
      "ĀĀ$ Ā)",
      "ĀĀ$ Ā+",
      "Ġĝĝ Ĝ",
      "!! Ğ",
      "Ġ$\" $",
      "Ġ$\" %",
      "Ġ$\" ě",
      "ĀĀĚ Ā'",
      "ĀĀĚ ĀĘ",
      "ĀĀ% Ā%",
      "Ġ## ě",
      "Ğ! #",
      "Ġ$ğ Ě",
      "ĀĀ& Ā'",
      "ĠĜğ &",
      "ěğ \"",
      "ĠĜ\" &",
      "ĠĜ\" '",
      "ĠĜ\" Ĝ",
      "ĀĀ( Āę",
      "ĀĀ( Ā)",
      "ĀĀ( Āė",
      "\"! $",
      "ě! #",
      "ĀĀĘ ĀĚ",
      "ĀĀĘ Āė",
      "ĀĀ' ĀĚ",
      "ĀĀę Ā#",
      "ĀĀę Ā%",
      "ĀĀę Ā&",
      "ĀĀę Ā'",
      "ĀĀę Ā(",
      "ğ! #",
      "Ğ\" #",
      "ě\" *",
      "\"ğ $",
      "ĀĀė Ā'",
      "ĀĀė Ā)",
      "%\" ĀĀ",
      "ĀĀ) Ā\"",
      "ĀĀ) Ā&",
      "ĀĀ) ĀĚ",
      "ĀĀĖ ĀĜ",
      "ĀĀĖ Āě",
      "ĀĀĖ ĀĚ",
      "ĀĀĖ Ā'",
      "&! ĀĀ",
      "!Ğ &",
      "Ě\" ĀĀ",
      "ĀĀ+ Āĝ",
      "ĝ# #",
      "!# %",
      "$ĀĀ -",
      "$ĀĀ ĕ",
      "ĠĜĞ Ĝ",
      "%ĀĀ ,",
      "%ĀĀ .",
      "Ġ!$ %",
      "Ġ!$ Ě",
      "'ĀĀ Ē",
      "'ĀĀ ĕ",
      "&ĀĀ *",
      "&ĀĀ ē",
      "ĀĀğĀ Ė",
      "(ĀĀ *",
      "(ĀĀ Ď",
      "(ĀĀ ĕ",
      "ĠĞĜ $",
      "ĠĞĜ %",
      "ĠĀĀ Ĕ",
      "ĠěĞ $",
      "ĠěĞ Ě",
      "Ġ$Ğ Ĝ",
      "Ġ\"$ ě",
      "ĠĞ$ Ĝ",
      "ĀĀĕ Āĝ",
      "ĠĀ Ĕ",
      "ĀĀ, Ā#",
      "ĀĀ, Ā+",
      "ĀĀĞĀ ,",
      "Ġ#$ %",
      "ĀĀ\"Ā /",
      "Ġğ% %",
      "Ġğ% ě",
      "ĀĀ- Ā!",
      "ĀĀ- ĀĞ",
      "Ġ!% ě",
      "ĠĜĝ ě",
      "#& +",
      "ĀĀ* Āğ",
      "ĀĀ* Ā\"",
      "ĀĀ* ĀĞ",
      "Ġ!Ě Ě",
      "ĀĀ/ Āě",
      "ĀĀ. Ā#",
      "ĀĀ. Āĝ",
      "ĀĀ. Ā(",
      "ĀĀĔ Ā",
      "ĀĀĒ Ā$",
      "! +",
      "! -",
      "! ē",
      "! Ĕ",
      "! Ė",
      "! Ğ!",
      "! $#",
      "! %!",
      "! ĝ\"",
      "! ĘğĀĀ",
      "\" ,",
      "\" .",
      "\" đ",
      "\" Ė",
      "\" ğğ",
      "\" ğ!",
      "\" #\"",
      "\" ĝ!",
      "\" Ğĝ",
      "\" Ě\"",
      "\" ĝ#",
      "\" Ĝ$",
      "\" &%",
      "# Ē",
      "# $#",
      "# ě\"",
      "# #\"",
      "# Ğĝ",
      "# %$",
      "# ĚĞ",
      "$ ē",
      "$ ěĞ",
      "$ ĀĀĞĀğ",
      "% $\"",
      "% #\"",
      "% &!",
      "% ĀĀ!Ā!",
      "% ĀĀĞĀ!",
      "% ĀĀĜĀ!",
      "% ĀĀ$Āě",
      "& Ĕ",
      "& $ğ",
      "& ğ!",
      "& Ę!",
      "& ĀĀĝĀ!",
      "& ĀĀ!Āğ",
      "& ęĚ",
      "& ĀĀĞĀ&",
      "' Ē",
      "' ##",
      "' #$",
      "' ĀĀ\"Ā",
      "' ĀĀ!Āğ",
      "( ĀĀğĀ",
      "( ĀĀğĀğ",
      "( ĀĀ!Āĝ",
      "( ĀĀ!Ā\"",
      "( ĀĀğĀĝ",
      "( ĀĀ&Āğ",
      "( ĀĀĖĀ$",
      ") ė",
      ") ę",
      ") Ě",
      ") ĀĀĞĀ",
      ") ĀĀ#Ā",
      ") ĀĀĝĀ\"",
      ") ĀĀ$Ā",
      "* ď",
      "* Ĝ",
      "+ Ė",
      "+ ę",
      ", .",
      ", Ā",
      ", Ė",
      ", ě",
      ", ğ",
      "- (",
      "- Ĝ",
      ". )",
      ". ě",
      ". Ğ",
      ". Ā!",
      "/ $",
      "/ )",
      "/ +",
      "/ ĕ",
      "/ ę",
      "/ ě",
      "; Ā",
      "@ Ā",
      "ď Ě",
      "ď ĝ",
      "ď Ğ",
      "ď ĀĞ",
      "Đ Ā\"",
      "đ \"",
      "đ #",
      "đ đ",
      "đ Ě",
      "đ Ĝ",
      "đ Ğ",
      "đ '+",
      "Ē \"",
      "Ē #",
      "Ē $",
      "Ē Ā",
      "ē \"",
      "ē %",
      "ē &",
      "ē )",
      "ē Ěĝ",
      "Ĕ .",
      "Ĕ Ĕ",
      "Ĕ ĚĜ",
      "Ĕ ++",
      "ĕ ,",
      "ĕ Ė",
      "Ė '",
      "Ė Ĕ",
      "Ė ĕ",
      "ė (",
      "ė )",
      "ė *",
      "ė +",
      "ė Ĕ",
      "Ę *",
      "Ę Đ",
      "Ę Ğ\"",
      "Ę &$",
      "ę )",
      "ę *",
      "ę %$",
      "ę ##",
      "ę Ĝ$",
      "Ě Ē",
      "Ě ē",
      "Ě Ĕ",
      "Ě Ė",
      "Ě ěğ",
      "Ě %\"",
      "Ě !#",
      "Ě #$",
      "Ě ĀĀĒ",
      "Ě '&",
      "Ě +'",
      "ě ,",
      "ě \"!",
      "ě Ğ\"",
      "ě ĝ!",
      "ě ėĞ",
      "Ĝ *",
      "Ĝ -",
      "Ĝ đ",
      "Ĝ Ē",
      "Ĝ ē",
      "Ĝ ĀĀğĀ",
      "Ĝ Ę!",
      "Ĝ ęĚ",
      "ĝ )",
      "ĝ Ē",
      "ĝ Ğ!",
      "ĝ \"!",
      "ĝ ě\"",
      "Ğ ď",
      "Ğ đ",
      "Ğ Ē",
      "Ğ Ğ!",
      "ğ *",
      "ğ +",
      "ğ Đ",
      "ğ ĀĀ",
      "ğ $#",
      "ğ Ĝ#",
      "ğ Ğ\"",
      "ğ ĝ!",
      "ğ \"\"",
      "Ġ ĀĀ%",
      "Ġ ĀĖ",
      "Ġ ĀĀğĀ\"",
      "Ġ ĀĀ!Āĝ",
      "Ġ ĀĀ\"ĀĞ",
      "Ġ ĀĀęĀ",
      "Ġ ĀĀĞĀ&",
      "Ġ ĀĀ&Āğ",
      "Ġ ĀĀėĀ#",
      "ĠĠ ċ",
      "Ġ! )",
      "Ġ! *",
      "Ġ! Ěĝ",
      "Ġ! ě$",
      "Ġ! Ě#",
      "Ġ! ę!",
      "Ġ! (\"",
      "Ġ! 'Ğ",
      "Ġ! Ěě",
      "Ġ! &Ĝ",
      "Ġ! (#",
      "Ġ! ęě",
      "Ġ! 'Ĝ",
      "Ġ! (ĝ",
      "Ġ! *!",
      "Ġ! Ėĝ",
      "Ġ! Ęě",
      "Ġğ Ē",
      "Ġğ Ė",
      "Ġğ ė",
      "Ġğ ĀĀ",
      "Ġğ &ğ",
      "Ġğ %$",
      "Ġğ &Ğ",
      "Ġğ ě$",
      "Ġğ ęĞ",
      "Ġğ ĚĜ",
      "Ġğ '\"",
      "Ġğ ěĜ",
      "Ġğ &#",
      "Ġğ Ęğ",
      "Ġğ 'Ğ",
      "Ġğ ęĜ",
      "Ġğ ęě",
      "Ġğ ę#",
      "Ġğ ėě",
      "Ġ\" %ĝ",
      "Ġ\" ęğ",
      "Ġ\" ĚĞ",
      "Ġ\" '!",
      "Ġ\" 'ğ",
      "Ġ\" (\"",
      "Ġ\" 'Ğ",
      "Ġ\" ($",
      "ĠĞ (",
      "ĠĞ Ė",
      "ĠĞ ė",
      "ĠĞ &Ğ",
      "ĠĞ ęğ",
      "ĠĞ ĚĜ",
      "ĠĞ &ĝ",
      "ĠĞ '\"",
      "ĠĞ Ę\"",
      "ĠĞ (Ğ",
      "ĠĞ (ĝ",
      "ĀĀ =",
      "ĀĀ ā",
      "Ġĝ ě\"",
      "Ġĝ ěĞ",
      "Ġĝ Ěğ",
      "Ġĝ %ĝ",
      "Ġĝ %$",
      "Ġĝ ĚĞ",
      "Ġĝ ě$",
      "Ġĝ '!",
      "Ġĝ ěĜ",
      "Ġĝ 'ğ",
      "Ġĝ %Ĝ",
      "Ġĝ '#",
      "Ġĝ ę\"",
      "Ġĝ )\"",
      "Ġ# $\"",
      "Ġ# $#",
      "Ġ# ěĞ",
      "Ġ# &!",
      "Ġ# Ě!",
      "Ġ# %$",
      "Ġ# ęĞ",
      "Ġ# ěě",
      "Ġ# '!",
      "Ġ# %Ĝ",
      "Ġ# &$",
      "Ġ# Ĝě",
      "Ġ# (ğ",
      "Ġ# )!",
      "Ġ# ęĚ",
      "Ġ# )$",
      "Ġ$ $$",
      "Ġ$ %$",
      "Ġ$ &Ğ",
      "Ġ$ Ĝ$",
      "Ġ$ ĚĜ",
      "Ġ$ '!",
      "Ġ$ 'ğ",
      "Ġ$ Ęğ",
      "Ġ$ '#",
      "Ġ$ #%",
      "Ġ$ (ĝ",
      "Ġ$ )ĝ",
      "Ġ$ ėę",
      "ĠĜ Ĕ",
      "ĠĜ ĕ",
      "ĠĜ ĀĀ",
      "ĠĜ ě!",
      "ĠĜ %\"",
      "ĠĜ ěĞ",
      "ĠĜ &Ğ",
      "ĠĜ #$",
      "ĠĜ ĚĞ",
      "ĠĜ ęĞ",
      "ĠĜ ĝĜ",
      "ĠĜ 'ğ",
      "ĠĜ ę\"",
      "ĠĜ Ěě",
      "ĠĜ 'ĝ",
      "Ġě (",
      "Ġě Ě",
      "Ġě $Ğ",
      "Ġě Ĝĝ",
      "Ġě %!",
      "Ġě ě\"",
      "Ġě #!",
      "Ġě %Ğ",
      "Ġě ěĞ",
      "Ġě ě#",
      "Ġě &\"",
      "Ġě #$",
      "Ġě ě$",
      "Ġě ĚĜ",
      "Ġě 'ğ",
      "Ġě ĝ$",
      "Ġě &$",
      "Ġě \"Ĝ",
      "Ġě (!",
      "Ġě Ę\"",
      "Ġ!! Ė",
      "Ġğğ '",
      "Ġ!ğ &",
      "Ġ% &",
      "Ġ% ę",
      "Ġ% ĀĀ",
      "Ġ% Ĝĝ",
      "Ġ% Ĝ#",
      "Ġ% ĝ\"",
      "Ġ% %#",
      "Ġ% ĝ#",
      "Ġ% %ĝ",
      "Ġ% \"#",
      "Ġ% ##",
      "Ġ% '!",
      "Ġ% 'ğ",
      "Ġ% ĝ$",
      "Ġ% %Ĝ",
      "Ġ% \"%",
      "Ġ% 'Ğ",
      "Ġ% $Ĝ",
      "Ġ% ę$",
      "Ġ% %&",
      "Ġ% )ĝ",
      "Ġğ! '",
      "Ġğ! Ę",
      "Ġ& *",
      "Ġ& +",
      "Ġ& Ę",
      "Ġ& ě\"",
      "Ġ& ĝĞ",
      "Ġ& ĝ#",
      "Ġ& &\"",
      "Ġ& Ě!",
      "Ġ& ĚĞ",
      "Ġ& ĝĜ",
      "Ġ& (\"",
      "Ġ& \"Ĝ",
      "Ġ& !Ĝ",
      "Ġ& &Ĝ",
      "Ġ& ĝĚ",
      "Ġ& #ě",
      "Ġ& !Ě",
      "Ġ& ğĘ",
      "Ġ& )Ğ",
      "ĠĚ Ę",
      "ĠĚ ę",
      "ĠĚ Ě",
      "ĠĚ Ĝ\"",
      "ĠĚ !ğ",
      "ĠĚ \"!",
      "ĠĚ Ĝĝ",
      "ĠĚ Ĝ#",
      "ĠĚ ě\"",
      "ĠĚ #!",
      "ĠĚ ĞĞ",
      "ĠĚ ĝ!",
      "ĠĚ %Ğ",
      "ĠĚ Ğĝ",
      "ĠĚ &!",
      "ĠĚ ĝ#",
      "ĠĚ Ĝ$",
      "ĠĚ ĝĜ",
      "ĠĚ #Ĝ",
      "ĠĚ '#",
      "ĠĚ !%",
      "Ġ\"! &",
      "Ġ\"! ę",
      "Ġ' ĀĀ",
      "Ġ' Ğ!",
      "Ġ' ĜĞ",
      "Ġ' Ğğ",
      "Ġ' Ĝĝ",
      "Ġ' ĝğ",
      "Ġ' \"ğ",
      "Ġ' #!",
      "Ġ' ĝĞ",
      "Ġ' Ěğ",
      "Ġ' Ě\"",
      "Ġ' ğ\"",
      "Ġ' 'ğ",
      "Ġ' ĞĜ",
      "Ġ' !Ĝ",
      "Ġ' Ğě",
      "Ġ' \"ě",
      "ĠğĞ &",
      "ĠğĞ ę",
      "ĠğĞ Ě",
      "Ġ!\" ę",
      "Ġę $",
      "Ġę %",
      "Ġę Ė",
      "Ġę $ğ",
      "Ġę !!",
      "Ġę Ğ!",
      "Ġę $Ğ",
      "Ġę $#",
      "Ġę \"ğ",
      "Ġę Ğĝ",
      "Ġę !#",
      "Ġę Ě!",
      "Ġę #$",
      "Ġę ĚĞ",
      "Ġę ĝ$",
      "Ġę Ğ#",
      "Ġę 'Ğ",
      "Ġę ğ$",
      "Ġ\"ğ &",
      "Ġ!Ğ &",
      "Ġ!Ğ (",
      "Ġ!Ğ ę",
      "Ġğ\" ė",
      "Ġğ\" Ę",
      "ĠĘ $",
      "ĠĘ Ĝ\"",
      "ĠĘ !ğ",
      "ĠĘ Ĝ#",
      "ĠĘ \"ğ",
      "ĠĘ ĝĞ",
      "ĠĘ ğĝ",
      "ĠĘ ĝ$",
      "Ġ( &",
      "Ġ( ę",
      "Ġ( Ğ",
      "Ġ( ğ",
      "Ġ( $ğ",
      "Ġ( Ĝğ",
      "Ġ( \"\"",
      "Ġ( \"Ğ",
      "Ġ( \"ĝ",
      "Ġ( ğĚ",
      "Ġ\"\" ę",
      "Ā! ğ%",
      "ĠĞĞ Ę",
      "Ā\" ĝğ",
      "Ġ#! ę",
      "ĀĞ !ğ",
      "Ġ#ğ $",
      "ĀĀ! Ā*",
      "ĀĀĞ Āę",
      "ĀĀĞ Ā)",
      "Ġĝğ &",
      "Ġĝğ Ě",
      "Ġ) \"",
      "Ġ) \"ğ",
      "Ġ) \"Ğ",
      "Ġ) ĜĜ",
      "Ġė \"",
      "Ġė #",
      "Ġė Ĝ",
      "Ġė ĝ",
      "Ġė ğ!",
      "Ā# ğ!",
      "Ġĝ! '",
      "Ġ!# ę",
      "Āĝ !\"",
      "Āĝ \"$",
      "Ġğ# %",
      "Ġğ# ě",
      "Ġğĝ &",
      "ĀĀ\" ĀĖ",
      "Ġ* !",
      "Ġ* '",
      "Ġ* ğĜ",
      "Ġ\"# $",
      "Ġ\"# Ě",
      "ĀĀ# Ā(",
      "ĀĀ# Ā*",
      "ĠĖ Ğ",
      "ĠĖ ĝ\"",
      "Ġ\"ĝ %",
      "Ġ\"ĝ &",
      "Ġĝ\" &",
      "ĠĞ# %",
      "ĠĞ# '",
      "ĠĞ# Ě",
      "ĠĞĝ %",
      "$ğ !",
      "ĀĀě ĀĖ",
      "Ĝğ %",
      "ğğ \"",
      "ğğ %",
      "Ġ+ !",
      "Ġ+ #",
      "ĀĀ$ Ā'",
      "Ġ$\" ę",
      "Ġ$\" Ě",
      "Ĝ\" $",
      "Ĝ\" '",
      "Ĝ\" ,",
      "$\" #",
      "$\" Ğ",
      "ĀĀ% Āę",
      "ĀĀ% Ā+",
      "Ġ## %",
      "Ġ## Ě",
      "Ğ! ĀĀ",
      "$Ğ ĀĀ",
      "!ğ #",
      "Ġ$ğ ę",
      "Ġ#ĝ $",
      "Ġ#ĝ Ě",
      "Ġĕ !",
      "Ġĝ# Ĝ",
      "ĠĜğ Ě",
      "ĠĜğ ě",
      "Ğğ )",
      "ĀĀ( ĀĘ",
      "ĀĀ( ĀĖ",
      "ĠĜ! Ě",
      "ĠĜ! ě",
      "\"! \"",
      "\"! &",
      "ě! &",
      "ĀĀĘ Āę",
      "ĀĀĘ Ā(",
      "ĀĀĘ Ā*",
      "#ğ '",
      "$# !",
      "$# *",
      "Ĝĝ !",
      "Ġ$! &",
      "ĀĀ' ĀĜ",
      "ĀĀ' Ā(",
      "ĀĀ' ĀĘ",
      "ĀĀ' Ā)",
      "ĝğ ĀĀ",
      "ĠĔ #!",
      "ĀĀę ĀĚ",
      "ĝ\" \"",
      "ĝ\" %",
      "Ğ\" &",
      "ě\" $",
      "#! )",
      "ĀĀė Ā(",
      "ĠĠĠĠĠĠĠĠĠĠĠĠĠĠĠĠ ĠĠĠĠĠ",
      "ĠĠĠĠĠĠĠĠĠĠĠĠĠĠĠĠ ĠĠĠĠĠĠĠĠĠĠĠĠĠ",
      "$ĝ %",
      "Ā) Ĝė",
      "ĀĀ) Ā'",
      "Ğĝ $",
      "Ğĝ *",
      "ěĞ #",
      "ĀĀĖ Ā#",
      "ĀĀĖ Ā%",
      "ĀĀĖ Ā&",
      "ĀĀĖ Āę",
      "ĀĀĖ Āė",
      "ĀĀĖ ĀĖ",
      "ĀĀĖ Ā-",
      "\"Ğ &",
      "Ġ!Ĝ %",
      "Ġ!Ĝ &",
      "ĀĀ+ Ā&",
      "ğ\" $",
      "#Ğ ĀĀ",
      "ĝ# ĀĀ",
      "&\" %",
      "$ĀĀ ď",
      "ĠĜĞ Ě",
      "Ġ!$ ě",
      "'ĀĀ ,",
      "'ĀĀ /",
      "'ĀĀ đ",
      "&ĀĀ ,",
      "&ĀĀ .",
      "&ĀĀ ĕ",
      "ĀĀğĀ *",
      "ĀĀğĀ Ĕ",
      "!ĝ ĀĀ",
      "ğ# '",
      "ğ# )",
      "%$ (",
      "(ĀĀ /",
      "ĠĀĀ .",
      "ĠĀĀ đ",
      "ĠĀĀ ĕ",
      "ĝĝ ĀĀ",
      "ĜĜ %",
      "Ġğ$ &",
      "Ġ$Ğ )",
      "ě$ ,",
      "\"$ &",
      "Ě# &",
      "Ě# -",
      "ĠĞ$ ě",
      "'\" ĀĀ",
      "ĀĀĕ Ā",
      "ĀĀĕ Ā\"",
      "ĀĀĕ Ā&",
      "ĀĀĕ Ā'",
      "ĀĀĕ Āę",
      "ĠĀ ,",
      "ĠĀ ē",
      "ĠĀ ĕ",
      "ĝ$ )",
      "ĀĀ, Ā'",
      "Ġ%! ę",
      "ĀĀĞĀ -",
      "ě% )",
      "Ġ#$ ę",
      ")ĀĀ -",
      ")ĀĀ /",
      "ĠĒ ĀĀ",
      "*ĀĀ ē",
      "*ĀĀ Ĕ",
      "Ġğě Ě",
      "ĀĀ- Ā#",
      "ĀĀ- Ā%",
      "ĀĀ- Āę",
      "(! ĀĀ",
      "Ġěğ '",
      "ĀĀ#Ā ĕ",
      "Ě$ &",
      "ĝ% '",
      "Ġ!% Ě",
      "ĀĀĜĀ +",
      "ĀĀěĀ +",
      "ĀĀē Ā!",
      "ĀĀē ĀĜ",
      "ĠĞ% ě",
      "Ġ\"% ě",
      "ĀĀ* Ā#",
      "ĀĀ* Ā*",
      "Ğ% %",
      "ĀĀ/ Ā#",
      "ĀĀ/ Āė",
      "Ġ#Ĝ ę",
      "ĠĀğ Ĝ",
      "ĀĀ. Ā",
      "ĀĀ. ĀĞ",
      "ĀĀĔ Ā\"",
      "ĀĀĔ Ā#",
      "ĀĀĔ Ā&",
      "ĠĀĞ ğğ",
      "ĀĀğĀĞ \"\"",
      ")ğ ĀĀ",
      "ĀĀđ Ā\"",
      "ĀĀđ ĀĞ",
      "ĀĀđ Ā#",
      "ĀĀđ ĀĚ",
      "ĀĀĒ Ā\"",
      "ĀĀĒ Ā#",
      "ĀĀĒ Ā(",
      "Ġ#% ě",
      "Ġ$# Ě",
      "Ġ$# ě",
      "ĀĀ!ĀĞ !\"",
      "Ġ%Ğ Ě",
      "ĀĀĞĀ\" ě",
      "ĠĜĜ '",
      "ĀĀĞĀĜ ĝğ",
      "Ġ$$ &",
      "Ġ%\" Ě",
      "ĀĀ&Ā ĕ",
      "+ĀĀ ď",
      "ĀĀĘĀ .",
      "Ġ\"& ę",
      "Ġ\"& Ě",
      "Ġ\"& ě",
      "ĀĀĜĀĜ Ğ",
      "ė& +",
      "'ĀĀě Āğ",
      "Ę' ,",
      "Ġ#Ě Ę",
      "ĠĀĀ- Āğ",
      "$ĀĀē Ā",
      "ĠĀĀ* Ā",
      "ĠĠĠĠĠĠĠĠĠĠĠĠĠĠĠĠĠĠĠĠĠĠĠĠĠĠĠĠĠĠĠĠĠĠĠĠĠĠĠĠĠĠĠĠĠĠĠĠ ĠĠĠĠĠĠĠĠĠĠĠĠĠĠĠ",
      "! *",
      "! ,",
      "! ď",
      "! Ē",
      "! ĕ",
      "! Ĝğ",
      "! $\"",
      "! Ğğ",
      "! \"!",
      "! ě!",
      "! #ğ",
      "! Ğ\"",
      "! &!",
      "! %$",
      "! Ĝ$",
      "! '\"",
      "! Ęĝ",
      "! &&",
      "! Ě$",
      "! ęě",
      "! ''",
      "! Ęę",
      "! Ĕĝ",
      "! Ė#",
      "! +)",
      "! #!ĀĀ",
      "\" +",
      "\" -",
      "\" Ď",
      "\" $ğ",
      "\" Ğ!",
      "\" ěğ",
      "\" \"!",
      "\" $#",
      "\" Ĝĝ",
      "\" ĞĞ",
      "\" $$",
      "\" ěĝ",
      "\" ĚĜ",
      "\" &$",
      "\" &&",
      "\" ĀĀğĀ#",
      "\" ĀĀğĀ!",
      "\" 'ĝ",
      "\" ėĜ",
      "\" ĚĚ",
      "\" )*",
      "\" +*",
      "\" +(",
      "# *",
      "# -",
      "# đ",
      "# Ĝ!",
      "# Ğğ",
      "# \"!",
      "# ě!",
      "# #ğ",
      "# ĝ\"",
      "# ĞĞ",
      "# ĝ!",
      "# &!",
      "# ě#",
      "# ĀĀğĀ",
      "# ĜĜ",
      "# Ęĝ",
      "# '#",
      "# ĀĀğĀğ",
      "# (#",
      "# '&",
      "# *#",
      "# *$",
      "# ĀĀĜĀĝ",
      "# ėė",
      "# /#",
      "$ ď",
      "$ Ē",
      "$ ĕ",
      "$ Ĝğ",
      "$ Ĝ\"",
      "$ ĜĞ",
      "$ Ĝĝ",
      "$ '!",
      "$ 'Ğ",
      "$ ĀĀěĀ",
      "$ ĀĀĝĀ!",
      "$ (Ĝ",
      "$ ėĝ",
      "$ ĀĀĝĀ\"",
      "$ ĀĀĞĀĝ",
      "$ 'Ě",
      "% +",
      "% -",
      "% .",
      "% Ē",
      "% ē",
      "% ė",
      "% Ĝğ",
      "% ĜĞ",
      "% ğ!",
      "% %\"",
      "% %#",
      "% &#",
      "% ĀĀ!Ā",
      "% &&",
      "% (ğ",
      "% ĀĀ!Ā\"",
      "% ĀĀĞĀ$",
      "% ĀĀ!Ā&",
      "% ĀĀĘĀ\"",
      "% ĀĀĖĀ\"",
      "% ĀĀ$Ā%",
      "% ėĖ",
      "% ĀĀęĀĞ",
      "& *",
      "& ,",
      "& Ė",
      "& Ĝ!",
      "& ěğ",
      "& ě\"",
      "& $ĝ",
      "& ĞĞ",
      "& &ğ",
      "& '#",
      "& (!",
      "& ĀĀĞĀğ",
      "& ĀĀěĀ",
      "& ĀĀğĀğ",
      "& ĀĀĞĀĞ",
      "& ĀĀ\"Āğ",
      "& ĀĀĞĀ\"",
      "& ĀĀ\"Ā!",
      "& ĀĀğĀĜ",
      "& ĀĀ\"Ā$",
      "& ĀĀĞĀ#",
      "& Ėğ",
      "& ĀĀ!Āě",
      "& ĀĀĜĀĝ",
      "& *(",
      "& ĀĀĜĀ#",
      "& ,$",
      "& ĀĀĖĀ!",
      "' Đ",
      "' Ĕ",
      "' ĕ",
      "' ĝ!",
      "' ěĞ",
      "' %$",
      "' \"ĝ",
      "' Ĝ$",
      "' ĝĚ",
      "' ėĝ",
      "' ($",
      "' ĀĀĞĀ\"",
      "' ĀĀĝĀĞ",
      "' ĀĀğĀ!",
      "' ĀĀ#Ā\"",
      "' ĀĀ%Ā",
      "' ĀĀ#Ā!",
      "' ĀĀĚĀ",
      "' ėĜ",
      "' ĀĀğĀě",
      "' ĀĀĞĀ#",
      "' *\"",
      "' ĀĀ!Āě",
      "' ĀĀ%Āğ",
      "' ĀĀĝĀĜ",
      "' ĀĀ#ĀĜ",
      "' ĀĀ$ĀĜ",
      "' ėĘ",
      "' ĀĀ'Āğ",
      "' ĀĀ\"Āę",
      "' Ėė",
      "' ĀĀĝĀ(",
      "( /",
      "( Ĕ",
      "( \"ğ",
      "( $$",
      "( Ě\"",
      "( !#",
      "( \"#",
      "( ĜĜ",
      "( ę!",
      "( Ğ#",
      "( ĀĀ!Ā",
      "( ĀĀ\"Ā",
      "( 'Ğ",
      "( ĀĀĞĀğ",
      "( ĀĀĜĀ",
      "( ĀĀĝĀ!",
      "( ĀĀĞĀ!",
      "( ĀĀ!ĀĞ",
      "( ĀĀĜĀ!",
      "( ĀĀĝĀğ",
      "( ĀĀ!ĀĜ",
      "( ĀĀ!Ā#",
      "( ĀĀ\"ĀĜ",
      "( ĀĀ$Āĝ",
      "( ėė",
      "( ĀĀ\"Ā&",
      "( ĀĀ%Ā#",
      ") +",
      ") ĕ",
      ") Ę",
      ") ĀĀ&",
      ") ĀĀğĀ",
      ") ĀĀ\"Ā",
      ") !Ĝ",
      ") ĀĀğĀ\"",
      ") ĀĀ#Ā\"",
      ") ĀĀ#Ā!",
      ") ĀĀ'Ā",
      ") ĀĀęĀ",
      ") ĀĀ$Āĝ",
      ") ĀĀĚĀ#",
      ") ĀĀěĀ'",
      ") ĀĀĞĀ(",
      "* )",
      "* ĀĀĞĀ",
      "* ĀĀ!Ā!",
      "* ĀĀĝĀ!",
      "* ĀĀ\"Āğ",
      "* ĀĀğĀ#",
      "* ĀĀ#Ā\"",
      "* ĀĀĝĀĜ",
      "* ĀĀĚĀĜ",
      "* ĀĀ%ĀĚ",
      "* ĀĀĜĀĘ",
      "* ĀĀ&Āě",
      "+ ď",
      "+ ė",
      "+ \"ğ",
      "+ 'ĀĀ",
      "+ ĀĀ!Ā",
      "+ )ĀĀ",
      "+ ĀĀ-",
      "+ ĀĀĞĀğ",
      "+ ĀĀĜĀ",
      "+ Ěě",
      "+ ĀĀěĀ",
      "+ ĀĀĝĀ!",
      "+ ĀĀĝĀğ",
      "+ ,ĀĀ",
      "+ ĀĀĝĀĝ",
      "+ ĀĀğĀě",
      "+ \"(",
      "+ ĀĀ$Ā#",
      "+ ĀĀĚĀĞ",
      "+ ĀĀ)Āė",
      ", đ",
      ", ę",
      ", ĀĀ!Ā!",
      ", ĀĀĝĀ",
      ", ĀĀ!Āĝ",
      ", ĀĀğĀĞ",
      ", ĀĀğĀ#",
      ", ĀĀ%Ā",
      ", ĀĀĚĀ",
      ", ĀĀ\"Āě",
      ", ĀĀĜĀĞ",
      ", ĀĀĜĀ#",
      ", ĜĔ",
      ", ĀĀ!ĀĘ",
      ", Ęĕ",
      "- Đ",
      "- ě",
      "- ĝ",
      "- &$",
      "- ĀĀ!ĀĜ",
      "- ĀĀ\"Āĝ",
      "- ĀĀ%Ā",
      "- ĀĀğĀĜ",
      "- ĀĀĜĀ\"",
      "- ĀĀ$Ā!",
      "- ĀĀğĀ%",
      ". '",
      ". *",
      ". +",
      ". ,",
      ". Ě",
      ". Ā$",
      ". (ĀĀ",
      ". ĀĀ\"Ā",
      ". ĀĀ\"Ā!",
      ". ĀĀğĀĝ",
      ". ĀĀĜĀĜ",
      ". ĀĀěĀĞ",
      "/ &",
      "/ '",
      "/ ĀĀğĀ",
      "/ ĀĀ!Ā!",
      "/ ĀĀğĀĞ",
      "/ ĀĀĝĀĝ",
      "/ ĀĀ$Āğ",
      "1 0",
      ": Ā!",
      "; Ā&",
      "< Ā",
      "< Ā#",
      "ć ě",
      "ć ĀĞ",
      "ć Ā%",
      "Ď Ě",
      "Ď ĝ",
      "Ď ĀĜ",
      "Ď Ā*",
      "ď Āğ",
      "ď Ā&",
      "Đ \"",
      "Đ %",
      "Đ ě",
      "Đ ĀĀ",
      "Đ Āğ",
      "Đ Ā)",
      "Đ !$",
      "đ &",
      "đ Ę",
      "đ ě%",
      "đ ĀĀ+Ā",
      "đ ĀĀĘĀĝ",
      "Ē )",
      "Ē Ė",
      "Ē ĀĀ",
      "Ē Āğ",
      "Ē Ā\"",
      "Ē Ā#",
      "Ē ĀĀ/",
      "Ē Ė$",
      "Ē (-",
      "ē (",
      "ē ē",
      "ē Ĝ",
      "ē Ā&",
      "ē ĀĀ/Ā!",
      "Ĕ +",
      "Ĕ ē",
      "Ĕ ĀĜ",
      "Ĕ Ğ!",
      "Ĕ $$",
      "Ĕ Ě\"",
      "Ĕ !#",
      "Ĕ ğĜ",
      "Ĕ Ęĝ",
      "ĕ (",
      "ĕ ę",
      "ĕ Ę#",
      "ĕ ĀĀ%Ā",
      "ĕ ))",
      "ĕ ĀĀĚĀ#",
      "Ė .",
      "Ė đ",
      "Ė $ğ",
      "Ė ğğ",
      "Ė ě\"",
      "Ė ĞĞ",
      "Ė Ě\"",
      "Ė ĀĀğĀ",
      "Ė ęğ",
      "Ė ę\"",
      "Ė ĀĀĜĀ!",
      "Ė *+",
      "Ė ĀĀĘĀ#",
      "Ė '-",
      "Ė ĀĀ,Ā!",
      "ė đ",
      "ė Ē",
      "ė \"!",
      "ė $#",
      "ė ğ!",
      "ė ĝ#",
      "ė Ě!",
      "ė #&",
      "ė Ě&",
      "ė ĀĀ(Ā",
      "ė *(",
      "Ę (",
      "Ę /",
      "Ę Ĝ\"",
      "Ę ěğ",
      "Ę #\"",
      "Ę ĀĀ\"Ā",
      "Ę ĀĀ#Ā",
      "Ę Ğ%",
      "Ę ĀĀ$Ā&",
      "Ę ĀĀĞĀ)",
      "ę Ē",
      "ę Ĝğ",
      "ę #\"",
      "ę ĝ#",
      "ę \"$",
      "ę Ě#",
      "ę \"%",
      "ę &%",
      "ę )!",
      "ę ę%",
      "ę ĀĀĞĀĜ",
      "ę ĘĚ",
      "ę .)",
      "Ě *",
      "Ě ,",
      "Ě ğğ",
      "Ě !ğ",
      "Ě $$",
      "Ě !\"",
      "Ě Ě!",
      "Ě '#",
      "Ě ę%",
      "Ě ĀĀğĀĞ",
      "Ě '(",
      "Ě Ĕĝ",
      "Ě )*",
      "Ě ,*",
      "Ě (-",
      "Ě ,)",
      "Ě %!ĀĀ",
      "ě *",
      "ě -",
      "ě Ē",
      "ě Ĝ\"",
      "ě ě!",
      "ě $#",
      "ě Ĝ#",
      "ě ĞĞ",
      "ě %\"",
      "ě '\"",
      "ě ĀĀ\"Ā",
      "ě ĀĀĜĀ",
      "ě ĀĀĝĀ!",
      "ě (#",
      "ě ĀĀĞĀ!",
      "ě '&",
      "ě '(",
      "ě ĀĀĝĀĝ",
      "ě Ě%",
      "ě ė#",
      "ě (*",
      "ě ĀĀ(Ā'",
      "ě #!ĀĀ",
      "Ĝ ,",
      "Ĝ Ĝğ",
      "Ĝ $!",
      "Ĝ %$",
      "Ĝ ęĞ",
      "Ĝ Ě#",
      "Ĝ (\"",
      "Ĝ Ęğ",
      "Ĝ &'",
      "Ĝ (&",
      "Ĝ ĀĀ#Ā!",
      "Ĝ ęę",
      "Ĝ *'",
      "Ĝ ,#",
      "ĝ *",
      "ĝ Ĕ",
      "ĝ ěğ",
      "ĝ #\"",
      "ĝ ĞĞ",
      "ĝ ĝ!",
      "ĝ %#",
      "ĝ %$",
      "ĝ Ě#",
      "ĝ ĀĀ,",
      "ĝ &&",
      "ĝ 'Ğ",
      "ĝ ĀĀ#Ā",
      "ĝ &'",
      "ĝ (%",
      "ĝ (&",
      "ĝ ($",
      "ĝ ĖĞ",
      "ĝ )#",
      "ĝ )(",
      "ĝ *'",
      "ĝ )&",
      "ĝ ę&",
      "ĝ )'",
      "ĝ )-",
      "Ğ ,",
      "Ğ -",
      "Ğ Đ",
      "Ğ !!",
      "Ğ %$",
      "Ğ ##",
      "Ğ ĜĜ",
      "Ğ ĚĞ",
      "Ğ Ě#",
      "Ğ Ě$",
      "Ğ ę$",
      "Ğ ĀĀğĀğ",
      "Ğ )\"",
      "Ğ ĖĞ",
      "Ğ ))",
      "Ğ ĕĝ",
      "Ğ )(",
      "Ğ ėě",
      "Ğ +'",
      "Ğ ĀĀ%ĀĞ",
      "Ğ *(ĀĀ",
      "ğ đ",
      "ğ Ĕ",
      "ğ !ğ",
      "ğ \"!",
      "ğ ĝğ",
      "ğ ĝ\"",
      "ğ %ğ",
      "ğ ě\"",
      "ğ #!",
      "ğ #\"",
      "ğ Ğĝ",
      "ğ $$",
      "ğ %#",
      "ğ &Ğ",
      "ğ Ěĝ",
      "ğ ĚĜ",
      "ğ &#",
      "ğ ėĞ",
      "ğ 'Ğ",
      "ğ (!",
      "ğ Ě$",
      "ğ '$",
      "ğ &'",
      "ğ )\"",
      "ğ +!",
      "ğ ĀĀėĀ",
      "Ġ ĀĀ!Ā",
      "Ġ ĀĀ\"Ā",
      "Ġ ĀĀĝĀ",
      "Ġ ĀĀğĀğ",
      "Ġ ĀĀ!Āğ",
      "Ġ ĀĀĞĀ!",
      "Ġ ĀĀĝĀ\"",
      "Ġ ĀĀ\"Āğ",
      "Ġ ĀĀğĀ#",
      "Ġ ĀĀĜĀ!",
      "Ġ ĀĀ!ĀĜ",
      "Ġ ĀĀ\"Āĝ",
      "Ġ ĀĀğĀĜ",
      "Ġ ĀĀ!Ā#",
      "Ġ ĀĀĚĀğ",
      "Ġ ĀĀ(Ā",
      "Ġ ĀĀ+Ā",
      "Ġ ĀĀğĀĚ",
      "Ġ ĀĀĜĀĜ",
      "Ġ ĀĀğĀ%",
      "Ġ ĀĀĜĀĝ",
      "Ġ ĀĀ%Ā\"",
      "Ġ ĀĀ&Āĝ",
      "Ġ ĀĀ#Ā$",
      "Ġ ĀĀĜĀğ",
      "Ġ ĀĀ$ĀĜ",
      "Ġ ĀĀ%Ā$",
      "Ġ ĀĀęĀğ",
      "Ġ ĀĀěĀ#",
      "Ġ ĀĀěĀ$",
      "Ġ ĀĀĚĀ\"",
      "Ġ ĀĀĘĀ\"",
      "Ġ ĀĀ'ĀĞ",
      "Ġ ĀĀĖĀ\"",
      "Ġ ĀĀ+Ā\"",
      "Ġ ĀĀğĀė",
      "Ġ ĀĀ(Ā$",
      "Ġ ĀĀĖĀğ",
      "Ġ ĀĀĘĀĚ",
      "ĠĠ Ċ",
      "ĠĠ Č",
      "Ġ! ė",
      "Ġ! $ĀĀ",
      "Ġ! '!",
      "Ġ! &ĝ",
      "Ġ! %Ĝ",
      "Ġ! ęĝ",
      "Ġ! ėĞ",
      "Ġ! '$",
      "Ġ! ĘĜ",
      "Ġ! ę%",
      "Ġ! ę#",
      "Ġ! Ė!",
      "Ġ! ĀĀ#Āğ",
      "Ġ! ę&",
      "Ġ! ĕ#",
      "Ġ! -&",
      "Ġğ -",
      "Ġğ &!",
      "Ġğ Ęĝ",
      "Ġğ '#",
      "Ġğ ėĞ",
      "Ġğ Ě$",
      "Ġğ Ę#",
      "Ġğ (ğ",
      "Ġğ ę$",
      "Ġğ ė\"",
      "Ġğ (#",
      "Ġğ ĘĞ",
      "Ġğ &'",
      "Ġğ )\"",
      "Ġğ ęĚ",
      "Ġğ *!",
      "Ġğ ėĜ",
      "Ġğ Ě%",
      "Ġğ ĚĚ",
      "Ġğ Ę%",
      "Ġğ Ėě",
      "Ġğ 'ě",
      "Ġğ )&",
      "Ġğ *ğ",
      "Ġğ Ė#",
      "Ġ\" (",
      "Ġ\" )",
      "Ġ\" Ē",
      "Ġ\" ē",
      "Ġ\" $$",
      "Ġ\" 'ĀĀ",
      "Ġ\" Ě!",
      "Ġ\" %$",
      "Ġ\" ęĞ",
      "Ġ\" ę!",
      "Ġ\" ĚĜ",
      "Ġ\" Ęĝ",
      "Ġ\" '#",
      "Ġ\" ĀĀ-",
      "Ġ\" Ě$",
      "Ġ\" Ěě",
      "Ġ\" &Ĝ",
      "Ġ\" '%",
      "Ġ\" (Ĝ",
      "Ġ\" '&",
      "Ġ\" 'Ĝ",
      "Ġ\" ĀĀĜĀ!",
      "Ġ\" (ĝ",
      "Ġ\" Ėĝ",
      "Ġ\" Ė!",
      "Ġ\" )#",
      "Ġ\" Ė\"",
      "Ġ\" 'ě",
      "Ġ\" ėě",
      "Ġ\" ĘĚ",
      "Ġ\" ĀĀď",
      "Ġ\" (ę",
      "ĠĞ *",
      "ĠĞ Ĕ",
      "ĠĞ Ě!",
      "ĠĞ ęĞ",
      "ĠĞ ěĜ",
      "ĠĞ &$",
      "ĠĞ ě%",
      "ĠĞ Ęğ",
      "ĠĞ 'Ğ",
      "ĠĞ Ę#",
      "ĠĞ (ğ",
      "ĠĞ ė\"",
      "ĠĞ (#",
      "ĠĞ (Ĝ",
      "ĠĞ ĀĀ#Ā!",
      "ĠĞ Ě%",
      "ĠĞ ĕ\"",
      "ĠĞ ė#",
      "ĠĞ ėĚ",
      "ĠĞ Ę%",
      "ĠĞ ĕĞ",
      "ĠĞ Ė$",
      "ĠĞ Ęė",
      "Ġĝ $Ğ",
      "Ġĝ ěğ",
      "Ġĝ %#",
      "Ġĝ Ě!",
      "Ġĝ &ğ",
      "Ġĝ Ěĝ",
      "Ġĝ ę!",
      "Ġĝ &ĝ",
      "Ġĝ &#",
      "Ġĝ &$",
      "Ġĝ 'Ğ",
      "Ġĝ Ę\"",
      "Ġĝ )!",
      "Ġĝ ĘĞ",
      "Ġĝ Ę$",
      "Ġĝ ĔĜ",
      "Ġĝ ĖĜ",
      "Ġĝ +#",
      "Ġĝ ė%",
      "Ġ# )",
      "Ġ# ė",
      "Ġ# ěğ",
      "Ġ# %#",
      "Ġ# %ĀĀ",
      "Ġ# ě$",
      "Ġ# Ě#",
      "Ġ# (\"",
      "Ġ# Ęğ",
      "Ġ# '#",
      "Ġ# 'Ğ",
      "Ġ# Ę\"",
      "Ġ# ęĜ",
      "Ġ# )ğ",
      "Ġ# *!",
      "Ġ# ĀĀĞĀ#",
      "Ġ# ėę",
      "Ġ# ĀĀğĀĚ",
      "Ġ# (ě",
      "Ġ# Ėę",
      "Ġ# ĖĚ",
      "Ġ# ĔĚ",
      "Ġ$ )",
      "Ġ$ ē",
      "Ġ$ ė",
      "Ġ$ Ę",
      "Ġ$ %\"",
      "Ġ$ Ěğ",
      "Ġ$ #$",
      "Ġ$ ĚĞ",
      "Ġ$ ě$",
      "Ġ$ ęĞ",
      "Ġ$ ę!",
      "Ġ$ (\"",
      "Ġ$ Ęĝ",
      "Ġ$ Ě$",
      "Ġ$ '$",
      "Ġ$ )ğ",
      "Ġ$ 'ĝ",
      "Ġ$ Ĝ%",
      "Ġ$ *$",
      "Ġ$ (ě",
      "Ġ$ ĕĞ",
      "Ġ$ 'Ě",
      "Ġ$ -ĀĀ",
      "Ġ$ Ěę",
      "ĠĜ $!",
      "ĠĜ #Ğ",
      "ĠĜ $ĀĀ",
      "ĠĜ %ĝ",
      "ĠĜ ě$",
      "ĠĜ Ě#",
      "ĠĜ ĚĜ",
      "ĠĜ &ĝ",
      "ĠĜ ěĜ",
      "ĠĜ &$",
      "ĠĜ ęĝ",
      "ĠĜ 'Ğ",
      "ĠĜ Ĝě",
      "ĠĜ Ę#",
      "ĠĜ ęĜ",
      "ĠĜ &Ĝ",
      "ĠĜ ėğ",
      "ĠĜ '%",
      "ĠĜ )ğ",
      "ĠĜ ĀĀĝĀ\"",
      "ĠĜ )\"",
      "ĠĜ 'Ĝ",
      "ĠĜ ĜĚ",
      "ĠĜ ė$",
      "ĠĜ $&",
      "ĠĜ ĕ!",
      "ĠĜ Ĕě",
      "Ġě &",
      "Ġě ė",
      "Ġě ĀĀ",
      "Ġě Ĝ\"",
      "Ġě Ěğ",
      "Ġě #Ğ",
      "Ġě !ĝ",
      "Ġě &ğ",
      "Ġě &Ğ",
      "Ġě ĝĝ",
      "Ġě ĜĜ",
      "Ġě ĚĞ",
      "Ġě ęĞ",
      "Ġě Ě#",
      "Ġě &ĝ",
      "Ġě '\"",
      "Ġě ěĜ",
      "Ġě (\"",
      "Ġě ğě",
      "Ġě '$",
      "Ġě )!",
      "Ġě (Ğ",
      "Ġě )ğ",
      "Ġě %%",
      "Ġě ĜĚ",
      "Ġě $%",
      "Ġě (ĝ",
      "Ġě Ė!",
      "Ġě ėĜ",
      "Ġě ė$",
      "Ġě %Ě",
      "Ġě %ę",
      "Ġě +Ğ",
      "Ġ!ğ (",
      "Ġ!ğ Ę",
      "Ġ% (",
      "Ġ% ,",
      "Ġ% ė",
      "Ġ% ěğ",
      "Ġ% ě!",
      "Ġ% $$",
      "Ġ% Ě\"",
      "Ġ% &\"",
      "Ġ% %ĀĀ",
      "Ġ% ğ#",
      "Ġ% &Ğ",
      "Ġ% #$",
      "Ġ% &ĝ",
      "Ġ% ěĜ",
      "Ġ% &$",
      "Ġ% Ęĝ",
      "Ġ% '#",
      "Ġ% &&",
      "Ġ% ę\"",
      "Ġ% ğ%",
      "Ġ% Ę!",
      "Ġ% (Ğ",
      "Ġ% $ě",
      "Ġ% 'Ĝ",
      "Ġ% #Ě",
      "Ġ% ęę",
      "Ġ% Ě%",
      "Ġ% $&",
      "Ġ% ĔĜ",
      "Ġ% Ēĝ",
      "Ġ% ęĘ",
      "Ġğ! ę",
      "Ġ& (",
      "Ġ& )",
      "Ġ& ė",
      "Ġ& Ě",
      "Ġ& Ĝ!",
      "Ġ& $ğ",
      "Ġ& Ĝğ",
      "Ġ& ěğ",
      "Ġ& %!",
      "Ġ& Ğ\"",
      "Ġ& $ĝ",
      "Ġ& %Ğ",
      "Ġ& Ě\"",
      "Ġ& ě#",
      "Ġ& ěĝ",
      "Ġ& &ğ",
      "Ġ& (ĀĀ",
      "Ġ& ĝĝ",
      "Ġ& #$",
      "Ġ& Ěĝ",
      "Ġ& ě$",
      "Ġ& Ě#",
      "Ġ& #ĝ",
      "Ġ& ę!",
      "Ġ& '!",
      "Ġ& &ĝ",
      "Ġ& '\"",
      "Ġ& '#",
      "Ġ& ĞĜ",
      "Ġ& Ĝě",
      "Ġ& $Ĝ",
      "Ġ& Ğě",
      "Ġ& ğĚ",
      "Ġ& Ğ$",
      "Ġ& ĘĜ",
      "Ġ& $ě",
      "Ġ& %%",
      "Ġ& 'ĝ",
      "Ġ& ĕ!",
      "Ġ& Ğ(",
      "Ġ& Ğę",
      "Ġ& \"Ě",
      "Ġ& %Ě",
      "Ġ& )Ĝ",
      "ĠĚ Ė",
      "ĠĚ ĀĀ",
      "ĠĚ Ĝ!",
      "ĠĚ Ĝğ",
      "ĠĚ ě!",
      "ĠĚ %ğ",
      "ĠĚ ěĞ",
      "ĠĚ %#",
      "ĠĚ Ě!",
      "ĠĚ ěĝ",
      "ĠĚ !ĝ",
      "ĠĚ &ğ",
      "ĠĚ ğĝ",
      "ĠĚ \"ĝ",
      "ĠĚ ĝĝ",
      "ĠĚ ĚĞ",
      "ĠĚ #ĝ",
      "ĠĚ '!",
      "ĠĚ &ĝ",
      "ĠĚ 'ğ",
      "ĠĚ (\"",
      "ĠĚ ĝ$",
      "ĠĚ Ęĝ",
      "ĠĚ ęĝ",
      "ĠĚ ĝ%",
      "ĠĚ !Ĝ",
      "ĠĚ Ěě",
      "ĠĚ Ę!",
      "ĠĚ ğ$",
      "ĠĚ Ğ%",
      "ĠĚ ĜĚ",
      "ĠĚ *#",
      "ĠĚ Ė\"",
      "ĠĚ %ę",
      "ĠĚ #ę",
      "Ġ\"! %",
      "Ġ\"! '",
      "Ġ' )",
      "Ġ' ė",
      "Ġ' $ğ",
      "Ġ' ě!",
      "Ġ' ğ!"
    ]
  }
}