{
  "version": "1.0",
  "truncation": null,
  "padding": null,
  "added_tokens": [],
  "normalizer": null,
  "pre_tokenizer": {
    "type": "ByteLevel",
    "add_prefix_space": false,
    "trim_offsets": true,
    "use_regex": true
  },
  "post_processor": {
    "type": "ByteLevel",
    "add_prefix_space": true,
    "trim_offsets": false,
    "use_regex": true
  },
  "decoder": {
    "type": "ByteLevel",
    "add_prefix_space": true,
    "trim_offsets": true,
    "use_regex": true
  },
  "model": {
    "type": "BPE",
    "dropout": null,
    "unk_token": null,
    "continuing_subword_prefix": null,
    "end_of_word_suffix": null,
    "fuse_unk": false,
    "byte_fallback": false,
    "ignore_merges": false,
    "vocab": {
      "\u0000": 0,
      "\u0001": 1,
      "\u0002": 2,
      "\u0003": 3,
      "\u0004": 4,
      "\u0005": 5,
      "\u0006": 6,
      "\u0007": 7,
      "\b": 8,
      "\t": 9,
      "\n": 10,
      "\u000b": 11,
      "\f": 12,
      "\r": 13,
      "\u000e": 14,
      "\u000f": 15,
      "\u0010": 16,
      "\u0011": 17,
      "\u0012": 18,
      "\u0013": 19,
      "\u0014": 20,
      "\u0015": 21,
      "\u0016": 22,
      "\u0017": 23,
      "\u0018": 24,
      "\u0019": 25,
      "\u001a": 26,
      "\u001b": 27,
      "\u001c": 28,
      "\u001d": 29,
      "\u001e": 30,
      "\u001f": 31,
      " ": 32,
      "!": 33,
      "\"": 34,
      "#": 35,
      "$": 36,
      "%": 37,
      "&": 38,
      "'": 39,
      "(": 40,
      ")": 41,
      "*": 42,
      "+": 43,
      ",": 44,
      "-": 45,
      ".": 46,
      "/": 47,
      "0": 48,
      "1": 49,
      "2": 50,
      "Ā": 51,
      "ā": 52,
      "Ă": 53,
      "ă": 54,
      "Ą": 55,
      "ą": 56,
      "Ć": 57,
      "ć": 58,
      "Ĉ": 59,
      "ĉ": 60,
      "Ċ": 61,
      "ċ": 62,
      "Č": 63,
      "č": 64,
      "Ď": 65,
      "ď": 66,
      "Đ": 67,
      "đ": 68,
      "Ē": 69,
      "ē": 70,
      "Ĕ": 71,
      "ĕ": 72,
      "Ė": 73,
      "ė": 74,
      "Ę": 75,
      "ę": 76,
      "Ě": 77,
      "ě": 78,
      "Ĝ": 79,
      "ĝ": 80,
      "Ğ": 81,
      "ğ": 82,
      "Ġ": 83,
      "ęę": 84,
      "ęęęę": 85,
      "ęĚ": 86,
      "ęĘ": 87,
      "ęęĘ": 88,
      "ęęĚ": 89,
      "ĀĀ": 90,
      "ęě": 91,
      "ęė": 92,
      "ęęęęęęęę": 93,
      "ęęė": 94,
      "ęęě": 95,
      "Ęęęęę": 96,
      "Ěęęęę": 97,
      "ęęęĘ": 98,
      "ęęęĚ": 99,
      "ęĜ": 100,
      "ęĖ": 101,
      "ęęĖ": 102,
      "ęęĜ": 103,
      "ęĚęęęę": 104,
      "ęĘęęęę": 105,
      "ęĝ": 106,
      "ęĕ": 107,
      "ĘęęĚ": 108,
      "ĚęęĘ": 109,
      "ĘęęĘ": 110,
      "ęĚĚ": 111,
      "ęęęęĘ": 112,
      "ĚęęĚ": 113,
      "ęĘĘ": 114,
      "ęęęęĚ": 115,
      "ęĚĘ": 116,
      "ęĘĚ": 117,
      "ęęĕ": 118,
      "ęęĝ": 119,
      "ęęęė": 120,
      "ęęęě": 121,
      "ęęę": 122,
      "ėęęęę": 123,
      "ěęęęę": 124,
      "ęęęęęęęęęęęę": 125,
      "ęĞ": 126,
      "ęęĚęęęę": 127,
      "ęęĘęęęę": 128,
      "ėęęĚ": 129,
      "ĀĚ": 130,
      "ęęĔ": 131,
      "ĀĘ": 132,
      "ěęęĘ": 133,
      "ęĔ": 134,
      "ęęĞ": 135,
      "ĀĀĘ": 136,
      "ĀĀę": 137,
      "ėęęĘ": 138,
      "ęĚě": 139,
      "Ęęęě": 140,
      "Ěęęė": 141,
      "Āě": 142,
      "Āė": 143,
      "ěęęĚ": 144,
      "ęěĚ": 145,
      "ęĘė": 146,
      "Ęęęė": 147,
      "ęĚė": 148,
      "ĀĀĚ": 149,
      "ęěĘ": 150,
      "ĀĀė": 151,
      "ęĘě": 152,
      "ęėĘ": 153,
      "Ěęęě": 154,
      "ęėĚ": 155,
      "ĀĖ": 156,
      "ęęęęęęęęęęęęęęęę": 157,
      "ęğ": 158,
      "ęęęĜ": 159,
      "ĀĜ": 160,
      "ęęē": 161,
      "ĀĀě": 162,
      "ęęęĖ": 163,
      "ĀĀĖ": 164,
      "ęęğ": 165,
      "ęęęĘęęęę": 166,
      "ęē": 167,
      "ęėė": 168,
      "ěęęė": 169,
      "ĘęęęęĘ": 170,
      "ęęęĚęęęę": 171,
      "ĖęęĚ": 172,
      "Āĕ": 173,
      "ėęęě": 174,
      "ęěě": 175,
      "ęęĘę": 176,
      "ęěęęęę": 177,
      "Ėęęęę": 178,
      "Āĝ": 179,
      "ĘęęęęĚ": 180,
      "Ĝęęęę": 181,
      "ĚęęęęĚ": 182,
      "ęėęęęę": 183,
      "ęĘęęĚ": 184,
      "ĚęęęęĘ": 185,
      "ĀĀĜ": 186,
      "ęęęĚę": 187,
      "ęěė": 188,
      "ĜęęĘ": 189,
      "ĖęęĘ": 190,
      "ęęęĘę": 191,
      "ěęęě": 192,
      "ĜęęĚ": 193,
      "ęĚęęĚ": 194,
      "ėęęė": 195,
      "ěĚ": 196,
      "ĀĀĕ": 197,
      "ęĚęęĘ": 198,
      "ęĚĚęęęę": 199,
      "ĘęęĜ": 200,
      "ęėě": 201,
      "ęĘĘęęęę": 202,
      "ęĚĜ": 203,
      "ĀĔ": 204,
      "ĀĀĝ": 205,
      "ęęĒ": 206,
      "ėĚ": 207,
      "ęĚęęęęĘ": 208,
      "ęĘęęĘ": 209,
      "ėĘ": 210,
      "ęĘęęęęĚ": 211,
      "ĀĞ": 212,
      "ęĘĖ": 213,
      "ęĜĚ": 214,
      "ęĘĜ": 215,
      "ęĖĘ": 216,
      "ęĖĚ": 217,
      "ęĜĘ": 218,
      "ęĘęęęęĘ": 219,
      "ĀĀĔ": 220,
      "ęĚĖ": 221,
      "ęĚęęęęĚ": 222,
      "ęęęęęęęęęęę": 223,
      "ęęĚęęęĚ": 224,
      "ęĚĘęęęę": 225,
      "ěĘ": 226,
      "ĘęęĖ": 227,
      "ĚęęĖ": 228,
      "ęĘĚęęęę": 229,
      "ęęĘęęęĘ": 230,
      "ęĒ": 231,
      "ęęęĕ": 232,
      "ĀĀĞ": 233,
      "ęěĜ": 234,
      "Ėęęě": 235,
      "ęęĚę": 236,
      "ĚęęĜ": 237,
      "ěě": 238,
      "Āē": 239,
      "ęęęĝ": 240,
      "ęėĖ": 241,
      "Ĝęęė": 242,
      "ęęęęĘĘ": 243,
      "ėęęĜ": 244,
      "ėě": 245,
      "ęĜě": 246,
      "ęęęęĘĚ": 247,
      "ęę!": 248,
      "ĀĀğ": 249,
      "ęĖė": 250,
      "ĕęęęę": 251,
      "Āğ": 252,
      "ęęęęĚĚ": 253,
      "ĀĀē": 254,
      "ęěĖ": 255,
      "ęėĜ": 256,
      "ĕęęĘ": 257,
      "ėė": 258,
      "ęęđ": 259,
      "ęęęęĚĘ": 260,
      "Ĝęęě": 261,
      "Ėęęė": 262,
      "ěęęĖ": 263,
      "ęęęĘęęĚ": 264,
      "ĜĚ": 265,
      "ĕęęĚ": 266,
      "ĝęęęę": 267,
      "ėęęĖ": 268,
      "ęęęĚęęĚ": 269,
      "ęĖě": 270,
      "ĝęęĘ": 271,
      "ęĜė": 272,
      "ĖĚ": 273,
      "ęęęĘęęĘ": 274,
      "ĀĀĒ": 275,
      "ĖĘ": 276,
      "ęęęĚęęĘ": 277,
      "Ĝě": 278,
      "ę!": 279,
      "ĀĒ": 280,
      "ĜĘ": 281,
      "ęđ": 282,
      "ĝęęĚ": 283,
      "ęĜĜ": 284,
      "ęĘęĚęęęę": 285,
      "ĚęęĘę": 286,
      "ęĖęęęę": 287,
      "ęĚĝ": 288,
      "ĘęęĚę": 289,
      "ĀĀĘĀ": 290,
      "ęĘĕ": 291,
      "ęĕĚ": 292,
      "ěęęĜ": 293,
      "ĀĀęĀ": 294,
      "ĀĀ!": 295,
      "ęĚęĘęęęę": 296,
      "ęĜęęęę": 297,
      "ęěęęĘ": 298,
      "ęĝĚ": 299,
      "ęĚęęęęęę": 300,
      "ĀĀđ": 301,
      "ĘĚ": 302,
      "ĕĚ": 303,
      "ęę\"": 304,
      "ěė": 305,
      "ęęěęęęę": 306,
      "ĝĚ": 307,
      "ěĜ": 308,
      "ęĕĘ": 309,
      "ęęęęęęęęęęęęę": 310,
      "ęĖĖ": 311,
      "ęĝĘ": 312,
      "ęĚęė": 313,
      "ĕĘ": 314,
      "ęĘęęęęęę": 315,
      "ęęėęęęę": 316,
      "ęĚĘęęęĘ": 317,
      "ęęĘĘęęęę": 318,
      "ęĘĝ": 319,
      "ĖęęĜ": 320,
      "ĀĀėĀ": 321,
      "ęęęĔ": 322,
      "Ėě": 323,
      "ĘęęĘę": 324,
      "ĜĜ": 325,
      "ęĚĕ": 326,
      "ęęęĞ": 327,
      "Ěęęęęę": 328,
      "ęĘĚęęęĚ": 329,
      "Ęęęĝ": 330,
      "ĜęęĖ": 331,
      "ĚęęĚę": 332,
      "ęĘĘęęęĘ": 333,
      "ęęĐ": 334,
      "ĀĀĚĀ": 335,
      "ĚĚ": 336,
      "ĝęęė": 337,
      "ęěĝ": 338,
      "ęĚĚęęęĚ": 339,
      "ĀĀĐ": 340,
      "ęěęęĚ": 341,
      "ėĖ": 342,
      "ėĜ": 343,
      "ęĘęęęęęęęę": 344,
      "ĕęęė": 345,
      "ĘĘ": 346,
      "ĕęęě": 347,
      "ĀĀ\"": 348,
      "ęĘęĚ": 349,
      "ęęĘęęęęę": 350,
      "ęĘęĘęęęę": 351,
      "ĀĀěĀ": 352,
      "ęęĚęęęęę": 353,
      "ęĝě": 354,
      "ęėĕ": 355,
      "ĀĀĖĀ": 356,
      "Ęęęęęę": 357,
      "Ėė": 358,
      "ęęĚĚęęęę": 359,
      "ĖęęĖ": 360,
      "ĝě": 361,
      "ęęęęęęĚ": 362,
      "ęĚęĚęęęę": 363,
      "ęęĚĚęęĚ": 364,
      "ęĕė": 365,
      "ęęĘĚęęĘ": 366,
      "ęĜĖ": 367,
      "ęęĚĘęęĚ": 368,
      "ęęęęęęĘ": 369,
      "ěĞ": 370,
      "ęĘęęė": 371,
      "Ęęęĕ": 372,
      "Ěęęĕ": 373,
      "ęėęęĚ": 374,
      "ěĝ": 375,
      "ĀĀď": 376,
      "ę\"": 377,
      "ĀĀ#": 378,
      "ĔęęĚ": 379,
      "Ĝĝ": 380,
      "ęĚęęęęęęęę": 381,
      "ėęęĝ": 382,
      "ęęĚĘęęęę": 383,
      "ęėęęĘ": 384,
      "ĔęęĘ": 385,
      "ėĝ": 386,
      "ęęĘĘęęĘ": 387,
      "ęęĘĚęęęę": 388,
      "ĞĚ": 389,
      "ęěĕ": 390,
      "ęėĝ": 391,
      "ěęęęęĘ": 392,
      "ęĘėęęęę": 393,
      "ęĘęęě": 394,
      "Ėĝ": 395,
      "ęĖĜ": 396,
      "ėęęęęĘ": 397,
      "ęěęęęęĘ": 398,
      "ěęęĕ": 399,
      "ĚĘ": 400,
      "ĜęęĜ": 401,
      "ĜĞ": 402,
      "ęĘĘĚęęĘ": 403,
      "ĀĀ$": 404,
      "Ěęęęęęę": 405,
      "ęĝė": 406,
      "ęĜĝ": 407,
      "Ĕęęęę": 408,
      "ęĚęĘęęĚ": 409,
      "ęĘęĚęęĚ": 410,
      "ęĚĚĘęęĚ": 411,
      "Ęęęęęęę": 412,
      "ęęęĘęęęęęęęę": 413,
      "ėęęĕ": 414,
      "ęęęĚęęęęęęęę": 415,
      "ęęĘęęęęęęęę": 416,
      "ĔĚ": 417,
      "ęę#": 418,
      "ĠĚ": 419,
      "ėęęęęĚ": 420,
      "ĝĝ": 421,
      "ęĘęęęęęęĚ": 422,
      "ĔĘ": 423,
      "ęĕě": 424,
      "ĞęęĘ": 425,
      "ĘĘęęęę": 426,
      "ęĚęęęęęęĚ": 427,
      "ěĖ": 428,
      "ęĚęęě": 429,
      "ęĚęęęęęęĘ": 430,
      "ęĚĘĚęęĘ": 431,
      "ęĘęĘęęĚ": 432,
      "ĀĀ%": 433,
      "ęĕĖ": 434,
      "ĀĀĘĀĘ": 435,
      "ĀĀĎ": 436,
      "ěęęęęĚ": 437,
      "ęĚĞ": 438,
      "ĀĀĜĀ": 439,
      "ęĖĕ": 440,
      "ęĝĜ": 441,
      "ęęęęęęęęęęęęęęę": 442,
      "ęęęē": 443,
      "ĀĚĚ": 444,
      "ĕė": 445,
      "ęėęęęęĚ": 446,
      "ęĚęęė": 447,
      "ĚęęęęęęĚ": 448,
      "ęĚěęęęę": 449,
      "ęĘĚĘęęĚ": 450,
      "ĀĀĕĀ": 451,
      "ĖĖ": 452,
      "ęĘĚĚęęĚ": 453,
      "Ġĝ": 454,
      "ĘęęęĘ": 455,
      "ęĚĚĘęęęę": 456,
      "ęĚĘĘęęĘ": 457,
      "ęĐ": 458,
      "ęęėęęęĘ": 459,
      "ęĞĚ": 460,
      "ĕě": 461,
      "ĕęęĖ": 462,
      "ęĘĞ": 463,
      "ęĘęęęęęęĘ": 464,
      "Ĝė": 465,
      "ęĚĔ": 466,
      "Ęęęęęęęęę": 467,
      "ęęď": 468,
      "ĀĀ&": 469,
      "ĕęęĜ": 470,
      "ĀĚĘ": 471,
      "ĖĞ": 472,
      "ĀĀęĀė": 473,
      "ĚĚęęęę": 474,
      "ęĘęĚęęĘ": 475,
      "ęĖęęĚ": 476,
      "ęęęğ": 477,
      "ĀĀęĀĘ": 478,
      "ĀĀĝĀ": 479,
      "ĕĜ": 480,
      "Ěęęĝ": 481,
      "ěğ": 482,
      "ĠĜ": 483,
      "ęĚęęęęę": 484,
      "ęĘęęęęę": 485,
      "ęĘĘĚęęęę": 486,
      "ěęęĝ": 487,
      "ęęěęęęĚ": 488,
      "ĕĝ": 489,
      "Ěęęęęęęęę": 490,
      "ęĘĚĚęęęę": 491,
      "ĘĚęęęę": 492,
      "ęĘĔ": 493,
      "ęěęęęęĚ": 494,
      "ĖĜ": 495,
      "ęĚęĘęęĘ": 496,
      "ęěĞ": 497,
      "ĀĀĘĀė": 498,
      "ęěĚęęęę": 499,
      "ęėĘęęęę": 500,
      "ēĚ": 501,
      "ĝĜ": 502,
      "ĝęęě": 503,
      "ęęĚęęęęęęęę": 504,
      "Ĕęęė": 505,
      "Ėęęĝ": 506,
      "ęėęęęęĘ": 507,
      "ėĞ": 508,
      "ęęęęęęęęęęęęęęęęęę": 509,
      "ęĘĘĘęęęę": 510,
      "ĀĀĔĀ": 511,
      "ęĞĘ": 512,
      "ĚĘęęęę": 513,
      "ęĚĚĚęęęę": 514,
      "Ĕęęě": 515,
      "ĚęęęĚ": 516,
      "ĝĘ": 517,
      "ęĜĕ": 518,
      "ęĘĘĘęęĘ": 519,
      "ęęęėęęęę": 520,
      "ęęęėę": 521,
      "ĞęęĚ": 522,
      "ęĜęęĘ": 523,
      "ėęęĞ": 524,
      "ęĝĖ": 525,
      "ęĕęęęę": 526,
      "ĀĀĘĀě": 527,
      "Ĕě": 528,
      "ęę$": 529,
      "ĘęęĞ": 530,
      "ęęęěęęęę": 531,
      "Ğęęęę": 532,
      "ĀĀĚĀĘ": 533,
      "ĘęęęęęęĘ": 534,
      "ęėĔ": 535,
      "ĀĀėĀĘ": 536,
      "ęĚęĘ": 537,
      "Ėęęĕ": 538,
      "ę#": 539,
      "ęĘęęęĘ": 540,
      "ĀĀęĀě": 541,
      "ęęęęęęęęęęęęęęęęęęęęęęęę": 542,
      "ęĚęĚęęĘ": 543,
      "Ġğ": 544,
      "ęęěĘęęĚ": 545,
      "ęĕĜ": 546,
      "ęĚĘĘęęęę": 547,
      "ęĖĝ": 548,
      "ĕĞ": 549,
      "ęĖęęĘ": 550,
      "ęęęěę": 551,
      "ĠĞ": 552,
      "ęĔĘ": 553,
      "ęęėĚęęĘ": 554,
      "ęęęėęęĚ": 555,
      "ęĀĀ": 556,
      "ęĝęęęę": 557,
      "Ĝğ": 558,
      "ĀĀĞĀ": 559,
      "ėğ": 560,
      "ęĚęęęęęęęęęęęę": 561,
      "ęĚęĚęęĚ": 562,
      "ĘęęęęęęĚ": 563,
      "ęĜęęĚ": 564,
      "ęĚěęęęĚ": 565,
      "Ĝęęĕ": 566,
      "ēĘ": 567,
      "ĕĖ": 568,
      "ęĚęęęĚ": 569,
      "ĀĀĘĀĖ": 570,
      "ęęĚęęęęęęĚ": 571,
      "ęĔĚ": 572,
      "ĀĀĘĀĚ": 573,
      "ėĘęęĘ": 574,
      "ęĘęě": 575,
      "ęĘėęęęĘ": 576,
      "ęĚĚĚęęĚ": 577,
      "ęĘĘęęęęę": 578,
      "ėęęęĘ": 579,
      "ĀĀęĀĚ": 580,
      "ęĚĚęęęęę": 581,
      "ĀĀ'": 582,
      "ēęęĚ": 583,
      "ęĘęęęęęęęęęęęę": 584,
      "ěęęęĚ": 585,
      "ĀĀğĀ": 586,
      "ēė": 587,
      "Ĕĝ": 588,
      "Ěĝ": 589,
      "ĠĘ": 590,
      "ęĚěĘęęĚ": 591,
      "ęĘęĘęęĘ": 592,
      "ēęęĘ": 593,
      "Ĕė": 594,
      "ęĘěęęęę": 595,
      "ęėęęě": 596,
      "ĀĀėĀė": 597,
      "ęĘěęęęĚ": 598,
      "ęęĎ": 599,
      "Ġě": 600,
      "ğĚ": 601,
      "ęėĞ": 602,
      "ĀĀĚĀė": 603,
      "ęėĚęęęę": 604,
      "ĀĀęĀĖ": 605,
      "ęĝĝ": 606,
      "ęęęěęęĘ": 607,
      "ęęĚęęęęęęĘ": 608,
      "ĀĀėĀě": 609,
      "ęěĔ": 610,
      "ęĖĔ": 611,
      "ęęęěęęĚ": 612,
      "ĀĀĚĀě": 613,
      "ęěĘęęęę": 614,
      "ęęĘęęęęęęĚ": 615,
      "ĀĀėĀĚ": 616,
      "ĘĚęęĘ": 617,
      "ęĘĘěęęĘ": 618,
      "ęĞě": 619,
      "ęęĘęęęęęęĘ": 620,
      "ĕęęĝ": 621,
      "ęĚėęęęę": 622,
      "ęĞĜ": 623,
      "ğĞ": 624,
      "ĚęęęęęęĘ": 625,
      "ĘęęęęĘĚ": 626,
      "ėĘęęęę": 627,
      "ęęęėęęĘ": 628,
      "ęęĘęęęęęę": 629,
      "ĀĀĖĀĚ": 630,
      "ĖęęęęĘ": 631,
      "Ęĝ": 632,
      "ęęěĚęęĚ": 633,
      "ęĘĚĘęęęę": 634,
      "ęęęęęęęęęęęęęęęęęęęę": 635,
      "ĀĀĚĀĖ": 636,
      "ĕęęĕ": 637,
      "ĞĞ": 638,
      "ęĘėĚęęĘ": 639,
      "ĀĀĚĀĚ": 640,
      "ĔĖ": 641,
      "Ěě": 642,
      "ĘĘęęĘ": 643,
      "ęĚğ": 644,
      "ęĜĞ": 645,
      "ęĘĚęęęęę": 646,
      "ĔęęĖ": 647,
      "ėĚęęĘ": 648,
      "ĖęęĞ": 649,
      "ĀĀ(": 650,
      "ęęėĘęęĘ": 651,
      "ęęęęęęęęęęęęęęęęęęę": 652,
      "ęęĚęęęęęę": 653,
      "ěĚęęęę": 654,
      "ęĚėęęęĘ": 655,
      "Ġė": 656,
      "ęĘęĘ": 657,
      "ęěęęė": 658,
      "ĕğ": 659,
      "ěĘęęĚ": 660,
      "ęğĚ": 661,
      "Ĝęęĝ": 662,
      "ĔĞ": 663,
      "ĘĞ": 664,
      "ĘęęĔ": 665,
      "ęď": 666,
      "ęĝĞ": 667,
      "ĀĀēĀ": 668,
      "ęėęĚęęĚ": 669,
      "ęęĚęęĘ": 670,
      "ęĘĘęęęĚ": 671,
      "ĔęęĜ": 672,
      "Ěğ": 673,
      "ęĘęěęęęę": 674,
      "ēęęęę": 675,
      "ēęęė": 676,
      "ęěğ": 677,
      "ĀĀęĀĕ": 678,
      "ĀĀěĀĘ": 679,
      "ęěĚęęęĚ": 680,
      "ĔĜ": 681,
      "ęĚĚėęęĚ": 682,
      "ĚęęęęĘĚ": 683,
      "ĕĕ": 684,
      "Ėğ": 685,
      "ėęęĔ": 686,
      "ĝęęĜ": 687,
      "ęęĚęęęĘ": 688,
      "ęęęĘęęė": 689,
      "ęęęĒ": 690,
      "ĀĀėĀĖ": 691,
      "ĚĞ": 692,
      "ęĘĚęęĘ": 693,
      "ęĚĚęęęě": 694,
      "ęĚĚęęęĘ": 695,
      "ĀĀĚĀĜ": 696,
      "ēě": 697,
      "ēĝ": 698,
      "ėęęĘę": 699,
      "ęęęęęęęęĚ": 700,
      "ęĕĕ": 701,
      "ęĔė": 702,
      "ĀĀęĀĜ": 703,
      "ĚęęęęĚĚ": 704,
      "ĜęęęęĚ": 705,
      "ęěęĘęęęę": 706,
      "ęĝĕ": 707,
      "ěęęĚę": 708,
      "ĚęęĔ": 709,
      "ęĚęĘęęęęĘ": 710,
      "ęęęęęęęęĘ": 711,
      "ęĚĘĚęęęę": 712,
      "ęĞė": 713,
      "ĀĀĖĀĘ": 714,
      "ęĚĘęęĚ": 715,
      "ęĚėĚęęĘ": 716,
      "ęĘğ": 717,
      "ėęęĚę": 718,
      "ęěĘęęęĘ": 719,
      "ĀĀĖĀė": 720,
      "ĚęęęęĘĘ": 721,
      "ěĘęęęę": 722,
      "ĀĀěĀĖ": 723,
      "ĖęęęęĚ": 724,
      "ĀĀ)": 725,
      "ęĚĘęęęęę": 726,
      "ĠĀ": 727,
      "ęę%": 728,
      "ęĚęęĘę": 729,
      "ęęĚęęĚ": 730,
      "ęěĘĘęęĘ": 731,
      "ĀĀěĀė": 732,
      "!ğ": 733,
      "ĀĀ*": 734,
      "ęėĚęęęĚ": 735,
      "ěĕ": 736,
      "ęěęęě": 737,
      "ęĔĖ": 738,
      "ęĚěĚęęĚ": 739,
      "ĘęęęęĘĘ": 740,
      "ĝğ": 741,
      "ĝęęĖ": 742,
      "Ġęęęę": 743,
      "ęĚęėęęęę": 744,
      "ęęĚęęęě": 745,
      "ĀĀĒĀ": 746,
      "ĜęęęęĘ": 747,
      "ĞĘ": 748,
      "ęėęęė": 749,
      "ęĚĘęęęė": 750,
      "ęĘĘęęęė": 751,
      "ĚęęęęĚĘ": 752,
      "!Ğ": 753,
      "ėĕ": 754,
      "ęęĘęęĘ": 755,
      "ēĖ": 756,
      "ěęęĔ": 757,
      "ęęĘęęęė": 758,
      "ęėęĚęęęę": 759,
      "ęĖĞ": 760,
      "ĀĀĘĀĕ": 761,
      "ęĚėĘęęĘ": 762,
      "ęėĘęęęĘ": 763,
      "ęėėęęęę": 764,
      "ęĜĔ": 765,
      "ęęęęęęęęęęęęęęęęęęęęęęęęęęęęęęęę": 766,
      "ĜĖ": 767,
      "ęęĚęęęĚę": 768,
      "ęęęĘęęě": 769,
      "ęĔě": 770,
      "ĀĀĘĀĜ": 771,
      "ĘęęęęĚĘ": 772,
      "ęěęĘęęĚ": 773,
      "ęėĚĚęęĚ": 774,
      "ĀĀĖĀě": 775,
      "ĘęęęęĚĚ": 776,
      "ēĞ": 777,
      "Ėĕ": 778,
      "ęĚęĘęęęęĚ": 779,
      "ęęęęęęęęęĘ": 780,
      "ęĚęęęęė": 781,
      "!Ě": 782,
      "ĒĘ": 783,
      "ēęęě": 784,
      "ęęĚėęęĚ": 785,
      "ĀĀěĀě": 786,
      "đĘ": 787,
      "ęěĚĘęęĚ": 788,
      "ęĘėĘęęĘ": 789,
      "ęĘěĘęęĚ": 790,
      "ęěęĘęęĘ": 791,
      "ęĞĖ": 792,
      "ěęęĘę": 793,
      "ęėĘĚęęĘ": 794,
      "ęĚęęęęĘę": 795,
      "ęĘęęęęě": 796,
      "ęĕĝ": 797,
      "ęĚĚĘęęĘ": 798,
      "ęĘĚęęęě": 799,
      "ėĚęęęę": 800,
      "ėęęğ": 801,
      "ęęĘęęęĚ": 802,
      "ęęĘęęęĘę": 803,
      "ęĞĝ": 804,
      "ěęęĞ": 805,
      "Ġ!": 806,
      "ĠĖ": 807,
      "ĀĀěĀĚ": 808,
      "ęęęĘęęęęę": 809,
      "ĀĀĜĀė": 810,
      "Ēė": 811,
      "ęĚęęĜ": 812,
      "ęĘęĚęęęęĘ": 813,
      "ęěěęęęę": 814,
      "ęěĚĘęęęę": 815,
      "ĀĀĜĀĘ": 816,
      "ĒĚ": 817,
      "Ęğ": 818,
      "ę$": 819,
      "Ğęęė": 820,
      "ęęĚĘęęě": 821,
      "ĀĀĖĀĖ": 822,
      "!Ĝ": 823,
      "đĚ": 824,
      "ęĘęĚęęęęĚ": 825,
      "ęěęĚęęĘ": 826,
      "ęĔĜ": 827,
      "ĀĀĚĀĕ": 828,
      "ĀĀėĀĝ": 829,
      "ęėĘĚęęęę": 830,
      "ęğě": 831,
      "ĝĞ": 832,
      "ęĘē": 833,
      "ęęĘěęęĘ": 834,
      "ĀĀ+": 835,
      "ęęęęęęęęęĚ": 836,
      "ęĚęęęęě": 837,
      "ęęę!": 838,
      "Ěęęėę": 839,
      "Ęęęėę": 840,
      "ęğĜ": 841,
      "ęęěęęęě": 842,
      "ęęęĚęęė": 843,
      "ęęĖęęęę": 844,
      "ęĚĘęęęĘę": 845,
      "ĀĀĘĀĝ": 846,
      "ĀĀėĀĕ": 847,
      "Ěęęěę": 848,
      "đė": 849,
      "ēĜ": 850,
      "Ġĕ": 851,
      "ęĘęęĖ": 852,
      "ęėęĚęęĘ": 853,
      "ęĜğ": 854,
      "ęĘęęęęė": 855,
      "ęĕęęĚ": 856,
      "ęĞęęęę": 857,
      "ęĘęęęęĚę": 858,
      "!ĝ": 859,
      "Ĕğ": 860,
      "ęĚē": 861,
      "ęęęĚęęęęĘ": 862,
      "ęęĜęęęę": 863,
      "ęĚĚęęĚ": 864,
      "ĀĀėĀĜ": 865,
      "ęĘěĚęęĚ": 866,
      "!ě": 867,
      "Ęęęğ": 868,
      "ěĚęęĚ": 869,
      "Ğğ": 870,
      "ęĘęěęęĘ": 871,
      "ęęėęęęė": 872,
      "ęĘĘęęęĘę": 873,
      "ĀĀĔĀĘ": 874,
      "ęĚęęęęĚę": 875,
      "ĀĀ!Ā": 876,
      "ĖęęĔ": 877,
      "ęėğ": 878,
      "ęĜęęęęĘ": 879,
      "ęĚĘėęęĘ": 880,
      "ĀĀđĀ": 881,
      "ęęęęęęęęęęęĘ": 882,
      "ęĘĚęęęĚę": 883,
      "ĀĀĕĀě": 884,
      "Ĕęęĝ": 885,
      "ĠęęĘ": 886,
      "ęęęĘęęęęĘ": 887,
      "ęĜęęė": 888,
      "ęĚĚęęęĚę": 889,
      "ęğĘ": 890,
      "ĀĀĕĀĘ": 891,
      "ĀĀĐĀ": 892,
      "Ĕĕ": 893,
      "ęęęĚęęě": 894,
      "ĀĀĘĀĔ": 895,
      "Ēě": 896,
      "ėęęęęĘĘ": 897,
      "ĠĀĀ": 898,
      "ęęęĚęęęęĚ": 899,
      "ęĖęęęęĚ": 900,
      "ęĚęėęęĘ": 901,
      "ęĘĘęęĘ": 902,
      "ĀĀęĀĝ": 903,
      "ĀĀĕĀĚ": 904,
      "ęĝęęĘ": 905,
      "ęĘĚęęęĘ": 906,
      "ęėĚĘęęĚ": 907,
      "ęęęĚęęęęę": 908,
      "ęĘęęęęĘę": 909,
      "đĖ": 910,
      "ėęę": 911,
      "ĚĚęęĚ": 912,
      "ęėē": 913,
      "ęęěĘęęě": 914,
      "ęĚĚĘęęě": 915,
      "ęĘĚěęęĚ": 916,
      "ęęęđ": 917,
      "ĀĀĜĀě": 918,
      "ĀĀĝĀĘ": 919,
      "\"Ě": 920,
      "ĠęęĚ": 921,
      "ęĖğ": 922,
      "ęĘĚėęęĚ": 923,
      "ęěĘĚęęĘ": 924,
      "ęėėęęęĘ": 925,
      "ėęęęęĚĚ": 926,
      "Ęě": 927,
      "Ĝĕ": 928,
      "ęĚęęĖ": 929,
      "ęĚĚėęęęę": 930,
      "ĀĀĖĀĜ": 931,
      "ĀĀ\"Ā": 932,
      "ĝĖ": 933,
      "ęęĚěęęĚ": 934,
      "ęĘĘĘęęĚ": 935,
      "Ēĕ": 936,
      "ĒęęĘ": 937,
      "Ĕęęĕ": 938,
      "ęęęĘęęęęĚ": 939,
      "ęĔĕ": 940,
      "ĀĀęĀĔ": 941,
      "ĜęęĔ": 942,
      "ęĚėęęęė": 943,
      "ĒĖ": 944,
      "ęĚĘęęęĚ": 945,
      "\"Ğ": 946,
      "ęęĘĚęęė": 947,
      "ęĖęęě": 948,
      "ęĚĘěęęĘ": 949,
      "ėěęęĘ": 950,
      "Ęęę": 951,
      "ĚĘęęĚ": 952,
      "ęĚęĚęęęęĘ": 953,
      "ęĘęėęęęę": 954,
      "ęĖęęęęĘ": 955,
      "ęĝğ": 956,
      "ĀĀĚĀĝ": 957,
      "ęěĘĘęęęę": 958,
      "Ĕę": 959,
      "ğęęĘ": 960,
      "ęĘęĘęęęęĘ": 961,
      "ęęĘėęęĘ": 962,
      "ęęęęęęęęęęęĚ": 963,
      "ęĚěęęęě": 964,
      "ęēĘ": 965,
      "đĕ": 966,
      "ĒĞ": 967,
      "ěěęęĚ": 968,
      "ęĘęęĘę": 969,
      "ęėęĘęęęę": 970,
      "ęęėĘęęęę": 971,
      "ęĜęęęęĚ": 972,
      "ęĚĘĘęęė": 973,
      "ĀĀěĀĜ": 974,
      "ĀĀ#Ā": 975,
      "ĚĜ": 976,
      "ęĚęěęęęę": 977,
      "ęĘęęĜ": 978,
      "ęĘęęęęęęęęęęę": 979,
      "ęęĘęęęęęęęęęęęę": 980,
      "ęęėĚęęė": 981,
      "ęęěę": 982,
      "ęēĚ": 983,
      "ĀĀĜĀĖ": 984,
      "ęĚęėęęĚ": 985,
      "ęĖęęė": 986,
      "ęĝęęĚ": 987,
      "ęęĘęęęęęęĘęęęę": 988,
      "ĀĀěĀĕ": 989,
      "ĀĀĕĀĖ": 990,
      "ĖęęęĘ": 991,
      "ėėęęĘ": 992,
      "ęęĜęęęĚ": 993,
      "ęĚĘėęęęę": 994,
      "ĀĀĚĀĔ": 995,
      "ĀĀěĀĝ": 996,
      "ĀĀĜĀĚ": 997,
      "ěĚęęĜ": 998,
      "ĀĀĝĀě": 999,
      "ĀĀĝĀė": 1000,
      "ēğ": 1001,
      "ęĚęęęęęęęęęęęęę": 1002,
      "ęĘęěęęĚ": 1003,
      "ęęĘėęęęę": 1004,
      "ęĘęęęęęęęĘ": 1005,
      "ęĕĞ": 1006,
      "ęĚĘĚęęė": 1007,
      "ęěĚĚęęĚ": 1008,
      "ęēė": 1009,
      "ęęęĚęęęęęęĘ": 1010,
      "Ēęęęę": 1011,
      "ĒęęĚ": 1012,
      "ęĘę": 1013,
      "ęĘęęęęęęęęęęęęę": 1014,
      "ęęĚĚęęĘ": 1015,
      "ęęĚĘęęĘ": 1016,
      "ęėęĘęęĚ": 1017,
      "ęĘėęęęė": 1018,
      "ęěěęęęĚ": 1019,
      "ėėęęęę": 1020,
      "Ęęęęęęęęęęęę": 1021,
      "ĜĘęęĚ": 1022,
      "Ğě": 1023,
      "ęęęęęęęęęęĚ": 1024,
      "ęęėěęęĘ": 1025,
      "ęĘĚĘęęě": 1026,
      "ĀĀėĀĞ": 1027,
      "ęęęĜęęęę": 1028,
      "ĀĀĖĀĕ": 1029,
      "ēęęĜ": 1030,
      "ėęęęęĘĚ": 1031,
      "ĜĀĀ": 1032,
      "ęĚę": 1033,
      "ęĜęęě": 1034,
      "ęĜĚęęęę": 1035,
      "ęĘęęęęęęĚęęęę": 1036,
      "ęĘĘĚęęė": 1037,
      "ėĚęęĖ": 1038,
      "\"ğ": 1039,
      "ĘĜ": 1040,
      "ĜęęęĚ": 1041,
      "ęĚęĚęęęęĚ": 1042,
      "ęęęęęęęęĘęęęę": 1043,
      "ęęęęęęęęĚęęęę": 1044,
      "ęęěėęęĚ": 1045,
      "ĀĀĘĀĞ": 1046,
      "ęěĚęęęĘ": 1047,
      "ęěěĘęęĚ": 1048,
      "ęĚĜęęęĚ": 1049,
      "ĀĀĔĀĚ": 1050,
      "ēęęĖ": 1051,
      "ĕęęęęĚ": 1052,
      "Ěęęęęęęęęęęę": 1053,
      "ęĘęėęęĚ": 1054,
      "ęęĘĘęęĚ": 1055,
      "ęęėę": 1056,
      "ĀĀĘĀē": 1057,
      "ĀĀĕĀė": 1058,
      "ęęĚėęęęę": 1059,
      "ęĕĔ": 1060,
      "ęĘĘĚęęĚ": 1061,
      "ęĚěėęęĚ": 1062,
      "ęėĘęęęĚ": 1063,
      "ęěėĘęęĘ": 1064,
      "!ĀĀ": 1065,
      "ęĎ": 1066,
      "ěęęęęĘĚ": 1067,
      "ĝęęĝ": 1068,
      "ęĘęĘęęęęĚ": 1069,
      "ęęęęęęęęęęĘ": 1070,
      "ęĝĔ": 1071,
      "ęĚĚĚęęĘ": 1072,
      "ęĘĘěęęęę": 1073,
      "ęĚĘĘęęĚ": 1074,
      "ęĞĞ": 1075,
      "ęęĘęęęęęęĚęęęę": 1076,
      "ęėĚĚęęęę": 1077,
      "ęęęĖęęęę": 1078,
      "ėĘęęĖ": 1079,
      "ĀĀĞĀĘ": 1080,
      "ĒĜ": 1081,
      "ĚęęĞ": 1082,
      "ěěęęęę": 1083,
      "ĝęęĕ": 1084,
      "ğęęęę": 1085,
      "ęęĘěęęęę": 1086,
      "ęĘęęęęęęě": 1087,
      "ęĘęęęęęęęĚ": 1088,
      "ęĘĚĚęęě": 1089,
      "ĐĚ": 1090,
      "đĜ": 1091,
      "ĕęęĞ": 1092,
      "Ğęęě": 1093,
      "Ġęęě": 1094,
      "ęĘĒ": 1095,
      "Ęęęęęė": 1096,
      "ęĚęęęęęęęĚ": 1097,
      "ęĘĘĘęęė": 1098,
      "ęĘėěęęĘ": 1099,
      "ĀĀěĀĔ": 1100,
      "ęęęĘęęęęęęĘ": 1101,
      "ęėėĚęęĘ": 1102,
      "ęėěęęęĚ": 1103,
      "ęĘĖĚęęĘ": 1104,
      "ĀĀēĀĘ": 1105,
      "ĔęęĔ": 1106,
      "ĖĘęęĘ": 1107,
      "ėęęęęĚĘ": 1108,
      "ğęęĚ": 1109,
      "ęĚęě": 1110,
      "ęęĚěęęęę": 1111,
      "ĀĀ,": 1112,
      "ęĕęęĘ": 1113,
      "ęĔĝ": 1114,
      "ĀĀęĀē": 1115,
      "ęĘęĚęęě": 1116,
      "ĀĀďĀ": 1117,
      "ęęęęęęęęęęęęęęęęęęęęęęęęę": 1118,
      "ĜęęĞ": 1119,
      "ęėĘęęĘ": 1120,
      "ęĘěęęęě": 1121,
      "ęęęĘęęęęęęĚ": 1122,
      "ēĕ": 1123,
      "Ėęęğ": 1124,
      "ěėęęĚ": 1125,
      "ěęęęęĚĘ": 1126,
      "Ġ\"": 1127,
      "ęĚęęęęęęęęęęę": 1128,
      "ęěęĚęęęę": 1129,
      "ęęėęęĚ": 1130,
      "ęęĖęęęĘ": 1131,
      "ęĘėĚęęė": 1132,
      "ėęęē": 1133,
      "ęęĘĘęęė": 1134,
      "ęĚęęęęęęęĘ": 1135,
      "ęĔęęęę": 1136,
      "ęĚěĘęęě": 1137,
      "ĀĀĚĀĞ": 1138,
      "ĀĀ$Ā": 1139,
      "!Ę": 1140,
      "ęěē": 1141,
      "Ěęęęęė": 1142,
      "ęĜęĘęęĘ": 1143,
      "ęĖē": 1144,
      "ęĞĕ": 1145,
      "ęĞğ": 1146,
      "ęėĘĘęęĘ": 1147,
      "ĀĀěĀē": 1148,
      "Ęęęęęęęęęęęęę": 1149,
      "Ęęęē": 1150,
      "ęĚęęęĚę": 1151,
      "ęĚĚĚęęě": 1152,
      "ęěėęęęĘ": 1153,
      "ĀĀĝĀĚ": 1154,
      "Ġ#": 1155,
      "ęęĚĚęęě": 1156,
      "ęėęě": 1157,
      "ęęěĚęęęę": 1158,
      "ęĕğ": 1159,
      "ęĘĚĘęęĘ": 1160,
      "Ēĝ": 1161,
      "Ēęęė": 1162,
      "Ĕęę": 1163,
      "ĕęęęęĘ": 1164,
      "ėęęęė": 1165,
      "Ġęęė": 1166,
      "ęĖĘęęęę": 1167,
      "ęĘěĚęęě": 1168,
      "ęėĘĚęęĚ": 1169,
      "ĀĀĖĀĝ": 1170,
      "ęěęęęęě": 1171,
      "ĀĀĜĀĕ": 1172,
      "ĀĀĝĀĖ": 1173,
      "ĕęę": 1174,
      "ěęęęęĘĘ": 1175,
      "ĝė": 1176,
      "ĞĜ": 1177,
      "ęĚęĘęęė": 1178,
      "ęęęęęęęęęęęęĚ": 1179,
      "ęĘĘėęęęę": 1180,
      "ęĘĘėęęĘ": 1181,
      "ęĘĚěęęęę": 1182,
      "ĀĀęĀĞ": 1183,
      "Ęęęěę": 1184,
      "ęěĚĘęęĘ": 1185,
      "ęĚėėęęĘ": 1186,
      "ęĘěěęęĚ": 1187,
      "ęĘęęĚę": 1188,
      "ęĚĜĘęęĚ": 1189,
      "ĀĀĝĀĕ": 1190,
      "ĀĀĔĀė": 1191,
      "Ėē": 1192,
      "ěęęęęĚĚ": 1193,
      "ęĘęė": 1194,
      "ęėęěęęĘ": 1195,
      "ęĚęęęęęęĚęęęę": 1196,
      "ęĚĘĚęęĚ": 1197,
      "ėęęęęė": 1198,
      "ęěĘėęęĘ": 1199,
      "ĜęęĚę": 1200,
      "ĀĀĔĀĜ": 1201,
      "ĀĀĞĀė": 1202,
      "đğ": 1203,
      "Ġę": 1204,
      "ęĘęęęĘę": 1205,
      "ęěęĚęęĚ": 1206,
      "ĀĀĜĀĝ": 1207,
      "ĀĀĕĀĜ": 1208,
      "Đĕ": 1209,
      "Đě": 1210,
      "ĖĚęęĘ": 1211,
      "ęĘęĘęęě": 1212,
      "ęěĒ": 1213,
      "ęěęėęęĘ": 1214,
      "ęĜē": 1215,
      "ęĘĚĚęęĘ": 1216,
      "ęěĚĚęęęę": 1217,
      "ęěĘęęęė": 1218,
      "ęěěęęęě": 1219,
      "đĔ": 1220,
      "đęęė": 1221,
      "Ēęęě": 1222,
      "ęěęė": 1223,
      "ęěėęęęę": 1224,
      "ęęęęęęęęęęęęĘ": 1225,
      "ęęęĐ": 1226,
      "ęğĝ": 1227,
      "ęĘĖęęęĘ": 1228,
      "Ēğ": 1229,
      "Ėęę": 1230,
      "Ěęęęęęęęęęęęę": 1231,
      "ęėĚęęĘ": 1232,
      "ęęĜęęęě": 1233,
      "ęĚĚěęęęę": 1234,
      "ęĚěĘęęęę": 1235,
      "ęěĚėęęĚ": 1236,
      "ęĘėĚęęęę": 1237,
      "ęěĘĘęęė": 1238,
      "ęęęĚęęęęęę": 1239,
      "ĀĀĜĀĜ": 1240,
      "ĀĀĝĀĜ": 1241,
      "\"ĝ": 1242,
      "Ēē": 1243,
      "ěęęğ": 1244,
      "ĞęęĖ": 1245,
      "ęęĘĚęęĚ": 1246,
      "ęěęęęĚ": 1247,
      "ęėęĘęęĘ": 1248,
      "ęęėĘęęė": 1249,
      "Ěęęęęě": 1250,
      "ęęĖĘęęĘ": 1251,
      "ęĚęęęęęęĘęęęę": 1252,
      "ęĚĚĖęęĚ": 1253,
      "ęęĚęęęęęęĚęęęę": 1254,
      "ęĔĔ": 1255,
      "ęęęĖęęĚ": 1256,
      "ęēĖ": 1257,
      "ĀĀĞĀĚ": 1258,
      "ĀĀ%Ā": 1259,
      "ęęęęę": 1260,
      "ęęĚęęęęęęęęęęęę": 1261,
      "ęěĘęęĚ": 1262,
      "ęěęėęęęę": 1263,
      "ęėěęęęę": 1264,
      "ęęę\"": 1265,
      "ĀĀęĀğ": 1266,
      "ĐĘ": 1267,
      "đě": 1268,
      "ēĔ": 1269,
      "Ěĕ": 1270,
      "ěĘęęě": 1271,
      "Ĝęęğ": 1272,
      "ęĚęĚęęė": 1273,
      "ĀĀ-": 1274,
      "ĀĀ/": 1275,
      "ęėęęęĘ": 1276,
      "ęėęěęęĚ": 1277,
      "ęęěęęĘ": 1278,
      "ęĚėĚęęė": 1279,
      "ĀĀĚĀē": 1280,
      "ęėĘĘęęęę": 1281,
      "ęėĚęęęě": 1282,
      "ęęęĘęęęęęę": 1283,
      "ęėėęęęė": 1284,
      "ĀĀĕĀĝ": 1285,
      "ĀĀēĀĚ": 1286,
      "ęĘęĚęęė": 1287,
      "Đė": 1288,
      "Ėę": 1289,
      "ęęěěęęĚ": 1290,
      "ęĘęęęęęęė": 1291,
      "ęĚĚĘęęęęĘ": 1292,
      "ěęęęęė": 1293,
      "ĀĀĖĀĔ": 1294,
      "ęěěĚęęĚ": 1295,
      "ėęęėę": 1296,
      "ĀĀĕĀĕ": 1297,
      "ėěęęĖ": 1298,
      "ėĖęęĘ": 1299,
      "ěęęęě": 1300,
      "Ğĝ": 1301,
      "ĠęęĜ": 1302,
      "ęĚęĘęęě": 1303,
      "ęĘęęęęęęĘęęęę": 1304,
      "ęěĚėęęęę": 1305,
      "ĀĀėĀĔ": 1306,
      "ęğė": 1307,
      "ęęęĜęęĚ": 1308,
      "ęęęĚęęęęęęĚ": 1309,
      "ĀĀĔĀě": 1310,
      "ęĚĖęęęĘ": 1311,
      "ĀĀĞĀĖ": 1312,
      "ĀĀ&Ā": 1313,
      "ēęęĕ": 1314,
      "ĔĔ": 1315,
      "ĖęęĘę": 1316,
      "Ěė": 1317,
      "ęęĖĚęęĘ": 1318,
      "ęěĚĘęęě": 1319,
      "ęĘěĘęęě": 1320,
      "ĀĀĜĀĔ": 1321,
      "ĀĀĞĀĜ": 1322,
      "ĀĀğĀĘ": 1323,
      "ĕĘęęĕ": 1324,
      "ĘęęęĘę": 1325,
      "ěęęē": 1326,
      "ĜĚęęĚ": 1327,
      "ĠĔ": 1328,
      "ęĚęęĝ": 1329,
      "ĀĀ.": 1330,
      "ęęęęęęęęĘĚ": 1331,
      "ęęęĘęęĘę": 1332,
      "ęĚĚěęęĚ": 1333,
      "ęęęėęęě": 1334,
      "ęęęęęęęęęęęęęęęęęęęęęęęęęęę": 1335,
      "ęęęĜęęĘ": 1336,
      "ęėėĘęęĘ": 1337,
      "ęěęęęęė": 1338,
      "ęėěĚęęĚ": 1339,
      "ęĘĜĘęęě": 1340,
      "ęĜĘęęęĘ": 1341,
      "ęĜĘĘęęĘ": 1342,
      "ĀĀĞĀě": 1343,
      "ĀĀĎĀ": 1344,
      "!!": 1345,
      "ĒęęĖ": 1346,
      "Ěęęğ": 1347,
      "ĚęęęĚę": 1348,
      "ğĝ": 1349,
      "ęęęęęęė": 1350,
      "ęĚĜęęęę": 1351,
      "ęęėĚęęęę": 1352,
      "ęęėėęęĘ": 1353,
      "ęęěĘęęęę": 1354,
      "ęĔĞ": 1355,
      "ĀĀėĀē": 1356,
      "ęğğ": 1357,
      "ęēĕ": 1358,
      "ĚęęęęĘĘęęęę": 1359,
      "ęĘĜęęęě": 1360,
      "ęĒĘ": 1361,
      "ęęęęęęęęęęęęęęęęęęęęęę": 1362,
      "Ěęęē": 1363,
      "ĠĀĘ": 1364,
      "ęĘĖęęęę": 1365,
      "ęĘęĜęęęę": 1366,
      "ęęęĘęęĚę": 1367,
      "ęĚĚĘęęęęĚ": 1368,
      "ęęęęĘęĚęęęę": 1369,
      "ęĘĚěęęĘ": 1370,
      "ęĞĔ": 1371,
      "ęęĚęęęęęęĘęęęę": 1372,
      "ęĚėĘęęė": 1373,
      "ęėĚęęęĘ": 1374,
      "ĀĀěĀĞ": 1375,
      "ĀĀĖĀĞ": 1376,
      "ęěęęęęęęĘ": 1377,
      "ęěėĚęęĘ": 1378,
      "ĀĀēĀė": 1379,
      "ęęęęĚĘĘęęęę": 1380,
      "ĕĚęęĕ": 1381,
      "ĖĐ": 1382,
      "ėĘęęė": 1383,
      "ĝęęęęĘ": 1384,
      "ęĚęĚęęě": 1385,
      "ĀĀć": 1386,
      "ęėĒ": 1387,
      "ęĜěęęęę": 1388,
      "ęĖėęęęę": 1389,
      "ęĚĚęęęęęęęęęęęę": 1390,
      "ęĚĚĘęęĚę": 1391,
      "ęĔęęĚ": 1392,
      "ęěĚęęęě": 1393,
      "ęĚėĘęęęę": 1394,
      "ęėĘěęęĘ": 1395,
      "ęėęęęęě": 1396,
      "ęėęęęęęęĘ": 1397,
      "ĀĀĜĀĞ": 1398,
      "ěęęěę": 1399,
      "ęĘĜęęęĚ": 1400,
      "ęĖĚęęęĚ": 1401,
      "ęęĘęęęĘęęęęęęęę": 1402,
      "đĝ": 1403,
      "Ęė": 1404,
      "ěĔ": 1405,
      "ěęę": 1406,
      "ĝęęęęĚ": 1407,
      "ęęėęęĘ": 1408,
      "ęĜĘęęęę": 1409,
      "ęęĖęęęė": 1410,
      "ęęĜĘęęĚ": 1411,
      "ęĘĚėęęęę": 1412,
      "ĀĀėĀĒ": 1413,
      "ęĘěėęęĚ": 1414,
      "ęėĚĘęęęę": 1415,
      "ęēě": 1416,
      "ęėėĚęęęę": 1417,
      "ęėėěęęĘ": 1418,
      "ĀĀ'Ā": 1419,
      "ĕĔ": 1420,
      "ĖĔ": 1421,
      "ę%": 1422,
      "Ěęę": 1423,
      "ĜęęĘę": 1424,
      "ğğ": 1425,
      "ęĚęĖęęęę": 1426,
      "ęĚęěęęĘ": 1427,
      "ęěęėęęĚ": 1428,
      "ęĚěĚęęęę": 1429,
      "ęğĞ": 1430,
      "ęěěėęęĚ": 1431,
      "ęėěĘęęĚ": 1432,
      "!\"": 1433,
      "#Ğ": 1434,
      "ęĚęĖ": 1435,
      "ęĚĖęęęę": 1436,
      "ęĕē": 1437,
      "ęĚĘěęęęę": 1438,
      "ĀěĚ": 1439,
      "ęěĘĚęęęę": 1440,
      "ęėĚěęęęę": 1441,
      "ęēĜ": 1442,
      "ęėęęęęęęĚ": 1443,
      "ęĚĜęęęě": 1444,
      "ĀĀ!ĀĘ": 1445,
      "đē": 1446,
      "ĘęęęĚ": 1447,
      "Ěęęęě": 1448,
      "ğęęė": 1449,
      "ęęęęęęě": 1450,
      "ęĚĒ": 1451,
      "ęĘęĘęęė": 1452,
      "ęĘęėęęĘ": 1453,
      "ęęĘęęĚ": 1454,
      "ęęĚĘęęęęĘ": 1455,
      "ĀĀą": 1456,
      "ĀĀĈ": 1457,
      "ęęěĚęęě": 1458,
      "ęĜęĘęęęę": 1459,
      "ėęęęęě": 1460,
      "ęĚěěęęĚ": 1461,
      "ęěĚĚęęĘ": 1462,
      "ĀĀėĀğ": 1463,
      "ęėĚěęęĚ": 1464,
      "ĚęęęęĚĚęęęę": 1465,
      "ęĚęęĚę": 1466,
      "ęĘĖęęęė": 1467,
      "ęĚĖĘęęĘ": 1468,
      "ĀĀğĀĚ": 1469,
      "#ğ": 1470,
      "ĕęęĔ": 1471,
      "ĖĒ": 1472,
      "ěĚęęě": 1473,
      "ěĖęęĚ": 1474,
      "Ĝęę": 1475,
      "ęęĚĖęęĚ": 1476,
      "ęęęĚęęĚę": 1477,
      "ęĖĚęęęę": 1478,
      "ęęĜĚęęĚ": 1479,
      "ęęęęĘĘęęęę": 1480,
      "ęĘĘęęęęęęęęęęęę": 1481,
      "ęĚĘĘęęęęĚ": 1482,
      "ęĔğ": 1483,
      "ęĘėěęęė": 1484,
      "ęĚėěęęĘ": 1485,
      "ęěĘĘęęĚ": 1486,
      "ęğĖ": 1487,
      "ęęęĖę": 1488,
      "ęĖĚĚęęĚ": 1489,
      "ĀĀĔĀĝ": 1490,
      "ęęęęĘĚĚęęęę": 1491,
      "ĞĚęęĝ": 1492,
      "!ė": 1493,
      "ĐĖ": 1494,
      "ĐĞ": 1495,
      "đĞ": 1496,
      "đęęĘ": 1497,
      "ĒĒ": 1498,
      "ĖęęęęĘĘ": 1499,
      "ěęĘęęęę": 1500,
      "ĠĀė": 1501,
      "ęĚėęęĚ": 1502,
      "ęĘěęęĘ": 1503,
      "ęěĚęęĚ": 1504,
      "ĘęęęęęęĚęęęę": 1505,
      "ęĚęęęęĘęęĘ": 1506,
      "ęęęęĚęĘęęęę": 1507,
      "ęĚĘĘęęĘę": 1508,
      "ĀĀĘĀğ": 1509,
      "ęěĘėęęęę": 1510,
      "ęĘěĚęęęę": 1511,
      "ęėĚĚęęě": 1512,
      "ęğęęęę": 1513,
      "ęēĝ": 1514,
      "ęėėĚęęė": 1515,
      "ęěęęęęęę": 1516,
      "ęěėėęęĘ": 1517,
      "ęęĚęęęĚęęęęęęęę": 1518,
      "ęėĖęęęĘ": 1519,
      "ĀĀēĀĜ": 1520,
      "Đğ": 1521,
      "ĘěęęĘ": 1522,
      "ę&": 1523,
      "ĜěęęĚ": 1524,
      "ęĚęěęęĚ": 1525,
      "ęęĘĘęęĘę": 1526,
      "ęęĚĘęęĚę": 1527,
      "ęėęěęęęę": 1528,
      "ęęęĚęęĘę": 1529,
      "ęęĖĚęęė": 1530,
      "ęĘĘĜęęĘ": 1531,
      "ęęęęĚĚęęęę": 1532,
      "ĀĀĝĀĔ": 1533,
      "ĀĀĝĀē": 1534,
      "ęĘĖĘęęĘ": 1535,
      "ęĜĚĘęęĚ": 1536,
      "ĀĀĔĀĖ": 1537,
      "ęěĜĘęęĚ": 1538,
      "ĀĀğĀě": 1539,
      "\"!": 1540,
      "đęęęę": 1541,
      "đęęĖ": 1542,
      "ēę": 1543,
      "ĖěęęĘ": 1544,
      "ėęĚęęęę": 1545,
      "ĚęęęĘ": 1546,
      "ĠĀě": 1547,
      "ęėęęĜ": 1548,
      "ęĚęęęęęęė": 1549,
      "ęĚĚėęęě": 1550,
      "ěĚęęĝ": 1551,
      "ęĖĘęęęĘ": 1552,
      "ĀĀğĀė": 1553,
      "ĀĀğĀĖ": 1554,
      "ĀĀĒĀĖ": 1555,
      "ęęęęęęęęęęęęęęęęęęęęęęęęęę": 1556,
      "\"Ĝ": 1557,
      "#!": 1558,
      "Ėęęęė": 1559,
      "ĘėęęĘ": 1560,
      "ęĚęęĕ": 1561,
      "ęĘĘěęęĚ": 1562,
      "ęĘĘĚęęĘę": 1563,
      "ęęęęĚę": 1564,
      "ęĚĘĜęęĘ": 1565,
      "ęęęĜę": 1566,
      "ęěěĘęęęę": 1567,
      "ęěěĘęęě": 1568,
      "ęėěĚęęě": 1569,
      "ęĒĚ": 1570,
      "ĀĀğĀĜ": 1571,
      "ĀĀĒĀĘ": 1572,
      "ĀĀĒĀě": 1573,
      "\"ě": 1574,
      "ēĒ": 1575,
      "Ęėęęęę": 1576,
      "ĘęęĒ": 1577,
      "ĞęęĜ": 1578,
      "ęĚęĕ": 1579,
      "ęęĘĘęęęęĘ": 1580,
      "ęęěėęęě": 1581,
      "ęęĜĚęęě": 1582,
      "ęęę#": 1583,
      "ęĚėĖęęĘ": 1584,
      "ĀĀĚĀğ": 1585,
      "ĀĀĜĀē": 1586,
      "ěĚĘęęęę": 1587,
      "ěĚĘęęĚ": 1588,
      "ĀĀĔĀĕ": 1589,
      "ĜěęęĜ": 1590,
      "ĐĜ": 1591,
      "đęęĚ": 1592,
      "ĔęęĞ": 1593,
      "ĚėęęĚ": 1594,
      "Ĝęęęě": 1595,
      "ĜĘęęě": 1596,
      "ęęěĖęęĚ": 1597,
      "ęęĜėęęĚ": 1598,
      "ęęĜĘęęě": 1599,
      "ęĘĘėęęĚ": 1600,
      "ęĚĘěęęė": 1601,
      "ęĘĚĚęęęęĚ": 1602,
      "ęęęęęęęęęęęęęĘęęęę": 1603,
      "ĀĀęĀĒ": 1604,
      "ęğĕ": 1605,
      "ęėęęęęė": 1606,
      "ęĘĜĚęęě": 1607,
      "ĀĀĔĀĞ": 1608,
      "ěĘęęĝ": 1609,
      "ĜĚęęĝ": 1610,
      "ĖĘęęĕ": 1611,
      "ĜĘęęĝ": 1612,
      "ĀĀđĀě": 1613,
      "ęĘęęęęęęęęęęęęęęęęęęęę": 1614,
      "ĀĀ(Ā": 1615,
      "\"\"": 1616,
      "$ğ": 1617,
      "ĒęęĜ": 1618,
      "ēęę": 1619,
      "ğĜ": 1620,
      "ęĚęĖęęĚ": 1621,
      "ęęĘĜęęĘ": 1622,
      "ęęĘĚęęĘę": 1623,
      "ęęęęęęęęĚĚ": 1624,
      "ęęęĚęęęęĘĘ": 1625,
      "ęĖĒ": 1626,
      "ęĚęęęęęęě": 1627,
      "ęĕĒ": 1628,
      "ęĚĚęęęĜ": 1629,
      "ęĘĘĘęęęęĚ": 1630,
      "ęĘĚĜęęĚ": 1631,
      "ęęęęęęęęęęęęęĚęęęę": 1632,
      "ęĚėěęęė": 1633,
      "ęěĘęęęĚ": 1634,
      "ęěėęęęė": 1635,
      "ĀĀĝĀĞ": 1636,
      "ęĜĚęęęĚ": 1637,
      "ęĘĜĚęęĚ": 1638,
      "ęĖĘĚęęęę": 1639,
      "ęĚĖĚęęĘ": 1640,
      "ĀĀĞĀĕ": 1641,
      "ěěęęĜ": 1642,
      "ęęęęĚĚĘęęĚ": 1643,
      "ĀĀďĀė": 1644,
      "ęĘęĚęęĚę": 1645,
      "\"Ę": 1646,
      "#ĝ": 1647,
      "ēęęĝ": 1648,
      "ėęęęĚ": 1649,
      "ėĚęęė": 1650,
      "ěĀĀ": 1651,
      "Ġ$": 1652,
      "ĠĀĖ": 1653,
      "ęĚĚęęęęĚ": 1654,
      "ęĘėęęĘ": 1655,
      "ęęĘĚęęęęĚ": 1656,
      "ęęĚĚęęęęĘ": 1657,
      "ęęěęęĚ": 1658,
      "ęĘęęęęĘęęĘ": 1659,
      "ĀĀĘĀĒ": 1660,
      "ĀĀĚĀĒ": 1661,
      "ęėėĘęęęę": 1662,
      "ĖęęĚę": 1663,
      "ęěęęęęęęĚ": 1664,
      "ĀĀĕĀĞ": 1665,
      "ęěĜęęęĚ": 1666,
      "ęėĖĚęęĘ": 1667,
      "ęĜěęęęĚ": 1668,
      "ęĘęĚęęĘę": 1669,
      "$ĝ": 1670,
      "ďė": 1671,
      "Đĝ": 1672,
      "ēē": 1673,
      "ĖĚęęė": 1674,
      "Ėęę!": 1675,
      "ěěęęě": 1676,
      "ĜĚęęě": 1677,
      "Ğĕ": 1678,
      "ğęęĖ": 1679,
      "ęĚęĜęęĘ": 1680,
      "ęĘđ": 1681,
      "ęĘęęĕ": 1682,
      "ęėęĚęęě": 1683,
      "ĚęęęęęęĘęęęę": 1684,
      "ęęęĚęęęęęęęęęęę": 1685,
      "ęęĖĘęęė": 1686,
      "ęĚĚęęęė": 1687,
      "ęĞęęĘ": 1688,
      "ęĞęęĚ": 1689,
      "ęĘėĘęęė": 1690,
      "ęĘėĜęęĘ": 1691,
      "ęėĘĘęęĚ": 1692,
      "ęėĘęęęė": 1693,
      "ĀĀĖĀĒ": 1694,
      "ęĘĜĘęęĚ": 1695,
      "ęĖĘęęęĚ": 1696,
      "ęĖĘĚęęĘ": 1697,
      "ęĚĖĘęęė": 1698,
      "ĀĀĒĀė": 1699,
      "ĔęęęęĘ": 1700,
      "ě!": 1701,
      "ĜėęęĚ": 1702,
      "ĠęęĖ": 1703,
      "ęęęęęęĘę": 1704,
      "ęĘĜęęęę": 1705,
      "ęěĜęęęę": 1706,
      "ęėęęĖ": 1707,
      "ęėęĚęęęęĘ": 1708,
      "ęęęęęęęęĘĘ": 1709,
      "ęęěěęęęę": 1710,
      "ęĝē": 1711,
      "ęĚĚĚęęęęĘ": 1712,
      "ęĘĘęęęě": 1713,
      "ęĚěėęęě": 1714,
      "ęěĘěęęĘ": 1715,
      "ęėĘěęęęę": 1716,
      "ęėęęęęęę": 1717,
      "ĀĀĕĀĔ": 1718,
      "ėĘęęĕ": 1719,
      "ęĘĖĚęęė": 1720,
      "ęĚĖęęęė": 1721,
      "ęĖėęęęĘ": 1722,
      "ĖĚęęĕ": 1723,
      "Ėęęē": 1724,
      "ėĔ": 1725,
      "Ġęęĝ": 1726,
      "ĠĀĚ": 1727,
      "ęęęęęęĚę": 1728,
      "ęĘęĜ": 1729,
      "ęęĘĖęęęę": 1730,
      "ęěĚęęęęę": 1731,
      "ęęėęęęĘę": 1732,
      "ęęęĘęęĖ": 1733,
      "ęĘęęęęĚęęĘ": 1734,
      "ęĚĚėęęĘ": 1735,
      "ęęęęĘę": 1736,
      "ęęęęĘęĘęęęę": 1737,
      "ęęęęĚęĚęęęę": 1738,
      "ęĘĚěęęě": 1739,
      "ęĔē": 1740,
      "ęĘėĘęęęę": 1741,
      "ĀĀěĀğ": 1742,
      "ęęęĖęęĘ": 1743,
      "ěĚęęęĚ": 1744,
      "ęĜĚĘęęĘ": 1745,
      "ęĒĖ": 1746,
      "ęĜěĚęęĚ": 1747,
      "ĀĀēĀĖ": 1748,
      "ĀĀ!ĀĚ": 1749,
      "ĀĀĐĀĘ": 1750,
      "ĀĀ\"Āė": 1751,
      "\"ĀĀ": 1752,
      "ėē": 1753,
      "ėĘęęĚ": 1754,
      "ėęę!": 1755,
      "Ęěęęęę": 1756,
      "ĚěęęĚ": 1757,
      "ğęęě": 1758,
      "ęĚĚęęĘ": 1759,
      "ęĚĘęęęęĘ": 1760,
      "ęĚęĘęęęęęęęę": 1761,
      "ęĘęęęĚ": 1762,
      "ęęĚĚęęęęĚ": 1763,
      "ęěęĖęęĚ": 1764,
      "ęėęėęęęę": 1765,
      "ęęėĖęęĘ": 1766,
      "ęĜĒ": 1767,
      "ęĖęĚęęĘ": 1768,
      "ęĚęęęęęęęĚęęęę": 1769,
      "ęĘęęęęĚęęĚ": 1770,
      "ęĘĘěęęė": 1771,
      "ęĘĘĚęęęęĘ": 1772,
      "ęĘĚęęęęęęęęęęęę": 1773,
      "ęĚěęęĚ": 1774,
      "ęėĚėęęĚ": 1775,
      "ęėĚĜęęĚ": 1776,
      "ęěěěęęĚ": 1777,
      "ĘęęęęĚĚęęęę": 1778,
      "ęėěęęęě": 1779,
      "ėĘĚęęęę": 1780,
      "ęěĜęęęě": 1781,
      "ĀĀēĀě": 1782,
      "ĀĀĒĀĜ": 1783,
      "ęĖęęęęě": 1784,
      "ĀĀ!Āė": 1785,
      "ĀĀđĀĜ": 1786,
      "ĝĚęęĝ": 1787,
      "ĀĀĐĀě": 1788,
      "ďĕ": 1789,
      "đęęě": 1790,
      "ěĜęęĚ": 1791,
      "ĜĚęęęę": 1792,
      "ĝęęĔ": 1793,
      "Ğęęĕ": 1794,
      "ĠĀĜ": 1795,
      "ęĘęęĔ": 1796,
      "ęĘĘęęęęĘ": 1797,
      "ęęĘĖęęĘ": 1798,
      "ęęĚęęęĜ": 1799,
      "ęęĚĘęęęęĚ": 1800,
      "ęęĚĚęęĚę": 1801,
      "ęęėĘęęĚ": 1802,
      "ęęėěęęė": 1803,
      "ĚęęęęęęęĘ": 1804,
      "ęĖęĘęęĚ": 1805,
      "ęęĖėęęĘ": 1806,
      "ęĚĘėęęĚ": 1807,
      "ęĘĚėęęě": 1808,
      "ęĘĚĚęęĚę": 1809,
      "ęęęęęęęęęęęęęę": 1810,
      "ęĚěĖęęĚ": 1811,
      "ęĘěĘęęęę": 1812,
      "ęęęęęęęęęęęęęęęęęęęęęęęęęęęęę": 1813,
      "ęēĔ": 1814,
      "ęĚĜėęęĚ": 1815,
      "ęėĖĘęęĘ": 1816,
      "ĀĀĒĀĕ": 1817,
      "ĀĀđĀĘ": 1818,
      "ĝĚęęĞ": 1819,
      "!ĕ": 1820,
      "#ě": 1821,
      "ďĚ": 1822,
      "ĒĔ": 1823,
      "Ēę": 1824,
      "ėęęęĖ": 1825,
      "Ęęę!": 1826,
      "ĚĘęęĘ": 1827,
      "Ěěęęęę": 1828,
      "ĝĕ": 1829,
      "Ġē": 1830,
      "ęĘ!": 1831,
      "ęęĘĘęęęęĚ": 1832,
      "ęęĘęęęęęęęęęęę": 1833,
      "ęėĖęęęę": 1834,
      "ĘęęęęęęĘęęęę": 1835,
      "ęęęĚęęĜ": 1836,
      "ęĖęĚęęĚ": 1837,
      "ęĝęęė": 1838,
      "ęĚĚěęęĘ": 1839,
      "ęĚĚĚęęĚę": 1840,
      "ęĘĚĜęęęę": 1841,
      "ęĘĚĚęęęęĘ": 1842,
      "ęĘėėęęĘ": 1843,
      "ęĚėęęęĖ": 1844,
      "ęĘěĜęęĚ": 1845,
      "ĀĀĖĀē": 1846,
      "ĀĀĖĀğ": 1847,
      "ĀĀĜĀĒ": 1848,
      "ęĖĘĚęęĚ": 1849,
      "ĀĀğĀĕ": 1850,
      "ėėęęĖ": 1851,
      "ĀĀ*Ā": 1852,
      "\"#": 1853,
      "Ďė": 1854,
      "ďĘ": 1855,
      "đĒ": 1856,
      "ĖęęęęĘĚ": 1857,
      "ėĜęęĘ": 1858,
      "ĘĚęęė": 1859,
      "ěėęęęę": 1860,
      "ěęęĒ": 1861,
      "ĜĜęęĚ": 1862,
      "ĠĀĝ": 1863,
      "ęĚęĖęęĘ": 1864,
      "ęěęĘęęęęĘ": 1865,
      "ęěęĘęęė": 1866,
      "ęęěęęęĚę": 1867,
      "Ęęęęęęęė": 1868,
      "ęĜęĘęęĚ": 1869,
      "ęĜęĘęęė": 1870,
      "ęĚęęęęĚęęęę": 1871,
      "ęĘĘĚęęęęĚ": 1872,
      "ęĘĚęęęĜ": 1873,
      "ęĘĚĖęęĚ": 1874,
      "ęĘĚĘęęĚę": 1875,
      "ęęĕęęęĘ": 1876,
      "ęęęď": 1877,
      "ęĚěĚęęě": 1878,
      "ęěĘĚęęė": 1879,
      "ęĘěěęęęę": 1880,
      "ĀĀěĀĒ": 1881,
      "ęėėĘęęė": 1882,
      "ęěėĘęęė": 1883,
      "ĀĀĝĀĝ": 1884,
      "ėĚĚęęĚ": 1885,
      "ęĜĚęęęĘ": 1886,
      "ěĘĘęęęę": 1887,
      "ęęęęĘĘĚęęęę": 1888,
      "ĀĀēĀĔ": 1889,
      "ęĖěęęęĚ": 1890,
      "ęĜėĘęęė": 1891,
      "ĀĀ!Āě": 1892,
      "ĀĀđĀĚ": 1893,
      "ęĚęęęęęęęęęęęęęęęęęęęę": 1894,
      "!Ė": 1895,
      "!ęęĘ": 1896,
      "#Ě": 1897,
      "ĎĚ": 1898,
      "ĐĔ": 1899,
      "Ęĕ": 1900,
      "ĠęęęĜ": 1901,
      "ęęęęė": 1902,
      "ęĚęĔ": 1903,
      "ęĘĘęęĚ": 1904,
      "ęĘęĜęęĚ": 1905,
      "ęęĚěęęĘ": 1906,
      "ęěęĕ": 1907,
      "ęęęęęęęęĚĘ": 1908,
      "ęęęĘęęęęęęęęęęę": 1909,
      "ęęęĚęęęęęęęęęęęę": 1910,
      "ęĖęęĖ": 1911,
      "ęĖęęĜ": 1912,
      "ęĚĘęęęęęęęęęęęę": 1913,
      "ęĚĘėęęė": 1914,
      "ęĘĚĘęęęęĘ": 1915,
      "ęĘĚĘęęęęĚ": 1916,
      "ęĘĚęęęĚęęĚ": 1917,
      "ęĘėęęęĚ": 1918,
      "ęėĘĚęęė": 1919,
      "ěĚĚęęęę": 1920,
      "ĀĀĕĀğ": 1921,
      "ęėěĘęęě": 1922,
      "ęĚĜĘęęě": 1923,
      "ėĚęęęĚ": 1924,
      "ėĘęęęĘ": 1925,
      "ěĘęęęĘ": 1926,
      "ęęęęĚĚĘęęęę": 1927,
      "ĀĀēĀĝ": 1928,
      "ęĜėęęęĘ": 1929,
      "ęĜęęęęė": 1930,
      "ęĚęĘęęĚę": 1931,
      "ĖėęęĘ": 1932,
      "ėěęęęę": 1933,
      "ěęě": 1934,
      "ěęęęĜ": 1935,
      "ěėęęě": 1936,
      "ĜĔ": 1937,
      "ĝĀĀ": 1938,
      "ĝĘęęě": 1939,
      "ęĚęĚęęęęęęęę": 1940,
      "ęĘĚęęęęĚ": 1941,
      "ęęĘėęęĚ": 1942,
      "ęęĖęęĚ": 1943,
      "ęĚĘęęęĖ": 1944,
      "ęĚĘĘęęęęĘ": 1945,
      "ęęĔę": 1946,
      "ęĚėĚęęęę": 1947,
      "ęĘěęęęĜ": 1948,
      "ęĘěėęęě": 1949,
      "ęėĘĘęęė": 1950,
      "ęėĘěęęė": 1951,
      "ęėĚĚęęĘ": 1952,
      "ėęęěę": 1953,
      "ėĚęęĕ": 1954,
      "ėĘĚęęĘ": 1955,
      "ęĖĚęęęě": 1956,
      "ęĖĚěęęĚ": 1957,
      "ĚęęĜę": 1958,
      "ęėĖęęęė": 1959,
      "ęěĖĘęęė": 1960,
      "ęĖěĚęęĚ": 1961,
      "ĀĀ!ĀĖ": 1962,
      "ĀĀĐĀĚ": 1963,
      "ĀĀ\"ĀĘ": 1964,
      "ĀĀ#ĀĘ": 1965,
      "ęĘėęęęęę": 1966,
      "ęĘęĘęęĚę": 1967,
      "ęĚęĘęęĘę": 1968,
      "ĀĀ)Ā": 1969,
      "\"ė": 1970,
      "Ēđ": 1971,
      "ĕĘęęĘ": 1972,
      "ĖĘęęė": 1973,
      "ėěęęė": 1974,
      "ĘĀĀ": 1975,
      "ĘĘęęĚ": 1976,
      "ěĜęęęę": 1977,
      "ĜĘęęęę": 1978,
      "ĜęęęęĘĚ": 1979,
      "ĠĒ": 1980,
      "ęę&": 1981,
      "ęĚ!": 1982,
      "ęĚęĚ": 1983,
      "ęęĘėęęė": 1984,
      "ęě!": 1985,
      "ęěęě": 1986,
      "ęěęĘęęě": 1987,
      "ęęėęęęĚ": 1988,
      "ęĖęĚęęęę": 1989,
      "ęĘęęęęęęęĘęęęę": 1990,
      "ęĝĒ": 1991,
      "ęĘĘĘęęęęĘ": 1992,
      "ęĚĘęęęě": 1993,
      "ęĚěėęęęę": 1994,
      "ęĚěęęęĜ": 1995,
      "ęěĚĖęęĚ": 1996,
      "ęĚėėęęė": 1997,
      "ęēęęęę": 1998,
      "ĘęęęęĘę": 1999,
      "ęěěĚęęě": 2000,
      "ĘęęęęĚę": 2001,
      "ęĜĘęęęė": 2002,
      "ęėĖěęęĘ": 2003,
      "ęěĖęęęė": 2004,
      "ĀĀĒĀĝ": 2005,
      "ĀĀđĀĖ": 2006,
      "ĕĚęęĔ": 2007,
      "ęęĘĘęęęęę": 2008,
      "ĀĀ$ĀĘ": 2009,
      "ĀĀ%ĀĜ": 2010,
      "ēęęĔ": 2011,
      "ĕęęęĘ": 2012,
      "ĕĚęęė": 2013,
      "ĖĘęęęę": 2014,
      "ĖęęęĖ": 2015,
      "Ėěęęė": 2016,
      "ĘĖ": 2017,
      "ĚĚęęĘ": 2018,
      "ĚĚęęě": 2019,
      "ě\"": 2020,
      "Ĝęęē": 2021,
      "ĜęęęęĚĘ": 2022,
      "ĝĚęęĚ": 2023,
      "ęĘęĕ": 2024,
      "ęĘęęĝ": 2025,
      "ęęĚĚęęė": 2026,
      "ęęĚėęęě": 2027,
      "ęěėęęĚ": 2028,
      "ęėĘęęęęę": 2029,
      "ęęěĚęęĜ": 2030,
      "ęęęĚęęęęĘĚ": 2031,
      "ęĜ!": 2032,
      "ęęĜęęĘ": 2033,
      "ęĘęęęęęęĚęęęęęę": 2034,
      "ęĚĚĖęęęę": 2035,
      "ęĚĚĜęęĚ": 2036,
      "ęĘĘęęęĖ": 2037,
      "ęĘĘĜęęęę": 2038,
      "ęĚĘĚęęęęĚ": 2039,
      "ęĚĘęęęĘęęĘ": 2040,
      "ęĚĘĚęęĘę": 2041,
      "ęęĕęęęė": 2042,
      "ęěĚĚęęě": 2043,
      "ęėĘėęęĘ": 2044,
      "ĚęęęęĘę": 2045,
      "ĘęęĜę": 2046,
      "ęĚĜĚęęĚ": 2047
    },
    "merges": [
      "ę ę",
      "ęę ęę",
      "ę Ě",
      "ę Ę",
      "ęę Ę",
      "ęę Ě",
      "Ā Ā",
      "ę ě",
      "ę ė",
      "ęęęę ęęęę",
      "ęę ė",
      "ęę ě",
      "Ę ęęęę",
      "Ě ęęęę",
      "ęę ęĘ",
      "ęę ęĚ",
      "ę Ĝ",
      "ę Ė",
      "ęę Ė",
      "ęę Ĝ",
      "ęĚ ęęęę",
      "ęĘ ęęęę",
      "ę ĝ",
      "ę ĕ",
      "Ę ęęĚ",
      "Ě ęęĘ",
      "Ę ęęĘ",
      "ęĚ Ě",
      "ęęęę Ę",
      "Ě ęęĚ",
      "ęĘ Ę",
      "ęęęę Ě",
      "ęĚ Ę",
      "ęĘ Ě",
      "ęę ĕ",
      "ęę ĝ",
      "ęę ęė",
      "ęę ęě",
      "ęę ę",
      "ė ęęęę",
      "ě ęęęę",
      "ęęęęęęęę ęęęę",
      "ę Ğ",
      "ęęĚ ęęęę",
      "ęęĘ ęęęę",
      "ė ęęĚ",
      "Ā Ě",
      "ęę Ĕ",
      "Ā Ę",
      "ě ęęĘ",
      "ę Ĕ",
      "ęę Ğ",
      "ĀĀ Ę",
      "ĀĀ ę",
      "ė ęęĘ",
      "ęĚ ě",
      "Ę ęęě",
      "Ě ęęė",
      "Ā ě",
      "Ā ė",
      "ě ęęĚ",
      "ęě Ě",
      "ęĘ ė",
      "Ę ęęė",
      "ęĚ ė",
      "ĀĀ Ě",
      "ęě Ę",
      "ĀĀ ė",
      "ęĘ ě",
      "ęė Ę",
      "Ě ęęě",
      "ęė Ě",
      "Ā Ė",
      "ęęęęęęęę ęęęęęęęę",
      "ę ğ",
      "ęę ęĜ",
      "Ā Ĝ",
      "ęę ē",
      "ĀĀ ě",
      "ęę ęĖ",
      "ĀĀ Ė",
      "ęę ğ",
      "ęęęĘ ęęęę",
      "ę ē",
      "ęė ė",
      "ě ęęė",
      "Ęęęęę Ę",
      "ęęęĚ ęęęę",
      "Ė ęęĚ",
      "Ā ĕ",
      "ė ęęě",
      "ęě ě",
      "ęęĘ ę",
      "ęě ęęęę",
      "Ė ęęęę",
      "Ā ĝ",
      "Ęęęęę Ě",
      "Ĝ ęęęę",
      "Ěęęęę Ě",
      "ęė ęęęę",
      "ęĘ ęęĚ",
      "Ěęęęę Ę",
      "ĀĀ Ĝ",
      "ęęęĚ ę",
      "ęě ė",
      "Ĝ ęęĘ",
      "Ė ęęĘ",
      "ęęęĘ ę",
      "ě ęęě",
      "Ĝ ęęĚ",
      "ęĚ ęęĚ",
      "ė ęęė",
      "ě Ě",
      "ĀĀ ĕ",
      "ęĚ ęęĘ",
      "ęĚ Ěęęęę",
      "Ę ęęĜ",
      "ęė ě",
      "ęĘ Ęęęęę",
      "ęĚ Ĝ",
      "Ā Ĕ",
      "ĀĀ ĝ",
      "ęę Ē",
      "ė Ě",
      "ęĚęęęę Ę",
      "ęĘ ęęĘ",
      "ė Ę",
      "ęĘęęęę Ě",
      "Ā Ğ",
      "ęĘ Ė",
      "ęĜ Ě",
      "ęĘ Ĝ",
      "ęĖ Ę",
      "ęĖ Ě",
      "ęĜ Ę",
      "ęĘęęęę Ę",
      "ĀĀ Ĕ",
      "ęĚ Ė",
      "ęĚęęęę Ě",
      "ęęęęęęęę ęęę",
      "ęęĚ ęęęĚ",
      "ęĚ Ęęęęę",
      "ě Ę",
      "Ę ęęĖ",
      "Ě ęęĖ",
      "ęĘ Ěęęęę",
      "ęęĘ ęęęĘ",
      "ę Ē",
      "ęę ęĕ",
      "ĀĀ Ğ",
      "ęě Ĝ",
      "Ė ęęě",
      "ęęĚ ę",
      "Ě ęęĜ",
      "ě ě",
      "Ā ē",
      "ęę ęĝ",
      "ęė Ė",
      "Ĝ ęęė",
      "ęęęęĘ Ę",
      "ė ęęĜ",
      "ė ě",
      "ęĜ ě",
      "ęęęęĘ Ě",
      "ęę !",
      "ĀĀ ğ",
      "ęĖ ė",
      "ĕ ęęęę",
      "Ā ğ",
      "ęęęęĚ Ě",
      "ĀĀ ē",
      "ęě Ė",
      "ęė Ĝ",
      "ĕ ęęĘ",
      "ė ė",
      "ęę đ",
      "ęęęęĚ Ę",
      "Ĝ ęęě",
      "Ė ęęė",
      "ě ęęĖ",
      "ęęęĘ ęęĚ",
      "Ĝ Ě",
      "ĕ ęęĚ",
      "ĝ ęęęę",
      "ė ęęĖ",
      "ęęęĚ ęęĚ",
      "ęĖ ě",
      "ĝ ęęĘ",
      "ęĜ ė",
      "Ė Ě",
      "ęęęĘ ęęĘ",
      "ĀĀ Ē",
      "Ė Ę",
      "ęęęĚ ęęĘ",
      "Ĝ ě",
      "ę !",
      "Ā Ē",
      "Ĝ Ę",
      "ę đ",
      "ĝ ęęĚ",
      "ęĜ Ĝ",
      "ęĘ ęĚęęęę",
      "ĚęęĘ ę",
      "ęĖ ęęęę",
      "ęĚ ĝ",
      "ĘęęĚ ę",
      "ĀĀĘ Ā",
      "ęĘ ĕ",
      "ęĕ Ě",
      "ě ęęĜ",
      "ĀĀę Ā",
      "ĀĀ !",
      "ęĚ ęĘęęęę",
      "ęĜ ęęęę",
      "ęě ęęĘ",
      "ęĝ Ě",
      "ęĚęęęę ęę",
      "ĀĀ đ",
      "Ę Ě",
      "ĕ Ě",
      "ęę \"",
      "ě ė",
      "ęęě ęęęę",
      "ĝ Ě",
      "ě Ĝ",
      "ęĕ Ę",
      "ęęęęęęęęęęęę ę",
      "ęĖ Ė",
      "ęĝ Ę",
      "ęĚ ęė",
      "ĕ Ę",
      "ęĘęęęę ęę",
      "ęęė ęęęę",
      "ęĚĘ ęęęĘ",
      "ęęĘ Ęęęęę",
      "ęĘ ĝ",
      "Ė ęęĜ",
      "ĀĀė Ā",
      "ęęę Ĕ",
      "Ė ě",
      "ĘęęĘ ę",
      "Ĝ Ĝ",
      "ęĚ ĕ",
      "ęęę Ğ",
      "Ěęęęę ę",
      "ęĘĚ ęęęĚ",
      "Ę ęęĝ",
      "Ĝ ęęĖ",
      "ĚęęĚ ę",
      "ęĘĘ ęęęĘ",
      "ęę Đ",
      "ĀĀĚ Ā",
      "Ě Ě",
      "ĝ ęęė",
      "ęě ĝ",
      "ęĚĚ ęęęĚ",
      "ĀĀ Đ",
      "ęě ęęĚ",
      "ė Ė",
      "ė Ĝ",
      "ęĘ ęęęęęęęę",
      "ĕ ęęė",
      "Ę Ę",
      "ĕ ęęě",
      "ĀĀ \"",
      "ęĘ ęĚ",
      "ęęĘęęęę ę",
      "ęĘ ęĘęęęę",
      "ĀĀě Ā",
      "ęęĚęęęę ę",
      "ęĝ ě",
      "ęė ĕ",
      "ĀĀĖ Ā",
      "Ęęęęę ę",
      "Ė ė",
      "ęęĚ Ěęęęę",
      "Ė ęęĖ",
      "ĝ ě",
      "ęęęę ęęĚ",
      "ęĚ ęĚęęęę",
      "ęęĚ ĚęęĚ",
      "ęĕ ė",
      "ęęĘ ĚęęĘ",
      "ęĜ Ė",
      "ęęĚ ĘęęĚ",
      "ęęęę ęęĘ",
      "ě Ğ",
      "ęĘ ęęė",
      "Ę ęęĕ",
      "Ě ęęĕ",
      "ęė ęęĚ",
      "ě ĝ",
      "ĀĀ ď",
      "ę \"",
      "ĀĀ #",
      "Ĕ ęęĚ",
      "Ĝ ĝ",
      "ęĚ ęęęęęęęę",
      "ė ęęĝ",
      "ęęĚ Ęęęęę",
      "ęė ęęĘ",
      "Ĕ ęęĘ",
      "ė ĝ",
      "ęęĘ ĘęęĘ",
      "ęęĘ Ěęęęę",
      "Ğ Ě",
      "ęě ĕ",
      "ęė ĝ",
      "ě ęęęęĘ",
      "ęĘ ėęęęę",
      "ęĘ ęęě",
      "Ė ĝ",
      "ęĖ Ĝ",
      "ė ęęęęĘ",
      "ęě ęęęęĘ",
      "ě ęęĕ",
      "Ě Ę",
      "Ĝ ęęĜ",
      "Ĝ Ğ",
      "ęĘĘ ĚęęĘ",
      "ĀĀ $",
      "Ěęęęę ęę",
      "ęĝ ė",
      "ęĜ ĝ",
      "Ĕ ęęęę",
      "ęĚ ęĘęęĚ",
      "ęĘ ęĚęęĚ",
      "ęĚĚ ĘęęĚ",
      "Ęęęęę ęę",
      "ęęęĘ ęęęęęęęę",
      "ė ęęĕ",
      "ęęęĚ ęęęęęęęę",
      "ęęĘ ęęęęęęęę",
      "Ĕ Ě",
      "ęę #",
      "Ġ Ě",
      "ė ęęęęĚ",
      "ĝ ĝ",
      "ęĘęęęę ęęĚ",
      "Ĕ Ę",
      "ęĕ ě",
      "Ğ ęęĘ",
      "Ę Ęęęęę",
      "ęĚęęęę ęęĚ",
      "ě Ė",
      "ęĚ ęęě",
      "ęĚęęęę ęęĘ",
      "ęĚĘ ĚęęĘ",
      "ęĘ ęĘęęĚ",
      "ĀĀ %",
      "ęĕ Ė",
      "ĀĀĘ ĀĘ",
      "ĀĀ Ď",
      "ě ęęęęĚ",
      "ęĚ Ğ",
      "ĀĀĜ Ā",
      "ęĖ ĕ",
      "ęĝ Ĝ",
      "ęęęęęęęęęęęę ęęę",
      "ęęę ē",
      "ĀĚ Ě",
      "ĕ ė",
      "ęė ęęęęĚ",
      "ęĚ ęęė",
      "Ěęęęę ęęĚ",
      "ęĚ ěęęęę",
      "ęĘĚ ĘęęĚ",
      "ĀĀĕ Ā",
      "Ė Ė",
      "ęĘĚ ĚęęĚ",
      "Ġ ĝ",
      "Ę ęęęĘ",
      "ęĚĚ Ęęęęę",
      "ęĚĘ ĘęęĘ",
      "ę Đ",
      "ęęė ęęęĘ",
      "ęĞ Ě",
      "ĕ ě",
      "ĕ ęęĖ",
      "ęĘ Ğ",
      "ęĘęęęę ęęĘ",
      "Ĝ ė",
      "ęĚ Ĕ",
      "Ę ęęęęęęęę",
      "ęę ď",
      "ĀĀ &",
      "ĕ ęęĜ",
      "ĀĚ Ę",
      "Ė Ğ",
      "ĀĀę Āė",
      "Ě Ěęęęę",
      "ęĘ ęĚęęĘ",
      "ęĖ ęęĚ",
      "ęęę ğ",
      "ĀĀę ĀĘ",
      "ĀĀĝ Ā",
      "ĕ Ĝ",
      "Ě ęęĝ",
      "ě ğ",
      "Ġ Ĝ",
      "ęĚęęęę ę",
      "ęĘęęęę ę",
      "ęĘĘ Ěęęęę",
      "ě ęęĝ",
      "ęęě ęęęĚ",
      "ĕ ĝ",
      "Ě ęęęęęęęę",
      "ęĘĚ Ěęęęę",
      "Ę Ěęęęę",
      "ęĘ Ĕ",
      "ęě ęęęęĚ",
      "Ė Ĝ",
      "ęĚ ęĘęęĘ",
      "ęě Ğ",
      "ĀĀĘ Āė",
      "ęě Ěęęęę",
      "ęė Ęęęęę",
      "ē Ě",
      "ĝ Ĝ",
      "ĝ ęęě",
      "ęęĚ ęęęęęęęę",
      "Ĕ ęęė",
      "Ė ęęĝ",
      "ęė ęęęęĘ",
      "ė Ğ",
      "ęęęęęęęęęęęęęęęę ęę",
      "ęĘĘ Ęęęęę",
      "ĀĀĔ Ā",
      "ęĞ Ę",
      "Ě Ęęęęę",
      "ęĚĚ Ěęęęę",
      "Ĕ ęęě",
      "Ě ęęęĚ",
      "ĝ Ę",
      "ęĜ ĕ",
      "ęĘĘ ĘęęĘ",
      "ęęęė ęęęę",
      "ęęęė ę",
      "Ğ ęęĚ",
      "ęĜ ęęĘ",
      "ė ęęĞ",
      "ęĝ Ė",
      "ęĕ ęęęę",
      "ĀĀĘ Āě",
      "Ĕ ě",
      "ęę $",
      "Ę ęęĞ",
      "ęęęě ęęęę",
      "Ğ ęęęę",
      "ĀĀĚ ĀĘ",
      "Ęęęęę ęęĘ",
      "ęė Ĕ",
      "ĀĀė ĀĘ",
      "ęĚ ęĘ",
      "Ė ęęĕ",
      "ę #",
      "ęĘ ęęęĘ",
      "ĀĀę Āě",
      "ęęęęęęęęęęęęęęęę ęęęęęęęę",
      "ęĚ ęĚęęĘ",
      "Ġ ğ",
      "ęęě ĘęęĚ",
      "ęĕ Ĝ",
      "ęĚĘ Ęęęęę",
      "ęĖ ĝ",
      "ĕ Ğ",
      "ęĖ ęęĘ",
      "ęęęě ę",
      "Ġ Ğ",
      "ęĔ Ę",
      "ęęė ĚęęĘ",
      "ęęęė ęęĚ",
      "ę ĀĀ",
      "ęĝ ęęęę",
      "Ĝ ğ",
      "ĀĀĞ Ā",
      "ė ğ",
      "ęĚ ęęęęęęęęęęęę",
      "ęĚ ęĚęęĚ",
      "Ęęęęę ęęĚ",
      "ęĜ ęęĚ",
      "ęĚě ęęęĚ",
      "Ĝ ęęĕ",
      "ē Ę",
      "ĕ Ė",
      "ęĚ ęęęĚ",
      "ĀĀĘ ĀĖ",
      "ęęĚęęęę ęęĚ",
      "ęĔ Ě",
      "ĀĀĘ ĀĚ",
      "ė ĘęęĘ",
      "ęĘ ęě",
      "ęĘė ęęęĘ",
      "ęĚĚ ĚęęĚ",
      "ęĘĘęęęę ę",
      "ė ęęęĘ",
      "ĀĀę ĀĚ",
      "ęĚĚęęęę ę",
      "ĀĀ '",
      "ē ęęĚ",
      "ęĘ ęęęęęęęęęęęę",
      "ě ęęęĚ",
      "ĀĀğ Ā",
      "ē ė",
      "Ĕ ĝ",
      "Ě ĝ",
      "Ġ Ę",
      "ęĚě ĘęęĚ",
      "ęĘ ęĘęęĘ",
      "ē ęęĘ",
      "Ĕ ė",
      "ęĘ ěęęęę",
      "ęė ęęě",
      "ĀĀė Āė",
      "ęĘě ęęęĚ",
      "ęę Ď",
      "Ġ ě",
      "ğ Ě",
      "ęė Ğ",
      "ĀĀĚ Āė",
      "ęė Ěęęęę",
      "ĀĀę ĀĖ",
      "ęĝ ĝ",
      "ęęęě ęęĘ",
      "ęęĚęęęę ęęĘ",
      "ĀĀė Āě",
      "ęě Ĕ",
      "ęĖ Ĕ",
      "ęęęě ęęĚ",
      "ĀĀĚ Āě",
      "ęě Ęęęęę",
      "ęęĘęęęę ęęĚ",
      "ĀĀė ĀĚ",
      "Ę ĚęęĘ",
      "ęĘĘ ěęęĘ",
      "ęĞ ě",
      "ęęĘęęęę ęęĘ",
      "ĕ ęęĝ",
      "ęĚ ėęęęę",
      "ęĞ Ĝ",
      "ğ Ğ",
      "Ěęęęę ęęĘ",
      "ĘęęęęĘ Ě",
      "ė Ęęęęę",
      "ęęęė ęęĘ",
      "ęęĘęęęę ęę",
      "ĀĀĖ ĀĚ",
      "Ė ęęęęĘ",
      "Ę ĝ",
      "ęęě ĚęęĚ",
      "ęĘĚ Ęęęęę",
      "ęęęęęęęę ęęęęęęęęęęęę",
      "ĀĀĚ ĀĖ",
      "ĕ ęęĕ",
      "Ğ Ğ",
      "ęĘė ĚęęĘ",
      "ĀĀĚ ĀĚ",
      "Ĕ Ė",
      "Ě ě",
      "Ę ĘęęĘ",
      "ęĚ ğ",
      "ęĜ Ğ",
      "ęĘĚęęęę ę",
      "Ĕ ęęĖ",
      "ė ĚęęĘ",
      "Ė ęęĞ",
      "ĀĀ (",
      "ęęė ĘęęĘ",
      "ęęęęęęęęęęęęęęęę ęęę",
      "ęęĚęęęę ęę",
      "ě Ěęęęę",
      "ęĚė ęęęĘ",
      "Ġ ė",
      "ęĘ ęĘ",
      "ęě ęęė",
      "ĕ ğ",
      "ě ĘęęĚ",
      "ęğ Ě",
      "Ĝ ęęĝ",
      "Ĕ Ğ",
      "Ę Ğ",
      "Ę ęęĔ",
      "ę ď",
      "ęĝ Ğ",
      "ĀĀē Ā",
      "ęė ęĚęęĚ",
      "ęęĚ ęęĘ",
      "ęĘĘ ęęęĚ",
      "Ĕ ęęĜ",
      "Ě ğ",
      "ęĘ ęěęęęę",
      "ē ęęęę",
      "ē ęęė",
      "ęě ğ",
      "ĀĀę Āĕ",
      "ĀĀě ĀĘ",
      "ęěĚ ęęęĚ",
      "Ĕ Ĝ",
      "ęĚĚ ėęęĚ",
      "ĚęęęęĘ Ě",
      "ĕ ĕ",
      "Ė ğ",
      "ė ęęĔ",
      "ĝ ęęĜ",
      "ęęĚ ęęęĘ",
      "ęęęĘ ęęė",
      "ęęę Ē",
      "ĀĀė ĀĖ",
      "Ě Ğ",
      "ęĘ ĚęęĘ",
      "ęĚĚ ęęęě",
      "ęĚĚ ęęęĘ",
      "ĀĀĚ ĀĜ",
      "ē ě",
      "ē ĝ",
      "ėęęĘ ę",
      "ęęęęęęęę Ě",
      "ęĕ ĕ",
      "ęĔ ė",
      "ĀĀę ĀĜ",
      "ĚęęęęĚ Ě",
      "Ĝ ęęęęĚ",
      "ęě ęĘęęęę",
      "ęĝ ĕ",
      "ěęęĚ ę",
      "Ě ęęĔ",
      "ęĚ ęĘęęęęĘ",
      "ęęęęęęęę Ę",
      "ęĚĘ Ěęęęę",
      "ęĞ ė",
      "ĀĀĖ ĀĘ",
      "ęĚ ĘęęĚ",
      "ęĚė ĚęęĘ",
      "ęĘ ğ",
      "ėęęĚ ę",
      "ęěĘ ęęęĘ",
      "ĀĀĖ Āė",
      "ĚęęęęĘ Ę",
      "ě Ęęęęę",
      "ĀĀě ĀĖ",
      "Ė ęęęęĚ",
      "ĀĀ )",
      "ęĚĘęęęę ę",
      "Ġ Ā",
      "ęę %",
      "ęĚ ęęĘę",
      "ęęĚ ęęĚ",
      "ęěĘ ĘęęĘ",
      "ĀĀě Āė",
      "! ğ",
      "ĀĀ *",
      "ęėĚ ęęęĚ",
      "ě ĕ",
      "ęě ęęě",
      "ęĔ Ė",
      "ęĚě ĚęęĚ",
      "ĘęęęęĘ Ę",
      "ĝ ğ",
      "ĝ ęęĖ",
      "Ġ ęęęę",
      "ęĚ ęėęęęę",
      "ęęĚ ęęęě",
      "ĀĀĒ Ā",
      "Ĝ ęęęęĘ",
      "Ğ Ę",
      "ęė ęęė",
      "ęĚĘ ęęęė",
      "ęĘĘ ęęęė",
      "ĚęęęęĚ Ę",
      "! Ğ",
      "ė ĕ",
      "ęęĘ ęęĘ",
      "ē Ė",
      "ě ęęĔ",
      "ęęĘ ęęęė",
      "ęė ęĚęęęę",
      "ęĖ Ğ",
      "ĀĀĘ Āĕ",
      "ęĚė ĘęęĘ",
      "ęėĘ ęęęĘ",
      "ęė ėęęęę",
      "ęĜ Ĕ",
      "ęęęęęęęęęęęęęęęę ęęęęęęęęęęęęęęęę",
      "Ĝ Ė",
      "ęęĚ ęęęĚę",
      "ęęęĘ ęęě",
      "ęĔ ě",
      "ĀĀĘ ĀĜ",
      "ĘęęęęĚ Ę",
      "ęě ęĘęęĚ",
      "ęėĚ ĚęęĚ",
      "ĀĀĖ Āě",
      "ĘęęęęĚ Ě",
      "ē Ğ",
      "Ė ĕ",
      "ęĚ ęĘęęęęĚ",
      "ęęęęęęęę ęĘ",
      "ęĚęęęę ė",
      "! Ě",
      "Ē Ę",
      "ē ęęě",
      "ęęĚ ėęęĚ",
      "ĀĀě Āě",
      "đ Ę",
      "ęěĚ ĘęęĚ",
      "ęĘė ĘęęĘ",
      "ęĘě ĘęęĚ",
      "ęě ęĘęęĘ",
      "ęĞ Ė",
      "ěęęĘ ę",
      "ęėĘ ĚęęĘ",
      "ęĚęęęęĘ ę",
      "ęĘęęęę ě",
      "ęĕ ĝ",
      "ęĚĚ ĘęęĘ",
      "ęĘĚ ęęęě",
      "ė Ěęęęę",
      "ė ęęğ",
      "ęęĘ ęęęĚ",
      "ęęĘ ęęęĘę",
      "ęĞ ĝ",
      "ě ęęĞ",
      "Ġ !",
      "Ġ Ė",
      "ĀĀě ĀĚ",
      "ęęęĘęęęę ę",
      "ĀĀĜ Āė",
      "Ē ė",
      "ęĚ ęęĜ",
      "ęĘ ęĚęęęęĘ",
      "ęě ěęęęę",
      "ęěĚ Ęęęęę",
      "ĀĀĜ ĀĘ",
      "Ē Ě",
      "Ę ğ",
      "ę $",
      "Ğ ęęė",
      "ęęĚ Ęęęě",
      "ĀĀĖ ĀĖ",
      "! Ĝ",
      "đ Ě",
      "ęĘ ęĚęęęęĚ",
      "ęě ęĚęęĘ",
      "ęĔ Ĝ",
      "ĀĀĚ Āĕ",
      "ĀĀė Āĝ",
      "ęėĘ Ěęęęę",
      "ęğ ě",
      "ĝ Ğ",
      "ęĘ ē",
      "ęęĘ ěęęĘ",
      "ĀĀ +",
      "ęęęęęęęę ęĚ",
      "ęĚęęęę ě",
      "ęęę !",
      "Ěęęė ę",
      "Ęęęė ę",
      "ęğ Ĝ",
      "ęęě ęęęě",
      "ęęęĚ ęęė",
      "ęęĖ ęęęę",
      "ęĚĘ ęęęĘę",
      "ĀĀĘ Āĝ",
      "ĀĀė Āĕ",
      "Ěęęě ę",
      "đ ė",
      "ē Ĝ",
      "Ġ ĕ",
      "ęĘ ęęĖ",
      "ęė ęĚęęĘ",
      "ęĜ ğ",
      "ęĘęęęę ė",
      "ęĕ ęęĚ",
      "ęĞ ęęęę",
      "ęĘęęęęĚ ę",
      "! ĝ",
      "Ĕ ğ",
      "ęĚ ē",
      "ęęęĚ ęęęęĘ",
      "ęęĜ ęęęę",
      "ęĚĚ ęęĚ",
      "ĀĀė ĀĜ",
      "ęĘě ĚęęĚ",
      "! ě",
      "Ę ęęğ",
      "ě ĚęęĚ",
      "Ğ ğ",
      "ęĘ ęěęęĘ",
      "ęęė ęęęė",
      "ęĘĘ ęęęĘę",
      "ĀĀĔ ĀĘ",
      "ęĚęęęęĚ ę",
      "ĀĀ! Ā",
      "Ė ęęĔ",
      "ęė ğ",
      "ęĜ ęęęęĘ",
      "ęĚĘ ėęęĘ",
      "ĀĀđ Ā",
      "ęęęęęęęę ęęęĘ",
      "ęĘĚ ęęęĚę",
      "ĀĀĕ Āě",
      "Ĕ ęęĝ",
      "Ġ ęęĘ",
      "ęęęĘ ęęęęĘ",
      "ęĜ ęęė",
      "ęĚĚ ęęęĚę",
      "ęğ Ę",
      "ĀĀĕ ĀĘ",
      "ĀĀĐ Ā",
      "Ĕ ĕ",
      "ęęęĚ ęęě",
      "ĀĀĘ ĀĔ",
      "Ē ě",
      "ė ęęęęĘĘ",
      "Ġ ĀĀ",
      "ęęęĚ ęęęęĚ",
      "ęĖ ęęęęĚ",
      "ęĚęė ęęĘ",
      "ęĘ ĘęęĘ",
      "ĀĀę Āĝ",
      "ĀĀĕ ĀĚ",
      "ęĝ ęęĘ",
      "ęĘĚ ęęęĘ",
      "ęėĚ ĘęęĚ",
      "ęęęĚęęęę ę",
      "ęĘęęęęĘ ę",
      "đ Ė",
      "ė ęę",
      "Ě ĚęęĚ",
      "ęė ē",
      "ęęě Ęęęě",
      "ęĚĚ Ęęęě",
      "ęĘĚ ěęęĚ",
      "ęęę đ",
      "ĀĀĜ Āě",
      "ĀĀĝ ĀĘ",
      "\" Ě",
      "Ġ ęęĚ",
      "ęĖ ğ",
      "ęĘĚ ėęęĚ",
      "ęěĘ ĚęęĘ",
      "ęėė ęęęĘ",
      "ė ęęęęĚĚ",
      "Ę ě",
      "Ĝ ĕ",
      "ęĚ ęęĖ",
      "ęĚĚ ėęęęę",
      "ĀĀĖ ĀĜ",
      "ĀĀ\" Ā",
      "ĝ Ė",
      "ęęĚ ěęęĚ",
      "ęĘĘ ĘęęĚ",
      "Ē ĕ",
      "Ē ęęĘ",
      "Ĕ ęęĕ",
      "ęęęĘ ęęęęĚ",
      "ęĔ ĕ",
      "ĀĀę ĀĔ",
      "Ĝ ęęĔ",
      "ęĚė ęęęė",
      "Ē Ė",
      "ęĚĘ ęęęĚ",
      "\" Ğ",
      "ęęĘ Ěęęė",
      "ęĖ ęęě",
      "ęĚĘ ěęęĘ",
      "ė ěęęĘ",
      "Ę ęę",
      "Ě ĘęęĚ",
      "ęĚ ęĚęęęęĘ",
      "ęĘ ęėęęęę",
      "ęĖ ęęęęĘ",
      "ęĝ ğ",
      "ĀĀĚ Āĝ",
      "ęěĘ Ęęęęę",
      "Ĕ ę",
      "ğ ęęĘ",
      "ęĘ ęĘęęęęĘ",
      "ęęĘ ėęęĘ",
      "ęęęęęęęę ęęęĚ",
      "ęĚě ęęęě",
      "ęē Ę",
      "đ ĕ",
      "Ē Ğ",
      "ě ěęęĚ",
      "ęĘ ęęĘę",
      "ęė ęĘęęęę",
      "ęęė Ęęęęę",
      "ęĜ ęęęęĚ",
      "ęĚĘ Ęęęė",
      "ĀĀě ĀĜ",
      "ĀĀ# Ā",
      "Ě Ĝ",
      "ęĚ ęěęęęę",
      "ęĘ ęęĜ",
      "ęĘ ęęęęęęęęęęę",
      "ęęĘ ęęęęęęęęęęęę",
      "ęęė Ěęęė",
      "ęęě ę",
      "ęē Ě",
      "ĀĀĜ ĀĖ",
      "ęĚęė ęęĚ",
      "ęĖ ęęė",
      "ęĝ ęęĚ",
      "ęęĘęęęę ęęĘęęęę",
      "ĀĀě Āĕ",
      "ĀĀĕ ĀĖ",
      "Ė ęęęĘ",
      "ė ėęęĘ",
      "ęęĜ ęęęĚ",
      "ęĚĘ ėęęęę",
      "ĀĀĚ ĀĔ",
      "ĀĀě Āĝ",
      "ĀĀĜ ĀĚ",
      "ěĚ ęęĜ",
      "ĀĀĝ Āě",
      "ĀĀĝ Āė",
      "ē ğ",
      "ęĚ ęęęęęęęęęęęęę",
      "ęĘ ęěęęĚ",
      "ęęĘ ėęęęę",
      "ęĘęęęę ęęęĘ",
      "ęĕ Ğ",
      "ęĚĘ Ěęęė",
      "ęěĚ ĚęęĚ",
      "ęē ė",
      "ęęęĚęęęę ęęĘ",
      "Ē ęęęę",
      "Ē ęęĚ",
      "ęĘ ę",
      "ęĘ ęęęęęęęęęęęęę",
      "ęęĚ ĚęęĘ",
      "ęęĚ ĘęęĘ",
      "ęė ęĘęęĚ",
      "ęĘė ęęęė",
      "ęěě ęęęĚ",
      "ė ėęęęę",
      "Ę ęęęęęęęęęęę",
      "Ĝ ĘęęĚ",
      "Ğ ě",
      "ęęęęęęęę ęęĚ",
      "ęęė ěęęĘ",
      "ęĘĚ Ęęęě",
      "ĀĀė ĀĞ",
      "ęęęĜ ęęęę",
      "ĀĀĖ Āĕ",
      "ē ęęĜ",
      "ė ęęęęĘĚ",
      "Ĝ ĀĀ",
      "ęĚ ę",
      "ęĜ ęęě",
      "ęĜ Ěęęęę",
      "ęĘęęęę ęęĚęęęę",
      "ęĘĘ Ěęęė",
      "ėĚ ęęĖ",
      "\" ğ",
      "Ę Ĝ",
      "Ĝ ęęęĚ",
      "ęĚ ęĚęęęęĚ",
      "ęęęęęęęę Ęęęęę",
      "ęęęęęęęę Ěęęęę",
      "ęęě ėęęĚ",
      "ĀĀĘ ĀĞ",
      "ęěĚ ęęęĘ",
      "ęěě ĘęęĚ",
      "ęĚĜ ęęęĚ",
      "ĀĀĔ ĀĚ",
      "ē ęęĖ",
      "ĕ ęęęęĚ",
      "Ě ęęęęęęęęęęę",
      "ęĘ ęėęęĚ",
      "ęęĘ ĘęęĚ",
      "ęęė ę",
      "ĀĀĘ Āē",
      "ĀĀĕ Āė",
      "ęęĚ ėęęęę",
      "ęĕ Ĕ",
      "ęĘĘ ĚęęĚ",
      "ęĚě ėęęĚ",
      "ęėĘ ęęęĚ",
      "ęěė ĘęęĘ",
      "! ĀĀ",
      "ę Ď",
      "ě ęęęęĘĚ",
      "ĝ ęęĝ",
      "ęĘ ęĘęęęęĚ",
      "ęęęęęęęę ęęĘ",
      "ęĝ Ĕ",
      "ęĚĚ ĚęęĘ",
      "ęĘĘ ěęęęę",
      "ęĚĘ ĘęęĚ",
      "ęĞ Ğ",
      "ęęĘęęęę ęęĚęęęę",
      "ęėĚ Ěęęęę",
      "ęęęĖ ęęęę",
      "ėĘ ęęĖ",
      "ĀĀĞ ĀĘ",
      "Ē Ĝ",
      "Ě ęęĞ",
      "ě ěęęęę",
      "ĝ ęęĕ",
      "ğ ęęęę",
      "ęęĘ ěęęęę",
      "ęĘęęęę ęęě",
      "ęĘęęęę ęęęĚ",
      "ęĘĚ Ěęęě",
      "Đ Ě",
      "đ Ĝ",
      "ĕ ęęĞ",
      "Ğ ęęě",
      "Ġ ęęě",
      "ęĘ Ē",
      "Ęęęęę ė",
      "ęĚęęęę ęęęĚ",
      "ęĘĘ Ęęęė",
      "ęĘė ěęęĘ",
      "ĀĀě ĀĔ",
      "ęęęĘęęęę ęęĘ",
      "ęėė ĚęęĘ",
      "ęėě ęęęĚ",
      "ęĘĖ ĚęęĘ",
      "ĀĀē ĀĘ",
      "Ĕ ęęĔ",
      "Ė ĘęęĘ",
      "ė ęęęęĚĘ",
      "ğ ęęĚ",
      "ęĚ ęě",
      "ęęĚ ěęęęę",
      "ĀĀ ,",
      "ęĕ ęęĘ",
      "ęĔ ĝ",
      "ĀĀę Āē",
      "ęĘęĚ ęęě",
      "ĀĀď Ā",
      "ęęęęęęęęęęęęęęęęęęęęęęęę ę",
      "Ĝ ęęĞ",
      "ęė ĘęęĘ",
      "ęĘě ęęęě",
      "ęęęĘęęęę ęęĚ",
      "ē ĕ",
      "Ė ęęğ",
      "ě ėęęĚ",
      "ě ęęęęĚĘ",
      "Ġ \"",
      "ęĚ ęęęęęęęęęęę",
      "ęě ęĚęęęę",
      "ęęė ęęĚ",
      "ęęĖ ęęęĘ",
      "ęĘė Ěęęė",
      "ė ęęē",
      "ęęĘ Ęęęė",
      "ęĚęęęę ęęęĘ",
      "ęĔ ęęęę",
      "ęĚě Ęęęě",
      "ĀĀĚ ĀĞ",
      "ĀĀ$ Ā",
      "! Ę",
      "ęě ē",
      "Ěęęęę ė",
      "ęĜ ęĘęęĘ",
      "ęĖ ē",
      "ęĞ ĕ",
      "ęĞ ğ",
      "ęėĘ ĘęęĘ",
      "ĀĀě Āē",
      "Ę ęęęęęęęęęęęę",
      "Ę ęęē",
      "ęĚ ęęęĚę",
      "ęĚĚ Ěęęě",
      "ęěė ęęęĘ",
      "ĀĀĝ ĀĚ",
      "Ġ #",
      "ęęĚ Ěęęě",
      "ęė ęě",
      "ęęě Ěęęęę",
      "ęĕ ğ",
      "ęĘĚ ĘęęĘ",
      "Ē ĝ",
      "Ē ęęė",
      "Ĕ ęę",
      "ĕ ęęęęĘ",
      "ė ęęęė",
      "Ġ ęęė",
      "ęĖ Ęęęęę",
      "ęĘě Ěęęě",
      "ęėĘ ĚęęĚ",
      "ĀĀĖ Āĝ",
      "ęěęęęę ě",
      "ĀĀĜ Āĕ",
      "ĀĀĝ ĀĖ",
      "ĕ ęę",
      "ě ęęęęĘĘ",
      "ĝ ė",
      "Ğ Ĝ",
      "ęĚ ęĘęęė",
      "ęęęęęęęę ęęęęĚ",
      "ęĘĘ ėęęęę",
      "ęĘĘ ėęęĘ",
      "ęĘĚ ěęęęę",
      "ĀĀę ĀĞ",
      "Ęęęě ę",
      "ęěĚ ĘęęĘ",
      "ęĚė ėęęĘ",
      "ęĘě ěęęĚ",
      "ęĘęęĚ ę",
      "ęĚĜ ĘęęĚ",
      "ĀĀĝ Āĕ",
      "ĀĀĔ Āė",
      "Ė ē",
      "ě ęęęęĚĚ",
      "ęĘ ęė",
      "ęė ęěęęĘ",
      "ęĚęęęę ęęĚęęęę",
      "ęĚĘ ĚęęĚ",
      "ėęęęę ė",
      "ęěĘ ėęęĘ",
      "ĜęęĚ ę",
      "ĀĀĔ ĀĜ",
      "ĀĀĞ Āė",
      "đ ğ",
      "Ġ ę",
      "ęĘ ęęęĘę",
      "ęě ęĚęęĚ",
      "ĀĀĜ Āĝ",
      "ĀĀĕ ĀĜ",
      "Đ ĕ",
      "Đ ě",
      "Ė ĚęęĘ",
      "ęĘ ęĘęęě",
      "ęě Ē",
      "ęě ęėęęĘ",
      "ęĜ ē",
      "ęĘĚ ĚęęĘ",
      "ęěĚ Ěęęęę",
      "ęěĘ ęęęė",
      "ęěě ęęęě",
      "đ Ĕ",
      "đ ęęė",
      "Ē ęęě",
      "ęě ęė",
      "ęě ėęęęę",
      "ęęęęęęęę ęęęęĘ",
      "ęęę Đ",
      "ęğ ĝ",
      "ęĘĖ ęęęĘ",
      "Ē ğ",
      "Ė ęę",
      "Ě ęęęęęęęęęęęę",
      "ęė ĚęęĘ",
      "ęęĜ ęęęě",
      "ęĚĚ ěęęęę",
      "ęĚě Ęęęęę",
      "ęěĚ ėęęĚ",
      "ęĘė Ěęęęę",
      "ęěĘ Ęęęė",
      "ęęęĚęęęę ęę",
      "ĀĀĜ ĀĜ",
      "ĀĀĝ ĀĜ",
      "\" ĝ",
      "Ē ē",
      "ě ęęğ",
      "Ğ ęęĖ",
      "ęęĘ ĚęęĚ",
      "ęě ęęęĚ",
      "ęė ęĘęęĘ",
      "ęęė Ęęęė",
      "Ěęęęę ě",
      "ęęĖ ĘęęĘ",
      "ęĚęęęę ęęĘęęęę",
      "ęĚĚ ĖęęĚ",
      "ęęĚęęęę ęęĚęęęę",
      "ęĔ Ĕ",
      "ęęęĖ ęęĚ",
      "ęē Ė",
      "ĀĀĞ ĀĚ",
      "ĀĀ% Ā",
      "ęęęę ę",
      "ęęĚ ęęęęęęęęęęęę",
      "ęě ĘęęĚ",
      "ęě ęėęęęę",
      "ęė ěęęęę",
      "ęęę \"",
      "ĀĀę Āğ",
      "Đ Ę",
      "đ ě",
      "ē Ĕ",
      "Ě ĕ",
      "ě Ęęęě",
      "Ĝ ęęğ",
      "ęĚ ęĚęęė",
      "ĀĀ -",
      "ĀĀ /",
      "ęė ęęęĘ",
      "ęė ęěęęĚ",
      "ęęě ęęĘ",
      "ęĚė Ěęęė",
      "ĀĀĚ Āē",
      "ęėĘ Ęęęęę",
      "ęėĚ ęęęě",
      "ęęęĘęęęę ęę",
      "ęėė ęęęė",
      "ĀĀĕ Āĝ",
      "ĀĀē ĀĚ",
      "ęĘęĚ ęęė",
      "Đ ė",
      "Ė ę",
      "ęęě ěęęĚ",
      "ęĘęęęę ęęė",
      "ęĚĚ ĘęęęęĘ",
      "ěęęęę ė",
      "ĀĀĖ ĀĔ",
      "ęěě ĚęęĚ",
      "ėęęė ę",
      "ĀĀĕ Āĕ",
      "ėě ęęĖ",
      "ė ĖęęĘ",
      "ě ęęęě",
      "Ğ ĝ",
      "Ġ ęęĜ",
      "ęĚ ęĘęęě",
      "ęĘęęęę ęęĘęęęę",
      "ęěĚ ėęęęę",
      "ĀĀė ĀĔ",
      "ęğ ė",
      "ęęęĜ ęęĚ",
      "ęęęĚęęęę ęęĚ",
      "ĀĀĔ Āě",
      "ęĚĖ ęęęĘ",
      "ĀĀĞ ĀĖ",
      "ĀĀ& Ā",
      "ē ęęĕ",
      "Ĕ Ĕ",
      "Ė ęęĘę",
      "Ě ė",
      "ęęĖ ĚęęĘ",
      "ęěĚ Ęęęě",
      "ęĘě Ęęęě",
      "ĀĀĜ ĀĔ",
      "ĀĀĞ ĀĜ",
      "ĀĀğ ĀĘ",
      "ĕĘ ęęĕ",
      "Ę ęęęĘę",
      "ě ęęē",
      "Ĝ ĚęęĚ",
      "Ġ Ĕ",
      "ęĚ ęęĝ",
      "ĀĀ .",
      "ęęęęęęęę ĘĚ",
      "ęęęĘ ęęĘę",
      "ęĚĚ ěęęĚ",
      "ęęęė ęęě",
      "ęęęęęęęęęęęęęęęę ęęęęęęęęęęę",
      "ęęęĜ ęęĘ",
      "ęėė ĘęęĘ",
      "ęěęęęę ė",
      "ęėě ĚęęĚ",
      "ęĘĜ Ęęęě",
      "ęĜĘ ęęęĘ",
      "ęĜĘ ĘęęĘ",
      "ĀĀĞ Āě",
      "ĀĀĎ Ā",
      "! !",
      "Ē ęęĖ",
      "Ě ęęğ",
      "Ě ęęęĚę",
      "ğ ĝ",
      "ęęęę ęęė",
      "ęĚ Ĝęęęę",
      "ęęė Ěęęęę",
      "ęęė ėęęĘ",
      "ęęě Ęęęęę",
      "ęĔ Ğ",
      "ĀĀė Āē",
      "ęğ ğ",
      "ęē ĕ",
      "ĚęęęęĘ Ęęęęę",
      "ęĘĜ ęęęě",
      "ęĒ Ę",
      "ęęęęęęęęęęęęęęęęęęęę ęę",
      "Ě ęęē",
      "Ġ ĀĘ",
      "ęĘ Ėęęęę",
      "ęĘ ęĜęęęę",
      "ęęęĘ ęęĚę",
      "ęĚĚ ĘęęęęĚ",
      "ęęęęĘ ęĚęęęę",
      "ęĘĚ ěęęĘ",
      "ęĞ Ĕ",
      "ęęĚęęęę ęęĘęęęę",
      "ęĚė Ęęęė",
      "ęėĚ ęęęĘ",
      "ĀĀě ĀĞ",
      "ĀĀĖ ĀĞ",
      "ęěęęęę ęęĘ",
      "ęěė ĚęęĘ",
      "ĀĀē Āė",
      "ęęęęĚĘ Ęęęęę",
      "ĕĚ ęęĕ",
      "Ė Đ",
      "ė Ęęęė",
      "ĝ ęęęęĘ",
      "ęĚ ęĚęęě",
      "ĀĀ ć",
      "ęė Ē",
      "ęĜ ěęęęę",
      "ęĖ ėęęęę",
      "ęĚĚ ęęęęęęęęęęęę",
      "ęĚĚ ĘęęĚę",
      "ęĔ ęęĚ",
      "ęěĚ ęęęě",
      "ęĚė Ęęęęę",
      "ęėĘ ěęęĘ",
      "ęėęęęę ě",
      "ęėęęęę ęęĘ",
      "ĀĀĜ ĀĞ",
      "ěęęě ę",
      "ęĘĜ ęęęĚ",
      "ęĖĚ ęęęĚ",
      "ęęĘęęęĘ ęęęęęęęę",
      "đ ĝ",
      "Ę ė",
      "ě Ĕ",
      "ě ęę",
      "ĝ ęęęęĚ",
      "ęęė ęęĘ",
      "ęĜ Ęęęęę",
      "ęęĖ ęęęė",
      "ęęĜ ĘęęĚ",
      "ęĘĚ ėęęęę",
      "ĀĀė ĀĒ",
      "ęĘě ėęęĚ",
      "ęėĚ Ęęęęę",
      "ęē ě",
      "ęėė Ěęęęę",
      "ęėė ěęęĘ",
      "ĀĀ' Ā",
      "ĕ Ĕ",
      "Ė Ĕ",
      "ę %",
      "Ě ęę",
      "Ĝ ęęĘę",
      "ğ ğ",
      "ęĚ ęĖęęęę",
      "ęĚ ęěęęĘ",
      "ęě ęėęęĚ",
      "ęĚě Ěęęęę",
      "ęğ Ğ",
      "ęěě ėęęĚ",
      "ęėě ĘęęĚ",
      "! \"",
      "# Ğ",
      "ęĚ ęĖ",
      "ęĚ Ėęęęę",
      "ęĕ ē",
      "ęĚĘ ěęęęę",
      "Āě Ě",
      "ęěĘ Ěęęęę",
      "ęėĚ ěęęęę",
      "ęē Ĝ",
      "ęėęęęę ęęĚ",
      "ęĚĜ ęęęě",
      "ĀĀ! ĀĘ",
      "đ ē",
      "Ę ęęęĚ",
      "Ě ęęęě",
      "ğ ęęė",
      "ęęęę ęęě",
      "ęĚ Ē",
      "ęĘ ęĘęęė",
      "ęĘ ęėęęĘ",
      "ęęĘ ęęĚ",
      "ęęĚ ĘęęęęĘ",
      "ĀĀ ą",
      "ĀĀ Ĉ",
      "ęęě Ěęęě",
      "ęĜ ęĘęęęę",
      "ėęęęę ě",
      "ęĚě ěęęĚ",
      "ęěĚ ĚęęĘ",
      "ĀĀė Āğ",
      "ęėĚ ěęęĚ",
      "ĚęęęęĚ Ěęęęę",
      "ęĚęęĚ ę",
      "ęĘĖ ęęęė",
      "ęĚĖ ĘęęĘ",
      "ĀĀğ ĀĚ",
      "# ğ",
      "ĕ ęęĔ",
      "Ė Ē",
      "ě Ěęęě",
      "ě ĖęęĚ",
      "Ĝ ęę",
      "ęęĚ ĖęęĚ",
      "ęęęĚ ęęĚę",
      "ęĖ Ěęęęę",
      "ęęĜ ĚęęĚ",
      "ęęęęĘ Ęęęęę",
      "ęĘĘ ęęęęęęęęęęęę",
      "ęĚĘ ĘęęęęĚ",
      "ęĔ ğ",
      "ęĘė ěęęė",
      "ęĚė ěęęĘ",
      "ęěĘ ĘęęĚ",
      "ęğ Ė",
      "ęęęĖ ę",
      "ęĖĚ ĚęęĚ",
      "ĀĀĔ Āĝ",
      "ęęęęĘĚ Ěęęęę",
      "ĞĚ ęęĝ",
      "! ė",
      "Đ Ė",
      "Đ Ğ",
      "đ Ğ",
      "đ ęęĘ",
      "Ē Ē",
      "Ė ęęęęĘĘ",
      "ě ęĘęęęę",
      "Ġ Āė",
      "ęĚ ėęęĚ",
      "ęĘ ěęęĘ",
      "ęě ĚęęĚ",
      "Ęęęęę ęęĚęęęę",
      "ęĚęęęę ĘęęĘ",
      "ęęęęĚ ęĘęęęę",
      "ęĚĘ ĘęęĘę",
      "ĀĀĘ Āğ",
      "ęěĘ ėęęęę",
      "ęĘě Ěęęęę",
      "ęėĚ Ěęęě",
      "ęğ ęęęę",
      "ęē ĝ",
      "ęėė Ěęęė",
      "ęěęęęę ęę",
      "ęěė ėęęĘ",
      "ęęĚęęęĚ ęęęęęęęę",
      "ęėĖ ęęęĘ",
      "ĀĀē ĀĜ",
      "Đ ğ",
      "Ę ěęęĘ",
      "ę &",
      "Ĝ ěęęĚ",
      "ęĚ ęěęęĚ",
      "ęęĘ ĘęęĘę",
      "ęęĚ ĘęęĚę",
      "ęė ęěęęęę",
      "ęęęĚ ęęĘę",
      "ęęĖ Ěęęė",
      "ęĘĘ ĜęęĘ",
      "ęęęęĚ Ěęęęę",
      "ĀĀĝ ĀĔ",
      "ĀĀĝ Āē",
      "ęĘĖ ĘęęĘ",
      "ęĜĚ ĘęęĚ",
      "ĀĀĔ ĀĖ",
      "ęěĜ ĘęęĚ",
      "ĀĀğ Āě",
      "\" !",
      "đ ęęęę",
      "đ ęęĖ",
      "ē ę",
      "Ė ěęęĘ",
      "ė ęĚęęęę",
      "Ě ęęęĘ",
      "Ġ Āě",
      "ęė ęęĜ",
      "ęĚęęęę ęęė",
      "ęĚĚ ėęęě",
      "ěĚ ęęĝ",
      "ęĖĘ ęęęĘ",
      "ĀĀğ Āė",
      "ĀĀğ ĀĖ",
      "ĀĀĒ ĀĖ",
      "ęęęęęęęęęęęęęęęęęęęęęęęę ęę",
      "\" Ĝ",
      "# !",
      "Ė ęęęė",
      "Ę ėęęĘ",
      "ęĚ ęęĕ",
      "ęĘĘ ěęęĚ",
      "ęĘĘ ĚęęĘę",
      "ęęęęĚ ę",
      "ęĚĘ ĜęęĘ",
      "ęęęĜ ę",
      "ęěě Ęęęęę",
      "ęěě Ęęęě",
      "ęėě Ěęęě",
      "ęĒ Ě",
      "ĀĀğ ĀĜ",
      "ĀĀĒ ĀĘ",
      "ĀĀĒ Āě",
      "\" ě",
      "ē Ē",
      "Ę ėęęęę",
      "Ę ęęĒ",
      "Ğ ęęĜ",
      "ęĚ ęĕ",
      "ęęĘ ĘęęęęĘ",
      "ęęě ėęęě",
      "ęęĜ Ěęęě",
      "ęęę #",
      "ęĚė ĖęęĘ",
      "ĀĀĚ Āğ",
      "ĀĀĜ Āē",
      "ěĚ Ęęęęę",
      "ěĚ ĘęęĚ",
      "ĀĀĔ Āĕ",
      "Ĝě ęęĜ",
      "Đ Ĝ",
      "đ ęęĚ",
      "Ĕ ęęĞ",
      "Ě ėęęĚ",
      "Ĝ ęęęě",
      "Ĝ Ęęęě",
      "ęęě ĖęęĚ",
      "ęęĜ ėęęĚ",
      "ęęĜ Ęęęě",
      "ęĘĘ ėęęĚ",
      "ęĚĘ ěęęė",
      "ęĘĚ ĚęęęęĚ",
      "ęęęęęęęęęęęę ęĘęęęę",
      "ĀĀę ĀĒ",
      "ęğ ĕ",
      "ęėęęęę ė",
      "ęĘĜ Ěęęě",
      "ĀĀĔ ĀĞ",
      "ěĘ ęęĝ",
      "ĜĚ ęęĝ",
      "ĖĘ ęęĕ",
      "ĜĘ ęęĝ",
      "ĀĀđ Āě",
      "ęĘęęęęęęęę ęęęęęęęęęęęę",
      "ĀĀ( Ā",
      "\" \"",
      "$ ğ",
      "Ē ęęĜ",
      "ē ęę",
      "ğ Ĝ",
      "ęĚ ęĖęęĚ",
      "ęęĘ ĜęęĘ",
      "ęęĘ ĚęęĘę",
      "ęęęęęęęę ĚĚ",
      "ęęęĚ ęęęęĘĘ",
      "ęĖ Ē",
      "ęĚęęęę ęęě",
      "ęĕ Ē",
      "ęĚĚ ęęęĜ",
      "ęĘĘ ĘęęęęĚ",
      "ęĘĚ ĜęęĚ",
      "ęęęęęęęęęęęę ęĚęęęę",
      "ęĚė ěęęė",
      "ęěĘ ęęęĚ",
      "ęěė ęęęė",
      "ĀĀĝ ĀĞ",
      "ęĜĚ ęęęĚ",
      "ęĘĜ ĚęęĚ",
      "ęĖĘ Ěęęęę",
      "ęĚĖ ĚęęĘ",
      "ĀĀĞ Āĕ",
      "ěě ęęĜ",
      "ęęęęĚĚ ĘęęĚ",
      "ĀĀď Āė",
      "ęĘęĚęęĚ ę",
      "\" Ę",
      "# ĝ",
      "ē ęęĝ",
      "ė ęęęĚ",
      "ė Ěęęė",
      "ě ĀĀ",
      "Ġ $",
      "Ġ ĀĖ",
      "ęĚ ĚęęęęĚ",
      "ęĘ ėęęĘ",
      "ęęĘ ĚęęęęĚ",
      "ęęĚ ĚęęęęĘ",
      "ęęě ęęĚ",
      "ęĘęęęę ĘęęĘ",
      "ĀĀĘ ĀĒ",
      "ĀĀĚ ĀĒ",
      "ęėė Ęęęęę",
      "ĖęęĚ ę",
      "ęěęęęę ęęĚ",
      "ĀĀĕ ĀĞ",
      "ęěĜ ęęęĚ",
      "ęėĖ ĚęęĘ",
      "ęĜě ęęęĚ",
      "ęĘęĚ ęęĘę",
      "$ ĝ",
      "ď ė",
      "Đ ĝ",
      "ē ē",
      "Ė Ěęęė",
      "Ė ęę!",
      "ě ěęęě",
      "Ĝ Ěęęě",
      "Ğ ĕ",
      "ğ ęęĖ",
      "ęĚ ęĜęęĘ",
      "ęĘ đ",
      "ęĘ ęęĕ",
      "ęė ęĚęęě",
      "Ěęęęę ęęĘęęęę",
      "ęęęĚ ęęęęęęęęęęę",
      "ęęĖ Ęęęė",
      "ęĚĚ ęęęė",
      "ęĞ ęęĘ",
      "ęĞ ęęĚ",
      "ęĘė Ęęęė",
      "ęĘė ĜęęĘ",
      "ęėĘ ĘęęĚ",
      "ęėĘ ęęęė",
      "ĀĀĖ ĀĒ",
      "ęĘĜ ĘęęĚ",
      "ęĖĘ ęęęĚ",
      "ęĖĘ ĚęęĘ",
      "ęĚĖ Ęęęė",
      "ĀĀĒ Āė",
      "Ĕ ęęęęĘ",
      "ě !",
      "Ĝ ėęęĚ",
      "Ġ ęęĖ",
      "ęęęę ęęĘę",
      "ęĘ Ĝęęęę",
      "ęě Ĝęęęę",
      "ęė ęęĖ",
      "ęė ęĚęęęęĘ",
      "ęęęęęęęę ĘĘ",
      "ęęě ěęęęę",
      "ęĝ ē",
      "ęĚĚ ĚęęęęĘ",
      "ęĘĘ ęęęě",
      "ęĚě ėęęě",
      "ęěĘ ěęęĘ",
      "ęėĘ ěęęęę",
      "ęėęęęę ęę",
      "ĀĀĕ ĀĔ",
      "ėĘ ęęĕ",
      "ęĘĖ Ěęęė",
      "ęĚĖ ęęęė",
      "ęĖė ęęęĘ",
      "ĖĚ ęęĕ",
      "Ė ęęē",
      "ė Ĕ",
      "Ġ ęęĝ",
      "Ġ ĀĚ",
      "ęęęę ęęĚę",
      "ęĘ ęĜ",
      "ęęĘ Ėęęęę",
      "ęě Ěęęęęę",
      "ęęė ęęęĘę",
      "ęęęĘ ęęĖ",
      "ęĘęęęę ĚęęĘ",
      "ęĚĚ ėęęĘ",
      "ęęęęĘ ę",
      "ęęęęĘ ęĘęęęę",
      "ęęęęĚ ęĚęęęę",
      "ęĘĚ ěęęě",
      "ęĔ ē",
      "ęĘė Ęęęęę",
      "ĀĀě Āğ",
      "ęęęĖ ęęĘ",
      "ěĚ ęęęĚ",
      "ęĜĚ ĘęęĘ",
      "ęĒ Ė",
      "ęĜě ĚęęĚ",
      "ĀĀē ĀĖ",
      "ĀĀ! ĀĚ",
      "ĀĀĐ ĀĘ",
      "ĀĀ\" Āė",
      "\" ĀĀ",
      "ė ē",
      "ė ĘęęĚ",
      "ė ęę!",
      "Ę ěęęęę",
      "Ě ěęęĚ",
      "ğ ęęě",
      "ęĚ ĚęęĘ",
      "ęĚ ĘęęęęĘ",
      "ęĚ ęĘęęęęęęęę",
      "ęĘ ęęęĚ",
      "ęęĚ ĚęęęęĚ",
      "ęě ęĖęęĚ",
      "ęė ęėęęęę",
      "ęęė ĖęęĘ",
      "ęĜ Ē",
      "ęĖ ęĚęęĘ",
      "ęĚęęęę ęęęĚęęęę",
      "ęĘęęęę ĚęęĚ",
      "ęĘĘ ěęęė",
      "ęĘĘ ĚęęęęĘ",
      "ęĘĚ ęęęęęęęęęęęę",
      "ęĚě ęęĚ",
      "ęėĚ ėęęĚ",
      "ęėĚ ĜęęĚ",
      "ęěě ěęęĚ",
      "ĘęęęęĚ Ěęęęę",
      "ęėě ęęęě",
      "ėĘ Ěęęęę",
      "ęěĜ ęęęě",
      "ĀĀē Āě",
      "ĀĀĒ ĀĜ",
      "ęĖęęęę ě",
      "ĀĀ! Āė",
      "ĀĀđ ĀĜ",
      "ĝĚ ęęĝ",
      "ĀĀĐ Āě",
      "ď ĕ",
      "đ ęęě",
      "ě ĜęęĚ",
      "Ĝ Ěęęęę",
      "ĝ ęęĔ",
      "Ğ ęęĕ",
      "Ġ ĀĜ",
      "ęĘ ęęĔ",
      "ęĘ ĘęęęęĘ",
      "ęęĘ ĖęęĘ",
      "ęęĚ ęęęĜ",
      "ęęĚ ĘęęęęĚ",
      "ęęĚ ĚęęĚę",
      "ęęė ĘęęĚ",
      "ęęė ěęęė",
      "Ěęęęę ęęęĘ",
      "ęĖ ęĘęęĚ",
      "ęęĖ ėęęĘ",
      "ęĚĘ ėęęĚ",
      "ęĘĚ ėęęě",
      "ęĘĚ ĚęęĚę",
      "ęęęęęęęęęęęę ęę",
      "ęĚě ĖęęĚ",
      "ęĘě Ęęęęę",
      "ęęęęęęęęęęęęęęęę ęęęęęęęęęęęęę",
      "ęē Ĕ",
      "ęĚĜ ėęęĚ",
      "ęėĖ ĘęęĘ",
      "ĀĀĒ Āĕ",
      "ĀĀđ ĀĘ",
      "ĝĚ ęęĞ",
      "! ĕ",
      "# ě",
      "ď Ě",
      "Ē Ĕ",
      "Ē ę",
      "ė ęęęĖ",
      "Ę ęę!",
      "Ě ĘęęĘ",
      "Ě ěęęęę",
      "ĝ ĕ",
      "Ġ ē",
      "ęĘ !",
      "ęęĘ ĘęęęęĚ",
      "ęęĘ ęęęęęęęęęęę",
      "ęė Ėęęęę",
      "Ęęęęę ęęĘęęęę",
      "ęęęĚ ęęĜ",
      "ęĖ ęĚęęĚ",
      "ęĝ ęęė",
      "ęĚĚ ěęęĘ",
      "ęĚĚ ĚęęĚę",
      "ęĘĚ Ĝęęęę",
      "ęĘĚ ĚęęęęĘ",
      "ęĘė ėęęĘ",
      "ęĚė ęęęĖ",
      "ęĘě ĜęęĚ",
      "ĀĀĖ Āē",
      "ĀĀĖ Āğ",
      "ĀĀĜ ĀĒ",
      "ęĖĘ ĚęęĚ",
      "ĀĀğ Āĕ",
      "ėė ęęĖ",
      "ĀĀ* Ā",
      "\" #",
      "Ď ė",
      "ď Ę",
      "đ Ē",
      "Ė ęęęęĘĚ",
      "ė ĜęęĘ",
      "Ę Ěęęė",
      "ě ėęęęę",
      "ě ęęĒ",
      "Ĝ ĜęęĚ",
      "Ġ Āĝ",
      "ęĚ ęĖęęĘ",
      "ęě ęĘęęęęĘ",
      "ęě ęĘęęė",
      "ęęě ęęęĚę",
      "Ęęęęę ęęė",
      "ęĜ ęĘęęĚ",
      "ęĜ ęĘęęė",
      "ęĚęęęę Ěęęęę",
      "ęĘĘ ĚęęęęĚ",
      "ęĘĚ ęęęĜ",
      "ęĘĚ ĖęęĚ",
      "ęĘĚ ĘęęĚę",
      "ęęĕ ęęęĘ",
      "ęęę ď",
      "ęĚě Ěęęě",
      "ęěĘ Ěęęė",
      "ęĘě ěęęęę",
      "ĀĀě ĀĒ",
      "ęėė Ęęęė",
      "ęěė Ęęęė",
      "ĀĀĝ Āĝ",
      "ėĚ ĚęęĚ",
      "ęĜĚ ęęęĘ",
      "ěĘ Ęęęęę",
      "ęęęęĘĘ Ěęęęę",
      "ĀĀē ĀĔ",
      "ęĖě ęęęĚ",
      "ęĜė Ęęęė",
      "ĀĀ! Āě",
      "ĀĀđ ĀĚ",
      "ęĚęęęęęęęę ęęęęęęęęęęęę",
      "! Ė",
      "! ęęĘ",
      "# Ě",
      "Ď Ě",
      "Đ Ĕ",
      "Ę ĕ",
      "Ġ ęęęĜ",
      "ęęęę ė",
      "ęĚ ęĔ",
      "ęĘ ĘęęĚ",
      "ęĘ ęĜęęĚ",
      "ęęĚ ěęęĘ",
      "ęě ęĕ",
      "ęęęęęęęę ĚĘ",
      "ęęęĘ ęęęęęęęęęęę",
      "ęęęĚ ęęęęęęęęęęęę",
      "ęĖ ęęĖ",
      "ęĖ ęęĜ",
      "ęĚĘ ęęęęęęęęęęęę",
      "ęĚĘ ėęęė",
      "ęĘĚ ĘęęęęĘ",
      "ęĘĚ ĘęęęęĚ",
      "ęĘĚ ęęęĚęęĚ",
      "ęĘė ęęęĚ",
      "ęėĘ Ěęęė",
      "ěĚ Ěęęęę",
      "ĀĀĕ Āğ",
      "ęėě Ęęęě",
      "ęĚĜ Ęęęě",
      "ėĚ ęęęĚ",
      "ėĘ ęęęĘ",
      "ěĘ ęęęĘ",
      "ęęęęĚĚ Ęęęęę",
      "ĀĀē Āĝ",
      "ęĜė ęęęĘ",
      "ęĜęęęę ė",
      "ęĚęĘęęĚ ę",
      "Ė ėęęĘ",
      "ė ěęęęę",
      "ě ęě",
      "ě ęęęĜ",
      "ě ėęęě",
      "Ĝ Ĕ",
      "ĝ ĀĀ",
      "ĝ Ęęęě",
      "ęĚ ęĚęęęęęęęę",
      "ęĘ ĚęęęęĚ",
      "ęęĘ ėęęĚ",
      "ęęĖ ęęĚ",
      "ęĚĘ ęęęĖ",
      "ęĚĘ ĘęęęęĘ",
      "ęęĔ ę",
      "ęĚė Ěęęęę",
      "ęĘě ęęęĜ",
      "ęĘě ėęęě",
      "ęėĘ Ęęęė",
      "ęėĘ ěęęė",
      "ęėĚ ĚęęĘ",
      "ėęęě ę",
      "ėĚ ęęĕ",
      "ėĘ ĚęęĘ",
      "ęĖĚ ęęęě",
      "ęĖĚ ěęęĚ",
      "ĚęęĜ ę",
      "ęėĖ ęęęė",
      "ęěĖ Ęęęė",
      "ęĖě ĚęęĚ",
      "ĀĀ! ĀĖ",
      "ĀĀĐ ĀĚ",
      "ĀĀ\" ĀĘ",
      "ĀĀ# ĀĘ",
      "ęĘėęęęę ę",
      "ęĘęĘęęĚ ę",
      "ęĚęĘ ęęĘę",
      "ĀĀ) Ā",
      "\" ė",
      "Ē đ",
      "ĕ ĘęęĘ",
      "Ė Ęęęė",
      "ė ěęęė",
      "Ę ĀĀ",
      "Ę ĘęęĚ",
      "ě Ĝęęęę",
      "Ĝ Ęęęęę",
      "Ĝ ęęęęĘĚ",
      "Ġ Ē",
      "ęę &",
      "ęĚ !",
      "ęĚ ęĚ",
      "ęęĘ ėęęė",
      "ęě !",
      "ęě ęě",
      "ęě ęĘęęě",
      "ęęė ęęęĚ",
      "ęĖ ęĚęęęę",
      "ęĘęęęę ęęęĘęęęę",
      "ęĝ Ē",
      "ęĘĘ ĘęęęęĘ",
      "ęĚĘ ęęęě",
      "ęĚě ėęęęę",
      "ęĚě ęęęĜ",
      "ęěĚ ĖęęĚ",
      "ęĚė ėęęė",
      "ęē ęęęę",
      "ĘęęęęĘ ę",
      "ęěě Ěęęě",
      "ĘęęęęĚ ę",
      "ęĜĘ ęęęė",
      "ęėĖ ěęęĘ",
      "ęěĖ ęęęė",
      "ĀĀĒ Āĝ",
      "ĀĀđ ĀĖ",
      "ĕĚ ęęĔ",
      "ęęĘĘęęęę ę",
      "ĀĀ$ ĀĘ",
      "ĀĀ% ĀĜ",
      "ē ęęĔ",
      "ĕ ęęęĘ",
      "ĕ Ěęęė",
      "Ė Ęęęęę",
      "Ė ęęęĖ",
      "Ė ěęęė",
      "Ę Ė",
      "Ě ĚęęĘ",
      "Ě Ěęęě",
      "ě \"",
      "Ĝ ęęē",
      "Ĝ ęęęęĚĘ",
      "ĝ ĚęęĚ",
      "ęĘ ęĕ",
      "ęĘ ęęĝ",
      "ęęĚ Ěęęė",
      "ęęĚ ėęęě",
      "ęě ėęęĚ",
      "ęė Ęęęęęę",
      "ęęě ĚęęĜ",
      "ęęęĚ ęęęęĘĚ",
      "ęĜ !",
      "ęęĜ ęęĘ",
      "ęĘęęęę ęęĚęęęęęę",
      "ęĚĚ Ėęęęę",
      "ęĚĚ ĜęęĚ",
      "ęĘĘ ęęęĖ",
      "ęĘĘ Ĝęęęę",
      "ęĚĘ ĚęęęęĚ",
      "ęĚĘ ęęęĘęęĘ",
      "ęĚĘ ĚęęĘę",
      "ęęĕ ęęęė",
      "ęěĚ Ěęęě",
      "ęėĘ ėęęĘ",
      "ĚęęęęĘ ę",
      "ĘęęĜ ę",
      "ęĚĜ ĚęęĚ"
    ]
  }
}