{
  "version": "1.0",
  "truncation": null,
  "padding": null,
  "added_tokens": [],
  "normalizer": null,
  "pre_tokenizer": {
    "type": "ByteLevel",
    "add_prefix_space": false,
    "trim_offsets": true,
    "use_regex": true
  },
  "post_processor": {
    "type": "ByteLevel",
    "add_prefix_space": true,
    "trim_offsets": false,
    "use_regex": true
  },
  "decoder": {
    "type": "ByteLevel",
    "add_prefix_space": true,
    "trim_offsets": true,
    "use_regex": true
  },
  "model": {
    "type": "BPE",
    "dropout": null,
    "unk_token": null,
    "continuing_subword_prefix": null,
    "end_of_word_suffix": null,
    "fuse_unk": false,
    "byte_fallback": false,
    "ignore_merges": false,
    "vocab": {
      "\u0000": 0,
      "\u0001": 1,
      "\u0002": 2,
      "\u0003": 3,
      "\u0004": 4,
      "\u0005": 5,
      "\u0006": 6,
      "\u0007": 7,
      "\b": 8,
      "\t": 9,
      "\n": 10,
      "\u000b": 11,
      "\f": 12,
      "\r": 13,
      "\u000e": 14,
      "\u000f": 15,
      "\u0010": 16,
      "\u0011": 17,
      "\u0012": 18,
      "\u0013": 19,
      "\u0014": 20,
      "\u0015": 21,
      "\u0016": 22,
      "\u0017": 23,
      "\u0018": 24,
      "\u0019": 25,
      "\u001a": 26,
      "\u001b": 27,
      "\u001c": 28,
      "\u001d": 29,
      "\u001e": 30,
      "\u001f": 31,
      " ": 32,
      "!": 33,
      "\"": 34,
      "#": 35,
      "$": 36,
      "%": 37,
      "&": 38,
      "'": 39,
      "(": 40,
      ")": 41,
      "*": 42,
      "+": 43,
      ",": 44,
      "-": 45,
      ".": 46,
      "/": 47,
      "0": 48,
      "1": 49,
      "2": 50,
      "3": 51,
      "4": 52,
      "5": 53,
      "6": 54,
      "7": 55,
      "8": 56,
      "9": 57,
      ":": 58,
      ";": 59,
      "<": 60,
      "=": 61,
      ">": 62,
      "?": 63,
      "@": 64,
      "Ā": 65,
      "ā": 66,
      "Ă": 67,
      "ă": 68,
      "Ą": 69,
      "ą": 70,
      "Ć": 71,
      "ć": 72,
      "Ĉ": 73,
      "ĉ": 74,
      "Ċ": 75,
      "ċ": 76,
      "Č": 77,
      "č": 78,
      "Ď": 79,
      "ď": 80,
      "Đ": 81,
      "đ": 82,
      "Ē": 83,
      "ē": 84,
      "Ĕ": 85,
      "ĕ": 86,
      "Ė": 87,
      "ė": 88,
      "Ę": 89,
      "ę": 90,
      "Ě": 91,
      "ě": 92,
      "Ĝ": 93,
      "ĝ": 94,
      "Ğ": 95,
      "ğ": 96,
      "Ġ": 97,
      "ĠĠ": 98,
      "Ġğ": 99,
      "Ġ!": 100,
      "ĠĠĠĠ": 101,
      "ĠĞ": 102,
      "Ġ\"": 103,
      "ĠĠĠ": 104,
      "ĀĀ": 105,
      "Ġĝ": 106,
      "Ġ#": 107,
      "Ġ$": 108,
      "ĠĠĠĠĠ": 109,
      "ĠĜ": 110,
      "Ġ!!": 111,
      "Ġğğ": 112,
      "Ġě": 113,
      "ĠĠĠĠĠĠĠĠ": 114,
      "Ġ%": 115,
      "Ġ!ğ": 116,
      "Ġğ!": 117,
      "Ġ&": 118,
      "ĠĚ": 119,
      "ĠĞğ": 120,
      "Ġ\"!": 121,
      "ĠğĞ": 122,
      "Ġ'": 123,
      "Ġ!\"": 124,
      "Ġ\"ğ": 125,
      "ĠĞ!": 126,
      "Ġę": 127,
      "ĠĠĠĠĠĠ": 128,
      "Ġğ\"": 129,
      "Ġ!Ğ": 130,
      "Ġ(": 131,
      "ĠĘ": 132,
      "Ġ\"\"": 133,
      "Ā!": 134,
      "ĠĞĞ": 135,
      "Āğ": 136,
      "ĀĀğ": 137,
      "Ġ\"Ğ": 138,
      "ĠĞ\"": 139,
      "Ā\"": 140,
      "ĀĞ": 141,
      "ĀĀĞ": 142,
      "Āĝ": 143,
      "Ġ#!": 144,
      "#ğ": 145,
      "Ġĝğ": 146,
      "ĀĀ!": 147,
      "Ġ)": 148,
      "Ġğĝ": 149,
      "Ġĝ!": 150,
      "Ġ#ğ": 151,
      "#!": 152,
      "Ġ!ĝ": 153,
      "Ġė": 154,
      "ĀĀĝ": 155,
      "ĀĀ\"": 156,
      "ĀĜ": 157,
      "Ġ!!ğ": 158,
      "Ġğğ!": 159,
      "ĠĠĠĠĠĠĠ": 160,
      "Ā#": 161,
      "Ā$": 162,
      "Ġ!#": 163,
      "Ġ#\"": 164,
      "Ġğ!!": 165,
      "ĠĞĝ": 166,
      "Ġ!ğğ": 167,
      "ĠĝĞ": 168,
      "ĀĀĜ": 169,
      "Ġ*": 170,
      "Ġğ#": 171,
      "ĀĀ#": 172,
      "Ġğğğ": 173,
      "Ġ!!!": 174,
      "Āě": 175,
      "ĠĠĠĠĠĠĠĠĠĠĠ": 176,
      "ĠĖ": 177,
      "Ġ#Ğ": 178,
      "Ġğ!ğ": 179,
      "Ā%": 180,
      "Ġ\"ĝ": 181,
      "Ġĝ\"": 182,
      "Ġ!ğ!": 183,
      "Ĝ!": 184,
      "$ğ": 185,
      "ĠĠĠĠĠĠĠĠĠĠĠĠ": 186,
      "ĀĀ$": 187,
      "$!": 188,
      "ĀĀě": 189,
      "Ĝğ": 190,
      "Ġ\"#": 191,
      "ĀĚ": 192,
      "Ā&": 193,
      "Ġ$ğ": 194,
      "Ġĝĝ": 195,
      "Ġ$!": 196,
      "ĠĜğ": 197,
      "ĀĀ%": 198,
      "Ġ+": 199,
      "ĠĜ!": 200,
      "Ĝ\"": 201,
      "ĀĀĚ": 202,
      "$\"": 203,
      "Ğ!": 204,
      "Ġ$\"": 205,
      "#\"": 206,
      "$Ğ": 207,
      "Ġ#ĝ": 208,
      "Ğğ": 209,
      "Āę": 210,
      "ĠĠĠĠĠĠĠĠĠĠ": 211,
      "ĜĞ": 212,
      "Ġĕ": 213,
      "#ĀĀ": 214,
      "$ĀĀ": 215,
      "#Ğ": 216,
      "ěğ": 217,
      "ĠĜ\"": 218,
      "Ā'": 219,
      "ĠĞğ!": 220,
      "ĠĀĀ": 221,
      "Ġ\"!ğ": 222,
      "%ĀĀ": 223,
      "Ğ\"": 224,
      "ĝğ": 225,
      "ě!": 226,
      "Ġ!\"ğ": 227,
      "ğğ": 228,
      "&ĀĀ": 229,
      "ĠğĞ!": 230,
      "%!": 231,
      "%ğ": 232,
      "Ġ!!Ğ": 233,
      "Ġğ!\"": 234,
      "Ġ!ğĞ": 235,
      "ĠĞ#": 236,
      "ğ!": 237,
      "ĀĘ": 238,
      "ě\"": 239,
      "ĝ!": 240,
      "'ĀĀ": 241,
      "Ġ,": 242,
      "ĞĞ": 243,
      "Ġ\"ğğ": 244,
      "$#": 245,
      "\"!": 246,
      "Ġğğ\"": 247,
      "!!": 248,
      "Ĝ#": 249,
      "!ğ": 250,
      "(ĀĀ": 251,
      "Ĝĝ": 252,
      "\"ğ": 253,
      "%\"": 254,
      "ĠğĞğ": 255,
      "ĝ\"": 256,
      "Ġğ\"!": 257,
      "ĠĞ!!": 258,
      "Ġ!Ğğ": 259,
      "ĠĠĠĠĠĠĠĠĠĠĠĠĠĠĠĠ": 260,
      "ĠĔ": 261,
      "Ā(": 262,
      "$ĝ": 263,
      "%Ğ": 264,
      "ĝĞ": 265,
      "ğĞ": 266,
      "!Ğ": 267,
      "ěĞ": 268,
      "##": 269,
      "Ġ\"!!": 270,
      ")ĀĀ": 271,
      "Ěğ": 272,
      "\"\"": 273,
      "Ġğ\"ğ": 274,
      "ĠğğĞ": 275,
      "ĠĞğğ": 276,
      "ĠĞ!ğ": 277,
      "Ġ!\"!": 278,
      "!\"": 279,
      "ĠğĜ": 280,
      "Ġ!!\"": 281,
      "Āė": 282,
      "#ĝ": 283,
      "Ġ!Ğ!": 284,
      "Ě\"": 285,
      "ğ\"": 286,
      "ěĝ": 287,
      "\"Ğ": 288,
      "Ġ\"\"ğ": 289,
      "Ā)": 290,
      "&!": 291,
      "Ě!": 292,
      "$$": 293,
      "ĠĜĞ": 294,
      "ĠĞğ\"": 295,
      "Ġğ!Ğ": 296,
      "*ĀĀ": 297,
      "Ġ!Ĝ": 298,
      "Ġ!ğ\"": 299,
      "Ġ-": 300,
      "ĝ#": 301,
      "ĝĀĀ": 302,
      "Ġ$Ğ": 303,
      "Ġ\"ğ!": 304,
      "Ġ\"!Ğ": 305,
      "&ğ": 306,
      "ě#": 307,
      "ĠĞĞ!": 308,
      "!#": 309,
      "%#": 310,
      "Ġ!$": 311,
      "Ġ##": 312,
      "ĜĀĀ": 313,
      "\"ĀĀ": 314,
      "ĀĀğĀ": 315,
      "%ĝ": 316,
      "ğ#": 317,
      "ĠĠĠĠĠĠĠĠĠĠĠĠĠ": 318,
      "ĠĠĠĠĠĠĠĠĠ": 319,
      "ĠĀ": 320,
      "ĞĀĀ": 321,
      "Ġĝ#": 322,
      "Ġ\"ğĞ": 323,
      "Ġ\"$": 324,
      "ĀĀĞĀ": 325,
      "Ġğ$": 326,
      "!ĝ": 327,
      "%$": 328,
      "&\"": 329,
      "ĝĝ": 330,
      "Ġ\"Ğğ": 331,
      "+ĀĀ": 332,
      "Ĝ$": 333,
      "\"ĝ": 334,
      "ĜĜ": 335,
      "Ġē": 336,
      "ĠğĞ\"": 337,
      "ĠĞ!\"": 338,
      "ĀĀ\"Ā": 339,
      "Ġğ\"\"": 340,
      "\"#": 341,
      "Ġ!\"Ğ": 342,
      "ĠĞ\"!": 343,
      "Ġ#!ğ": 344,
      "ĚĞ": 345,
      "Ġ!ĞĞ": 346,
      "ęğ": 347,
      "'!": 348,
      "Ěĝ": 349,
      "Ğ#": 350,
      "Ě#": 351,
      "Ğĝ": 352,
      "ğĝ": 353,
      "Ġĝğ!": 354,
      "ĀĀĝĀ": 355,
      "ě$": 356,
      "ĀĀ!Ā": 357,
      "ĠĞĞğ": 358,
      "#$": 359,
      "ę!": 360,
      "Ġ.": 361,
      "ěĜ": 362,
      "'ğ": 363,
      "Ġ!#ğ": 364,
      "&Ğ": 365,
      "\"$": 366,
      "Ġ#ğğ": 367,
      "ĠĞ\"ğ": 368,
      "ĠĞĜ": 369,
      "Ġĝ!!": 370,
      "ĠĞ$": 371,
      "Ġ!!ĝ": 372,
      "ĀĀ&": 373,
      "Ġ!ğĝ": 374,
      "Ġ\"\"!": 375,
      "ĝ$": 376,
      "!$": 377,
      "Ġ\"Ğ!": 378,
      "Ġğĝ!": 379,
      "ĀĀę": 380,
      "ĝĜ": 381,
      "ĀĀ'": 382,
      "Ġ!\"\"": 383,
      "Ġ%ğ": 384,
      "&#": 385,
      "ěě": 386,
      "Ġğ!#": 387,
      "&ĝ": 388,
      "Ġğğ#": 389,
      "ĠğĞĞ": 390,
      "'\"": 391,
      "ĀĀĘ": 392,
      "ęĞ": 393,
      "Ġ\"\"Ğ": 394,
      "ę\"": 395,
      "Ġ$#": 396,
      "Ġ!Ğ\"": 397,
      "&$": 398,
      "ĠěĞ": 399,
      "!Ĝ": 400,
      "ĠĞĞ\"": 401,
      "%%": 402,
      "ĠĒ": 403,
      "ĀĀĜĀ": 404,
      "Ġğ\"Ğ": 405,
      "Ġ#\"ğ": 406,
      "Ġ#$": 407,
      "ĠĞĝ!": 408,
      "Ġěğ": 409,
      "Ġĝğğ": 410,
      "%Ĝ": 411,
      "Ġ\"!\"": 412,
      "ĀĀ#Ā": 413,
      "Ġ\"ğ\"": 414,
      "Ġ#!!": 415,
      "'Ğ": 416,
      "ĠĝĞ!": 417,
      "Ġ\"Ĝ": 418,
      "ĠĞ!Ğ": 419,
      "Ġğ#ğ": 420,
      "!%": 421,
      "ĚĜ": 422,
      "Ğ$": 423,
      "ĀĀ(": 424,
      "Ġğě": 425,
      "\"%": 426,
      "ęĝ": 427,
      "ĠĞğĞ": 428,
      "ĀĀė": 429,
      "(!": 430,
      "ę#": 431,
      "ĞĜ": 432,
      "'#": 433,
      "ĠĝĜ": 434,
      "Ġ#!Ğ": 435,
      "Ġ!ĝğ": 436,
      "Ę!": 437,
      "Ġ\"ĞĞ": 438,
      "Ġğĝğ": 439,
      "Ġ\"#ğ": 440,
      "Ġ!ĝ!": 441,
      "\"Ĝ": 442,
      "Ęğ": 443,
      "ğ$": 444,
      "Ġ!%": 445,
      "Ġĝ$": 446,
      "Ġ$ĝ": 447,
      "ĠĜĝ": 448,
      "#Ĝ": 449,
      "Ġğğĝ": 450,
      "!ě": 451,
      "ĠĀ!": 452,
      "ĀĀěĀ": 453,
      "ĠĠĠĠĠĠĠĠĠĠĠĠĠĠĠ": 454,
      "Ġ#ğĞ": 455,
      "Ġ/": 456,
      "ğĜ": 457,
      "ĀĀğĀğ": 458,
      "Ġĝğ\"": 459,
      "(\"": 460,
      "ě%": 461,
      "Ġ!#!": 462,
      "(ğ": 463,
      "ĘĞ": 464,
      "Ġ\"!ĝ": 465,
      "Ġ#ğ!": 466,
      "Ġ#Ĝ": 467,
      "ĠĀĞ": 468,
      "Ġ!ğ#": 469,
      "ĠĞğ#": 470,
      "#%": 471,
      "&&": 472,
      "ĀĀ)": 473,
      "'$": 474,
      "Ě$": 475,
      "ĠĞ\"\"": 476,
      "ĠğĞ#": 477,
      "Ġě!": 478,
      "Ġĝ!ğ": 479,
      "Ġĝ!\"": 480,
      "Ğ%": 481,
      "ĠĀğ": 482,
      "ĀĀĕ": 483,
      "ĀĀğĀ!": 484,
      "ĀĀ$Ā": 485,
      "Ęĝ": 486,
      "ĀĀĖ": 487,
      "ĀĀğĀĞ": 488,
      "Ġ!#Ğ": 489,
      "Ġğ#!": 490,
      "ĀĀ%Ā": 491,
      "Ġğ\"#": 492,
      "Ġ!Ğĝ": 493,
      "Ġğ%": 494,
      "ĠĠĠĠĠĠĠĠĠĠĠĠĠĠĠĠĠĠ": 495,
      "ĠĞ!#": 496,
      "Ġ!!#": 497,
      "Ġ%!": 498,
      "&Ĝ": 499,
      "Ġ\"ğĝ": 500,
      "Ě%": 501,
      "ĝ%": 502,
      "ĀĀĝĀ!": 503,
      "ĠĀĝ": 504,
      "Ġ!ě": 505,
      "Ġğ!ĝ": 506,
      "\"ě": 507,
      "ĝě": 508,
      "ĀĀĞĀğ": 509,
      "ĀĀ!Ā!": 510,
      "ğ%": 511,
      "ĀĀĞĀ!": 512,
      "#&": 513,
      "Ġ$$": 514,
      "Ę\"": 515,
      "ęĜ": 516,
      "Ġğĝ\"": 517,
      "Ġ%Ğ": 518,
      "$%": 519,
      "ĠĀ\"": 520,
      "ĀĀ*": 521,
      "ĀĀ!Āğ": 522,
      "(#": 523,
      "ėĞ": 524,
      "Ěě": 525,
      "Ĝě": 526,
      "ĠĞě": 527,
      "Ġ\"\"ĝ": 528,
      ")!": 529,
      "ĠĞ#!": 530,
      "&%": 531,
      "Ġ\"#!": 532,
      "ĀĀğĀ\"": 533,
      "#ě": 534,
      "Ġ!ĝĞ": 535,
      "Ġ\"ĝğ": 536,
      "Ĝ%": 537,
      "Ġđ": 538,
      "Ġ##ğ": 539,
      "ĀĀĚĀ": 540,
      "ğě": 541,
      "Ġ\"%": 542,
      "ĠĞĞĞ": 543,
      "ĀĀĞĀĞ": 544,
      "ĀĀ!Ā\"": 545,
      "ė!": 546,
      "ę$": 547,
      "ęě": 548,
      "Ġ!#\"": 549,
      "Ġ#Ğğ": 550,
      "ĀĀĞĀĝ": 551,
      "Ġ!\"ĝ": 552,
      "'&": 553,
      "Ġ#\"!": 554,
      "\"&": 555,
      "Ġ\"ě": 556,
      "ĀĀĞĀ\"": 557,
      "ĠĞĝğ": 558,
      ")ğ": 559,
      "ĀĀ+": 560,
      "Ġ!!Ĝ": 561,
      "ĀĀğĀĜ": 562,
      "Ġĝ\"!": 563,
      "Ġ\"#Ğ": 564,
      "'%": 565,
      "($": 566,
      "Ġ\"\"\"": 567,
      "ĀĀĝĀğ": 568,
      "'ĝ": 569,
      "Ġ#\"Ğ": 570,
      "ĠĝĞ\"": 571,
      "ĠĝĞğ": 572,
      "Ġ$!ğ": 573,
      "Ę#": 574,
      "ĠĠĠĠĠĠĠĠĠĠĠĠĠĠĠĠĠĠĠĠ": 575,
      "ĀĀ!ĀĞ": 576,
      "ėğ": 577,
      "ĠĜ!!": 578,
      "ę%": 579,
      "ĀĀğĀĝ": 580,
      "Ġğ#\"": 581,
      "Ġğ#Ğ": 582,
      ",ĀĀ": 583,
      "ĠğĝĞ": 584,
      "Ġĝĝ!": 585,
      "ĠĜğ!": 586,
      "ĠĜ#": 587,
      "(Ğ": 588,
      "Ġ!ğĜ": 589,
      "Ġ#ĞĞ": 590,
      "Ġ\"Ğ\"": 591,
      "Ġ!ĝ\"": 592,
      "ĀĀĜĀ!": 593,
      "!&": 594,
      "ė\"": 595,
      "Ġ\"Ğĝ": 596,
      "ĀĀĝĀ\"": 597,
      "Ġ$ğğ": 598,
      "$Ĝ": 599,
      "ĘĜ": 600,
      "ĀĀ,": 601,
      "ĀĀ-": 602,
      "ĠĞ\"#": 603,
      "*!": 604,
      "Ğě": 605,
      "ĠĞ%": 606,
      "ĠĠĠĠĠĠĠĠĠĠĠĠĠĠĠĠĠĠĠ": 607,
      "Ġ\"ĝ!": 608,
      "\"Ě": 609,
      "(%": 610,
      "Ġ0": 611,
      "Ġ!$ğ": 612,
      "ĀĀ\"Āĝ": 613,
      "Ġěĝ": 614,
      "ĀĀĝĀĝ": 615,
      "ğĚ": 616,
      "ĀĀ!Āĝ": 617,
      "Ġĝĝğ": 618,
      "'Ĝ": 619,
      "Ğ&": 620,
      "Ġ!Ğ#": 621,
      "ĠĞ\"Ğ": 622,
      "Ġ#!ĝ": 623,
      "ĜĚ": 624,
      "ĀĀĔ": 625,
      "ĠĞĝ\"": 626,
      "(ĝ": 627,
      "Ġ#Ğ!": 628,
      "Ā*": 629,
      "ęĚ": 630,
      "Ġ#%": 631,
      "Ġğ!$": 632,
      "ĀĀ\"Āğ": 633,
      "$&": 634,
      "$ě": 635,
      "ĀĖ": 636,
      "Ġĝ#!": 637,
      "&ě": 638,
      "ĠĞĞ#": 639,
      "!Ě": 640,
      "Ġĝě": 641,
      "Ġě\"": 642,
      "ĠĝğĞ": 643,
      "ĀĀ\"ĀĞ": 644,
      "Ę$": 645,
      "Ġğ$ğ": 646,
      "Ġğğ$": 647,
      "Ġ\"!Ĝ": 648,
      "ĠĞ#ğ": 649,
      "ĠğĞĝ": 650,
      "Ġĝ\"ğ": 651,
      ")\"": 652,
      "ĝ&": 653,
      "ĠğĜ!": 654,
      "ĠĜĜ": 655,
      "Ġ%\"": 656,
      "ĞĚ": 657,
      "ğ&": 658,
      "Ġ\"!#": 659,
      "ĀĀ!ĀĜ": 660,
      "Ęě": 661,
      "ĠĐ": 662,
      "Ġ\"$ğ": 663,
      "Ġğ\"ĝ": 664,
      "Ġ$\"ğ": 665,
      "ĀĀ\"Ā!": 666,
      "Ė!": 667,
      "#Ě": 668,
      ")$": 669,
      "Ġ!\"#": 670,
      "''": 671,
      "ėĝ": 672,
      "ĝĚ": 673,
      "ĠĀĜ": 674,
      "ĠĞ!$": 675,
      "Ġ\"ĝĞ": 676,
      "ĠĜğ\"": 677,
      "Ĝ&": 678,
      "ĠĞğ$": 679,
      "Ġ\"ğĜ": 680,
      "ĠĞ!ĝ": 681,
      "Ġ#!\"": 682,
      "ğ'": 683,
      "ĠĀě": 684,
      "ĀĀē": 685,
      "Ġ$Ğğ": 686,
      "ĠĞğĝ": 687,
      "ĀĀğĀ#": 688,
      "ě&": 689,
      "Ġĝğ#": 690,
      "Ġ#ğ\"": 691,
      "Ġ$!Ğ": 692,
      "(&": 693,
      "Ā+": 694,
      "Ě&": 695,
      "ĀĀ/": 696,
      "Ğę": 697,
      "Ġğ$!": 698,
      "ĠĞ#\"": 699,
      "Ġ\"ğ#": 700,
      "Ġ!#ĝ": 701,
      "Ėğ": 702,
      "ę&": 703,
      "ĚĚ": 704,
      "ěĚ": 705,
      "ĠĜĞ!": 706,
      "Ġ$!!": 707,
      "Ġ#ğĝ": 708,
      "Ġĝ\"\"": 709,
      "Ġĝĝ\"": 710,
      "Ġ!Ĝ!": 711,
      "ĀĀĒ": 712,
      "ĀĀĝĀĞ": 713,
      "ĀĀĝĀĜ": 714,
      "Ā,": 715,
      "ĠğĜğ": 716,
      "ĀĀ#Ā!": 717,
      "Ġ$\"!": 718,
      ")#": 719,
      "ĠĀ#": 720,
      "ĠĀ$": 721,
      "Ġ!Ĝğ": 722,
      "ĀĀ\"ĀĜ": 723,
      "ĀĀĜĀğ": 724,
      "Ġ#Ğĝ": 725,
      "Ġ##!": 726,
      "Ġĝ!#": 727,
      "ĀĀ\"Ā\"": 728,
      "Ġ\"ĝ\"": 729,
      "ėĜ": 730,
      "Ġ!ĝĝ": 731,
      "ĀĀĜĀ\"": 732,
      "\"'": 733,
      "ęę": 734,
      "Ġě#": 735,
      "ĀĀ#Āğ": 736,
      "Ġ\"#\"": 737,
      "Ġ\"#ĝ": 738,
      "Ėĝ": 739,
      "Ġ!$!": 740,
      "Ġ#ě": 741,
      "Ġ%#": 742,
      "ĠĞĝĞ": 743,
      "ĠĜ\"!": 744,
      "'ě": 745,
      "ė#": 746,
      "ĠĞĜ!": 747,
      "ĀĀ.": 748,
      "Ġ%ĝ": 749,
      "Ġ!ğ$": 750,
      "ĠĚğ": 751,
      "ĀĀĞĀĜ": 752,
      "ĀĀ#Ā\"": 753,
      "%&": 754,
      "ĘĚ": 755,
      "Ġ!&": 756,
      "ĠĜ$": 757,
      "ĠğğĜ": 758,
      "Ġ%$": 759,
      "ĀĀ!Ā#": 760,
      "Ġĝ!Ğ": 761,
      "ĠĜğğ": 762,
      "ĠĜ!ğ": 763,
      "ĖĞ": 764,
      "ĀĀ#Āĝ": 765,
      "Ġ$\"Ğ": 766,
      "*#": 767,
      "Ę%": 768,
      "Ġ1": 769,
      "Ġ!Ě": 770,
      "Ġ$Ĝ": 771,
      "ĀĀğĀ%": 772,
      "ĀĀĞĀ#": 773,
      "ĀĀĞĀě": 774,
      "Ġğ##": 775,
      "ĠğĚ": 776,
      "Ġ\"Ĝğ": 777,
      "ĀĀĞĀ%": 778,
      "ĠĜ!\"": 779,
      "%ě": 780,
      "Ġ##Ğ": 781,
      "ĠĠĠĠĠĠĠĠĠĠĠĠĠĠ": 782,
      "ĠĞ\"ĝ": 783,
      "ĀĀ!Ā$": 784,
      "Ġ#\"\"": 785,
      "ĠĝĞ#": 786,
      "ĀĀĜĀĝ": 787,
      "Ġ$ğĞ": 788,
      "('": 789,
      "Ėě": 790,
      "Ęę": 791,
      "Ĝę": 792,
      "ĀĀđ": 793,
      "Ġ&!": 794,
      "ĀĀ!Āě": 795,
      "Ġĝ!$": 796,
      "&'": 797,
      ")%": 798,
      "Ġğ$\"": 799,
      "Ġ\"Ĝ!": 800,
      "ĠĜĞ\"": 801,
      "Ġğ!%": 802,
      "Ġğ!Ĝ": 803,
      "ĠĞĞĝ": 804,
      "ĀĀğĀ$": 805,
      "ĀĀğĀě": 806,
      "ĀĀĜĀĞ": 807,
      ")Ğ": 808,
      "*\"": 809,
      "ėě": 810,
      "ĠĞ#Ğ": 811,
      "Ġ#\"ĝ": 812,
      "Ġğ#ĝ": 813,
      "Ġĝ\"#": 814,
      "Ġ$ğ!": 815,
      "Ġ#ĝ!": 816,
      "Ġ!!$": 817,
      "ĠĚ!": 818,
      "ĀĀğĀĚ": 819,
      "ĀĀĚĀ!": 820,
      "ĠĠĠĠĠĠĠĠĠĠĠĠĠĠĠĠĠĠĠĠĠĠĠĠĠĠĠĠĠĠĠĠ": 821,
      "*ğ": 822,
      "ĕ!": 823,
      "Ġ$Ğ!": 824,
      "Ġ#Ğ\"": 825,
      "ĀĀ%Āğ": 826,
      "Ġ#ĝğ": 827,
      "#(": 828,
      "%'": 829,
      "ėĚ": 830,
      "Ěę": 831,
      "Ğ'": 832,
      "Ġ!\"Ĝ": 833,
      "Ġ#ğĜ": 834,
      "ĀĀĝĀ#": 835,
      "Ġ\"ĝĝ": 836,
      "ĠĞ$!": 837,
      "ĠĞĜğ": 838,
      "ĠĜĞğ": 839,
      "Ġ\"Ğ#": 840,
      "Ġğĝ#": 841,
      "ĀĀ#ĀĞ": 842,
      "*$": 843,
      "ĠğĜ\"": 844,
      "Ġğ\"$": 845,
      "ĀĀěĀğ": 846,
      "ĀĀěĀ\"": 847,
      "+!": 848,
      "ğę": 849,
      "ĀĀĞĀ$": 850,
      "Ġ!ĝ#": 851,
      "ĀĀ\"Ā$": 852,
      "ĀĀ$ĀĞ": 853,
      "(Ĝ": 854,
      "ĝę": 855,
      "Ġĝ#\"": 856,
      "Ġ$%": 857,
      "Ġ!!ě": 858,
      "ĠĞĝ#": 859,
      "ě'": 860,
      "Ġğ&": 861,
      "Ġ!$Ğ": 862,
      "Ġ\"$Ğ": 863,
      "Ġ$ĞĞ": 864,
      "ĠěĜ": 865,
      "ĠğĞ$": 866,
      "Ġ\"ĞĜ": 867,
      "ĠĝĞĞ": 868,
      "ĀĀĚĀğ": 869,
      "Ġ#ĝĞ": 870,
      ")&": 871,
      "Ā-": 872,
      "Ġ\"Ě": 873,
      "ĠĜĝğ": 874,
      "ĠğĞĜ": 875,
      "Ġ#!Ĝ": 876,
      "ĀĀ$Āğ": 877,
      "ĀĀěĀ!": 878,
      "ĠĜ\"\"": 879,
      "!'": 880,
      "Ġğ$Ğ": 881,
      "Ġ&\"": 882,
      "Ġ!ĞĜ": 883,
      "ĀĀ!Ā%": 884,
      "Ġĝ\"Ğ": 885,
      "Āĕ": 886,
      "ĝ'": 887,
      "Ġď": 888,
      "ĠĀĚ": 889,
      "Ġĝ#ğ": 890,
      "Ġ$#ğ": 891,
      "Ġ\"\"#": 892,
      "ĀĀ$Ā\"": 893,
      "ĠĝĝĞ": 894,
      "Ĝ'": 895,
      "ĠĞĜ\"": 896,
      "Ġ\"ĜĞ": 897,
      "Ġ#$ğ": 898,
      "Ġ#$Ğ": 899,
      "Ġ$#!": 900,
      "ĀĀ$Ā!": 901,
      "#'": 902,
      "&(": 903,
      ")'": 904,
      "ğĘ": 905,
      "Ġ!Ĝ\"": 906,
      "Ġĝ%": 907,
      "ĠĝĜ!": 908,
      "Ġ#$!": 909,
      "Ġ#!#": 910,
      "ĀĀ\"Ā%": 911,
      "ĀĀ#ĀĜ": 912,
      "ĠĜ\"ğ": 913,
      "\"ę": 914,
      "Ġ!$\"": 915,
      "ĀĀ\"Ā#": 916,
      "ĀĀ$Āĝ": 917,
      "*(": 918,
      "ė$": 919,
      "ėę": 920,
      "Ğ(": 921,
      "ĀĀĞĀ&": 922,
      "Ġğĝĝ": 923,
      "ĀĀ%Ā\"": 924,
      "!ę": 925,
      "))": 926,
      "ĀĔ": 927,
      "Ė\"": 928,
      "ěę": 929,
      "Ġ2": 930,
      "Ġ##\"": 931,
      "Ġğ\"Ĝ": 932,
      "ĀĀ!ĀĚ": 933,
      "ĀĀ#Ā$": 934,
      ")(": 935,
      ")ĝ": 936,
      "Ę&": 937,
      "ĠĝĜğ": 938,
      "Ġ##ĝ": 939,
      "Ġ!##": 940,
      "ĠĜ!Ğ": 941,
      "+\"": 942,
      "Ġ\"&": 943,
      "Ġ%!ğ": 944,
      "ĠĚĞ": 945,
      "Ġ\"ğě": 946,
      "Ġ$ğĝ": 947,
      "Ġ$!ĝ": 948,
      "ĕĝ": 949,
      "ĖĚ": 950,
      "Ę'": 951,
      "ĠĀ&": 952,
      "ĠĞ$ğ": 953,
      "Ġ$ě": 954,
      "Ġě!!": 955,
      "Ġ&$": 956,
      "ĀĀĝĀě": 957,
      "ĀĀ\"ĀĚ": 958,
      "Ġ$ğ\"": 959,
      "ĠĜğ#": 960,
      "%Ě": 961,
      "*Ğ": 962,
      "-ĀĀ": 963,
      "ĕĜ": 964,
      "ĖĜ": 965,
      "ĠĀę": 966,
      "ĠğĜĞ": 967,
      "Ġ!'": 968,
      "ĠĞĚ": 969,
      "ĠĜě": 970,
      "Ġ!ğě": 971,
      "ĀĀ\"Āě": 972,
      "ĀĀĜĀĜ": 973,
      "ĀĀ%ĀĞ": 974,
      "Ġ$\"ĝ": 975,
      "ĠĞ##": 976,
      "$'": 977,
      "'Ā": 978,
      "ĕğ": 979,
      "ěĀĀ": 980,
      "Ġĝ$!": 981,
      "Ġ$#Ğ": 982,
      "Ġěğ\"": 983,
      "Ġ\"ğ$": 984,
      "Ġ\"\"Ĝ": 985,
      "ĀĀğĀę": 986,
      "ĀĀ#Ā#": 987,
      "Ġĝ\"$": 988,
      "ĀĀěĀĞ": 989,
      "!(": 990,
      "%ę": 991,
      "ĕĞ": 992,
      "Ġ!ĜĞ": 993,
      "Ġ!Ĝĝ": 994,
      "ĀĀĜĀ#": 995,
      "\"(": 996,
      "*&": 997,
      "ĘĀĀ": 998,
      "ĠĞ$Ğ": 999,
      "ĠĜĝ!": 1000,
      "Ġěğğ": 1001,
      "Ġ\"!ě": 1002,
      "Ġĝ!ĝ": 1003,
      "ĕ#": 1004,
      "ęĀĀ": 1005,
      "Ġ!ěğ": 1006,
      "Ġ!$ĝ": 1007,
      "Ġ%\"ğ": 1008,
      "Ġ#ğ#": 1009,
      "ĀĀĝĀ$": 1010,
      "Ġ#\"#": 1011,
      "ĀĀĜĀě": 1012,
      "Ġ$!\"": 1013,
      "ĠĜ\"#": 1014,
      "$Ě": 1015,
      "Ġ!%ğ": 1016,
      "Ġ#&": 1017,
      "Ġ#Ĝ!": 1018,
      "Ġğğ%": 1019,
      "ĠěĞğ": 1020,
      "ĠĞĞ$": 1021,
      "ĠĞ\"$": 1022,
      "ĀĀ%Ā!": 1023,
      "Ġ#ĝ\"": 1024,
      "$ę": 1025,
      "*%": 1026,
      "Ā#ğ": 1027,
      "Ā#!": 1028,
      "Ġ!\"$": 1029,
      "Ġ#\"Ĝ": 1030,
      "ĀĀěĀĝ": 1031,
      "ĀĀěĀĜ": 1032,
      "ĠĞ#ĝ": 1033,
      "ĜĘ": 1034,
      "ĝĘ": 1035,
      "Ġ\"$!": 1036,
      "Ġ\"$\"": 1037,
      "Ġĝ#Ğ": 1038,
      "Ġ$$Ğ": 1039,
      "Ġ%Ĝ": 1040,
      "Ġ&Ğ": 1041,
      "Ġ!Ğ$": 1042,
      "Ġ!Ğě": 1043,
      "ĀĀĞĀĚ": 1044,
      "Ġĝğĝ": 1045,
      "Ġ!#Ĝ": 1046,
      "ĀĀĜĀ$": 1047,
      "Ġĝ\"ĝ": 1048,
      "ĠĜğĞ": 1049,
      "!ĀĀ": 1050,
      "$(": 1051,
      "+%": 1052,
      "ĔĜ": 1053,
      "Ġ\"Ĝ\"": 1054,
      "Ġ$&": 1055,
      "Ġ%ğ!": 1056,
      "ĀĀğĀĘ": 1057,
      "Ġĝğ$": 1058,
      "Ġ!ĝĜ": 1059,
      "Ġ#ĝĝ": 1060,
      "+#": 1061,
      "+ğ": 1062,
      "Ė#": 1063,
      "ė%": 1064,
      "Ě'": 1065,
      "Ě(": 1066,
      "ĚĘ": 1067,
      "ĠĀ%": 1068,
      "ĠĀ'": 1069,
      "Ġ#Ĝğ": 1070,
      "ĠĜĜ!": 1071,
      "ĠĚ\"": 1072,
      "Ġę!": 1073,
      "ĀĀ$ĀĜ": 1074,
      "ĀĀ%Āĝ": 1075,
      "ĀĀĚĀĝ": 1076,
      "*'": 1077,
      "ĕ\"": 1078,
      "Ė$": 1079,
      "Ġ!%Ğ": 1080,
      "ĠĝĜ\"": 1081,
      "Ġě!ğ": 1082,
      "Ġ%Ğğ": 1083,
      "Ġ&ğ": 1084,
      "ĀĀ%Āě": 1085,
      "*ĝ": 1086,
      "ĔĞ": 1087,
      "ėĘ": 1088,
      "Ġğ%!": 1089,
      "Ġğ$#": 1090,
      "Ġ!ě\"": 1091,
      "Ġ$$ğ": 1092,
      "ĠĜ%": 1093,
      "ĠĜĝ\"": 1094,
      "Ġěğ!": 1095,
      "Ġ%ğĞ": 1096,
      "Ġ\"!$": 1097,
      "ĀĀğĀ&": 1098,
      "ĀĀ\"Āę": 1099,
      "Ġğ#Ĝ": 1100,
      "ĀĀ$Ā#": 1101,
      "Ā.": 1102,
      "Ĕğ": 1103,
      "ĀĀĐ": 1104,
      "Ġě$": 1105,
      "ĠĚ#": 1106,
      "ĠĚĝ": 1107,
      "ĠĞğĜ": 1108,
      "Ġ'!": 1109,
      "ĠęĞ": 1110,
      "Ġğĝ$": 1111,
      "ĀĀěĀ$": 1112,
      "ĠĜ!#": 1113,
      "\"Ę": 1114,
      "(ě": 1115,
      "+&": 1116,
      "ĝ(": 1117,
      "ĠĎ": 1118,
      "ĠĞ&": 1119,
      "ĠĜ#!": 1120,
      "ĠěĞ!": 1121,
      "Ġ%ğğ": 1122,
      "ĠĞğ%": 1123,
      "ĀĀğĀ'": 1124,
      "ĀĀĝĀ%": 1125,
      "ĀĀ$Āě": 1126,
      "ĀĀěĀ#": 1127,
      "Ġ$Ğĝ": 1128,
      "Ġğ%Ğ": 1129,
      "Ġğğě": 1130,
      "ĠěĞ\"": 1131,
      "Ġ%\"Ğ": 1132,
      "ĠĞ!Ĝ": 1133,
      "Ġğ\"ě": 1134,
      "ĀĀ%Ā$": 1135,
      "ĀĀĚĀĞ": 1136,
      "\")": 1137,
      "+'": 1138,
      "ĕĚ": 1139,
      "ĕě": 1140,
      "ė&": 1141,
      "ĘĘ": 1142,
      "ĠĝĚ": 1143,
      "Ġ#ĜĞ": 1144,
      "Ġ$ĝğ": 1145,
      "ĠĜ#ğ": 1146,
      "Ġ%!!": 1147,
      "Ġ&ĝ": 1148,
      "ĀĀĞĀę": 1149,
      "Ġ#ĞĜ": 1150,
      "Ġ$ğ#": 1151,
      "Ġĝĝ#": 1152,
      "'(": 1153,
      "+$": 1154,
      "ĚĀĀ": 1155,
      "ě(": 1156,
      "ĝ)": 1157,
      "Ġğ%ğ": 1158,
      "ĠğĜĝ": 1159,
      "Ġ!$#": 1160,
      "ĠĚĜ": 1161,
      "Ġ'\"": 1162,
      "ĠĞĞĜ": 1163,
      "ĠĞ\"Ĝ": 1164,
      "ĀĀĝĀ&": 1165,
      "ĀĀ%Ā#": 1166,
      "#ĀĀ)": 1167,
      "ĠĜĞ#": 1168,
      "%(": 1169,
      "'ę": 1170,
      "'Ě": 1171,
      ",#": 1172,
      ".ĀĀ": 1173,
      "Ėę": 1174,
      "Ġğě!": 1175,
      "ĠğĜ#": 1176,
      "Ġ!%\"": 1177,
      "ĠĞ$\"": 1178,
      "ĠĞĜĞ": 1179,
      "Ġ\"$ĝ": 1180,
      "Ġ\"%Ğ": 1181,
      "Ġĝ##": 1182,
      "ĠĜĚ": 1183,
      "Ġěĝ\"": 1184,
      "Ġ\"\"$": 1185,
      "ĀĀ!Ā&": 1186,
      "ĀĀĜĀ%": 1187,
      "Ġ\"##": 1188,
      "ĀĀĚĀ\"": 1189,
      "Ġ$\"Ĝ": 1190,
      "Ġ#ĝĜ": 1191,
      "$ĀĀę": 1192,
      "(ĀĀ&": 1193,
      "$Ę": 1194,
      "ėĀĀ": 1195,
      "Ġ!ě!": 1196,
      "ĠĞěğ": 1197,
      "Ġ$ĝ!": 1198,
      "Ġ$#ĝ": 1199,
      "Ġ%#Ğ": 1200,
      "Ġ%ğĝ": 1201,
      "Ġğ!ě": 1202,
      "Ġęğ": 1203,
      "ĀĀĞĀ'": 1204,
      "ĠĞĝĝ": 1205,
      "ĠĝĞĝ": 1206,
      "ĀĀ#Ā&": 1207,
      "Ġ$ğĜ": 1208,
      "ĠĜğ$": 1209,
      "#ę": 1210,
      "Ęė": 1211,
      "ĠĞ$#": 1212,
      "Ġ\"ě!": 1213,
      "Ġ$Ğ\"": 1214,
      "Ġ$%ğ": 1215,
      "Ġěě": 1216,
      "Ġ%#ğ": 1217,
      "Ġ%!ĝ": 1218,
      "Ġ&#": 1219,
      "Ġ'ğ": 1220,
      "ĀĀĜĀĚ": 1221,
      "ĀĀ#Āě": 1222,
      "ĠĠĠĠĠĠĠĠĠĠĠĠĠĠĠĠĠ": 1223,
      "Ġ\"#Ĝ": 1224,
      "ĀĀĚĀ$": 1225,
      "$ĀĀ&": 1226,
      "ĀĀ&Ā": 1227,
      "Ĕ\"": 1228,
      "ĞĘ": 1229,
      "ğ(": 1230,
      "ĠĀĘ": 1231,
      "Ġ!Ĝ#": 1232,
      "ĠĞě!": 1233,
      "Ġ\"ěğ": 1234,
      "Ġ#$ĝ": 1235,
      "ĠĜĜ\"": 1236,
      "Ġ!!%": 1237,
      "Ġě\"ğ": 1238,
      "ĀĀĞĀĘ": 1239,
      "ĀĀĝĀ'": 1240,
      "ĀĀ\"Ā&": 1241,
      "ĀĀĜĀ&": 1242,
      "ĀĀ#Ā%": 1243,
      "Ġ\"ĝ#": 1244,
      "Ġĝĝĝ": 1245,
      "Ġ$!Ĝ": 1246,
      "ĀĀ%ĀĜ": 1247,
      "ĀĀĚĀ#": 1248,
      "Ġ$\"\"": 1249,
      "#ĀĀ&": 1250,
      "%ĀĀ&": 1251,
      "ĠĞ#$": 1252,
      "Ġğěğ": 1253,
      "Ġ\"%ğ": 1254,
      "Ġ%!Ğ": 1255,
      "ĀĀ!Āę": 1256,
      "ĀĀĝĀĚ": 1257,
      "Ġğ#$": 1258,
      "ĀĀ#ĀĚ": 1259,
      "ĀĀ#Āę": 1260,
      "ĀĀěĀ%": 1261,
      "ĠĜ\"Ğ": 1262,
      "&ĀĀ&": 1263,
      "ĠĠĠĠĠĠĠĠĠĠĠĠĠĠĠĠĠĠĠĠĠĠĠĠĠ": 1264,
      "Ĕě": 1265,
      "ėė": 1266,
      "ěĘ": 1267,
      "Ĝ(": 1268,
      "Ĝė": 1269,
      "Ğ)": 1270,
      "ĠĜ#\"": 1271,
      "Ġěĝ!": 1272,
      "Ġě!\"": 1273,
      "Ġ%Ğ!": 1274,
      "Ġę#": 1275,
      "ĀĀ!ĀĘ": 1276,
      "ĠğĝĜ": 1277,
      "ĀĀ\"ĀĘ": 1278,
      "ĀĀ$Ā%": 1279,
      "ĠĜğĝ": 1280,
      ")Ĝ": 1281,
      "+Ğ": 1282,
      ",!": 1283,
      "ēĝ": 1284,
      "ę'": 1285,
      "Ğ*": 1286,
      "ğ)": 1287,
      "Ġğ'": 1288,
      "ĠĞě\"": 1289,
      "Ġĝ&": 1290,
      "Ġ$ĝĞ": 1291,
      "Ġě\"\"": 1292,
      "Ġ%#!": 1293,
      "Ġ\"Ğ$": 1294,
      "ĀĀ#ĀĘ": 1295,
      "Ġ#Ğ#": 1296,
      "Ġ\"ĝĜ": 1297,
      "ĀĀ%ĀĚ": 1298,
      "%ĀĀę": 1299,
      "'ĀĀ&": 1300,
      "ĠĠĠĠĠĠĠĠĠĠĠĠĠĠĠĠĠĠĠĠĠĠ": 1301,
      "((": 1302,
      "(Ā": 1303,
      "(Ě": 1304,
      "Ė%": 1305,
      "ĖĀĀ": 1306,
      "Ĝĕ": 1307,
      "ĠĞěĞ": 1308,
      "Ġ$$!": 1309,
      "ĠĜĞĞ": 1310,
      "ĠĜĝĞ": 1311,
      "Ġ%$ğ": 1312,
      "Ġ%ĞĞ": 1313,
      "Ġ&ğğ": 1314,
      "Ġ'Ğ": 1315,
      "ĠĞ!%": 1316,
      "Ġ\"Ğě": 1317,
      "ĀĀ!Ā'": 1318,
      "Ġ!#$": 1319,
      "ĠĞĝ$": 1320,
      "Ġ\"ĝ$": 1321,
      "ĀĀ$Ā&": 1322,
      "ĀĀĚĀ%": 1323,
      "Ġ\"$Ĝ": 1324,
      "ē!": 1325,
      "Ĕ#": 1326,
      "Ĕĝ": 1327,
      "Ġğę": 1328,
      "Ġğ%\"": 1329,
      "Ġ\"$#": 1330,
      "Ġĝě\"": 1331,
      "ĠĝĜ#": 1332,
      "Ġ#Ĝ\"": 1333,
      "Ġě!#": 1334,
      "Ġ%\"!": 1335,
      "Ġ&ğ!": 1336,
      "Ġ'#": 1337,
      "Ġğ\"%": 1338,
      "ĀĀĞĀė": 1339,
      "ĀĀ$ĀĚ": 1340,
      "ĠĜ\"$": 1341,
      "ĠĠĠĠĠĠĠĠĠĠĠĠĠĠĠĠĠĠĠĠĠĠĠĠĠĠ": 1342,
      "!)": 1343,
      "#Ę": 1344,
      "ēĞ": 1345,
      "ĕ$": 1346,
      "Ěė": 1347,
      "Ġ\"ę": 1348,
      "Ġğğ&": 1349,
      "Ġě\"!": 1350,
      "ĠěğĞ": 1351,
      "Ġ!\"ě": 1352,
      "Ġę\"": 1353,
      "Ġęĝ": 1354,
      "ĠĞ\"%": 1355,
      "Ġĝ!%": 1356,
      "ĀĀěĀ&": 1357,
      "ĠĜ!$": 1358,
      "#)": 1359,
      "')": 1360,
      "Ė&": 1361,
      "Ėė": 1362,
      "ęĀ": 1363,
      "Ě)": 1364,
      "Ġ!%!": 1365,
      "Ġ\"'": 1366,
      "Ġĝ$ğ": 1367,
      "Ġě%": 1368,
      "ĠěĜ!": 1369,
      "ĠĚĞ!": 1370,
      "ĠĘ!": 1371,
      "Ġ#!ě": 1372,
      "ĠĝğĜ": 1373,
      "ĀĀ$Āę": 1374,
      "ĀĀěĀě": 1375,
      "ĀĀĚĀě": 1376,
      "ĠĜĞĝ": 1377,
      "ĀĀ'Ā": 1378,
      "$)": 1379,
      "&)": 1380,
      "()": 1381,
      "(ę": 1382,
      ",ğ": 1383,
      "Ĕ!": 1384,
      "ĖĘ": 1385,
      "ĘĀ": 1386,
      "Ġğ$ĝ": 1387,
      "Ġ!ěĞ": 1388,
      "Ġ!%ĝ": 1389,
      "ĠĞĜ#": 1390,
      "Ġĝę": 1391,
      "Ġĝ$\"": 1392,
      "ĠĝĜĞ": 1393,
      "Ġĝ%ğ": 1394,
      "Ġ#'": 1395,
      "Ġ#ěğ": 1396,
      "Ġ#%!": 1397,
      "ĠĜĜğ": 1398,
      "ĠĜĝ#": 1399,
      "Ġ%%": 1400,
      "Ġ!ğ%": 1401,
      "Ġ&Ĝ": 1402,
      "Ġ&!ğ": 1403,
      "ĠĞğě": 1404,
      "Ġ!\"%": 1405,
      "ĀĀğĀ(": 1406,
      "Ġ!ĝě": 1407,
      "ĀĀĚĀ&": 1408,
      "Ġ$\"#": 1409,
      ")ĀĀ&": 1410,
      "&ę": 1411,
      "*ě": 1412,
      "ėĖ": 1413,
      "ĠğěĞ": 1414,
      "Ġ!Ě!": 1415,
      "ĠĞ'": 1416,
      "ĠĞ%ğ": 1417,
      "Ġ\"%!": 1418,
      "Ġĝ#ĝ": 1419,
      "Ġěĝ#": 1420,
      "Ġ%ĝğ": 1421,
      "Ġ&%": 1422,
      "ĠĚĞ\"": 1423,
      "ĠĚğ\"": 1424,
      "Ġ\"!Ě": 1425,
      "ĠĞ!ě": 1426,
      "Ġ(!": 1427,
      "ĠĘğ": 1428,
      "ĀĀğĀė": 1429,
      "ĀĀĞĀ(": 1430,
      "Ġ#ğě": 1431,
      "ĀĀ$ĀĘ": 1432,
      "Ġ$ğě": 1433,
      "ĀĀĚĀĜ": 1434,
      "&ĀĀ'": 1435,
      "ĀĀ(Ā": 1436,
      "\"ė": 1437,
      "*Ĝ": 1438,
      ",$": 1439,
      "ĘĀğ": 1440,
      "ęĖ": 1441,
      "ěė": 1442,
      "ĝĖ": 1443,
      "ĝė": 1444,
      "Ğĕ": 1445,
      "Ğė": 1446,
      "ğė": 1447,
      "ĠĞĚğ": 1448,
      "Ġ#Ě": 1449,
      "Ġ#$\"": 1450,
      "Ġ$$\"": 1451,
      "ĠĜ$!": 1452,
      "ĠĜĜĞ": 1453,
      "ĠĜĝĝ": 1454,
      "Ġě!Ğ": 1455,
      "Ġěğ#": 1456,
      "Ġ%&": 1457,
      "ĠğĞ%": 1458,
      "ĠğĞě": 1459,
      "Ġ!Ğ%": 1460,
      "Ġ#!$": 1461,
      "ĠĝĞ$": 1462,
      "ĀĀ$Ā$": 1463,
      "ĀĀĚĀę": 1464,
      "Ġ##Ĝ": 1465,
      "ĀĀęĀ": 1466,
      "$Ė": 1467,
      "ēğ": 1468,
      "ĕĀĀ": 1469,
      "ęĀğ": 1470,
      "ěĖ": 1471,
      "ĜĖ": 1472,
      "ğ*": 1473,
      "ĠĀ(": 1474,
      "Ġğě\"": 1475,
      "Ġğ%ĝ": 1476,
      "Ġ!$$": 1477,
      "ĠĞę": 1478,
      "Ġ\"%\"": 1479,
      "ĀĀĎ": 1480,
      "Ġ$Ĝ!": 1481,
      "ĠĜěğ": 1482,
      "ĠěĞĞ": 1483,
      "Ġě\"ĝ": 1484,
      "Ġ%$Ğ": 1485,
      "Ġ%ĝĞ": 1486,
      "Ġ!ğĚ": 1487,
      "Ġ(\"": 1488,
      "ĠĘĝ": 1489,
      "Ġĝ!Ĝ": 1490,
      "ĀĀĝĀĘ": 1491,
      "ĠĞĝĜ": 1492,
      "Ġ#Ğě": 1493,
      "Ġĝ\"Ĝ": 1494,
      "Ġĝĝ$": 1495,
      "ĠĀĀ)": 1496,
      "\"*": 1497,
      "%)": 1498,
      "%Ę": 1499,
      "'*": 1500,
      ")ě": 1501,
      "+ĝ": 1502,
      ",\"": 1503,
      "-\"": 1504,
      "Ġ3": 1505,
      "Ġ!ę": 1506,
      "Ġ!&ğ": 1507,
      "Ġ\"(": 1508,
      "Ġ\"ě\"": 1509,
      "Ġ#%Ğ": 1510,
      "Ġ$#\"": 1511,
      "Ġ$ĜĞ": 1512,
      "Ġ$ěğ": 1513,
      "Ġ$$ĝ": 1514,
      "ĠĜ&": 1515,
      "ĠĜ##": 1516,
      "Ġ!!Ě": 1517,
      "Ġ%\"\"": 1518,
      "Ġ\"\"ě": 1519,
      "ĠĞĞ%": 1520,
      "ĀĀěĀĚ": 1521,
      "ĀĀěĀ'": 1522,
      "%ĀĀė": 1523,
      "Ġ$ĞĜ": 1524,
      "Ġ%ğĜ": 1525,
      "!+": 1526,
      "!Ę": 1527,
      ",(": 1528,
      "ĔĀĀ": 1529,
      "ĕĘ": 1530,
      "ę(": 1531,
      "ęĀ!": 1532,
      "ğ+": 1533,
      "Ġ4": 1534,
      "ĠĞ%!": 1535,
      "ĠĞ$ĝ": 1536,
      "Ġ$Ĝğ": 1537,
      "Ġ$%!": 1538,
      "Ġ$Ĝĝ": 1539,
      "Ġ%#ĝ": 1540,
      "Ġ&#ğ": 1541,
      "Ġ&ğĞ": 1542,
      "Ġ(#": 1543,
      "ĀĀĝĀė": 1544,
      "Ġ#ĝ#": 1545,
      "#ĀĀ(": 1546,
      "#ĀĀ+": 1547,
      "ĠĀĀ*": 1548,
      "%ĀĀĖ": 1549,
      "'ĀĀ'": 1550,
      ")ĀĀ)": 1551,
      "*ĀĀ'": 1552,
      "Ġ!ĜĜ": 1553,
      "Ġ$#Ĝ": 1554,
      "!ė": 1555,
      "\"+": 1556,
      "#ė": 1557,
      ",%": 1558,
      ",&": 1559,
      "-%": 1560,
      "ĞĖ": 1561,
      "Ġ!ěĝ": 1562,
      "Ġ\"&ğ": 1563,
      "Ġĝ$#": 1564,
      "Ġ#%\"": 1565,
      "ĠĜ$ğ": 1566,
      "ĠěĜğ": 1567,
      "Ġğ!&": 1568,
      "Ġ&Ğğ": 1569,
      "Ġ&\"!": 1570,
      "Ġ&\"ğ": 1571,
      "ĠĚ$": 1572,
      "ĠĚĞğ": 1573,
      "ĀĀ!Ā(": 1574,
      "ĀĀĝĀę": 1575,
      "ĀĀ\"Ā'": 1576,
      "ĀĀĜĀ(": 1577,
      "ĀĀ#Āė": 1578,
      "Ġĝ\"%": 1579,
      "ĀĀ%Āę": 1580,
      "ĠĜ\"ĝ": 1581,
      "ĠĀĀ+": 1582,
      "&ĀĀĘ": 1583,
      "ĠĠĠĠĠĠĠĠĠĠĠĠĠĠĠĠĠĠĠĠĠĠĠĠĠĠĠ": 1584,
      ",ĝ": 1585,
      "Āē": 1586,
      "Ē!": 1587,
      "ĔĚ": 1588,
      "ė'": 1589,
      "ęĘ": 1590,
      "Ě*": 1591,
      "ğĕ": 1592,
      "Ġğě#": 1593,
      "Ġğ&Ğ": 1594,
      "Ġ!Ěğ": 1595,
      "Ġ\"ĀĀ": 1596,
      "Ġ\"ĜĜ": 1597,
      "Ġĝ$Ğ": 1598,
      "Ġĝě!": 1599,
      "ĠĝĜĝ": 1600,
      "Ġĝ%\"": 1601,
      "Ġ#%ğ": 1602,
      "Ġ#$#": 1603,
      "Ġ$Ě": 1604,
      "ĠĜ$\"": 1605,
      "Ġě#ğ": 1606,
      "Ġě#!": 1607,
      "ĠěĝĞ": 1608,
      "Ġě\"#": 1609,
      "Ġ%ě": 1610,
      "Ġ%Ĝ!": 1611,
      "Ġ%ĝ!": 1612,
      "Ġ&Ğ!": 1613,
      "ĠĞĞě": 1614,
      "ĀĀĞĀ)": 1615,
      "Ġĝğ%": 1616,
      "ĀĀ!Āė": 1617,
      "Ġ#ğ$": 1618,
      "Ġ!ĝ$": 1619,
      "Ġĝĝ%": 1620,
      "ĀĀ%ĀĘ": 1621,
      "#ĀĀė": 1622,
      "$ĀĀ)": 1623,
      "ĠĀĀ&": 1624,
      "ĠĀĀ(": 1625,
      "%ĀĀ*": 1626,
      "+(": 1627,
      "-'": 1628,
      "-(": 1629,
      "Ēğ": 1630,
      "Ė'": 1631,
      "ęė": 1632,
      "ě)": 1633,
      "ĝ*": 1634,
      "ĠğĚĞ": 1635,
      "ĠĞĜĝ": 1636,
      "ĠĞ%Ğ": 1637,
      "Ġ\"Ĝ#": 1638,
      "Ġ\"ěĞ": 1639,
      "Ġ\"Ěğ": 1640,
      "Ġ#ĀĀ": 1641,
      "Ġ$ĝ\"": 1642,
      "ĠĜĜ#": 1643,
      "ĠěĜĞ": 1644,
      "ĠěĞ#": 1645,
      "Ġ%$!": 1646,
      "Ġ%\"ĝ": 1647,
      "Ġ%Ğĝ": 1648,
      "Ġ%!Ĝ": 1649,
      "ĠĚĝğ": 1650,
      "ĠĝĞĜ": 1651,
      "ĀĀĜĀę": 1652,
      "ĀĀĜĀĘ": 1653,
      "Ġ$!#": 1654,
      "ĀĀ%Ā&": 1655,
      "ĠĀĀ'": 1656,
      "ĠĀĀ-": 1657,
      "%ĀĀĘ": 1658,
      "ĠğĜ$": 1659,
      "ĠğĜĜ": 1660,
      "Ġĝ#$": 1661,
      "ĀĀ&Ā!": 1662,
      ",Ā": 1663,
      ",Ğ": 1664,
      "-!": 1665,
      "ĘĖ": 1666,
      "Ĝ)": 1667,
      "Ġ!Ě\"": 1668,
      "Ġ!ěĜ": 1669,
      "ĠĞ%\"": 1670,
      "ĠĞěĝ": 1671,
      "ĠĞ$$": 1672,
      "ĠĞ%ĝ": 1673,
      "Ġ\"Ĝĝ": 1674,
      "Ġ###": 1675,
      "Ġ#%ĝ": 1676,
      "Ġ$ě!": 1677,
      "Ġ$##": 1678,
      "Ġ$ĝĝ": 1679,
      "ĠĜ#Ğ": 1680,
      "ĠĜ%!": 1681,
      "ĠěĜ\"": 1682,
      "Ġě\"Ğ": 1683,
      "Ġě!$": 1684,
      "Ġ%Ě": 1685,
      "Ġ&!Ğ": 1686,
      "Ġ&!ĝ": 1687,
      "ĠĚě": 1688,
      "ĠĚğğ": 1689,
      "Ġ\"Ğ%": 1690,
      "ĀĀ\"Āė": 1691,
      "ĠĞĝ%": 1692,
      "Ġ$!$": 1693,
      "ĀĀĚĀ'": 1694,
      "Ġ#ĝě": 1695,
      "$ĀĀė": 1696,
      "ĠĀĀė": 1697,
      "%ĀĀ(": 1698,
      "ĠĜĞ$": 1699,
      "ĠĞ$Ĝ": 1700,
      "#*": 1701,
      "#ĕ": 1702,
      ".%": 1703,
      "ēĘ": 1704,
      "Ĕ%": 1705,
      "ėĕ": 1706,
      "ğĖ": 1707,
      "ğĀĀ": 1708,
      "ĠğĚğ": 1709,
      "Ġğěĝ": 1710,
      "Ġğ%$": 1711,
      "ĠĞĚ!": 1712,
      "ĠĞ&ğ": 1713,
      "Ġ\"%#": 1714,
      "Ġĝ$ĝ": 1715,
      "Ġ#Ĝĝ": 1716,
      "Ġ#&ğ": 1717,
      "Ġ#ĜĜ": 1718,
      "Ġ$Ĝ\"": 1719,
      "Ġ$%Ğ": 1720,
      "Ġ$Ěğ": 1721,
      "Ġ$ĝĜ": 1722,
      "ĠĜě!": 1723,
      "Ġ!!&": 1724,
      "Ġ%ĝ\"": 1725,
      "Ġ%!\"": 1726,
      "Ġ%ğ\"": 1727,
      "Ġ&\"Ğ": 1728,
      "ĠĚğ!": 1729,
      "ĠĚ!!": 1730,
      "Ġ\"!%": 1731,
      "Ġ\"ğ%": 1732,
      "ĠĘ#": 1733,
      "ĀĀĝĀ)": 1734,
      "Ġ!#%": 1735,
      "ĠĝĞ%": 1736,
      "Ġ\"ĝě": 1737,
      "ĠĜ!ĝ": 1738,
      "#ĀĀ'": 1739,
      "$ĀĀ(": 1740,
      "$ĀĀ*": 1741,
      "$ĀĀĕ": 1742,
      "&ĀĀė": 1743,
      "ĠĞ#Ĝ": 1744,
      "ĀĀĘĀ": 1745,
      "Ġ#$Ĝ": 1746,
      "ĀĀ#ĀĖ": 1747,
      "+ě": 1748,
      "+Ĝ": 1749,
      "-)": 1750,
      "-*": 1751,
      "/ĀĀ": 1752,
      "Ēĝ": 1753,
      "ē#": 1754,
      "ēę": 1755,
      "ĕę": 1756,
      "Ę(": 1757,
      "ęĀ\"": 1758,
      "Ġ!&Ğ": 1759,
      "ĠĞě#": 1760,
      "ĠĞĜĜ": 1761,
      "Ġ\"ě#": 1762,
      "Ġ\"&Ğ": 1763,
      "Ġĝ(": 1764,
      "Ġĝ%!": 1765,
      "Ġ#Ĝ#": 1766,
      "ĠĜĝ$": 1767,
      "Ġěĝğ": 1768,
      "Ġğ!Ě": 1769,
      "Ġ&&": 1770,
      "Ġ&#!": 1771,
      "ĠĚ&": 1772,
      "ĠĚ!ğ": 1773,
      "Ġ'Ĝ": 1774,
      "Ġ'ĝ": 1775,
      "Ġğĝě": 1776,
      "Ġ#ğĚ": 1777,
      "ĀĀ\"Ā(": 1778,
      "Ġ!#ě": 1779,
      "ĀĀĜĀė": 1780,
      "ĀĀ#Ā'": 1781,
      "ĀĀ%Ā%": 1782,
      "Ġ$\"$": 1783,
      "$ĀĀ'": 1784,
      "%ĀĀ'": 1785,
      "(ĀĀ(": 1786,
      "ĠğĜě": 1787,
      "ĠĜĞ%": 1788,
      "Ġ$Ğě": 1789,
      "+ĀĀ&": 1790,
      "ĀĀęĀ!": 1791,
      "!*": 1792,
      "\"Ė": 1793,
      "$ė": 1794,
      "&Ě": 1795,
      "'ė": 1796,
      "(ĕ": 1797,
      ".ğ": 1798,
      "ĒĚ": 1799,
      "ēě": 1800,
      "ēĀĀ": 1801,
      "ĕĀ": 1802,
      "Ęĕ": 1803,
      "Ĝ+": 1804,
      "ĠĀ)": 1805,
      "ĠğĚ\"": 1806,
      "Ġğ$$": 1807,
      "ĠğĚĝ": 1808,
      "Ġ\"&!": 1809,
      "Ġ\"%ĝ": 1810,
      "Ġĝ'": 1811,
      "Ġĝěğ": 1812,
      "ĠĜ$#": 1813,
      "Ġ%Ĝğ": 1814,
      "Ġ%ĜĞ": 1815,
      "Ġ&#Ğ": 1816,
      "Ġ!\"Ě": 1817,
      "ĠĘĞ": 1818,
      "ĠĞ\"ě": 1819,
      "ĀĀ\"Ā)": 1820,
      "Ġ#\"ě": 1821,
      "ĠĞĝě": 1822,
      "ĀĀĜĀ'": 1823,
      "ĀĀĜĀ)": 1824,
      "ĀĀěĀę": 1825,
      "$ĀĀē": 1826,
      "(ĀĀĖ": 1827,
      "Ġ!Ĝ$": 1828,
      "Ġ!$Ĝ": 1829,
      "ĀĀęĀğ": 1830,
      "#Ė": 1831,
      ".!": 1832,
      "ē$": 1833,
      "ēĚ": 1834,
      "ĕ%": 1835,
      "Ė)": 1836,
      "ęĀĞ": 1837,
      "Ġğ(": 1838,
      "Ġ!%#": 1839,
      "ĠĞĚ\"": 1840,
      "ĠĞ&!": 1841,
      "ĠĝĚğ": 1842,
      "Ġ#Ěğ": 1843,
      "Ġ#Ě!": 1844,
      "Ġ$ĝ#": 1845,
      "Ġě$ğ": 1846,
      "Ġě$!": 1847,
      "Ġě#\"": 1848,
      "ĠěĜ#": 1849,
      "Ġě##": 1850,
      "Ġ%ĝĝ": 1851,
      "Ġ%!ě": 1852,
      "Ġ&ě": 1853,
      "Ġ&!!": 1854,
      "ĠĚ!\"": 1855,
      "ĠĚ\"Ğ": 1856,
      "ĠĞğ&": 1857,
      "Ġ(ğ": 1858,
      "Ġ\"\"Ě": 1859,
      "ĀĀğĀ)": 1860,
      "Ġğ#ě": 1861,
      "Ġ\"#$": 1862,
      "Ġ#ĝ$": 1863,
      "$ĀĀĘ": 1864,
      "&ĀĀ(": 1865,
      "ĠğĜ%": 1866,
      "Ġ$Ğ#": 1867,
      "\"ĀĀ&": 1868,
      "ĀĀ&Ā\"": 1869,
      "ĀĀęĀĞ": 1870,
      "&,": 1871,
      "*ę": 1872,
      ",'": 1873,
      ",)": 1874,
      ".&": 1875,
      "ĒĞ": 1876,
      "ēĜ": 1877,
      "Ĕė": 1878,
      "ĕ'": 1879,
      "Ę)": 1880,
      "ę*": 1881,
      "ěĕ": 1882,
      "Ġ5": 1883,
      "ĠĀė": 1884,
      "Ġğ&ĝ": 1885,
      "Ġ!Ę": 1886,
      "Ġ!&!": 1887,
      "Ġ\"ěĜ": 1888,
      "ĀĀď": 1889,
      "Ġĝ%Ğ": 1890,
      "Ġĝ&!": 1891,
      "Ġĝě#": 1892,
      "Ġ#Ę": 1893,
      "Ġ$'": 1894,
      "Ġ$$#": 1895,
      "Ġě#Ğ": 1896,
      "ĠěĞĝ": 1897,
      "Ġ%#\"": 1898,
      "Ġ%Ğ\"": 1899,
      "Ġ%%ğ": 1900,
      "Ġ%&!": 1901,
      "Ġ&ĀĀ": 1902,
      "Ġ&$Ğ": 1903,
      "Ġ&ĝğ": 1904,
      "Ġ&ĞĞ": 1905,
      "ĠĚ!Ğ": 1906,
      "ĠĞğĚ": 1907,
      "ĠğĞĚ": 1908,
      "Ġ'!Ğ": 1909,
      "Ġęě": 1910,
      "ĠęĜ": 1911,
      "Ġ!ĞĚ": 1912,
      "Ġ(ĝ": 1913,
      "Ġğĝ%": 1914,
      "Ġ#\"$": 1915,
      "Ġ#\"%": 1916,
      "Ġ#Ğ$": 1917,
      "ĀĀ$Ā(": 1918,
      "ĠĜ!%": 1919,
      "#ĀĀĖ": 1920,
      "$ĀĀ+": 1921,
      "%ĀĀ+": 1922,
      "&ĀĀ)": 1923,
      "&ĀĀ*": 1924,
      "'ĀĀ(": 1925,
      "'ĀĀ*": 1926,
      "(ĀĀ'": 1927,
      "(ĀĀ)": 1928,
      "%\"ĀĀ": 1929,
      ")ĀĀ(": 1930,
      ")ĀĀĘ": 1931,
      "ĜĀĀę": 1932,
      "ĞĀĀ&": 1933,
      "Ġğ$Ĝ": 1934,
      "ĀĀ'Āğ": 1935,
      "Ġ$#ě": 1936,
      "ĠěĞ%": 1937,
      "\"ĕ": 1938,
      ")*": 1939,
      ")Ě": 1940,
      "++": 1941,
      ",*": 1942,
      "-&": 1943,
      "Ēě": 1944,
      "ĔĀ": 1945,
      "ĕĀ!": 1946,
      "Ė(": 1947,
      "Ĝē": 1948,
      "Ġğ%#": 1949,
      "Ġ!(": 1950,
      "Ġ!ĀĀ": 1951,
      "Ġ!%$": 1952,
      "ĠĞĘ": 1953,
      "ĠĞ'ğ": 1954,
      "Ġ\"Ě\"": 1955,
      "Ġ\"Ĝ$": 1956,
      "ĠĝěĞ": 1957,
      "ĠĝĚ\"": 1958,
      "Ġ#ě!": 1959,
      "Ġ$&!": 1960,
      "Ġ$&ğ": 1961,
      "ĠĜ%Ğ": 1962,
      "ĠĜĚ!": 1963,
      "Ġě\"$": 1964,
      "Ġ%ğ#": 1965,
      "Ġ&$ğ": 1966,
      "Ġ&Ğĝ": 1967,
      "Ġ&ğě": 1968,
      "ĠĚ%": 1969,
      "ĠĚĝ!": 1970,
      "ĠĚ\"#": 1971,
      "Ġ'\"!": 1972,
      "Ġ'!ğ": 1973,
      "Ġ(Ğ": 1974,
      "Ġ\"ĞĚ": 1975,
      "ĠĞ\"&": 1976,
      "Ġ!ĝĚ": 1977,
      "ĀĀĝĀ(": 1978,
      "Ġğ#%": 1979,
      "ĀĀ$Ā'": 1980,
      "ĠĜ\"%": 1981,
      ")ĀĀ'": 1982,
      "*ĀĀ)": 1983,
      "Ġ!Ĝě": 1984,
      "ĝĀĀ+": 1985,
      "Ġ##$": 1986,
      "\"ĀĀ(": 1987,
      "ĀĀ'Ā\"": 1988,
      "Ġěğ$": 1989,
      "ĀĀ)Ā": 1990,
      "Ġ%Ğě": 1991,
      "%ė": 1992,
      "+*": 1993,
      "-#": 1994,
      "-ğ": 1995,
      "Ĕ&": 1996,
      "ĔĘ": 1997,
      "Ě+": 1998,
      "ğ,": 1999,
      "ĠğĚ!": 2000,
      "Ġğ&#": 2001,
      "ĠĞě$": 2002,
      "Ġ\"Ę": 2003,
      "Ġ\"ěĝ": 2004,
      "Ġ\"Ě!": 2005,
      "Ġ#(": 2006,
      "Ġ#ě\"": 2007,
      "Ġ#$$": 2008,
      "Ġ$Ĝ#": 2009,
      "Ġ$ěĝ": 2010,
      "ĠĜě\"": 2011,
      "Ġě!%": 2012,
      "Ġ%ěğ": 2013,
      "Ġ%!#": 2014,
      "Ġ%#Ĝ": 2015,
      "Ġ&$!": 2016,
      "Ġ&Ĝĝ": 2017,
      "Ġ&!\"": 2018,
      "Ġ&ğ\"": 2019,
      "Ġ&ğĝ": 2020,
      "Ġ'ğğ": 2021,
      "Ġęğ!": 2022,
      "Ġ\"\"%": 2023,
      "Ġĝğ&": 2024,
      "Ġĝ!ě": 2025,
      "#!ĀĀ": 2026,
      "Ġğ#Ě": 2027,
      "Ġ$ğ$": 2028,
      "ĀĀĚĀĚ": 2029,
      "ĀĀĚĀ(": 2030,
      "#ĀĀ*": 2031,
      "#ĀĀē": 2032,
      "#ĀĀĘ": 2033,
      "ĠĜ\"Ĝ": 2034,
      "ĠĀĀĘ": 2035,
      "'ĀĀė": 2036,
      "(ĀĀĘ": 2037,
      "ĠĜĞĜ": 2038,
      "*ĀĀ(": 2039,
      "ĝĀĀ'": 2040,
      "ĀĀĞĀ*": 2041,
      "ĀĀĞĀĖ": 2042,
      "ĀĀĞĀ#ğ": 2043,
      "ĀĀĝĀ*": 2044,
      "ĠĞĜě": 2045,
      "ĀĀ&ĀĞ": 2046,
      "ĠĝĜ%": 2047
    },
    "merges": [
      "Ġ Ġ",
      "Ġ ğ",
      "Ġ !",
      "ĠĠ ĠĠ",
      "Ġ Ğ",
      "Ġ \"",
      "ĠĠ Ġ",
      "Ā Ā",
      "Ġ ĝ",
      "Ġ #",
      "Ġ $",
      "ĠĠĠĠ Ġ",
      "Ġ Ĝ",
      "Ġ! !",
      "Ġğ ğ",
      "Ġ ě",
      "ĠĠĠĠ ĠĠĠĠ",
      "Ġ %",
      "Ġ! ğ",
      "Ġğ !",
      "Ġ &",
      "Ġ Ě",
      "ĠĞ ğ",
      "Ġ\" !",
      "Ġğ Ğ",
      "Ġ '",
      "Ġ! \"",
      "Ġ\" ğ",
      "ĠĞ !",
      "Ġ ę",
      "ĠĠĠĠ ĠĠ",
      "Ġğ \"",
      "Ġ! Ğ",
      "Ġ (",
      "Ġ Ę",
      "Ġ\" \"",
      "Ā !",
      "ĠĞ Ğ",
      "Ā ğ",
      "ĀĀ ğ",
      "Ġ\" Ğ",
      "ĠĞ \"",
      "Ā \"",
      "Ā Ğ",
      "ĀĀ Ğ",
      "Ā ĝ",
      "Ġ# !",
      "# ğ",
      "Ġĝ ğ",
      "ĀĀ !",
      "Ġ )",
      "Ġğ ĝ",
      "Ġĝ !",
      "Ġ# ğ",
      "# !",
      "Ġ! ĝ",
      "Ġ ė",
      "ĀĀ ĝ",
      "ĀĀ \"",
      "Ā Ĝ",
      "Ġ!! ğ",
      "Ġğğ !",
      "ĠĠĠĠ ĠĠĠ",
      "Ā #",
      "Ā $",
      "Ġ! #",
      "Ġ# \"",
      "Ġğ! !",
      "ĠĞ ĝ",
      "Ġ!ğ ğ",
      "Ġĝ Ğ",
      "ĀĀ Ĝ",
      "Ġ *",
      "Ġğ #",
      "ĀĀ #",
      "Ġğğ ğ",
      "Ġ!! !",
      "Ā ě",
      "ĠĠĠĠĠĠĠĠ ĠĠĠ",
      "Ġ Ė",
      "Ġ# Ğ",
      "Ġğ! ğ",
      "Ā %",
      "Ġ\" ĝ",
      "Ġĝ \"",
      "Ġ!ğ !",
      "Ĝ !",
      "$ ğ",
      "ĠĠĠĠĠĠĠĠ ĠĠĠĠ",
      "ĀĀ $",
      "$ !",
      "ĀĀ ě",
      "Ĝ ğ",
      "Ġ\" #",
      "Ā Ě",
      "Ā &",
      "Ġ$ ğ",
      "Ġĝ ĝ",
      "Ġ$ !",
      "ĠĜ ğ",
      "ĀĀ %",
      "Ġ +",
      "ĠĜ !",
      "Ĝ \"",
      "ĀĀ Ě",
      "$ \"",
      "Ğ !",
      "Ġ$ \"",
      "# \"",
      "$ Ğ",
      "Ġ# ĝ",
      "Ğ ğ",
      "Ā ę",
      "ĠĠĠĠĠĠĠĠ ĠĠ",
      "Ĝ Ğ",
      "Ġ ĕ",
      "# ĀĀ",
      "$ ĀĀ",
      "# Ğ",
      "ě ğ",
      "ĠĜ \"",
      "Ā '",
      "ĠĞğ !",
      "Ġ ĀĀ",
      "Ġ\"! ğ",
      "% ĀĀ",
      "Ğ \"",
      "ĝ ğ",
      "ě !",
      "Ġ!\" ğ",
      "ğ ğ",
      "& ĀĀ",
      "ĠğĞ !",
      "% !",
      "% ğ",
      "Ġ!! Ğ",
      "Ġğ! \"",
      "Ġ!ğ Ğ",
      "ĠĞ #",
      "ğ !",
      "Ā Ę",
      "ě \"",
      "ĝ !",
      "' ĀĀ",
      "Ġ ,",
      "Ğ Ğ",
      "Ġ\"ğ ğ",
      "$ #",
      "\" !",
      "Ġğğ \"",
      "! !",
      "Ĝ #",
      "! ğ",
      "( ĀĀ",
      "Ĝ ĝ",
      "\" ğ",
      "% \"",
      "ĠğĞ ğ",
      "ĝ \"",
      "Ġğ\" !",
      "ĠĞ! !",
      "Ġ!Ğ ğ",
      "ĠĠĠĠĠĠĠĠ ĠĠĠĠĠĠĠĠ",
      "Ġ Ĕ",
      "Ā (",
      "$ ĝ",
      "% Ğ",
      "ĝ Ğ",
      "ğ Ğ",
      "! Ğ",
      "ě Ğ",
      "# #",
      "Ġ\"! !",
      ") ĀĀ",
      "Ě ğ",
      "\" \"",
      "Ġğ\" ğ",
      "Ġğğ Ğ",
      "ĠĞğ ğ",
      "ĠĞ! ğ",
      "Ġ!\" !",
      "! \"",
      "Ġğ Ĝ",
      "Ġ!! \"",
      "Ā ė",
      "# ĝ",
      "Ġ!Ğ !",
      "Ě \"",
      "ğ \"",
      "ě ĝ",
      "\" Ğ",
      "Ġ\"\" ğ",
      "Ā )",
      "& !",
      "Ě !",
      "$ $",
      "ĠĜ Ğ",
      "ĠĞğ \"",
      "Ġğ! Ğ",
      "* ĀĀ",
      "Ġ! Ĝ",
      "Ġ!ğ \"",
      "Ġ -",
      "ĝ #",
      "ĝ ĀĀ",
      "Ġ$ Ğ",
      "Ġ\"ğ !",
      "Ġ\"! Ğ",
      "& ğ",
      "ě #",
      "ĠĞĞ !",
      "! #",
      "% #",
      "Ġ! $",
      "Ġ# #",
      "Ĝ ĀĀ",
      "\" ĀĀ",
      "ĀĀğ Ā",
      "% ĝ",
      "ğ #",
      "ĠĠĠĠĠĠĠĠ ĠĠĠĠĠ",
      "ĠĠĠĠ ĠĠĠĠĠ",
      "Ġ Ā",
      "Ğ ĀĀ",
      "Ġĝ #",
      "Ġ\"ğ Ğ",
      "Ġ\" $",
      "ĀĀĞ Ā",
      "Ġğ $",
      "! ĝ",
      "% $",
      "& \"",
      "ĝ ĝ",
      "Ġ\"Ğ ğ",
      "+ ĀĀ",
      "Ĝ $",
      "\" ĝ",
      "Ĝ Ĝ",
      "Ġ ē",
      "ĠğĞ \"",
      "ĠĞ! \"",
      "ĀĀ\" Ā",
      "Ġğ\" \"",
      "\" #",
      "Ġ!\" Ğ",
      "ĠĞ\" !",
      "Ġ#! ğ",
      "Ě Ğ",
      "Ġ!Ğ Ğ",
      "ę ğ",
      "' !",
      "Ě ĝ",
      "Ğ #",
      "Ě #",
      "Ğ ĝ",
      "ğ ĝ",
      "Ġĝğ !",
      "ĀĀĝ Ā",
      "ě $",
      "ĀĀ! Ā",
      "ĠĞĞ ğ",
      "# $",
      "ę !",
      "Ġ .",
      "ě Ĝ",
      "' ğ",
      "Ġ! #ğ",
      "& Ğ",
      "\" $",
      "Ġ#ğ ğ",
      "ĠĞ\" ğ",
      "ĠĞ Ĝ",
      "Ġĝ! !",
      "ĠĞ $",
      "Ġ!! ĝ",
      "ĀĀ &",
      "Ġ!ğ ĝ",
      "Ġ\"\" !",
      "ĝ $",
      "! $",
      "Ġ\"Ğ !",
      "Ġğĝ !",
      "ĀĀ ę",
      "ĝ Ĝ",
      "ĀĀ '",
      "Ġ!\" \"",
      "Ġ% ğ",
      "& #",
      "ě ě",
      "Ġğ! #",
      "& ĝ",
      "Ġğğ #",
      "ĠğĞ Ğ",
      "' \"",
      "ĀĀ Ę",
      "ę Ğ",
      "Ġ\"\" Ğ",
      "ę \"",
      "Ġ$ #",
      "Ġ!Ğ \"",
      "& $",
      "Ġě Ğ",
      "! Ĝ",
      "ĠĞĞ \"",
      "% %",
      "Ġ Ē",
      "ĀĀĜ Ā",
      "Ġğ\" Ğ",
      "Ġ#\" ğ",
      "Ġ# $",
      "ĠĞĝ !",
      "Ġě ğ",
      "Ġĝğ ğ",
      "% Ĝ",
      "Ġ\"! \"",
      "ĀĀ# Ā",
      "Ġ\"ğ \"",
      "Ġ#! !",
      "' Ğ",
      "ĠĝĞ !",
      "Ġ\" Ĝ",
      "ĠĞ! Ğ",
      "Ġğ #ğ",
      "! %",
      "Ě Ĝ",
      "Ğ $",
      "ĀĀ (",
      "Ġğ ě",
      "\" %",
      "ę ĝ",
      "ĠĞğ Ğ",
      "ĀĀ ė",
      "( !",
      "ę #",
      "Ğ Ĝ",
      "' #",
      "Ġĝ Ĝ",
      "Ġ#! Ğ",
      "Ġ!ĝ ğ",
      "Ę !",
      "Ġ\"Ğ Ğ",
      "Ġğĝ ğ",
      "Ġ\" #ğ",
      "Ġ!ĝ !",
      "\" Ĝ",
      "Ę ğ",
      "ğ $",
      "Ġ! %",
      "Ġĝ $",
      "Ġ$ ĝ",
      "ĠĜ ĝ",
      "# Ĝ",
      "Ġğğ ĝ",
      "! ě",
      "Ġ Ā!",
      "ĀĀě Ā",
      "ĠĠĠĠĠĠĠĠ ĠĠĠĠĠĠĠ",
      "Ġ#ğ Ğ",
      "Ġ /",
      "ğ Ĝ",
      "ĀĀğ Āğ",
      "Ġĝğ \"",
      "( \"",
      "ě %",
      "Ġ! #!",
      "( ğ",
      "Ę Ğ",
      "Ġ\"! ĝ",
      "Ġ#ğ !",
      "Ġ# Ĝ",
      "Ġ ĀĞ",
      "Ġ!ğ #",
      "ĠĞğ #",
      "# %",
      "& &",
      "ĀĀ )",
      "' $",
      "Ě $",
      "ĠĞ\" \"",
      "ĠğĞ #",
      "Ġě !",
      "Ġĝ! ğ",
      "Ġĝ! \"",
      "Ğ %",
      "Ġ Āğ",
      "ĀĀ ĕ",
      "ĀĀğ Ā!",
      "ĀĀ$ Ā",
      "Ę ĝ",
      "ĀĀ Ė",
      "ĀĀğ ĀĞ",
      "Ġ!# Ğ",
      "Ġğ #!",
      "ĀĀ% Ā",
      "Ġğ\" #",
      "Ġ!Ğ ĝ",
      "Ġğ %",
      "ĠĠĠĠĠĠĠĠ ĠĠĠĠĠĠĠĠĠĠ",
      "ĠĞ! #",
      "Ġ!! #",
      "Ġ% !",
      "& Ĝ",
      "Ġ\"ğ ĝ",
      "Ě %",
      "ĝ %",
      "ĀĀĝ Ā!",
      "Ġ Āĝ",
      "Ġ! ě",
      "Ġğ! ĝ",
      "\" ě",
      "ĝ ě",
      "ĀĀĞ Āğ",
      "ĀĀ! Ā!",
      "ğ %",
      "ĀĀĞ Ā!",
      "# &",
      "Ġ$ $",
      "Ę \"",
      "ę Ĝ",
      "Ġğĝ \"",
      "Ġ% Ğ",
      "$ %",
      "Ġ Ā\"",
      "ĀĀ *",
      "ĀĀ! Āğ",
      "( #",
      "ė Ğ",
      "Ě ě",
      "Ĝ ě",
      "ĠĞ ě",
      "Ġ\"\" ĝ",
      ") !",
      "ĠĞ #!",
      "& %",
      "Ġ\" #!",
      "ĀĀğ Ā\"",
      "# ě",
      "Ġ!ĝ Ğ",
      "Ġ\"ĝ ğ",
      "Ĝ %",
      "Ġ đ",
      "Ġ# #ğ",
      "ĀĀĚ Ā",
      "ğ ě",
      "Ġ\" %",
      "ĠĞĞ Ğ",
      "ĀĀĞ ĀĞ",
      "ĀĀ! Ā\"",
      "ė !",
      "ę $",
      "ę ě",
      "Ġ!# \"",
      "Ġ#Ğ ğ",
      "ĀĀĞ Āĝ",
      "Ġ!\" ĝ",
      "' &",
      "Ġ#\" !",
      "\" &",
      "Ġ\" ě",
      "ĀĀĞ Ā\"",
      "ĠĞĝ ğ",
      ") ğ",
      "ĀĀ +",
      "Ġ!! Ĝ",
      "ĀĀğ ĀĜ",
      "Ġĝ\" !",
      "Ġ\"# Ğ",
      "' %",
      "( $",
      "Ġ\"\" \"",
      "ĀĀĝ Āğ",
      "' ĝ",
      "Ġ#\" Ğ",
      "ĠĝĞ \"",
      "ĠĝĞ ğ",
      "Ġ$! ğ",
      "Ę #",
      "ĠĠĠĠĠĠĠĠ ĠĠĠĠĠĠĠĠĠĠĠĠ",
      "ĀĀ! ĀĞ",
      "ė ğ",
      "ĠĜ! !",
      "ę %",
      "ĀĀğ Āĝ",
      "Ġğ# \"",
      "Ġğ# Ğ",
      ", ĀĀ",
      "Ġğĝ Ğ",
      "Ġĝĝ !",
      "ĠĜğ !",
      "ĠĜ #",
      "( Ğ",
      "Ġ!ğ Ĝ",
      "Ġ#Ğ Ğ",
      "Ġ\"Ğ \"",
      "Ġ!ĝ \"",
      "ĀĀĜ Ā!",
      "! &",
      "ė \"",
      "Ġ\"Ğ ĝ",
      "ĀĀĝ Ā\"",
      "Ġ$ğ ğ",
      "$ Ĝ",
      "Ę Ĝ",
      "ĀĀ ,",
      "ĀĀ -",
      "ĠĞ\" #",
      "* !",
      "Ğ ě",
      "ĠĞ %",
      "ĠĠĠĠĠĠĠĠ ĠĠĠĠĠĠĠĠĠĠĠ",
      "Ġ\"ĝ !",
      "\" Ě",
      "( %",
      "Ġ 0",
      "Ġ! $ğ",
      "ĀĀ\" Āĝ",
      "Ġě ĝ",
      "ĀĀĝ Āĝ",
      "ğ Ě",
      "ĀĀ! Āĝ",
      "Ġĝĝ ğ",
      "' Ĝ",
      "Ğ &",
      "Ġ!Ğ #",
      "ĠĞ\" Ğ",
      "Ġ#! ĝ",
      "Ĝ Ě",
      "ĀĀ Ĕ",
      "ĠĞĝ \"",
      "( ĝ",
      "Ġ#Ğ !",
      "Ā *",
      "ę Ě",
      "Ġ# %",
      "Ġğ! $",
      "ĀĀ\" Āğ",
      "$ &",
      "$ ě",
      "Ā Ė",
      "Ġĝ #!",
      "& ě",
      "ĠĞĞ #",
      "! Ě",
      "Ġĝ ě",
      "Ġě \"",
      "Ġĝğ Ğ",
      "ĀĀ\" ĀĞ",
      "Ę $",
      "Ġğ $ğ",
      "Ġğğ $",
      "Ġ\"! Ĝ",
      "ĠĞ #ğ",
      "ĠğĞ ĝ",
      "Ġĝ\" ğ",
      ") \"",
      "ĝ &",
      "Ġğ Ĝ!",
      "ĠĜ Ĝ",
      "Ġ% \"",
      "Ğ Ě",
      "ğ &",
      "Ġ\"! #",
      "ĀĀ! ĀĜ",
      "Ę ě",
      "Ġ Đ",
      "Ġ\" $ğ",
      "Ġğ\" ĝ",
      "Ġ$\" ğ",
      "ĀĀ\" Ā!",
      "Ė !",
      "# Ě",
      ") $",
      "Ġ!\" #",
      "' '",
      "ė ĝ",
      "ĝ Ě",
      "Ġ ĀĜ",
      "ĠĞ! $",
      "Ġ\"ĝ Ğ",
      "ĠĜğ \"",
      "Ĝ &",
      "ĠĞğ $",
      "Ġ\"ğ Ĝ",
      "ĠĞ! ĝ",
      "Ġ#! \"",
      "ğ '",
      "Ġ Āě",
      "ĀĀ ē",
      "Ġ$ Ğğ",
      "ĠĞğ ĝ",
      "ĀĀğ Ā#",
      "ě &",
      "Ġĝğ #",
      "Ġ#ğ \"",
      "Ġ$! Ğ",
      "( &",
      "Ā +",
      "Ě &",
      "ĀĀ /",
      "Ğ ę",
      "Ġğ $!",
      "ĠĞ #\"",
      "Ġ\"ğ #",
      "Ġ!# ĝ",
      "Ė ğ",
      "ę &",
      "Ě Ě",
      "ě Ě",
      "ĠĜ Ğ!",
      "Ġ$! !",
      "Ġ#ğ ĝ",
      "Ġĝ\" \"",
      "Ġĝĝ \"",
      "Ġ! Ĝ!",
      "ĀĀ Ē",
      "ĀĀĝ ĀĞ",
      "ĀĀĝ ĀĜ",
      "Ā ,",
      "Ġğ Ĝğ",
      "ĀĀ# Ā!",
      "Ġ$\" !",
      ") #",
      "Ġ Ā#",
      "Ġ Ā$",
      "Ġ! Ĝğ",
      "ĀĀ\" ĀĜ",
      "ĀĀĜ Āğ",
      "Ġ#Ğ ĝ",
      "Ġ# #!",
      "Ġĝ! #",
      "ĀĀ\" Ā\"",
      "Ġ\"ĝ \"",
      "ė Ĝ",
      "Ġ!ĝ ĝ",
      "ĀĀĜ Ā\"",
      "\" '",
      "ę ę",
      "Ġě #",
      "ĀĀ# Āğ",
      "Ġ\"# \"",
      "Ġ\"# ĝ",
      "Ė ĝ",
      "Ġ! $!",
      "Ġ# ě",
      "Ġ% #",
      "ĠĞĝ Ğ",
      "ĠĜ\" !",
      "' ě",
      "ė #",
      "ĠĞ Ĝ!",
      "ĀĀ .",
      "Ġ% ĝ",
      "Ġ!ğ $",
      "ĠĚ ğ",
      "ĀĀĞ ĀĜ",
      "ĀĀ# Ā\"",
      "% &",
      "Ę Ě",
      "Ġ! &",
      "ĠĜ $",
      "Ġğğ Ĝ",
      "Ġ% $",
      "ĀĀ! Ā#",
      "Ġĝ! Ğ",
      "ĠĜğ ğ",
      "ĠĜ! ğ",
      "Ė Ğ",
      "ĀĀ# Āĝ",
      "Ġ$\" Ğ",
      "* #",
      "Ę %",
      "Ġ 1",
      "Ġ! Ě",
      "Ġ$ Ĝ",
      "ĀĀğ Ā%",
      "ĀĀĞ Ā#",
      "ĀĀĞ Āě",
      "Ġğ# #",
      "Ġğ Ě",
      "Ġ\" Ĝğ",
      "ĀĀĞ Ā%",
      "ĠĜ! \"",
      "% ě",
      "Ġ# #Ğ",
      "ĠĠĠĠĠĠĠĠ ĠĠĠĠĠĠ",
      "ĠĞ\" ĝ",
      "ĀĀ! Ā$",
      "Ġ#\" \"",
      "ĠĝĞ #",
      "ĀĀĜ Āĝ",
      "Ġ$ğ Ğ",
      "( '",
      "Ė ě",
      "Ę ę",
      "Ĝ ę",
      "ĀĀ đ",
      "Ġ& !",
      "ĀĀ! Āě",
      "Ġĝ! $",
      "& '",
      ") %",
      "Ġğ $\"",
      "Ġ\" Ĝ!",
      "ĠĜ Ğ\"",
      "Ġğ! %",
      "Ġğ! Ĝ",
      "ĠĞĞ ĝ",
      "ĀĀğ Ā$",
      "ĀĀğ Āě",
      "ĀĀĜ ĀĞ",
      ") Ğ",
      "* \"",
      "ė ě",
      "ĠĞ #Ğ",
      "Ġ#\" ĝ",
      "Ġğ# ĝ",
      "Ġĝ\" #",
      "Ġ$ğ !",
      "Ġ#ĝ !",
      "Ġ!! $",
      "ĠĚ !",
      "ĀĀğ ĀĚ",
      "ĀĀĚ Ā!",
      "ĠĠĠĠĠĠĠĠĠĠĠĠĠĠĠĠ ĠĠĠĠĠĠĠĠĠĠĠĠĠĠĠĠ",
      "* ğ",
      "ĕ !",
      "Ġ$ Ğ!",
      "Ġ#Ğ \"",
      "ĀĀ% Āğ",
      "Ġ#ĝ ğ",
      "# (",
      "% '",
      "ė Ě",
      "Ě ę",
      "Ğ '",
      "Ġ!\" Ĝ",
      "Ġ#ğ Ĝ",
      "ĀĀĝ Ā#",
      "Ġ\"ĝ ĝ",
      "ĠĞ $!",
      "ĠĞ Ĝğ",
      "ĠĜ Ğğ",
      "Ġ\"Ğ #",
      "Ġğĝ #",
      "ĀĀ# ĀĞ",
      "* $",
      "Ġğ Ĝ\"",
      "Ġğ\" $",
      "ĀĀě Āğ",
      "ĀĀě Ā\"",
      "+ !",
      "ğ ę",
      "ĀĀĞ Ā$",
      "Ġ!ĝ #",
      "ĀĀ\" Ā$",
      "ĀĀ$ ĀĞ",
      "( Ĝ",
      "ĝ ę",
      "Ġĝ #\"",
      "Ġ$ %",
      "Ġ!! ě",
      "ĠĞĝ #",
      "ě '",
      "Ġğ &",
      "Ġ! $Ğ",
      "Ġ\" $Ğ",
      "Ġ$ ĞĞ",
      "Ġě Ĝ",
      "ĠğĞ $",
      "Ġ\"Ğ Ĝ",
      "ĠĝĞ Ğ",
      "ĀĀĚ Āğ",
      "Ġ#ĝ Ğ",
      ") &",
      "Ā -",
      "Ġ\" Ě",
      "ĠĜ ĝğ",
      "ĠğĞ Ĝ",
      "Ġ#! Ĝ",
      "ĀĀ$ Āğ",
      "ĀĀě Ā!",
      "ĠĜ\" \"",
      "! '",
      "Ġğ $Ğ",
      "Ġ& \"",
      "Ġ!Ğ Ĝ",
      "ĀĀ! Ā%",
      "Ġĝ\" Ğ",
      "Ā ĕ",
      "ĝ '",
      "Ġ ď",
      "Ġ ĀĚ",
      "Ġĝ #ğ",
      "Ġ$ #ğ",
      "Ġ\"\" #",
      "ĀĀ$ Ā\"",
      "Ġĝĝ Ğ",
      "Ĝ '",
      "ĠĞ Ĝ\"",
      "Ġ\" ĜĞ",
      "Ġ# $ğ",
      "Ġ# $Ğ",
      "Ġ$ #!",
      "ĀĀ$ Ā!",
      "# '",
      "& (",
      ") '",
      "ğ Ę",
      "Ġ! Ĝ\"",
      "Ġĝ %",
      "Ġĝ Ĝ!",
      "Ġ# $!",
      "Ġ#! #",
      "ĀĀ\" Ā%",
      "ĀĀ# ĀĜ",
      "ĠĜ\" ğ",
      "\" ę",
      "Ġ! $\"",
      "ĀĀ\" Ā#",
      "ĀĀ$ Āĝ",
      "* (",
      "ė $",
      "ė ę",
      "Ğ (",
      "ĀĀĞ Ā&",
      "Ġğĝ ĝ",
      "ĀĀ% Ā\"",
      "! ę",
      ") )",
      "Ā Ĕ",
      "Ė \"",
      "ě ę",
      "Ġ 2",
      "Ġ# #\"",
      "Ġğ\" Ĝ",
      "ĀĀ! ĀĚ",
      "ĀĀ# Ā$",
      ") (",
      ") ĝ",
      "Ę &",
      "Ġĝ Ĝğ",
      "Ġ# #ĝ",
      "Ġ!# #",
      "ĠĜ! Ğ",
      "+ \"",
      "Ġ\" &",
      "Ġ% !ğ",
      "ĠĚ Ğ",
      "Ġ\"ğ ě",
      "Ġ$ğ ĝ",
      "Ġ$! ĝ",
      "ĕ ĝ",
      "Ė Ě",
      "Ę '",
      "Ġ Ā&",
      "ĠĞ $ğ",
      "Ġ$ ě",
      "Ġě !!",
      "Ġ& $",
      "ĀĀĝ Āě",
      "ĀĀ\" ĀĚ",
      "Ġ$ğ \"",
      "ĠĜğ #",
      "% Ě",
      "* Ğ",
      "- ĀĀ",
      "ĕ Ĝ",
      "Ė Ĝ",
      "Ġ Āę",
      "Ġğ ĜĞ",
      "Ġ! '",
      "ĠĞ Ě",
      "ĠĜ ě",
      "Ġ!ğ ě",
      "ĀĀ\" Āě",
      "ĀĀĜ ĀĜ",
      "ĀĀ% ĀĞ",
      "Ġ$\" ĝ",
      "ĠĞ# #",
      "$ '",
      "' Ā",
      "ĕ ğ",
      "ě ĀĀ",
      "Ġĝ $!",
      "Ġ$ #Ğ",
      "Ġě ğ\"",
      "Ġ\"ğ $",
      "Ġ\"\" Ĝ",
      "ĀĀğ Āę",
      "ĀĀ# Ā#",
      "Ġĝ\" $",
      "ĀĀě ĀĞ",
      "! (",
      "% ę",
      "ĕ Ğ",
      "Ġ! ĜĞ",
      "Ġ! Ĝĝ",
      "ĀĀĜ Ā#",
      "\" (",
      "* &",
      "Ę ĀĀ",
      "ĠĞ $Ğ",
      "ĠĜ ĝ!",
      "Ġě ğğ",
      "Ġ\"! ě",
      "Ġĝ! ĝ",
      "ĕ #",
      "ę ĀĀ",
      "Ġ! ěğ",
      "Ġ! $ĝ",
      "Ġ% \"ğ",
      "Ġ#ğ #",
      "ĀĀĝ Ā$",
      "Ġ#\" #",
      "ĀĀĜ Āě",
      "Ġ$! \"",
      "ĠĜ\" #",
      "$ Ě",
      "Ġ! %ğ",
      "Ġ# &",
      "Ġ# Ĝ!",
      "Ġğğ %",
      "Ġě Ğğ",
      "ĠĞĞ $",
      "ĠĞ\" $",
      "ĀĀ% Ā!",
      "Ġ#ĝ \"",
      "$ ę",
      "* %",
      "Ā #ğ",
      "Ā #!",
      "Ġ!\" $",
      "Ġ#\" Ĝ",
      "ĀĀě Āĝ",
      "ĀĀě ĀĜ",
      "ĠĞ# ĝ",
      "Ĝ Ę",
      "ĝ Ę",
      "Ġ\" $!",
      "Ġ\" $\"",
      "Ġĝ #Ğ",
      "Ġ$ $Ğ",
      "Ġ% Ĝ",
      "Ġ& Ğ",
      "Ġ!Ğ $",
      "Ġ!Ğ ě",
      "ĀĀĞ ĀĚ",
      "Ġĝğ ĝ",
      "Ġ!# Ĝ",
      "ĀĀĜ Ā$",
      "Ġĝ\" ĝ",
      "ĠĜğ Ğ",
      "! ĀĀ",
      "$ (",
      "+ %",
      "Ĕ Ĝ",
      "Ġ\" Ĝ\"",
      "Ġ$ &",
      "Ġ% ğ!",
      "ĀĀğ ĀĘ",
      "Ġĝğ $",
      "Ġ!ĝ Ĝ",
      "Ġ#ĝ ĝ",
      "+ #",
      "+ ğ",
      "Ė #",
      "ė %",
      "Ě '",
      "Ě (",
      "Ě Ę",
      "Ġ Ā%",
      "Ġ Ā'",
      "Ġ# Ĝğ",
      "ĠĜ Ĝ!",
      "ĠĚ \"",
      "Ġę !",
      "ĀĀ$ ĀĜ",
      "ĀĀ% Āĝ",
      "ĀĀĚ Āĝ",
      "* '",
      "ĕ \"",
      "Ė $",
      "Ġ! %Ğ",
      "Ġĝ Ĝ\"",
      "Ġě !ğ",
      "Ġ% Ğğ",
      "Ġ& ğ",
      "ĀĀ% Āě",
      "* ĝ",
      "Ĕ Ğ",
      "ė Ę",
      "Ġğ %!",
      "Ġğ $#",
      "Ġ! ě\"",
      "Ġ$ $ğ",
      "ĠĜ %",
      "ĠĜ ĝ\"",
      "Ġě ğ!",
      "Ġ% ğĞ",
      "Ġ\"! $",
      "ĀĀğ Ā&",
      "ĀĀ\" Āę",
      "Ġğ# Ĝ",
      "ĀĀ$ Ā#",
      "Ā .",
      "Ĕ ğ",
      "ĀĀ Đ",
      "Ġě $",
      "ĠĚ #",
      "ĠĚ ĝ",
      "ĠĞğ Ĝ",
      "Ġ' !",
      "Ġę Ğ",
      "Ġğĝ $",
      "ĀĀě Ā$",
      "ĠĜ! #",
      "\" Ę",
      "( ě",
      "+ &",
      "ĝ (",
      "Ġ Ď",
      "ĠĞ &",
      "ĠĜ #!",
      "Ġě Ğ!",
      "Ġ% ğğ",
      "ĠĞğ %",
      "ĀĀğ Ā'",
      "ĀĀĝ Ā%",
      "ĀĀ$ Āě",
      "ĀĀě Ā#",
      "Ġ$Ğ ĝ",
      "Ġğ %Ğ",
      "Ġğğ ě",
      "Ġě Ğ\"",
      "Ġ% \"Ğ",
      "ĠĞ! Ĝ",
      "Ġğ\" ě",
      "ĀĀ% Ā$",
      "ĀĀĚ ĀĞ",
      "\" )",
      "+ '",
      "ĕ Ě",
      "ĕ ě",
      "ė &",
      "Ę Ę",
      "Ġĝ Ě",
      "Ġ# ĜĞ",
      "Ġ$ ĝğ",
      "ĠĜ #ğ",
      "Ġ% !!",
      "Ġ& ĝ",
      "ĀĀĞ Āę",
      "Ġ#Ğ Ĝ",
      "Ġ$ğ #",
      "Ġĝĝ #",
      "' (",
      "+ $",
      "Ě ĀĀ",
      "ě (",
      "ĝ )",
      "Ġğ %ğ",
      "Ġğ Ĝĝ",
      "Ġ! $#",
      "ĠĚ Ĝ",
      "Ġ' \"",
      "ĠĞĞ Ĝ",
      "ĠĞ\" Ĝ",
      "ĀĀĝ Ā&",
      "ĀĀ% Ā#",
      "#ĀĀ )",
      "ĠĜĞ #",
      "% (",
      "' ę",
      "' Ě",
      ", #",
      ". ĀĀ",
      "Ė ę",
      "Ġğ ě!",
      "Ġğ Ĝ#",
      "Ġ! %\"",
      "ĠĞ $\"",
      "ĠĞ ĜĞ",
      "Ġ\" $ĝ",
      "Ġ\" %Ğ",
      "Ġĝ ##",
      "ĠĜ Ě",
      "Ġě ĝ\"",
      "Ġ\"\" $",
      "ĀĀ! Ā&",
      "ĀĀĜ Ā%",
      "Ġ\"# #",
      "ĀĀĚ Ā\"",
      "Ġ$\" Ĝ",
      "Ġ#ĝ Ĝ",
      "$ĀĀ ę",
      "(ĀĀ &",
      "$ Ę",
      "ė ĀĀ",
      "Ġ! ě!",
      "ĠĞ ěğ",
      "Ġ$ ĝ!",
      "Ġ$ #ĝ",
      "Ġ% #Ğ",
      "Ġ% ğĝ",
      "Ġğ! ě",
      "Ġę ğ",
      "ĀĀĞ Ā'",
      "ĠĞĝ ĝ",
      "ĠĝĞ ĝ",
      "ĀĀ# Ā&",
      "Ġ$ğ Ĝ",
      "ĠĜğ $",
      "# ę",
      "Ę ė",
      "ĠĞ $#",
      "Ġ\" ě!",
      "Ġ$ Ğ\"",
      "Ġ$ %ğ",
      "Ġě ě",
      "Ġ% #ğ",
      "Ġ% !ĝ",
      "Ġ& #",
      "Ġ' ğ",
      "ĀĀĜ ĀĚ",
      "ĀĀ# Āě",
      "ĠĠĠĠĠĠĠĠĠĠĠĠ ĠĠĠĠĠ",
      "Ġ\"# Ĝ",
      "ĀĀĚ Ā$",
      "$ĀĀ &",
      "ĀĀ& Ā",
      "Ĕ \"",
      "Ğ Ę",
      "ğ (",
      "Ġ ĀĘ",
      "Ġ! Ĝ#",
      "ĠĞ ě!",
      "Ġ\" ěğ",
      "Ġ# $ĝ",
      "ĠĜ Ĝ\"",
      "Ġ!! %",
      "Ġě \"ğ",
      "ĀĀĞ ĀĘ",
      "ĀĀĝ Ā'",
      "ĀĀ\" Ā&",
      "ĀĀĜ Ā&",
      "ĀĀ# Ā%",
      "Ġ\"ĝ #",
      "Ġĝĝ ĝ",
      "Ġ$! Ĝ",
      "ĀĀ% ĀĜ",
      "ĀĀĚ Ā#",
      "Ġ$\" \"",
      "#ĀĀ &",
      "%ĀĀ &",
      "ĠĞ# $",
      "Ġğ ěğ",
      "Ġ\" %ğ",
      "Ġ% !Ğ",
      "ĀĀ! Āę",
      "ĀĀĝ ĀĚ",
      "Ġğ# $",
      "ĀĀ# ĀĚ",
      "ĀĀ# Āę",
      "ĀĀě Ā%",
      "ĠĜ\" Ğ",
      "&ĀĀ &",
      "ĠĠĠĠĠĠĠĠĠĠĠĠĠĠĠĠĠĠĠĠ ĠĠĠĠĠ",
      "Ĕ ě",
      "ė ė",
      "ě Ę",
      "Ĝ (",
      "Ĝ ė",
      "Ğ )",
      "ĠĜ #\"",
      "Ġě ĝ!",
      "Ġě !\"",
      "Ġ% Ğ!",
      "Ġę #",
      "ĀĀ! ĀĘ",
      "Ġğĝ Ĝ",
      "ĀĀ\" ĀĘ",
      "ĀĀ$ Ā%",
      "ĠĜğ ĝ",
      ") Ĝ",
      "+ Ğ",
      ", !",
      "ē ĝ",
      "ę '",
      "Ğ *",
      "ğ )",
      "Ġğ '",
      "ĠĞ ě\"",
      "Ġĝ &",
      "Ġ$ ĝĞ",
      "Ġě \"\"",
      "Ġ% #!",
      "Ġ\"Ğ $",
      "ĀĀ# ĀĘ",
      "Ġ#Ğ #",
      "Ġ\"ĝ Ĝ",
      "ĀĀ% ĀĚ",
      "%ĀĀ ę",
      "'ĀĀ &",
      "ĠĠĠĠĠĠĠĠĠĠĠĠĠĠĠĠ ĠĠĠĠĠĠ",
      "( (",
      "( Ā",
      "( Ě",
      "Ė %",
      "Ė ĀĀ",
      "Ĝ ĕ",
      "ĠĞ ěĞ",
      "Ġ$ $!",
      "ĠĜ ĞĞ",
      "ĠĜ ĝĞ",
      "Ġ% $ğ",
      "Ġ% ĞĞ",
      "Ġ& ğğ",
      "Ġ' Ğ",
      "ĠĞ! %",
      "Ġ\"Ğ ě",
      "ĀĀ! Ā'",
      "Ġ!# $",
      "ĠĞĝ $",
      "Ġ\"ĝ $",
      "ĀĀ$ Ā&",
      "ĀĀĚ Ā%",
      "Ġ\"$ Ĝ",
      "ē !",
      "Ĕ #",
      "Ĕ ĝ",
      "Ġğ ę",
      "Ġğ %\"",
      "Ġ\" $#",
      "Ġĝ ě\"",
      "Ġĝ Ĝ#",
      "Ġ# Ĝ\"",
      "Ġě !#",
      "Ġ% \"!",
      "Ġ& ğ!",
      "Ġ' #",
      "Ġğ\" %",
      "ĀĀĞ Āė",
      "ĀĀ$ ĀĚ",
      "ĠĜ\" $",
      "ĠĠĠĠĠĠĠĠĠĠĠĠĠĠĠĠ ĠĠĠĠĠĠĠĠĠĠ",
      "! )",
      "# Ę",
      "ē Ğ",
      "ĕ $",
      "Ě ė",
      "Ġ\" ę",
      "Ġğğ &",
      "Ġě \"!",
      "Ġě ğĞ",
      "Ġ!\" ě",
      "Ġę \"",
      "Ġę ĝ",
      "ĠĞ\" %",
      "Ġĝ! %",
      "ĀĀě Ā&",
      "ĠĜ! $",
      "# )",
      "' )",
      "Ė &",
      "Ė ė",
      "ę Ā",
      "Ě )",
      "Ġ! %!",
      "Ġ\" '",
      "Ġĝ $ğ",
      "Ġě %",
      "Ġě Ĝ!",
      "ĠĚ Ğ!",
      "ĠĘ !",
      "Ġ#! ě",
      "Ġĝğ Ĝ",
      "ĀĀ$ Āę",
      "ĀĀě Āě",
      "ĀĀĚ Āě",
      "ĠĜĞ ĝ",
      "ĀĀ' Ā",
      "$ )",
      "& )",
      "( )",
      "( ę",
      ", ğ",
      "Ĕ !",
      "Ė Ę",
      "Ę Ā",
      "Ġğ $ĝ",
      "Ġ! ěĞ",
      "Ġ! %ĝ",
      "ĠĞ Ĝ#",
      "Ġĝ ę",
      "Ġĝ $\"",
      "Ġĝ ĜĞ",
      "Ġĝ %ğ",
      "Ġ# '",
      "Ġ# ěğ",
      "Ġ# %!",
      "ĠĜ Ĝğ",
      "ĠĜ ĝ#",
      "Ġ% %",
      "Ġ!ğ %",
      "Ġ& Ĝ",
      "Ġ& !ğ",
      "ĠĞğ ě",
      "Ġ!\" %",
      "ĀĀğ Ā(",
      "Ġ!ĝ ě",
      "ĀĀĚ Ā&",
      "Ġ$\" #",
      ")ĀĀ &",
      "& ę",
      "* ě",
      "ė Ė",
      "Ġğ ěĞ",
      "Ġ! Ě!",
      "ĠĞ '",
      "ĠĞ %ğ",
      "Ġ\" %!",
      "Ġĝ #ĝ",
      "Ġě ĝ#",
      "Ġ% ĝğ",
      "Ġ& %",
      "ĠĚ Ğ\"",
      "ĠĚ ğ\"",
      "Ġ\"! Ě",
      "ĠĞ! ě",
      "Ġ( !",
      "ĠĘ ğ",
      "ĀĀğ Āė",
      "ĀĀĞ Ā(",
      "Ġ#ğ ě",
      "ĀĀ$ ĀĘ",
      "Ġ$ğ ě",
      "ĀĀĚ ĀĜ",
      "&ĀĀ '",
      "ĀĀ( Ā",
      "\" ė",
      "* Ĝ",
      ", $",
      "Ę Āğ",
      "ę Ė",
      "ě ė",
      "ĝ Ė",
      "ĝ ė",
      "Ğ ĕ",
      "Ğ ė",
      "ğ ė",
      "ĠĞ Ěğ",
      "Ġ# Ě",
      "Ġ# $\"",
      "Ġ$ $\"",
      "ĠĜ $!",
      "ĠĜ ĜĞ",
      "ĠĜ ĝĝ",
      "Ġě !Ğ",
      "Ġě ğ#",
      "Ġ% &",
      "ĠğĞ %",
      "ĠğĞ ě",
      "Ġ!Ğ %",
      "Ġ#! $",
      "ĠĝĞ $",
      "ĀĀ$ Ā$",
      "ĀĀĚ Āę",
      "Ġ## Ĝ",
      "ĀĀę Ā",
      "$ Ė",
      "ē ğ",
      "ĕ ĀĀ",
      "ę Āğ",
      "ě Ė",
      "Ĝ Ė",
      "ğ *",
      "Ġ Ā(",
      "Ġğ ě\"",
      "Ġğ %ĝ",
      "Ġ! $$",
      "ĠĞ ę",
      "Ġ\" %\"",
      "ĀĀ Ď",
      "Ġ$ Ĝ!",
      "ĠĜ ěğ",
      "Ġě ĞĞ",
      "Ġě \"ĝ",
      "Ġ% $Ğ",
      "Ġ% ĝĞ",
      "Ġ!ğ Ě",
      "Ġ( \"",
      "ĠĘ ĝ",
      "Ġĝ! Ĝ",
      "ĀĀĝ ĀĘ",
      "ĠĞĝ Ĝ",
      "Ġ#Ğ ě",
      "Ġĝ\" Ĝ",
      "Ġĝĝ $",
      "ĠĀĀ )",
      "\" *",
      "% )",
      "% Ę",
      "' *",
      ") ě",
      "+ ĝ",
      ", \"",
      "- \"",
      "Ġ 3",
      "Ġ! ę",
      "Ġ! &ğ",
      "Ġ\" (",
      "Ġ\" ě\"",
      "Ġ# %Ğ",
      "Ġ$ #\"",
      "Ġ$ ĜĞ",
      "Ġ$ ěğ",
      "Ġ$ $ĝ",
      "ĠĜ &",
      "ĠĜ ##",
      "Ġ!! Ě",
      "Ġ% \"\"",
      "Ġ\"\" ě",
      "ĠĞĞ %",
      "ĀĀě ĀĚ",
      "ĀĀě Ā'",
      "%ĀĀ ė",
      "Ġ$Ğ Ĝ",
      "Ġ%ğ Ĝ",
      "! +",
      "! Ę",
      ", (",
      "Ĕ ĀĀ",
      "ĕ Ę",
      "ę (",
      "ę Ā!",
      "ğ +",
      "Ġ 4",
      "ĠĞ %!",
      "ĠĞ $ĝ",
      "Ġ$ Ĝğ",
      "Ġ$ %!",
      "Ġ$ Ĝĝ",
      "Ġ% #ĝ",
      "Ġ& #ğ",
      "Ġ& ğĞ",
      "Ġ( #",
      "ĀĀĝ Āė",
      "Ġ#ĝ #",
      "#ĀĀ (",
      "#ĀĀ +",
      "ĠĀĀ *",
      "%ĀĀ Ė",
      "'ĀĀ '",
      ")ĀĀ )",
      "*ĀĀ '",
      "Ġ!Ĝ Ĝ",
      "Ġ$# Ĝ",
      "! ė",
      "\" +",
      "# ė",
      ", %",
      ", &",
      "- %",
      "Ğ Ė",
      "Ġ! ěĝ",
      "Ġ\" &ğ",
      "Ġĝ $#",
      "Ġ# %\"",
      "ĠĜ $ğ",
      "Ġě Ĝğ",
      "Ġğ! &",
      "Ġ& Ğğ",
      "Ġ& \"!",
      "Ġ& \"ğ",
      "ĠĚ $",
      "ĠĚ Ğğ",
      "ĀĀ! Ā(",
      "ĀĀĝ Āę",
      "ĀĀ\" Ā'",
      "ĀĀĜ Ā(",
      "ĀĀ# Āė",
      "Ġĝ\" %",
      "ĀĀ% Āę",
      "ĠĜ\" ĝ",
      "ĠĀĀ +",
      "&ĀĀ Ę",
      "ĠĠĠĠĠĠĠĠĠĠĠĠĠĠĠĠ ĠĠĠĠĠĠĠĠĠĠĠ",
      ", ĝ",
      "Ā ē",
      "Ē !",
      "Ĕ Ě",
      "ė '",
      "ę Ę",
      "Ě *",
      "ğ ĕ",
      "Ġğ ě#",
      "Ġğ &Ğ",
      "Ġ! Ěğ",
      "Ġ\" ĀĀ",
      "Ġ\" ĜĜ",
      "Ġĝ $Ğ",
      "Ġĝ ě!",
      "Ġĝ Ĝĝ",
      "Ġĝ %\"",
      "Ġ# %ğ",
      "Ġ# $#",
      "Ġ$ Ě",
      "ĠĜ $\"",
      "Ġě #ğ",
      "Ġě #!",
      "Ġě ĝĞ",
      "Ġě \"#",
      "Ġ% ě",
      "Ġ% Ĝ!",
      "Ġ% ĝ!",
      "Ġ& Ğ!",
      "ĠĞĞ ě",
      "ĀĀĞ Ā)",
      "Ġĝğ %",
      "ĀĀ! Āė",
      "Ġ#ğ $",
      "Ġ!ĝ $",
      "Ġĝĝ %",
      "ĀĀ% ĀĘ",
      "#ĀĀ ė",
      "$ĀĀ )",
      "ĠĀĀ &",
      "ĠĀĀ (",
      "%ĀĀ *",
      "+ (",
      "- '",
      "- (",
      "Ē ğ",
      "Ė '",
      "ę ė",
      "ě )",
      "ĝ *",
      "Ġğ ĚĞ",
      "ĠĞ Ĝĝ",
      "ĠĞ %Ğ",
      "Ġ\" Ĝ#",
      "Ġ\" ěĞ",
      "Ġ\" Ěğ",
      "Ġ# ĀĀ",
      "Ġ$ ĝ\"",
      "ĠĜ Ĝ#",
      "Ġě ĜĞ",
      "Ġě Ğ#",
      "Ġ% $!",
      "Ġ% \"ĝ",
      "Ġ% Ğĝ",
      "Ġ% !Ĝ",
      "ĠĚ ĝğ",
      "ĠĝĞ Ĝ",
      "ĀĀĜ Āę",
      "ĀĀĜ ĀĘ",
      "Ġ$! #",
      "ĀĀ% Ā&",
      "ĠĀĀ '",
      "ĠĀĀ -",
      "%ĀĀ Ę",
      "ĠğĜ $",
      "ĠğĜ Ĝ",
      "Ġĝ# $",
      "ĀĀ& Ā!",
      ", Ā",
      ", Ğ",
      "- !",
      "Ę Ė",
      "Ĝ )",
      "Ġ! Ě\"",
      "Ġ! ěĜ",
      "ĠĞ %\"",
      "ĠĞ ěĝ",
      "ĠĞ $$",
      "ĠĞ %ĝ",
      "Ġ\" Ĝĝ",
      "Ġ# ##",
      "Ġ# %ĝ",
      "Ġ$ ě!",
      "Ġ$ ##",
      "Ġ$ ĝĝ",
      "ĠĜ #Ğ",
      "ĠĜ %!",
      "Ġě Ĝ\"",
      "Ġě \"Ğ",
      "Ġě !$",
      "Ġ% Ě",
      "Ġ& !Ğ",
      "Ġ& !ĝ",
      "ĠĚ ě",
      "ĠĚ ğğ",
      "Ġ\"Ğ %",
      "ĀĀ\" Āė",
      "ĠĞĝ %",
      "Ġ$! $",
      "ĀĀĚ Ā'",
      "Ġ#ĝ ě",
      "$ĀĀ ė",
      "ĠĀĀ ė",
      "%ĀĀ (",
      "ĠĜĞ $",
      "ĠĞ$ Ĝ",
      "# *",
      "# ĕ",
      ". %",
      "ē Ę",
      "Ĕ %",
      "ė ĕ",
      "ğ Ė",
      "ğ ĀĀ",
      "Ġğ Ěğ",
      "Ġğ ěĝ",
      "Ġğ %$",
      "ĠĞ Ě!",
      "ĠĞ &ğ",
      "Ġ\" %#",
      "Ġĝ $ĝ",
      "Ġ# Ĝĝ",
      "Ġ# &ğ",
      "Ġ# ĜĜ",
      "Ġ$ Ĝ\"",
      "Ġ$ %Ğ",
      "Ġ$ Ěğ",
      "Ġ$ ĝĜ",
      "ĠĜ ě!",
      "Ġ!! &",
      "Ġ% ĝ\"",
      "Ġ% !\"",
      "Ġ% ğ\"",
      "Ġ& \"Ğ",
      "ĠĚ ğ!",
      "ĠĚ !!",
      "Ġ\"! %",
      "Ġ\"ğ %",
      "ĠĘ #",
      "ĀĀĝ Ā)",
      "Ġ!# %",
      "ĠĝĞ %",
      "Ġ\"ĝ ě",
      "ĠĜ! ĝ",
      "#ĀĀ '",
      "$ĀĀ (",
      "$ĀĀ *",
      "$ĀĀ ĕ",
      "&ĀĀ ė",
      "ĠĞ# Ĝ",
      "ĀĀĘ Ā",
      "Ġ#$ Ĝ",
      "ĀĀ#Ā Ė",
      "+ ě",
      "+ Ĝ",
      "- )",
      "- *",
      "/ ĀĀ",
      "Ē ĝ",
      "ē #",
      "ē ę",
      "ĕ ę",
      "Ę (",
      "ę Ā\"",
      "Ġ! &Ğ",
      "ĠĞ ě#",
      "ĠĞ ĜĜ",
      "Ġ\" ě#",
      "Ġ\" &Ğ",
      "Ġĝ (",
      "Ġĝ %!",
      "Ġ# Ĝ#",
      "ĠĜ ĝ$",
      "Ġě ĝğ",
      "Ġğ! Ě",
      "Ġ& &",
      "Ġ& #!",
      "ĠĚ &",
      "ĠĚ !ğ",
      "Ġ' Ĝ",
      "Ġ' ĝ",
      "Ġğĝ ě",
      "Ġ#ğ Ě",
      "ĀĀ\" Ā(",
      "Ġ!# ě",
      "ĀĀĜ Āė",
      "ĀĀ# Ā'",
      "ĀĀ% Ā%",
      "Ġ$\" $",
      "$ĀĀ '",
      "%ĀĀ '",
      "(ĀĀ (",
      "ĠğĜ ě",
      "ĠĜĞ %",
      "Ġ$Ğ ě",
      "+ĀĀ &",
      "ĀĀę Ā!",
      "! *",
      "\" Ė",
      "$ ė",
      "& Ě",
      "' ė",
      "( ĕ",
      ". ğ",
      "Ē Ě",
      "ē ě",
      "ē ĀĀ",
      "ĕ Ā",
      "Ę ĕ",
      "Ĝ +",
      "Ġ Ā)",
      "Ġğ Ě\"",
      "Ġğ $$",
      "Ġğ Ěĝ",
      "Ġ\" &!",
      "Ġ\" %ĝ",
      "Ġĝ '",
      "Ġĝ ěğ",
      "ĠĜ $#",
      "Ġ% Ĝğ",
      "Ġ% ĜĞ",
      "Ġ& #Ğ",
      "Ġ!\" Ě",
      "ĠĘ Ğ",
      "ĠĞ\" ě",
      "ĀĀ\" Ā)",
      "Ġ#\" ě",
      "ĠĞĝ ě",
      "ĀĀĜ Ā'",
      "ĀĀĜ Ā)",
      "ĀĀě Āę",
      "$ĀĀ ē",
      "(ĀĀ Ė",
      "Ġ!Ĝ $",
      "Ġ!$ Ĝ",
      "ĀĀę Āğ",
      "# Ė",
      ". !",
      "ē $",
      "ē Ě",
      "ĕ %",
      "Ė )",
      "ę ĀĞ",
      "Ġğ (",
      "Ġ! %#",
      "ĠĞ Ě\"",
      "ĠĞ &!",
      "Ġĝ Ěğ",
      "Ġ# Ěğ",
      "Ġ# Ě!",
      "Ġ$ ĝ#",
      "Ġě $ğ",
      "Ġě $!",
      "Ġě #\"",
      "Ġě Ĝ#",
      "Ġě ##",
      "Ġ% ĝĝ",
      "Ġ% !ě",
      "Ġ& ě",
      "Ġ& !!",
      "ĠĚ !\"",
      "ĠĚ \"Ğ",
      "ĠĞğ &",
      "Ġ( ğ",
      "Ġ\"\" Ě",
      "ĀĀğ Ā)",
      "Ġğ# ě",
      "Ġ\"# $",
      "Ġ#ĝ $",
      "$ĀĀ Ę",
      "&ĀĀ (",
      "ĠğĜ %",
      "Ġ$Ğ #",
      "\"ĀĀ &",
      "ĀĀ& Ā\"",
      "ĀĀę ĀĞ",
      "& ,",
      "* ę",
      ", '",
      ", )",
      ". &",
      "Ē Ğ",
      "ē Ĝ",
      "Ĕ ė",
      "ĕ '",
      "Ę )",
      "ę *",
      "ě ĕ",
      "Ġ 5",
      "Ġ Āė",
      "Ġğ &ĝ",
      "Ġ! Ę",
      "Ġ! &!",
      "Ġ\" ěĜ",
      "ĀĀ ď",
      "Ġĝ %Ğ",
      "Ġĝ &!",
      "Ġĝ ě#",
      "Ġ# Ę",
      "Ġ$ '",
      "Ġ$ $#",
      "Ġě #Ğ",
      "Ġě Ğĝ",
      "Ġ% #\"",
      "Ġ% Ğ\"",
      "Ġ% %ğ",
      "Ġ% &!",
      "Ġ& ĀĀ",
      "Ġ& $Ğ",
      "Ġ& ĝğ",
      "Ġ& ĞĞ",
      "ĠĚ !Ğ",
      "ĠĞğ Ě",
      "ĠğĞ Ě",
      "Ġ' !Ğ",
      "Ġę ě",
      "Ġę Ĝ",
      "Ġ!Ğ Ě",
      "Ġ( ĝ",
      "Ġğĝ %",
      "Ġ#\" $",
      "Ġ#\" %",
      "Ġ#Ğ $",
      "ĀĀ$ Ā(",
      "ĠĜ! %",
      "#ĀĀ Ė",
      "$ĀĀ +",
      "%ĀĀ +",
      "&ĀĀ )",
      "&ĀĀ *",
      "'ĀĀ (",
      "'ĀĀ *",
      "(ĀĀ '",
      "(ĀĀ )",
      "%\" ĀĀ",
      ")ĀĀ (",
      ")ĀĀ Ę",
      "ĜĀĀ ę",
      "ĞĀĀ &",
      "Ġğ$ Ĝ",
      "ĀĀ' Āğ",
      "Ġ$# ě",
      "ĠěĞ %",
      "\" ĕ",
      ") *",
      ") Ě",
      "+ +",
      ", *",
      "- &",
      "Ē ě",
      "Ĕ Ā",
      "ĕ Ā!",
      "Ė (",
      "Ĝ ē",
      "Ġğ %#",
      "Ġ! (",
      "Ġ! ĀĀ",
      "Ġ! %$",
      "ĠĞ Ę",
      "ĠĞ 'ğ",
      "Ġ\" Ě\"",
      "Ġ\" Ĝ$",
      "Ġĝ ěĞ",
      "Ġĝ Ě\"",
      "Ġ# ě!",
      "Ġ$ &!",
      "Ġ$ &ğ",
      "ĠĜ %Ğ",
      "ĠĜ Ě!",
      "Ġě \"$",
      "Ġ% ğ#",
      "Ġ& $ğ",
      "Ġ& Ğĝ",
      "Ġ& ğě",
      "ĠĚ %",
      "ĠĚ ĝ!",
      "ĠĚ \"#",
      "Ġ' \"!",
      "Ġ' !ğ",
      "Ġ( Ğ",
      "Ġ\"Ğ Ě",
      "ĠĞ\" &",
      "Ġ!ĝ Ě",
      "ĀĀĝ Ā(",
      "Ġğ# %",
      "ĀĀ$ Ā'",
      "ĠĜ\" %",
      ")ĀĀ '",
      "*ĀĀ )",
      "Ġ!Ĝ ě",
      "ĝĀĀ +",
      "Ġ## $",
      "\"ĀĀ (",
      "ĀĀ' Ā\"",
      "Ġěğ $",
      "ĀĀ) Ā",
      "Ġ%Ğ ě",
      "% ė",
      "+ *",
      "- #",
      "- ğ",
      "Ĕ &",
      "Ĕ Ę",
      "Ě +",
      "ğ ,",
      "Ġğ Ě!",
      "Ġğ &#",
      "ĠĞ ě$",
      "Ġ\" Ę",
      "Ġ\" ěĝ",
      "Ġ\" Ě!",
      "Ġ# (",
      "Ġ# ě\"",
      "Ġ# $$",
      "Ġ$ Ĝ#",
      "Ġ$ ěĝ",
      "ĠĜ ě\"",
      "Ġě !%",
      "Ġ% ěğ",
      "Ġ% !#",
      "Ġ% #Ĝ",
      "Ġ& $!",
      "Ġ& Ĝĝ",
      "Ġ& !\"",
      "Ġ& ğ\"",
      "Ġ& ğĝ",
      "Ġ' ğğ",
      "Ġę ğ!",
      "Ġ\"\" %",
      "Ġĝğ &",
      "Ġĝ! ě",
      "#! ĀĀ",
      "Ġğ# Ě",
      "Ġ$ğ $",
      "ĀĀĚ ĀĚ",
      "ĀĀĚ Ā(",
      "#ĀĀ *",
      "#ĀĀ ē",
      "#ĀĀ Ę",
      "ĠĜ\" Ĝ",
      "ĠĀĀ Ę",
      "'ĀĀ ė",
      "(ĀĀ Ę",
      "ĠĜĞ Ĝ",
      "*ĀĀ (",
      "ĝĀĀ '",
      "ĀĀĞĀ *",
      "ĀĀĞĀ Ė",
      "ĀĀĞĀ #ğ",
      "ĀĀĝĀ *",
      "ĠĞĜ ě",
      "ĀĀ& ĀĞ",
      "ĠĝĜ %"
    ]
  }
}