{
  "version": "1.0",
  "truncation": null,
  "padding": null,
  "added_tokens": [],
  "normalizer": null,
  "pre_tokenizer": {
    "type": "ByteLevel",
    "add_prefix_space": false,
    "trim_offsets": true,
    "use_regex": true
  },
  "post_processor": {
    "type": "ByteLevel",
    "add_prefix_space": true,
    "trim_offsets": false,
    "use_regex": true
  },
  "decoder": {
    "type": "ByteLevel",
    "add_prefix_space": true,
    "trim_offsets": true,
    "use_regex": true
  },
  "model": {
    "type": "BPE",
    "dropout": null,
    "unk_token": null,
    "continuing_subword_prefix": null,
    "end_of_word_suffix": null,
    "fuse_unk": false,
    "byte_fallback": false,
    "ignore_merges": false,
    "vocab": {
      "\u0000": 0,
      "\u0001": 1,
      "\u0002": 2,
      "\u0003": 3,
      "\u0004": 4,
      "\u0005": 5,
      "\u0006": 6,
      "\u0007": 7,
      "\b": 8,
      "\t": 9,
      "\n": 10,
      "\u000b": 11,
      "\f": 12,
      "\r": 13,
      "\u000e": 14,
      "\u000f": 15,
      "\u0010": 16,
      "\u0011": 17,
      "\u0012": 18,
      "\u0013": 19,
      "\u0014": 20,
      "\u0015": 21,
      "\u0016": 22,
      "\u0017": 23,
      "\u0018": 24,
      "\u0019": 25,
      "\u001a": 26,
      "\u001b": 27,
      "\u001c": 28,
      "\u001d": 29,
      "\u001e": 30,
      "\u001f": 31,
      " ": 32,
      "!": 33,
      "\"": 34,
      "#": 35,
      "$": 36,
      "%": 37,
      "&": 38,
      "'": 39,
      "(": 40,
      ")": 41,
      "*": 42,
      "+": 43,
      ",": 44,
      "-": 45,
      ".": 46,
      "/": 47,
      "0": 48,
      "1": 49,
      "2": 50,
      "3": 51,
      "4": 52,
      "5": 53,
      "6": 54,
      "7": 55,
      "8": 56,
      "9": 57,
      ":": 58,
      ";": 59,
      "<": 60,
      "=": 61,
      ">": 62,
      "?": 63,
      "@": 64,
      "Ā": 65,
      "Ć": 66,
      "ĉ": 67,
      "Ċ": 68,
      "ċ": 69,
      "Č": 70,
      "č": 71,
      "Ď": 72,
      "ď": 73,
      "Đ": 74,
      "đ": 75,
      "Ē": 76,
      "ē": 77,
      "Ĕ": 78,
      "ĕ": 79,
      "Ė": 80,
      "ė": 81,
      "Ę": 82,
      "ę": 83,
      "Ě": 84,
      "ě": 85,
      "Ĝ": 86,
      "ĝ": 87,
      "Ğ": 88,
      "ğ": 89,
      "Ġ": 90,
      "$$": 91,
      "$$$$": 92,
      "$%": 93,
      "$#": 94,
      "$$%": 95,
      "$$#": 96,
      "$&": 97,
      "$\"": 98,
      "$$&": 99,
      "$$\"": 100,
      "$$$$$$$$": 101,
      "ĀĀ": 102,
      "#$$$$": 103,
      "%$$$$": 104,
      "$$$#": 105,
      "$$$%": 106,
      "$'": 107,
      "$!": 108,
      "$$!": 109,
      "$$'": 110,
      "$%$$$$": 111,
      "$#$$$$": 112,
      "$(": 113,
      "#$$%": 114,
      "%$$#": 115,
      "%$$%": 116,
      "#$$#": 117,
      "#$$": 118,
      "$%%": 119,
      "\"$$$$": 120,
      "$#%": 121,
      "$%#": 122,
      "$##": 123,
      "\"$$": 124,
      "&$$$$": 125,
      "%$$": 126,
      "$)": 127,
      "$ğ": 128,
      "$$$$#": 129,
      "&$$": 130,
      "$$$$%": 131,
      "\"$$%": 132,
      "!$$": 133,
      "'$$": 134,
      "$*": 135,
      "#$$&": 136,
      "&$$%": 137,
      "$&%": 138,
      "\"$$#": 139,
      "&$$#": 140,
      "Ġ$$": 141,
      "$$%$$$$": 142,
      "$%&": 143,
      "%$$\"": 144,
      "$Ğ": 145,
      "$$#$$$$": 146,
      "$$$$$$$$$$$$": 147,
      "%$$&": 148,
      "#$$\"": 149,
      "$$$&": 150,
      "$&#": 151,
      "$\"#": 152,
      "$%\"": 153,
      "$#&": 154,
      "$#\"": 155,
      "($$": 156,
      "$\"%": 157,
      "$+": 158,
      "$\"$$$$": 159,
      "#$$$$%": 160,
      "#$$$$#": 161,
      "$$(": 162,
      "$%$$#": 163,
      "$ĝ": 164,
      "$#$$%": 165,
      "$#$$#": 166,
      "\"$$&": 167,
      "$$$\"": 168,
      "!$$%": 169,
      "$%$$%": 170,
      "%$$$$%": 171,
      "!$$$$": 172,
      "$$$%$$$$": 173,
      "$$$": 174,
      "%$$$$#": 175,
      "!$$#": 176,
      "$\"\"": 177,
      "$&\"": 178,
      "$&$$$$": 179,
      "#$$!": 180,
      "&$$\"": 181,
      "\"$$\"": 182,
      "$&&": 183,
      "$$$#$$$$": 184,
      "'$$%": 185,
      "'$$#": 186,
      "'$$$$": 187,
      "#$$'": 188,
      "ğ$$": 189,
      "$!#": 190,
      "$%%$$$$": 191,
      "&$$&": 192,
      "$%$$$$%": 193,
      "%$$!": 194,
      "$'%": 195,
      "$#$$$$%": 196,
      "$%$$$$#": 197,
      "$#$$$$#": 198,
      "$##$$$$": 199,
      "&%": 200,
      "$'#": 201,
      "Ġ$$$$": 202,
      "Ā%": 203,
      "Ā#": 204,
      "$%'": 205,
      "$$#$$$#": 206,
      ")$$": 207,
      "$#!": 208,
      "$$$%$$%": 209,
      "Ā\"": 210,
      "$$$$$$$$$$$$$$$$": 211,
      "$\"&": 212,
      "$#%$$$$": 213,
      "$$$%$": 214,
      "ĀĀ#": 215,
      "!$$&": 216,
      "%$$'": 217,
      "ĀĀ%": 218,
      "$%!": 219,
      "$,": 220,
      "$%#$$$$": 221,
      "$!%": 222,
      "Ġ\"": 223,
      "!$$\"": 224,
      "Ā!": 225,
      "Ġ$$#": 226,
      "Ġ#": 227,
      "$$ğ": 228,
      "$Ĝ": 229,
      "Ā&": 230,
      "\"$$'": 231,
      "$$$#$$%": 232,
      "Ġ$$%": 233,
      "$#'": 234,
      "ĀĀ!": 235,
      "$$)": 236,
      "Ā'": 237,
      "'$$\"": 238,
      "ĀĀ$": 239,
      "'$$&": 240,
      "$'\"": 241,
      "Ġ%": 242,
      "$&'": 243,
      "$&!": 244,
      "$\"'": 245,
      "\"$$!": 246,
      "$$$%$$#": 247,
      "#$$$#": 248,
      "$&$$#": 249,
      "ĀĀ\"": 250,
      "ĀĀ&": 251,
      "$\"$$%": 252,
      "&$$!": 253,
      "$$$'": 254,
      "$\"!": 255,
      "($$#": 256,
      "Ġ$$\"": 257,
      "$%(": 258,
      "$$Ğ": 259,
      "$!\"": 260,
      "&$$'": 261,
      "#$$$\"": 262,
      "\"$$$$%": 263,
      "$$$#$": 264,
      "$(%": 265,
      "$!&": 266,
      "Ā(": 267,
      "$$$!": 268,
      "ĀĀ'": 269,
      "Ġ!": 270,
      "Ġ&": 271,
      "&#": 272,
      "Ġ$$&": 273,
      "\"#": 274,
      "\"%": 275,
      "$'&": 276,
      "$%#$$$#": 277,
      "$$$#$$#": 278,
      "$-": 279,
      "&$$$$%": 280,
      "$#$$$$$$$$": 281,
      "$ě": 282,
      "$\"$$#": 283,
      "\"$$$$#": 284,
      "!$$'": 285,
      "Ā)": 286,
      "ĀĀğ": 287,
      "#$$(": 288,
      "$%$$$$$$$$": 289,
      "$&(": 290,
      "ĀĀ)": 291,
      "$(#": 292,
      "$''": 293,
      "ĀĞ": 294,
      "$$%$$$%": 295,
      "$&$$%": 296,
      "\"$$$\"": 297,
      "Āğ": 298,
      "$$*": 299,
      "$$$$#%": 300,
      "\"$$(": 301,
      "&$$$$#": 302,
      "!$$!": 303,
      "$!!": 304,
      "($$$$": 305,
      "($$%": 306,
      "Ġ$$!": 307,
      "$%$$$$$$%": 308,
      "$(&": 309,
      "$#%$$$%": 310,
      "#$$$$&": 311,
      "Ġ$$'": 312,
      "$!$$$$": 313,
      "($$\"": 314,
      "$%$#$$$$": 315,
      "$(\"": 316,
      "$##$$$#": 317,
      "%$$(": 318,
      "$$$$##": 319,
      "ğ$$#": 320,
      "Ġ'": 321,
      "$#$%$$$$": 322,
      "$$#%$$#": 323,
      "$'(": 324,
      "$$$$%%": 325,
      "#$$ğ": 326,
      "$%%$$$%": 327,
      "&$$$&": 328,
      "Ġ$&": 329,
      "#$$%$": 330,
      "%$$ğ": 331,
      "Ğ$$": 332,
      "$#$$&": 333,
      "$#$%$$#": 334,
      "ĝ$$": 335,
      "$$$$$$%": 336,
      "$#(": 337,
      "$#$%$$%": 338,
      "ĀĀ(": 339,
      "$!'": 340,
      "$#$$$$$$#": 341,
      "$('": 342,
      "#$$$$$$%": 343,
      "ğ$$%": 344,
      "ĀĀĝ": 345,
      "%$$$$$$%": 346,
      "#%$$#": 347,
      "$.": 348,
      "%$$$$$$$$": 349,
      "Ā*": 350,
      "#$$$$$$$$": 351,
      "Ā+": 352,
      "$%$$&": 353,
      "$\"(": 354,
      "$%%#$$%": 355,
      "\"\"": 356,
      "ğ$$&": 357,
      "$#$#$$%": 358,
      "ĀĀĞ": 359,
      "$'!": 360,
      "#$$)": 361,
      "$$$$$$#": 362,
      "$%ğ": 363,
      "$%$%$$$$": 364,
      "$%$#$$#": 365,
      "'$$'": 366,
      "($$&": 367,
      "%$$$$&": 368,
      "$%##$$#": 369,
      "$##%$$#": 370,
      "Ġ$": 371,
      "$#$#$$$$": 372,
      "%$$$$$$#": 373,
      "%$$%$": 374,
      "$'$$$$": 375,
      "Ġ(": 376,
      "$#$$\"": 377,
      "$#%#$$%": 378,
      "%$$$%": 379,
      "*$$": 380,
      "Āĝ": 381,
      "$%$$\"": 382,
      "$$%#$$%": 383,
      "$&)": 384,
      "$Ě": 385,
      "Ġğ": 386,
      "$$$$$$$$%": 387,
      "#$$$$\"": 388,
      "$%$#$$%": 389,
      "%$$$$$": 390,
      "$!$$%": 391,
      "%#$$%": 392,
      "$%)": 393,
      "$$##$$#": 394,
      "$&$$$$%": 395,
      "#$$$$$#": 396,
      "#$$$$$$#": 397,
      "$#$$$$$$%": 398,
      "$((": 399,
      "$ğ#": 400,
      "&&": 401,
      "$#ğ": 402,
      "$$%%$$%": 403,
      "$\"$$$$%": 404,
      "$$$$$$$$#": 405,
      "%$$$$$%": 406,
      "$!(": 407,
      "%$$)": 408,
      "%$$$&": 409,
      "##$$#": 410,
      "Ġ)": 411,
      "$#%%$$%": 412,
      "$)\"": 413,
      "&$$(": 414,
      "'$$!": 415,
      "$&$$$$#": 416,
      "$$&$$$$": 417,
      "ĀĀ,": 418,
      "%$$$$$#": 419,
      "$)%": 420,
      "Ġ$$(": 421,
      "ĀĀ#Ā": 422,
      "$$\"$$$$": 423,
      "$#$$$$$$": 424,
      "+$$": 425,
      "$'$$#": 426,
      "$%$$$$$$#": 427,
      "\"$$ğ": 428,
      "&\"": 429,
      "ğ$$\"": 430,
      "ĠĞ": 431,
      "$%$%$$#": 432,
      "$#\"$$$$": 433,
      "ĀĀ+": 434,
      "ĀĀ%Ā": 435,
      "!%": 436,
      ")$$%": 437,
      "ĀĀ*": 438,
      "ĀĀĜ": 439,
      "$%#%$$#": 440,
      "$###$$#": 441,
      "!$$(": 442,
      "Ġ#$$": 443,
      "$$#$": 444,
      "$\"ğ": 445,
      "#$$$$$%": 446,
      "%$$$$\"": 447,
      "$')": 448,
      "$(!": 449,
      "$)#": 450,
      "$)&": 451,
      "'%": 452,
      "ğ$$'": 453,
      "$#$$$$$$$$$$$$": 454,
      "$\"$$&": 455,
      "$$$#$$$$$$$$": 456,
      "$ğ\"": 457,
      "'$$$&": 458,
      "%$$$$%%": 459,
      "Ġ*": 460,
      "$$ĝ": 461,
      "$$$%$%": 462,
      "\"$$)": 463,
      "'$$(": 464,
      "ĀĀ&Ā": 465,
      "($$'": 466,
      "$#)": 467,
      "$$$%$$$$$$$$": 468,
      "&$$ğ": 469,
      "$#$#$$#": 470,
      "$$%$": 471,
      "#$$$$$": 472,
      "$!$$#": 473,
      "\"$$$$\"": 474,
      "!$$$\"": 475,
      "!#": 476,
      "$/": 477,
      "Ġ$$$#": 478,
      "$$$(": 479,
      "$%Ğ": 480,
      "$&ğ": 481,
      "$$\"$$$#": 482,
      "ĀĀĚ": 483,
      "$'ğ": 484,
      "$ğ%": 485,
      "\"$$$#": 486,
      ")$$\"": 487,
      "ĀĀ.": 488,
      "$'$$%": 489,
      "%$$#$": 490,
      "$%%%$$%": 491,
      "!$$)": 492,
      "$$%$$$$$$%": 493,
      "$$#$$$$$$#": 494,
      "#$$$$%%": 495,
      "#$$$$##": 496,
      "ĀĀ$Ā": 497,
      "'#": 498,
      "Ġ$)": 499,
      "$#Ğ": 500,
      "$\"$$\"": 501,
      "$$$%$$&": 502,
      "%$$*": 503,
      "&$$$'": 504,
      "ĀĀ\"Ā": 505,
      "($$!": 506,
      ")$$#": 507,
      "$&%$$$$": 508,
      "$%$$$$$$": 509,
      "#$$$!": 510,
      "$%%$$$#": 511,
      "%$$Ğ": 512,
      "&$$)": 513,
      "$$$$%#": 514,
      "$$#$$$$$$%": 515,
      "$ę": 516,
      ")$$$$": 517,
      ",ĀĀ": 518,
      "ğ$$$$": 519,
      "$&Ğ": 520,
      "Ġ$$ğ": 521,
      "$#\"$$$#": 522,
      "\"!": 523,
      "%%$$%": 524,
      "Ğ$$#": 525,
      "Ġ%$$#": 526,
      "$$+": 527,
      "$$$$$$$$$#": 528,
      "$##%$$$$": 529,
      "$ğ&": 530,
      "$$%$$$$$": 531,
      "$$#$$$$$": 532,
      "$$$\"$$%": 533,
      "ĀĀ!Ā": 534,
      "!\"": 535,
      "Ğ$$%": 536,
      "ğ$$!": 537,
      "ĠĀ": 538,
      "Ġ$%": 539,
      "Ġ\"$$": 540,
      "$\")": 541,
      "$\"$$$$#": 542,
      "$$$$$$$$$%": 543,
      "ĀĀ/": 544,
      "#$$*": 545,
      "$##$$$%": 546,
      "\"$$$!": 547,
      "&$$$$\"": 548,
      "$ğ!": 549,
      "$&%$$$%": 550,
      "!&": 551,
      "'&": 552,
      "$$Ĝ": 553,
      "$%$%$$%": 554,
      "$#$&": 555,
      "$$%$$$&": 556,
      "$\"$%$$$$": 557,
      "$'*": 558,
      "#$$#$": 559,
      "#$$$&": 560,
      "$#%%$$$$": 561,
      "\"$$*": 562,
      "$*%": 563,
      "$%&#$$%": 564,
      "$%\"$$$#": 565,
      "$#&$$$%": 566,
      "!$$$$#": 567,
      "&'": 568,
      "'\"": 569,
      "'(": 570,
      "$#&$$$$": 571,
      "$#$#$$$$#": 572,
      "$$%$$#": 573,
      "$\"*": 574,
      "#$$Ğ": 575,
      "%$$ĝ": 576,
      "\"$$%$": 577,
      "'$$ğ": 578,
      "$%&$$$%": 579,
      "$$$&$$#": 580,
      "&#$$%": 581,
      "Ğ$$!": 582,
      "Ġĝ": 583,
      "Ġ&$$": 584,
      "Ġ%$$\"": 585,
      "Ġ#$$!": 586,
      "$%$\"$$$$": 587,
      "$$%$$$#": 588,
      "$\"Ğ": 589,
      "$$\"%$$#": 590,
      "$$$$$$$$$$$%": 591,
      "ĀĀ-": 592,
      "#$$$$!": 593,
      "#$$$$$$": 594,
      "$!)": 595,
      "$%$$$$&": 596,
      "#$$+": 597,
      "$)!": 598,
      "$&##$$#": 599,
      "$$$#$$$$$$%": 600,
      "$$$#$$$$$$#": 601,
      "ĀĀ(Ā": 602,
      "&(": 603,
      ")$$&": 604,
      "Ġ#$$#": 605,
      "Ġ$*": 606,
      "$$,": 607,
      "$\"$%$$#": 608,
      "$\"$%$$%": 609,
      "$$\"#$$#": 610,
      "ĀĀě": 611,
      "$$$%$$$$#": 612,
      "$!ğ": 613,
      "$#$$$$&": 614,
      "$%%#$$#": 615,
      "\"$$#$": 616,
      "#$$$$#%": 617,
      "!'": 618,
      "'$$$$#": 619,
      "'$$$$%": 620,
      "$#*": 621,
      "$&$#$$#": 622,
      "$()": 623,
      "$%%$$$&": 624,
      "!$$*": 625,
      "'$$*": 626,
      "'$$Ğ": 627,
      "$$%$$$$$$#": 628,
      "$$$&$$$$": 629,
      "#$$$$%#": 630,
      "ĀĀ)Ā": 631,
      "!$$$$%": 632,
      "\"#$$#": 633,
      "&$$$%": 634,
      "Ğ$$$$": 635,
      "Ğ$$&": 636,
      "Ġ$\"": 637,
      "Ġ$'": 638,
      "$$$)": 639,
      "$%$$$%": 640,
      "$%\"$$$$": 641,
      "$$%%$$#": 642,
      "$$##$$$$": 643,
      "$&$#$$%": 644,
      "$$\"$$$\"": 645,
      "%$$$$$&": 646,
      "$#$$$$\"": 647,
      "$ğ'": 648,
      "'$$$'": 649,
      "#$$&$": 650,
      "Ġ$$$!": 651,
      "$Ğ%": 652,
      "%$$$$#%": 653,
      "$$$$$$$$$$$$$$$$$$$$$$$$": 654,
      "ĀĀğĀ": 655,
      "##": 656,
      "(%": 657,
      ")&": 658,
      "Ġ%$$": 659,
      "Ġ#$$\"": 660,
      "Ġ\"$$\"": 661,
      "Ġ%$$!": 662,
      "$%$": 663,
      "$%*": 664,
      "$%$$$$$$$$$$$$": 665,
      "$#$$!": 666,
      "$\"#$$$$": 667,
      "$$&$$$%": 668,
      "$$$$$$$$$$$$#": 669,
      "#$$$$'": 670,
      "%$$$$$$": 671,
      "$'$$$$#": 672,
      "$!$$&": 673,
      "$%%\"$$%": 674,
      "$)'": 675,
      "!$$$!": 676,
      "Ġ$$)": 677,
      "$\"#%$$#": 678,
      "$%\"%$$#": 679,
      "$$$%$$$$$$%": 680,
      "$&\"$$$#": 681,
      "&%$$'": 682,
      "$ĀĀ": 683,
      "'*": 684,
      "Ě$$": 685,
      "ĝ$$%": 686,
      "Ğ%": 687,
      "Ġ$(": 688,
      "$%&$$$$": 689,
      "$%$#$$$$#": 690,
      "$#$": 691,
      "$$%#$$$$": 692,
      "$$%%$$$$": 693,
      "$&#$$$$": 694,
      "$$&#$$%": 695,
      "$$$$$$$$$$#": 696,
      "$$$#$$\"": 697,
      "$$$#$$$$#": 698,
      "$!$$$$#": 699,
      "$%%%$$$$": 700,
      "$&%#$$%": 701,
      "$$$%$$$$$$#": 702,
      "%$$$$##": 703,
      "$Ę": 704,
      "&%$$$$": 705,
      "ğ#": 706,
      "ğ%": 707,
      "Ġ$#": 708,
      "Ġ$!": 709,
      "$%+": 710,
      "$%#$$$\"": 711,
      "$#$%$$$$%": 712,
      "$&*": 713,
      "$&$$\"": 714,
      "$$&%$$%": 715,
      "$!Ğ": 716,
      "$%%%$$#": 717,
      "$##&$$$$": 718,
      "\"$$Ğ": 719,
      "%$$+": 720,
      "$)ğ": 721,
      "!$$ğ": 722,
      "$*&": 723,
      "&$$%$": 724,
      "%$$&$": 725,
      "$#&#$$%": 726,
      "$##$$$$$": 727,
      "%#": 728,
      "'!": 729,
      "*)": 730,
      "+ĀĀ": 731,
      "ĝ$$&": 732,
      "Ġ&$$#": 733,
      "$%Ĝ": 734,
      "$%$&$$#": 735,
      "$%$\"$$#": 736,
      "$##$$$\"": 737,
      "$$%&$$$$": 738,
      "$$$$$$$$$$$$$$$$$$$$": 739,
      "#$$$$$$#$$$$": 740,
      "$$$#$$$$%": 741,
      "$$$%$\"": 742,
      "$'Ğ": 743,
      "$ğ$$$$": 744,
      "&$$ĝ": 745,
      "'$$)": 746,
      "Ġ$$$\"": 747,
      "$%&%$$%": 748,
      "$Ğ\"": 749,
      "$\"#&$$#": 750,
      "($$(": 751,
      "($$)": 752,
      "%$$$$%#": 753,
      "ĀĀ'Ā": 754,
      "ĀĀĝĀ": 755,
      "\"(": 756,
      "&ĀĀ": 757,
      "*$$$$": 758,
      "*ĀĀ": 759,
      "Ġ$%#": 760,
      "$%ĝ": 761,
      "$%\"$$$\"": 762,
      "$$#&$$#": 763,
      "$$#$$$\"": 764,
      "$&$$&": 765,
      "$&$#$$$$": 766,
      "$\"%$$$$": 767,
      "#$$$$$%$$$$": 768,
      "$$$%$$$$%": 769,
      "$(ğ": 770,
      "$%%#$$&": 771,
      "$#%#$$&": 772,
      "$%#\"$$#": 773,
      "$###$$%": 774,
      "$##%$$%": 775,
      "$))": 776,
      "$&%%$$%": 777,
      "$Ğ#": 778,
      "$Ğ'": 779,
      "$$$$$$$$$$$$$": 780,
      "$\"#$$$#": 781,
      "$#&%$$%": 782,
      "$#\"%$$#": 783,
      "$\"%%$$%": 784,
      "\")": 785,
      "&)": 786,
      "()": 787,
      "*$$#": 788,
      "Ĝ$$": 789,
      "Ġ,": 790,
      "Ġ$$$$%": 791,
      "$$$\"$$$$": 792,
      "$$$$$$\"": 793,
      "$%$%$$$$%": 794,
      "$#$$'": 795,
      "$&$%$$$$": 796,
      "$&&$$$$": 797,
      "$&$%$$#": 798,
      "$#%$$$%$": 799,
      "$%##$$\"": 800,
      "%$$$\"": 801,
      "$*\"": 802,
      "$+!": 803,
      ")$$$'": 804,
      "!!": 805,
      "&%$$%": 806,
      "((": 807,
      ")%": 808,
      "Ā,": 809,
      "ĝ$$#": 810,
      "Ğ$$\"": 811,
      "ğ(": 812,
      "Ġ$$$$#": 813,
      "Ġ&$$\"": 814,
      "$%#$$%": 815,
      "$#+": 816,
      "$#,": 817,
      "$#$#$$$$%": 818,
      "$#$&$$#": 819,
      "$$%#$$#": 820,
      "$$#$$$%": 821,
      "$\"$$": 822,
      "$$&$$$&": 823,
      "$$$$$$$$$$$$%": 824,
      "#$$$$$$\"": 825,
      "$!*": 826,
      "$%$$$$\"": 827,
      "$#$$$$$$%$$$$": 828,
      "$($$$$": 829,
      "$%#%$$$$": 830,
      "\"$$+": 831,
      "\"$$ĝ": 832,
      "$ğğ": 833,
      "$*!": 834,
      "$*(": 835,
      "$*ğ": 836,
      "Ġ$$+": 837,
      "$&#$$$#": 838,
      "$#&&$$%": 839,
      "($$$(": 840,
      "$%%$$$$$": 841,
      "ĀĀ#Ā!": 842,
      "ĀĀ%Ā!": 843,
      "&$$$$%%": 844,
      "\"+": 845,
      "(*": 846,
      "Ġ+": 847,
      "Ġ.": 848,
      "ĠĀĀ": 849,
      "Ġ'$$#": 850,
      "$%$$!": 851,
      "$%$$'": 852,
      "$%%$$%": 853,
      "$#$$": 854,
      "$#$'$$#": 855,
      "$$#%$$%": 856,
      "$$#\"$$#": 857,
      "$&$": 858,
      "$&ĝ": 859,
      "$$$$$$$$$$$#": 860,
      "#$$$$$\"": 861,
      "$$$#$$&": 862,
      "$'ĝ": 863,
      "$!$$$$%": 864,
      "$%$$$$$": 865,
      "$#$$$$$$&": 866,
      "$#$$$$$$$#": 867,
      "$#$$$$$$$%": 868,
      "\"$$$$&": 869,
      "$#%$$$#": 870,
      "$#%%$$&": 871,
      "$%##$$$$": 872,
      "$)(": 873,
      "$ğ)": 874,
      "$ğĞ": 875,
      "&$$Ğ": 876,
      "$Ğ!": 877,
      "$%\"#$$#": 878,
      "$#\"#$$#": 879,
      "$#\"&$$#": 880,
      "($$ğ": 881,
      "$$$\"$$#": 882,
      "&$$\"$": 883,
      "ğ$$*": 884,
      "ğ$$$!": 885,
      "\"$$$$%#": 886,
      "\"&": 887,
      "\"ĀĀ": 888,
      "#&": 889,
      "%%": 890,
      "%)": 891,
      "''": 892,
      "+$$&": 893,
      "ę$$": 894,
      "ĠĜ": 895,
      "Ġ$%%": 896,
      "Ġ$%&": 897,
      "Ġ!$$\"": 898,
      "$%$#$$$$%": 899,
      "$#%$$#": 900,
      "$#$&$$$$": 901,
      "$#$%$$$$#": 902,
      "$$%\"$$$$": 903,
      "$$#%$$$$": 904,
      "$&$%$$%": 905,
      "$$$$$$$$$$%": 906,
      "%$$$$$$#$$$$": 907,
      "$!ĝ": 908,
      "$!$%$$%": 909,
      "$%#$$$%": 910,
      "$%#\"$$$$": 911,
      "\"$$$": 912,
      "\"$$Ĝ": 913,
      "\"$$$&": 914,
      "'$$+": 915,
      "Ġ$$ĝ": 916,
      "$$%$$$$$$%$$$$": 917,
      "$Ğ&": 918,
      "($$$'": 919,
      "$\"%$$$#": 920,
      "$\"$$$$&": 921,
      "#$$'$": 922,
      "ğ$$Ğ": 923,
      "ğ$$ğ": 924,
      "Ā%!": 925,
      "$$#$$$#$": 926,
      ")$$$(": 927,
      "ĀĀ#Ā#": 928,
      "ĀĀ\"Ā#": 929,
      "\"$$$$%%": 930,
      "ĀĀ,Ā": 931,
      "!ĀĀ": 932,
      "\"'": 933,
      "\"%$$#": 934,
      "($$$$%": 935,
      ")ĀĀ": 936,
      ")$$!": 937,
      "*$$%": 938,
      "+$$#": 939,
      "ě$$": 940,
      "Ĝ$$%": 941,
      "Ğ$$'": 942,
      "ğ$$(": 943,
      "Ġ$&#": 944,
      "Ġ!$$#": 945,
      "$%$&$$%": 946,
      "$%&$$$&": 947,
      "$#$$$#": 948,
      "$##$$#": 949,
      "$#$&$$%": 950,
      "$$%\"$$%": 951,
      "$$%#$$&": 952,
      "$&#$$$\"": 953,
      "$\"ě": 954,
      "$\"ĝ": 955,
      "$\"\"$$$$": 956,
      "$\"$#$$%": 957,
      "$$&#$$&": 958,
      "#$$$$$&": 959,
      "#$$$$$#$$$$": 960,
      "$$$%$$$$$$$$$$$$": 961,
      "$!$$\"": 962,
      "$%$$$$$$&": 963,
      "$%$$$$$$$#": 964,
      "$($$#": 965,
      "#$$,": 966,
      "#$$Ĝ": 967,
      "$#%&$$$$": 968,
      "$%##$$%": 969,
      "$##&$$#": 970,
      "\"$$,": 971,
      "&$$$$&": 972,
      "%$$,": 973,
      "%$$$'": 974,
      "$ğ(": 975,
      "&$$+": 976,
      "!$$$": 977,
      "$&%\"$$%": 978,
      "Ġ$$*": 979,
      "%$$\"$": 980,
      "#$$\"$": 981,
      "$\"#$$$%": 982,
      "$\"%$$$%": 983,
      "$+&": 984,
      "$\"$$$$$$%": 985,
      "'$$%$": 986,
      "Ā%#": 987,
      "ĀĀ!Ā#": 988,
      "&$$$$%#": 989,
      "ĀĀĞĀ": 990,
      "ĀĀĚĀ": 991,
      "%*": 992,
      "%%$$$$": 993,
      "(#": 994,
      "(&": 995,
      ")$$(": 996,
      "*$$&": 997,
      "*$$\"": 998,
      "+)": 999,
      "+$$$$": 1000,
      "-$$": 1001,
      "ĝ#": 1002,
      "ğ'": 1003,
      "Ġě": 1004,
      "Ġ\"$$#": 1005,
      "Ġ$+": 1006,
      "$%$$": 1007,
      "$%$$(": 1008,
      "$%$&$$$$": 1009,
      "$%$#$$$$$$$$": 1010,
      "$%$%$$\"": 1011,
      "$#$\"$$%": 1012,
      "$#&$$$&": 1013,
      "$#$%$$&": 1014,
      "$$%%$$&": 1015,
      "$$##$$%": 1016,
      "$$#%$$\"": 1017,
      "$&$\"$$%": 1018,
      "$\"+": 1019,
      "$\"$&$$#": 1020,
      "$$$$$$$$$$$": 1021,
      "#$$$$&%": 1022,
      "%$$$$'": 1023,
      "$'Ĝ": 1024,
      "$'$$&": 1025,
      "$'&$$": 1026,
      "$$!%$$#": 1027,
      "$$'%$$&": 1028,
      "$#$$$$$": 1029,
      "$#$$$$$$\"": 1030,
      "#$$ĝ": 1031,
      "$%%%$$&": 1032,
      "\"$$$$!": 1033,
      "$#%%$$#": 1034,
      "$#%\"$$$$": 1035,
      "$#%$$$&": 1036,
      "$%#%$$%": 1037,
      "$%#&$$#": 1038,
      "$%#%$$\"": 1039,
      "%$$Ĝ": 1040,
      "$)*": 1041,
      "&$$*": 1042,
      "&$$,": 1043,
      "!$$+": 1044,
      "$*#": 1045,
      "$*'": 1046,
      "$&%%$$#": 1047,
      "Ġ$$,": 1048,
      "$$$$$$$$$$$$$%$$$$": 1049,
      "$#&#$$&": 1050,
      "($$Ğ": 1051,
      "$+#": 1052,
      "$ĝ!": 1053,
      "$ĝ\"": 1054,
      "%$$$$#\"": 1055,
      "$\"\"%$$#": 1056,
      "$&$$$$$$%": 1057,
      "$&&$$$%": 1058,
      "ĀĀ%Ā\"": 1059,
      "Ġ\"$$!": 1060,
      "Ġ!$$!": 1061,
      "ĀĀ/Ā": 1062,
      "!%$$#": 1063,
      "\"*": 1064,
      "%$$$%$": 1065,
      "('": 1066,
      "+$$'": 1067,
      "ě$": 1068,
      "ěğ": 1069,
      "Ĝ#": 1070,
      "ĝ$$\"": 1071,
      "Ğ)": 1072,
      "Ġ$'%": 1073,
      "Ġ&$$!": 1074,
      "$%$#": 1075,
      "$%$$$$$$$$$$$$$$$$": 1076,
      "$%$#$$\"": 1077,
      "$#&$$": 1078,
      "$#$%$$$$$$$$": 1079,
      "$#\"$$$\"": 1080,
      "$\"$$'": 1081,
      "$\"$#$$&": 1082,
      "$$&&$$%": 1083,
      "ĀĀę": 1084,
      "$($$%": 1085,
      "#$$$": 1086,
      "#$$$'": 1087,
      "$%%#$$$$": 1088,
      "$%%&$$$$": 1089,
      "$%%#$$$$%": 1090,
      "$###$$$$": 1091,
      "$##%$$\"": 1092,
      "$###$$\"": 1093,
      "$)+": 1094,
      "$*)": 1095,
      "$&%$$$#": 1096,
      "$&%\"$$$$": 1097,
      "&$$#$": 1098,
      "Ġ$$$": 1099,
      "$%&\"$$&": 1100,
      "$&#\"$$#": 1101,
      "$\"##$$#": 1102,
      "$%\"%$$\"": 1103,
      "$\"%#$$%": 1104,
      "$\"%%$$&": 1105,
      "$+\"": 1106,
      "$+ğ": 1107,
      "!$$%$": 1108,
      "$&\"%$$#": 1109,
      "#$$!$": 1110,
      "$!#%$$#": 1111,
      "$%$$$$#$": 1112,
      "Ā%%": 1113,
      "$#!%$$#": 1114,
      "$$$$$$$$$$$$$$$$$$$": 1115,
      "$\"&%$$%": 1116,
      "ĀĀ#Ā'": 1117,
      "Ā&&": 1118,
      "ĀĀ$Ā#": 1119,
      "$$$'$$$$": 1120,
      "ĀĀ*Ā": 1121,
      "!)": 1122,
      "#%$$\"": 1123,
      "%$$$$$$$$$$$$": 1124,
      "&&$$%": 1125,
      "'#$$%": 1126,
      ")$$'": 1127,
      "*'": 1128,
      "+#": 1129,
      "+,": 1130,
      "-$": 1131,
      "ĝ$$'": 1132,
      "Ğ#": 1133,
      "ğğ": 1134,
      "Ġ%$$$$": 1135,
      "Ġ!$$": 1136,
      "Ġ'$$": 1137,
      "Ġ$%\"": 1138,
      "$%&$$": 1139,
      "$%$#$$&": 1140,
      "$#!$$$$": 1141,
      "$#$!$$%": 1142,
      "$$%$$$%$$%": 1143,
      "$$#\"$$$$": 1144,
      "$&$\"$$#": 1145,
      "$\"$$!": 1146,
      "$\"$#$$$$": 1147,
      "$$\"$$%": 1148,
      "ĀĀĔ": 1149,
      "%$$$$$\"": 1150,
      "%$$$$$#%$$$$": 1151,
      "$$$#$$$$##": 1152,
      "$'$$\"": 1153,
      "$%$$$$'": 1154,
      "$%$$$$$$$%": 1155,
      "$#$$$$%$$%": 1156,
      "$(+": 1157,
      "$(Ğ": 1158,
      "%$$%$!": 1159,
      "\"$$$$'": 1160,
      "$#%&$$%": 1161,
      "$#%&$$#": 1162,
      "$#%%$$\"": 1163,
      "$##\"$$#": 1164,
      "\"$$%$$#": 1165,
      "!$$ĝ": 1166,
      "$**": 1167,
      "$%&\"$$%": 1168,
      "$Ğğ": 1169,
      "$$#$$$$$$%$$$$": 1170,
      "$$$&$$$$#": 1171,
      "$&#%$$#": 1172,
      "$#&%$$&": 1173,
      "($$*": 1174,
      "$+%": 1175,
      "$+'": 1176,
      "$\"$$$$$$#": 1177,
      "$$$,": 1178,
      "$&\"#$$#": 1179,
      "$&&#$$%": 1180,
      "$#$$$$%$": 1181,
      "$%'#$$%": 1182,
      ")$$ğ": 1183,
      "$,%": 1184,
      "Ā!#": 1185,
      "Ā&\"": 1186,
      "ĀĀ!Ā\"": 1187,
      "Ā'&": 1188,
      "#$$$#$": 1189,
      "ĀĀ\"Ā\"": 1190,
      "$$$!$$%": 1191,
      "&$$$$#%": 1192,
      "!(": 1193,
      "!*": 1194,
      "!$$$#": 1195,
      "\"$": 1196,
      "\"Ĝ": 1197,
      "\"ğ": 1198,
      "\"\"$$#": 1199,
      "#$$$$$$$$$$$$": 1200,
      "&#$$&": 1201,
      "&'$$%": 1202,
      "'$$$%": 1203,
      "'%$$%": 1204,
      "(ĀĀ": 1205,
      ")\"": 1206,
      "*#": 1207,
      "*$$'": 1208,
      ",$$": 1209,
      "Ā.": 1210,
      "ě$$$$": 1211,
      "Ĝ%": 1212,
      "ĝ$$$$": 1213,
      "Ğ$$(": 1214,
      "ğĞ": 1215,
      "Ġ/": 1216,
      "Ġ$#!": 1217,
      "$$$$$$&": 1218,
      "$%$\"$$%": 1219,
      "$#ĝ": 1220,
      "$#$'$$$$": 1221,
      "$#'$$$&": 1222,
      "$&$!": 1223,
      "$&\"$$$$": 1224,
      "$\"#$$$\"": 1225,
      "$\"\"$$$\"": 1226,
      "$\"&$$$&": 1227,
      "$\"%$$$&": 1228,
      "$$\"\"$$#": 1229,
      "$$\"#$$\"": 1230,
      "#$$$$#$$$$": 1231,
      "%$$$$\"%": 1232,
      "$$$%$$\"": 1233,
      "$'%$$$$": 1234,
      "$'$#$$#": 1235,
      "$!$&": 1236,
      "$$!$$$\"": 1237,
      "$#$$$$$$#$$$$": 1238,
      "$(*": 1239,
      "$(,": 1240,
      "#$$.": 1241,
      "$%%&$$%": 1242,
      "$%%$$$%$": 1243,
      "$#%\"$$%": 1244,
      "$#%'$$%": 1245,
      "$##\"$$$$": 1246,
      "$##%$$$$%": 1247,
      "%$$ě": 1248,
      "'$$ĝ": 1249,
      "$&%$$&": 1250,
      "$&%#$$#": 1251,
      "Ġ$$Ğ": 1252,
      "$%&%$$&": 1253,
      "$$$$$$$$$$$$$$$": 1254,
      "#$$\"$&": 1255,
      "$&#$$$%": 1256,
      "$%\"!$$#": 1257,
      "($$+": 1258,
      "($$ĝ": 1259,
      "$\"%%$$#": 1260,
      "$\"$$$$\"": 1261,
      "#$$$$#$%$$$$": 1262,
      "$ĝ#": 1263,
      "$ĝ'": 1264,
      "!$$$$$%": 1265,
      "!$$#$": 1266,
      "$\"\"#$$#": 1267,
      "$&\"\"$$#": 1268,
      "$&$$$$'": 1269,
      "$&$$$$$$&": 1270,
      "'$$$$&": 1271,
      "ğ$$)": 1272,
      "&$$&$": 1273,
      "$#$$$$%#": 1274,
      "&%#$$%": 1275,
      "$'#$$$#": 1276,
      "Ġ$$$$&": 1277,
      "Ā%)": 1278,
      "Ā%*": 1279,
      "$$#$$$#$$#": 1280,
      ")$$Ğ": 1281,
      "Ā\"+": 1282,
      "$#'$$$%": 1283,
      "ĀĀ$ĀĞ": 1284,
      "ĀĀ&Ā!": 1285,
      "ĀĀ'Ā\"": 1286,
      "$#$$$$$$$$$$$": 1287,
      "\"$$$$#%": 1288,
      "%$$$$$$$$$#": 1289,
      "#$$$$$##$$#": 1290,
      "ĀĀ.Ā": 1291,
      "!ĝ": 1292,
      "\"%$$\"": 1293,
      "%ĝ": 1294,
      "%#$$$$": 1295,
      "&,": 1296,
      "')": 1297,
      "',": 1298,
      "))": 1299,
      "*$$!": 1300,
      "-ĀĀ": 1301,
      "Ě$$$$": 1302,
      "ě%": 1303,
      "ěĝ": 1304,
      "Ĝ$$$$": 1305,
      "Ĝ$$#": 1306,
      "ĜĀĀ": 1307,
      "ĝ&": 1308,
      "ğ&": 1309,
      "Ġ#$$$$": 1310,
      "Ġ$&\"": 1311,
      "Ġ$'#": 1312,
      "$%\"$$": 1313,
      "$%'$$$$": 1314,
      "$%$%$$$$#": 1315,
      "$%#$$$&": 1316,
      "$#$\"": 1317,
      "$#\"$$": 1318,
      "$#$$(": 1319,
      "$#$#$$&": 1320,
      "$$%$$%": 1321,
      "$$%&$$%": 1322,
      "$$%$$$%$": 1323,
      "$$#&$$$$": 1324,
      "$$#!$$#": 1325,
      "$&$$$%": 1326,
      "$&#$$%": 1327,
      "$\"\"$$": 1328,
      "$\"$%$$$$#": 1329,
      "$\"$&$$%": 1330,
      "$$&%$$&": 1331,
      "%$$$$$'": 1332,
      "$$$#$$$$%%": 1333,
      "$$$%$$$$%%": 1334,
      "$'$$$$%": 1335,
      "$!$%$$&": 1336,
      "$$!#$$#": 1337,
      "$$'$$$&": 1338,
      "$%$$$$#$$#": 1339,
      "$#$$$$%$$#": 1340,
      "$($$\"": 1341,
      "#$$%$$$$": 1342,
      "%$$%$(": 1343,
      "$#%#$$#": 1344,
      "$#%$$$'": 1345,
      "$%##$$$$%": 1346,
      "$%#$$$#$": 1347,
      "$##\"$$%": 1348,
      "$##&$$%": 1349,
      "$###$$$$%": 1350,
      "$###$$$$#": 1351,
      "$##$$$#$": 1352,
      "$)$$$$": 1353,
      "$ğ*": 1354,
      "&$$Ě": 1355,
      "&$$ě": 1356,
      "!$$-": 1357,
      "!$$Ğ": 1358,
      "$%&#$$&": 1359,
      "$%&&$$%": 1360,
      "$Ğ$$#": 1361,
      "$$$&$$$$%": 1362,
      "$&#&$$\"": 1363,
      "$\"##$$$$": 1364,
      "$\"#%$$\"": 1365,
      "$%\"#$$\"": 1366,
      "$%\"&$$\"": 1367,
      "$\"%&$$%": 1368,
      "$+Ğ": 1369,
      "$\"$$$$!": 1370,
      "$$$%$$$$&": 1371,
      "$&\"%$$\"": 1372,
      "$&&#$$&": 1373,
      "ğ$$Ĝ": 1374,
      "$%$$$$%#": 1375,
      "$#$$$$#$": 1376,
      "Ā%\"": 1377,
      "Ā%&": 1378,
      "Ā#&": 1379,
      "$#%$$$$$": 1380,
      "ĀĀ#Ā&": 1381,
      "ĀĀ%Ā#": 1382,
      "ĀĀ%Āğ": 1383,
      "$,'": 1384,
      "$,(": 1385,
      "$Ĝ!": 1386,
      "ĀĀ!ĀĞ": 1387,
      "Ā'%": 1388,
      "ĀĀ$Ā'": 1389,
      "$&!#$$#": 1390,
      "ĀĀ&Ā)": 1391,
      "$\"!%$$#": 1392,
      "Ā(#": 1393,
      "$%$$$$$$$$$$$": 1394,
      "&$$$$##": 1395,
      "$!$$$$&": 1396,
      "\"\"$$\"": 1397,
      "#%": 1398,
      "#)": 1399,
      "#ĝ": 1400,
      "&%$$&": 1401,
      "'ĀĀ": 1402,
      "'$$$$#%": 1403,
      ")Ğ": 1404,
      "*!": 1405,
      "*%": 1406,
      "*,": 1407,
      "*$$ğ": 1408,
      "+(": 1409,
      "+$$\"": 1410,
      ",$$#": 1411,
      "-,": 1412,
      "-$$#": 1413,
      ".ĀĀ": 1414,
      "/#": 1415,
      "Ę$$": 1416,
      "Ěĝ": 1417,
      "Ĝğ": 1418,
      "ĝ%": 1419,
      "ĝĝ": 1420,
      "ĝ$$)": 1421,
      "Ğ$$)": 1422,
      "ğ*": 1423,
      "ğ$$$$%": 1424,
      "Ġ$Ğ": 1425,
      "Ġ($$": 1426,
      "Ġ$'!": 1427,
      "Ġ*$$": 1428,
      "$%$!": 1429,
      "$%$\"$$&": 1430,
      "$#$(": 1431,
      "$##$$%": 1432,
      "$#$$$$$$$$$$$$$$$$": 1433,
      "$#$#$$\"": 1434,
      "$$%&$$&": 1435,
      "$$%%$$'": 1436,
      "$$#$$$$%": 1437,
      "$$##$$\"": 1438,
      "$$#%$$$$%": 1439,
      "$&+": 1440,
      "$&$\"$$$$": 1441,
      "$&\"$$$\"": 1442,
      "$&$#$$&": 1443,
      "$\",": 1444,
      "$\"Ĝ": 1445,
      "$\"#$$#": 1446,
      "$\"$#$$#": 1447,
      "$$\"&$$#": 1448,
      "$$$$$$$$#$$$$": 1449,
      "$$$$$$$$%$$$$": 1450,
      "ĀĀĘ": 1451,
      "#$$$$$$&": 1452,
      "%$$$$$$%$$$$": 1453,
      "%$$$$&%": 1454,
      "$$$#$$$$%#": 1455,
      "$$$%$\"#": 1456,
      "$',": 1457,
      "$'$$": 1458,
      "$'$\"$$%": 1459,
      "$!+": 1460,
      "$!Ĝ": 1461,
      "$$'$$$$": 1462,
      "$$'%$$%": 1463,
      "#$$ě": 1464,
      "\"$$$$$$#": 1465,
      "$#%#$$$$%": 1466,
      "$#%!$$%": 1467,
      "$%##$$$$#": 1468,
      "$%#\"$$\"": 1469,
      "\"$$.": 1470,
      "&$$$$$%": 1471,
      "&$$$$$$%": 1472,
      "%$$$": 1473,
      "!$$$ğ": 1474,
      "#$$&$!": 1475,
      "$&%#$$&": 1476,
      "\"$$#$%": 1477,
      "$%&$$$#": 1478,
      "$%&!$$%": 1479,
      "%$$&$!": 1480,
      "$$$&$$%": 1481,
      "$&#\"$$%": 1482,
      "$&##$$\"": 1483,
      "$\"#&$$%": 1484,
      "$%\"$$$%": 1485,
      "$%\"&$$#": 1486,
      "$#&%$$$$": 1487,
      "$\"%\"$$%": 1488,
      "$\"$$$$$$&": 1489,
      "$ĝ%": 1490,
      "$ĝ&": 1491,
      "$ĝĝ": 1492,
      "$ĝğ": 1493,
      "$$$%$$$$$$": 1494,
      "$\"\"$$$#": 1495,
      "$\"\"%$$\"": 1496,
      "$&$$$$\"": 1497,
      "$&$$$$&": 1498,
      "$&$$$$$$#": 1499,
      "\"$$\"$": 1500,
      "$!#$$$%": 1501,
      "$!#&$$#": 1502,
      "%$$!$": 1503,
      "$'##$$#": 1504,
      "Ā#!": 1505,
      ")$$*": 1506,
      "Ā\"%": 1507,
      "Ā\"Ğ": 1508,
      "$\"&#$$%": 1509,
      "$%!$$$#": 1510,
      "$%!#$$#": 1511,
      "$%#$$$$$": 1512,
      "$Ĝ(": 1513,
      "Ā&#": 1514,
      "$#'&$$%": 1515,
      "ĀĀ!Ā!": 1516,
      "$'\"%$$#": 1517,
      "Ġ%$$$%": 1518,
      "$&'#$$&": 1519,
      "$$$'$$#": 1520,
      "$$Ğ$": 1521,
      "ĀĀ'Ā'": 1522,
      "\"$$$$##": 1523,
      "$$$$#%$$$%": 1524,
      "$$$$#%%$$%": 1525,
      "$!!$$$#": 1526,
      "%$$($": 1527,
      "%$$$$$$%$$#": 1528,
      "%$$$$$$$$$$$": 1529,
      "#$$$$$$$$$$$": 1530,
      "%$$$$$%$$$%": 1531,
      "$#$$$$$$$$$$$$$": 1532,
      "$$$$$$$$$$$$$$$$$$$$$$$$$": 1533,
      "!$": 1534,
      "!+": 1535,
      "!,": 1536,
      "!Ğ": 1537,
      "#'": 1538,
      "#,": 1539,
      "$ė": 1540,
      "%&": 1541,
      "&#$$$$": 1542,
      "&\"$$%": 1543,
      "&\"$$&": 1544,
      "&($$$$": 1545,
      "($$$$#": 1546,
      "(#$$&": 1547,
      ")#": 1548,
      "+!": 1549,
      "+%": 1550,
      "+$$%": 1551,
      "--": 1552,
      ".,": 1553,
      ".-": 1554,
      ".$$": 1555,
      "ę$$%": 1556,
      "Ě$$%": 1557,
      "Ě$$'": 1558,
      "ě$$%": 1559,
      "Ĝ\"": 1560,
      "Ĝ*": 1561,
      "ĜĞ": 1562,
      "Ĝ$$'": 1563,
      "ğ!": 1564,
      "ğ\"": 1565,
      "Ġ%$$%": 1566,
      "Ġ\"$$$$": 1567,
      "Ġ!$$%": 1568,
      "ĠĀ&": 1569,
      "Ġ#$$ğ": 1570,
      "$$$ğ": 1571,
      "$%,": 1572,
      "$%\"$$%": 1573,
      "$%$$$%$$#": 1574,
      "$%&$$$'": 1575,
      "$%$!$$&": 1576,
      "$%$&$$&": 1577,
      "$#'$$$$": 1578,
      "$#$$)": 1579,
      "$##$$$&": 1580,
      "$$%&$$#": 1581,
      "$$#$$#": 1582,
      "$&-": 1583,
      "$&Ĝ": 1584,
      "$&$$'": 1585,
      "$&$#$$\"": 1586,
      "$&&$$$'": 1587,
      "$\"-": 1588,
      "$\"$\"": 1589,
      "$\"$$$#": 1590,
      "$\"%$$#": 1591,
      "$$&#$$$$": 1592,
      "$$\"$": 1593,
      "$$\"#$$%": 1594,
      "$$\"%$$\"": 1595,
      "#$$$$$$$#": 1596,
      "#$$$$$$$%": 1597,
      "#$$$$$%#": 1598,
      "#$$$$$##$$$$": 1599,
      "#$$$$\"#": 1600,
      "#$$$$\"%": 1601,
      "$'$": 1602,
      "$'+": 1603,
      "$'#$$$$": 1604,
      "$'$$!": 1605,
      "$''$$": 1606,
      "$'$&$$#": 1607,
      "$'%$$$&": 1608,
      "$!\"$$$\"": 1609,
      "$$!#$$!": 1610,
      "$$'$$$%": 1611,
      "$$'#$$%": 1612,
      "$$'#$$&": 1613,
      "$%$$$$%$$%": 1614,
      "$%$$$$$$#$$$$": 1615,
      "$%$$$$$$$&": 1616,
      "$#$$$$'": 1617,
      "$#$$$$$%$$$$": 1618,
      "$#$$$$&%": 1619,
      "$($": 1620,
      "$(ĝ": 1621,
      "%$$#$$#": 1622,
      "%$$%$#": 1623,
      "%$$%$$%": 1624,
      "%$$%$\"": 1625,
      "%$$%$\"#": 1626,
      "#$$$ğ": 1627,
      "$%%\"$$#": 1628,
      "$%%&$$#": 1629,
      "$%%%$$\"": 1630,
      "$%%$$$$$$$$$$$$": 1631,
      "$%%\"$$&": 1632,
      "$%%!$$$$": 1633,
      "$%%$$$'": 1634,
      "\"$$$$$$%": 1635,
      "\"$$$$&%": 1636,
      "\"$$$$\"#": 1637,
      "$#%\"$$&": 1638,
      "$#%%$$$$#": 1639,
      "$#%#$$%$": 1640,
      "$%##$$&": 1641,
      "$%#!$$$$": 1642,
      "$%#'$$#": 1643,
      "$###$$&": 1644,
      "$##%$$$$#": 1645,
      "$##'$$#": 1646,
      "&$$$$\"#": 1647,
      "&$$Ĝ": 1648,
      "!$$ě": 1649,
      "$*$": 1650,
      "$&%\"$$#": 1651,
      "$&%!$$%": 1652,
      "Ġ$$ě": 1653,
      "Ġ$$$ğ": 1654,
      "Ġ$$$Ğ": 1655,
      "$$%$$$$$$\"": 1656,
      "$Ğ(": 1657,
      "$ĞĞ": 1658,
      "$$#$$$$$$#$$$$": 1659,
      "#$$\"$$#": 1660,
      "$$$&$": 1661,
      "$$$&$$\"": 1662,
      "$&##$$%": 1663,
      "$&#%$$\"": 1664,
      "$\"#%$$$$": 1665,
      "$\"##$$\"": 1666,
      "$%\"\"$$#": 1667,
      "$%\"#$$!": 1668,
      "$#&\"$$%": 1669,
      "$#&'$$%": 1670,
      "$#\"&$$$$": 1671,
      "$#\"%$$\"": 1672,
      "($$$\"": 1673,
      "$\"%'$$%": 1674,
      "$+)": 1675,
      "#$$$$#\"": 1676,
      "$%$$#$": 1677,
      "$ĝ)": 1678,
      "$#$$%$": 1679,
      "$#$$#$": 1680,
      "\"$$&$": 1681,
      "\"$$&$!": 1682,
      "%$$$$%$%$$$$": 1683,
      "%$$$$%#$$$#": 1684,
      "$$$ě": 1685,
      "$\"\"&$$#": 1686,
      "'$$#$": 1687,
      "ğ$$+": 1688,
      "ğ$$-": 1689,
      "$!#\"$$%": 1690,
      "$!#&$$%": 1691,
      "$%$$$$%$": 1692,
      "$%$$$$%$%$$$$": 1693,
      "$'%$$$#": 1694,
      "$%'$$$%": 1695,
      ")$$+": 1696,
      "$#!#$$#": 1697,
      "$#!%$$\"": 1698,
      "$$$%$$%$": 1699,
      "ĀĀ#Ā%": 1700,
      "ĀĀ#Ā)": 1701,
      "ĀĀ%Ā&": 1702,
      "ĀĀ%Ā+": 1703,
      "$%!%$$\"": 1704,
      "$,\"": 1705,
      "$,ğ": 1706,
      "$!%&$$%": 1707,
      "!$$\"$&": 1708,
      "$#'#$$%": 1709,
      "ĀĀ!Āĝ": 1710,
      "'$$&$": 1711,
      "$'\"$$$#": 1712,
      "Ġ%&$$%": 1713,
      "$&'$$$%": 1714,
      "$&'#$$%": 1715,
      "$&'%$$%": 1716,
      "$\"'#$$&": 1717,
      "$\"!$$$#": 1718,
      "Ġ$$\"$": 1719,
      "$!\"$$$%": 1720,
      "$!&$$$%": 1721,
      "ĀĀ'Ā%": 1722,
      "ĀĀ'Ā&": 1723,
      "ĀĀ'Ā(": 1724,
      "$'&$$$%": 1725,
      "$'&\"$$%": 1726,
      "$-#": 1727,
      "ĀĀğĀ!": 1728,
      "Ġ'$$!": 1729,
      "$#$%$$#$": 1730,
      "$#$%$$%$": 1731,
      "#%$$#$": 1732,
      "%$$$$$$$$$$$#": 1733,
      "%$$$$$$$$$$$$%": 1734,
      "#$$$$\"&": 1735,
      "$$##$$#$": 1736,
      "#$$$$$#$$$#": 1737,
      "$#$$$$$$%$$$$#": 1738,
      "ĀĀĜĀ": 1739,
      "Ġ#$$ĝ": 1740,
      "$#$&$$&": 1741,
      "ĀĀěĀ": 1742,
      "!$%$$$$": 1743,
      "!#$$#": 1744,
      "!#$$!": 1745,
      "!$$$$%%": 1746,
      "#ě": 1747,
      "#Ğ": 1748,
      "#%$$$$": 1749,
      "%&$$%": 1750,
      "&ğ": 1751,
      "'ğ": 1752,
      "(!": 1753,
      "(Ğ": 1754,
      "($$$$#%": 1755,
      ")'": 1756,
      "*(": 1757,
      "*Ğ": 1758,
      "*$$*": 1759,
      "+$$(": 1760,
      "-%": 1761,
      "ėĀ": 1762,
      "ěě": 1763,
      "ěĜ": 1764,
      "ěĞ": 1765,
      "ě$$&": 1766,
      "ě$$\"": 1767,
      "ěĀĀ": 1768,
      "ě!$$": 1769,
      "Ĝ+": 1770,
      "Ĝ$$!": 1771,
      "Ĝ$$(": 1772,
      "ĝ$$!": 1773,
      "Ğ*": 1774,
      "Ğ$$Ğ": 1775,
      "Ğ$$#$": 1776,
      "ğĀĀ": 1777,
      "Ġ$$$%": 1778,
      "Ġ#$$%": 1779,
      "Ġ$#\"": 1780,
      "Ġ!$$$$": 1781,
      "Ġ$%!": 1782,
      "Ġ$&$$#": 1783,
      "ĠĀğ": 1784,
      "Ġ$$$$#%": 1785,
      "Ġğ$$#": 1786,
      "Ġ$$$$%%": 1787,
      "Ġ$\"(": 1788,
      "Ġ$%ğ": 1789,
      "Ġ\"$$ğ": 1790,
      "Ġ$(!": 1791,
      "$$ě": 1792,
      "$$$$\"": 1793,
      "$%$!$$$$": 1794,
      "$%$%$$&": 1795,
      "$%$!$$%": 1796,
      "$#ě": 1797,
      "$#Ĝ": 1798,
      "$#$$$#$": 1799,
      "$#$\"$$#": 1800,
      "$#$&$$$$%": 1801,
      "$##$$$!": 1802,
      "$$%\"$$&": 1803,
      "$$%%$$$$%": 1804,
      "$$%!$$$$": 1805,
      "$$#$$%": 1806,
      "$$#\"$$%": 1807,
      "$$#&$$%": 1808,
      "$$##$$$$%": 1809,
      "$$#($$#": 1810,
      "$$#$$$!": 1811,
      "$&,": 1812,
      "$&$$": 1813,
      "$&$$!": 1814,
      "$&$!$$%": 1815,
      "$&%$$$&": 1816,
      "$&$#$$!": 1817,
      "$\"&$$$$": 1818,
      "$\"&$$#": 1819,
      "$\"$\"$$%": 1820,
      "$\"$%$$\"": 1821,
      "$\"!$$$\"": 1822,
      "$\"&%$$'": 1823,
      "$$&$": 1824,
      "$$&&$$&": 1825,
      "$$\"$$$$%": 1826,
      "$$\"'$$#": 1827,
      "$$\"'$$\"": 1828,
      "$$$$$$$$$$$$##": 1829,
      "ĀĀĖ": 1830,
      "#$$$$$%%$$$$": 1831,
      "#$$$$$%#$$$$": 1832,
      "#$$$$&#": 1833,
      "%$$$$$$&": 1834,
      "%$$$$$$\"": 1835,
      "%$$$$$$$#$$$$": 1836,
      "$'!$$": 1837,
      "$'#$$$\"": 1838,
      "$'$%$$\"": 1839,
      "$!$": 1840,
      "$!$!": 1841,
      "$!\"$$$$": 1842,
      "$$!$$$$": 1843,
      "$$'$": 1844,
      "$$'!$$&": 1845,
      "$$'&$$'": 1846,
      "$%$$$$$$$%$$$$": 1847,
      "$#$$$$#$$#": 1848,
      "$($$!": 1849,
      "%$$#$&%": 1850,
      "%$$%$##": 1851,
      "%$$%$&#": 1852,
      "#$$/": 1853,
      "#$$ę": 1854,
      "#$$Ě": 1855,
      "$%%!$$%": 1856,
      "$%%%$$$$#": 1857,
      "$%%#$$'": 1858,
      "$%%$$$%$$%": 1859,
      "$%%#$$$$##": 1860,
      "\"$$$$$&": 1861,
      "\"$$$$$$&": 1862,
      "\"$$$$$'": 1863,
      "\"$$$$&#": 1864,
      "$#%\"$$#": 1865,
      "$#%$$$$$$$$$$$$": 1866,
      "$#%%$$$$%": 1867,
      "$#%%$$%$": 1868,
      "$%#\"$$%": 1869,
      "$%#!$$%": 1870,
      "$%#!$$#": 1871,
      "$%#'$$$$": 1872,
      "$##&$$\"": 1873,
      "$##%$$!": 1874,
      "$##($$#": 1875,
      "\"$$-": 1876,
      "\"$$$'": 1877,
      "\"$$$Ğ": 1878,
      "&$$$$'": 1879,
      "&$$$$$$%$$$$": 1880,
      "&$$$$&%": 1881,
      "%$$Ě": 1882,
      "%$$$(": 1883,
      "$)$": 1884,
      "$)ę": 1885,
      "$$$$#$#$$$$": 1886,
      "&$$$": 1887,
      "&$$.": 1888,
      "&$$$\"": 1889,
      "!$$Ĝ": 1890,
      "'$$,": 1891,
      "'$$Ĝ": 1892,
      "$*ĝ": 1893,
      "$*$$$$": 1894,
      "$&%%$$&": 1895,
      "Ġ$$Ĝ": 1896,
      "%$$&$#&": 1897,
      "$&#%$$$$": 1898,
      "$&##$$$$%": 1899,
      "$&#\"$$\"": 1900,
      "$#&\"$$&": 1901,
      "$#&&$$&": 1902,
      "($$/": 1903,
      "($$ě": 1904,
      "$\"%#$$&": 1905,
      "$++": 1906,
      "$\"$$$$'": 1907,
      "#$$$$#%$$$$": 1908,
      "$$(%$$&": 1909,
      "$ĝ$$%": 1910,
      "$$$\"$": 1911,
      "!$$%$%": 1912,
      "%$$$$%\"": 1913,
      "!$$$$&%": 1914,
      "$$$%$$$$$": 1915,
      "$$$-": 1916,
      "$\"\"\"$$%": 1917,
      "$\"\"\"$$#": 1918,
      "$\"\"%$$&": 1919,
      "$&\"&$$\"": 1920,
      "$&\"!$$\"": 1921,
      "$&&&$$%": 1922,
      "#$$'$$%": 1923,
      "ğ$$$ğ": 1924,
      "$!#%$$$$": 1925,
      "$!#%$$\"": 1926,
      "$%%$$$$$%%$$$$": 1927,
      "$'%$$$%": 1928,
      "$'%#$$&": 1929,
      "$#$$$$#$%$$$$": 1930,
      "&%\"$$%": 1931,
      "$'#&$$#": 1932,
      "Ā%ğ": 1933,
      "Ā##": 1934,
      "Ā#%": 1935,
      "Ā#(": 1936,
      "$#!$$$#": 1937,
      "Ā\"&": 1938,
      "Ā\"ĝ": 1939,
      "$$$$$$$$$$$$$$$$$$": 1940,
      "$\"&%$$#": 1941,
      "%$$'$": 1942,
      "ĀĀ%Ā)": 1943,
      "$,!": 1944,
      "$,#": 1945,
      "$Ĝ#": 1946,
      "\"$$'$": 1947,
      "\"$$'$%": 1948,
      "ĀĀ!Ā&": 1949,
      "Ā'!": 1950,
      "Ā''": 1951,
      "ĀĀ$Ā!": 1952,
      "ĀĀ$Āğ": 1953,
      "$&'&$$%": 1954,
      "$&!%$$#": 1955,
      "$&!\"$$#": 1956,
      "ĀĀ\"Ā!": 1957,
      "ĀĀ\"Ā'": 1958,
      "ĀĀ\"ĀĞ": 1959,
      "$$$'$$%": 1960,
      "Ā(%": 1961,
      "Ā(&": 1962,
      "Ā()": 1963,
      "Ġ&%$$%": 1964,
      "Ġ$$&$#!": 1965,
      "\"%%$$%": 1966,
      "$'&#$$%": 1967,
      "$'&#$$&": 1968,
      "$$$#$$#$": 1969,
      "$-(": 1970,
      "$-)": 1971,
      "$ě(": 1972,
      "ĀĀğĀ#": 1973,
      "#$$($": 1974,
      "ĀĀ)ĀĞ": 1975,
      "ĀĀ)Āğ": 1976,
      "$(#\"$$#": 1977,
      "$''%$$&": 1978,
      "($$\"$": 1979,
      "$(\"#$$#": 1980,
      "%$$ğ$": 1981,
      "Ğ$$+": 1982,
      "Ğ$$ĝ": 1983,
      "Ğ$$$ğ": 1984,
      "ĝ$$Ĝ": 1985,
      "ĝ$$ĝ": 1986,
      "ĝ$$$ğ": 1987,
      "ĀĀĝĀ&": 1988,
      "ĀĀĝĀ'": 1989,
      "ĀĀĝĀğ": 1990,
      "$.&": 1991,
      "%$$$$$$$$$$$%": 1992,
      "#$$$$$$$$$$$#": 1993,
      "Ā+#": 1994,
      "Ā+)": 1995,
      "\"\"$$$#": 1996,
      "\"\"%$$#": 1997,
      "$$$$$$#$": 1998,
      "$%$%$$$$$#": 1999,
      "%$$$$&!": 2000,
      "$#$#$$$$&": 2001,
      "*$$,": 2002,
      "$#$&$$'": 2003,
      "!-": 2004,
      "!$$$$#%": 2005,
      "\"%$$$$": 2006,
      "\"&$$#": 2007,
      "\"#$$\"": 2008,
      "#$": 2009,
      "#(": 2010,
      "##$$$$": 2011,
      "#$$$%": 2012,
      "##$$\"": 2013,
      "#%$$$$#": 2014,
      "%$$$#": 2015,
      "%#$$%$": 2016,
      "&-": 2017,
      "&!$$%": 2018,
      "'Ğ": 2019,
      "'%$$#": 2020,
      "'&$$$$": 2021,
      "'&$$%": 2022,
      "'#$$'": 2023,
      "(/": 2024,
      ")!": 2025,
      ")*": 2026,
      ")-": 2027,
      "*\"": 2028,
      "*$$(": 2029,
      "+$$!": 2030,
      "+$$)": 2031,
      ",&": 2032,
      ",Ě": 2033,
      "-\"": 2034,
      "/ĀĀ": 2035,
      "ĀĚ": 2036,
      "Ę!": 2037,
      "ęĚ": 2038,
      "ęĞ": 2039,
      "ę$$\"": 2040,
      "Ě.": 2041,
      "ĚĞ": 2042,
      "Ě$$\"": 2043,
      "ě$$'": 2044,
      "ě&$$": 2045,
      "Ĝ&": 2046,
      "Ĝ$$&": 2047,
      "ĝ\"": 2048,
      "ĝĀĀ": 2049,
      "ĝ\"$$": 2050,
      "ğ$": 2051,
      "ğ%$$\"": 2052,
      "Ġ-": 2053,
      "ĠĘ": 2054,
      "Ġ$%$$$$": 2055,
      "Ġ$ğ": 2056,
      "Ġ\"$$%": 2057,
      "Ġ$&%": 2058,
      "Ġ$&&": 2059,
      "Ġ$\"&": 2060,
      "Ġ$,": 2061,
      "ĠĀ!": 2062,
      "Ġ$Ĝ": 2063,
      "Ġ($$#": 2064,
      "Ġ$(%": 2065,
      "Ġ$&$$%": 2066,
      "Ġ($$\"": 2067,
      "Ġ$!'": 2068,
      "ĠĀ*": 2069,
      "ĠĀĀ#Ā": 2070,
      "Ġ%$$Ğ": 2071,
      "$$Ę": 2072,
      "$$$+": 2073,
      "$$$$$": 2074,
      "$$$$$%": 2075,
      "$%$%": 2076,
      "$%$\"": 2077,
      "$%$%$$$$$$$$": 2078,
      "$%$!$$#": 2079,
      "$%$\"$$\"": 2080,
      "$%$&$$\"": 2081,
      "$%$%$$(": 2082,
      "$#-": 2083,
      "$#Ě": 2084,
      "$#$%": 2085,
      "$#$'": 2086,
      "$#\"$$#": 2087,
      "$#&$$#": 2088,
      "$#$\"$$$$": 2089,
      "$#$&$$$$#": 2090,
      "$#$\"$$&": 2091,
      "$#'$$$'": 2092,
      "$$%#$$$$%": 2093,
      "$$%'$$$$": 2094,
      "$$#$$$$#": 2095,
      "$$#$$$$$$$$$$$$": 2096,
      "$$#'$$\"": 2097,
      "$$##$$$$$$$$": 2098,
      "$$#$$$#$$$$$$%": 2099,
      "$&ě": 2100,
      "$&($$": 2101,
      "$&$&$$$$": 2102,
      "$&$#$$$$%": 2103,
      "$&$#$$$$#": 2104,
      "$&$&$$#": 2105,
      "$&$%$$&": 2106,
      "$&$%$$\"": 2107,
      "$\"Ě": 2108,
      "$\"$&$$$$": 2109,
      "$$&$$$#": 2110,
      "$$&\"$$%": 2111,
      "$$&\"$$&": 2112,
      "$$&$$$%$$%": 2113,
      "$$&$$$(": 2114,
      "$$\"#$$&": 2115,
      "$$\"&$$\"": 2116,
      "$$\"$$$!": 2117,
      "$$$$$$$$#$$$$%": 2118,
      "ĀĀĒ": 2119,
      "#$$$$$(": 2120,
      "#$$$$$$$#$$$$": 2121,
      "#$$$$'%": 2122,
      "%$$$$!": 2123,
      "%$$$$Ğ": 2124,
      "%$$$$$$$%": 2125,
      "%$$$$$%$$$$": 2126,
      "%$$$$$%#": 2127,
      "%$$$$$##": 2128,
      "%$$$$$##$$$$": 2129,
      "%$$$$$%#$$$$": 2130,
      "$$$#$$$$$$$$$$$$": 2131,
      "$$$%$%$$$$": 2132,
      "$$$%$$%$$$$": 2133,
      "$$$%$%#$$$#": 2134,
      "$'Ě": 2135,
      "$'$!": 2136,
      "$'$%$$#": 2137,
      "$!.": 2138,
      "$!ě": 2139,
      "$!ĀĀ": 2140,
      "$!\"$$": 2141,
      "$!&$$$$": 2142,
      "$!$&$$#": 2143,
      "$!#$$$\"": 2144,
      "$!$%$$\"": 2145,
      "$!%$$$&": 2146,
      "$$!$#": 2147,
      "$$!%$$\"": 2148,
      "$$!$$$": 2149,
      "$$!!$$\"": 2150,
      "$$!$$$!": 2151,
      "$$'&$$%": 2152,
      "$$'!$$%": 2153,
      "$#$$$$!": 2154,
      "$#$$$$$$$%$$$$": 2155,
      "$(-": 2156,
      "$(&$$$$": 2157,
      "$('$$": 2158,
      "$(#$$$#": 2159,
      "#$$%$$$#$$%": 2160,
      "%$$#$$%": 2161,
      "%$$%$$%$$$$": 2162,
      "%$$%$$$%$$$$": 2163,
      "#$$Ę": 2164,
      "#$$$\"$$%": 2165,
      "$%%#$$$$#": 2166,
      "$%%'$$%": 2167,
      "$%%$$$#$": 2168,
      "$%%%$$%$": 2169,
      "\"$$$$$\"": 2170,
      "\"$$$$!\"": 2171,
      "$#%#$$$$#": 2172,
      "$#%!$$&": 2173,
      "$#%%$$'": 2174,
      "$#%$$$%$$#": 2175,
      "$%#&$$$$": 2176,
      "$%##$$!": 2177,
      "$%#\"$$$$%": 2178,
      "$##%$$&": 2179,
      "$###$$$$$%": 2180,
      "%$$-": 2181,
      "%$$$!": 2182,
      "$)$$\"": 2183,
      "$)$ğ": 2184,
      "$)$$$$#": 2185,
      "$ğ+": 2186,
      "$ğě": 2187,
      "$ğ$$#": 2188,
      "&$$$(": 2189,
      "\"$$%$$%": 2190,
      "\"$$%$&%": 2191,
      "\"$$%$%&": 2192,
      "!$$,": 2193,
      "!$$.": 2194,
      "!$$/": 2195,
      "!$$ę": 2196,
      "!$$Ě": 2197,
      "!$$$'": 2198,
      "'$$.": 2199,
      "$*+": 2200,
      "$*,": 2201,
      "$*Ğ": 2202,
      "#$$&$\"'": 2203,
      "$&%#$$$$": 2204,
      "$&%%$$$$": 2205,
      "$&%&$$%": 2206,
      "$&%#$$$$#": 2207,
      "$&%\"$$&": 2208,
      "$&%%$$$$%": 2209,
      "$&%!$$#": 2210,
      "$&%'$$#": 2211,
      "Ġ$$-": 2212,
      "Ġ$$$&": 2213,
      "Ġ$$$Ĝ": 2214,
      "$$%$$$$$$$#$$$$": 2215,
      "$%&\"$$$$": 2216,
      "$%&#$$'": 2217,
      "$%&&$$&": 2218,
      "$Ğ*": 2219,
      "$Ğĝ": 2220,
      "$$#$$$$$$": 2221,
      "$$#$$$$$$&": 2222,
      "$$$$$$$$$$$$%$$$$$$": 2223,
      "#$$\"$%": 2224,
      "#$$\"$#%": 2225,
      "#$$\"$!'": 2226,
      "$$$&$#": 2227,
      "$&#!$$$$": 2228,
      "$&#%$$!": 2229,
      "$&#($$#": 2230,
      "$\"##$$%": 2231,
      "$\"#&$$$$": 2232,
      "$\"#\"$$#": 2233,
      "$\"#%$$$$%": 2234,
      "$\"#'$$$$": 2235,
      "$%\"!$$%": 2236,
      "$%\"'$$\"": 2237,
      "$#\"#$$%": 2238,
      "$#\"\"$$#": 2239,
      "$#\"#$$\"": 2240,
      "$#\"#$$$$%": 2241,
      "$#\"$$$#$": 2242,
      "($$,": 2243,
      "$\"%%$$$$": 2244,
      "$\"%#$$#": 2245,
      "$\"%%$$$$#": 2246,
      "$\"%'$$#": 2247,
      "$+(": 2248,
      "$\"$$$$$$\"": 2249,
      "#$$$$%$": 2250,
      "#$$$$#&": 2251,
      "#$$$$#%$$$%": 2252,
      "$ĝ.": 2253,
      "\"$$&$&#": 2254,
      "$$$\"$$&": 2255,
      "$$$\"$$\"": 2256,
      "$$$\"$$$$#": 2257,
      "$$$%$$$$$$\"": 2258,
      "$$$%$$$$$$#$$$$": 2259,
      "$$$.": 2260,
      "$$$/": 2261,
      "%$$$$#$%$$$$": 2262,
      "$\"\"$$$%": 2263,
      "$\"\"#$$%": 2264,
      "$\"\"'$$$$": 2265,
      "$\"\"%$$!": 2266,
      "$\"\"'$$\"": 2267,
      "$&$$$$$$": 2268,
      "$&$$$$$$\"": 2269,
      "#$$!$#": 2270,
      "&$$\"$$%": 2271,
      "\"$$\"$\"": 2272,
      "$&&$$$#": 2273,
      "$&&\"$$%": 2274,
      "$&&!$$%": 2275,
      "$$$#$$$$$$#$$$$": 2276,
      "ğ$$ĝ": 2277,
      "ğ$$$'": 2278,
      "$!#$$$#": 2279,
      "$!##$$%": 2280,
      "$!#%$$%": 2281,
      "$!#\"$$#": 2282,
      "$'%#$$%": 2283,
      "$'%%$$#": 2284,
      "$'%\"$$#": 2285,
      "$'%%$$&": 2286,
      "$'%!$$%": 2287,
      "$%$$$$#%": 2288,
      "$'##$$\"": 2289,
      "$'#!$$%": 2290,
      "$'#!$$#": 2291,
      "Ġ$$$$'": 2292,
      "$%'&$$%": 2293,
      "$%'\"$$&": 2294,
      "$%'%$$'": 2295,
      "$$#$$$#$##$$$$": 2296,
      ")$$)": 2297,
      ")$$Ę": 2298,
      ")$$$*": 2299,
      "Ā\"!": 2300,
      "Ā\"#": 2301,
      "Ā\"'": 2302,
      "$\"&#$$&": 2303,
      "$\"&&$$%": 2304,
      "!$$&$": 2305,
      "$%!#$$!": 2306,
      "$%!'$$#": 2307,
      "$%!%$$!": 2308,
      "$!%#$$%": 2309,
      "$!%\"$$%": 2310,
      "$!%%$$&": 2311,
      "Ġ\"#$$#": 2312,
      "$Ĝ)": 2313,
      "$$$#$$%$$$%": 2314,
      "Ġ$$%$": 2315,
      "$#'%$$%": 2316,
      "$#'%$$&": 2317,
      "$#'#$$'": 2318,
      "ĀĀ!Ā%": 2319,
      "ĀĀ!Ā)": 2320,
      "$$)$$$&": 2321,
      "Ā'(": 2322,
      "Ā'Ğ": 2323,
      "ĀĀ$Ā%": 2324,
      "$'\"#$$#": 2325,
      "$'\"&$$#": 2326,
      "$&'!$$%": 2327,
      "$&!%$$\"": 2328,
      "$\"'$$$%": 2329,
      "$\"'#$$'": 2330,
      "$\"'&$$&": 2331,
      "ĀĀ\"Ā&": 2332,
      "ĀĀ&Āğ": 2333,
      "ĀĀ&Āĝ": 2334,
      "$$$'$$\"": 2335,
      "$%($$$$": 2336,
      "$!\"&$$#": 2337,
      "$(%$$$#": 2338,
      "$!&#$$%": 2339,
      "$!&&$$$$": 2340,
      "$!&%$$&": 2341,
      "Ā((": 2342,
      "ĀĀ'Ā!": 2343,
      "Ġ!\"$$%": 2344,
      "Ġ&'$$&": 2345,
      "&##$$#": 2346,
      "\"#%$$#": 2347,
      "$#$$$$$$$$$$$#": 2348,
      "$#$$$$$$$$$$$$$$$$$$$$": 2349,
      "!$$'$$&": 2350,
      "Ā)#": 2351,
      "Ā)'": 2352,
      "ĀĀğĀĞ": 2353,
      "ĀĀğĀğ": 2354,
      "$&(%$$%": 2355,
      "ĀĀ)Ā\"": 2356,
      "ĀĀ)Ā!": 2357,
      "ĀĀ)Ā&": 2358,
      "ĀĞ#": 2359,
      "Āğ+": 2360,
      "\"$$($": 2361,
      "&$$$$#'": 2362,
      "($$$$&": 2363,
      "$%$$$$$$%%$$$$": 2364,
      "$#%$$$%$#%$$$%": 2365,
      "$!$$$$\"": 2366,
      "$$$$##&$$#": 2367,
      "$'(#$$%": 2368,
      "$'(#$$'": 2369,
      "Ġ$&$$&": 2370,
      "Ğ$$,": 2371,
      "ĝ$$ę": 2372,
      "$#($$$%": 2373,
      "$#($$$&": 2374,
      "$('$$$#": 2375,
      "#$$$$$$%$$#": 2376,
      "%$$$$$$%$$%": 2377,
      "$.)": 2378,
      "$.+": 2379,
      "Ā*#": 2380,
      "$#$#$$%$": 2381,
      "$'$$$$$%": 2382,
      "Āĝ#": 2383,
      "&&$$$%": 2384,
      "%$$$$$%%$$%": 2385,
      "%$$$$$##$$#": 2386,
      "$%$%$$#$": 2387,
      "$#\"$$$$$": 2388,
      "ĀĀ+Ā#": 2389,
      "ĀĀ%ĀĚ": 2390,
      "ĀĀ*Ā%": 2391,
      "$%#%$$#$": 2392,
      "$$$#$$$$$$$$$$$": 2393,
      "%$$*$": 2394,
      "$$#$$$$$$%$$$$$$$$$$$$": 2395,
      "#$$*$": 2396,
      "#$$$$!!": 2397,
      "%$$$$$&$$$%": 2398,
      "Ĝ$$ě": 2399,
      "ĀĀęĀ": 2400,
      "!$%$$&": 2401,
      "\",": 2402,
      "\"$$$$$$$$": 2403,
      "\"\"$$$$": 2404,
      "\"!$$$$": 2405,
      "\"&$$\"": 2406,
      "\"'$$'": 2407,
      "#\"": 2408,
      "#&$$#": 2409,
      "%+": 2410,
      "%#$$#": 2411,
      "%%$$&": 2412,
      "%!$$%": 2413,
      "%$$$%$$%": 2414,
      "&+": 2415,
      "&Ğ": 2416,
      "&$$$#": 2417,
      "&#$$#": 2418,
      "&$#$$#": 2419,
      "&$$$%$": 2420,
      "&!$$&": 2421,
      "&!#": 2422,
      "'Ĝ": 2423,
      "'ĀĀ#": 2424,
      "'$$$$%%": 2425,
      "(,": 2426,
      "(.": 2427,
      "(ğ": 2428,
      "),": 2429,
      ")Ĝ": 2430,
      ")ĝ": 2431,
      "*+": 2432,
      "*-": 2433,
      "*%$$&": 2434,
      "*ĀĀ(Ā": 2435,
      "++": 2436,
      ",!": 2437,
      ",\"": 2438,
      ",,": 2439,
      ",$$$$": 2440,
      ",$$\"": 2441,
      "-*": 2442,
      "-Ĝ": 2443,
      "-$$$$": 2444,
      "-$$%": 2445,
      ".%": 2446,
      ".)": 2447,
      "/$$": 2448,
      "Ā-": 2449,
      "ĕ$$": 2450,
      "ĘĀ": 2451,
      "Ę$$ğ": 2452,
      "ę!": 2453,
      "ę$": 2454,
      "Ě*": 2455,
      "Ě$$!": 2456,
      "ě!": 2457,
      "ě'": 2458,
      "ěĘ": 2459,
      "ě$$#": 2460,
      "ě$$!": 2461,
      "ě$$*": 2462,
      "Ĝ'": 2463,
      "Ĝ)": 2464,
      "Ĝ-": 2465,
      "Ĝ/": 2466,
      "Ĝě": 2467,
      "Ĝ$$\"": 2468,
      "Ĝ#$$": 2469,
      "Ĝ$$ğ": 2470,
      "Ĝ$$)": 2471,
      "ĝ$": 2472,
      "ĝ(": 2473,
      "ĝ/": 2474,
      "ĝ$$(": 2475,
      "ĝ$$*": 2476,
      "Ğ$$ğ": 2477,
      "ğ)": 2478,
      "ğ%$$#": 2479,
      "ğ$$$$#": 2480,
      "ğ#$$\"": 2481,
      "Ġ$##": 2482,
      "Ġ&$$$$": 2483,
      "Ġ$#&": 2484,
      "Ġ$%$$#": 2485,
      "Ġ$#$$%": 2486,
      "Ġ$#$$#": 2487,
      "Ġ$\"\"": 2488,
      "Ġ'$$%": 2489,
      "Ġ&$$&": 2490,
      "ĠĀ%": 2491,
      "ĠĀ#": 2492,
      "Ġ)$$": 2493,
      "Ġ$#'": 2494,
      "ĠĀĀ$": 2495,
      "Ġ$&!": 2496,
      "Ġ$\"$$%": 2497,
      "Ġ$\"!": 2498,
      "Ġ$-": 2499,
      "Ġ$ě": 2500,
      "Ġ$(#": 2501,
      "Ġ%$$(": 2502,
      "Ġ&$$$&": 2503,
      "Ġ%$$ğ": 2504,
      "Ġ$'$$$$": 2505,
      "Ġ$'$$%": 2506,
      "Ġ'$$ğ": 2507,
      "Ġ!$$ğ": 2508,
      "$$.": 2509,
      "$%.": 2510,
      "$%%$$#": 2511,
      "$%&$$%": 2512,
      "$%!$$$$": 2513,
      "$%$\"$$$$%": 2514,
      "$%#$$$$#%": 2515,
      "$%$#$$'": 2516,
      "$%!$$$": 2517,
      "$#.": 2518,
      "$#$#": 2519,
      "$#%$$%": 2520,
      "$##$$": 2521,
      "$#$ğ": 2522,
      "$##$$$$#": 2523,
      "$#$!$$$$": 2524,
      "$#$#$$$$$$#": 2525,
      "$##$$#$": 2526,
      "$#$#$$!": 2527,
      "$#$\"$$": 2528,
      "$#$#$$": 2529,
      "$$%%$$$$#": 2530,
      "$$%'$$&": 2531,
      "$$%($$%": 2532,
      "$$##$$$$#": 2533,
      "$$#!$$$$": 2534,
      "$$#$$$": 2535,
      "$$#'$$#": 2536,
      "$$#$$$%$": 2537,
      "$$#%$$$$%#": 2538,
      "$&$\"": 2539,
      "$&%$$": 2540,
      "$&&$$": 2541,
      "$&'$$": 2542,
      "$&$$(": 2543,
      "$&$%$$$$#": 2544,
      "$&&$$$&": 2545,
      "$&$\"$$$$%": 2546,
      "$&#$$$!": 2547,
      "$&\"$$$!": 2548,
      "$&%$$$\"": 2549,
      "$\"$": 2550,
      "$\"$)": 2551,
      "$\"$\"$$$$": 2552,
      "$\"!$$$$": 2553,
      "$\"$%$$$$%": 2554,
      "$\"$\"$$#": 2555,
      "$\"$!$$%": 2556,
      "$\"\"$$$!": 2557,
      "$\"$%$$(": 2558,
      "$$&$$#": 2559,
      "$$&$'": 2560,
      "$$&&$$#": 2561,
      "$$&%$$$$%": 2562,
      "$$&%$$$$#": 2563,
      "$$&#$$'": 2564,
      "$$&$$$'": 2565,
      "$$&!$$'": 2566,
      "$$&$$$%$%": 2567,
      "$$\"$$#": 2568,
      "$$\"%$$$$": 2569,
      "$$\"$$$%": 2570,
      "$$\"%$$%": 2571,
      "$$\"%$$": 2572,
      "$$\"!$$\"": 2573,
      "$$\"$$$$$$#": 2574,
      "$$$$$$$$\"": 2575,
      "$$$$$$$$#$$$$#": 2576,
      "$$$$$$$$%$$$$%": 2577,
      "$$$$$$$$$$$$#%": 2578,
      "#$$$$$#%": 2579,
      "#$$$$$$%$$$$": 2580,
      "#$$$$!#": 2581,
      "%$$$$$$$#": 2582,
      "%$$$$$!": 2583,
      "%$$$$$(": 2584,
      "%$$$$$#%": 2585,
      "%$$$$$&$$$$": 2586,
      "%$$$$$#$$$$$$": 2587,
      "%$$$$'%": 2588,
      "%$$$$'&": 2589,
      "$$$#$'": 2590,
      "$$$#$$$$#%": 2591,
      "$$$%$%\"": 2592,
      "$$$%$$$$##": 2593,
      "$'$#$$%": 2594,
      "$'$&$$$$": 2595,
      "$''$$$$": 2596,
      "$'\"$$$\"": 2597,
      "$'$%$$'": 2598,
      "$!#$$$$": 2599,
      "$!$$'": 2600,
      "$!$%$$$$": 2601,
      "$!$#$$$$": 2602,
      "$!$%$$#": 2603,
      "$!$#$$#": 2604,
      "$!$&$$$$": 2605,
      "$!$%$$$$%": 2606,
      "$!$$ğ": 2607,
      "$!$'$$#": 2608,
      "$$!$": 2609,
      "$$!$\"": 2610,
      "$$!$$$#": 2611,
      "$$!#$$\"": 2612,
      "$$!$'#": 2613,
      "$$!'$$\"": 2614,
      "$$!\"$$!": 2615,
      "$$!$$$#$": 2616,
      "$$'%": 2617,
      "$$'\"$$%": 2618,
      "$$'#$$'": 2619,
      "$$'$$$'": 2620,
      "$%$$$$!": 2621,
      "$%$$$$#$$%": 2622,
      "$%$$$$%$$#": 2623,
      "$%$$$$$#%$$$$": 2624,
      "$%$$$$#$$$$$$": 2625,
      "$#$$$$(": 2626,
      "$#$$$$$$$&": 2627,
      "$#$$$$%$$$$$$%": 2628,
      "$#$$$$'%": 2629,
      "$#$$$$$%$$$$$$": 2630,
      "$($$$$%": 2631,
      "$($%$$#": 2632,
      "$('$$$$": 2633,
      "$($\"$$%": 2634,
      "$(%$$$&": 2635,
      "#$$%$$%#$$%": 2636,
      "#$$$Ğ": 2637,
      "$%%\"$$\"": 2638,
      "$%%$$$%$$#": 2639,
      "$%%&$$'": 2640,
      "$%%#$$$$&": 2641,
      "\"$$$$$": 2642,
      "\"$$$$%$$$$$$": 2643,
      "$#%$$\"": 2644,
      "$#%#$$$$": 2645,
      "$#%$$$\"": 2646,
      "$#%'$$#": 2647,
      "$#%#$$'": 2648,
      "$#%&$$&": 2649,
      "$#%$$$%$$%": 2650,
      "$#%&$$$$#": 2651,
      "$#%#$$$$&": 2652,
      "$%#$$&": 2653,
      "$##!$$%": 2654,
      "$##$$$%$": 2655,
      "$##\"$$!": 2656,
      "\"$$ě": 2657,
      "\"$$$ğ": 2658,
      "&$$$$$": 2659,
      "&$$$$+": 2660,
      "&$$$$$&": 2661,
      "&$$$$$%%$$$$": 2662,
      "&$$$$$##$$$$": 2663,
      "%$$ę": 2664,
      "$)$!": 2665,
      "$)$\"$$\"": 2666,
      "$ğ$": 2667,
      "$ğ,": 2668,
      "$ğĜ": 2669,
      "$ğĝ": 2670,
      "$ğ$$&": 2671,
      "&$$-": 2672,
      "&$$$!": 2673,
      "$$$$%\"": 2674,
      "$$$$%$": 2675,
      "$$$$%$$$$$$$$$$$$": 2676,
      "\"$$%$!": 2677,
      "!$$$(": 2678,
      "!$$$ĝ": 2679,
      "'$$Ě": 2680,
      "'$$$(": 2681,
      "$*$ğ": 2682,
      "#$$&$#&": 2683,
      "$&%&$$#": 2684,
      "$&%\"$$$$%": 2685,
      "\"$$#$#": 2686,
      "\"$$#$%\"": 2687,
      "Ġ$$Ě": 2688,
      "Ġ$$$\"$$%": 2689,
      "$$%$$$$$$#$$$#": 2690,
      "$%&#$$$$": 2691,
      "$%&%$$#": 2692,
      "$%&#$$#": 2693,
      "$%&\"$$#": 2694,
      "$%&'$$%": 2695,
      "$%&'$$$$": 2696,
      "$%&$$$%$": 2697,
      "$%&!$$&": 2698,
      "$%&'$$&": 2699,
      "$%&!$$'": 2700,
      "$%&#$$%$": 2701,
      "$Ğ)": 2702,
      "$Ğě": 2703,
      "$Ğ$$\"": 2704,
      "$Ğ$$'": 2705,
      "$$#$$$$$$$#$$$$": 2706,
      "$$$$$$$$$$$$#$$$$": 2707,
      "#$$\"$'%": 2708,
      "$&#\"$$$$": 2709,
      "$&#&$$$$": 2710,
      "$&#\"$$&": 2711,
      "$&#!$$%": 2712,
      "$\"#%$$%": 2713,
      "$\"#\"$$%": 2714,
      "$\"##$$$$%": 2715,
      "$%\"%$$$$": 2716,
      "$%\"%$$": 2717,
      "$%\"\"$$\"": 2718,
      "$%\"'$$#": 2719,
      "$#&$$$#": 2720,
      "$#&%$$#": 2721,
      "$#&#$$#": 2722,
      "$#&&$$$$": 2723,
      "$#&'$$&": 2724,
      "$#\"%$$$$": 2725,
      "$#\"#$$": 2726,
      "$#\"#$$!": 2727,
      "$#\"'$$#": 2728,
      "($$-": 2729,
      "($$Ĝ": 2730,
      "($$$)": 2731,
      "($$$*": 2732,
      "$\"%#$$$$": 2733,
      "$\"$$$$$$": 2734,
      "$\"$$$$$$$#": 2735,
      "$\"$$$$$$#$$$$": 2736,
      "#$$$$%(": 2737,
      "#$$$$%%$$$$": 2738,
      "#$$$$%$%$$#": 2739,
      "#$$$$%$#$$$$%": 2740,
      "#$$$$#$": 2741,
      "#$$$$##$$$#": 2742,
      "#$$$$#%%$$%": 2743,
      "$$(&$$%": 2744,
      "$$($$$&": 2745,
      "$ĝ*": 2746,
      "$ĝĚ": 2747,
      "$ĝ$$": 2748,
      "\"$$&$#!": 2749,
      "$$$\"$$'": 2750,
      "$$$\"%$$#": 2751,
      "$%$$%$": 2752,
      "%$$$$%#$$$$": 2753,
      "!$$$$&": 2754,
      "$$$%$$$$$%": 2755,
      "$$$%$$$$$$%$$$$": 2756,
      "$$$ę": 2757,
      "$$$Ĝ": 2758,
      "%$$$$#$": 2759,
      "%$$$$##%$$#": 2760,
      "!$$#$!": 2761,
      "!$$#$&#": 2762,
      "$\"\"&$$%": 2763,
      "$&\"#$$!": 2764,
      "#$$!$%": 2765,
      "$&&%$$#": 2766,
      "$&&\"$$&": 2767,
      "$$$#$$$$$%": 2768,
      "'$$$$!": 2769,
      "'$$$$$": 2770,
      "'$$$$&#": 2771,
      "#$$'$!": 2772,
      "ğ$$ę": 2773,
      "ğ$$Ě": 2774,
      "$%%$$$$$$%$$$$": 2775,
      "$%$$$$%%": 2776,
      "$'%#$$#": 2777,
      "$%$$$$#$%%$$$$": 2778,
      "$#$$$$#%$$$$": 2779,
      "$##$$$$$$%$$$%": 2780,
      "$'##$$$$": 2781,
      "$'#%$$#": 2782,
      "$'#\"$$$$": 2783,
      "$'#%$$\"": 2784,
      "Ġ$$$$\"": 2785,
      "Ġ$$$$$#": 2786,
      "Ġ$$$$'!": 2787,
      "Ā%,": 2788,
      "$%'#$$$$": 2789,
      "$%'%$$#": 2790,
      "$%'%$$%": 2791,
      "$%'\"$$$$": 2792,
      "$%'#$$&": 2793,
      "$%'%$$&": 2794,
      "$$#$$$#$##$$$#": 2795,
      ")$$/": 2796,
      ")$$Ĝ": 2797,
      ")$$ĝ": 2798,
      "$#!$$$%": 2799,
      "$#!&$$!": 2800,
      "$$$%$$%#$$%": 2801,
      "Ā\")": 2802,
      "$$$$$$$$$$$$$$$$$$$$$$$$$$$$$$$$": 2803,
      "$\"&$$$%": 2804,
      "$\"&&$$$$": 2805,
      "$\"&%$$&": 2806,
      "ĀĀ#ĀĞ": 2807,
      "ĀĀ%Ā(": 2808,
      "ĀĀ%Ā*": 2809,
      "$%!\"$$#": 2810,
      "$%!#$$\"": 2811,
      "$,&": 2812,
      "$,,": 2813,
      "$,-": 2814,
      "$,.": 2815,
      "$,Ğ": 2816,
      "$%#$$$$$$#": 2817,
      "$%#$$$$$$%$$$$": 2818,
      "$!%$$$%": 2819,
      "Ġ\"#": 2820,
      "Ġ\"$$$#": 2821,
      "Ġ\"#$$%": 2822,
      "Ġ\"\"$$%": 2823,
      "Ġ\"#$$\"": 2824,
      "Ġ#$$$%": 2825,
      "Ġ##$$%": 2826,
      "Ġ#%$$%": 2827,
      "$$ğ$": 2828,
      "$ĜĞ": 2829,
      "$Ĝ$$#": 2830,
      "Ā&!": 2831,
      "Ā&ě": 2832,
      "$$$#$$%$": 2833,
      "$#''$$&": 2834,
      "Ā'ğ": 2835,
      "$'\"\"$$#": 2836,
      "$'\"%$$\"": 2837,
      "$'\"!$$#": 2838,
      "Ġ%%$$%": 2839,
      "$&'\"$$&": 2840,
      "$&!\"$$\"": 2841,
      "$&!%$$!": 2842,
      "$\"'%$$%": 2843,
      "$\"''$$&": 2844,
      "$\"'&$$'": 2845,
      "#$$$#$$$$$$$$": 2846,
      "ĀĀ\"Ā%": 2847,
      "ĀĀ&Ā(": 2848,
      "($$#$": 2849,
      "$%($$$&": 2850,
      "$!\"%$$#": 2851,
      "$!\"#$$\"": 2852,
      "$(%!$$#": 2853,
      "$!&%$$$$": 2854,
      "$!&#$$&": 2855,
      "$!&&$$%": 2856,
      "$!&'$$&": 2857,
      "Ā('": 2858,
      "$$$!$$#": 2859,
      "ĀĀ'Āğ": 2860,
      "ĀĀ'Āĝ": 2861,
      "Ġ!%$$\"": 2862,
      "Ġ$$&$": 2863,
      "\"%#$$%": 2864,
      "$$$#$$#%$$#": 2865,
      "$-!": 2866,
      "$-.": 2867,
      "&$$$$%\"": 2868,
      "$ě*": 2869,
      "$ěğ": 2870,
      "!$$'$$\"": 2871,
      "Ā)%": 2872,
      "Ā)&": 2873,
      "Ā),": 2874,
      "ĀĀğĀ)": 2875,
      "$%$$$$$$$$$$$%": 2876,
      "$&(!$$&": 2877,
      "$&(\"$$'": 2878,
      "ĀĀ)Ā*": 2879,
      "$(#\"$$\"": 2880,
      "($$%$": 2881,
      "$'(%$$%": 2882,
      "Ġ$&)": 2883,
      "Ğ$$ę": 2884,
      "$#$%$$#$$$$$$$$": 2885,
      "$$$$$$%$$%": 2886,
      "$#(%$$'": 2887,
      "ĀĀ(Āğ": 2888,
      "$!'#$$%": 2889,
      "$#$$$$$$#$$$$$$$$": 2890,
      "#$$$$$$%%$$$$": 2891,
      "ğ$$%$$%": 2892,
      "ĀĀĝĀ!": 2893,
      "%$$$$$$%$": 2894,
      "%$$$$$$%$$$$#": 2895,
      "$.%": 2896,
      "Ā*Ğ": 2897,
      "#$$$$$$$$$$$%": 2898,
      "Ā+ĝ": 2899,
      "ğ$$&$\"!": 2900,
      "ĀĀĞĀ!": 2901,
      "#$$)$$#": 2902,
      "$%ğ'$$\"": 2903,
      "$%$#$$#$": 2904,
      "%$$$$&$#$$#": 2905,
      "$%##$$#$": 2906,
      "%$$$$$$#$$$$#": 2907,
      "Ġ($$!": 2908,
      "%$$$%$$$$$$$$": 2909,
      "$Ě(": 2910,
      "Ġğ$$$$": 2911,
      "$$$$$$$$%%": 2912,
      "#$$$$$$#$$$$#": 2913,
      "&$$($": 2914,
      "$$&$$$$$": 2915,
      "+$$+": 2916,
      "+$$,": 2917,
      "+$$$(": 2918,
      "\"$$ğ$": 2919,
      "ĠĞ$$\"": 2920,
      "ĀĀ+Ā": 2921,
      "$)&#$$#": 2922,
      "$$ĝ($$": 2923,
      "'$$($": 2924,
      "($$'$": 2925,
      "$$$%$$$$$$$$$$$%": 2926,
      "$$$($": 2927,
      "ĀĀ$Ā,": 2928,
      "$$$%$$&#$$%": 2929,
      "$$$%$$&\"$$%": 2930,
      "$ę!": 2931,
      "ğ$$$$'": 2932,
      "$$$$$$$$$%$": 2933,
      "!$$$$#\"": 2934,
      "$#$#$$$$##$$$$": 2935,
      "ĀĀ-Ā": 2936,
      "$\"$%$$%$": 2937,
      "$!ğ#$$!": 2938,
      "'$$$$#&": 2939,
      "'$$$$%\"": 2940,
      "!$$*$": 2941,
      "$$$$$$$$$$$$$$$$$$$$$$$$$$$": 2942,
      "$%$$$$$$$$$$$$$": 2943,
      "Ě$$.": 2944,
      "ğ%ĀĀ": 2945,
      "*)$$(": 2946,
      "$&$#$$$$\"#": 2947,
      "$%$%$$$$%$%$$$$": 2948,
      "$$$$$$$$$$$$%%$$$$": 2949,
      "$#$$$$$$$#$$$#": 2950,
      "$%##$$$$&#": 2951,
      "$'&$$$(": 2952,
      "$%$#$$#$$$$$$#": 2953,
      "$%$$$$$$$$$$$$$$$$$$": 2954,
      "$&$!$$": 2955,
      "$#$$$$$$%$$$$#$": 2956,
      "!&$$%": 2957,
      "!!$$#": 2958,
      "!\"$$\"": 2959,
      "!&&": 2960,
      "!$$$$%#": 2961,
      "!#$$Ğ": 2962,
      "\"Ğ": 2963,
      "\"$&": 2964,
      "\"&$$": 2965,
      "\"&$$%": 2966,
      "\"#$$!": 2967,
      "\"$$$#$": 2968,
      "\"&$$$$%": 2969,
      "\"$\"$$#": 2970,
      "\"ĀĀ#Ā#": 2971,
      "#ĀĀ": 2972,
      "#$'": 2973,
      "#%$$%": 2974,
      "#\"$$$$": 2975,
      "#\"$$\"": 2976,
      "#$$$$$$$$$$$$$$$$": 2977,
      "#$$$#$$%": 2978,
      "#''": 2979,
      "%\"": 2980,
      "%Ě": 2981,
      "%ğ": 2982,
      "%#$$$$#": 2983,
      "%'$$%": 2984,
      "%ğ$$%": 2985,
      "&ę": 2986,
      "&$\"": 2987,
      "&$$$$$$$$": 2988,
      "&\"$$$$": 2989,
      "&#$$'": 2990,
      "&$$$%$$%": 2991,
      "&#$$%$": 2992,
      "&$$$%$%": 2993,
      "&$$$$$$$$$$$%": 2994,
      "'+": 2995,
      "'-": 2996,
      "'Ę": 2997,
      "'%$$$$": 2998,
      "'!$$%": 2999,
      "'&$$&": 3000,
      "'%$$'": 3001,
      "''$$&": 3002,
      "'$$$$##": 3003,
      "'ĀĀ%Ā": 3004,
      "(-": 3005,
      "(%$$&": 3006,
      "($#$$%": 3007,
      "(&$$&": 3008,
      "(Ĝ#": 3009,
      ")(": 3010,
      ")+": 3011,
      ")$$$$#": 3012,
      "*&": 3013,
      "*ĀĀ(": 3014,
      "*ĀĀ\"Ā": 3015,
      "+.": 3016,
      "+($$": 3017,
      "+$$Ğ": 3018,
      "+\"\"": 3019,
      "+ĀĀ,": 3020,
      "+ĀĀ#Ā": 3021,
      ",ğ": 3022,
      ",$$%": 3023,
      ",$$&": 3024,
      ",$$+": 3025,
      "-(": 3026,
      "-.": 3027,
      "-ĝ": 3028,
      "-$$\"": 3029,
      "-$$!": 3030,
      "-$Ğ": 3031,
      "-\"$$)": 3032,
      "-'$$*": 3033,
      ".$$#": 3034,
      ".ĀĀ&": 3035,
      ".ĀĀğ": 3036,
      ".ĀĀĞ": 3037,
      ".)%": 3038,
      "/$$&": 3039,
      "/ĀĀĞ": 3040,
      "/ĀĀ%Ā": 3041,
      "12": 3042,
      ":Ā": 3043,
      "Ā/": 3044,
      "Ā$\"": 3045,
      "Ĕ$$": 3046,
      "Ė$$": 3047,
      "ė$": 3048,
      "ė$$": 3049,
      "Ęğ": 3050,
      "Ę$$#": 3051,
      "ęĘ": 3052,
      "ę$$&": 3053,
      "ę$$ğ": 3054,
      "Ě$$&": 3055,
      "Ě$$ğ": 3056,
      "Ě%$$ğ": 3057,
      "Ě$$ĝ": 3058,
      "ě\"": 3059,
      "ě#": 3060,
      "ě&": 3061,
      "ě,": 3062,
      "ě\"$$\"": 3063,
      "ě$$ĝ": 3064,
      "ě$)ğ": 3065,
      "Ĝ,": 3066,
      "Ĝĝ": 3067,
      "Ĝ$$$\"": 3068,
      "Ĝ\"$$\"": 3069,
      "Ĝ$$Ğ": 3070,
      "Ĝ$$*": 3071,
      "Ĝĝ$$": 3072,
      "ĝ!": 3073,
      "ĝ+": 3074,
      "ĝ&$$": 3075,
      "ĝ$$ğ": 3076,
      "ĝĝ$$#": 3077,
      "Ğ$": 3078,
      "Ğ,": 3079,
      "Ğ%$$": 3080,
      "Ğ&$$": 3081,
      "Ğ#$$\"": 3082,
      "Ğ$$$": 3083,
      "Ğ'$$\"": 3084,
      "Ğ#$$ğ": 3085,
      "ğ$$$": 3086,
      "ğ!$$#": 3087,
      "ğ&$$ğ": 3088,
      "ğĚ$$\"": 3089,
      "Ġ0": 3090,
      "Ġė": 3091,
      "Ġę": 3092,
      "ĠĠ": 3093,
      "Ġ$#%": 3094,
      "Ġ#$$&": 3095,
      "Ġ%$$&": 3096,
      "Ġ$\"%": 3097,
      "Ġ$\"$$$$": 3098,
      "Ġ$&$$$$": 3099,
      "Ġ'$$$$": 3100,
      "Ġğ$$": 3101,
      "Ġ!$$&": 3102,
      "Ġ'$$\"": 3103,
      "Ġ$\"$$#": 3104,
      "Ġ$''": 3105,
      "Ġ$(&": 3106,
      "Ġ$'(": 3107,
      "Ġğ$$%": 3108,
      "Ġ$)&": 3109,
      "Ġ&$$ğ": 3110,
      "Ġ$ğ!": 3111,
      "Ġ%$$ĝ": 3112,
      "Ġ$ğ'": 3113,
      "Ġğ$$-": 3114,
      "$$Ě": 3115,
      "$$$*": 3116,
      "$$($$$'": 3117,
      "$%Ě": 3118,
      "$%$'": 3119,
      "$%#$$#": 3120,
      "$%\"$$#": 3121,
      "$%$Ğ": 3122,
      "$%$$$%$$%": 3123,
      "$%$$)": 3124,
      "$%$$Ğ": 3125,
      "$%*$$": 3126,
      "$%$&$$$$%": 3127,
      "$%$'$$#": 3128,
      "$%$#$$$$$$$$$$$$": 3129,
      "$%'$$$&": 3130,
      "$%'$$$'": 3131,
      "$%$($$\"": 3132,
      "$#/": 3133,
      "$##$$$$%": 3134,
      "$#\"$$$$%": 3135,
      "$#$#$$$$$$$$": 3136,
      "$#$%$$\"": 3137,
      "$#$$ĝ": 3138,
      "$#$'$$%": 3139,
      "$#&$$$'": 3140,
      "$#\"$$$!": 3141,
      "$#!$$$!": 3142,
      "$#)$$$'": 3143,
      "$#$%$$!": 3144,
      "$#ğ$$$!": 3145,
      "$#\"$$$&": 3146,
      "$#!$$$": 3147,
      "$#$%$$": 3148,
      "$#$#$$(": 3149,
      "$$%$$$$$$$$": 3150,
      "$$%\"$$#": 3151,
      "$$%%$$\"": 3152,
      "$$%$$$$$$$$$$$$": 3153,
      "$$%#$$\"": 3154,
      "$$%!$$%": 3155,
      "$$%&$$\"": 3156,
      "$$%#$$'": 3157,
      "$$%$$$#$$%": 3158,
      "$$%\"$$!": 3159,
      "$$%$$$%$$#": 3160,
      "$$%$$$'": 3161,
      "$$%\"$$$$%": 3162,
      "$$%$%$$$$$$%": 3163,
      "$$%#$$$$\"": 3164,
      "$$%%$$$$%%": 3165,
      "$$#$&": 3166,
      "$$#$%#": 3167,
      "$$#%$$": 3168,
      "$$##$$&": 3169,
      "$$#\"$$\"": 3170,
      "$$#$$$#$$$$": 3171,
      "$$#$$$%$$%": 3172,
      "$$#$%!": 3173,
      "$$#&$$!": 3174,
      "$$#&$$$$#": 3175,
      "$$#$$$$##": 3176,
      "$$#%$$$$%%": 3177,
      "$$#!$$$$#": 3178,
      "$&ę": 3179,
      "$&Ě": 3180,
      "$&#$$": 3181,
      "$&$$$&": 3182,
      "$&$$Ğ": 3183,
      "$&$&$$%": 3184,
      "$&$$$$%%": 3185,
      "$&%$$$$$$#": 3186,
      "$&$'$$#": 3187,
      "$&$\"$$&": 3188,
      "$&$!$$#": 3189,
      "$&$\"$$\"": 3190,
      "$&$!$$&": 3191,
      "$&!$$$!": 3192,
      "$\"Ė": 3193,
      "$\"$$$$$$$$": 3194,
      "$\"$'": 3195,
      "$\"'$$": 3196,
      "$\"$Ğ": 3197,
      "$\"$$$$$$$$$$$$": 3198,
      "$\"'$$#": 3199,
      "$\"$#$$$$%": 3200,
      "$\"$$Ğ": 3201,
      "$\"$#$$$$$$$$": 3202,
      "$\"$%$$&": 3203,
      "$\"$&$$$$%": 3204,
      "$\"$!$$#": 3205,
      "$\"&$$$'": 3206,
      "$\"'$$$'": 3207,
      "$\"$!$$&": 3208,
      "$\"$&$$\"": 3209,
      "$\"%$$$\"": 3210,
      "$\"$%$$!": 3211,
      "$\"$'$$&": 3212,
      "$$&!$$%": 3213,
      "$$&'$$%": 3214,
      "$$&'$$#": 3215,
      "$$&'$$$$": 3216,
      "$$&%$$'": 3217,
      "$$&\"$$'": 3218,
      "$$&$$$%$$#": 3219,
      "$$&($$#": 3220,
      "$$&$$$!": 3221,
      "$$\"$$&": 3222,
      "$$\"#$$$$": 3223,
      "$$\"$$(": 3224,
      "$$\"!$$$$": 3225,
      "$$\"%$$!": 3226,
      "$$\"&$$!": 3227,
      "$$\"$$$$$$%": 3228,
      "$$\"#$$\"$": 3229,
      "$$$$$$$$$%$$$$": 3230,
      "$$$$$$$$$%%$$$$": 3231,
      "$$$$$$$$$##$$$$": 3232,
      "$$$$$$$$$$$%$$$$$$": 3233,
      "ĀĀ;": 3234,
      "ĀĀē": 3235,
      "ĀĀĕ": 3236,
      "#$$$$(": 3237,
      "#$$$$$!": 3238,
      "#$$$$$$'": 3239,
      "#$$$$#$$$$$$#": 3240,
      "#$$$$$#$$$$$$": 3241,
      "#$$$$!%": 3242,
      "#$$$$$$#$$$$$$#": 3243,
      "#$$$$#$$$$$$": 3244,
      "#$$$$%$$$$$$": 3245,
      "#$$$$$$%$$$$$$%$$$$": 3246,
      "%$$$$,": 3247,
      "%$$$$%$$%": 3248,
      "%$$$$#$$#": 3249,
      "%$$$$\"#": 3250,
      "%$$$$$#%$$$%": 3251,
      "%$$$$$$%$$$$$$#": 3252,
      "$$$#$%#": 3253,
      "$$$#$ĝ": 3254,
      "$'-": 3255,
      "$'.": 3256,
      "$'$$$%": 3257,
      "$'$'": 3258,
      "$'$#$$$$": 3259,
      "$'#$$%": 3260,
      "$'&$$$$": 3261,
      "$'$%$$%": 3262,
      "$'$!$$%": 3263,
      "$'$'$$#": 3264,
      "$'$\"$$&": 3265,
      "$''$$$&": 3266,
      "$'$!$$#": 3267,
      "$'\"$$$!": 3268,
      "$'&%$$'": 3269,
      "$'$!$$\"": 3270,
      "$!,": 3271,
      "$!#$$#": 3272,
      "$!$+": 3273,
      "$!$\"$$$$": 3274,
      "$!!$$$$": 3275,
      "$!$\"$$%": 3276,
      "$!$&$$%": 3277,
      "$!$$$$%%": 3278,
      "$!'$$$&": 3279,
      "$!&$$$'": 3280,
      "$!$&$$&": 3281,
      "$!\"$$$": 3282,
      "$!$'$$&": 3283,
      "$$!$$&": 3284,
      "$$!%$$%": 3285,
      "$$!\"$$$$": 3286,
      "$$!\"$$#": 3287,
      "$$!&$$#": 3288,
      "$$!&$$\"": 3289,
      "$$!\"$$\"": 3290,
      "$$!$%'": 3291,
      "$$'\"$$&": 3292,
      "$$''$$%": 3293,
      "$$'($$%": 3294,
      "$%$$$$(": 3295,
      "$%$$$$$$\"": 3296,
      "$%$$$$&$$$$": 3297,
      "$%$$$$$$%$$$$": 3298,
      "$%$$$$$$$#$$$$": 3299,
      "$%$$$$&%": 3300,
      "$%$$$$%$$$$$$#": 3301,
      "$%$$$$#$$$$$$#": 3302,
      "$%$$$$$$$#$$$$$$#": 3303,
      "$%$$$$#$$%$$$$": 3304,
      "$#$$$$$%": 3305,
      "$#$$$$%$$\"": 3306,
      "$#$$$$%$$&": 3307,
      "$#$$$$$##$$$$": 3308,
      "$#$$$$#$$$$$$%": 3309,
      "$#$$$$#$$$$$$#": 3310,
      "$#$$$$#$$$$$$": 3311,
      "$(Ĝ": 3312,
      "$(#$$$$": 3313,
      "$($$'": 3314,
      "$($$$$#": 3315,
      "$($#$$%": 3316,
      "$($\"$$#": 3317,
      "$($#$$\"": 3318,
      "$($\"$$&": 3319,
      "$('$$$&": 3320,
      "$(!$$$\"": 3321,
      "$(%$$$\"": 3322,
      "$(!$$$ğ": 3323,
      "#$$%$%#": 3324,
      "#$$%$$%$$$%": 3325,
      "%$$##$$#": 3326,
      "%$$#$##": 3327,
      "%$$#$$%$$$#": 3328,
      "%$$#$%#\"$$#": 3329,
      "%$$%$)": 3330,
      "%$$%$%%$$$$": 3331,
      "#$$ě$": 3332,
      "$%%$$$$$$$$": 3333,
      "$%%#$$\"": 3334,
      "$%%#$$!": 3335,
      "$%%'$$#": 3336,
      "$%%'$$$$": 3337,
      "$%%%$$'": 3338,
      "$%%$$$!": 3339,
      "$%%\"$$$$#": 3340,
      "$%%#$$%$": 3341,
      "$%%#$$$$$$$$": 3342,
      "$%%($$&": 3343,
      "$%%\"$$$$\"": 3344,
      "$%%%$$$$##": 3345,
      "\"$$$$(": 3346,
      "\"$$$$$#%$$$$": 3347,
      "\"$$$$\"$$$$%": 3348,
      "\"$$$$\"%": 3349,
      "\"$$$$\"\"": 3350,
      "\"$$$$'&": 3351,
      "\"$$$$$%\"$$$$": 3352,
      "$#%$$!": 3353,
      "$#%#$$!": 3354,
      "$#%'$$$$": 3355,
      "$#%\"$$'": 3356,
      "$#%'$$&": 3357,
      "$#%$$$!": 3358,
      "$#%($$%": 3359,
      "$#%%$$$$$%": 3360,
      "$#%\"$$%$": 3361,
      "$#%&$$$$#%": 3362,
      "$%#$$$$$$$$": 3363,
      "$%#\"$$": 3364,
      "$%#&$$%": 3365,
      "$%#$$$$$$$$$$$$": 3366,
      "$%#%$$&": 3367,
      "$%#%$$$$%": 3368,
      "$%#&$$\"": 3369,
      "$%#%$$!": 3370,
      "$%#!$$\"": 3371,
      "$%#'$$\"": 3372,
      "$%#\"$$!": 3373,
      "$%#\"$$$$#": 3374,
      "$%#ğ$$#": 3375,
      "$%#'$$!": 3376,
      "$%#)$$#": 3377,
      "$%##$$$$#%": 3378,
      "$%##$$$$%#": 3379,
      "$%#%$$$$#%": 3380,
      "$%##$$$$$#$$$#": 3381,
      "$##$$\"": 3382,
      "$##%$$": 3383,
      "$##$$$$$$$$$$$$": 3384,
      "$##!$$#": 3385,
      "$###$$!": 3386,
      "$##\"$$\"": 3387,
      "$##$$$#$$%": 3388,
      "$###$$$$\"": 3389,
      "$##%$$$$$#": 3390,
      "$##$$$%$%": 3391,
      "$###$$$$!": 3392,
      "$##%$$$$$$%$$%": 3393,
      "\"$$ė": 3394,
      "\"$$$(": 3395,
      "\"$$$ĝ": 3396,
      "\"$$$\"$$%": 3397,
      "&$$$$&\"": 3398,
      "&$$$$'%": 3399,
      "&$$$$$$%$$#": 3400,
      "%$$.": 3401,
      "$)ĝ": 3402,
      "$)$\"$$$$": 3403,
      "$)$!$$$$": 3404,
      "$)##$$#": 3405,
      "$ğ$#$$&": 3406,
      "$ğ%$$$&": 3407,
      "$ğ($$$(": 3408,
      "&$$ē": 3409,
      "&$$ĕ": 3410,
      "&$$Ę": 3411,
      "$$$$%!": 3412,
      "\"$$%$#$#$$%": 3413,
      "\"$$%$##%$$%": 3414,
      "!$$ė": 3415,
      "!$$$&": 3416,
      "!$$$Ĝ": 3417,
      "'$$$": 3418,
      "'$$-": 3419,
      "'$$ě": 3420,
      "'$$ĝ$$%": 3421,
      "$*-": 3422,
      "$*.": 3423,
      "$*$$": 3424,
      "$*ĀĀ": 3425,
      "$*$$$$%": 3426,
      "#$$&$%": 3427,
      "#$$&$&%": 3428,
      "#$$&$#\"": 3429,
      "#$$&$%ğ": 3430,
      "&$$%$%$#$$%": 3431,
      "$&%#$$\"": 3432,
      "$&%#$$$$%": 3433,
      "$&%\"$$\"": 3434,
      "$&%#$$'": 3435,
      "$&%&$$&": 3436,
      "$&%#$$%$": 3437,
      "$&%#$$$$\"": 3438,
      "$&%\"$$%$": 3439,
      "\"$$#$&": 3440,
      "\"$$#$('": 3441,
      "&$$#$#\"": 3442,
      "Ġ$$.": 3443,
      "Ġ$$Ė": 3444,
      "Ġ$$$\"$$&": 3445,
      "$$%$$$$$%#$$$$": 3446,
      "$$%$$$$$#%$$$%": 3447,
      "$$%$$$$$$#$": 3448,
      "$%&%$$$$": 3449,
      "$%&&$$#": 3450,
      "$%&!$$#": 3451,
      "$%&&$$\"": 3452,
      "$%&ğ$$'": 3453,
      "%$$\"$)": 3454,
      "%$$\"$ğ": 3455,
      "%$$\"$#\"": 3456,
      "$Ğ+": 3457,
      "$Ğ-": 3458,
      "$Ğ$$$$": 3459,
      "$$$$$$$$$$$$$%": 3460,
      "$$$$$$$$$$$$$$$#": 3461,
      "$$$$$$$$$$$$$#$$$$": 3462,
      "$$$$$$$$$$$$$$$#$$$$": 3463,
      "$$$$$$$$$$$$$%$$$$%": 3464,
      "$$$$$$$$$$$$$##$$$$": 3465,
      "$$$$$$$$$$$$$%$$$$$$%": 3466,
      "$$$$$$$$$$$$$$%$$$$$": 3467,
      "%$$&$(": 3468,
      "#$$\"$\"#": 3469,
      "$$$&$$$$$$%": 3470,
      "$&##$$": 3471,
      "$&#!$$#": 3472,
      "$&##$$!": 3473,
      "$&#\"$$!": 3474,
      "$&##$$$$&": 3475,
      "$&#ğ$$#": 3476,
      "$\"##$$&": 3477,
      "$\"#%$$&": 3478,
      "$\"#\"$$&": 3479,
      "$\"#%$$$$#": 3480,
      "$\"#!$$#": 3481,
      "$\"#'$$#": 3482,
      "$\"#&$$&": 3483,
      "$\"#ĝ$$%": 3484,
      "$\"#%$$$$##": 3485,
      "$%\"#$$%": 3486,
      "$%\"!$$": 3487,
      "$%\"\"$$!": 3488,
      "$%\"\"$$$$%": 3489,
      "$%\"$$$#$": 3490,
      "$#&$$\"": 3491,
      "$#&&$$#": 3492,
      "$#&!$$&": 3493,
      "$#&%$$'": 3494,
      "$#&&$$'": 3495,
      "$#&#$$(": 3496,
      "$#&%$$$$&": 3497,
      "$#&&$$(": 3498,
      "$#\"%$$%": 3499,
      "$#\"\"$$$$": 3500,
      "$#\"%$$": 3501,
      "$#\"#$$&": 3502,
      "$#\"&$$%": 3503,
      "$#\"\"$$&": 3504,
      "$#\"&$$\"": 3505,
      "$#\"\"$$'": 3506,
      "$#\"($$\"": 3507,
      "($$$": 3508,
      "($$Ě": 3509,
      "($$$!": 3510,
      "$\"%&$$&": 3511,
      "$\"%%$$'": 3512,
      "$\"%!$$\"": 3513,
      "$\"%($$%": 3514,
      "$\"%#$$%$": 3515,
      "$+$": 3516,
      "$+*": 3517,
      "$+,": 3518,
      "$+.": 3519,
      "$\"$$$$$$$%": 3520,
      "$\"$$$$%$$%": 3521,
      "#$$$$%$#$$$$": 3522,
      "#$$$$%%$$$%": 3523,
      "#$$$$%##$$#": 3524,
      "#$$$$#$#$$$$#": 3525,
      "$$(#$$%": 3526,
      "$ĝ(": 3527,
      "$ĝę": 3528,
      "$#$$%$$$$$$$$": 3529,
      "$#$$#$$#$$$$": 3530,
      "\"$$&$$%": 3531,
      "\"$$&$\"": 3532,
      "\"$$&$$(": 3533,
      "%$$$$%%$$$$": 3534,
      "%$$$$%#%$$#": 3535,
      "!$$$$\"": 3536,
      "!$$$$+": 3537,
      "!$$$$ğ": 3538,
      "!$$$$$$#": 3539,
      "!$$$$&#": 3540,
      "!$$$$\"%": 3541,
      "!$$$$&\"": 3542,
      "!$$$$$$%$$%": 3543,
      "$$$%$$$$$%$$$$": 3544,
      "$$$%$$$$$$%$": 3545,
      "$$$Ě": 3546,
      "%$$$$#'": 3547,
      "%$$$$#$%$$%": 3548,
      "%$$$$#%#$$%": 3549,
      "%$$$$###$$#": 3550,
      "!$$#$$\"": 3551,
      "!$$#$(": 3552,
      "$\"\"#$$": 3553,
      "$\"\"&$$$$": 3554,
      "$\"\"&$$\"": 3555,
      "$\"\"($$#": 3556,
      "$&\"$$$%": 3557,
      "$&\"\"$$%": 3558,
      "$&\"#$$\"": 3559,
      "$&\"\"$$&": 3560,
      "$&\"!$$%": 3561,
      "$&\"\"$$!": 3562,
      "$&\"!$$!": 3563,
      "$&\"ğ$$#": 3564,
      "$&$$$$$$$#": 3565,
      "$&$$$$#$$%": 3566,
      "$&$$$$&%": 3567,
      "$&$$$$%$$##$$#": 3568,
      "#$$!$!": 3569,
      "&$$\"$&": 3570,
      "&$$\"$!": 3571,
      "\"$$\"$'": 3572,
      "$&&%$$%": 3573,
      "$&&#$$#": 3574,
      "$&&\"$$(": 3575,
      "$$$#$$$$&": 3576,
      "$$$#$$$$$$": 3577,
      "$$$#$$$$$%$$$$": 3578,
      "$$$#$$$$$%#$$%": 3579,
      "$$$#$$$$$%$$$$$": 3580,
      "'$$%$$&": 3581,
      "'$$%$\"#": 3582,
      "'$$$$(": 3583,
      "'$$$$$$%": 3584,
      "'$$$$$&$$$$": 3585,
      "'$$$$&\"": 3586,
      "#$$'$ğ": 3587,
      "$!##$$$$": 3588,
      "$!#!$$%": 3589,
      "$!#!$$$$": 3590,
      "$!##$$+": 3591,
      "$%%$$$$\"": 3592,
      "%$$!$*": 3593,
      "%$$!$'\"": 3594,
      "%$$!$\"!": 3595,
      "$'%#$$$$": 3596,
      "$'%%$$$$": 3597,
      "$'%\"$$$$": 3598,
      "$'%\"$$%": 3599,
      "$'%%$$\"": 3600,
      "$'%!$$$$": 3601,
      "$'%#$$'": 3602,
      "$#$$$$%&": 3603,
      "$#$$$$%$$$$$$$$": 3604,
      "$%$$$$#%$$$$": 3605,
      "$%$$$$#$#%": 3606,
      "$%$$$$#$%$$$$#": 3607,
      "$#$$$$##": 3608,
      "$#$$$$#$%$$$$%": 3609,
      "$#$$$$#$#%$$$$": 3610,
      "$##$$$$$##$$$$": 3611,
      "&%ĝ": 3612,
      "&%%$$%": 3613,
      "&%!$$&": 3614,
      "$'#$$$%": 3615,
      "$'##$$&": 3616,
      "$'#&$$%": 3617,
      "$'##$$$$&": 3618,
      "Ġ$$$$!": 3619,
      "Ġ$$$$+": 3620,
      "Ġ$$$$$$%": 3621,
      "Ġ$$$$'&": 3622,
      "Ġ$$$$!'": 3623,
      "Ġ$$$$!!": 3624,
      "Ā%'": 3625,
      "Ā#)": 3626,
      "Ā#-": 3627,
      "Ā#ĝ": 3628,
      "$%'\"$$%": 3629,
      "$%'#$$'": 3630,
      "$%'!$$&": 3631,
      "$%'#$$(": 3632,
      "$$#$$$#$%$$$$#": 3633,
      ")$$$)": 3634,
      "$#!%$$": 3635,
      "$#!#$$\"": 3636,
      "$#!%$$!": 3637,
      "$$$%$$%$$$%$$%": 3638,
      "$$$%$$%$$$%$$#": 3639,
      "Ā\"Ĝ": 3640,
      "$$$$$$$$$$$$$$$$$$$%": 3641,
      "$$$$$$$$$$$$$$$$$$$$%": 3642,
      "$\"&#$$$$": 3643,
      "$\"&$$$#": 3644,
      "$\"&\"$$$$": 3645,
      "$\"&&$$&": 3646,
      "$\"&\"$$'": 3647,
      "$#%$$$$$##$$$$": 3648,
      "$#%$$$$$%#$$$#": 3649,
      "$#%$$$$$$$#$$#": 3650,
      "ĀĀ#Āğ": 3651,
      "!$$&$\"#": 3652,
      "!$$&$!#": 3653,
      "%$$'$$(": 3654,
      "ĀĀ%ĀĞ": 3655,
      "ĀĀ%Āĝ": 3656,
      "$%!#$$": 3657,
      "$%!&$$#": 3658,
      "$%!!$$#": 3659,
      "$%!\"$$\"": 3660,
      "$,ĝ": 3661,
      "$!%%$$%": 3662,
      "$!%&$$#": 3663,
      "$!%'$$#": 3664,
      "$!%'$$$$": 3665,
      "$!%&$$&": 3666,
      "Ġ\"ĀĀ": 3667,
      "Ġ\"%$$$$": 3668,
      "Ġ\"%$$%": 3669,
      "Ġ\"\"$$!": 3670,
      "Ā!(": 3671,
      "Ġ$$#$": 3672,
      "Ġ#%": 3673,
      "Ġ#'": 3674,
      "Ġ#ğ": 3675,
      "Ġ##$$$$": 3676,
      "Ġ#%$$$$": 3677,
      "Ġ#$$$#": 3678,
      "Ġ#\"$$%": 3679,
      "$$ğ$$$\"": 3680,
      "$$ğ\"$$!": 3681,
      "$Ĝ*": 3682,
      "$Ĝ$$$$": 3683,
      "Ā&)": 3684,
      "Ā&ĕ": 3685,
      "\"$$'$#": 3686,
      "$$$#$$%$%$$$$#": 3687,
      "Ġ$$%$&": 3688,
      "$#'#$$&": 3689,
      "ĀĀ!Ā%*": 3690,
      "$$)$": 3691,
      "$$)%$$%": 3692,
      "$$)!$$&": 3693,
      "'$$\"$'": 3694,
      "ĀĀ$Ā&": 3695,
      "ĀĀ$Ā(": 3696,
      "$'\"#$$!": 3697,
      "$'\"!$$\"": 3698,
      "$'\"\"$$!": 3699,
      "Ġ%*": 3700,
      "Ġ%ĀĀ": 3701,
      "Ġ%\"$$%": 3702,
      "$&'\"$$%": 3703,
      "$&'&$$&": 3704,
      "$&!%$$%": 3705,
      "$&!!$$\"": 3706,
      "$&!!$$!": 3707,
      "$\"'\"$$%": 3708,
      "$\"'%$$&": 3709,
      "$\"''$$%": 3710,
      "$$$%$$#$": 3711,
      "ĀĀ\"Āğ": 3712,
      "ĀĀ\"Ā*": 3713,
      "ĀĀ&Ā%": 3714,
      "$\"$$%$%": 3715,
      "&$$!$": 3716,
      "$\"!&$$$$": 3717,
      "$\"!%$$!": 3718,
      "$\"!!$$\"": 3719,
      "Ġ$$\"$)": 3720,
      "Ġ$$\"$#!": 3721,
      "$%(#$$%": 3722,
      "$%(#$$&": 3723,
      "$%(!$$&": 3724,
      "$%(#$$(": 3725,
      "$%(($$%": 3726,
      "$$Ğ#$$\"": 3727,
      "$!\"$$$#": 3728,
      "$!\"%$$%": 3729,
      "$!\"&$$'": 3730,
      "$!\")$$#": 3731,
      "&$$'$#": 3732,
      "#$$$\"$": 3733,
      "$(%$$$%": 3734,
      "$(%%$$#": 3735,
      "$(%#$$&": 3736,
      "$(%%$$\"": 3737,
      "$(%'$$$$": 3738,
      "$(%!$$!": 3739,
      "$!&%$$%": 3740,
      "$$$!$$$$": 3741,
      "ĀĀ'Ā#": 3742,
      "ĀĀ'Ā*": 3743,
      "ĀĀ'Ā%*": 3744,
      "Ġ&#$$&": 3745,
      "Ġ&&$$%": 3746,
      "&#\"": 3747,
      "&#&": 3748,
      "&#\"$$#": 3749,
      "Ġ$$&$&&": 3750,
      "\"#%$$$$": 3751,
      "\"#$$$%": 3752,
      "\"%%$$#": 3753,
      "\"%%$$&": 3754,
      "$'&&$$%": 3755,
      "$'&\"$$&": 3756,
      "$'&!$$$$": 3757,
      "$%#$$$#$$$$$$$$": 3758,
      "$%#$$$#$$$$$$$$$$$$$$$$": 3759,
      "$$$#$$##$$#": 3760,
      "$-%": 3761,
      "$-&": 3762,
      "&$$$$%&": 3763,
      "$#$$$$$$$$%$$$$": 3764,
      "$#$$$$$$$$$$$$%": 3765,
      "$ě#": 3766,
      "$ě&": 3767,
      "$ě'": 3768,
      "$ě$$)": 3769,
      "\"$$$$#&": 3770,
      "\"$$$$#%$$$$": 3771,
      "ĀĀğĀ'": 3772,
      "#$$($ğ#": 3773,
      "$%$$$$$$$$$$#": 3774,
      "$%$$$$$$$$$$$$$$$$$$$$": 3775,
      "$&($$$$": 3776,
      "$&(#$$&": 3777,
      "$&($$$&": 3778,
      "ĀĀ)Ā(": 3779,
      "$(##$$#": 3780,
      "$(#\"$$%": 3781,
      "$(##$$\"": 3782,
      "$(#ğ$$#": 3783,
      "$''$$$%": 3784,
      "$''#$$\"": 3785,
      "$''%$$'": 3786,
      "ĀĞ&": 3787,
      "ĀĞĞ": 3788,
      "$$%$$$%$%%$$$$": 3789,
      "$$%$$$%$#%$$$$": 3790,
      "$$*#$$(": 3791,
      "\"$$($!": 3792,
      "\"$$($Ğ": 3793,
      "&$$$$#%$$$$": 3794,
      "!$$!$#": 3795,
      "!$$!$&#": 3796,
      "$!!%$$#": 3797,
      "$!!#$$#": 3798,
      "$!!&$$#": 3799,
      "$!!%$$\"": 3800,
      "$!!($$#": 3801,
      "$%$$$$$$%#": 3802,
      "$%$$$$$$%#$$$$": 3803,
      "$(&$$$#": 3804,
      "$(&\"$$&": 3805,
      "$(&!$$#": 3806,
      "Ġ$$'$": 3807,
      "$!$$$$$$%": 3808,
      "$!$$$$$$#": 3809,
      "$%$#$$$$\"": 3810,
      "$%$#$$$$$%": 3811,
      "$%$#$$$$%$$$$$$#": 3812,
      "$(\"$$$#": 3813,
      "$(\"$$$%": 3814,
      "$(\"%$$\"": 3815,
      "$##$$$#$$$$$$$$#": 3816,
      "ğ$$#$": 3817,
      "$#$%$$$$\"": 3818,
      "$#$%$$$$%$$$$$$%": 3819,
      "#$$ğ$": 3820,
      "$%%$$$%$$#$$$$": 3821,
      "Ġ$&$$'": 3822,
      "Ğ$$Ė": 3823,
      "Ğ$$Ĝ": 3824,
      "ĝ$$+": 3825,
      "ĝ$$ē": 3826,
      "$$$$$$%$": 3827,
      "$#(#$$&": 3828,
      "$#(&$$%": 3829,
      "ĀĀ(Ā!": 3830,
      "ĀĀ(Ā&": 3831,
      "$!'$$$%": 3832,
      "$!''$$&": 3833,
      "$#$$$$$$#$$$$%": 3834,
      "$#$$$$$$##%$$#": 3835,
      "$#$$$$$$#%&$$%": 3836,
      "#$$$$$$%$$$$#": 3837,
      "#$$$$$$%%$$$%": 3838,
      "ğ$$%$": 3839,
      "%$$$$$$%$$$$$$$$": 3840,
      "%$$$$$$%$$$$$$$$$$$$": 3841,
      "$.(": 3842,
      "$.ğ": 3843,
      "Ā*\"": 3844,
      "Ā*(": 3845,
      "#$$$$$$$$$%": 3846,
      "#$$$$$$$$$#": 3847,
      "Ā+%": 3848,
      "Ā+'": 3849,
      "$\"(%$$%": 3850,
      "$\"(&$$&": 3851,
      "$%%#$$%$$$#$$%": 3852,
      "\"\"#$$#": 3853,
      "ğ$$&$": 3854,
      "ĀĀĞĀ#": 3855,
      "ĀĀĞĀ'": 3856,
      "$'!$$$#": 3857,
      "$'!#$$%": 3858,
      "#$$)$%!": 3859,
      "#$$)$#(": 3860,
      "$%ğ#$$": 3861,
      "$%ğ\"$$%": 3862,
      "'$$'$": 3863,
      "($$&$": 3864,
      "%$$$$&&#$$%": 3865,
      "$##%$$#$": 3866,
      "$'$$$$!": 3867,
      "$'$$$$\"": 3868,
      "$'$$$$$$&": 3869,
      "Ġ(,": 3870,
      "Ġ($$'": 3871,
      "$#%#$$%$$%": 3872,
      "*$$+": 3873,
      "*$$Ě": 3874,
      "*$$ě": 3875,
      "Āĝ+": 3876,
      "ĀĝĞ": 3877,
      "$Ě#": 3878,
      "$Ě,": 3879,
      "$$$$$$$$%#$$$$": 3880,
      "$$$$$$$$%%#$$%": 3881,
      "$&$$$$%$": 3882,
      "#$$$$$#$$$%": 3883,
      "#$$$$$#\"$$$$": 3884,
      "#$$$$$$#$$$$%": 3885,
      "$#$$$$$$%#": 3886,
      "$#$$$$$$%$$$$%": 3887,
      "$ğ##$$!": 3888,
      "&&!$$$$": 3889,
      "$#ğ#$$#": 3890,
      "$#ğ$$$\"": 3891,
      "$$$$$$$$#$#$$$$$$$$": 3892,
      "%$$$$$%$$$#": 3893,
      "$!(#$$%": 3894,
      "$!(\"$$&": 3895,
      "%$$)$": 3896,
      "Ġ)$$$$": 3897,
      "Ġ)%$$'": 3898,
      "$#%%$$%$$$$$$$$%": 3899,
      "$)\"%$$%": 3900,
      "'$$!$$\"": 3901,
      "%$$$$$#%$$#": 3902,
      "$)%%$$#": 3903,
      "$$\"$$$$$": 3904,
      "+$$$*": 3905,
      "+$$$+": 3906,
      "$%$$$$$$##": 3907,
      "$%$$$$$$#$$$$%": 3908,
      "ğ$$\"$": 3909,
      "ĠĞ$$$$": 3910,
      "ĀĀ+Ā)": 3911,
      "ĀĀ%Ā$ğ": 3912,
      "ĀĀ*Ā#": 3913,
      "ĀĀĜĀ)": 3914,
      "Ġ#$$$Ğ": 3915,
      "#$$$$$%$$$&": 3916,
      "%$$$$\"'": 3917,
      "$')%$$*": 3918,
      "$(!\"$$#": 3919,
      "$$$#$$$$$$$$$$$$%": 3920,
      "%$$$$%%%$$$$": 3921,
      "$$$%$%\"$$$$": 3922,
      "\"$$)$": 3923,
      "'$$($!": 3924,
      "$#)$$$$": 3925,
      "$#)\"$$%": 3926,
      "$$$%$$$$$$$$$%$$$%$$#": 3927,
      "$#$#$$#$": 3928,
      "!#)": 3929,
      "Ġ$$$#$$": 3930,
      "$'ğ%$$#": 3931,
      "ĀĀ.Ā!": 3932,
      "ĀĀ.Ā&": 3933,
      "ĀĀ.Ā%#": 3934,
      "'#!$$#": 3935,
      "Ġ$)!": 3936,
      "$#Ğ#$$": 3937,
      "($$!$'(": 3938,
      "ğ$$$$\"": 3939,
      "$&Ğ#$$": 3940,
      "\"!\"$$\"": 3941,
      "$$$$$$$$$#$": 3942,
      "$ğ&'$$&": 3943,
      "$\"$$$$#$": 3944,
      "$$$$$$$$$%$$$%$": 3945,
      "ĀĀ/Ā*": 3946,
      "$#$&$$\"": 3947,
      "$$%$$$&$": 3948,
      "&'%$$%": 3949,
      "$#&$$$$$": 3950,
      "'$$ğ$%#": 3951,
      "Ġĝ$$$$": 3952,
      "Ġĝ$$!": 3953,
      "Ġ&$$Ğ": 3954,
      "Ġ&$$$\"": 3955,
      "Ġ#$$!$": 3956,
      "$\"Ğ#$$": 3957,
      "$!)$$$%": 3958,
      "$)!\"$$#": 3959,
      "$$$#$$$$$$%$$%": 3960,
      "$$$#$$$$$$#$$#": 3961,
      "ĀĀ(ĀĚ": 3962,
      "Ġ$*&": 3963,
      "ĀĀěĀ%#": 3964,
      "'$$$$%'": 3965,
      "$()#$$'": 3966,
      "$$$$$$$$$$$$##$$#": 3967,
      "#$$$$''": 3968,
      "$%#$$$\"$": 3969,
      "$##&$$$$\"%": 3970,
      "'!#$$#": 3971,
      "+ĀĀę": 3972,
      "$$$#$$$$%##$$#": 3973,
      "$ğ$$$$\"": 3974,
      "!!ĀĀ": 3975,
      "$#$#$$$$%$%$$$$#": 3976,
      "$$&$$$&$": 3977,
      "#$$$$$$\"$$#": 3978,
      "$#$$$$$$%$$$$$$": 3979,
      "ĀĀ#Ā!#": 3980,
      "ĀĀ#Ā!Ğ": 3981,
      "ĀĀ%Ā!&": 3982,
      "#$$$$$\"$$$#": 3983,
      "$#$$$$$$$%#$$%": 3984,
      "\"$$$$&$#$$#": 3985,
      "($$ğ$)": 3986,
      "%%%": 3987,
      "Ġ$$ĝ$": 3988,
      "$%$$$$$$$#$$$#": 3989,
      "$%$$$$$$$#%$$#": 3990,
      "(#!": 3991,
      "$%$#$$$$$$$$$%": 3992,
      "$%$#$$$$$$$$$$$#": 3993,
      "$#%\"$$$$&%": 3994,
      "$%#%$$%$$#": 3995,
      "ğğĀĀ": 3996,
      "$##%$$$$%$#$$%": 3997,
      "$\"$%$$$$##": 3998,
      "$%$$$$#$$#$$$$": 3999,
      "$%##$$$$##$$$#": 4000,
      ".$$Ė": 4001,
      "$''$$$(": 4002,
      "$!$!$$(": 4003,
      "!/": 4004,
      "!Ē": 4005,
      "!Ĝ": 4006,
      "!%$$$$": 4007,
      "!\"$$$$": 4008,
      "!!$$": 4009,
      "!&$$#": 4010,
      "!%$$\"": 4011,
      "!$$#$$$$": 4012,
      "!($$": 4013,
      "!!$$$$": 4014,
      "!&$$\"": 4015,
      "!'$$#": 4016,
      "!%$$!": 4017,
      "!'$$\"": 4018,
      "!\"$$!": 4019,
      "!$&$$#": 4020,
      "!#$$ğ": 4021,
      "!'$$!": 4022,
      "!ĀĀ$Ā": 4023,
      "!$$$$$$$$$#": 4024,
      "!)%": 4025,
      "!Ę$$": 4026,
      "\"ę": 4027,
      "\"$%$$$$": 4028,
      "\"$)": 4029,
      "\"($$": 4030,
      "\"%$$!": 4031,
      "\"!$$\"": 4032,
      "\"ĀĀ!": 4033,
      "\"'$$\"": 4034,
      "\"ĀĀ$": 4035,
      "\"($$#": 4036,
      "\"\"$$$$#": 4037,
      "\"ĀĀ)": 4038,
      "\"ĀĀĝ": 4039,
      "\"&\"": 4040,
      "\"%$$#$": 4041,
      "\"Ğ$$%": 4042,
      "\"ĀĀ/": 4043,
      "\"'(": 4044,
      "\"#$$Ğ": 4045,
      "\"ĀĀ-": 4046,
      "\"$$$$$$$$$$$#": 4047,
      "\"ĀĀ!Ā#": 4048,
      "#-": 4049,
      "#ĕ": 4050,
      "#ę": 4051,
      "##$$$$%": 4052,
      "#$$$%$": 4053,
      "#ĀĀ#Ā": 4054,
      "#ĀĀĜ": 4055,
      "#&(": 4056,
      "#(%": 4057,
      "#%$$$$##": 4058,
      "#ğ%": 4059,
      "#*)": 4060,
      "#%%": 4061,
      "#!)": 4062,
      "#Ğ#": 4063,
      "#Ĝ%": 4064,
      "#*,": 4065,
      "#ğ$": 4066,
      "##$$$$#%$$$%": 4067,
      "$Ē": 4068,
      "$ĕ": 4069,
      "$ĀĀ#": 4070,
      "$ĀĀ%Ā": 4071,
      "$ĀĀ(Ā": 4072,
      "$ĀĀĚĀ": 4073,
      "$ĀĀ\"Ā\"": 4074,
      "%!": 4075,
      "%/": 4076,
      "%Ğ": 4077,
      "%$%": 4078,
      "%ĀĀ": 4079,
      "%#$$": 4080,
      "%\"$$$$": 4081,
      "%\"$$%": 4082,
      "%ĀĀğ": 4083,
      "%!%": 4084,
      "%%$$$$\"": 4085,
      "%&'": 4086,
      "%#$$$$#%": 4087,
      "%!'": 4088,
      "%ĀĀ)Ā": 4089,
      "%)&": 4090,
      "%ğ%": 4091,
      "%#$$$$$$#$$$$": 4092,
      "%($$)": 4093,
      "%\")": 4094,
      "%((": 4095
    },
    "merges": [
      "$ $",
      "$$ $$",
      "$ %",
      "$ #",
      "$$ %",
      "$$ #",
      "$ &",
      "$ \"",
      "$$ &",
      "$$ \"",
      "$$$$ $$$$",
      "Ā Ā",
      "# $$$$",
      "% $$$$",
      "$$ $#",
      "$$ $%",
      "$ '",
      "$ !",
      "$$ !",
      "$$ '",
      "$% $$$$",
      "$# $$$$",
      "$ (",
      "# $$%",
      "% $$#",
      "% $$%",
      "# $$#",
      "# $$",
      "$% %",
      "\" $$$$",
      "$# %",
      "$% #",
      "$# #",
      "\" $$",
      "& $$$$",
      "% $$",
      "$ )",
      "$ ğ",
      "$$$$ #",
      "& $$",
      "$$$$ %",
      "\" $$%",
      "! $$",
      "' $$",
      "$ *",
      "# $$&",
      "& $$%",
      "$& %",
      "\" $$#",
      "& $$#",
      "Ġ $$",
      "$$% $$$$",
      "$% &",
      "% $$\"",
      "$ Ğ",
      "$$# $$$$",
      "$$$$$$$$ $$$$",
      "% $$&",
      "# $$\"",
      "$$ $&",
      "$& #",
      "$\" #",
      "$% \"",
      "$# &",
      "$# \"",
      "( $$",
      "$\" %",
      "$ +",
      "$\" $$$$",
      "#$$$$ %",
      "#$$$$ #",
      "$$ (",
      "$% $$#",
      "$ ĝ",
      "$# $$%",
      "$# $$#",
      "\" $$&",
      "$$ $\"",
      "! $$%",
      "$% $$%",
      "%$$$$ %",
      "! $$$$",
      "$$$% $$$$",
      "$$ $",
      "%$$$$ #",
      "! $$#",
      "$\" \"",
      "$& \"",
      "$& $$$$",
      "# $$!",
      "& $$\"",
      "\" $$\"",
      "$& &",
      "$$$# $$$$",
      "' $$%",
      "' $$#",
      "' $$$$",
      "# $$'",
      "ğ $$",
      "$! #",
      "$% %$$$$",
      "& $$&",
      "$%$$$$ %",
      "% $$!",
      "$' %",
      "$#$$$$ %",
      "$%$$$$ #",
      "$#$$$$ #",
      "$# #$$$$",
      "& %",
      "$' #",
      "Ġ $$$$",
      "Ā %",
      "Ā #",
      "$% '",
      "$$# $$$#",
      ") $$",
      "$# !",
      "$$$% $$%",
      "Ā \"",
      "$$$$$$$$ $$$$$$$$",
      "$\" &",
      "$# %$$$$",
      "$$$% $",
      "ĀĀ #",
      "! $$&",
      "% $$'",
      "ĀĀ %",
      "$% !",
      "$ ,",
      "$% #$$$$",
      "$! %",
      "Ġ \"",
      "! $$\"",
      "Ā !",
      "Ġ $$#",
      "Ġ #",
      "$$ ğ",
      "$ Ĝ",
      "Ā &",
      "\" $$'",
      "$$$# $$%",
      "Ġ $$%",
      "$# '",
      "ĀĀ !",
      "$$ )",
      "Ā '",
      "' $$\"",
      "ĀĀ $",
      "' $$&",
      "$' \"",
      "Ġ %",
      "$& '",
      "$& !",
      "$\" '",
      "\" $$!",
      "$$$% $$#",
      "# $$$#",
      "$& $$#",
      "ĀĀ \"",
      "ĀĀ &",
      "$\" $$%",
      "& $$!",
      "$$ $'",
      "$\" !",
      "( $$#",
      "Ġ $$\"",
      "$% (",
      "$$ Ğ",
      "$! \"",
      "& $$'",
      "#$$ $\"",
      "\"$$$$ %",
      "$$$# $",
      "$( %",
      "$! &",
      "Ā (",
      "$$ $!",
      "ĀĀ '",
      "Ġ !",
      "Ġ &",
      "& #",
      "Ġ $$&",
      "\" #",
      "\" %",
      "$' &",
      "$%# $$$#",
      "$$$# $$#",
      "$ -",
      "&$$$$ %",
      "$# $$$$$$$$",
      "$ ě",
      "$\" $$#",
      "\"$$$$ #",
      "! $$'",
      "Ā )",
      "ĀĀ ğ",
      "#$$ (",
      "$% $$$$$$$$",
      "$& (",
      "ĀĀ )",
      "$( #",
      "$' '",
      "Ā Ğ",
      "$$% $$$%",
      "$& $$%",
      "\"$$ $\"",
      "Ā ğ",
      "$$ *",
      "$$$$# %",
      "\"$$ (",
      "&$$$$ #",
      "! $$!",
      "$! !",
      "( $$$$",
      "( $$%",
      "Ġ $$!",
      "$%$$$$ $$%",
      "$( &",
      "$#% $$$%",
      "#$$$$ &",
      "Ġ $$'",
      "$! $$$$",
      "( $$\"",
      "$% $#$$$$",
      "$( \"",
      "$## $$$#",
      "%$$ (",
      "$$$$# #",
      "ğ $$#",
      "Ġ '",
      "$# $%$$$$",
      "$$# %$$#",
      "$' (",
      "$$$$% %",
      "#$$ ğ",
      "$%% $$$%",
      "&$$ $&",
      "Ġ $&",
      "#$$% $",
      "%$$ ğ",
      "Ğ $$",
      "$# $$&",
      "$# $%$$#",
      "ĝ $$",
      "$$$$ $$%",
      "$# (",
      "$# $%$$%",
      "ĀĀ (",
      "$! '",
      "$#$$$$ $$#",
      "$( '",
      "#$$$$ $$%",
      "ğ $$%",
      "ĀĀ ĝ",
      "%$$$$ $$%",
      "# %$$#",
      "$ .",
      "% $$$$$$$$",
      "Ā *",
      "# $$$$$$$$",
      "Ā +",
      "$% $$&",
      "$\" (",
      "$%% #$$%",
      "\" \"",
      "ğ $$&",
      "$# $#$$%",
      "ĀĀ Ğ",
      "$' !",
      "#$$ )",
      "$$$$ $$#",
      "$% ğ",
      "$% $%$$$$",
      "$% $#$$#",
      "' $$'",
      "( $$&",
      "%$$$$ &",
      "$%# #$$#",
      "$## %$$#",
      "Ġ $",
      "$# $#$$$$",
      "%$$$$ $$#",
      "%$$% $",
      "$' $$$$",
      "Ġ (",
      "$# $$\"",
      "$#% #$$%",
      "% $$$%",
      "* $$",
      "Ā ĝ",
      "$% $$\"",
      "$$% #$$%",
      "$& )",
      "$ Ě",
      "Ġ ğ",
      "$$$$$$$$ %",
      "#$$$$ \"",
      "$% $#$$%",
      "%$$$$ $",
      "$! $$%",
      "% #$$%",
      "$% )",
      "$$# #$$#",
      "$& $$$$%",
      "#$$$$ $#",
      "#$$$$ $$#",
      "$#$$$$ $$%",
      "$( (",
      "$ğ #",
      "& &",
      "$# ğ",
      "$$% %$$%",
      "$\" $$$$%",
      "$$$$$$$$ #",
      "%$$$$ $%",
      "$! (",
      "%$$ )",
      "%$$ $&",
      "# #$$#",
      "Ġ )",
      "$#% %$$%",
      "$) \"",
      "&$$ (",
      "' $$!",
      "$& $$$$#",
      "$$& $$$$",
      "ĀĀ ,",
      "%$$$$ $#",
      "$) %",
      "Ġ$$ (",
      "ĀĀ# Ā",
      "$$\" $$$$",
      "$#$$$$ $$",
      "+ $$",
      "$' $$#",
      "$%$$$$ $$#",
      "\"$$ ğ",
      "& \"",
      "ğ $$\"",
      "Ġ Ğ",
      "$% $%$$#",
      "$# \"$$$$",
      "ĀĀ +",
      "ĀĀ% Ā",
      "! %",
      ") $$%",
      "ĀĀ *",
      "ĀĀ Ĝ",
      "$%# %$$#",
      "$## #$$#",
      "!$$ (",
      "Ġ #$$",
      "$$# $",
      "$\" ğ",
      "#$$$$ $%",
      "%$$$$ \"",
      "$' )",
      "$( !",
      "$) #",
      "$) &",
      "' %",
      "ğ $$'",
      "$# $$$$$$$$$$$$",
      "$\" $$&",
      "$$$# $$$$$$$$",
      "$ğ \"",
      "'$$ $&",
      "%$$$$% %",
      "Ġ *",
      "$$ ĝ",
      "$$$% $%",
      "\"$$ )",
      "'$$ (",
      "ĀĀ& Ā",
      "( $$'",
      "$# )",
      "$$$% $$$$$$$$",
      "&$$ ğ",
      "$# $#$$#",
      "$$% $",
      "#$$$$ $",
      "$! $$#",
      "\"$$$$ \"",
      "!$$ $\"",
      "! #",
      "$ /",
      "Ġ $$$#",
      "$$ $(",
      "$% Ğ",
      "$& ğ",
      "$$\" $$$#",
      "ĀĀ Ě",
      "$' ğ",
      "$ğ %",
      "\" $$$#",
      ") $$\"",
      "ĀĀ .",
      "$' $$%",
      "%$$# $",
      "$%% %$$%",
      "!$$ )",
      "$$%$$$$ $$%",
      "$$#$$$$ $$#",
      "#$$$$% %",
      "#$$$$# #",
      "ĀĀ$ Ā",
      "' #",
      "Ġ $)",
      "$# Ğ",
      "$\" $$\"",
      "$$$% $$&",
      "%$$ *",
      "&$$ $'",
      "ĀĀ\" Ā",
      "( $$!",
      ") $$#",
      "$& %$$$$",
      "$%$$$$ $$",
      "#$$ $!",
      "$%% $$$#",
      "%$$ Ğ",
      "&$$ )",
      "$$$$% #",
      "$$#$$$$ $$%",
      "$ ę",
      ") $$$$",
      ", ĀĀ",
      "ğ $$$$",
      "$& Ğ",
      "Ġ$$ ğ",
      "$#\" $$$#",
      "\" !",
      "% %$$%",
      "Ğ $$#",
      "Ġ %$$#",
      "$$ +",
      "$$$$$$$$ $#",
      "$## %$$$$",
      "$ğ &",
      "$$%$$$$ $",
      "$$#$$$$ $",
      "$$$\" $$%",
      "ĀĀ! Ā",
      "! \"",
      "Ğ $$%",
      "ğ $$!",
      "Ġ Ā",
      "Ġ $%",
      "Ġ \"$$",
      "$\" )",
      "$\" $$$$#",
      "$$$$$$$$ $%",
      "ĀĀ /",
      "#$$ *",
      "$## $$$%",
      "\"$$ $!",
      "&$$$$ \"",
      "$ğ !",
      "$&% $$$%",
      "! &",
      "' &",
      "$$ Ĝ",
      "$% $%$$%",
      "$# $&",
      "$$% $$$&",
      "$\" $%$$$$",
      "$' *",
      "#$$# $",
      "#$$ $&",
      "$#% %$$$$",
      "\"$$ *",
      "$* %",
      "$%& #$$%",
      "$%\" $$$#",
      "$#& $$$%",
      "! $$$$#",
      "& '",
      "' \"",
      "' (",
      "$# &$$$$",
      "$# $#$$$$#",
      "$$% $$#",
      "$\" *",
      "#$$ Ğ",
      "%$$ ĝ",
      "\"$$% $",
      "'$$ ğ",
      "$%& $$$%",
      "$$$& $$#",
      "& #$$%",
      "Ğ $$!",
      "Ġ ĝ",
      "Ġ &$$",
      "Ġ %$$\"",
      "Ġ #$$!",
      "$% $\"$$$$",
      "$$% $$$#",
      "$\" Ğ",
      "$$\" %$$#",
      "$$$$$$$$ $$$%",
      "ĀĀ -",
      "#$$$$ !",
      "#$$$$ $$",
      "$! )",
      "$%$$$$ &",
      "#$$ +",
      "$) !",
      "$&# #$$#",
      "$$$#$$$$ $$%",
      "$$$#$$$$ $$#",
      "ĀĀ( Ā",
      "& (",
      ") $$&",
      "Ġ #$$#",
      "Ġ $*",
      "$$ ,",
      "$\" $%$$#",
      "$\" $%$$%",
      "$$\" #$$#",
      "ĀĀ ě",
      "$$$% $$$$#",
      "$! ğ",
      "$#$$$$ &",
      "$%% #$$#",
      "\"$$# $",
      "#$$$$# %",
      "! '",
      "' $$$$#",
      "' $$$$%",
      "$# *",
      "$& $#$$#",
      "$( )",
      "$%% $$$&",
      "!$$ *",
      "'$$ *",
      "'$$ Ğ",
      "$$%$$$$ $$#",
      "$$$& $$$$",
      "#$$$$% #",
      "ĀĀ) Ā",
      "! $$$$%",
      "\" #$$#",
      "& $$$%",
      "Ğ $$$$",
      "Ğ $$&",
      "Ġ $\"",
      "Ġ $'",
      "$$ $)",
      "$% $$$%",
      "$% \"$$$$",
      "$$% %$$#",
      "$$# #$$$$",
      "$& $#$$%",
      "$$\" $$$\"",
      "%$$$$ $&",
      "$#$$$$ \"",
      "$ğ '",
      "'$$ $'",
      "#$$& $",
      "Ġ$$ $!",
      "$Ğ %",
      "%$$$$# %",
      "$$$$$$$$$$$$$$$$ $$$$$$$$",
      "ĀĀğ Ā",
      "# #",
      "( %",
      ") &",
      "Ġ %$$",
      "Ġ #$$\"",
      "Ġ \"$$\"",
      "Ġ %$$!",
      "$% $",
      "$% *",
      "$% $$$$$$$$$$$$",
      "$# $$!",
      "$\" #$$$$",
      "$$& $$$%",
      "$$$$$$$$ $$$$#",
      "#$$$$ '",
      "%$$$$ $$",
      "$' $$$$#",
      "$! $$&",
      "$%% \"$$%",
      "$) '",
      "!$$ $!",
      "Ġ$$ )",
      "$\"# %$$#",
      "$%\" %$$#",
      "$$$%$$$$ $$%",
      "$&\" $$$#",
      "&% $$'",
      "$ ĀĀ",
      "' *",
      "Ě $$",
      "ĝ $$%",
      "Ğ %",
      "Ġ $(",
      "$% &$$$$",
      "$% $#$$$$#",
      "$# $",
      "$$% #$$$$",
      "$$% %$$$$",
      "$& #$$$$",
      "$$& #$$%",
      "$$$$$$$$ $$#",
      "$$$# $$\"",
      "$$$# $$$$#",
      "$! $$$$#",
      "$%% %$$$$",
      "$&% #$$%",
      "$$$%$$$$ $$#",
      "%$$$$# #",
      "$ Ę",
      "& %$$$$",
      "ğ #",
      "ğ %",
      "Ġ $#",
      "Ġ $!",
      "$% +",
      "$% #$$$\"",
      "$# $%$$$$%",
      "$& *",
      "$& $$\"",
      "$$& %$$%",
      "$! Ğ",
      "$%% %$$#",
      "$## &$$$$",
      "\"$$ Ğ",
      "%$$ +",
      "$) ğ",
      "!$$ ğ",
      "$* &",
      "&$$% $",
      "%$$& $",
      "$#& #$$%",
      "$##$$$$ $",
      "% #",
      "' !",
      "* )",
      "+ ĀĀ",
      "ĝ $$&",
      "Ġ &$$#",
      "$% Ĝ",
      "$% $&$$#",
      "$% $\"$$#",
      "$# #$$$\"",
      "$$% &$$$$",
      "$$$$$$$$ $$$$$$$$$$$$",
      "#$$$$ $$#$$$$",
      "$$$# $$$$%",
      "$$$% $\"",
      "$' Ğ",
      "$ğ $$$$",
      "&$$ ĝ",
      "'$$ )",
      "Ġ$$ $\"",
      "$%& %$$%",
      "$Ğ \"",
      "$\"# &$$#",
      "($$ (",
      "($$ )",
      "%$$$$% #",
      "ĀĀ' Ā",
      "ĀĀĝ Ā",
      "\" (",
      "& ĀĀ",
      "* $$$$",
      "* ĀĀ",
      "Ġ $%#",
      "$% ĝ",
      "$% \"$$$\"",
      "$$# &$$#",
      "$$# $$$\"",
      "$& $$&",
      "$& $#$$$$",
      "$\" %$$$$",
      "#$$$$ $%$$$$",
      "$$$% $$$$%",
      "$( ğ",
      "$%% #$$&",
      "$#% #$$&",
      "$%# \"$$#",
      "$## #$$%",
      "$## %$$%",
      "$) )",
      "$&% %$$%",
      "$Ğ #",
      "$Ğ '",
      "$$$$$$$$$$$$ $",
      "$\"# $$$#",
      "$#& %$$%",
      "$#\" %$$#",
      "$\"% %$$%",
      "\" )",
      "& )",
      "( )",
      "* $$#",
      "Ĝ $$",
      "Ġ ,",
      "Ġ $$$$%",
      "$$ $\"$$$$",
      "$$$$ $$\"",
      "$% $%$$$$%",
      "$# $$'",
      "$& $%$$$$",
      "$& &$$$$",
      "$& $%$$#",
      "$#% $$$%$",
      "$%# #$$\"",
      "%$$ $\"",
      "$* \"",
      "$+ !",
      ")$$ $'",
      "! !",
      "& %$$%",
      "( (",
      ") %",
      "Ā ,",
      "ĝ $$#",
      "Ğ $$\"",
      "ğ (",
      "Ġ $$$$#",
      "Ġ &$$\"",
      "$% #$$%",
      "$# +",
      "$# ,",
      "$# $#$$$$%",
      "$# $&$$#",
      "$$% #$$#",
      "$$# $$$%",
      "$\" $$",
      "$$& $$$&",
      "$$$$$$$$ $$$$%",
      "#$$$$ $$\"",
      "$! *",
      "$%$$$$ \"",
      "$#$$$$ $$%$$$$",
      "$( $$$$",
      "$%# %$$$$",
      "\"$$ +",
      "\"$$ ĝ",
      "$ğ ğ",
      "$* !",
      "$* (",
      "$* ğ",
      "Ġ$$ +",
      "$&# $$$#",
      "$#& &$$%",
      "($$ $(",
      "$%%$$$$ $",
      "ĀĀ# Ā!",
      "ĀĀ% Ā!",
      "&$$$$% %",
      "\" +",
      "( *",
      "Ġ +",
      "Ġ .",
      "Ġ ĀĀ",
      "Ġ '$$#",
      "$% $$!",
      "$% $$'",
      "$% %$$%",
      "$# $$",
      "$# $'$$#",
      "$$# %$$%",
      "$$# \"$$#",
      "$& $",
      "$& ĝ",
      "$$$$$$$$ $$$#",
      "#$$$$ $\"",
      "$$$# $$&",
      "$' ĝ",
      "$! $$$$%",
      "$%$$$$ $",
      "$#$$$$ $$&",
      "$#$$$$ $$$#",
      "$#$$$$ $$$%",
      "\"$$$$ &",
      "$#% $$$#",
      "$#% %$$&",
      "$%# #$$$$",
      "$) (",
      "$ğ )",
      "$ğ Ğ",
      "&$$ Ğ",
      "$Ğ !",
      "$%\" #$$#",
      "$#\" #$$#",
      "$#\" &$$#",
      "($$ ğ",
      "$$$\" $$#",
      "&$$\" $",
      "ğ$$ *",
      "ğ$$ $!",
      "\"$$$$% #",
      "\" &",
      "\" ĀĀ",
      "# &",
      "% %",
      "% )",
      "' '",
      "+ $$&",
      "ę $$",
      "Ġ Ĝ",
      "Ġ $%%",
      "Ġ $%&",
      "Ġ !$$\"",
      "$% $#$$$$%",
      "$# %$$#",
      "$# $&$$$$",
      "$# $%$$$$#",
      "$$% \"$$$$",
      "$$# %$$$$",
      "$& $%$$%",
      "$$$$$$$$ $$%",
      "%$$$$ $$#$$$$",
      "$! ĝ",
      "$! $%$$%",
      "$%# $$$%",
      "$%# \"$$$$",
      "\"$$ $",
      "\"$$ Ĝ",
      "\"$$ $&",
      "'$$ +",
      "Ġ$$ ĝ",
      "$$%$$$$ $$%$$$$",
      "$Ğ &",
      "($$ $'",
      "$\"% $$$#",
      "$\"$$$$ &",
      "#$$' $",
      "ğ$$ Ğ",
      "ğ$$ ğ",
      "Ā% !",
      "$$#$$$# $",
      ")$$ $(",
      "ĀĀ# Ā#",
      "ĀĀ\" Ā#",
      "\"$$$$% %",
      "ĀĀ, Ā",
      "! ĀĀ",
      "\" '",
      "\" %$$#",
      "( $$$$%",
      ") ĀĀ",
      ") $$!",
      "* $$%",
      "+ $$#",
      "ě $$",
      "Ĝ $$%",
      "Ğ $$'",
      "ğ $$(",
      "Ġ $&#",
      "Ġ !$$#",
      "$% $&$$%",
      "$% &$$$&",
      "$# $$$#",
      "$# #$$#",
      "$# $&$$%",
      "$$% \"$$%",
      "$$% #$$&",
      "$& #$$$\"",
      "$\" ě",
      "$\" ĝ",
      "$\" \"$$$$",
      "$\" $#$$%",
      "$$& #$$&",
      "#$$$$ $&",
      "#$$$$ $#$$$$",
      "$$$% $$$$$$$$$$$$",
      "$! $$\"",
      "$%$$$$ $$&",
      "$%$$$$ $$$#",
      "$( $$#",
      "#$$ ,",
      "#$$ Ĝ",
      "$#% &$$$$",
      "$%# #$$%",
      "$## &$$#",
      "\"$$ ,",
      "&$$$$ &",
      "%$$ ,",
      "%$$ $'",
      "$ğ (",
      "&$$ +",
      "!$$ $",
      "$&% \"$$%",
      "Ġ$$ *",
      "%$$\" $",
      "#$$\" $",
      "$\"# $$$%",
      "$\"% $$$%",
      "$+ &",
      "$\"$$$$ $$%",
      "'$$% $",
      "Ā% #",
      "ĀĀ! Ā#",
      "&$$$$% #",
      "ĀĀĞ Ā",
      "ĀĀĚ Ā",
      "% *",
      "% %$$$$",
      "( #",
      "( &",
      ") $$(",
      "* $$&",
      "* $$\"",
      "+ )",
      "+ $$$$",
      "- $$",
      "ĝ #",
      "ğ '",
      "Ġ ě",
      "Ġ \"$$#",
      "Ġ $+",
      "$% $$",
      "$% $$(",
      "$% $&$$$$",
      "$% $#$$$$$$$$",
      "$% $%$$\"",
      "$# $\"$$%",
      "$# &$$$&",
      "$# $%$$&",
      "$$% %$$&",
      "$$# #$$%",
      "$$# %$$\"",
      "$& $\"$$%",
      "$\" +",
      "$\" $&$$#",
      "$$$$$$$$ $$$",
      "#$$$$ &%",
      "%$$$$ '",
      "$' Ĝ",
      "$' $$&",
      "$' &$$",
      "$$! %$$#",
      "$$' %$$&",
      "$#$$$$ $",
      "$#$$$$ $$\"",
      "#$$ ĝ",
      "$%% %$$&",
      "\"$$$$ !",
      "$#% %$$#",
      "$#% \"$$$$",
      "$#% $$$&",
      "$%# %$$%",
      "$%# &$$#",
      "$%# %$$\"",
      "%$$ Ĝ",
      "$) *",
      "&$$ *",
      "&$$ ,",
      "!$$ +",
      "$* #",
      "$* '",
      "$&% %$$#",
      "Ġ$$ ,",
      "$$$$$$$$$$$$ $%$$$$",
      "$#& #$$&",
      "($$ Ğ",
      "$+ #",
      "$ĝ !",
      "$ĝ \"",
      "%$$$$# \"",
      "$\"\" %$$#",
      "$&$$$$ $$%",
      "$&& $$$%",
      "ĀĀ% Ā\"",
      "Ġ\" $$!",
      "Ġ! $$!",
      "ĀĀ/ Ā",
      "! %$$#",
      "\" *",
      "% $$$%$",
      "( '",
      "+ $$'",
      "ě $",
      "ě ğ",
      "Ĝ #",
      "ĝ $$\"",
      "Ğ )",
      "Ġ $'%",
      "Ġ &$$!",
      "$% $#",
      "$% $$$$$$$$$$$$$$$$",
      "$% $#$$\"",
      "$# &$$",
      "$# $%$$$$$$$$",
      "$# \"$$$\"",
      "$\" $$'",
      "$\" $#$$&",
      "$$& &$$%",
      "ĀĀ ę",
      "$( $$%",
      "#$$ $",
      "#$$ $'",
      "$%% #$$$$",
      "$%% &$$$$",
      "$%% #$$$$%",
      "$## #$$$$",
      "$## %$$\"",
      "$## #$$\"",
      "$) +",
      "$* )",
      "$&% $$$#",
      "$&% \"$$$$",
      "&$$# $",
      "Ġ$$ $",
      "$%& \"$$&",
      "$&# \"$$#",
      "$\"# #$$#",
      "$%\" %$$\"",
      "$\"% #$$%",
      "$\"% %$$&",
      "$+ \"",
      "$+ ğ",
      "!$$% $",
      "$&\" %$$#",
      "#$$! $",
      "$!# %$$#",
      "$%$$$$# $",
      "Ā% %",
      "$#! %$$#",
      "$$$$$$$$$$$$$$$$ $$$",
      "$\"& %$$%",
      "ĀĀ# Ā'",
      "Ā& &",
      "ĀĀ$ Ā#",
      "$$$' $$$$",
      "ĀĀ* Ā",
      "! )",
      "# %$$\"",
      "% $$$$$$$$$$$$",
      "& &$$%",
      "' #$$%",
      ") $$'",
      "* '",
      "+ #",
      "+ ,",
      "- $",
      "ĝ $$'",
      "Ğ #",
      "ğ ğ",
      "Ġ %$$$$",
      "Ġ !$$",
      "Ġ '$$",
      "Ġ $%\"",
      "$% &$$",
      "$% $#$$&",
      "$# !$$$$",
      "$# $!$$%",
      "$$% $$$%$$%",
      "$$# \"$$$$",
      "$& $\"$$#",
      "$\" $$!",
      "$\" $#$$$$",
      "$$\" $$%",
      "ĀĀ Ĕ",
      "%$$$$ $\"",
      "%$$$$ $#%$$$$",
      "$$$# $$$$##",
      "$' $$\"",
      "$%$$$$ '",
      "$%$$$$ $$$%",
      "$#$$$$ %$$%",
      "$( +",
      "$( Ğ",
      "%$$% $!",
      "\"$$$$ '",
      "$#% &$$%",
      "$#% &$$#",
      "$#% %$$\"",
      "$## \"$$#",
      "\"$$% $$#",
      "!$$ ĝ",
      "$* *",
      "$%& \"$$%",
      "$Ğ ğ",
      "$$#$$$$ $$%$$$$",
      "$$$& $$$$#",
      "$&# %$$#",
      "$#& %$$&",
      "($$ *",
      "$+ %",
      "$+ '",
      "$\"$$$$ $$#",
      "$$$ ,",
      "$&\" #$$#",
      "$&& #$$%",
      "$#$$$$% $",
      "$%' #$$%",
      ")$$ ğ",
      "$, %",
      "Ā! #",
      "Ā& \"",
      "ĀĀ! Ā\"",
      "Ā' &",
      "#$$$# $",
      "ĀĀ\" Ā\"",
      "$$$! $$%",
      "&$$$$# %",
      "! (",
      "! *",
      "! $$$#",
      "\" $",
      "\" Ĝ",
      "\" ğ",
      "\" \"$$#",
      "# $$$$$$$$$$$$",
      "& #$$&",
      "& '$$%",
      "' $$$%",
      "' %$$%",
      "( ĀĀ",
      ") \"",
      "* #",
      "* $$'",
      ", $$",
      "Ā .",
      "ě $$$$",
      "Ĝ %",
      "ĝ $$$$",
      "Ğ $$(",
      "ğ Ğ",
      "Ġ /",
      "Ġ $#!",
      "$$$$ $$&",
      "$% $\"$$%",
      "$# ĝ",
      "$# $'$$$$",
      "$# '$$$&",
      "$& $!",
      "$& \"$$$$",
      "$\" #$$$\"",
      "$\" \"$$$\"",
      "$\" &$$$&",
      "$\" %$$$&",
      "$$\" \"$$#",
      "$$\" #$$\"",
      "#$$$$ #$$$$",
      "%$$$$ \"%",
      "$$$% $$\"",
      "$' %$$$$",
      "$' $#$$#",
      "$! $&",
      "$$! $$$\"",
      "$#$$$$ $$#$$$$",
      "$( *",
      "$( ,",
      "#$$ .",
      "$%% &$$%",
      "$%% $$$%$",
      "$#% \"$$%",
      "$#% '$$%",
      "$## \"$$$$",
      "$## %$$$$%",
      "%$$ ě",
      "'$$ ĝ",
      "$&% $$&",
      "$&% #$$#",
      "Ġ$$ Ğ",
      "$%& %$$&",
      "$$$$$$$$$$$$ $$$",
      "#$$\" $&",
      "$&# $$$%",
      "$%\" !$$#",
      "($$ +",
      "($$ ĝ",
      "$\"% %$$#",
      "$\"$$$$ \"",
      "#$$$$# $%$$$$",
      "$ĝ #",
      "$ĝ '",
      "!$$$$ $%",
      "!$$# $",
      "$\"\" #$$#",
      "$&\" \"$$#",
      "$&$$$$ '",
      "$&$$$$ $$&",
      "'$$$$ &",
      "ğ$$ )",
      "&$$& $",
      "$#$$$$% #",
      "&% #$$%",
      "$'# $$$#",
      "Ġ$$$$ &",
      "Ā% )",
      "Ā% *",
      "$$#$$$# $$#",
      ")$$ Ğ",
      "Ā\" +",
      "$#' $$$%",
      "ĀĀ$ ĀĞ",
      "ĀĀ& Ā!",
      "ĀĀ' Ā\"",
      "$#$$$$$$$$ $$$",
      "\"$$$$# %",
      "%$$$$$$$$ $#",
      "#$$$$$# #$$#",
      "ĀĀ. Ā",
      "! ĝ",
      "\" %$$\"",
      "% ĝ",
      "% #$$$$",
      "& ,",
      "' )",
      "' ,",
      ") )",
      "* $$!",
      "- ĀĀ",
      "Ě $$$$",
      "ě %",
      "ě ĝ",
      "Ĝ $$$$",
      "Ĝ $$#",
      "Ĝ ĀĀ",
      "ĝ &",
      "ğ &",
      "Ġ #$$$$",
      "Ġ $&\"",
      "Ġ $'#",
      "$% \"$$",
      "$% '$$$$",
      "$% $%$$$$#",
      "$% #$$$&",
      "$# $\"",
      "$# \"$$",
      "$# $$(",
      "$# $#$$&",
      "$$% $$%",
      "$$% &$$%",
      "$$% $$$%$",
      "$$# &$$$$",
      "$$# !$$#",
      "$& $$$%",
      "$& #$$%",
      "$\" \"$$",
      "$\" $%$$$$#",
      "$\" $&$$%",
      "$$& %$$&",
      "%$$$$ $'",
      "$$$# $$$$%%",
      "$$$% $$$$%%",
      "$' $$$$%",
      "$! $%$$&",
      "$$! #$$#",
      "$$' $$$&",
      "$%$$$$ #$$#",
      "$#$$$$ %$$#",
      "$( $$\"",
      "#$$% $$$$",
      "%$$% $(",
      "$#% #$$#",
      "$#% $$$'",
      "$%# #$$$$%",
      "$%# $$$#$",
      "$## \"$$%",
      "$## &$$%",
      "$## #$$$$%",
      "$## #$$$$#",
      "$## $$$#$",
      "$) $$$$",
      "$ğ *",
      "&$$ Ě",
      "&$$ ě",
      "!$$ -",
      "!$$ Ğ",
      "$%& #$$&",
      "$%& &$$%",
      "$Ğ $$#",
      "$$$& $$$$%",
      "$&# &$$\"",
      "$\"# #$$$$",
      "$\"# %$$\"",
      "$%\" #$$\"",
      "$%\" &$$\"",
      "$\"% &$$%",
      "$+ Ğ",
      "$\"$$$$ !",
      "$$$%$$$$ &",
      "$&\" %$$\"",
      "$&& #$$&",
      "ğ$$ Ĝ",
      "$%$$$$% #",
      "$#$$$$# $",
      "Ā% \"",
      "Ā% &",
      "Ā# &",
      "$#%$$$$ $",
      "ĀĀ# Ā&",
      "ĀĀ% Ā#",
      "ĀĀ% Āğ",
      "$, '",
      "$, (",
      "$Ĝ !",
      "ĀĀ! ĀĞ",
      "Ā' %",
      "ĀĀ$ Ā'",
      "$&! #$$#",
      "ĀĀ& Ā)",
      "$\"! %$$#",
      "Ā( #",
      "$%$$$$$$$$ $$$",
      "&$$$$# #",
      "$!$$$$ &",
      "\" \"$$\"",
      "# %",
      "# )",
      "# ĝ",
      "& %$$&",
      "' ĀĀ",
      "' $$$$#%",
      ") Ğ",
      "* !",
      "* %",
      "* ,",
      "* $$ğ",
      "+ (",
      "+ $$\"",
      ", $$#",
      "- ,",
      "- $$#",
      ". ĀĀ",
      "/ #",
      "Ę $$",
      "Ě ĝ",
      "Ĝ ğ",
      "ĝ %",
      "ĝ ĝ",
      "ĝ $$)",
      "Ğ $$)",
      "ğ *",
      "ğ $$$$%",
      "Ġ $Ğ",
      "Ġ ($$",
      "Ġ $'!",
      "Ġ *$$",
      "$% $!",
      "$% $\"$$&",
      "$# $(",
      "$# #$$%",
      "$# $$$$$$$$$$$$$$$$",
      "$# $#$$\"",
      "$$% &$$&",
      "$$% %$$'",
      "$$# $$$$%",
      "$$# #$$\"",
      "$$# %$$$$%",
      "$& +",
      "$& $\"$$$$",
      "$& \"$$$\"",
      "$& $#$$&",
      "$\" ,",
      "$\" Ĝ",
      "$\" #$$#",
      "$\" $#$$#",
      "$$\" &$$#",
      "$$$$$$$$ #$$$$",
      "$$$$$$$$ %$$$$",
      "ĀĀ Ę",
      "#$$$$ $$&",
      "%$$$$ $$%$$$$",
      "%$$$$ &%",
      "$$$# $$$$%#",
      "$$$% $\"#",
      "$' ,",
      "$' $$",
      "$' $\"$$%",
      "$! +",
      "$! Ĝ",
      "$$' $$$$",
      "$$' %$$%",
      "#$$ ě",
      "\"$$$$ $$#",
      "$#% #$$$$%",
      "$#% !$$%",
      "$%# #$$$$#",
      "$%# \"$$\"",
      "\"$$ .",
      "&$$$$ $%",
      "&$$$$ $$%",
      "%$$ $",
      "!$$ $ğ",
      "#$$& $!",
      "$&% #$$&",
      "\"$$# $%",
      "$%& $$$#",
      "$%& !$$%",
      "%$$& $!",
      "$$$& $$%",
      "$&# \"$$%",
      "$&# #$$\"",
      "$\"# &$$%",
      "$%\" $$$%",
      "$%\" &$$#",
      "$#& %$$$$",
      "$\"% \"$$%",
      "$\"$$$$ $$&",
      "$ĝ %",
      "$ĝ &",
      "$ĝ ĝ",
      "$ĝ ğ",
      "$$$%$$$$ $$",
      "$\"\" $$$#",
      "$\"\" %$$\"",
      "$&$$$$ \"",
      "$&$$$$ &",
      "$&$$$$ $$#",
      "\"$$\" $",
      "$!# $$$%",
      "$!# &$$#",
      "%$$! $",
      "$'# #$$#",
      "Ā# !",
      ")$$ *",
      "Ā\" %",
      "Ā\" Ğ",
      "$\"& #$$%",
      "$%! $$$#",
      "$%! #$$#",
      "$%#$$$$ $",
      "$Ĝ (",
      "Ā& #",
      "$#' &$$%",
      "ĀĀ! Ā!",
      "$'\" %$$#",
      "Ġ% $$$%",
      "$&' #$$&",
      "$$$' $$#",
      "$$Ğ $",
      "ĀĀ' Ā'",
      "\"$$$$# #",
      "$$$$#% $$$%",
      "$$$$#% %$$%",
      "$!! $$$#",
      "%$$( $",
      "%$$$$$$% $$#",
      "%$$$$$$$$ $$$",
      "#$$$$$$$$ $$$",
      "%$$$$$% $$$%",
      "$#$$$$$$$$$$$$ $",
      "$$$$$$$$$$$$$$$$$$$$$$$$ $",
      "! $",
      "! +",
      "! ,",
      "! Ğ",
      "# '",
      "# ,",
      "$ ė",
      "% &",
      "& #$$$$",
      "& \"$$%",
      "& \"$$&",
      "& ($$$$",
      "( $$$$#",
      "( #$$&",
      ") #",
      "+ !",
      "+ %",
      "+ $$%",
      "- -",
      ". ,",
      ". -",
      ". $$",
      "ę $$%",
      "Ě $$%",
      "Ě $$'",
      "ě $$%",
      "Ĝ \"",
      "Ĝ *",
      "Ĝ Ğ",
      "Ĝ $$'",
      "ğ !",
      "ğ \"",
      "Ġ %$$%",
      "Ġ \"$$$$",
      "Ġ !$$%",
      "Ġ Ā&",
      "Ġ #$$ğ",
      "$$ $ğ",
      "$% ,",
      "$% \"$$%",
      "$% $$$%$$#",
      "$% &$$$'",
      "$% $!$$&",
      "$% $&$$&",
      "$# '$$$$",
      "$# $$)",
      "$# #$$$&",
      "$$% &$$#",
      "$$# $$#",
      "$& -",
      "$& Ĝ",
      "$& $$'",
      "$& $#$$\"",
      "$& &$$$'",
      "$\" -",
      "$\" $\"",
      "$\" $$$#",
      "$\" %$$#",
      "$$& #$$$$",
      "$$\" $",
      "$$\" #$$%",
      "$$\" %$$\"",
      "#$$$$ $$$#",
      "#$$$$ $$$%",
      "#$$$$ $%#",
      "#$$$$ $##$$$$",
      "#$$$$ \"#",
      "#$$$$ \"%",
      "$' $",
      "$' +",
      "$' #$$$$",
      "$' $$!",
      "$' '$$",
      "$' $&$$#",
      "$' %$$$&",
      "$! \"$$$\"",
      "$$! #$$!",
      "$$' $$$%",
      "$$' #$$%",
      "$$' #$$&",
      "$%$$$$ %$$%",
      "$%$$$$ $$#$$$$",
      "$%$$$$ $$$&",
      "$#$$$$ '",
      "$#$$$$ $%$$$$",
      "$#$$$$ &%",
      "$( $",
      "$( ĝ",
      "%$$# $$#",
      "%$$% $#",
      "%$$% $$%",
      "%$$% $\"",
      "%$$% $\"#",
      "#$$ $ğ",
      "$%% \"$$#",
      "$%% &$$#",
      "$%% %$$\"",
      "$%% $$$$$$$$$$$$",
      "$%% \"$$&",
      "$%% !$$$$",
      "$%% $$$'",
      "\"$$$$ $$%",
      "\"$$$$ &%",
      "\"$$$$ \"#",
      "$#% \"$$&",
      "$#% %$$$$#",
      "$#% #$$%$",
      "$%# #$$&",
      "$%# !$$$$",
      "$%# '$$#",
      "$## #$$&",
      "$## %$$$$#",
      "$## '$$#",
      "&$$$$ \"#",
      "&$$ Ĝ",
      "!$$ ě",
      "$* $",
      "$&% \"$$#",
      "$&% !$$%",
      "Ġ$$ ě",
      "Ġ$$ $ğ",
      "Ġ$$ $Ğ",
      "$$%$$$$ $$\"",
      "$Ğ (",
      "$Ğ Ğ",
      "$$#$$$$ $$#$$$$",
      "#$$\" $$#",
      "$$$& $",
      "$$$& $$\"",
      "$&# #$$%",
      "$&# %$$\"",
      "$\"# %$$$$",
      "$\"# #$$\"",
      "$%\" \"$$#",
      "$%\" #$$!",
      "$#& \"$$%",
      "$#& '$$%",
      "$#\" &$$$$",
      "$#\" %$$\"",
      "($$ $\"",
      "$\"% '$$%",
      "$+ )",
      "#$$$$# \"",
      "$%$$# $",
      "$ĝ )",
      "$#$$% $",
      "$#$$# $",
      "\"$$& $",
      "\"$$& $!",
      "%$$$$% $%$$$$",
      "%$$$$% #$$$#",
      "$$$ ě",
      "$\"\" &$$#",
      "'$$# $",
      "ğ$$ +",
      "ğ$$ -",
      "$!# \"$$%",
      "$!# &$$%",
      "$%$$$$% $",
      "$%$$$$% $%$$$$",
      "$'% $$$#",
      "$%' $$$%",
      ")$$ +",
      "$#! #$$#",
      "$#! %$$\"",
      "$$$%$$% $",
      "ĀĀ# Ā%",
      "ĀĀ# Ā)",
      "ĀĀ% Ā&",
      "ĀĀ% Ā+",
      "$%! %$$\"",
      "$, \"",
      "$, ğ",
      "$!% &$$%",
      "!$$\" $&",
      "$#' #$$%",
      "ĀĀ! Āĝ",
      "'$$& $",
      "$'\" $$$#",
      "Ġ% &$$%",
      "$&' $$$%",
      "$&' #$$%",
      "$&' %$$%",
      "$\"' #$$&",
      "$\"! $$$#",
      "Ġ$$\" $",
      "$!\" $$$%",
      "$!& $$$%",
      "ĀĀ' Ā%",
      "ĀĀ' Ā&",
      "ĀĀ' Ā(",
      "$'& $$$%",
      "$'& \"$$%",
      "$- #",
      "ĀĀğ Ā!",
      "Ġ' $$!",
      "$#$%$$# $",
      "$#$%$$% $",
      "#%$$# $",
      "%$$$$$$$$ $$$#",
      "%$$$$$$$$ $$$$%",
      "#$$$$\" &",
      "$$##$$# $",
      "#$$$$$# $$$#",
      "$#$$$$$$% $$$$#",
      "ĀĀĜ Ā",
      "Ġ#$$ ĝ",
      "$#$& $$&",
      "ĀĀě Ā",
      "! $%$$$$",
      "! #$$#",
      "! #$$!",
      "! $$$$%%",
      "# ě",
      "# Ğ",
      "# %$$$$",
      "% &$$%",
      "& ğ",
      "' ğ",
      "( !",
      "( Ğ",
      "( $$$$#%",
      ") '",
      "* (",
      "* Ğ",
      "* $$*",
      "+ $$(",
      "- %",
      "ė Ā",
      "ě ě",
      "ě Ĝ",
      "ě Ğ",
      "ě $$&",
      "ě $$\"",
      "ě ĀĀ",
      "ě !$$",
      "Ĝ +",
      "Ĝ $$!",
      "Ĝ $$(",
      "ĝ $$!",
      "Ğ *",
      "Ğ $$Ğ",
      "Ğ $$#$",
      "ğ ĀĀ",
      "Ġ $$$%",
      "Ġ #$$%",
      "Ġ $#\"",
      "Ġ !$$$$",
      "Ġ $%!",
      "Ġ $&$$#",
      "Ġ Āğ",
      "Ġ $$$$#%",
      "Ġ ğ$$#",
      "Ġ $$$$%%",
      "Ġ $\"(",
      "Ġ $%ğ",
      "Ġ \"$$ğ",
      "Ġ $(!",
      "$$ ě",
      "$$$$ \"",
      "$% $!$$$$",
      "$% $%$$&",
      "$% $!$$%",
      "$# ě",
      "$# Ĝ",
      "$# $$$#$",
      "$# $\"$$#",
      "$# $&$$$$%",
      "$# #$$$!",
      "$$% \"$$&",
      "$$% %$$$$%",
      "$$% !$$$$",
      "$$# $$%",
      "$$# \"$$%",
      "$$# &$$%",
      "$$# #$$$$%",
      "$$# ($$#",
      "$$# $$$!",
      "$& ,",
      "$& $$",
      "$& $$!",
      "$& $!$$%",
      "$& %$$$&",
      "$& $#$$!",
      "$\" &$$$$",
      "$\" &$$#",
      "$\" $\"$$%",
      "$\" $%$$\"",
      "$\" !$$$\"",
      "$\" &%$$'",
      "$$& $",
      "$$& &$$&",
      "$$\" $$$$%",
      "$$\" '$$#",
      "$$\" '$$\"",
      "$$$$$$$$ $$$$##",
      "ĀĀ Ė",
      "#$$$$ $%%$$$$",
      "#$$$$ $%#$$$$",
      "#$$$$ &#",
      "%$$$$ $$&",
      "%$$$$ $$\"",
      "%$$$$ $$$#$$$$",
      "$' !$$",
      "$' #$$$\"",
      "$' $%$$\"",
      "$! $",
      "$! $!",
      "$! \"$$$$",
      "$$! $$$$",
      "$$' $",
      "$$' !$$&",
      "$$' &$$'",
      "$%$$$$ $$$%$$$$",
      "$#$$$$ #$$#",
      "$( $$!",
      "%$$# $&%",
      "%$$% $##",
      "%$$% $&#",
      "#$$ /",
      "#$$ ę",
      "#$$ Ě",
      "$%% !$$%",
      "$%% %$$$$#",
      "$%% #$$'",
      "$%% $$$%$$%",
      "$%% #$$$$##",
      "\"$$$$ $&",
      "\"$$$$ $$&",
      "\"$$$$ $'",
      "\"$$$$ &#",
      "$#% \"$$#",
      "$#% $$$$$$$$$$$$",
      "$#% %$$$$%",
      "$#% %$$%$",
      "$%# \"$$%",
      "$%# !$$%",
      "$%# !$$#",
      "$%# '$$$$",
      "$## &$$\"",
      "$## %$$!",
      "$## ($$#",
      "\"$$ -",
      "\"$$ $'",
      "\"$$ $Ğ",
      "&$$$$ '",
      "&$$$$ $$%$$$$",
      "&$$$$ &%",
      "%$$ Ě",
      "%$$ $(",
      "$) $",
      "$) ę",
      "$$$$# $#$$$$",
      "&$$ $",
      "&$$ .",
      "&$$ $\"",
      "!$$ Ĝ",
      "'$$ ,",
      "'$$ Ĝ",
      "$* ĝ",
      "$* $$$$",
      "$&% %$$&",
      "Ġ$$ Ĝ",
      "%$$& $#&",
      "$&# %$$$$",
      "$&# #$$$$%",
      "$&# \"$$\"",
      "$#& \"$$&",
      "$#& &$$&",
      "($$ /",
      "($$ ě",
      "$\"% #$$&",
      "$+ +",
      "$\"$$$$ '",
      "#$$$$# %$$$$",
      "$$( %$$&",
      "$ĝ $$%",
      "$$$\" $",
      "!$$% $%",
      "%$$$$% \"",
      "!$$$$ &%",
      "$$$%$$$$ $",
      "$$$ -",
      "$\"\" \"$$%",
      "$\"\" \"$$#",
      "$\"\" %$$&",
      "$&\" &$$\"",
      "$&\" !$$\"",
      "$&& &$$%",
      "#$$' $$%",
      "ğ$$ $ğ",
      "$!# %$$$$",
      "$!# %$$\"",
      "$%%$$$$ $%%$$$$",
      "$'% $$$%",
      "$'% #$$&",
      "$#$$$$# $%$$$$",
      "&% \"$$%",
      "$'# &$$#",
      "Ā% ğ",
      "Ā# #",
      "Ā# %",
      "Ā# (",
      "$#! $$$#",
      "Ā\" &",
      "Ā\" ĝ",
      "$$$$$$$$$$$$$$$$ $$",
      "$\"& %$$#",
      "%$$' $",
      "ĀĀ% Ā)",
      "$, !",
      "$, #",
      "$Ĝ #",
      "\"$$' $",
      "\"$$' $%",
      "ĀĀ! Ā&",
      "Ā' !",
      "Ā' '",
      "ĀĀ$ Ā!",
      "ĀĀ$ Āğ",
      "$&' &$$%",
      "$&! %$$#",
      "$&! \"$$#",
      "ĀĀ\" Ā!",
      "ĀĀ\" Ā'",
      "ĀĀ\" ĀĞ",
      "$$$' $$%",
      "Ā( %",
      "Ā( &",
      "Ā( )",
      "Ġ& %$$%",
      "Ġ$$& $#!",
      "\"% %$$%",
      "$'& #$$%",
      "$'& #$$&",
      "$$$#$$# $",
      "$- (",
      "$- )",
      "$ě (",
      "ĀĀğ Ā#",
      "#$$( $",
      "ĀĀ) ĀĞ",
      "ĀĀ) Āğ",
      "$(# \"$$#",
      "$'' %$$&",
      "($$\" $",
      "$(\" #$$#",
      "%$$ğ $",
      "Ğ$$ +",
      "Ğ$$ ĝ",
      "Ğ$$ $ğ",
      "ĝ$$ Ĝ",
      "ĝ$$ ĝ",
      "ĝ$$ $ğ",
      "ĀĀĝ Ā&",
      "ĀĀĝ Ā'",
      "ĀĀĝ Āğ",
      "$. &",
      "%$$$$$$$$ $$$%",
      "#$$$$$$$$ $$$#",
      "Ā+ #",
      "Ā+ )",
      "\"\" $$$#",
      "\"\" %$$#",
      "$$$$$$# $",
      "$%$%$$$$ $#",
      "%$$$$& !",
      "$#$#$$$$ &",
      "*$$ ,",
      "$#$& $$'",
      "! -",
      "! $$$$#%",
      "\" %$$$$",
      "\" &$$#",
      "\" #$$\"",
      "# $",
      "# (",
      "# #$$$$",
      "# $$$%",
      "# #$$\"",
      "# %$$$$#",
      "% $$$#",
      "% #$$%$",
      "& -",
      "& !$$%",
      "' Ğ",
      "' %$$#",
      "' &$$$$",
      "' &$$%",
      "' #$$'",
      "( /",
      ") !",
      ") *",
      ") -",
      "* \"",
      "* $$(",
      "+ $$!",
      "+ $$)",
      ", &",
      ", Ě",
      "- \"",
      "/ ĀĀ",
      "Ā Ě",
      "Ę !",
      "ę Ě",
      "ę Ğ",
      "ę $$\"",
      "Ě .",
      "Ě Ğ",
      "Ě $$\"",
      "ě $$'",
      "ě &$$",
      "Ĝ &",
      "Ĝ $$&",
      "ĝ \"",
      "ĝ ĀĀ",
      "ĝ \"$$",
      "ğ $",
      "ğ %$$\"",
      "Ġ -",
      "Ġ Ę",
      "Ġ $%$$$$",
      "Ġ $ğ",
      "Ġ \"$$%",
      "Ġ $&%",
      "Ġ $&&",
      "Ġ $\"&",
      "Ġ $,",
      "Ġ Ā!",
      "Ġ $Ĝ",
      "Ġ ($$#",
      "Ġ $(%",
      "Ġ $&$$%",
      "Ġ ($$\"",
      "Ġ $!'",
      "Ġ Ā*",
      "Ġ ĀĀ#Ā",
      "Ġ %$$Ğ",
      "$$ Ę",
      "$$ $+",
      "$$$$ $",
      "$$$$ $%",
      "$% $%",
      "$% $\"",
      "$% $%$$$$$$$$",
      "$% $!$$#",
      "$% $\"$$\"",
      "$% $&$$\"",
      "$% $%$$(",
      "$# -",
      "$# Ě",
      "$# $%",
      "$# $'",
      "$# \"$$#",
      "$# &$$#",
      "$# $\"$$$$",
      "$# $&$$$$#",
      "$# $\"$$&",
      "$# '$$$'",
      "$$% #$$$$%",
      "$$% '$$$$",
      "$$# $$$$#",
      "$$# $$$$$$$$$$$$",
      "$$# '$$\"",
      "$$# #$$$$$$$$",
      "$$# $$$#$$$$$$%",
      "$& ě",
      "$& ($$",
      "$& $&$$$$",
      "$& $#$$$$%",
      "$& $#$$$$#",
      "$& $&$$#",
      "$& $%$$&",
      "$& $%$$\"",
      "$\" Ě",
      "$\" $&$$$$",
      "$$& $$$#",
      "$$& \"$$%",
      "$$& \"$$&",
      "$$& $$$%$$%",
      "$$& $$$(",
      "$$\" #$$&",
      "$$\" &$$\"",
      "$$\" $$$!",
      "$$$$$$$$ #$$$$%",
      "ĀĀ Ē",
      "#$$$$ $(",
      "#$$$$ $$$#$$$$",
      "#$$$$ '%",
      "%$$$$ !",
      "%$$$$ Ğ",
      "%$$$$ $$$%",
      "%$$$$ $%$$$$",
      "%$$$$ $%#",
      "%$$$$ $##",
      "%$$$$ $##$$$$",
      "%$$$$ $%#$$$$",
      "$$$# $$$$$$$$$$$$",
      "$$$% $%$$$$",
      "$$$% $$%$$$$",
      "$$$% $%#$$$#",
      "$' Ě",
      "$' $!",
      "$' $%$$#",
      "$! .",
      "$! ě",
      "$! ĀĀ",
      "$! \"$$",
      "$! &$$$$",
      "$! $&$$#",
      "$! #$$$\"",
      "$! $%$$\"",
      "$! %$$$&",
      "$$! $#",
      "$$! %$$\"",
      "$$! $$$",
      "$$! !$$\"",
      "$$! $$$!",
      "$$' &$$%",
      "$$' !$$%",
      "$#$$$$ !",
      "$#$$$$ $$$%$$$$",
      "$( -",
      "$( &$$$$",
      "$( '$$",
      "$( #$$$#",
      "#$$% $$$#$$%",
      "%$$# $$%",
      "%$$% $$%$$$$",
      "%$$% $$$%$$$$",
      "#$$ Ę",
      "#$$ $\"$$%",
      "$%% #$$$$#",
      "$%% '$$%",
      "$%% $$$#$",
      "$%% %$$%$",
      "\"$$$$ $\"",
      "\"$$$$ !\"",
      "$#% #$$$$#",
      "$#% !$$&",
      "$#% %$$'",
      "$#% $$$%$$#",
      "$%# &$$$$",
      "$%# #$$!",
      "$%# \"$$$$%",
      "$## %$$&",
      "$## #$$$$$%",
      "%$$ -",
      "%$$ $!",
      "$) $$\"",
      "$) $ğ",
      "$) $$$$#",
      "$ğ +",
      "$ğ ě",
      "$ğ $$#",
      "&$$ $(",
      "\"$$% $$%",
      "\"$$% $&%",
      "\"$$% $%&",
      "!$$ ,",
      "!$$ .",
      "!$$ /",
      "!$$ ę",
      "!$$ Ě",
      "!$$ $'",
      "'$$ .",
      "$* +",
      "$* ,",
      "$* Ğ",
      "#$$& $\"'",
      "$&% #$$$$",
      "$&% %$$$$",
      "$&% &$$%",
      "$&% #$$$$#",
      "$&% \"$$&",
      "$&% %$$$$%",
      "$&% !$$#",
      "$&% '$$#",
      "Ġ$$ -",
      "Ġ$$ $&",
      "Ġ$$ $Ĝ",
      "$$%$$$$ $$$#$$$$",
      "$%& \"$$$$",
      "$%& #$$'",
      "$%& &$$&",
      "$Ğ *",
      "$Ğ ĝ",
      "$$#$$$$ $$",
      "$$#$$$$ $$&",
      "$$$$$$$$$$$$ %$$$$$$",
      "#$$\" $%",
      "#$$\" $#%",
      "#$$\" $!'",
      "$$$& $#",
      "$&# !$$$$",
      "$&# %$$!",
      "$&# ($$#",
      "$\"# #$$%",
      "$\"# &$$$$",
      "$\"# \"$$#",
      "$\"# %$$$$%",
      "$\"# '$$$$",
      "$%\" !$$%",
      "$%\" '$$\"",
      "$#\" #$$%",
      "$#\" \"$$#",
      "$#\" #$$\"",
      "$#\" #$$$$%",
      "$#\" $$$#$",
      "($$ ,",
      "$\"% %$$$$",
      "$\"% #$$#",
      "$\"% %$$$$#",
      "$\"% '$$#",
      "$+ (",
      "$\"$$$$ $$\"",
      "#$$$$% $",
      "#$$$$# &",
      "#$$$$# %$$$%",
      "$ĝ .",
      "\"$$& $&#",
      "$$$\" $$&",
      "$$$\" $$\"",
      "$$$\" $$$$#",
      "$$$%$$$$ $$\"",
      "$$$%$$$$ $$#$$$$",
      "$$$ .",
      "$$$ /",
      "%$$$$# $%$$$$",
      "$\"\" $$$%",
      "$\"\" #$$%",
      "$\"\" '$$$$",
      "$\"\" %$$!",
      "$\"\" '$$\"",
      "$&$$$$ $$",
      "$&$$$$ $$\"",
      "#$$! $#",
      "&$$\" $$%",
      "\"$$\" $\"",
      "$&& $$$#",
      "$&& \"$$%",
      "$&& !$$%",
      "$$$#$$$$ $$#$$$$",
      "ğ$$ ĝ",
      "ğ$$ $'",
      "$!# $$$#",
      "$!# #$$%",
      "$!# %$$%",
      "$!# \"$$#",
      "$'% #$$%",
      "$'% %$$#",
      "$'% \"$$#",
      "$'% %$$&",
      "$'% !$$%",
      "$%$$$$# %",
      "$'# #$$\"",
      "$'# !$$%",
      "$'# !$$#",
      "Ġ$$$$ '",
      "$%' &$$%",
      "$%' \"$$&",
      "$%' %$$'",
      "$$#$$$# $##$$$$",
      ")$$ )",
      ")$$ Ę",
      ")$$ $*",
      "Ā\" !",
      "Ā\" #",
      "Ā\" '",
      "$\"& #$$&",
      "$\"& &$$%",
      "!$$& $",
      "$%! #$$!",
      "$%! '$$#",
      "$%! %$$!",
      "$!% #$$%",
      "$!% \"$$%",
      "$!% %$$&",
      "Ġ\" #$$#",
      "$Ĝ )",
      "$$$#$$% $$$%",
      "Ġ$$% $",
      "$#' %$$%",
      "$#' %$$&",
      "$#' #$$'",
      "ĀĀ! Ā%",
      "ĀĀ! Ā)",
      "$$) $$$&",
      "Ā' (",
      "Ā' Ğ",
      "ĀĀ$ Ā%",
      "$'\" #$$#",
      "$'\" &$$#",
      "$&' !$$%",
      "$&! %$$\"",
      "$\"' $$$%",
      "$\"' #$$'",
      "$\"' &$$&",
      "ĀĀ\" Ā&",
      "ĀĀ& Āğ",
      "ĀĀ& Āĝ",
      "$$$' $$\"",
      "$%( $$$$",
      "$!\" &$$#",
      "$(% $$$#",
      "$!& #$$%",
      "$!& &$$$$",
      "$!& %$$&",
      "Ā( (",
      "ĀĀ' Ā!",
      "Ġ! \"$$%",
      "Ġ& '$$&",
      "&# #$$#",
      "\"# %$$#",
      "$#$$$$$$$$ $$$#",
      "$#$$$$$$$$ $$$$$$$$$$$$",
      "!$$' $$&",
      "Ā) #",
      "Ā) '",
      "ĀĀğ ĀĞ",
      "ĀĀğ Āğ",
      "$&( %$$%",
      "ĀĀ) Ā\"",
      "ĀĀ) Ā!",
      "ĀĀ) Ā&",
      "ĀĞ #",
      "Āğ +",
      "\"$$( $",
      "&$$$$# '",
      "($$$$ &",
      "$%$$$$$$% %$$$$",
      "$#%$$$% $#%$$$%",
      "$!$$$$ \"",
      "$$$$## &$$#",
      "$'( #$$%",
      "$'( #$$'",
      "Ġ$& $$&",
      "Ğ$$ ,",
      "ĝ$$ ę",
      "$#( $$$%",
      "$#( $$$&",
      "$(' $$$#",
      "#$$$$$$% $$#",
      "%$$$$$$% $$%",
      "$. )",
      "$. +",
      "Ā* #",
      "$#$#$$% $",
      "$'$$$$ $%",
      "Āĝ #",
      "&& $$$%",
      "%$$$$$% %$$%",
      "%$$$$$# #$$#",
      "$%$%$$# $",
      "$#\"$$$$ $",
      "ĀĀ+ Ā#",
      "ĀĀ%Ā Ě",
      "ĀĀ* Ā%",
      "$%#%$$# $",
      "$$$#$$$$$$$$ $$$",
      "%$$* $",
      "$$#$$$$$$% $$$$$$$$$$$$",
      "#$$* $",
      "#$$$$! !",
      "%$$$$$& $$$%",
      "Ĝ$$ ě",
      "ĀĀę Ā",
      "! $%$$&",
      "\" ,",
      "\" $$$$$$$$",
      "\" \"$$$$",
      "\" !$$$$",
      "\" &$$\"",
      "\" '$$'",
      "# \"",
      "# &$$#",
      "% +",
      "% #$$#",
      "% %$$&",
      "% !$$%",
      "% $$$%$$%",
      "& +",
      "& Ğ",
      "& $$$#",
      "& #$$#",
      "& $#$$#",
      "& $$$%$",
      "& !$$&",
      "& !#",
      "' Ĝ",
      "' ĀĀ#",
      "' $$$$%%",
      "( ,",
      "( .",
      "( ğ",
      ") ,",
      ") Ĝ",
      ") ĝ",
      "* +",
      "* -",
      "* %$$&",
      "* ĀĀ(Ā",
      "+ +",
      ", !",
      ", \"",
      ", ,",
      ", $$$$",
      ", $$\"",
      "- *",
      "- Ĝ",
      "- $$$$",
      "- $$%",
      ". %",
      ". )",
      "/ $$",
      "Ā -",
      "ĕ $$",
      "Ę Ā",
      "Ę $$ğ",
      "ę !",
      "ę $",
      "Ě *",
      "Ě $$!",
      "ě !",
      "ě '",
      "ě Ę",
      "ě $$#",
      "ě $$!",
      "ě $$*",
      "Ĝ '",
      "Ĝ )",
      "Ĝ -",
      "Ĝ /",
      "Ĝ ě",
      "Ĝ $$\"",
      "Ĝ #$$",
      "Ĝ $$ğ",
      "Ĝ $$)",
      "ĝ $",
      "ĝ (",
      "ĝ /",
      "ĝ $$(",
      "ĝ $$*",
      "Ğ $$ğ",
      "ğ )",
      "ğ %$$#",
      "ğ $$$$#",
      "ğ #$$\"",
      "Ġ $##",
      "Ġ &$$$$",
      "Ġ $#&",
      "Ġ $%$$#",
      "Ġ $#$$%",
      "Ġ $#$$#",
      "Ġ $\"\"",
      "Ġ '$$%",
      "Ġ &$$&",
      "Ġ Ā%",
      "Ġ Ā#",
      "Ġ )$$",
      "Ġ $#'",
      "Ġ ĀĀ$",
      "Ġ $&!",
      "Ġ $\"$$%",
      "Ġ $\"!",
      "Ġ $-",
      "Ġ $ě",
      "Ġ $(#",
      "Ġ %$$(",
      "Ġ &$$$&",
      "Ġ %$$ğ",
      "Ġ $'$$$$",
      "Ġ $'$$%",
      "Ġ '$$ğ",
      "Ġ !$$ğ",
      "$$ .",
      "$% .",
      "$% %$$#",
      "$% &$$%",
      "$% !$$$$",
      "$% $\"$$$$%",
      "$% #$$$$#%",
      "$% $#$$'",
      "$% !$$$",
      "$# .",
      "$# $#",
      "$# %$$%",
      "$# #$$",
      "$# $ğ",
      "$# #$$$$#",
      "$# $!$$$$",
      "$# $#$$$$$$#",
      "$# #$$#$",
      "$# $#$$!",
      "$# $\"$$",
      "$# $#$$",
      "$$% %$$$$#",
      "$$% '$$&",
      "$$% ($$%",
      "$$# #$$$$#",
      "$$# !$$$$",
      "$$# $$$",
      "$$# '$$#",
      "$$# $$$%$",
      "$$# %$$$$%#",
      "$& $\"",
      "$& %$$",
      "$& &$$",
      "$& '$$",
      "$& $$(",
      "$& $%$$$$#",
      "$& &$$$&",
      "$& $\"$$$$%",
      "$& #$$$!",
      "$& \"$$$!",
      "$& %$$$\"",
      "$\" $",
      "$\" $)",
      "$\" $\"$$$$",
      "$\" !$$$$",
      "$\" $%$$$$%",
      "$\" $\"$$#",
      "$\" $!$$%",
      "$\" \"$$$!",
      "$\" $%$$(",
      "$$& $$#",
      "$$& $'",
      "$$& &$$#",
      "$$& %$$$$%",
      "$$& %$$$$#",
      "$$& #$$'",
      "$$& $$$'",
      "$$& !$$'",
      "$$& $$$%$%",
      "$$\" $$#",
      "$$\" %$$$$",
      "$$\" $$$%",
      "$$\" %$$%",
      "$$\" %$$",
      "$$\" !$$\"",
      "$$\" $$$$$$#",
      "$$$$$$$$ \"",
      "$$$$$$$$ #$$$$#",
      "$$$$$$$$ %$$$$%",
      "$$$$$$$$ $$$$#%",
      "#$$$$ $#%",
      "#$$$$ $$%$$$$",
      "#$$$$ !#",
      "%$$$$ $$$#",
      "%$$$$ $!",
      "%$$$$ $(",
      "%$$$$ $#%",
      "%$$$$ $&$$$$",
      "%$$$$ $#$$$$$$",
      "%$$$$ '%",
      "%$$$$ '&",
      "$$$# $'",
      "$$$# $$$$#%",
      "$$$% $%\"",
      "$$$% $$$$##",
      "$' $#$$%",
      "$' $&$$$$",
      "$' '$$$$",
      "$' \"$$$\"",
      "$' $%$$'",
      "$! #$$$$",
      "$! $$'",
      "$! $%$$$$",
      "$! $#$$$$",
      "$! $%$$#",
      "$! $#$$#",
      "$! $&$$$$",
      "$! $%$$$$%",
      "$! $$ğ",
      "$! $'$$#",
      "$$! $",
      "$$! $\"",
      "$$! $$$#",
      "$$! #$$\"",
      "$$! $'#",
      "$$! '$$\"",
      "$$! \"$$!",
      "$$! $$$#$",
      "$$' %",
      "$$' \"$$%",
      "$$' #$$'",
      "$$' $$$'",
      "$%$$$$ !",
      "$%$$$$ #$$%",
      "$%$$$$ %$$#",
      "$%$$$$ $#%$$$$",
      "$%$$$$ #$$$$$$",
      "$#$$$$ (",
      "$#$$$$ $$$&",
      "$#$$$$ %$$$$$$%",
      "$#$$$$ '%",
      "$#$$$$ $%$$$$$$",
      "$( $$$$%",
      "$( $%$$#",
      "$( '$$$$",
      "$( $\"$$%",
      "$( %$$$&",
      "#$$% $$%#$$%",
      "#$$ $Ğ",
      "$%% \"$$\"",
      "$%% $$$%$$#",
      "$%% &$$'",
      "$%% #$$$$&",
      "\"$$$$ $",
      "\"$$$$ %$$$$$$",
      "$#% $$\"",
      "$#% #$$$$",
      "$#% $$$\"",
      "$#% '$$#",
      "$#% #$$'",
      "$#% &$$&",
      "$#% $$$%$$%",
      "$#% &$$$$#",
      "$#% #$$$$&",
      "$%# $$&",
      "$## !$$%",
      "$## $$$%$",
      "$## \"$$!",
      "\"$$ ě",
      "\"$$ $ğ",
      "&$$$$ $",
      "&$$$$ +",
      "&$$$$ $&",
      "&$$$$ $%%$$$$",
      "&$$$$ $##$$$$",
      "%$$ ę",
      "$) $!",
      "$) $\"$$\"",
      "$ğ $",
      "$ğ ,",
      "$ğ Ĝ",
      "$ğ ĝ",
      "$ğ $$&",
      "&$$ -",
      "&$$ $!",
      "$$$$% \"",
      "$$$$% $",
      "$$$$% $$$$$$$$$$$$",
      "\"$$% $!",
      "!$$ $(",
      "!$$ $ĝ",
      "'$$ Ě",
      "'$$ $(",
      "$* $ğ",
      "#$$& $#&",
      "$&% &$$#",
      "$&% \"$$$$%",
      "\"$$# $#",
      "\"$$# $%\"",
      "Ġ$$ Ě",
      "Ġ$$ $\"$$%",
      "$$%$$$$ $$#$$$#",
      "$%& #$$$$",
      "$%& %$$#",
      "$%& #$$#",
      "$%& \"$$#",
      "$%& '$$%",
      "$%& '$$$$",
      "$%& $$$%$",
      "$%& !$$&",
      "$%& '$$&",
      "$%& !$$'",
      "$%& #$$%$",
      "$Ğ )",
      "$Ğ ě",
      "$Ğ $$\"",
      "$Ğ $$'",
      "$$#$$$$ $$$#$$$$",
      "$$$$$$$$$$$$ #$$$$",
      "#$$\" $'%",
      "$&# \"$$$$",
      "$&# &$$$$",
      "$&# \"$$&",
      "$&# !$$%",
      "$\"# %$$%",
      "$\"# \"$$%",
      "$\"# #$$$$%",
      "$%\" %$$$$",
      "$%\" %$$",
      "$%\" \"$$\"",
      "$%\" '$$#",
      "$#& $$$#",
      "$#& %$$#",
      "$#& #$$#",
      "$#& &$$$$",
      "$#& '$$&",
      "$#\" %$$$$",
      "$#\" #$$",
      "$#\" #$$!",
      "$#\" '$$#",
      "($$ -",
      "($$ Ĝ",
      "($$ $)",
      "($$ $*",
      "$\"% #$$$$",
      "$\"$$$$ $$",
      "$\"$$$$ $$$#",
      "$\"$$$$ $$#$$$$",
      "#$$$$% (",
      "#$$$$% %$$$$",
      "#$$$$% $%$$#",
      "#$$$$% $#$$$$%",
      "#$$$$# $",
      "#$$$$# #$$$#",
      "#$$$$# %%$$%",
      "$$( &$$%",
      "$$( $$$&",
      "$ĝ *",
      "$ĝ Ě",
      "$ĝ $$",
      "\"$$& $#!",
      "$$$\" $$'",
      "$$$\" %$$#",
      "$%$$% $",
      "%$$$$% #$$$$",
      "!$$$$ &",
      "$$$%$$$$ $%",
      "$$$%$$$$ $$%$$$$",
      "$$$ ę",
      "$$$ Ĝ",
      "%$$$$# $",
      "%$$$$# #%$$#",
      "!$$# $!",
      "!$$# $&#",
      "$\"\" &$$%",
      "$&\" #$$!",
      "#$$! $%",
      "$&& %$$#",
      "$&& \"$$&",
      "$$$#$$$$ $%",
      "'$$$$ !",
      "'$$$$ $",
      "'$$$$ &#",
      "#$$' $!",
      "ğ$$ ę",
      "ğ$$ Ě",
      "$%%$$$$ $$%$$$$",
      "$%$$$$% %",
      "$'% #$$#",
      "$%$$$$# $%%$$$$",
      "$#$$$$# %$$$$",
      "$##$$$$ $$%$$$%",
      "$'# #$$$$",
      "$'# %$$#",
      "$'# \"$$$$",
      "$'# %$$\"",
      "Ġ$$$$ \"",
      "Ġ$$$$ $#",
      "Ġ$$$$ '!",
      "Ā% ,",
      "$%' #$$$$",
      "$%' %$$#",
      "$%' %$$%",
      "$%' \"$$$$",
      "$%' #$$&",
      "$%' %$$&",
      "$$#$$$# $##$$$#",
      ")$$ /",
      ")$$ Ĝ",
      ")$$ ĝ",
      "$#! $$$%",
      "$#! &$$!",
      "$$$%$$% #$$%",
      "Ā\" )",
      "$$$$$$$$$$$$$$$$ $$$$$$$$$$$$$$$$",
      "$\"& $$$%",
      "$\"& &$$$$",
      "$\"& %$$&",
      "ĀĀ# ĀĞ",
      "ĀĀ% Ā(",
      "ĀĀ% Ā*",
      "$%! \"$$#",
      "$%! #$$\"",
      "$, &",
      "$, ,",
      "$, -",
      "$, .",
      "$, Ğ",
      "$%#$$$$ $$#",
      "$%#$$$$ $$%$$$$",
      "$!% $$$%",
      "Ġ\" #",
      "Ġ\" $$$#",
      "Ġ\" #$$%",
      "Ġ\" \"$$%",
      "Ġ\" #$$\"",
      "Ġ# $$$%",
      "Ġ# #$$%",
      "Ġ# %$$%",
      "$$ğ $",
      "$Ĝ Ğ",
      "$Ĝ $$#",
      "Ā& !",
      "Ā& ě",
      "$$$#$$% $",
      "$#' '$$&",
      "Ā' ğ",
      "$'\" \"$$#",
      "$'\" %$$\"",
      "$'\" !$$#",
      "Ġ% %$$%",
      "$&' \"$$&",
      "$&! \"$$\"",
      "$&! %$$!",
      "$\"' %$$%",
      "$\"' '$$&",
      "$\"' &$$'",
      "#$$$# $$$$$$$$",
      "ĀĀ\" Ā%",
      "ĀĀ& Ā(",
      "($$# $",
      "$%( $$$&",
      "$!\" %$$#",
      "$!\" #$$\"",
      "$(% !$$#",
      "$!& %$$$$",
      "$!& #$$&",
      "$!& &$$%",
      "$!& '$$&",
      "Ā( '",
      "$$$! $$#",
      "ĀĀ' Āğ",
      "ĀĀ' Āĝ",
      "Ġ! %$$\"",
      "Ġ$$& $",
      "\"% #$$%",
      "$$$#$$# %$$#",
      "$- !",
      "$- .",
      "&$$$$% \"",
      "$ě *",
      "$ě ğ",
      "!$$' $$\"",
      "Ā) %",
      "Ā) &",
      "Ā) ,",
      "ĀĀğ Ā)",
      "$%$$$$$$$$ $$$%",
      "$&( !$$&",
      "$&( \"$$'",
      "ĀĀ) Ā*",
      "$(# \"$$\"",
      "($$% $",
      "$'( %$$%",
      "Ġ$& )",
      "Ğ$$ ę",
      "$#$%$$# $$$$$$$$",
      "$$$$$$% $$%",
      "$#( %$$'",
      "ĀĀ( Āğ",
      "$!' #$$%",
      "$#$$$$$$# $$$$$$$$",
      "#$$$$$$% %$$$$",
      "ğ$$% $$%",
      "ĀĀĝ Ā!",
      "%$$$$$$% $",
      "%$$$$$$% $$$$#",
      "$. %",
      "Ā* Ğ",
      "#$$$$$$$$ $$$%",
      "Ā+ ĝ",
      "ğ$$& $\"!",
      "ĀĀĞ Ā!",
      "#$$) $$#",
      "$%ğ '$$\"",
      "$%$#$$# $",
      "%$$$$& $#$$#",
      "$%##$$# $",
      "%$$$$$$# $$$$#",
      "Ġ( $$!",
      "%$$$% $$$$$$$$",
      "$Ě (",
      "Ġğ $$$$",
      "$$$$$$$$% %",
      "#$$$$$$# $$$$#",
      "&$$( $",
      "$$&$$$$ $",
      "+$$ +",
      "+$$ ,",
      "+$$ $(",
      "\"$$ğ $",
      "ĠĞ $$\"",
      "ĀĀ+ Ā",
      "$)& #$$#",
      "$$ĝ ($$",
      "'$$( $",
      "($$' $",
      "$$$%$$$$$$$$ $$$%",
      "$$$( $",
      "ĀĀ$Ā ,",
      "$$$%$$& #$$%",
      "$$$%$$& \"$$%",
      "$ę !",
      "ğ$$$$ '",
      "$$$$$$$$$% $",
      "!$$$$# \"",
      "$#$#$$$$# #$$$$",
      "ĀĀ- Ā",
      "$\"$%$$% $",
      "$!ğ #$$!",
      "'$$$$# &",
      "'$$$$% \"",
      "!$$* $",
      "$$$$$$$$$$$$$$$$$$$$$$$$ $$$",
      "$%$$$$$$$$$$$$ $",
      "Ě$$ .",
      "ğ% ĀĀ",
      "*) $$(",
      "$&$#$$$$ \"#",
      "$%$%$$$$% $%$$$$",
      "$$$$$$$$$$$$% %$$$$",
      "$#$$$$$$$# $$$#",
      "$%##$$$$ &#",
      "$'&$$ $(",
      "$%$# $$#$$$$$$#",
      "$%$$$$$$$$$$$$$$$$ $$",
      "$&$! $$",
      "$#$$$$$$%$$$$# $",
      "! &$$%",
      "! !$$#",
      "! \"$$\"",
      "! &&",
      "! $$$$%#",
      "! #$$Ğ",
      "\" Ğ",
      "\" $&",
      "\" &$$",
      "\" &$$%",
      "\" #$$!",
      "\" $$$#$",
      "\" &$$$$%",
      "\" $\"$$#",
      "\" ĀĀ#Ā#",
      "# ĀĀ",
      "# $'",
      "# %$$%",
      "# \"$$$$",
      "# \"$$\"",
      "# $$$$$$$$$$$$$$$$",
      "# $$$#$$%",
      "# ''",
      "% \"",
      "% Ě",
      "% ğ",
      "% #$$$$#",
      "% '$$%",
      "% ğ$$%",
      "& ę",
      "& $\"",
      "& $$$$$$$$",
      "& \"$$$$",
      "& #$$'",
      "& $$$%$$%",
      "& #$$%$",
      "& $$$%$%",
      "& $$$$$$$$$$$%",
      "' +",
      "' -",
      "' Ę",
      "' %$$$$",
      "' !$$%",
      "' &$$&",
      "' %$$'",
      "' '$$&",
      "' $$$$##",
      "' ĀĀ%Ā",
      "( -",
      "( %$$&",
      "( $#$$%",
      "( &$$&",
      "( Ĝ#",
      ") (",
      ") +",
      ") $$$$#",
      "* &",
      "* ĀĀ(",
      "* ĀĀ\"Ā",
      "+ .",
      "+ ($$",
      "+ $$Ğ",
      "+ \"\"",
      "+ ĀĀ,",
      "+ ĀĀ#Ā",
      ", ğ",
      ", $$%",
      ", $$&",
      ", $$+",
      "- (",
      "- .",
      "- ĝ",
      "- $$\"",
      "- $$!",
      "- $Ğ",
      "- \"$$)",
      "- '$$*",
      ". $$#",
      ". ĀĀ&",
      ". ĀĀğ",
      ". ĀĀĞ",
      ". )%",
      "/ $$&",
      "/ ĀĀĞ",
      "/ ĀĀ%Ā",
      "1 2",
      ": Ā",
      "Ā /",
      "Ā $\"",
      "Ĕ $$",
      "Ė $$",
      "ė $",
      "ė $$",
      "Ę ğ",
      "Ę $$#",
      "ę Ę",
      "ę $$&",
      "ę $$ğ",
      "Ě $$&",
      "Ě $$ğ",
      "Ě %$$ğ",
      "Ě $$ĝ",
      "ě \"",
      "ě #",
      "ě &",
      "ě ,",
      "ě \"$$\"",
      "ě $$ĝ",
      "ě $)ğ",
      "Ĝ ,",
      "Ĝ ĝ",
      "Ĝ $$$\"",
      "Ĝ \"$$\"",
      "Ĝ $$Ğ",
      "Ĝ $$*",
      "Ĝ ĝ$$",
      "ĝ !",
      "ĝ +",
      "ĝ &$$",
      "ĝ $$ğ",
      "ĝ ĝ$$#",
      "Ğ $",
      "Ğ ,",
      "Ğ %$$",
      "Ğ &$$",
      "Ğ #$$\"",
      "Ğ $$$",
      "Ğ '$$\"",
      "Ğ #$$ğ",
      "ğ $$$",
      "ğ !$$#",
      "ğ &$$ğ",
      "ğ Ě$$\"",
      "Ġ 0",
      "Ġ ė",
      "Ġ ę",
      "Ġ Ġ",
      "Ġ $#%",
      "Ġ #$$&",
      "Ġ %$$&",
      "Ġ $\"%",
      "Ġ $\"$$$$",
      "Ġ $&$$$$",
      "Ġ '$$$$",
      "Ġ ğ$$",
      "Ġ !$$&",
      "Ġ '$$\"",
      "Ġ $\"$$#",
      "Ġ $''",
      "Ġ $(&",
      "Ġ $'(",
      "Ġ ğ$$%",
      "Ġ $)&",
      "Ġ &$$ğ",
      "Ġ $ğ!",
      "Ġ %$$ĝ",
      "Ġ $ğ'",
      "Ġ ğ$$-",
      "$$ Ě",
      "$$ $*",
      "$$ ($$$'",
      "$% Ě",
      "$% $'",
      "$% #$$#",
      "$% \"$$#",
      "$% $Ğ",
      "$% $$$%$$%",
      "$% $$)",
      "$% $$Ğ",
      "$% *$$",
      "$% $&$$$$%",
      "$% $'$$#",
      "$% $#$$$$$$$$$$$$",
      "$% '$$$&",
      "$% '$$$'",
      "$% $($$\"",
      "$# /",
      "$# #$$$$%",
      "$# \"$$$$%",
      "$# $#$$$$$$$$",
      "$# $%$$\"",
      "$# $$ĝ",
      "$# $'$$%",
      "$# &$$$'",
      "$# \"$$$!",
      "$# !$$$!",
      "$# )$$$'",
      "$# $%$$!",
      "$# ğ$$$!",
      "$# \"$$$&",
      "$# !$$$",
      "$# $%$$",
      "$# $#$$(",
      "$$% $$$$$$$$",
      "$$% \"$$#",
      "$$% %$$\"",
      "$$% $$$$$$$$$$$$",
      "$$% #$$\"",
      "$$% !$$%",
      "$$% &$$\"",
      "$$% #$$'",
      "$$% $$$#$$%",
      "$$% \"$$!",
      "$$% $$$%$$#",
      "$$% $$$'",
      "$$% \"$$$$%",
      "$$% $%$$$$$$%",
      "$$% #$$$$\"",
      "$$% %$$$$%%",
      "$$# $&",
      "$$# $%#",
      "$$# %$$",
      "$$# #$$&",
      "$$# \"$$\"",
      "$$# $$$#$$$$",
      "$$# $$$%$$%",
      "$$# $%!",
      "$$# &$$!",
      "$$# &$$$$#",
      "$$# $$$$##",
      "$$# %$$$$%%",
      "$$# !$$$$#",
      "$& ę",
      "$& Ě",
      "$& #$$",
      "$& $$$&",
      "$& $$Ğ",
      "$& $&$$%",
      "$& $$$$%%",
      "$& %$$$$$$#",
      "$& $'$$#",
      "$& $\"$$&",
      "$& $!$$#",
      "$& $\"$$\"",
      "$& $!$$&",
      "$& !$$$!",
      "$\" Ė",
      "$\" $$$$$$$$",
      "$\" $'",
      "$\" '$$",
      "$\" $Ğ",
      "$\" $$$$$$$$$$$$",
      "$\" '$$#",
      "$\" $#$$$$%",
      "$\" $$Ğ",
      "$\" $#$$$$$$$$",
      "$\" $%$$&",
      "$\" $&$$$$%",
      "$\" $!$$#",
      "$\" &$$$'",
      "$\" '$$$'",
      "$\" $!$$&",
      "$\" $&$$\"",
      "$\" %$$$\"",
      "$\" $%$$!",
      "$\" $'$$&",
      "$$& !$$%",
      "$$& '$$%",
      "$$& '$$#",
      "$$& '$$$$",
      "$$& %$$'",
      "$$& \"$$'",
      "$$& $$$%$$#",
      "$$& ($$#",
      "$$& $$$!",
      "$$\" $$&",
      "$$\" #$$$$",
      "$$\" $$(",
      "$$\" !$$$$",
      "$$\" %$$!",
      "$$\" &$$!",
      "$$\" $$$$$$%",
      "$$\" #$$\"$",
      "$$$$$$$$ $%$$$$",
      "$$$$$$$$ $%%$$$$",
      "$$$$$$$$ $##$$$$",
      "$$$$$$$$ $$$%$$$$$$",
      "ĀĀ ;",
      "ĀĀ ē",
      "ĀĀ ĕ",
      "#$$$$ (",
      "#$$$$ $!",
      "#$$$$ $$'",
      "#$$$$ #$$$$$$#",
      "#$$$$ $#$$$$$$",
      "#$$$$ !%",
      "#$$$$ $$#$$$$$$#",
      "#$$$$ #$$$$$$",
      "#$$$$ %$$$$$$",
      "#$$$$ $$%$$$$$$%$$$$",
      "%$$$$ ,",
      "%$$$$ %$$%",
      "%$$$$ #$$#",
      "%$$$$ \"#",
      "%$$$$ $#%$$$%",
      "%$$$$ $$%$$$$$$#",
      "$$$# $%#",
      "$$$# $ĝ",
      "$' -",
      "$' .",
      "$' $$$%",
      "$' $'",
      "$' $#$$$$",
      "$' #$$%",
      "$' &$$$$",
      "$' $%$$%",
      "$' $!$$%",
      "$' $'$$#",
      "$' $\"$$&",
      "$' '$$$&",
      "$' $!$$#",
      "$' \"$$$!",
      "$' &%$$'",
      "$' $!$$\"",
      "$! ,",
      "$! #$$#",
      "$! $+",
      "$! $\"$$$$",
      "$! !$$$$",
      "$! $\"$$%",
      "$! $&$$%",
      "$! $$$$%%",
      "$! '$$$&",
      "$! &$$$'",
      "$! $&$$&",
      "$! \"$$$",
      "$! $'$$&",
      "$$! $$&",
      "$$! %$$%",
      "$$! \"$$$$",
      "$$! \"$$#",
      "$$! &$$#",
      "$$! &$$\"",
      "$$! \"$$\"",
      "$$! $%'",
      "$$' \"$$&",
      "$$' '$$%",
      "$$' ($$%",
      "$%$$$$ (",
      "$%$$$$ $$\"",
      "$%$$$$ &$$$$",
      "$%$$$$ $$%$$$$",
      "$%$$$$ $$$#$$$$",
      "$%$$$$ &%",
      "$%$$$$ %$$$$$$#",
      "$%$$$$ #$$$$$$#",
      "$%$$$$ $$$#$$$$$$#",
      "$%$$$$ #$$%$$$$",
      "$#$$$$ $%",
      "$#$$$$ %$$\"",
      "$#$$$$ %$$&",
      "$#$$$$ $##$$$$",
      "$#$$$$ #$$$$$$%",
      "$#$$$$ #$$$$$$#",
      "$#$$$$ #$$$$$$",
      "$( Ĝ",
      "$( #$$$$",
      "$( $$'",
      "$( $$$$#",
      "$( $#$$%",
      "$( $\"$$#",
      "$( $#$$\"",
      "$( $\"$$&",
      "$( '$$$&",
      "$( !$$$\"",
      "$( %$$$\"",
      "$( !$$$ğ",
      "#$$% $%#",
      "#$$% $$%$$$%",
      "%$$# #$$#",
      "%$$# $##",
      "%$$# $$%$$$#",
      "%$$# $%#\"$$#",
      "%$$% $)",
      "%$$% $%%$$$$",
      "#$$ ě$",
      "$%% $$$$$$$$",
      "$%% #$$\"",
      "$%% #$$!",
      "$%% '$$#",
      "$%% '$$$$",
      "$%% %$$'",
      "$%% $$$!",
      "$%% \"$$$$#",
      "$%% #$$%$",
      "$%% #$$$$$$$$",
      "$%% ($$&",
      "$%% \"$$$$\"",
      "$%% %$$$$##",
      "\"$$$$ (",
      "\"$$$$ $#%$$$$",
      "\"$$$$ \"$$$$%",
      "\"$$$$ \"%",
      "\"$$$$ \"\"",
      "\"$$$$ '&",
      "\"$$$$ $%\"$$$$",
      "$#% $$!",
      "$#% #$$!",
      "$#% '$$$$",
      "$#% \"$$'",
      "$#% '$$&",
      "$#% $$$!",
      "$#% ($$%",
      "$#% %$$$$$%",
      "$#% \"$$%$",
      "$#% &$$$$#%",
      "$%# $$$$$$$$",
      "$%# \"$$",
      "$%# &$$%",
      "$%# $$$$$$$$$$$$",
      "$%# %$$&",
      "$%# %$$$$%",
      "$%# &$$\"",
      "$%# %$$!",
      "$%# !$$\"",
      "$%# '$$\"",
      "$%# \"$$!",
      "$%# \"$$$$#",
      "$%# ğ$$#",
      "$%# '$$!",
      "$%# )$$#",
      "$%# #$$$$#%",
      "$%# #$$$$%#",
      "$%# %$$$$#%",
      "$%# #$$$$$#$$$#",
      "$## $$\"",
      "$## %$$",
      "$## $$$$$$$$$$$$",
      "$## !$$#",
      "$## #$$!",
      "$## \"$$\"",
      "$## $$$#$$%",
      "$## #$$$$\"",
      "$## %$$$$$#",
      "$## $$$%$%",
      "$## #$$$$!",
      "$## %$$$$$$%$$%",
      "\"$$ ė",
      "\"$$ $(",
      "\"$$ $ĝ",
      "\"$$ $\"$$%",
      "&$$$$ &\"",
      "&$$$$ '%",
      "&$$$$ $$%$$#",
      "%$$ .",
      "$) ĝ",
      "$) $\"$$$$",
      "$) $!$$$$",
      "$) ##$$#",
      "$ğ $#$$&",
      "$ğ %$$$&",
      "$ğ ($$$(",
      "&$$ ē",
      "&$$ ĕ",
      "&$$ Ę",
      "$$$$% !",
      "\"$$% $#$#$$%",
      "\"$$% $##%$$%",
      "!$$ ė",
      "!$$ $&",
      "!$$ $Ĝ",
      "'$$ $",
      "'$$ -",
      "'$$ ě",
      "'$$ ĝ$$%",
      "$* -",
      "$* .",
      "$* $$",
      "$* ĀĀ",
      "$* $$$$%",
      "#$$& $%",
      "#$$& $&%",
      "#$$& $#\"",
      "#$$& $%ğ",
      "&$$% $%$#$$%",
      "$&% #$$\"",
      "$&% #$$$$%",
      "$&% \"$$\"",
      "$&% #$$'",
      "$&% &$$&",
      "$&% #$$%$",
      "$&% #$$$$\"",
      "$&% \"$$%$",
      "\"$$# $&",
      "\"$$# $('",
      "&$$# $#\"",
      "Ġ$$ .",
      "Ġ$$ Ė",
      "Ġ$$ $\"$$&",
      "$$%$$$$ $%#$$$$",
      "$$%$$$$ $#%$$$%",
      "$$%$$$$ $$#$",
      "$%& %$$$$",
      "$%& &$$#",
      "$%& !$$#",
      "$%& &$$\"",
      "$%& ğ$$'",
      "%$$\" $)",
      "%$$\" $ğ",
      "%$$\" $#\"",
      "$Ğ +",
      "$Ğ -",
      "$Ğ $$$$",
      "$$$$$$$$$$$$ $%",
      "$$$$$$$$$$$$ $$$#",
      "$$$$$$$$$$$$ $#$$$$",
      "$$$$$$$$$$$$ $$$#$$$$",
      "$$$$$$$$$$$$ $%$$$$%",
      "$$$$$$$$$$$$ $##$$$$",
      "$$$$$$$$$$$$ $%$$$$$$%",
      "$$$$$$$$$$$$ $$%$$$$$",
      "%$$& $(",
      "#$$\" $\"#",
      "$$$& $$$$$$%",
      "$&# #$$",
      "$&# !$$#",
      "$&# #$$!",
      "$&# \"$$!",
      "$&# #$$$$&",
      "$&# ğ$$#",
      "$\"# #$$&",
      "$\"# %$$&",
      "$\"# \"$$&",
      "$\"# %$$$$#",
      "$\"# !$$#",
      "$\"# '$$#",
      "$\"# &$$&",
      "$\"# ĝ$$%",
      "$\"# %$$$$##",
      "$%\" #$$%",
      "$%\" !$$",
      "$%\" \"$$!",
      "$%\" \"$$$$%",
      "$%\" $$$#$",
      "$#& $$\"",
      "$#& &$$#",
      "$#& !$$&",
      "$#& %$$'",
      "$#& &$$'",
      "$#& #$$(",
      "$#& %$$$$&",
      "$#& &$$(",
      "$#\" %$$%",
      "$#\" \"$$$$",
      "$#\" %$$",
      "$#\" #$$&",
      "$#\" &$$%",
      "$#\" \"$$&",
      "$#\" &$$\"",
      "$#\" \"$$'",
      "$#\" ($$\"",
      "($$ $",
      "($$ Ě",
      "($$ $!",
      "$\"% &$$&",
      "$\"% %$$'",
      "$\"% !$$\"",
      "$\"% ($$%",
      "$\"% #$$%$",
      "$+ $",
      "$+ *",
      "$+ ,",
      "$+ .",
      "$\"$$$$ $$$%",
      "$\"$$$$ %$$%",
      "#$$$$% $#$$$$",
      "#$$$$% %$$$%",
      "#$$$$% ##$$#",
      "#$$$$# $#$$$$#",
      "$$( #$$%",
      "$ĝ (",
      "$ĝ ę",
      "$#$$% $$$$$$$$",
      "$#$$# $$#$$$$",
      "\"$$& $$%",
      "\"$$& $\"",
      "\"$$& $$(",
      "%$$$$% %$$$$",
      "%$$$$% #%$$#",
      "!$$$$ \"",
      "!$$$$ +",
      "!$$$$ ğ",
      "!$$$$ $$#",
      "!$$$$ &#",
      "!$$$$ \"%",
      "!$$$$ &\"",
      "!$$$$ $$%$$%",
      "$$$%$$$$ $%$$$$",
      "$$$%$$$$ $$%$",
      "$$$ Ě",
      "%$$$$# '",
      "%$$$$# $%$$%",
      "%$$$$# %#$$%",
      "%$$$$# ##$$#",
      "!$$# $$\"",
      "!$$# $(",
      "$\"\" #$$",
      "$\"\" &$$$$",
      "$\"\" &$$\"",
      "$\"\" ($$#",
      "$&\" $$$%",
      "$&\" \"$$%",
      "$&\" #$$\"",
      "$&\" \"$$&",
      "$&\" !$$%",
      "$&\" \"$$!",
      "$&\" !$$!",
      "$&\" ğ$$#",
      "$&$$$$ $$$#",
      "$&$$$$ #$$%",
      "$&$$$$ &%",
      "$&$$$$ %$$##$$#",
      "#$$! $!",
      "&$$\" $&",
      "&$$\" $!",
      "\"$$\" $'",
      "$&& %$$%",
      "$&& #$$#",
      "$&& \"$$(",
      "$$$#$$$$ &",
      "$$$#$$$$ $$",
      "$$$#$$$$ $%$$$$",
      "$$$#$$$$ $%#$$%",
      "$$$#$$$$ $%$$$$$",
      "'$$% $$&",
      "'$$% $\"#",
      "'$$$$ (",
      "'$$$$ $$%",
      "'$$$$ $&$$$$",
      "'$$$$ &\"",
      "#$$' $ğ",
      "$!# #$$$$",
      "$!# !$$%",
      "$!# !$$$$",
      "$!# #$$+",
      "$%%$$$$ \"",
      "%$$! $*",
      "%$$! $'\"",
      "%$$! $\"!",
      "$'% #$$$$",
      "$'% %$$$$",
      "$'% \"$$$$",
      "$'% \"$$%",
      "$'% %$$\"",
      "$'% !$$$$",
      "$'% #$$'",
      "$#$$$$% &",
      "$#$$$$% $$$$$$$$",
      "$%$$$$# %$$$$",
      "$%$$$$# $#%",
      "$%$$$$# $%$$$$#",
      "$#$$$$# #",
      "$#$$$$# $%$$$$%",
      "$#$$$$# $#%$$$$",
      "$##$$$$ $##$$$$",
      "&% ĝ",
      "&% %$$%",
      "&% !$$&",
      "$'# $$$%",
      "$'# #$$&",
      "$'# &$$%",
      "$'# #$$$$&",
      "Ġ$$$$ !",
      "Ġ$$$$ +",
      "Ġ$$$$ $$%",
      "Ġ$$$$ '&",
      "Ġ$$$$ !'",
      "Ġ$$$$ !!",
      "Ā% '",
      "Ā# )",
      "Ā# -",
      "Ā# ĝ",
      "$%' \"$$%",
      "$%' #$$'",
      "$%' !$$&",
      "$%' #$$(",
      "$$#$$$# $%$$$$#",
      ")$$ $)",
      "$#! %$$",
      "$#! #$$\"",
      "$#! %$$!",
      "$$$%$$% $$$%$$%",
      "$$$%$$% $$$%$$#",
      "Ā\" Ĝ",
      "$$$$$$$$$$$$$$$$ $$$%",
      "$$$$$$$$$$$$$$$$ $$$$%",
      "$\"& #$$$$",
      "$\"& $$$#",
      "$\"& \"$$$$",
      "$\"& &$$&",
      "$\"& \"$$'",
      "$#%$$$$ $##$$$$",
      "$#%$$$$ $%#$$$#",
      "$#%$$$$ $$$#$$#",
      "ĀĀ# Āğ",
      "!$$& $\"#",
      "!$$& $!#",
      "%$$' $$(",
      "ĀĀ% ĀĞ",
      "ĀĀ% Āĝ",
      "$%! #$$",
      "$%! &$$#",
      "$%! !$$#",
      "$%! \"$$\"",
      "$, ĝ",
      "$!% %$$%",
      "$!% &$$#",
      "$!% '$$#",
      "$!% '$$$$",
      "$!% &$$&",
      "Ġ\" ĀĀ",
      "Ġ\" %$$$$",
      "Ġ\" %$$%",
      "Ġ\" \"$$!",
      "Ā! (",
      "Ġ$$# $",
      "Ġ# %",
      "Ġ# '",
      "Ġ# ğ",
      "Ġ# #$$$$",
      "Ġ# %$$$$",
      "Ġ# $$$#",
      "Ġ# \"$$%",
      "$$ğ $$$\"",
      "$$ğ \"$$!",
      "$Ĝ *",
      "$Ĝ $$$$",
      "Ā& )",
      "Ā& ĕ",
      "\"$$' $#",
      "$$$#$$% $%$$$$#",
      "Ġ$$% $&",
      "$#' #$$&",
      "ĀĀ! Ā%*",
      "$$) $",
      "$$) %$$%",
      "$$) !$$&",
      "'$$\" $'",
      "ĀĀ$ Ā&",
      "ĀĀ$ Ā(",
      "$'\" #$$!",
      "$'\" !$$\"",
      "$'\" \"$$!",
      "Ġ% *",
      "Ġ% ĀĀ",
      "Ġ% \"$$%",
      "$&' \"$$%",
      "$&' &$$&",
      "$&! %$$%",
      "$&! !$$\"",
      "$&! !$$!",
      "$\"' \"$$%",
      "$\"' %$$&",
      "$\"' '$$%",
      "$$$%$$# $",
      "ĀĀ\" Āğ",
      "ĀĀ\" Ā*",
      "ĀĀ& Ā%",
      "$\"$$% $%",
      "&$$! $",
      "$\"! &$$$$",
      "$\"! %$$!",
      "$\"! !$$\"",
      "Ġ$$\" $)",
      "Ġ$$\" $#!",
      "$%( #$$%",
      "$%( #$$&",
      "$%( !$$&",
      "$%( #$$(",
      "$%( ($$%",
      "$$Ğ #$$\"",
      "$!\" $$$#",
      "$!\" %$$%",
      "$!\" &$$'",
      "$!\" )$$#",
      "&$$' $#",
      "#$$$\" $",
      "$(% $$$%",
      "$(% %$$#",
      "$(% #$$&",
      "$(% %$$\"",
      "$(% '$$$$",
      "$(% !$$!",
      "$!& %$$%",
      "$$$! $$$$",
      "ĀĀ' Ā#",
      "ĀĀ' Ā*",
      "ĀĀ' Ā%*",
      "Ġ& #$$&",
      "Ġ& &$$%",
      "&# \"",
      "&# &",
      "&# \"$$#",
      "Ġ$$& $&&",
      "\"# %$$$$",
      "\"# $$$%",
      "\"% %$$#",
      "\"% %$$&",
      "$'& &$$%",
      "$'& \"$$&",
      "$'& !$$$$",
      "$%#$$$# $$$$$$$$",
      "$%#$$$# $$$$$$$$$$$$$$$$",
      "$$$#$$# #$$#",
      "$- %",
      "$- &",
      "&$$$$% &",
      "$#$$$$$$$$ %$$$$",
      "$#$$$$$$$$ $$$$%",
      "$ě #",
      "$ě &",
      "$ě '",
      "$ě $$)",
      "\"$$$$# &",
      "\"$$$$# %$$$$",
      "ĀĀğ Ā'",
      "#$$( $ğ#",
      "$%$$$$$$$$ $$#",
      "$%$$$$$$$$ $$$$$$$$$$$$",
      "$&( $$$$",
      "$&( #$$&",
      "$&( $$$&",
      "ĀĀ) Ā(",
      "$(# #$$#",
      "$(# \"$$%",
      "$(# #$$\"",
      "$(# ğ$$#",
      "$'' $$$%",
      "$'' #$$\"",
      "$'' %$$'",
      "ĀĞ &",
      "ĀĞ Ğ",
      "$$%$$$% $%%$$$$",
      "$$%$$$% $#%$$$$",
      "$$* #$$(",
      "\"$$( $!",
      "\"$$( $Ğ",
      "&$$$$# %$$$$",
      "!$$! $#",
      "!$$! $&#",
      "$!! %$$#",
      "$!! #$$#",
      "$!! &$$#",
      "$!! %$$\"",
      "$!! ($$#",
      "$%$$$$$$% #",
      "$%$$$$$$% #$$$$",
      "$(& $$$#",
      "$(& \"$$&",
      "$(& !$$#",
      "Ġ$$' $",
      "$!$$$$ $$%",
      "$!$$$$ $$#",
      "$%$#$$$$ \"",
      "$%$#$$$$ $%",
      "$%$#$$$$ %$$$$$$#",
      "$(\" $$$#",
      "$(\" $$$%",
      "$(\" %$$\"",
      "$##$$$# $$$$$$$$#",
      "ğ$$# $",
      "$#$%$$$$ \"",
      "$#$%$$$$ %$$$$$$%",
      "#$$ğ $",
      "$%%$$$% $$#$$$$",
      "Ġ$& $$'",
      "Ğ$$ Ė",
      "Ğ$$ Ĝ",
      "ĝ$$ +",
      "ĝ$$ ē",
      "$$$$$$% $",
      "$#( #$$&",
      "$#( &$$%",
      "ĀĀ( Ā!",
      "ĀĀ( Ā&",
      "$!' $$$%",
      "$!' '$$&",
      "$#$$$$$$# $$$$%",
      "$#$$$$$$# #%$$#",
      "$#$$$$$$# %&$$%",
      "#$$$$$$% $$$$#",
      "#$$$$$$% %$$$%",
      "ğ$$% $",
      "%$$$$$$% $$$$$$$$",
      "%$$$$$$% $$$$$$$$$$$$",
      "$. (",
      "$. ğ",
      "Ā* \"",
      "Ā* (",
      "#$$$$$$$$ $%",
      "#$$$$$$$$ $#",
      "Ā+ %",
      "Ā+ '",
      "$\"( %$$%",
      "$\"( &$$&",
      "$%%#$$% $$$#$$%",
      "\"\" #$$#",
      "ğ$$& $",
      "ĀĀĞ Ā#",
      "ĀĀĞ Ā'",
      "$'! $$$#",
      "$'! #$$%",
      "#$$) $%!",
      "#$$) $#(",
      "$%ğ #$$",
      "$%ğ \"$$%",
      "'$$' $",
      "($$& $",
      "%$$$$& &#$$%",
      "$##%$$# $",
      "$'$$$$ !",
      "$'$$$$ \"",
      "$'$$$$ $$&",
      "Ġ( ,",
      "Ġ( $$'",
      "$#%#$$% $$%",
      "*$$ +",
      "*$$ Ě",
      "*$$ ě",
      "Āĝ +",
      "Āĝ Ğ",
      "$Ě #",
      "$Ě ,",
      "$$$$$$$$% #$$$$",
      "$$$$$$$$% %#$$%",
      "$&$$$$% $",
      "#$$$$$# $$$%",
      "#$$$$$# \"$$$$",
      "#$$$$$$# $$$$%",
      "$#$$$$$$% #",
      "$#$$$$$$% $$$$%",
      "$ğ# #$$!",
      "&& !$$$$",
      "$#ğ #$$#",
      "$#ğ $$$\"",
      "$$$$$$$$# $#$$$$$$$$",
      "%$$$$$% $$$#",
      "$!( #$$%",
      "$!( \"$$&",
      "%$$) $",
      "Ġ) $$$$",
      "Ġ) %$$'",
      "$#%%$$% $$$$$$$$%",
      "$)\" %$$%",
      "'$$! $$\"",
      "%$$$$$# %$$#",
      "$)% %$$#",
      "$$\"$$$$ $",
      "+$$ $*",
      "+$$ $+",
      "$%$$$$$$# #",
      "$%$$$$$$# $$$$%",
      "ğ$$\" $",
      "ĠĞ $$$$",
      "ĀĀ+ Ā)",
      "ĀĀ%Ā $ğ",
      "ĀĀ* Ā#",
      "ĀĀĜ Ā)",
      "Ġ#$$ $Ğ",
      "#$$$$$% $$$&",
      "%$$$$\" '",
      "$') %$$*",
      "$(! \"$$#",
      "$$$#$$$$$$$$ $$$$%",
      "%$$$$%% %$$$$",
      "$$$%$% \"$$$$",
      "\"$$) $",
      "'$$( $!",
      "$#) $$$$",
      "$#) \"$$%",
      "$$$%$$$$$$$$ $%$$$%$$#",
      "$#$#$$# $",
      "!# )",
      "Ġ$$$# $$",
      "$'ğ %$$#",
      "ĀĀ. Ā!",
      "ĀĀ. Ā&",
      "ĀĀ. Ā%#",
      "'# !$$#",
      "Ġ$) !",
      "$#Ğ #$$",
      "($$! $'(",
      "ğ$$$$ \"",
      "$&Ğ #$$",
      "\"! \"$$\"",
      "$$$$$$$$$# $",
      "$ğ& '$$&",
      "$\"$$$$# $",
      "$$$$$$$$$% $$$%$",
      "ĀĀ/ Ā*",
      "$#$& $$\"",
      "$$%$$$& $",
      "&' %$$%",
      "$#&$$$$ $",
      "'$$ğ $%#",
      "Ġĝ $$$$",
      "Ġĝ $$!",
      "Ġ&$$ Ğ",
      "Ġ&$$ $\"",
      "Ġ#$$! $",
      "$\"Ğ #$$",
      "$!) $$$%",
      "$)! \"$$#",
      "$$$#$$$$$$% $$%",
      "$$$#$$$$$$# $$#",
      "ĀĀ(Ā Ě",
      "Ġ$* &",
      "ĀĀě Ā%#",
      "'$$$$% '",
      "$() #$$'",
      "$$$$$$$$$$$$# #$$#",
      "#$$$$' '",
      "$%#$$$\" $",
      "$##&$$$$ \"%",
      "'! #$$#",
      "+ĀĀ ę",
      "$$$#$$$$% ##$$#",
      "$ğ$$$$ \"",
      "!! ĀĀ",
      "$#$#$$$$% $%$$$$#",
      "$$&$$$& $",
      "#$$$$$$\" $$#",
      "$#$$$$$$%$$$$ $$",
      "ĀĀ#Ā! #",
      "ĀĀ#Ā! Ğ",
      "ĀĀ%Ā! &",
      "#$$$$$\" $$$#",
      "$#$$$$$$$% #$$%",
      "\"$$$$& $#$$#",
      "($$ğ $)",
      "%% %",
      "Ġ$$ĝ $",
      "$%$$$$$$$# $$$#",
      "$%$$$$$$$# %$$#",
      "(# !",
      "$%$#$$$$$$$$ $%",
      "$%$#$$$$$$$$ $$$#",
      "$#%\"$$$$ &%",
      "$%#%$$% $$#",
      "ğğ ĀĀ",
      "$##%$$$$% $#$$%",
      "$\"$%$$$$# #",
      "$%$$$$#$$# $$$$",
      "$%##$$$$# #$$$#",
      ".$$ Ė",
      "$''$$ $(",
      "$!$! $$(",
      "! /",
      "! Ē",
      "! Ĝ",
      "! %$$$$",
      "! \"$$$$",
      "! !$$",
      "! &$$#",
      "! %$$\"",
      "! $$#$$$$",
      "! ($$",
      "! !$$$$",
      "! &$$\"",
      "! '$$#",
      "! %$$!",
      "! '$$\"",
      "! \"$$!",
      "! $&$$#",
      "! #$$ğ",
      "! '$$!",
      "! ĀĀ$Ā",
      "! $$$$$$$$$#",
      "! )%",
      "! Ę$$",
      "\" ę",
      "\" $%$$$$",
      "\" $)",
      "\" ($$",
      "\" %$$!",
      "\" !$$\"",
      "\" ĀĀ!",
      "\" '$$\"",
      "\" ĀĀ$",
      "\" ($$#",
      "\" \"$$$$#",
      "\" ĀĀ)",
      "\" ĀĀĝ",
      "\" &\"",
      "\" %$$#$",
      "\" Ğ$$%",
      "\" ĀĀ/",
      "\" '(",
      "\" #$$Ğ",
      "\" ĀĀ-",
      "\" $$$$$$$$$$$#",
      "\" ĀĀ!Ā#",
      "# -",
      "# ĕ",
      "# ę",
      "# #$$$$%",
      "# $$$%$",
      "# ĀĀ#Ā",
      "# ĀĀĜ",
      "# &(",
      "# (%",
      "# %$$$$##",
      "# ğ%",
      "# *)",
      "# %%",
      "# !)",
      "# Ğ#",
      "# Ĝ%",
      "# *,",
      "# ğ$",
      "# #$$$$#%$$$%",
      "$ Ē",
      "$ ĕ",
      "$ ĀĀ#",
      "$ ĀĀ%Ā",
      "$ ĀĀ(Ā",
      "$ ĀĀĚĀ",
      "$ ĀĀ\"Ā\"",
      "% !",
      "% /",
      "% Ğ",
      "% $%",
      "% ĀĀ",
      "% #$$",
      "% \"$$$$",
      "% \"$$%",
      "% ĀĀğ",
      "% !%",
      "% %$$$$\"",
      "% &'",
      "% #$$$$#%",
      "% !'",
      "% ĀĀ)Ā",
      "% )&",
      "% ğ%",
      "% #$$$$$$#$$$$",
      "% ($$)",
      "% \")",
      "% (("
    ]
  }
}