{
  "version": "1.0",
  "truncation": null,
  "padding": null,
  "added_tokens": [],
  "normalizer": null,
  "pre_tokenizer": {
    "type": "ByteLevel",
    "add_prefix_space": false,
    "trim_offsets": true,
    "use_regex": true
  },
  "post_processor": {
    "type": "ByteLevel",
    "add_prefix_space": true,
    "trim_offsets": false,
    "use_regex": true
  },
  "decoder": {
    "type": "ByteLevel",
    "add_prefix_space": true,
    "trim_offsets": true,
    "use_regex": true
  },
  "model": {
    "type": "BPE",
    "dropout": null,
    "unk_token": null,
    "continuing_subword_prefix": null,
    "end_of_word_suffix": null,
    "fuse_unk": false,
    "byte_fallback": false,
    "ignore_merges": false,
    "vocab": {
      "\u0000": 0,
      "\u0001": 1,
      "\u0002": 2,
      "\u0003": 3,
      "\u0004": 4,
      "\u0005": 5,
      "\u0006": 6,
      "\u0007": 7,
      "\b": 8,
      "\t": 9,
      "\n": 10,
      "\u000b": 11,
      "\f": 12,
      "\r": 13,
      "\u000e": 14,
      "\u000f": 15,
      "\u0010": 16,
      "\u0011": 17,
      "\u0012": 18,
      "\u0013": 19,
      "\u0014": 20,
      "\u0015": 21,
      "\u0016": 22,
      "\u0017": 23,
      "\u0018": 24,
      "\u0019": 25,
      "\u001a": 26,
      "\u001b": 27,
      "\u001c": 28,
      "\u001d": 29,
      "\u001e": 30,
      "\u001f": 31,
      " ": 32,
      "!": 33,
      "\"": 34,
      "#": 35,
      "$": 36,
      "%": 37,
      "&": 38,
      "'": 39,
      "(": 40,
      ")": 41,
      "*": 42,
      "+": 43,
      ",": 44,
      "-": 45,
      ".": 46,
      "/": 47,
      "0": 48,
      "1": 49,
      "2": 50,
      "3": 51,
      "4": 52,
      "5": 53,
      "6": 54,
      "7": 55,
      "8": 56,
      "9": 57,
      ":": 58,
      ";": 59,
      "<": 60,
      "=": 61,
      ">": 62,
      "?": 63,
      "@": 64,
      "Ā": 65,
      "ā": 66,
      "Ă": 67,
      "ă": 68,
      "Ą": 69,
      "ą": 70,
      "Ć": 71,
      "ć": 72,
      "Ĉ": 73,
      "ĉ": 74,
      "Ċ": 75,
      "ċ": 76,
      "Č": 77,
      "č": 78,
      "Ď": 79,
      "ď": 80,
      "Đ": 81,
      "đ": 82,
      "Ē": 83,
      "ē": 84,
      "Ĕ": 85,
      "ĕ": 86,
      "Ė": 87,
      "ė": 88,
      "Ę": 89,
      "ę": 90,
      "Ě": 91,
      "ě": 92,
      "Ĝ": 93,
      "ĝ": 94,
      "Ğ": 95,
      "ğ": 96,
      "Ġ": 97,
      "ĠĠ": 98,
      "Ġ!": 99,
      "Ġğ": 100,
      "ĠĠĠĠ": 101,
      "Ġ\"": 102,
      "ĠĞ": 103,
      "ĠĠĠ": 104,
      "ĀĀ": 105,
      "Ġĝ": 106,
      "Ġ#": 107,
      "Ġ$": 108,
      "ĠĠĠĠĠ": 109,
      "ĠĜ": 110,
      "Ġ!!": 111,
      "Ġğğ": 112,
      "Ġě": 113,
      "Ġ%": 114,
      "ĠĠĠĠĠĠĠĠ": 115,
      "Ġğ!": 116,
      "Ġ!ğ": 117,
      "Ġ&": 118,
      "ĠĚ": 119,
      "Ġ\"!": 120,
      "ĠğĞ": 121,
      "ĠĞğ": 122,
      "Ġ!\"": 123,
      "Ġ'": 124,
      "Ġ\"ğ": 125,
      "Ġę": 126,
      "ĠĞ!": 127,
      "Ġğ\"": 128,
      "Ġ!Ğ": 129,
      "ĠĠĠĠĠĠ": 130,
      "Ġ(": 131,
      "ĠĘ": 132,
      "Ġ\"\"": 133,
      "Ā!": 134,
      "ĠĞĞ": 135,
      "Āğ": 136,
      "ĠĞ\"": 137,
      "ĀĀğ": 138,
      "Ā\"": 139,
      "Ġ\"Ğ": 140,
      "Ġ#!": 141,
      "ĀĞ": 142,
      "Āĝ": 143,
      "ĀĀĞ": 144,
      "Ġĝğ": 145,
      "#ğ": 146,
      "Ġğĝ": 147,
      "Ġĝ!": 148,
      "ĀĀ!": 149,
      "Ġ)": 150,
      "Ġ#ğ": 151,
      "Ġ!ĝ": 152,
      "Ġė": 153,
      "#!": 154,
      "ĀĀĝ": 155,
      "ĀĀ\"": 156,
      "ĀĜ": 157,
      "Ġ!!ğ": 158,
      "Ā$": 159,
      "Ā#": 160,
      "Ġğğ!": 161,
      "ĠĠĠĠĠĠĠ": 162,
      "Ġ!#": 163,
      "Ġğ!!": 164,
      "Ġ!ğğ": 165,
      "ĠĞĝ": 166,
      "Ġ#\"": 167,
      "ĠĝĞ": 168,
      "Ġğ#": 169,
      "Ġ*": 170,
      "ĀĀĜ": 171,
      "Ġğ!ğ": 172,
      "ĀĀ#": 173,
      "Ġ!!!": 174,
      "Āě": 175,
      "ĠĖ": 176,
      "Ġğğğ": 177,
      "ĠĠĠĠĠĠĠĠĠĠĠ": 178,
      "Ā%": 179,
      "Ġĝ\"": 180,
      "Ġ#Ğ": 181,
      "Ġ!ğ!": 182,
      "Ġ\"ĝ": 183,
      "$ğ": 184,
      "Ĝ!": 185,
      "$!": 186,
      "ĀĀ$": 187,
      "ĀĀě": 188,
      "ĠĠĠĠĠĠĠĠĠĠĠĠ": 189,
      "Ā&": 190,
      "Ġ\"#": 191,
      "Ĝğ": 192,
      "ĀĚ": 193,
      "ĠĜğ": 194,
      "Ġ$ğ": 195,
      "ĝğ": 196,
      "Ġ$!": 197,
      "Ĝ\"": 198,
      "Ġ+": 199,
      "ĀĀ%": 200,
      "$Ğ": 201,
      "$\"": 202,
      "ĠĜ!": 203,
      "ĝ!": 204,
      "ĀĀĚ": 205,
      "#\"": 206,
      "Ğğ": 207,
      "Ġ$\"": 208,
      "Ġĕ": 209,
      "ĜĞ": 210,
      "Āę": 211,
      "ĠĠĠĠĠĠĠĠĠĠ": 212,
      "Ğ!": 213,
      "ĀĀ&": 214,
      "#Ğ": 215,
      "Ā'": 216,
      "ěğ": 217,
      "Ġ\"!ğ": 218,
      "$ĀĀ": 219,
      "ĝ\"": 220,
      "ĠĜ\"": 221,
      "#ĀĀ": 222,
      "ĝĞ": 223,
      "ĠĞğ!": 224,
      "Ğ\"": 225,
      "ğğ": 226,
      "Ġ!!Ğ": 227,
      "ĠĀĀ": 228,
      "%!": 229,
      "ě!": 230,
      "Ġğğ\"": 231,
      "%ĀĀ": 232,
      "ě\"": 233,
      "%ğ": 234,
      "Ġ!ğĞ": 235,
      "ĀĘ": 236,
      "Ġ!\"ğ": 237,
      "Ġ\"ğğ": 238,
      "!ğ": 239,
      "Ġğ!\"": 240,
      "ĠĞ#": 241,
      "!!": 242,
      "&ĀĀ": 243,
      "'ĀĀ": 244,
      "Ĝ#": 245,
      "ĠğĞ!": 246,
      "$#": 247,
      "Ĝĝ": 248,
      "Ġ,": 249,
      "\"\"": 250,
      "Ġğ\"!": 251,
      "%\"": 252,
      "ĠğĞğ": 253,
      "ĠĔ": 254,
      "ĠĞ!!": 255,
      "ĠĠĠĠĠĠĠĠĠĠĠĠĠĠĠĠ": 256,
      "\"ğ": 257,
      "Ġ!Ğğ": 258,
      "ĝ#": 259,
      "Ġ!\"!": 260,
      "ğ!": 261,
      "ĞĞ": 262,
      "$ĝ": 263,
      "%Ğ": 264,
      "\"!": 265,
      "##": 266,
      "Ā(": 267,
      "ğĞ": 268,
      "Ġ\"!!": 269,
      "Āė": 270,
      "Ěğ": 271,
      "ěĞ": 272,
      "ĝĝ": 273,
      "!Ğ": 274,
      "(ĀĀ": 275,
      "Ġ!Ğ!": 276,
      ")ĀĀ": 277,
      "ĠğğĞ": 278,
      "Ġ!!\"": 279,
      "Ġğ\"ğ": 280,
      "!\"": 281,
      "ĠĞ!ğ": 282,
      "\"Ğ": 283,
      "ĠğĜ": 284,
      "ĠĜĞ": 285,
      "ĠĞğğ": 286,
      "&!": 287,
      "Ġ##": 288,
      "Ě\"": 289,
      "Ġ!Ĝ": 290,
      "ěĝ": 291,
      "Ě!": 292,
      "Ġ\"\"ğ": 293,
      "Ġ\"ğ!": 294,
      "*ĀĀ": 295,
      "Ā)": 296,
      "ğ\"": 297,
      "Ġ-": 298,
      "Ġğ!Ğ": 299,
      "Ġ#ĝ": 300,
      "$$": 301,
      "Ġ!ğ\"": 302,
      "ĠĞğ\"": 303,
      "%#": 304,
      "Ġ\"!Ğ": 305,
      "ĠĞĞ!": 306,
      "Ġĝĝ": 307,
      "&ğ": 308,
      "Ğĝ": 309,
      "ě#": 310,
      "ğ#": 311,
      "!#": 312,
      "ĜĜ": 313,
      "ĀĀ'": 314,
      "%ĝ": 315,
      "ĠĀ": 316,
      "Ġĝ#": 317,
      "!ĝ": 318,
      "\"#": 319,
      "ĀĀę": 320,
      "ĠĞ!\"": 321,
      "ĠĠĠĠĠĠĠĠĠ": 322,
      "Ġ\"ğĞ": 323,
      "Ġ!$": 324,
      "ĀĀğĀ": 325,
      "%$": 326,
      "&\"": 327,
      "ĀĀĘ": 328,
      "ĀĀĞĀ": 329,
      "ĀĀ\"Ā": 330,
      "Ġ\"$": 331,
      "ĠĞ\"!": 332,
      "ęğ": 333,
      "ĀĀ(": 334,
      "ĚĞ": 335,
      "ĠĞĜ": 336,
      "\"ĝ": 337,
      "Ğ#": 338,
      "Ġ#!ğ": 339,
      "Ġĝğ!": 340,
      "ě$": 341,
      "ĠĠĠĠĠĠĠĠĠĠĠĠĠ": 342,
      "Ġğ$": 343,
      "Ġē": 344,
      "Ġ!\"Ğ": 345,
      "Ě#": 346,
      "Ġğ\"\"": 347,
      "Ĝ$": 348,
      "&Ğ": 349,
      "'!": 350,
      "Ěĝ": 351,
      "Ġ!ĞĞ": 352,
      "#ĝ": 353,
      "ĠğĞ\"": 354,
      "ĠĞĞğ": 355,
      "Ġ\"Ğğ": 356,
      "'ğ": 357,
      "Ġ$Ğ": 358,
      "ĀĀĝĀ": 359,
      "Ġ%ğ": 360,
      "Ġ.": 361,
      "#$": 362,
      "ĠĞ$": 363,
      "ěĜ": 364,
      "Ġ!!ĝ": 365,
      "ę!": 366,
      "ĀĀė": 367,
      "Ġĝ!!": 368,
      "Ġ#ğğ": 369,
      "ĀĀ!Ā": 370,
      "ĝĜ": 371,
      "\"$": 372,
      "ęĞ": 373,
      "ěě": 374,
      "ĝ$": 375,
      "Ġě!": 376,
      "ĠĞ\"ğ": 377,
      "ĀĀ)": 378,
      "Ġ\"\"!": 379,
      "Ġğğ#": 380,
      "'\"": 381,
      "Ġ!#ğ": 382,
      "Ġ!ğĝ": 383,
      "&#": 384,
      "Ġğĝ!": 385,
      "ę\"": 386,
      "Ġğ!#": 387,
      "Ġğ\"Ğ": 388,
      "Ġ!\"\"": 389,
      "&$": 390,
      "&ĝ": 391,
      "#Ĝ": 392,
      "Ġěğ": 393,
      "Ġ%!": 394,
      "ĚĜ": 395,
      "Ġ\"Ĝ": 396,
      "ĀĀĖ": 397,
      "ĠğĞĞ": 398,
      "Ġ\"Ğ!": 399,
      "ĠěĞ": 400,
      "Ġ#!!": 401,
      "Ġĝğğ": 402,
      "ĠĒ": 403,
      "%Ĝ": 404,
      "ĀĀ#Ā": 405,
      "ĠĜĝ": 406,
      "\"%": 407,
      "ę#": 408,
      "Ġ!Ğ\"": 409,
      "ĠĝĞ!": 410,
      "'Ğ": 411,
      "ĀĀĕ": 412,
      "Ġ\"!ĝ": 413,
      "ĠĞĞ\"": 414,
      "Ġ#!Ğ": 415,
      "Ġğĝğ": 416,
      "%%": 417,
      "\"Ĝ": 418,
      "ęĝ": 419,
      "ğĝ": 420,
      "Ġ#$": 421,
      "Ġ\"\"Ğ": 422,
      "ĠĞĝ!": 423,
      "ĀĀĜĀ": 424,
      "ğĜ": 425,
      "Ġ#\"ğ": 426,
      "!$": 427,
      "ĠĞ!Ğ": 428,
      "Ġ\"ĞĞ": 429,
      "Ġ!ĝ!": 430,
      "(!": 431,
      "ĘĞ": 432,
      "Ġğě": 433,
      "Ęĝ": 434,
      "Ġĝ$": 435,
      "Ġ$ĝ": 436,
      "ĠĞğĞ": 437,
      "Ġ\"!\"": 438,
      "'#": 439,
      "+ĀĀ": 440,
      "Ę!": 441,
      "Ęğ": 442,
      "Ġ/": 443,
      "Ġ\"#ğ": 444,
      "Ġ$#": 445,
      "ĠğĞ#": 446,
      "Ġ\"ğ\"": 447,
      "Ġĝğ\"": 448,
      "ĀĀěĀ": 449,
      "Ğ$": 450,
      "(ğ": 451,
      "Ġğğĝ": 452,
      "(\"": 453,
      "ĠĝĜ": 454,
      "ĀĀ+": 455,
      "Ġ%Ğ": 456,
      "&&": 457,
      "ğ$": 458,
      "Ġğ#ğ": 459,
      "ĠĞğ#": 460,
      "Ġĝ!ğ": 461,
      "ĠĀ!": 462,
      "Ġ#Ĝ": 463,
      "ĠĠĠĠĠĠĠĠĠĠĠĠĠĠĠ": 464,
      "Ġ!#Ğ": 465,
      "'$": 466,
      "Ę\"": 467,
      "Ġ#ğĞ": 468,
      "Ġ!ĝğ": 469,
      "!Ĝ": 470,
      "ęĜ": 471,
      "ě%": 472,
      "ĠĀĞ": 473,
      "Ġ!#!": 474,
      "ĀĀ*": 475,
      "ĠĞ\"\"": 476,
      "Ġ!%": 477,
      "ĠĞ!#": 478,
      "Ġ!!#": 479,
      "ĀĀğĀğ": 480,
      "Ġĝ!\"": 481,
      "$%": 482,
      "Ě%": 483,
      "ĠĠĠĠĠĠĠĠĠĠĠĠĠĠĠĠĠĠ": 484,
      "Ġğ\"#": 485,
      "Ġ#ğ!": 486,
      "ėĞ": 487,
      "Ğ%": 488,
      "ĠĀğ": 489,
      "Ġ!ğ#": 490,
      "Ġ\"ğĝ": 491,
      "ĀĀğĀĞ": 492,
      "ĞĜ": 493,
      "ĀĀ!Ā!": 494,
      "&Ĝ": 495,
      "Ġğ%": 496,
      "ĀĀ-": 497,
      "(#": 498,
      "ğ%": 499,
      "ĠĜ#": 500,
      "ĀĀğĀ!": 501,
      "!%": 502,
      "ęě": 503,
      "Ġğ!ĝ": 504,
      "Ġğ#!": 505,
      "Ġĝ\"!": 506,
      "ěĚ": 507,
      "ĠĀ\"": 508,
      "ĀĀğĀ\"": 509,
      "Ĝ%": 510,
      "Ġ\"#!": 511,
      "ĠĞ#!": 512,
      "Ġ$$": 513,
      "Ġě\"": 514,
      "ĀĀ%Ā": 515,
      "ė!": 516,
      "ĀĀĞĀ!": 517,
      "Ġğĝ\"": 518,
      "ĀĀ$Ā": 519,
      "&%": 520,
      "ĘĜ": 521,
      "Ě$": 522,
      "ĝ%": 523,
      "ĝě": 524,
      "Ġđ": 525,
      "Ġ!!Ĝ": 526,
      "#%": 527,
      "ę$": 528,
      "Ĝě": 529,
      "ğě": 530,
      "Ġ\"ě": 531,
      "ĀĀĔ": 532,
      "Ġ!\"ĝ": 533,
      "ĀĀ!Āğ": 534,
      ")ğ": 535,
      "ĀĀ.": 536,
      "Ġ!Ğĝ": 537,
      "Ġ\"\"ĝ": 538,
      "ĀĀĝĀ!": 539,
      "ĠĞĝğ": 540,
      "Ġğ#\"": 541,
      ")!": 542,
      "Ġ##ğ": 543,
      "ĀĀ!Ā\"": 544,
      "Ěě": 545,
      "Ġ\"%": 546,
      "ĀĀ,": 547,
      "ĀĀĞĀ\"": 548,
      "ĀĀĝĀğ": 549,
      "Ġ!#\"": 550,
      "Ġ#\"!": 551,
      "ĠĝĞğ": 552,
      "ĀĀĜĀ!": 553,
      "#ě": 554,
      "'&": 555,
      "(Ğ": 556,
      "Ġ!ě": 557,
      "Ġ#!ĝ": 558,
      "ĀĀĞĀğ": 559,
      "ĀĀğĀĝ": 560,
      "ĀĀğĀĜ": 561,
      "($": 562,
      "ĠĀĝ": 563,
      "Ġ!ğĜ": 564,
      "ĠĝĞ\"": 565,
      "Ġ\"#Ğ": 566,
      "(ĝ": 567,
      "ė\"": 568,
      "ĀĀ/": 569,
      "ĠĠĠĠĠĠĠĠĠĠĠĠĠĠĠĠĠĠĠĠ": 570,
      "ĠğĝĞ": 571,
      "ĀĀ&Ā": 572,
      "Ě&": 573,
      "Ġ%\"": 574,
      "Ġ\"\"\"": 575,
      "ĀĀĞĀĝ": 576,
      "Ġğ#Ğ": 577,
      "Ġ\"ĝğ": 578,
      "ĀĀĚĀ": 579,
      "!ě": 580,
      "$Ĝ": 581,
      "&ě": 582,
      "'ĝ": 583,
      ")\"": 584,
      "ėĝ": 585,
      "ę%": 586,
      "Ġ0": 587,
      "ĀĀĒ": 588,
      "ĠĞĞĞ": 589,
      "Ġ!ĝĞ": 590,
      "Ġ$ğğ": 591,
      "ėğ": 592,
      "ĀĀē": 593,
      "Ġěĝ": 594,
      "Ġ#ĞĞ": 595,
      "Ġ#Ğğ": 596,
      "ĠĜ!!": 597,
      "#&": 598,
      "ĠĞ%": 599,
      "ĀĀĝĀ\"": 600,
      "ĀĀĝĀĝ": 601,
      "(%": 602,
      "Ğě": 603,
      "\"&": 604,
      "Ę$": 605,
      "ĠĞě": 606,
      "ĠĠĠĠĠĠĠĠĠĠĠĠĠĠĠĠĠĠĠ": 607,
      "ĀĀ!ĀĞ": 608,
      "Ġ#\"Ğ": 609,
      "Ġ\"ĝ!": 610,
      "Ġ$!ğ": 611,
      "Ę#": 612,
      "Ġĝ#!": 613,
      "Ġĝĝğ": 614,
      "ĠĞ\"Ğ": 615,
      "ĠĜğ!": 616,
      "!&": 617,
      "Ġĝĝ!": 618,
      "ĠğĞĝ": 619,
      "ĀĀ\"Āğ": 620,
      "ĀĀ\"Āĝ": 621,
      "$&": 622,
      "ĠĜĜ": 623,
      "Ġğğ$": 624,
      "ĠĀě": 625,
      "Ġ$Ğğ": 626,
      "Ġ!\"#": 627,
      "Ġ!Ğ#": 628,
      "ĠĞĞ#": 629,
      "ĠĞ\"#": 630,
      "Ġ\"Ğ\"": 631,
      "Ġ!ĝ\"": 632,
      "Ġĝ\"ğ": 633,
      "ĠĜğ\"": 634,
      "'%": 635,
      "'Ĝ": 636,
      "Ġ#%": 637,
      "Ġ\"Ğĝ": 638,
      "ĀĀ!Āĝ": 639,
      "''": 640,
      "*!": 641,
      "Ğ&": 642,
      "ĠĞ!$": 643,
      "\"ě": 644,
      "ĀĖ": 645,
      "ėĜ": 646,
      "Ġğ!$": 647,
      "Ġ#!\"": 648,
      "ĀĀĞĀĞ": 649,
      "\"Ě": 650,
      "Ā,": 651,
      "ĖĞ": 652,
      "ĞĚ": 653,
      "ğĚ": 654,
      "ĠĞ#\"": 655,
      "ĀĀ!ĀĜ": 656,
      "ĠĞĝ\"": 657,
      "Ęě": 658,
      "ĜĚ": 659,
      "Ġ!$ğ": 660,
      "Ġğ$ğ": 661,
      "ĠĞ!ĝ": 662,
      "*\"": 663,
      "ĠĐ": 664,
      "ĠĞ#ğ": 665,
      "ĠĚğ": 666,
      "Ġ\"!Ĝ": 667,
      "Ġ$\"ğ": 668,
      "$ě": 669,
      "ĝ&": 670,
      "Ġĝě": 671,
      "Ġ%#": 672,
      "Ġğ\"ĝ": 673,
      "Ġ#Ğ!": 674,
      "Ā+": 675,
      "Ė!": 676,
      "ęĚ": 677,
      "Ġĝğ#": 678,
      "ĀĀ\"Ā!": 679,
      "Ġ#Ğĝ": 680,
      "Ġ$!!": 681,
      "Ġğ$!": 682,
      "ĀĀĞĀě": 683,
      "ĀĀ!Ā$": 684,
      "ĀĀ\"Ā\"": 685,
      "ĀĀ\"ĀĞ": 686,
      "Ġ\"ĝ\"": 687,
      "Ġ\"ĝĞ": 688,
      ",ĀĀ": 689,
      "Ā*": 690,
      "ğ'": 691,
      "ĠĀ$": 692,
      "Ġ\"$ğ": 693,
      "ĠĞğ$": 694,
      "Ġ\"ğ#": 695,
      "Ġ!#ĝ": 696,
      "Ġĝ\"\"": 697,
      "Ėě": 698,
      "ĠĜĞ!": 699,
      "Ġ&!": 700,
      "Ġ\"!#": 701,
      "ĀĀğĀě": 702,
      "ĀĀĞĀ#": 703,
      "('": 704,
      "Ėĝ": 705,
      "ę&": 706,
      "Ġĝ#\"": 707,
      "Ġ\"ğĜ": 708,
      "Ġ#ğĜ": 709,
      "Ġ!ĝĝ": 710,
      "ĀĀ\"ĀĜ": 711,
      "ĀĀ#Ā\"": 712,
      ")#": 713,
      "ĕĞ": 714,
      "Ġ!Ĝ!": 715,
      "ĀĀđ": 716,
      "Ġĝĝ\"": 717,
      "Ġ#ě": 718,
      "Ġ$Ĝ": 719,
      "ĠĞğĝ": 720,
      "ĀĀĝĀĜ": 721,
      "Ġ\"#ĝ": 722,
      "Ġ$ğĞ": 723,
      "ĠĜ!\"": 724,
      "#Ě": 725,
      "%&": 726,
      ")$": 727,
      "Ėğ": 728,
      "ĠğĜğ": 729,
      "Ġ##!": 730,
      "Ġ!!$": 731,
      "Ġ%ĝ": 732,
      "Ġ!ğ$": 733,
      "ĠĞ\"ĝ": 734,
      "ĠĝğĞ": 735,
      "Ġĝ!$": 736,
      "Ġ!ĝ#": 737,
      "Ġ$!Ğ": 738,
      "ĠĜ!ğ": 739,
      "\"'": 740,
      "ĠĀĜ": 741,
      "Ġ!Ě": 742,
      "Ġ!Ĝğ": 743,
      "ĠğĜ\"": 744,
      "ĀĀğĀ$": 745,
      "ĀĀĝĀĞ": 746,
      "Ġğ##": 747,
      "ĠĜ\"!": 748,
      "%ě": 749,
      ")Ğ": 750,
      "*#": 751,
      "Ġğ$Ğ": 752,
      "Ġ\"Ĝ!": 753,
      "Ġ#$!": 754,
      "ĠğğĜ": 755,
      "ĀĀ#Āĝ": 756,
      "ě&": 757,
      "Ğę": 758,
      "Ġ!&": 759,
      "ĠğĚ": 760,
      "Ġě#": 761,
      "ĀĀğĀ%": 762,
      "ĀĀĞĀ%": 763,
      "Ġĝ!Ğ": 764,
      "Ġĝ\"#": 765,
      "Ġ$\"!": 766,
      ")&": 767,
      "ėĚ": 768,
      "Ĝę": 769,
      "ğ&": 770,
      "ĠĀ#": 771,
      "Ġ!$!": 772,
      "ĠğĜ!": 773,
      "Ġĝ!#": 774,
      "Ġ#ğĝ": 775,
      "ĀĀĜĀĝ": 776,
      "ĠĜğğ": 777,
      "Ġ$\"Ğ": 778,
      "!Ě": 779,
      "*$": 780,
      "+!": 781,
      "ĕĝ": 782,
      "ęę": 783,
      "Ĝ&": 784,
      "Ġğ$\"": 785,
      "Ġ\"Ě": 786,
      "ĀĀğĀ#": 787,
      "Ġ\"Ğ#": 788,
      "Ġğĝ#": 789,
      "ĀĀ!Ā%": 790,
      "Ġ#ğ\"": 791,
      "ĀĀ#Ā!": 792,
      "Ġ\"ĝĝ": 793,
      "Ġ\"#\"": 794,
      "ĠĠĠĠĠĠĠĠĠĠĠĠĠĠĠĠĠĠĠĠĠĠĠĠĠĠĠĠĠĠĠĠ": 795,
      "ĕĜ": 796,
      "Ė\"": 797,
      "ĖĜ": 798,
      "ĝĚ": 799,
      "Ġ!'": 800,
      "Ġ\"$Ğ": 801,
      "ĠĞĜ!": 802,
      "ĠĞ$!": 803,
      "Ġĝ#ğ": 804,
      "Ġ#ĝ!": 805,
      "Ġ&ğ": 806,
      "Ġğ\"$": 807,
      "Ġ\"\"#": 808,
      "ĀĀğĀĚ": 809,
      "ĠĝĞĞ": 810,
      "ĀĀěĀ!": 811,
      "ĠĜ\"ğ": 812,
      "#(": 813,
      "(&": 814,
      ")%": 815,
      "ėě": 816,
      "ěę": 817,
      "ĠĞĜğ": 818,
      "ĠĜ$": 819,
      "Ġğ!Ĝ": 820,
      "ĠğĞ$": 821,
      "ĀĀ!Ā#": 822,
      "ĀĀ!Āě": 823,
      "ĀĀ\"Ā#": 824,
      "ĠĝĞ#": 825,
      "ĀĀĜĀĞ": 826,
      "ĀĀ#Āğ": 827,
      "ĀĀ#ĀĞ": 828,
      "ĀĀĚĀ!": 829,
      "ĠĜ\"\"": 830,
      "'ě": 831,
      ")ĝ": 832,
      "+\"": 833,
      "Ġğ&": 834,
      "ĠĞĜ\"": 835,
      "ĠĞ#Ğ": 836,
      "Ġĝ%": 837,
      "Ġ#ĝğ": 838,
      "Ġ##Ğ": 839,
      "Ġ$%": 840,
      "ĠĚ!": 841,
      "Ġ#!#": 842,
      "Ġ!##": 843,
      "ĠĞĝĞ": 844,
      "Ġ#\"\"": 845,
      "Ġ#\"ĝ": 846,
      "Ġ#Ğ\"": 847,
      "ĀĀěĀğ": 848,
      "Ġ$ğ!": 849,
      "(Ĝ": 850,
      "ė#": 851,
      "Ġ1": 852,
      "Ġ\"&": 853,
      "ĠĜĞğ": 854,
      "ĠĞĞĝ": 855,
      "ĀĀĞĀĜ": 856,
      "ĀĀĝĀ#": 857,
      "ĀĀĜĀğ": 858,
      "ĀĀ#Ā$": 859,
      "ĀĀ$Āĝ": 860,
      "ĠĜğ#": 861,
      "Ġ$!ĝ": 862,
      "ĀĀĚĀğ": 863,
      "!'": 864,
      "))": 865,
      "*Ğ": 866,
      "Ę&": 867,
      "ĘĚ": 868,
      "Ġ%!ğ": 869,
      "ĀĀĞĀ$": 870,
      "ĀĀĝĀ$": 871,
      "Ġğ#ĝ": 872,
      "ĀĀ$Ā\"": 873,
      "ĀĀ%Āğ": 874,
      "ĕ\"": 875,
      "Ğ'": 876,
      "Ġ!Ĝ\"": 877,
      "Ġ!$Ğ": 878,
      "Ġ!$\"": 879,
      "Ġ\"$!": 880,
      "Ġ$#ğ": 881,
      "Ġ$Ğ!": 882,
      "ĠĜĝğ": 883,
      "ĠĜĞ\"": 884,
      "Ġ!!ě": 885,
      "ĠĠĠĠĠĠĠĠĠĠĠĠĠĠ": 886,
      "Ġ\"ğě": 887,
      "Ġ#!Ĝ": 888,
      "Ġ!ĝĜ": 889,
      "ĀĀĝĀě": 890,
      "ĀĀĜĀ\"": 891,
      "ĀĀ$Ā!": 892,
      "ĀĀ$ĀĞ": 893,
      "ĀĀěĀ\"": 894,
      "Ġ##ĝ": 895,
      "'(": 896,
      "'Ā": 897,
      ")(": 898,
      "Ę%": 899,
      "ĠĞ$Ğ": 900,
      "ĀĀĐ": 901,
      "ĠĝĝĞ": 902,
      "Ġ#&": 903,
      "Ġ#$ğ": 904,
      "Ġ##\"": 905,
      "ĠěĜ": 906,
      "Ġ%$": 907,
      "Ġğ!%": 908,
      "Ġ&\"": 909,
      "Ġ\"!ě": 910,
      "Ġ\"ĞĜ": 911,
      "Ġğĝĝ": 912,
      "ĠĞĝ#": 913,
      "Ġĝ\"Ğ": 914,
      "ĔĜ": 915,
      "ĕğ": 916,
      "Ěę": 917,
      "ĝę": 918,
      "Ġ2": 919,
      "Ġ$ě": 920,
      "Ġ$#Ğ": 921,
      "Ġę!": 922,
      "ĀĀ\"Ā$": 923,
      "ĀĀ\"ĀĚ": 924,
      "ĀĀĜĀĜ": 925,
      "Ġĝ\"$": 926,
      "ĀĀěĀĜ": 927,
      "%'": 928,
      ")'": 929,
      "ĕ!": 930,
      "Ęę": 931,
      "ĠĀĚ": 932,
      "Ġ\"Ĝğ": 933,
      "ĀĀď": 934,
      "Ġ#ĝ\"": 935,
      "ĠĜĝ!": 936,
      "Ġěğğ": 937,
      "Ġ!\"Ĝ": 938,
      "Ġ!ĞĜ": 939,
      "ĀĀĜĀ#": 940,
      "ĀĀ$Āğ": 941,
      "ĀĀ%Ā\"": 942,
      "Ġ$\"ĝ": 943,
      "ĀĀ&Āĝ": 944,
      "ĠĞ##": 945,
      "ĀĀ(Ā": 946,
      "#'": 947,
      "%Ě": 948,
      "&(": 949,
      "*ğ": 950,
      "Ě'": 951,
      "ğę": 952,
      "Ġ\"ĜĞ": 953,
      "Ġ#ĝĞ": 954,
      "Ġ$$Ğ": 955,
      "Ġ!ğě": 956,
      "Ġ&$": 957,
      "ĀĀĞĀ&": 958,
      "ĀĀ!ĀĚ": 959,
      "ĀĀ#ĀĜ": 960,
      "+$": 961,
      "Ė#": 962,
      "ęĀĀ": 963,
      "ĚĚ": 964,
      "Ĝ'": 965,
      "Ġď": 966,
      "ĠĀę": 967,
      "Ġĝ$!": 968,
      "Ġ#$Ğ": 969,
      "Ġ$ĞĞ": 970,
      "ĠĜě": 971,
      "ĠěĞğ": 972,
      "ĠĚ\"": 973,
      "ĠğĞĜ": 974,
      "Ġ'!": 975,
      "Ġ!Ğ$": 976,
      "ĀĀ#Ā#": 977,
      "ĀĀ&Āğ": 978,
      "*%": 979,
      "*(": 980,
      "ĔĞ": 981,
      "ĖĚ": 982,
      "ėĘ": 983,
      "ĝĀĀ": 984,
      "ğĘ": 985,
      "ĠĀ&": 986,
      "Ġ!ěğ": 987,
      "ĠğĜĝ": 988,
      "Ġ$&": 989,
      "Ġě$": 990,
      "Ġě!!": 991,
      "Ġ\"ğ$": 992,
      "ĀĀğĀ'": 993,
      "Ġĝ!ĝ": 994,
      "Ġ#\"#": 995,
      "ĀĀĜĀ$": 996,
      "&'": 997,
      "+&": 998,
      "Āĕ": 999,
      "ě(": 1000,
      "ĝ'": 1001,
      "Ġ!%Ğ": 1002,
      "ĠğĜĞ": 1003,
      "ĠĝĜ!": 1004,
      "Ġ#Ĝğ": 1005,
      "Ġ$$ğ": 1006,
      "Ġě!ğ": 1007,
      "Ġ%\"ğ": 1008,
      "Ġ\"!$": 1009,
      "ĠęĞ": 1010,
      "Ġĝğĝ": 1011,
      "ĀĀ\"Ā%": 1012,
      "ĀĀěĀĞ": 1013,
      "Ġ$ğĝ": 1014,
      "$'": 1015,
      "+%": 1016,
      "+ğ": 1017,
      "Ā.": 1018,
      "Ė$": 1019,
      "ėę": 1020,
      "ĘĀĀ": 1021,
      "ĠĀ'": 1022,
      "Ġ!ě\"": 1023,
      "Ġ!$#": 1024,
      "Ġ!Ĝĝ": 1025,
      "Ġ\"Ĝ\"": 1026,
      "ĠĞĚ": 1027,
      "ĠĝĜğ": 1028,
      "ĠĜĜ!": 1029,
      "ĠĜĝ\"": 1030,
      "ĠĚĞ": 1031,
      "Ġ!\"ě": 1032,
      "Ġ'\"": 1033,
      "Ġ\"\"Ĝ": 1034,
      "Ġ#\"Ĝ": 1035,
      "ĀĀěĀ$": 1036,
      "ĀĀěĀ#": 1037,
      "ĠĜ!Ğ": 1038,
      "ĀĀ&Ā!": 1039,
      "ĠĜ\"#": 1040,
      "ĠĞ#ĝ": 1041,
      "\"(": 1042,
      "'ę": 1043,
      "*'": 1044,
      "Ġ$%ğ": 1045,
      "Ġğğě": 1046,
      "ĠĚĜ": 1047,
      "Ġ!\"$": 1048,
      "ĠĞĞ$": 1049,
      "Ġ#ğ#": 1050,
      "ĀĀ\"Āě": 1051,
      "ĠĜğĞ": 1052,
      "Ġ$!\"": 1053,
      "ĀĀ%ĀĞ": 1054,
      "ĀĀ%Āĝ": 1055,
      "$ĀĀę": 1056,
      "!(": 1057,
      "!ĀĀ": 1058,
      "%(": 1059,
      "(ě": 1060,
      "Ā#!": 1061,
      "ė$": 1062,
      "ėė": 1063,
      "ĝĘ": 1064,
      "ĞĀĀ": 1065,
      "Ġğ%!": 1066,
      "Ġğ$#": 1067,
      "Ġ\"$\"": 1068,
      "ĠĞ$ğ": 1069,
      "Ġ#ĝĝ": 1070,
      "Ġ$#!": 1071,
      "ĠĜĚ": 1072,
      "Ġğğ%": 1073,
      "Ġğ\"Ĝ": 1074,
      "ĀĀĞĀę": 1075,
      "ĀĀ!Āę": 1076,
      "Ġĝ\"ĝ": 1077,
      "ĀĀ$ĀĜ": 1078,
      "ĀĀ$Ā#": 1079,
      "Ġ$ğ\"": 1080,
      "ĀĀ%Ā!": 1081,
      "ĀĀĚĀĞ": 1082,
      "ĀĀęĀ": 1083,
      "$Ě": 1084,
      ")Ĝ": 1085,
      "-ĀĀ": 1086,
      "ĕ#": 1087,
      "Ėę": 1088,
      "ė%": 1089,
      "Ę'": 1090,
      "ĜĘ": 1091,
      "ĝ(": 1092,
      "ĠĎ": 1093,
      "Ġ!ĜĞ": 1094,
      "Ġ!$ĝ": 1095,
      "Ġ\"ę": 1096,
      "Ġĝ#Ğ": 1097,
      "Ġĝ##": 1098,
      "Ġ$ĝğ": 1099,
      "Ġěĝ!": 1100,
      "Ġěğ\"": 1101,
      "Ġęğ": 1102,
      "ĠĞ\"Ĝ": 1103,
      "ĀĀğĀę": 1104,
      "ĀĀğĀĘ": 1105,
      "Ġ!#Ĝ": 1106,
      "ĀĀĜĀ&": 1107,
      "Ġ#ĞĜ": 1108,
      "ĀĀ$Āě": 1109,
      "ĀĀ%Āě": 1110,
      "ĀĀĚĀĝ": 1111,
      "ĀĀĚĀ#": 1112,
      "\"ę": 1113,
      "\"ĀĀ": 1114,
      "*&": 1115,
      ".ĀĀ": 1116,
      "Ā#ğ": 1117,
      "ēĝ": 1118,
      "ĕě": 1119,
      "Ě(": 1120,
      "Ğ(": 1121,
      "ĠĀ%": 1122,
      "ĠğĜ#": 1123,
      "Ġ\"%Ğ": 1124,
      "ĠĞ$#": 1125,
      "ĠĜ#ğ": 1126,
      "ĠĜ#!": 1127,
      "Ġ%Ĝ": 1128,
      "Ġ%Ğğ": 1129,
      "Ġ&ĝ": 1130,
      "ĠĞğ%": 1131,
      "ĠĞğĜ": 1132,
      "ĀĀĝĀ&": 1133,
      "ĠĞĝĝ": 1134,
      "ĀĀĜĀě": 1135,
      "ĀĀěĀĝ": 1136,
      "Ġ\"#Ĝ": 1137,
      "ĀĀ%Ā#": 1138,
      "ĀĀ&Ā\"": 1139,
      "ĀĀ'Ā": 1140,
      "Ġ\"$Ĝ": 1141,
      "Ġ%ğĝ": 1142,
      "!ę": 1143,
      "$ę": 1144,
      ",#": 1145,
      "ĀĔ": 1146,
      "Ĕĝ": 1147,
      "ĕĚ": 1148,
      "ĚĀĀ": 1149,
      "Ġ!Ĝ#": 1150,
      "Ġğę": 1151,
      "ĠĞ$\"": 1152,
      "ĀĀĎ": 1153,
      "ĠĝĚ": 1154,
      "Ġ#ĜĞ": 1155,
      "Ġ#$ĝ": 1156,
      "Ġ$#ĝ": 1157,
      "Ġ%Ğ!": 1158,
      "Ġ%ğĞ": 1159,
      "Ġ&Ĝ": 1160,
      "Ġ&Ğ": 1161,
      "ĠĞ!%": 1162,
      "Ġ!Ğě": 1163,
      "ĠĞ\"$": 1164,
      "Ġ\"Ğě": 1165,
      "ĀĀĞĀĘ": 1166,
      "Ġĝğ$": 1167,
      "ĀĀ!Ā'": 1168,
      "Ġ\"ĝ#": 1169,
      "ĠĜğĝ": 1170,
      "ĀĀ%Ā$": 1171,
      "%ę": 1172,
      "+#": 1173,
      "ė&": 1174,
      "ėĀĀ": 1175,
      "ĚĘ": 1176,
      "ěĀĀ": 1177,
      "ĝ)": 1178,
      "ĞĘ": 1179,
      "Ġğ%ğ": 1180,
      "Ġğ%Ğ": 1181,
      "Ġ\"ě!": 1182,
      "Ġ\"%ğ": 1183,
      "ĠĞě!": 1184,
      "Ġ$$!": 1185,
      "Ġ$ĝ!": 1186,
      "ĠĜĜ\"": 1187,
      "Ġěě": 1188,
      "Ġě\"\"": 1189,
      "Ġ%#Ğ": 1190,
      "Ġ%!!": 1191,
      "Ġ%\"Ğ": 1192,
      "Ġ%!ĝ": 1193,
      "ĠĚ#": 1194,
      "ĠĞ!Ĝ": 1195,
      "ĀĀğĀ&": 1196,
      "ĀĀĝĀ%": 1197,
      "ĀĀ\"Āę": 1198,
      "Ġğ#$": 1199,
      "ĀĀ#Āě": 1200,
      "ĀĀ#Āę": 1201,
      "ĀĀ$Ā%": 1202,
      "ĀĀ$Ā&": 1203,
      "ĀĀ$ĀĚ": 1204,
      "ĀĀ%ĀĜ": 1205,
      "ĠĜ!#": 1206,
      "ĀĀ&ĀĞ": 1207,
      "ĠĠĠĠĠĠĠĠĠĠĠĠĠĠĠĠĠĠĠĠĠĠ": 1208,
      "Ġ#ĝĜ": 1209,
      "\"*": 1210,
      "\"Ę": 1211,
      "$(": 1212,
      "(Ě": 1213,
      "ē!": 1214,
      "Ĕě": 1215,
      "Ė%": 1216,
      "ĘĘ": 1217,
      "Ġğě!": 1218,
      "Ġ\"ěğ": 1219,
      "ĠĞě\"": 1220,
      "Ġĝĝĝ": 1221,
      "Ġ#Ĝ!": 1222,
      "Ġ$Ğĝ": 1223,
      "ĠĜ%": 1224,
      "ĠĜĝĞ": 1225,
      "Ġ!!%": 1226,
      "Ġěĝ\"": 1227,
      "Ġěğ!": 1228,
      "Ġ%ğğ": 1229,
      "Ġ%!Ğ": 1230,
      "ĠĞĞĜ": 1231,
      "ĀĀĞĀĚ": 1232,
      "Ġĝ!%": 1233,
      "ĀĀ#Ā&": 1234,
      "ĀĀ$Āę": 1235,
      "ĀĀěĀ%": 1236,
      "ĀĀĚĀ\"": 1237,
      "Ġ$\"\"": 1238,
      "ĀĀ&Ā#": 1239,
      "ĠĜĞ#": 1240,
      "ĠĠĠĠĠĠĠĠĠĠĠĠĠĠĠĠĠĠĠĠĠĠĠĠĠ": 1241,
      "')": 1242,
      "*+": 1243,
      "*ĝ": 1244,
      "Ā-": 1245,
      "Ēĝ": 1246,
      "ĘĖ": 1247,
      "Ġ!%ğ": 1248,
      "Ġğ$ĝ": 1249,
      "ĠĞ&": 1250,
      "ĠĞĜĞ": 1251,
      "ĠĞĚğ": 1252,
      "ĠĝĜĞ": 1253,
      "Ġ#'": 1254,
      "Ġ#ěğ": 1255,
      "Ġ#%!": 1256,
      "ĠĜĝ#": 1257,
      "Ġğğ&": 1258,
      "Ġě!\"": 1259,
      "Ġě!#": 1260,
      "ĠĚĝ": 1261,
      "Ġę#": 1262,
      "ĠĘ!": 1263,
      "ĀĀğĀė": 1264,
      "ĠğĝĜ": 1265,
      "ĀĀĝĀĚ": 1266,
      "ĀĀ\"ĀĘ": 1267,
      "Ġğ#Ĝ": 1268,
      "ĀĀ#ĀĘ": 1269,
      "ĠĠĠĠĠĠĠĠĠĠĠĠĠĠĠĠĠ": 1270,
      "ĀĀĚĀ%": 1271,
      "&ĀĀĘ": 1272,
      "+'": 1273,
      "Ĕ#": 1274,
      "ĕ$": 1275,
      "ęĖ": 1276,
      "ĜĖ": 1277,
      "Ĝė": 1278,
      "ğ(": 1279,
      "Ġğě\"": 1280,
      "Ġ\"'": 1281,
      "Ġ\"Ĝĝ": 1282,
      "Ġ\"$ĝ": 1283,
      "Ġĝ&": 1284,
      "Ġĝ$ğ": 1285,
      "ĠĝĜ\"": 1286,
      "Ġĝ$\"": 1287,
      "Ġĝě\"": 1288,
      "ĠĝĜ#": 1289,
      "ĠĜĞĞ": 1290,
      "Ġě#ğ": 1291,
      "ĠěĞ!": 1292,
      "Ġěĝ#": 1293,
      "Ġ%ğ!": 1294,
      "Ġğ!ě": 1295,
      "ĠĚĞğ": 1296,
      "ĠĚĞ!": 1297,
      "ĠğĞ%": 1298,
      "Ġ'Ğ": 1299,
      "Ġ\"\"$": 1300,
      "Ġğĝ$": 1301,
      "Ġĝ!Ĝ": 1302,
      "ĀĀ!ĀĘ": 1303,
      "ĀĀĝĀ'": 1304,
      "ĀĀĝĀĘ": 1305,
      "ĀĀĜĀ%": 1306,
      "ĀĀĜĀĚ": 1307,
      "ĀĀ%ĀĚ": 1308,
      "ĀĀĚĀ$": 1309,
      "ĀĀ&ĀĜ": 1310,
      "#ĀĀ)": 1311,
      "ĀĀęĀ!": 1312,
      "!ė": 1313,
      ",\"": 1314,
      "Ĕ!": 1315,
      "Ĕ\"": 1316,
      "ĕĘ": 1317,
      "ě'": 1318,
      "ĝĖ": 1319,
      "ĠĀĘ": 1320,
      "ĠĀ(": 1321,
      "Ġ!%\"": 1322,
      "Ġğ'": 1323,
      "Ġğ%\"": 1324,
      "ĠĞ'": 1325,
      "ĠĞěğ": 1326,
      "ĠĞ%ğ": 1327,
      "ĠĜ#\"": 1328,
      "ĠĜĝĝ": 1329,
      "ĠěĜ!": 1330,
      "ĠěĞ\"": 1331,
      "Ġě\"ğ": 1332,
      "Ġ%$ğ": 1333,
      "Ġ%Ĝ!": 1334,
      "Ġ%ĝğ": 1335,
      "Ġ%$Ğ": 1336,
      "Ġ%Ğĝ": 1337,
      "Ġ(\"": 1338,
      "ĠĞĞ%": 1339,
      "ĀĀğĀ(": 1340,
      "Ġ\"Ğ$": 1341,
      "Ġ#!ě": 1342,
      "ĀĀĞĀ'": 1343,
      "ĀĀĞĀė": 1344,
      "ĠĝğĜ": 1345,
      "ĀĀ!Ā&": 1346,
      "Ġ!ĝě": 1347,
      "ĀĀ\"Ā&": 1348,
      "ĀĀ\"Ā'": 1349,
      "Ġ!#$": 1350,
      "ĠĝĞĝ": 1351,
      "ĠĜğ$": 1352,
      "Ġ$\"#": 1353,
      "ĠĜ\"ĝ": 1354,
      "%ĀĀĘ": 1355,
      "ĠĞ#$": 1356,
      "ĠĜĞĝ": 1357,
      "ĀĀĘĀ": 1358,
      "\")": 1359,
      "#ĕ": 1360,
      ",!": 1361,
      ",ğ": 1362,
      "Ĕğ": 1363,
      "Ėė": 1364,
      "ėĖ": 1365,
      "Ęė": 1366,
      "ę'": 1367,
      "Ğ)": 1368,
      "Ġ!ę": 1369,
      "Ġ!ěĝ": 1370,
      "Ġ!$$": 1371,
      "Ġ!&ğ": 1372,
      "Ġ!%ĝ": 1373,
      "Ġğ%$": 1374,
      "ĠĞěĞ": 1375,
      "ĀĀ:": 1376,
      "Ġĝę": 1377,
      "Ġ#Ě!": 1378,
      "ĠěĜ\"": 1379,
      "Ġğ!&": 1380,
      "Ġ!ğĚ": 1381,
      "Ġ!\"%": 1382,
      "Ġ'#": 1383,
      "ĠĞ\"%": 1384,
      "ĀĀĞĀ(": 1385,
      "Ġ#ğě": 1386,
      "ĠĝĞĜ": 1387,
      "ĀĀĜĀ'": 1388,
      "ĀĀ#Ā%": 1389,
      "Ġ\"ĝ$": 1390,
      "ĀĀ$Ā$": 1391,
      "Ġ\"##": 1392,
      "Ġ$ğĜ": 1393,
      "ĀĀ%Ā&": 1394,
      "ĀĀĚĀ&": 1395,
      "ĀĀ&Ā$": 1396,
      "ĠĀĀ)": 1397,
      "ĠĀĀ*": 1398,
      "ĠĜĞ$": 1399,
      "Ġ!ĜĜ": 1400,
      "\"+": 1401,
      "&Ě": 1402,
      "),": 1403,
      "+Ĝ": 1404,
      ",$": 1405,
      ",(": 1406,
      "-\"": 1407,
      "Ę(": 1408,
      "Ğ*": 1409,
      "ğ+": 1410,
      "Ġ!%!": 1411,
      "Ġ!ě!": 1412,
      "Ġ\"(": 1413,
      "Ġ\"ěĞ": 1414,
      "Ġ\"ĜĜ": 1415,
      "ĠĞĜ#": 1416,
      "Ġĝ%ğ": 1417,
      "ĠĝĚğ": 1418,
      "Ġ#Ĝ\"": 1419,
      "Ġ#%Ğ": 1420,
      "Ġ$Ĝ!": 1421,
      "Ġ$%!": 1422,
      "ĠĜ$!": 1423,
      "ĠĜĜğ": 1424,
      "Ġě\"!": 1425,
      "Ġěğ#": 1426,
      "Ġě\"ĝ": 1427,
      "Ġ%#ğ": 1428,
      "Ġ%#!": 1429,
      "Ġ%ĞĞ": 1430,
      "Ġ%#ĝ": 1431,
      "Ġ&ğğ": 1432,
      "ĠĚĞ\"": 1433,
      "Ġęĝ": 1434,
      "Ġğ\"ě": 1435,
      "Ġ(!": 1436,
      "Ġ#!$": 1437,
      "ĀĀ!Āė": 1438,
      "ĀĀĝĀę": 1439,
      "ĀĀ#ĀĚ": 1440,
      "Ġ#Ğě": 1441,
      "Ġ\"ĝĜ": 1442,
      "ĀĀěĀě": 1443,
      "ĀĀěĀ&": 1444,
      "Ġ$ğ#": 1445,
      "Ġ$ğě": 1446,
      "Ġ$!Ĝ": 1447,
      "$ĀĀė": 1448,
      "ĠĜ\"Ğ": 1449,
      "#ĀĀę": 1450,
      "ĠĀĀ-": 1451,
      "%ĀĀę": 1452,
      "(ĀĀ(": 1453,
      "Ġĝĝ$": 1454,
      "ĀĀęĀğ": 1455,
      "Ġě!$": 1456,
      "#ę": 1457,
      "$)": 1458,
      ")*": 1459,
      "*ě": 1460,
      "+Ğ": 1461,
      "-%": 1462,
      "ĔĀĀ": 1463,
      "ĕ'": 1464,
      "ĕĀĀ": 1465,
      "ĖĘ": 1466,
      "ě)": 1467,
      "ěĘ": 1468,
      "Ğė": 1469,
      "Ġ4": 1470,
      "Ġ!Ě!": 1471,
      "Ġğěğ": 1472,
      "ĠğĚĞ": 1473,
      "Ġ\"%\"": 1474,
      "Ġ\"Ěğ": 1475,
      "ĠĞę": 1476,
      "ĠĞĜĝ": 1477,
      "ĠĝĜĝ": 1478,
      "Ġĝĝ#": 1479,
      "Ġ$$\"": 1480,
      "Ġ$ĝĞ": 1481,
      "Ġ$Ğ\"": 1482,
      "Ġ$#Ĝ": 1483,
      "ĠĜ#Ğ": 1484,
      "ĠĜĜ#": 1485,
      "Ġě%": 1486,
      "ĠěğĞ": 1487,
      "Ġě!Ğ": 1488,
      "Ġ%&": 1489,
      "ĠĚğ\"": 1490,
      "ĠĞ!ě": 1491,
      "Ġğ\"%": 1492,
      "Ġ\"\"ě": 1493,
      "Ġ!ĝ$": 1494,
      "ĠĞĝĜ": 1495,
      "ĀĀĜĀĘ": 1496,
      "Ġĝ\"Ĝ": 1497,
      "Ġ#Ğ#": 1498,
      "ĀĀ$ĀĘ": 1499,
      "ĀĀěĀĚ": 1500,
      "ĀĀěĀ'": 1501,
      "ĀĀ%ĀĘ": 1502,
      "ĠĜ!ĝ": 1503,
      "ĀĀĚĀě": 1504,
      "$ĀĀ)": 1505,
      "%ĀĀė": 1506,
      "&ĀĀ(": 1507,
      "ĠĠĠĠĠĠĠĠĠĠĠĠĠĠĠĠĠĠĠĠĠĠĠĠĠĠĠ": 1508,
      "ĠĠĠĠĠĠĠĠĠĠĠĠĠĠĠĠĠĠĠĠĠĠĠĠĠĠ": 1509,
      "ĀĀ'Āğ": 1510,
      "ĀĀ'Ā\"": 1511,
      "ĀĀĘĀğ": 1512,
      "ĀĀ#ĀĖ": 1513,
      "!)": 1514,
      "!+": 1515,
      "\"ė": 1516,
      "#)": 1517,
      "$Ę": 1518,
      "%Ę": 1519,
      "'+": 1520,
      "'Ě": 1521,
      "((": 1522,
      "()": 1523,
      "(ę": 1524,
      ")ě": 1525,
      "-Ğ": 1526,
      ".%": 1527,
      "ēĜ": 1528,
      "ēĞ": 1529,
      "ĖĀĀ": 1530,
      "ěė": 1531,
      "Ġ!ěĞ": 1532,
      "ĠğĚĝ": 1533,
      "ĠĞ%ĝ": 1534,
      "Ġ#Ě": 1535,
      "Ġ#ĀĀ": 1536,
      "Ġ#$\"": 1537,
      "Ġ#$#": 1538,
      "Ġ#%\"": 1539,
      "Ġ#ĝ#": 1540,
      "Ġ$Ě": 1541,
      "Ġ$Ĝ\"": 1542,
      "Ġ$#\"": 1543,
      "Ġ$ĜĞ": 1544,
      "Ġ$ĝ#": 1545,
      "Ġ$ĝĝ": 1546,
      "ĠĜ&": 1547,
      "ĠĜ$ğ": 1548,
      "ĠěĜğ": 1549,
      "Ġě#Ğ": 1550,
      "Ġě\"#": 1551,
      "Ġ%$!": 1552,
      "Ġ%\"\"": 1553,
      "Ġ!ğ%": 1554,
      "Ġ&#": 1555,
      "Ġ&%": 1556,
      "Ġ&#ğ": 1557,
      "Ġ&ĝğ": 1558,
      "Ġ&\"ğ": 1559,
      "Ġ&\"Ğ": 1560,
      "ĠĚ$": 1561,
      "ĠĚĝğ": 1562,
      "Ġ\"!Ě": 1563,
      "Ġ'ğ": 1564,
      "Ġ!Ğ%": 1565,
      "ĠĘğ": 1566,
      "Ġğĝě": 1567,
      "ĀĀĝĀ)": 1568,
      "ĀĀ\"Ā(": 1569,
      "Ġ!#ě": 1570,
      "ĠĞĝě": 1571,
      "ĠĜ!$": 1572,
      "ĀĀĚĀę": 1573,
      "ĠĜ\"$": 1574,
      "ĠĀĀ(": 1575,
      "ĠĀĀę": 1576,
      "'ĀĀę": 1577,
      ")ĀĀ)": 1578,
      ")ĀĀę": 1579,
      "ĠğĜě": 1580,
      "ĀĀ(Ā!": 1581,
      "Ġ%ğĜ": 1582,
      "ĠĞ$Ĝ": 1583,
      "Ġ$#ě": 1584,
      "$,": 1585,
      "$Ė": 1586,
      "*)": 1587,
      "**": 1588,
      "++": 1589,
      ",%": 1590,
      ".ğ": 1591,
      "Ē!": 1592,
      "ĕė": 1593,
      "Ė&": 1594,
      "Ė(": 1595,
      "Ęĕ": 1596,
      "Ěė": 1597,
      "Ĝ(": 1598,
      "ĜĀĀ": 1599,
      "ğė": 1600,
      "Ġ!Ě\"": 1601,
      "Ġğ$$": 1602,
      "Ġğě#": 1603,
      "Ġ\"$#": 1604,
      "Ġ\"&ğ": 1605,
      "Ġ\"%ĝ": 1606,
      "ĠĞ$ĝ": 1607,
      "Ġĝ$Ğ": 1608,
      "Ġĝ%!": 1609,
      "Ġ#ĜĜ": 1610,
      "Ġ$Ĝĝ": 1611,
      "Ġ$$ĝ": 1612,
      "Ġ$ĝĜ": 1613,
      "ĠĜěğ": 1614,
      "ĠĜ##": 1615,
      "ĠĜě#": 1616,
      "ĠěĝĞ": 1617,
      "Ġ%ě": 1618,
      "Ġ%ĝĞ": 1619,
      "Ġ%\"!": 1620,
      "Ġ&&": 1621,
      "Ġ&$ğ": 1622,
      "Ġ&Ğ!": 1623,
      "Ġ&ğ!": 1624,
      "Ġ&\"!": 1625,
      "Ġ&ğĞ": 1626,
      "Ġ&!Ğ": 1627,
      "ĠĚğğ": 1628,
      "ĠğĞě": 1629,
      "Ġ'ĝ": 1630,
      "Ġę\"": 1631,
      "Ġ(ğ": 1632,
      "ĠĘĞ": 1633,
      "ĀĀĞĀ)": 1634,
      "Ġ#ğĚ": 1635,
      "ĀĀĝĀė": 1636,
      "ĠĞĝ$": 1637,
      "ĠĝĞ$": 1638,
      "Ġğ#%": 1639,
      "Ġ$\"Ĝ": 1640,
      "ĀĀ&Ā%": 1641,
      "ĀĀ&Ā&": 1642,
      "#ĀĀ(": 1643,
      "#ĀĀ+": 1644,
      "ĠĀĀ+": 1645,
      "ĠĀĀĘ": 1646,
      "%ĀĀ*": 1647,
      "%ĀĀĖ": 1648,
      "&ĀĀė": 1649,
      "'ĀĀ*": 1650,
      "'ĀĀė": 1651,
      "ĠĜĞĜ": 1652,
      "Ġ##Ĝ": 1653,
      "*ĀĀ'": 1654,
      "*ĀĀĘ": 1655,
      "Ġ#ĝě": 1656,
      "Ġĝĝ%": 1657,
      "Ġ%ğě": 1658,
      "ĠĞ$%": 1659,
      "ĀĀėĀĞ": 1660,
      "ĀĀ)Ā": 1661,
      "ĀĀ)Āğ": 1662,
      "Ġ%!ě": 1663,
      "Ġ%!Ĝ": 1664,
      "#Ę": 1665,
      "&)": 1666,
      "*Ĝ": 1667,
      "+(": 1668,
      ",ĝ": 1669,
      "-*": 1670,
      "Ēğ": 1671,
      "ĔĚ": 1672,
      "Ė'": 1673,
      "ğ)": 1674,
      "Ġ3": 1675,
      "Ġ!ė": 1676,
      "Ġ!%#": 1677,
      "Ġ!ěĜ": 1678,
      "Ġ!&#": 1679,
      "ĠğěĞ": 1680,
      "Ġ\"ě\"": 1681,
      "Ġ\"%#": 1682,
      "ĠĞ%!": 1683,
      "ĠĞ%Ğ": 1684,
      "ĠĞ&!": 1685,
      "ĠĞĚ!": 1686,
      "Ġĝěğ": 1687,
      "Ġĝě!": 1688,
      "Ġĝ$#": 1689,
      "ĠĝĚ\"": 1690,
      "Ġ###": 1691,
      "Ġ$ěğ": 1692,
      "Ġ$ĝ\"": 1693,
      "Ġě$ğ": 1694,
      "ĠěĜ#": 1695,
      "ĠěĞ#": 1696,
      "Ġ%ĝ!": 1697,
      "Ġ&ě": 1698,
      "Ġ&Ğğ": 1699,
      "ĠĚ$ğ": 1700,
      "ĠĚ\"#": 1701,
      "Ġ'!ğ": 1702,
      "ĠĘĜ": 1703,
      "ĠĝĞ%": 1704,
      "ĀĀĜĀė": 1705,
      "ĀĀ#Ā'": 1706,
      "ĀĀ#Āė": 1707,
      "Ġ$!#": 1708,
      "ĀĀĚĀĜ": 1709,
      "ĀĀ&Āę": 1710,
      "$ĀĀ(": 1711,
      "$ĀĀĘ": 1712,
      "#ĀĀė": 1713,
      "&ĀĀ'": 1714,
      "&ĀĀ*": 1715,
      "'ĀĀ(": 1716,
      ")ĀĀ(": 1717,
      "ĀĀ'ĀĞ": 1718,
      "Ġĝ#$": 1719,
      "ĀĀęĀĞ": 1720,
      "ĀĀĘĀĜ": 1721,
      "ĀĀ(Ā#": 1722,
      "ĀĀėĀ": 1723,
      "ĀĀĖĀ!": 1724,
      "ĀĀ-Ā": 1725,
      "$ĕ": 1726,
      "*Ě": 1727,
      ",'": 1728,
      ".!": 1729,
      ".&": 1730,
      "/ĀĀ": 1731,
      "Ēě": 1732,
      "ĒĜ": 1733,
      "ē\"": 1734,
      "ēĘ": 1735,
      "ēĚ": 1736,
      "Ĕ%": 1737,
      "Ĕ&": 1738,
      "ėĕ": 1739,
      "ę(": 1740,
      "ęė": 1741,
      "ĞĖ": 1742,
      "ğĕ": 1743,
      "Ġ5": 1744,
      "ĠĀė": 1745,
      "Ġ!(": 1746,
      "ĠğĚ\"": 1747,
      "Ġğěĝ": 1748,
      "ĠğĚ#": 1749,
      "Ġ\"Ĝ#": 1750,
      "Ġ\"Ě!": 1751,
      "Ġ\"Ĝ$": 1752,
      "Ġ\"&Ğ": 1753,
      "ĠĞĚ\"": 1754,
      "ĠĞěĝ": 1755,
      "ĠĞě#": 1756,
      "ĠĞęğ": 1757,
      "ĠĞ'ğ": 1758,
      "Ġĝ(": 1759,
      "Ġĝě#": 1760,
      "Ġ#(": 1761,
      "Ġ#%ğ": 1762,
      "Ġ#Ĝĝ": 1763,
      "Ġ#&ğ": 1764,
      "Ġ$Ĝğ": 1765,
      "Ġ$##": 1766,
      "ĠĜ$Ğ": 1767,
      "ĠĜ$\"": 1768,
      "ĠĜĜĞ": 1769,
      "ĠĜ#Ĝ": 1770,
      "Ġ!!Ě": 1771,
      "Ġě#\"": 1772,
      "ĠěĞĞ": 1773,
      "Ġě\"Ğ": 1774,
      "Ġ%%": 1775,
      "Ġ%Ě": 1776,
      "Ġ%ĜĞ": 1777,
      "Ġ%\"ĝ": 1778,
      "Ġ&!ğ": 1779,
      "Ġ&!!": 1780,
      "Ġ&Ğĝ": 1781,
      "ĠĚě": 1782,
      "ĠĚĝ!": 1783,
      "Ġ'ğğ": 1784,
      "Ġ'ğĞ": 1785,
      "ĠęĜ": 1786,
      "ĠĘĝ": 1787,
      "Ġ\"Ğ%": 1788,
      "Ġ\"ĞĚ": 1789,
      "#ğ\"": 1790,
      "Ġ)ğ": 1791,
      "Ġ#\"$": 1792,
      "Ġ#\"%": 1793,
      "Ġ#\"ě": 1794,
      "ĀĀ#Ā(": 1795,
      "Ġĝ\"%": 1796,
      "ĀĀ$Ā'": 1797,
      "ĠĜğě": 1798,
      "Ġ$!$": 1799,
      "ĀĀ%Ā%": 1800,
      "Ġ$\"$": 1801,
      "$ĀĀĕ": 1802,
      "#ĀĀ,": 1803,
      "ĠĀĀ'": 1804,
      "ĠĞ#Ĝ": 1805,
      "ĠğĜ$": 1806,
      "Ġ!Ĝ$": 1807,
      "*ĀĀ(": 1808,
      "ĀĀ'Ā!": 1809,
      "Ġĝ#ĝ": 1810,
      "ĀĀĘĀ\"": 1811,
      "ĀĀ)Ā!": 1812,
      "ĀĀĕĀğ": 1813,
      "Ġ#$Ĝ": 1814,
      "Ġ%Ğě": 1815,
      "!*": 1816,
      "%)": 1817,
      "(,": 1818,
      ")-": 1819,
      "+ě": 1820,
      "+ĝ": 1821,
      "-!": 1822,
      "-$": 1823,
      "-'": 1824,
      "ē#": 1825,
      "ēğ": 1826,
      "Ĕė": 1827,
      "ĕ&": 1828,
      "Ě*": 1829,
      "ěĖ": 1830,
      "Ĝ+": 1831,
      "Ĝ.": 1832,
      "Ĝē": 1833,
      "ĜĔ": 1834,
      "ĝė": 1835,
      "Ġ!ĀĀ": 1836,
      "Ġ!&Ğ": 1837,
      "Ġ!'ğ": 1838,
      "Ġ!'Ğ": 1839,
      "Ġğ(": 1840,
      "ĠğĚğ": 1841,
      "ĠğĚ!": 1842,
      "Ġğ%#": 1843,
      "Ġğ%ĝ": 1844,
      "Ġğ&Ğ": 1845,
      "Ġğ'\"": 1846,
      "Ġ\"ĀĀ": 1847,
      "Ġ\"%!": 1848,
      "Ġ\"'!": 1849,
      "ĠĞ%\"": 1850,
      "ĠĞ$$": 1851,
      "ĠĞ&ğ": 1852,
      "Ġĝ'": 1853,
      "ĠĝěĞ": 1854,
      "Ġĝ&!": 1855,
      "Ġ#ę": 1856,
      "Ġ#ě\"": 1857,
      "Ġ#Ěğ": 1858,
      "Ġ#ěĞ": 1859,
      "Ġ#Ě\"": 1860,
      "Ġ#%ĝ": 1861,
      "Ġ$%\"": 1862,
      "Ġ$ěĞ": 1863,
      "Ġ$&!": 1864,
      "Ġ$&ğ": 1865,
      "ĠĜ$#": 1866,
      "ĠĜĜĝ": 1867,
      "ĠĜĚ!": 1868,
      "ĠĜĝ$": 1869,
      "Ġěĝğ": 1870,
      "ĠěĜĞ": 1871,
      "Ġěěğ": 1872,
      "Ġě#$": 1873,
      "Ġ%ĝ\"": 1874,
      "Ġ&#!": 1875,
      "Ġ&Ğ\"": 1876,
      "Ġ&ğě": 1877,
      "ĠĚ&": 1878,
      "ĠĚ!ğ": 1879,
      "ĠĚ!!": 1880,
      "ĠĚ!Ğ": 1881,
      "ĠĚ!\"": 1882,
      "ĠĚ\"Ğ": 1883,
      "Ġ\"!%": 1884,
      "ĠĞğ&": 1885,
      "ĠĞğě": 1886,
      "Ġ!\"Ě": 1887,
      "Ġ'\"!": 1888,
      "Ġ'!Ğ": 1889,
      "Ġę$": 1890,
      "Ġ(#": 1891,
      "Ġ(ĝ": 1892,
      "Ġ\"\"Ě": 1893,
      "Ġĝ!&": 1894,
      "ĀĀ!Ā(": 1895,
      "Ġ)\"": 1896,
      "ĠĞĝ%": 1897,
      "Ġğ#Ě": 1898,
      "ĀĀĜĀ)": 1899,
      "Ġ\"ĝě": 1900,
      "ĀĀěĀ)": 1901,
      "ĠĜğĜ": 1902,
      "ĠĜ!%": 1903,
      "ĀĀĚĀ'": 1904,
      "Ġ$\"ě": 1905,
      "ĀĀ&Āě": 1906,
      "$ĀĀ+": 1907,
      "ĠĀĀĔ": 1908,
      "ĠĀĀĕ": 1909,
      "ĠĀĀĖ": 1910,
      "%ĀĀ'": 1911,
      "%ĀĀ(": 1912,
      "%ĀĀĕ": 1913,
      "'ĀĀ'": 1914,
      "$ĝĀĀ": 1915,
      "(ĀĀĘ": 1916,
      "(ĀĀę": 1917,
      "ĠĜĞ%": 1918,
      "Ġ#ĝ$": 1919,
      "ĀĀ'Ā#": 1920,
      "ĠĀĖ": 1921,
      "ĀĀĞĀ*": 1922,
      "Ġ$ĞĜ": 1923,
      "ĀĀĝĀ*": 1924,
      "ĀĀ!Ā*": 1925,
      "Ġě!%": 1926,
      "ĀĀ)Ā\"": 1927,
      "ĠěĞ%": 1928,
      "\",": 1929,
      "#,": 1930,
      "#Ė": 1931,
      "%.": 1932,
      "&ę": 1933,
      ")ę": 1934,
      "*,": 1935,
      ",)": 1936,
      "-)": 1937,
      "ĀĒ": 1938,
      "Āē": 1939,
      "čĠ": 1940,
      "ĐĜ": 1941,
      "ē$": 1942,
      "ēĀĀ": 1943,
      "ĔĘ": 1944,
      "ĕę": 1945,
      "ė'": 1946,
      "Ě+": 1947,
      "Ĝ)": 1948,
      "ğ,": 1949,
      "ğĀĀ": 1950,
      "ĠĀ)": 1951,
      "ĠĀĀ\"Ā": 1952,
      "Ġ!Ěğ": 1953,
      "Ġ!&ĝ": 1954,
      "Ġğę!": 1955,
      "Ġğ&#": 1956,
      "Ġ\"ě#": 1957,
      "Ġ\"ěĜ": 1958,
      "Ġĝ%\"": 1959,
      "Ġĝ$ĝ": 1960,
      "ĠĝĜĜ": 1961,
      "Ġ#Ę": 1962,
      "Ġ$Ĝ#": 1963,
      "Ġ$Ěğ": 1964,
      "Ġ$ěĝ": 1965,
      "Ġ$ĜĜ": 1966,
      "Ġ$Ğ#": 1967,
      "Ġ$#$": 1968,
      "ĠĜ%ğ": 1969,
      "Ġ!!ę": 1970,
      "ĠěĚ": 1971,
      "Ġě#!": 1972,
      "Ġě&!": 1973,
      "Ġ%ĀĀ": 1974,
      "Ġ%ěğ": 1975,
      "Ġ%ě\"": 1976,
      "Ġ%%ğ": 1977,
      "Ġ%!\"": 1978,
      "Ġ%&!": 1979,
      "Ġ%'ğ": 1980,
      "Ġ%#Ĝ": 1981,
      "Ġ%\"Ĝ": 1982,
      "Ġ&$!": 1983,
      "Ġ&ĝ!": 1984,
      "Ġ&#Ğ": 1985,
      "Ġ&Ĝĝ": 1986,
      "Ġ&\"ĝ": 1987,
      "Ġ&ğĝ": 1988,
      "Ġ&!Ĝ": 1989,
      "ĠĚ%": 1990,
      "ĠĚĜğ": 1991,
      "ĠĚĞ#": 1992,
      "ĠĞğĚ": 1993,
      "Ġ'$": 1994,
      "Ġ'Ğğ": 1995,
      "Ġ\"ğ%": 1996,
      "Ġęğ!": 1997,
      "Ġę\"!": 1998,
      "Ġ((": 1999,
      "Ġ(!ĝ": 2000,
      "ĠĘ\"": 2001,
      "ĠĞ\"'": 2002,
      "ĠĞ\"ě": 2003,
      "ĀĀğĀ)": 2004,
      "Ġĝğ%": 2005,
      "Ġĝğě": 2006,
      "Ġ#ğ$": 2007,
      "Ġė\"": 2008,
      "#!ĀĀ": 2009,
      "ĀĀ\"Āė": 2010,
      "Ġ!#%": 2011,
      "Ġğ#&": 2012,
      "ĀĀ$Ā(": 2013,
      "Ġ\"#$": 2014,
      "ĀĀ%Āę": 2015,
      "ĀĀĚĀ(": 2016,
      "ĀĀ&Ā'": 2017,
      "$ĀĀ'": 2018,
      "$ĀĀ*": 2019,
      "$ĀĀē": 2020,
      "#ĀĀ*": 2021,
      "#ĀĀ'Ā": 2022,
      "ĠĀĀė": 2023,
      "&ĀĀ)": 2024,
      "&ĀĀę": 2025,
      "%\"ĀĀ": 2026,
      ")ĀĀ-": 2027,
      "ĠğĜĜ": 2028,
      "*ĀĀę": 2029,
      "Ġ#ĝ%": 2030,
      "ĀĀ'Āĝ": 2031,
      "ĀĀ'Āě": 2032,
      "ĀĀęĀě": 2033,
      "ĀĀĘĀĞ": 2034,
      "ĀĀĘĀ#": 2035,
      "ĀĀ(Ā\"": 2036,
      "Ġğ$Ĝ": 2037,
      "Ġě!ě": 2038,
      "Ġ\"Ĝě": 2039,
      "ĠěĞ$": 2040,
      "Ġğě%": 2041,
      "ĀĀ+Āğ": 2042,
      "ĀĀ*Ā\"": 2043,
      "!Ę": 2044,
      "*ę": 2045,
      "*'ĀĀ": 2046,
      "-#": 2047,
      "-&": 2048,
      "-(": 2049,
      "-,": 2050,
      "Ā/": 2051,
      "đĝ": 2052,
      "ĒĚ": 2053,
      "ĒĀ\"": 2054,
      "ĕ(": 2055,
      "ėĔ": 2056,
      "ĘĒ": 2057,
      "ę)": 2058,
      "Ě)": 2059,
      "ě,": 2060,
      "ěē": 2061,
      "ěĔ": 2062,
      "ěĕ": 2063,
      "Ĝĕ": 2064,
      "Ġ!Ě#": 2065,
      "Ġ!&$": 2066,
      "ĠğęĞ": 2067,
      "Ġ\"&!": 2068,
      "Ġ\"%$": 2069,
      "Ġ\"&\"": 2070,
      "Ġ\"ĚĞ": 2071,
      "ĠĞĘ": 2072,
      "ĠĞĜĜ": 2073,
      "ĀĀ<": 2074,
      "ĀĀĄ": 2075,
      "Ġĝ%Ğ": 2076,
      "Ġĝ&ğ": 2077,
      "Ġĝ&Ğ": 2078,
      "Ġ#ě!": 2079,
      "Ġ#Ĝ#": 2080,
      "Ġ$ę": 2081,
      "Ġ$$#": 2082,
      "Ġ$%Ğ": 2083,
      "Ġ$Ĝ$": 2084,
      "ĠĜę": 2085,
      "ĠĜ%!": 2086,
      "ĠĜě!": 2087,
      "ĠĜě\"": 2088,
      "ĠĜ%\"": 2089,
      "ĠĜ%Ğ": 2090,
      "ĠĜ%#": 2091,
      "ĠĜĝĜ": 2092,
      "Ġě&": 2093,
      "Ġě$!": 2094,
      "Ġě##": 2095,
      "Ġě\"$": 2096,
      "Ġ%(": 2097,
      "Ġ%)": 2098,
      "Ġ%Ĝğ": 2099,
      "Ġ%#\"": 2100,
      "Ġ%Ğ\"": 2101,
      "Ġ%ĝĝ": 2102,
      "Ġ%ğ\"": 2103,
      "Ġ%!#": 2104,
      "Ġ%&Ğ": 2105,
      "Ġğ!Ě": 2106,
      "Ġ!ğ&": 2107,
      "Ġ!ğę": 2108,
      "Ġ&ę": 2109,
      "Ġ&ĀĀ": 2110,
      "Ġ&Ĝğ": 2111,
      "ĠĚĜ!": 2112,
      "ĠĚ!#": 2113,
      "Ġ'Ĝ": 2114,
      "Ġ'#Ğ": 2115,
      "Ġęě": 2116,
      "ĠęĜ\"": 2117,
      "Ġęğğ": 2118,
      "Ġę!\"": 2119,
      "Ġ(Ğ": 2120,
      "ĠĘ$": 2121,
      "ĠĞĞě": 2122,
      "ĠĞ\"&": 2123,
      "Ġğĝ%": 2124,
      "Ġĝ!ě": 2125,
      "ĀĀ\"Ā)": 2126,
      "Ġ#\"Ě": 2127,
      "Ġğ#ě": 2128,
      "ĀĀĜĀę": 2129,
      "ĀĀĜĀ(": 2130,
      "Ġĝ\"ě": 2131,
      "Ġ$ğ$": 2132,
      "ĀĀĚĀĚ": 2133,
      "ĀĀĚĀė": 2134,
      "ĀĀĚĀ)": 2135,
      "ĀĀ&ĀĚ": 2136,
      "ĀĀ&ĀĘ": 2137,
      "$ĀĀ/": 2138,
      "$ĀĀĖ": 2139,
      "#ĀĀĘ": 2140,
      "ĠĀĀē": 2141,
      "%ĀĀ+": 2142,
      "%ĀĀĔ": 2143,
      "&ĀĀ,": 2144,
      "&ĀĀ-": 2145,
      "ĠĠĠĠĠĠĠĠĠĠĠĠĠĠĠĠĠĠĠĠĠ": 2146,
      "(ĀĀ)": 2147,
      ")ĀĀ'": 2148,
      ")ĀĀ+": 2149,
      ")ĀĀĘ": 2150,
      "ĠğĜ%": 2151,
      "Ġ##$": 2152,
      "Ġ##ě": 2153,
      "Ġ!Ĝ%": 2154,
      "Ġ!Ĝě": 2155,
      "*ĀĀ+": 2156,
      "ĠĝĝĜ": 2157,
      "ĀĀ'ĀĜ": 2158,
      "ĀĀ'Ā%": 2159,
      "ĀĀğĀ*": 2160,
      "ĀĀĘĀĝ": 2161,
      "ĀĀĞĀ#ğ": 2162,
      "ĀĀėĀ!": 2163,
      "ĀĀėĀ\"": 2164,
      "ĀĀ)ĀĜ": 2165,
      "ĀĀĖĀ\"": 2166,
      "ĠĝĜ%": 2167,
      "ĀĀ*Ā": 2168,
      "ĀĀ*Āğ": 2169,
      "ĀĀĔĀĞ": 2170,
      "ĀĀ.Ā": 2171,
      "ĀĀ/Ā$": 2172,
      "!,": 2173,
      "!\"\"": 2174,
      "\"ĕ": 2175,
      "\"Ė": 2176,
      "\"ĝ!": 2177,
      "#*": 2178,
      "#+": 2179,
      "#/": 2180,
      "%ĀĀĞĀ!": 2181,
      "&ĀĀğĀ": 2182,
      "'Ę": 2183,
      "(ĕ": 2184,
      "(Ę": 2185,
      "(ĀĀğĀĞ": 2186,
      ",Ā": 2187,
      ".)": 2188,
      ".Ā": 2189,
      "/Ğ": 2190,
      "ďĀ!": 2191,
      "ĒĀĀ": 2192,
      "ĒĀ!": 2193,
      "ēę": 2194,
      "Ĕ(": 2195,
      "Ĕĕ": 2196,
      "Ė)": 2197,
      "Ėĕ": 2198,
      "ĖĖ": 2199,
      "ĘĔ": 2200,
      "ĚĖ": 2201,
      "Ğ,": 2202,
      "ğē": 2203,
      "ğĝğ": 2204,
      "ĠĀĀĝĀ": 2205,
      "Ġ!)": 2206,
      "Ġ!Ę": 2207,
      "Ġ!&!": 2208,
      "Ġ!ě$": 2209,
      "Ġ!'!": 2210,
      "Ġ!%Ĝ": 2211,
      "Ġ!(\"": 2212,
      "Ġğė": 2213,
      "Ġğ&!": 2214,
      "Ġğ'ğ": 2215,
      "Ġ\"ė": 2216,
      "Ġ\"Ě\"": 2217,
      "Ġ\"ęğ": 2218,
      "Ġ\"ě$": 2219,
      "ĠĞ(": 2220,
      "ĠĞ)": 2221,
      "ĠĞĚĞ": 2222,
      "ĠĞěĜ": 2223,
      "ĀĀ;": 2224,
      "ĀĀ=": 2225,
      "Ġĝė": 2226,
      "Ġĝěĝ": 2227,
      "ĠĝĚĞ": 2228,
      "ĠĝĚĝ": 2229,
      "Ġĝę!": 2230,
      "Ġ#&\"": 2231,
      "Ġ#&Ğ": 2232,
      "Ġ$ĀĀ": 2233,
      "Ġ$ě!": 2234,
      "Ġ$'ğ": 2235,
      "ĠĜěĞ": 2236,
      "ĠĜěĝ": 2237,
      "Ġ!!&": 2238,
      "Ġě$$": 2239,
      "ĠěĞĝ": 2240,
      "Ġěě#": 2241,
      "Ġ%$\"": 2242,
      "Ġ%%!": 2243,
      "Ġ%ğ#": 2244,
      "Ġ%&\"": 2245,
      "Ġ%\"$": 2246,
      "Ġ%#ě": 2247,
      "Ġ&$Ğ": 2248,
      "Ġ&$\"": 2249,
      "Ġ&%ğ": 2250,
      "Ġ&ĞĞ": 2251,
      "Ġ&!\"": 2252,
      "ĠĚĘ": 2253,
      "ĠĚğ!": 2254,
      "ĠĚ##": 2255,
      "ĠĚĚ!": 2256,
      "ĠĚğ#": 2257,
      "ĠğĞĚ": 2258,
      "Ġ''": 2259,
      "Ġ\"ğ&": 2260,
      "Ġ\"ğę": 2261,
      "ĠęĜ!": 2262,
      "ĠęĞ\"": 2263,
      "Ġğ\"&": 2264,
      "Ġğ\"Ě": 2265,
      "Ġ!Ğ&": 2266,
      "ĠĘ#": 2267,
      "ĠĘĚ": 2268,
      "ĠĞĞĚ": 2269,
      "Ġ#!Ě": 2270,
      "Ġ)$": 2271,
      "Ġ!ĝ%": 2272,
      "ĠėĜ": 2273,
      "#!ğ": 2274,
      "ĀĀĝĀ(": 2275,
      "ĀĀ#Ā)": 2276,
      "Ġ#Ğ$": 2277,
      "Ġ\"ĝ%": 2278,
      "ĀĀěĀę": 2279,
      "ĠĜğ%": 2280,
      "ĠĜ!&": 2281,
      "#\"$": 2282,
      "#ĀĀĐ": 2283,
      "#ĀĀē": 2284,
      "ĠĞ#&": 2285,
      "&ĀĀē": 2286,
      "'ĀĀĕ": 2287,
      "'ĀĀĘ": 2288,
      "(ĀĀĖ": 2289,
      ")ĀĀĖ": 2290,
      "*ĀĀ)": 2291,
      "Ġĝĝě": 2292,
      "ĀĀęĀĝ": 2293,
      "ĀĀęĀ#": 2294,
      "ĀĀęĀ%": 2295,
      "Ġ!$Ĝ": 2296,
      "ĀĀĘĀě": 2297,
      "ĀĀĘĀ%": 2298,
      "ĀĀĘĀĚ": 2299,
      "ęğĀĀ": 2300,
      "ĀĀ(ĀĞ": 2301,
      "ĀĀ(Ā'": 2302,
      "Ġ$Ğ$": 2303,
      "Ġ$ĞĚ": 2304,
      "ĀĀėĀğ": 2305,
      "ĀĀėĀ$": 2306,
      "ĀĀ)ĀĞ": 2307,
      "ĀĀ)Āĝ": 2308,
      "ĀĀ)Ā%": 2309,
      "Ġěğ$": 2310,
      "ĀĀĖĀĝ": 2311,
      "ĀĀĕĀ!": 2312,
      "ĀĀĕĀ\"": 2313,
      "ĀĀ+Āĝ": 2314,
      "Ġğ%ě": 2315,
      "ĀĀĔĀ": 2316,
      "ĀĀ.Āğ": 2317,
      "ĀĀ.Āĝ": 2318,
      "Ġ\"%ě": 2319,
      "ĀĀ,Āĝ": 2320,
      "!-": 2321,
      "!ĕ": 2322,
      "!Ĝ$": 2323,
      "#ē": 2324,
      "#ĀĀğĀ": 2325,
      "%+": 2326,
      "%ė": 2327,
      "%ĀĀĜĀ!": 2328,
      "&ĀĀğĀ!": 2329,
      "'*": 2330,
      "'Ė": 2331,
      "'ė": 2332,
      "(ĀĀĜĀ!": 2333,
      "*-": 2334,
      "+)": 2335,
      "+,": 2336,
      "+.": 2337,
      "+/": 2338,
      ",&": 2339,
      "-ĝ": 2340,
      ".$": 2341,
      ".ĝ": 2342,
      "/!": 2343,
      "đ!": 2344,
      "đ\"": 2345,
      "đĜ": 2346,
      "đĞ": 2347,
      "Ē\"": 2348,
      "ēě": 2349,
      "Ĕ$": 2350,
      "Ĕę": 2351,
      "ė*": 2352,
      "Ę)": 2353,
      "ę*": 2354,
      "ęĕ": 2355,
      "Ĝ,": 2356,
      "ĝ,": 2357,
      "Ğ-": 2358,
      "ĞĔ": 2359,
      "Ğĕ": 2360,
      "ğĖ": 2361,
      "ğĜ\"": 2362,
      "ĠĀĀĞĀ": 2363,
      "Ġ!ę!": 2364,
      "Ġ!ę#": 2365,
      "Ġ!(ğ": 2366,
      "Ġ!ė!": 2367,
      "Ġğ&ğ": 2368,
      "Ġğ&\"": 2369,
      "Ġğęğ": 2370,
      "Ġğě$": 2371,
      "ĠğěĜ": 2372,
      "Ġğ'#": 2373,
      "Ġ\"Ę": 2374,
      "Ġ\"'Ğ": 2375,
      "ĠĞ%#": 2376,
      "ĠĞě$": 2377,
      "ĠĞĚ#": 2378,
      "ĠĞ'!": 2379,
      "ĠĞěě": 2380,
      "ĠĞ'Ğ": 2381,
      "ĠĞěĚ": 2382,
      "ĀĀć": 2383,
      "ĠĝĘ": 2384,
      "Ġĝ%#": 2385,
      "Ġĝ%ĝ": 2386,
      "Ġĝě$": 2387,
      "ĠĝĘĞ": 2388,
      "Ġĝě%": 2389,
      "Ġ#)": 2390,
      "Ġ#ěĝ": 2391,
      "Ġ#$$": 2392,
      "Ġ#ě#": 2393,
      "Ġ#ĚĞ": 2394,
      "Ġ#%Ĝ": 2395,
      "Ġ$Ě!": 2396,
      "Ġ$%ĝ": 2397,
      "Ġ$ĚĞ": 2398,
      "Ġ$Ĝě": 2399,
      "ĠĜĚ\"": 2400,
      "Ġ!!'": 2401,
      "ĠğğĚ": 2402,
      "Ġě(": 2403,
      "Ġě$\"": 2404,
      "Ġě%!": 2405,
      "ĠěĚ\"": 2406,
      "Ġě!ĝ": 2407,
      "Ġě&Ğ": 2408,
      "Ġ%ę": 2409,
      "Ġ%ĝ#": 2410,
      "Ġ%ěĞ": 2411,
      "Ġ%ĜĜ": 2412,
      "Ġ%'!": 2413,
      "Ġ%ĝĜ": 2414,
      "Ġ%ĝ$": 2415,
      "Ġ%%Ĝ": 2416,
      "Ġ%$Ĝ": 2417,
      "Ġ&Ě": 2418,
      "Ġ&ĝ#": 2419,
      "ĠĚ#ğ": 2420,
      "ĠĚĜĞ": 2421,
      "ĠĚĝ\"": 2422,
      "ĠĚĝĞ": 2423,
      "ĠĚ%!": 2424,
      "ĠĚě!": 2425,
      "ĠĚĜ#": 2426,
      "ĠĚğĞ": 2427,
      "ĠĚ&!": 2428,
      "ĠĚ#Ĝ": 2429,
      "ĠĚ\"%": 2430,
      "ĠĚğĝ": 2431,
      "ĠĚğĜ": 2432,
      "ĠĚğ$": 2433,
      "ĠĚ%&": 2434,
      "ĠğĞ&": 2435,
      "Ġ'ě": 2436,
      "Ġ'#ğ": 2437,
      "Ġ'ěğ": 2438,
      "Ġ'%ğ": 2439,
      "Ġ'!!": 2440,
      "Ġ'\"ğ": 2441,
      "Ġ'ğ!": 2442,
      "Ġ'\"Ğ": 2443,
      "Ġ'\"ĝ": 2444,
      "Ġę&": 2445,
      "Ġęĝğ": 2446,
      "Ġę!!": 2447,
      "Ġ!ĞĚ": 2448,
      "Ġ(Ĝ": 2449,
      "Ġ(#!": 2450,
      "ĠĘě": 2451,
      "ĠĘğ!": 2452,
      "Ġ\"\"%": 2453,
      "Ġĝğ&": 2454,
      "#ğğ": 2455,
      "#ğĀĀ": 2456,
      "ĠğĝĚ": 2457,
      "Ġĝ!Ě": 2458,
      "Ġ)!": 2459,
      "Ġ)ĝ": 2460,
      "Ġ!ĝ&": 2461,
      "Ġ!ĝĚ": 2462,
      "ĠėĞ": 2463,
      "#!\"": 2464,
      "Ġ!#ę": 2465,
      "ĠĝĞě": 2466,
      "ĠĖĝ": 2467,
      "ĀĀěĀĘ": 2468,
      "ĀĀěĀ(": 2469,
      "Ġ\"#Ě": 2470,
      "ĠĜğ&": 2471,
      "Ġ$!ě": 2472,
      "ĀĀ%Ā(": 2473,
      "ĀĀ%Āė": 2474,
      "#\"ĀĀ": 2475,
      "Ġ$\"Ě": 2476,
      "#ĞĀĀ": 2477,
      "$ĀĀĒ": 2478,
      "#ĀĀ'": 2479,
      "ĝĞĀĀ": 2480,
      "ĠĞ#%": 2481,
      "!!ĀĀ": 2482,
      "&ĀĀĕ": 2483,
      "'ĀĀ+": 2484,
      "'ĀĀ-": 2485,
      "'ĀĀĔ": 2486,
      "'ĀĀĖ": 2487,
      "ĠĠĠĠĠĠĠĠĠĠĠĠĠĠĠĠĠĠĠĠĠĠĠĠĠĠĠĠĠĠĠĠĠĠĠĠ": 2488,
      "ĠğĜ&": 2489,
      "*ĀĀ*": 2490,
      "*ĀĀĕ": 2491,
      "*ĀĀė": 2492,
      "ĀĀ'Ā$": 2493,
      "ĠĀ,": 2494,
      "Ġĝ#%": 2495,
      "Ġĝ#Ĝ": 2496,
      "Ġ!$%": 2497,
      "ĀĀĘĀ$": 2498,
      "ĀĀ\"ĀĔ": 2499,
      "Ġ\"$%": 2500,
      "ĀĀ(ĀĜ": 2501,
      "ĀĀ(Ā$": 2502,
      "ĀĀ(Ā%": 2503,
      "ĠĞĜ$": 2504,
      "Ġ$Ğě": 2505,
      "ĀĀėĀĜ": 2506,
      "ĀĀėĀě": 2507,
      "ĀĀ)Ā#": 2508,
      "ĀĀĖĀ": 2509,
      "ĀĀĖĀĞ": 2510,
      "ĀĀĖĀ$": 2511,
      "ĀĀĕĀĝ": 2512,
      "ĀĀěĀ*": 2513,
      "ĀĀ+Ā": 2514,
      "ĀĀ+Ā!": 2515,
      "ĀĀ*Ā!": 2516,
      "Ġě\"ě": 2517,
      "ĀĀ,Ā!": 2518,
      "ĀĀ,Ā\"": 2519,
      "ĀĀ/Ā!": 2520,
      "ĀĀēĀ$": 2521,
      "!Ē": 2522,
      "!Ė": 2523,
      "!Ğ\"": 2524,
      "!ĞĞ": 2525,
      "!&ğ": 2526,
      "\"#\"": 2527,
      "#ė": 2528,
      "$ė": 2529,
      "%-": 2530,
      "%Ė": 2531,
      "%$\"": 2532,
      "&+": 2533,
      "&Ę": 2534,
      "'ĕ": 2535,
      "'ĀĀ\"Ā": 2536,
      "(ĀĀĜĀ": 2537,
      "(ĀĀ!ĀĞ": 2538,
      ")ĀĀĚĀ!": 2539,
      "*Ę": 2540,
      "*ĀĀĝĀ": 2541,
      "+*": 2542,
      "+ĀĀğĀ": 2543,
      ",Ě": 2544,
      "-ğ": 2545,
      ".\"": 2546,
      ".*ĀĀ": 2547,
      "/#": 2548,
      "/)": 2549,
      "/ĀĞ": 2550,
      "/Ā$": 2551,
      "Āđ": 2552,
      "Đę": 2553,
      "đĚ": 2554,
      "đě": 2555,
      "đĀě": 2556,
      "Ē$": 2557,
      "Ēę": 2558,
      "ĕ%": 2559,
      "ėē": 2560,
      "ęď": 2561,
      "ęĔ": 2562,
      "ĚĔ": 2563,
      "ěđ": 2564,
      "ĝĐ": 2565,
      "Ğđ": 2566,
      "ĞĞ\"": 2567,
      "ğ*": 2568,
      "Ġ6": 2569,
      "ĠĀĀğĀ": 2570,
      "ĠĀĀ!Ā": 2571,
      "ĠĀĀĝĀ\"": 2572,
      "ĠĀĀ$Ā!": 2573,
      "Ġ!ęğ": 2574,
      "Ġ!ĚĞ": 2575,
      "Ġ!ěě": 2576,
      "Ġ!'#": 2577,
      "ĠğĘ": 2578,
      "Ġğ&$": 2579,
      "Ġğ%Ĝ": 2580,
      "Ġğ'Ğ": 2581,
      "Ġğ%%": 2582,
      "ĠğĘğ": 2583,
      "Ġ\"+": 2584,
      "Ġ\"ěĝ": 2585,
      "Ġ\"$$": 2586,
      "Ġ\"Ěĝ": 2587,
      "Ġ\"'\"": 2588,
      "Ġ\"%Ĝ": 2589,
      "Ġ\"ėĞ": 2590,
      "Ġ\"'Ĝ": 2591,
      "ĠĞ*": 2592,
      "ĠĞ%$": 2593,
      "ĠĞ&\"": 2594,
      "ĠĞĚĝ": 2595,
      "ĠĞę!": 2596,
      "ĀĀ>": 2597,
      "ĀĀĆ": 2598,
      "Ġĝ$$": 2599,
      "Ġĝ&\"": 2600,
      "Ġĝęğ": 2601,
      "ĠĝĚ#": 2602,
      "ĠĝĜ$": 2603,
      "Ġĝěě": 2604,
      "Ġĝ'\"": 2605,
      "Ġ#ė": 2606,
      "Ġ#&!": 2607,
      "Ġ#ě$": 2608,
      "Ġ$'": 2609,
      "Ġ$(": 2610,
      "Ġ$%#": 2611,
      "Ġ$&\"": 2612,
      "Ġ$'!": 2613,
      "Ġ$ěĜ": 2614,
      "Ġ$ę!": 2615,
      "Ġ$ĝ$": 2616,
      "Ġ$Ĝ%": 2617,
      "ĠĜĀĀ": 2618,
      "ĠĜ$$": 2619,
      "ĠĜęğ": 2620,
      "ĠĜ#$": 2621,
      "ĠĜĘĝ": 2622,
      "ĠĜ$Ĝ": 2623,
      "Ġ!!Ę": 2624,
      "Ġğğ'": 2625,
      "Ġě$Ğ": 2626,
      "Ġě%ğ": 2627,
      "Ġěĝĝ": 2628,
      "Ġěěĝ": 2629,
      "Ġě\"Ĝ": 2630,
      "Ġ%Ĝĝ": 2631,
      "Ġ%$ĝ": 2632,
      "Ġ%Ě\"": 2633,
      "Ġ%ĝě": 2634,
      "Ġ%%ě": 2635,
      "Ġ&(": 2636,
      "Ġ&ĜĞ": 2637,
      "Ġ&ĝĞ": 2638,
      "Ġ&##": 2639,
      "Ġ&ğ\"": 2640,
      "Ġ&%#": 2641,
      "Ġ&ğ#": 2642,
      "Ġ&!ĝ": 2643,
      "Ġ&Ğ#": 2644,
      "Ġ&#ĝ": 2645,
      "Ġ&ĝĜ": 2646,
      "ĠĚĚ": 2647,
      "ĠĚ$!": 2648,
      "ĠĚ$\"": 2649,
      "ĠĚĞĞ": 2650,
      "ĠĚ$ĝ": 2651,
      "ĠĚ\"!": 2652,
      "ĠĚ'!": 2653,
      "ĠĚĝĜ": 2654,
      "Ġ\"!ę": 2655,
      "ĠğĞę": 2656,
      "Ġ'%": 2657,
      "Ġ'&": 2658,
      "Ġ'(": 2659,
      "Ġ'ĀĀ": 2660,
      "Ġ'#!": 2661,
      "Ġ'#\"": 2662,
      "Ġ'Ğ!": 2663,
      "Ġ'ĝĞ": 2664,
      "Ġ'ğ\"": 2665,
      "Ġ\"ğĚ": 2666,
      "Ġę%": 2667,
      "Ġę#!": 2668,
      "Ġę$!": 2669,
      "ĠęĞ!": 2670,
      "Ġę!ğ": 2671,
      "Ġęğ#": 2672,
      "Ġęğ$": 2673,
      "ĠĞ!&": 2674,
      "ĠĞ!'": 2675,
      "ĠĞ!Ě": 2676,
      "Ġ!Ğ'": 2677,
      "Ġ(%": 2678,
      "Ġ(&": 2679,
      "Ġ(\"ğ": 2680,
      "ĠĘ!#": 2681,
      "Āğ\"": 2682,
      "Ġ\"Ğ&": 2683,
      "Ġ\"Ğę": 2684,
      "Ġ#!%": 2685,
      "ĠĝğĚ": 2686,
      "#ğ#": 2687,
      "Ġ)ğğ": 2688,
      "Ġ#ğę": 2689,
      "Ġė!": 2690,
      "Ġėě": 2691,
      "ĠĞĝ&": 2692,
      "ĠĞĝę": 2693,
      "Ġ#ĞĚ": 2694,
      "ĀĀ$Āė": 2695,
      "ĀĀěĀė": 2696,
      "Ġ\"#&": 2697,
      "Ġ\"#ě": 2698,
      "ĝğ\"": 2699,
      "Ġ$!%": 2700,
      "$ĀĀ-": 2701,
      "$ĀĀĐ": 2702,
      "$ĀĀđ": 2703,
      "ĠĜ\"Ě": 2704,
      "ĠĜ\"Ĝ": 2705,
      "#ĀĀĔ": 2706,
      "#ĀĀĕ": 2707,
      "%ĀĀ)": 2708,
      "%ĀĀ,": 2709,
      "%ĀĀ-": 2710,
      "ě\"ĀĀ": 2711,
      "ĠĞ#ě": 2712,
      "&ĀĀ.": 2713,
      "&ĀĀĔ": 2714,
      "'ĀĀē": 2715,
      "ĠĠĠĠĠĠĠĠĠĠĠĠĠĠĠĠĠĠĠĠĠĠĠĠĠĠĠĠĠĠĠĠĠ": 2716,
      "(ĀĀ.": 2717,
      "(ĀĀĕ": 2718,
      ")ĀĀ,": 2719,
      "ĠĜĞ&": 2720,
      "&!ĀĀ": 2721,
      "Ġ##%": 2722,
      "*ĀĀĔ": 2723,
      "ĠĝĝĚ": 2724,
      "ĠĀĔ": 2725,
      "ĀĀęĀ\"": 2726,
      "ĀĀęĀ$": 2727,
      "ĀĀęĀ(": 2728,
      "&\"ĀĀ": 2729,
      "ĀĀĘĀ&": 2730,
      "ĀĀĘĀę": 2731,
      "ĀĀĞĀĕ": 2732,
      "ĀĀĞĀĖ": 2733,
      "ĠĞĜě": 2734,
      "Ġğ$ě": 2735,
      "ĀĀėĀĝ": 2736,
      "ĀĀėĀ%": 2737,
      "ĀĀ!Āĕ": 2738,
      "Ġěğ&": 2739,
      "Ġěğĝ": 2740,
      "Ġ%!$": 2741,
      "ĀĀĖĀ#": 2742,
      "ĀĀĖĀě": 2743,
      "ĀĀĖĀ&": 2744,
      "ĀĀĖĀ(": 2745,
      "ĠěĞ&": 2746,
      "ĀĀ#Āĕ": 2747,
      "ĠĜĝě": 2748,
      "ĀĀĕĀĞ": 2749,
      "ĀĀĕĀĜ": 2750,
      "ĀĀĕĀ&": 2751,
      "Ġ#$ě": 2752,
      "Ġĝ$%": 2753,
      "Ġĝ$Ĝ": 2754,
      "+ĀĀ*": 2755,
      "ĀĀ+Ā\"": 2756,
      "ĀĀ+ĀĜ": 2757,
      "ĀĀ+Ā$": 2758,
      "Ġ%ĞĜ": 2759,
      "Ġ#Ĝě": 2760,
      "Ġ!%Ě": 2761,
      "Ġ!%ě": 2762,
      "Ġ$$ě": 2763,
      "ĀĀĔĀğ": 2764,
      "ĀĀ&Āĕ": 2765,
      "Ġ%\"ě": 2766,
      "ĀĀĒĀ": 2767,
      "ĀĀĒĀ(": 2768,
      "ĀĀēĀĝ": 2769,
      "ĀĀēĀĚ": 2770,
      "!ē": 2771,
      "!Ĝ!": 2772,
      "!Ĝğ": 2773,
      "!ęĝ": 2774,
      "\"-": 2775,
      "\"Ĝ#": 2776,
      "$ē": 2777,
      "$ě!": 2778,
      "$ĀĀĞĀ": 2779,
      "$ĀĀĝĀ": 2780,
      "%*": 2781,
      "%Ĕ": 2782,
      "%ĕ": 2783,
      "%ĀĀğĀ!": 2784,
      "&*": 2785,
      "&,": 2786,
      "&ĀĀĝĀ!": 2787,
      "&ĀĀĝĀğ": 2788,
      "',": 2789,
      "'-": 2790,
      "'ĀĀğĀĞ": 2791,
      ")ĀĀğĀğ": 2792,
      ")ĀĀ!Āĝ": 2793,
      "*ĀĀĞĀě": 2794,
      "+Ė": 2795,
      "+Ě": 2796,
      "+ĀĀ(": 2797,
      ",Ğ": 2798,
      "-.": 2799,
      "-/": 2800,
      "-)ĀĀ": 2801,
      "-ĀĀ\"Ā": 2802,
      ".Ğ": 2803,
      "/\"": 2804,
      "/&": 2805,
      "/ğ": 2806,
      ";Ā": 2807,
      "ĎĀ!": 2808,
      "ďĘ": 2809,
      "Đ!": 2810,
      "Đě": 2811,
      "đ'": 2812,
      "đĕ": 2813,
      "đĀĀ": 2814,
      "đĀ!": 2815,
      "Ē&": 2816,
      "Ē'": 2817,
      "ĒĀĚ": 2818,
      "ē(": 2819,
      "ĔĖ": 2820,
      "ĕ.": 2821,
      "ė(": 2822,
      "ė)": 2823,
      "ėĒ": 2824,
      "Ę,": 2825,
      "ę+": 2826,
      "Ěĕ": 2827,
      "ě*": 2828,
      "Ĝĝ\"": 2829,
      "ĝ/": 2830,
      "ĝĒ": 2831,
      "ĝĕ": 2832,
      "ĝĞ!": 2833,
      "ĝ$$": 2834,
      "ĝ''": 2835,
      "Ğ#\"": 2836,
      "ğĝ\"": 2837,
      "ğĞ\"": 2838,
      "ğ!!": 2839,
      "ĠĀĀğĀğ": 2840,
      "ĠĀĀĞĀ!": 2841,
      "ĠĀĀ!Ā\"": 2842,
      "ĠĀĀĜĀ!": 2843,
      "ĠĀĀğĀĜ": 2844,
      "ĠĀĀĞĀĝ": 2845,
      "ĠĠČ": 2846,
      "Ġ!ě#": 2847,
      "Ġ!%$": 2848,
      "Ġ!ęĞ": 2849,
      "Ġ!ęĝ": 2850,
      "Ġ!(!": 2851,
      "Ġ!Ěě": 2852,
      "Ġ!*!": 2853,
      "Ġğěě": 2854,
      "Ġğę\"": 2855,
      "Ġğęĝ": 2856,
      "Ġğ&ě": 2857,
      "Ġ\"Ě#": 2858,
      "Ġ\"ę!": 2859,
      "Ġ\"ęĞ": 2860,
      "Ġ\"ěě": 2861,
      "Ġ\"&ĝ": 2862,
      "Ġ\"Ě%": 2863,
      "Ġ\"&Ĝ": 2864,
      "Ġ\"(Ğ": 2865,
      "ĠĞ&Ğ": 2866,
      "ĠĞ&#": 2867,
      "ĠĞ&$": 2868,
      "ĠĞęĝ": 2869,
      "ĠĞĘğ": 2870,
      "ĠĞĚ%": 2871,
      "ĠĞ&%": 2872,
      "ĠĝĚ!": 2873,
      "Ġĝ'!": 2874,
      "ĠĝěĜ": 2875,
      "Ġĝę\"": 2876,
      "ĠĝĘ\"": 2877,
      "ĠĝĚ%": 2878,
      "Ġ#%$": 2879,
      "Ġ#ęğ": 2880,
      "Ġ#Ě#": 2881,
      "Ġ#'!": 2882,
      "Ġ#'ğ": 2883,
      "Ġ#ěĜ": 2884,
      "Ġ#&#": 2885,
      "Ġ#&ĝ": 2886,
      "Ġ#ĚĜ": 2887,
      "Ġ#&Ĝ": 2888,
      "Ġ$Ę": 2889,
      "Ġ$ě\"": 2890,
      "Ġ$ęğ": 2891,
      "Ġ$ěě": 2892,
      "Ġ$Ęğ": 2893,
      "Ġ$Ě$": 2894,
      "Ġ$ĜĚ": 2895,
      "ĠĜ'": 2896,
      "ĠĜ(": 2897,
      "ĠĜė": 2898,
      "ĠĜĚğ": 2899,
      "ĠĜ&!": 2900,
      "ĠĜ&\"": 2901,
      "ĠĜĚĞ": 2902,
      "ĠĜĚ#": 2903,
      "ĠĜĜ$": 2904,
      "ĠĜ#ĝ": 2905,
      "ĠĜ%Ĝ": 2906,
      "Ġğğę": 2907,
      "ĠěĘ": 2908,
      "Ġěě!": 2909,
      "Ġě%#": 2910,
      "Ġě&ğ": 2911,
      "Ġě&\"": 2912,
      "Ġěęğ": 2913,
      "Ġě#ĝ": 2914,
      "Ġěĝ$": 2915,
      "Ġě%Ĝ": 2916,
      "Ġě$%": 2917,
      "Ġěęě": 2918,
      "Ġ%%\"": 2919,
      "Ġ%%Ğ": 2920,
      "Ġ%##": 2921,
      "Ġ%Ğ#": 2922,
      "Ġ%Ěĝ": 2923,
      "Ġ%#$": 2924,
      "Ġ%ěĜ": 2925,
      "Ġ%'Ğ": 2926,
      "Ġ%ĝ%": 2927,
      "Ġğ!ę": 2928,
      "Ġ&'": 2929,
      "Ġ&Ĝ\"": 2930,
      "Ġ&#\"": 2931,
      "Ġ&ě!": 2932,
      "Ġ&\"\"": 2933,
      "Ġ&%Ğ": 2934,
      "Ġ&&!": 2935,
      "Ġ&&ğ": 2936,
      "Ġ&\"#": 2937,
      "Ġ&&Ğ": 2938,
      "Ġ&ĝ$": 2939,
      "Ġ&ĞĜ": 2940,
      "ĠĚę": 2941,
      "ĠĚ#!": 2942,
      "ĠĚěğ": 2943,
      "ĠĚ\"\"": 2944,
      "ĠĚ%\"": 2945,
      "ĠĚ\"ğ": 2946,
      "ĠĚĞĝ": 2947,
      "ĠĚ\"ĝ": 2948,
      "ĠĚę!": 2949,
      "ĠĚęĞ": 2950,
      "ĠĚĝ$": 2951,
      "ĠĚĞ$": 2952,
      "ĠĞğ'": 2953,
      "Ġ!\"Ę": 2954,
      "Ġ'$ğ": 2955,
      "Ġ'$Ğ": 2956,
      "Ġ'\"\"": 2957,
      "Ġ'##": 2958,
      "Ġ'(ğ": 2959,
      "Ġę$Ğ": 2960,
      "Ġę#\"": 2961,
      "Ġę#Ğ": 2962,
      "Ġęĝ#": 2963,
      "Ġę\"Ğ": 2964,
      "Ġę!ĝ": 2965,
      "Ġę\"ĝ": 2966,
      "Ġęĝ$": 2967,
      "Ġğ\"Ę": 2968,
      "Ġ($": 2969,
      "Ġ(\"\"": 2970,
      "Ġ(!Ğ": 2971,
      "Ġ(\"Ğ": 2972,
      "Ġ(\"ĝ": 2973,
      "Ġ(ğĜ": 2974,
      "ĠĘĝ\"": 2975,
      "ĠĘĝ#": 2976,
      "Ā!!": 2977,
      "Ā!ğ": 2978,
      "ĠĞĞ&": 2979,
      "ĀğĞ!": 2980,
      "Āğ!\"": 2981,
      "Ā\"!": 2982,
      "Ġĝ!'": 2983,
      "ĀĀ!Ā)": 2984,
      "Ġ)ĀĀ": 2985,
      "Ġ)\"ğ": 2986,
      "Ġė#": 2987,
      "Ġėę": 2988,
      "Ġėĝ": 2989,
      "Ġėğ": 2990,
      "Ġė!ğ": 2991,
      "ĠėğĞ": 2992,
      "Ġė!$": 2993,
      "#!#": 2994,
      "Ġ!#Ě": 2995,
      "ĠĝĞ&": 2996,
      "Ġ*Ğ": 2997,
      "Ġĝ\"ę": 2998,
      "Ġ\"ĝ&": 2999,
      "Ĝ!ĀĀ": 3000,
      "Ġ\"#%": 3001,
      "Ġ$ğę": 3002,
      "Ġ$ğĚ": 3003,
      "Ġ$!Ě": 3004,
      "ĀĀ%Ā'": 3005,
      "ĀĀĚĀĘ": 3006,
      "Ġ$\"%": 3007,
      "ĀĀ&Āė": 3008,
      "ěğĀĀ": 3009,
      "ĠĜ\"%": 3010,
      "ĠĜ\"&": 3011,
      "#ĀĀ.": 3012,
      "Ğ\"#": 3013,
      "ĠĀĀĐ": 3014,
      "ĠĀĀ'Ā": 3015,
      "ě!#": 3016,
      "%ĀĀ.": 3017,
      "!!%": 3018,
      "&ĀĀĐ": 3019,
      "&ĀĀĖ": 3020,
      "'ĀĀ)": 3021,
      "ĜĝĀĀ": 3022,
      "ĠĠĠĠĠĠĠĠĠĠĠĠĠĠĠĠĠĠĠĠĠĠĠĠĠĠĠĠĠ": 3023,
      "ĠĠĠĠĠĠĠĠĠĠĠĠĠĠĠĠĠĠĠĠĠĠĠĠĠĠĠĠĠĠĠĠĠĠ": 3024,
      "\"ğĀĀ": 3025,
      "(ĀĀ'": 3026,
      "(ĀĀ*": 3027,
      "(ĀĀĔ": 3028,
      "(ĀĀė": 3029,
      ")ĀĀ*": 3030,
      ")ĀĀė": 3031,
      "Ġ##Ě": 3032,
      "Ě\"ĀĀ": 3033,
      "Ġ!Ĝę": 3034,
      "*ĀĀĖ": 3035,
      "Ġĝĝę": 3036,
      "ĀĀ'Ā&": 3037,
      "ĀĀęĀĜ": 3038,
      "ĀĀęĀ)": 3039,
      "Ġ!$ě": 3040,
      "ĀĀĘĀ!": 3041,
      "ĀĀ\"Āĕ": 3042,
      "ĀĀ(Āğ": 3043,
      "ĀĀ(Āě": 3044,
      "ĀĀ(Ā&": 3045,
      "ĀĀėĀ&": 3046,
      "ĀĀėĀĚ": 3047,
      "\"$&": 3048,
      "ĀĀ)Ā&": 3049,
      "ĠěğĜ": 3050,
      "ĀĀĖĀ'": 3051,
      "ĠěĞĜ": 3052,
      "ĠĜĝ%": 3053,
      "ĀĀĕĀ": 3054,
      "ĀĀĕĀ'": 3055,
      "ĀĀĜĀĖ": 3056,
      "Ġ$ĝę": 3057,
      "+ĀĀē": 3058,
      "Ġ$#%": 3059,
      "Ġ$#Ě": 3060,
      "ĠĝĜě": 3061,
      "ĀĀ+ĀĞ": 3062,
      "ĀĀ+Ā%": 3063,
      "ĀĀ*Ā$": 3064,
      "ĀĀ*Ā%": 3065,
      "ĀĀ-Āğ": 3066,
      "ĀĀ-ĀĞ": 3067,
      "ĀĀ-Āĝ": 3068,
      "Ġ$$Ĝ": 3069,
      "ĀĀ$Ā+": 3070,
      "ĀĀ$Āĕ": 3071,
      "ĀĀ,ĀĞ": 3072,
      "ĀĀ/Ā": 3073,
      "ĀĀĒĀ!": 3074,
      "ĀĀĒĀ$": 3075,
      "ĀĀĒĀ%": 3076,
      "ĀĀēĀ": 3077,
      "ĀĀēĀğ": 3078,
      "ĀĀēĀ\"": 3079,
      "ĀĀđĀĝ": 3080,
      "Ġ#ěę": 3081,
      "ĀĀďĀ$": 3082,
      "Ā#!ğ": 3083,
      "ĀĀĎĀĞ": 3084,
      "!$\"": 3085,
      "!ĝ!": 3086,
      "!ĚĞ": 3087,
      "!%%": 3088,
      "!(!": 3089,
      "!&%": 3090,
      "!''": 3091,
      "\".": 3092,
      "\"Ē": 3093,
      "\"ĚĜ": 3094,
      "\"&&": 3095,
      "#Ĝ!": 3096,
      "#$!": 3097,
      "$+": 3098,
      "$/": 3099,
      "$đ": 3100,
      "$Ē": 3101,
      "$ĝğ": 3102,
      "$$\"": 3103,
      "$ĀĀĜĀ": 3104,
      "%$!": 3105,
      "%\"\"": 3106,
      "%ĀĀğĀğ": 3107,
      "&-": 3108,
      "&Ĕ": 3109,
      "&$ğ": 3110,
      "&ĀĀĞĀ": 3111,
      "&ĀĀğĀğ": 3112,
      "&ĀĀĞĀ!": 3113,
      "&ĀĀĝĀ\"": 3114,
      "&ĀĀ\"Ā\"": 3115,
      "'ĀĀğĀ": 3116,
      "'ĀĀ!Āğ": 3117,
      "'ĀĀĝĀğ": 3118,
      "'ĀĀğĀ$": 3119,
      "(*": 3120,
      "(Đ": 3121,
      "(Ė": 3122,
      "(ĀĀğĀ": 3123,
      "(ĀĀĝĀ": 3124,
      "(ĀĀ!Ā": 3125,
      "(ĀĀ!Ā!": 3126,
      "(ĀĀĞĀğ": 3127,
      ")Ě": 3128,
      ")ĀĀğĀ": 3129,
      ")ĀĀ!Ā": 3130,
      ")ĀĀěĀ": 3131,
      ")ĀĀ!Ā%": 3132,
      ")ĀĀĜĀ#": 3133,
      "*ĀĀğĀĜ": 3134,
      "+ĀĀğĀğ": 3135,
      "+ĀĀĞĀğ": 3136,
      "+ĀĀğĀĜ": 3137,
      ",ę": 3138,
      ",Ĝ": 3139,
      ",ĀĀ\"Ā": 3140,
      "-+": 3141,
      "-ĀĀ\"Āĝ": 3142,
      ".#": 3143,
      ".'": 3144,
      ".Ā$": 3145,
      ".ĀĀĜĀ": 3146,
      "/%": 3147,
      "/ě": 3148,
      "/Ā#": 3149,
      "?Ā": 3150,
      "@Ā": 3151,
      "Ďğ": 3152,
      "ĎĀĀ": 3153,
      "ďĞ": 3154,
      "Đ'": 3155,
      "Đė": 3156,
      "ĐĘ": 3157,
      "Đĝ": 3158,
      "Đğ": 3159,
      "đĖ": 3160,
      "đę": 3161,
      "đğ": 3162,
      "Ē#": 3163,
      "Ē%": 3164,
      "Ē)": 3165,
      "Ēĕ": 3166,
      "ĒĞ": 3167,
      "ēĕ": 3168,
      "Ĕ*": 3169,
      "ĔĒ": 3170,
      "Ĕē": 3171,
      "ĕ)": 3172,
      "ĕ,": 3173,
      "ĕĔ": 3174,
      "ĖğĞ": 3175,
      "Ę*": 3176,
      "Ę+": 3177,
      "ęĘ": 3178,
      "Ěđ": 3179,
      "ĚĒ": 3180,
      "Ěĝ\"": 3181,
      "ěě\"": 3182,
      "Ĝ/": 3183,
      "Ĝđ": 3184,
      "ĝ*": 3185,
      "ĝĜ!": 3186,
      "ĝ#\"": 3187,
      "ĝĜ$": 3188,
      "ĝ)(": 3189,
      "Ğ+": 3190,
      "ĞĞ!": 3191,
      "ĞĚ\"": 3192,
      "ğ/": 3193,
      "ğ$\"": 3194,
      "ğ#\"": 3195,
      "ğĘĝ": 3196,
      "ĠĀĀ#Ā": 3197,
      "ĠĀĀĜĀ": 3198,
      "ĠĀĀğĀ\"": 3199,
      "ĠĀĀ!Āğ": 3200,
      "ĠĀĀĞĀ\"": 3201,
      "ĠĀĀĝĀğ": 3202,
      "ĠĀĀ\"Āĝ": 3203,
      "ĠĀĀ!Āĝ": 3204,
      "ĠĀĀ!ĀĜ": 3205,
      "ĠĀĀ\"Ā\"": 3206,
      "ĠĀĀğĀĚ": 3207,
      "ĠĀĀĞĀę": 3208,
      "Ġ!&\"": 3209,
      "Ġ!'\"": 3210,
      "Ġ!ĘĞ": 3211,
      "Ġ!ęě": 3212,
      "Ġ!ěĚ": 3213,
      "Ġ!&ě": 3214,
      "Ġ!Ęě": 3215,
      "ĠğĖ": 3216,
      "Ġğ(!": 3217,
      "ĠğĘĞ": 3218,
      "ĠğėĞ": 3219,
      "Ġğ)ğ": 3220,
      "ĠğĚě": 3221,
      "Ġğ(ĝ": 3222,
      "Ġ\"'ğ": 3223,
      "Ġ\"&#": 3224,
      "Ġ\"ę\"": 3225,
      "Ġ\"Ę!": 3226,
      "Ġ\"Ęğ": 3227,
      "Ġ\"(ğ": 3228,
      "Ġ\"(\"": 3229,
      "Ġ\"&&": 3230,
      "Ġ\"ė\"": 3231,
      "ĠĞĀĀ": 3232,
      "ĠĞ&ĝ": 3233,
      "ĠĞ%Ĝ": 3234,
      "ĠĞę#": 3235,
      "ĠĞĘ!": 3236,
      "ĠĞĘ\"": 3237,
      "ĠĞě%": 3238,
      "ĠĞ&Ĝ": 3239,
      "ĀĀĈ": 3240,
      "ĠĝĖ": 3241,
      "Ġĝ%$": 3242,
      "Ġĝ'ğ": 3243,
      "ĠĝęĞ": 3244,
      "Ġĝ&$": 3245,
      "Ġĝ%Ĝ": 3246,
      "Ġĝę#": 3247,
      "Ġĝ'#": 3248,
      "Ġ#*": 3249,
      "Ġ#Ė": 3250,
      "Ġ#%#": 3251,
      "Ġ#ę!": 3252,
      "Ġ#ę\"": 3253,
      "Ġ#&$": 3254,
      "Ġ#'Ğ": 3255,
      "Ġ#(ğ": 3256,
      "Ġ#ėĞ": 3257,
      "Ġ#ė!": 3258,
      "Ġ#'&": 3259,
      "Ġ#(ĝ": 3260,
      "Ġ$)": 3261,
      "Ġ$'Ğ": 3262,
      "Ġ$(\"": 3263,
      "Ġ$'ĝ": 3264,
      "ĠĜĘ": 3265,
      "ĠĜĜĜ": 3266,
      "ĠĜ%ĝ": 3267,
      "ĠĜęĞ": 3268,
      "ĠĜ&ĝ": 3269,
      "ĠĜĚĜ": 3270,
      "ĠĜĘ\"": 3271,
      "ĠĜęĜ": 3272,
      "ĠĜ$&": 3273,
      "Ġěę": 3274,
      "Ġě$#": 3275,
      "ĠěĜĝ": 3276,
      "ĠěěĞ": 3277,
      "ĠěĜĜ": 3278,
      "Ġě%ĝ": 3279,
      "Ġěě$": 3280,
      "Ġě(ĝ": 3281,
      "ĠěĜ&": 3282,
      "Ġ%Ę": 3283,
      "Ġ%Ĝ\"": 3284,
      "Ġ%ě!": 3285,
      "Ġ%Ěğ": 3286,
      "Ġ%ěĝ": 3287,
      "Ġ%%#": 3288,
      "Ġ%&ğ": 3289,
      "Ġ%ę\"": 3290,
      "Ġ%ěĚ": 3291,
      "Ġ%Ĝě": 3292,
      "Ġğ!'": 3293,
      "Ġğ!)": 3294,
      "Ġ&ěğ": 3295,
      "Ġ&%!": 3296,
      "Ġ&$#": 3297,
      "Ġ&ěĞ": 3298,
      "Ġ&Ě\"": 3299,
      "Ġ&%ĝ": 3300,
      "Ġ&'Ğ": 3301,
      "Ġ&ğĜ": 3302,
      "Ġ&!$": 3303,
      "Ġ&&Ĝ": 3304,
      "Ġ&$Ĝ": 3305,
      "Ġ&Ğě": 3306,
      "ĠĚ'": 3307,
      "ĠĚ#Ğ": 3308,
      "ĠĚĝ#": 3309,
      "ĠĚěĞ": 3310,
      "ĠĚěĝ": 3311,
      "ĠĚ!ĝ": 3312,
      "ĠĚĜ$": 3313,
      "ĠĚ#ĝ": 3314,
      "ĠĚěě": 3315,
      "ĠĚę#": 3316,
      "ĠĚ!$": 3317,
      "ĠĚ'#": 3318,
      "ĠĚ!Ĝ": 3319,
      "ĠĚ!%": 3320,
      "ĠĚĝ%": 3321,
      "ĠĚĞě": 3322,
      "Ġ!\"&": 3323,
      "Ġ!\"ę": 3324,
      "Ġ'Ĝ!": 3325,
      "Ġ'Ĝğ": 3326,
      "Ġ'ĝğ": 3327,
      "Ġ'ĜĞ": 3328,
      "Ġ'ĝ\"": 3329,
      "Ġ'Ğ\"": 3330,
      "Ġ'ě!": 3331,
      "Ġ'%\"": 3332,
      "Ġ'ĞĞ": 3333,
      "Ġ'ĝĝ": 3334,
      "Ġ'!\"": 3335,
      "Ġ'&ğ": 3336,
      "Ġ'\"#": 3337,
      "Ġ''!": 3338,
      "Ġ''ğ": 3339,
      "Ġ'#Ĝ": 3340,
      "Ġ'ĚĜ": 3341,
      "Ġ\"ğ'": 3342,
      "Ġęĕ": 3343,
      "Ġę$ğ": 3344,
      "Ġę\"\"": 3345,
      "Ġę##": 3346,
      "Ġęğ\"": 3347,
      "ĠęĞĝ": 3348,
      "Ġę!#": 3349,
      "ĠęĞ#": 3350,
      "Ġę#$": 3351,
      "ĠĞ!(": 3352,
      "ĠĞ!ę": 3353,
      "Ġğ\"ę": 3354,
      "Ġ!Ğ(": 3355,
      "Ġ!Ğę": 3356,
      "Ġ(ě": 3357,
      "Ġ(ĀĀ": 3358,
      "Ġ(ě!": 3359,
      "Ġ(ğ!": 3360,
      "Ġ(\"!": 3361,
      "Ġ($%": 3362,
      "ĠĘ%": 3363,
      "ĠĘ'": 3364,
      "ĠĘ(": 3365,
      "ĠĘ!!": 3366,
      "ĠĘğĞ": 3367,
      "ĠĘğ\"": 3368,
      "ĠĘ\"ĝ": 3369,
      "ĠĘĞ$": 3370,
      "Ġ\"\"&": 3371,
      "Ā!!ě": 3372,
      "ĠĞĞę": 3373,
      "ĠĞ\"Ě": 3374,
      "Ā\"ğ!": 3375,
      "Ā\"!\"": 3376,
      "ĀĞ!ğ": 3377,
      "ĀĝĞ": 3378,
      "Ġĝğ'": 3379,
      "#ğ!": 3380,
      "#ğĝ": 3381,
      "Ġğĝ&": 3382,
      "Ġğĝ'": 3383,
      "Ġ)#": 3384,
      "Ġ)Ğ": 3385,
      "Ġ)%\"": 3386,
      "Ġ)ğ!": 3387,
      "Ġ)ğ\"": 3388,
      "Ġ)\"#": 3389,
      "Ġ)\"ĝ": 3390,
      "Ġėĝ#": 3391,
      "#!!": 3392,
      "#!Ĝ": 3393,
      "Ā$&": 3394,
      "Ā$\"\"": 3395,
      "Ā##ğ": 3396,
      "Ā#ĝĞ": 3397,
      "ĠĞĝĚ": 3398,
      "Ġ#\"ę": 3399,
      "ĠĝĞĚ": 3400,
      "Ġğ#'": 3401,
      "Ġ*\"": 3402,
      "Ġ*)": 3403,
      "Ġ*ğğ": 3404,
      "Ġ*!\"": 3405,
      "Āě!!": 3406,
      "ĠĖ\"": 3407,
      "ĠĖğ": 3408,
      "ĠĖ\"\"": 3409,
      "Ġ#Ğ&": 3410,
      "Ġ#Ğę": 3411,
      "Ġ\"ĝĚ": 3412,
      "Ĝ!#": 3413,
      "ĀĀ$Ā)": 3414,
      "Ā&Ěĝ": 3415,
      "ĜğĞ": 3416,
      "ĜğĀĀ": 3417,
      "ĝğ!": 3418,
      "ĀĀ%Ā)": 3419,
      "$\"#": 3420,
      "$\"&": 3421,
      "ĠĜ!Ě": 3422,
      "ĠĜ!ě": 3423,
      "ĝ!%": 3424,
      "ĝ!ĀĀ": 3425,
      "Ğğ!": 3426,
      "ĠĕĞ": 3427,
      "ĀĀ&Ā)": 3428,
      "#ĞĞ": 3429,
      "$ĀĀ,": 3430,
      "$ĀĀĔ": 3431,
      "ĝ\"\"": 3432,
      "#ĀĀđ": 3433,
      "#ĀĀĒ": 3434,
      "Ğ\"\"": 3435,
      "Ğ\"&": 3436,
      "ğğ\"": 3437,
      "ĠĀĀ.": 3438,
      "ĠĀĀ:": 3439,
      "ĠĀĀđ": 3440,
      "ĠĀĀĒ": 3441,
      "ě!ĀĀ": 3442,
      "%ĀĀĎ": 3443,
      "!ğ!": 3444,
      "&ĀĀĎ": 3445,
      "'ĀĀĐ": 3446,
      "\"\"\"": 3447,
      "\"!&": 3448,
      "(ĀĀĎ": 3449,
      "(ĀĀĒ": 3450,
      ")ĀĀē": 3451,
      ")ĀĀĔ": 3452,
      "ĠĜĞě": 3453,
      "Ġ##ę": 3454,
      "Ġ!ĜĚ": 3455,
      "*ĀĀē": 3456,
      "ĀĀ'Ā'": 3457,
      "ĠĀ-": 3458,
      "ĠĀĕ": 3459,
      "Ġĝ#&": 3460,
      "!ĝĀĀ": 3461,
      "ĀĀęĀ&": 3462,
      "ĀĀęĀĚ": 3463,
      "ĀĀęĀę": 3464,
      "Ġ!$Ě": 3465,
      "ĀĀĞĀĒ": 3466,
      "ĀĀ\"Āē": 3467,
      "ĀĀ\"ĀĖ": 3468,
      "Ġ\"$ě": 3469,
      "ĀĀ(Āĝ": 3470,
      "ĀĀ(ĀĚ": 3471,
      "ĀĀ(Āę": 3472,
      "ĀĀ(Āė": 3473,
      "ĠĞĜ&": 3474,
      "ĠĞĜĚ": 3475,
      "\"ĝ(": 3476,
      "Ġğ$&": 3477,
      "'!ĀĀ": 3478,
      "Ġ$Ğę": 3479,
      "ĀĀĝĀ-": 3480,
      "ĀĀĝĀ.": 3481,
      "ĀĀĝĀĖ": 3482,
      "Ġ%ğ$": 3483,
      "ĠĞ$ę": 3484,
      "ĠĞ$ě": 3485,
      "ĀĀėĀ#": 3486,
      "ĀĀėĀĘ": 3487,
      "ĀĀ!ĀĔ": 3488,
      "Ġě!Ĝ": 3489,
      "ĀĀ)Ā$": 3490,
      "ĀĀ)ĀĚ": 3491,
      "ĀĀ)Āė": 3492,
      "Ġěğ%": 3493,
      "Ġěğě": 3494,
      "Ġ%!ę": 3495,
      "Ġ%!Ě": 3496,
      "Ġ\"Ĝ%": 3497,
      "ĀĀĖĀĚ": 3498,
      "ĀĀĖĀė": 3499,
      "ĠĜĝĚ": 3500,
      "ĀĀĕĀę": 3501,
      "ĀĀĕĀ(": 3502,
      "Ġ#$ę": 3503,
      "ĀĀĜĀ*": 3504,
      "Ġĝ$'": 3505,
      "Ġ$ĝě": 3506,
      "+ĀĀ-": 3507,
      "+ĀĀĐ": 3508,
      "+ĀĀĔ": 3509,
      "ĀĀěĀĔ": 3510,
      "ĀĀ+ĀĚ": 3511,
      "ĀĀ+Ā(": 3512,
      "Ġ%ĞĚ": 3513,
      "ęĜĀĀ": 3514,
      "ĀĀ*Āĝ": 3515,
      "Ğ%-": 3516,
      "ĀĀ-Ā%": 3517,
      "ĀĀ-Ā&": 3518,
      "!%(": 3519,
      "ĀĀ%ĀĖ": 3520,
      "ĀĀ$ĀĖ": 3521,
      "ĀĀĔĀ!": 3522,
      "ĀĀĔĀ\"": 3523,
      "ĀĀĔĀě": 3524,
      "ĀĀ.Ā!": 3525,
      "Ġ\"%&": 3526,
      "ĀĀ,ĀĜ": 3527,
      "ĀĀ,Ā$": 3528,
      "ĀĀ,Ā+": 3529,
      "ĀĀ/ĀĞ": 3530,
      "ĀĀĚĀ.": 3531,
      "ĀĀĚĀĖ": 3532,
      "ĀĀĒĀğ": 3533,
      "ĀĀĒĀĞ": 3534,
      "ĀĀĒĀ&": 3535,
      "ĠěĝĚ": 3536,
      "ĀĀĝĀĝ!": 3537,
      "ĠĜĜ'": 3538,
      "Ġ#%ě": 3539,
      "ĖĞĀĀ": 3540,
      "ĀĀĐĀĝ": 3541,
      "Ā#ğĞ": 3542,
      "$ĀĀ)Ā": 3543,
      "$ĀĀĘĀ\"": 3544,
      "*ĀĀęĀ!": 3545,
      "!Ĕ": 3546,
      "!Ğ!": 3547,
      "!ğğ": 3548,
      "!ĝĝ": 3549,
      "!'\"": 3550,
      "!ę\"": 3551,
      "!'#": 3552,
      "!ĘĜ": 3553,
      "\"Ď": 3554,
      "\"Ĝ!": 3555,
      "\"ĝğ": 3556,
      "\"Ğ!": 3557,
      "\"ĝ\"": 3558,
      "\"Ĝĝ": 3559,
      "\"ĚĞ": 3560,
      "\"ęĞ": 3561,
      "\"&#": 3562,
      "\"Ě%": 3563,
      "\"ėĞ": 3564,
      "\"&%": 3565,
      "\"'&": 3566,
      "\"ęĚ": 3567,
      "##ğ": 3568,
      "#$\"": 3569,
      "#Ğğ": 3570,
      "#ĝ\"": 3571,
      "#ěĝ": 3572,
      "#%$": 3573,
      "#ĚĞ": 3574,
      "#ę\"": 3575,
      "#&&": 3576,
      "$*": 3577,
      "$ěĝ": 3578,
      "$'ğ": 3579,
      "$ĀĀ%Ā": 3580,
      "$ĀĀĞĀ\"": 3581,
      "%Ğ!": 3582,
      "%ĀĀĞĀ": 3583,
      "%ĀĀğĀĞ": 3584,
      "%ĀĀ!Ā!": 3585,
      "%ĀĀĞĀĞ": 3586,
      "%ĀĀ!ĀĜ": 3587,
      "%ĀĀ#Ā!": 3588,
      "&Ď": 3589,
      "&Ė": 3590,
      "&ė": 3591,
      "&Ěğ": 3592,
      "&\"Ğ": 3593,
      "&Ě\"": 3594,
      "&ĀĀĞĀĞ": 3595,
      "&ĀĀĝĀ$": 3596,
      "'.": 3597,
      "'ĀĀĞĀ": 3598,
      "'ĀĀ!Ā": 3599,
      "'ĀĀ!Ā!": 3600,
      "'ĀĀğĀ!": 3601,
      "'ĀĀ%Ā": 3602,
      "'ĀĀĞĀ!": 3603,
      "'ĀĀĝĀ!": 3604,
      "'ĀĀ!Ā\"": 3605,
      "'ĀĀĞĀ\"": 3606,
      "'ĀĀ\"Āğ": 3607,
      "'*\"": 3608,
      "'ĀĀĜĀĝ": 3609,
      "'ĀĀ&Āĝ": 3610,
      "(ĀĀğĀ!": 3611,
      "(ĀĀ&Āğ": 3612,
      "(ĀĀĜĀ&": 3613,
      ")Ē": 3614,
      ")ė": 3615,
      ")Ę": 3616,
      ")ĀĀĞĀğ": 3617,
      ")ĀĀ#Ā$": 3618,
      "*ĀĀğĀĞ": 3619,
      "*ĀĀ!Ā!": 3620,
      "*ĀĀ\"Āğ": 3621,
      "*ĀĀ\"Ā!": 3622,
      "*ĀĀĝĀĜ": 3623,
      "*ĀĀĞĀę": 3624,
      "+ĀĀěĀ": 3625,
      "+ĀĀ$Ā": 3626,
      "+ĀĀĞĀĝ": 3627,
      "+ĀĀĜĀĝ": 3628,
      ",*": 3629,
      ",,": 3630,
      "-ė": 3631,
      "-ě": 3632,
      "-ĀĀĜĀĞ": 3633,
      ".,": 3634,
      ".Ĝ": 3635,
      "/$": 3636,
      "/'": 3637,
      "/ĝ": 3638,
      ":Ā\"": 3639,
      "Āď": 3640,
      "ď!": 3641,
      "ďĜ": 3642,
      "ďĀ\"": 3643,
      "Đ)": 3644,
      "ĐĖ": 3645,
      "ĐĚ": 3646,
      "ĐĞ": 3647,
      "đđ": 3648,
      "ē/": 3649,
      "ēĐ": 3650,
      "ĕĕ": 3651,
      "ĕĜğ": 3652,
      "ĕ\"'": 3653,
      "Ė+": 3654,
      "Ė,": 3655,
      "Ėē": 3656,
      "Ėě!": 3657,
      "ėĚ\"": 3658,
      "Ę-": 3659,
      "ĘĜ!": 3660,
      "ĘĞ\"": 3661,
      "Ęğ\"": 3662,
      "ĘĚĞ": 3663,
      "Ę!$": 3664,
      "ĘĀĀ%Ā#": 3665,
      "ę-": 3666,
      "ę/": 3667,
      "ęđ": 3668,
      "ęěĞ": 3669,
      "Ě,": 3670,
      "Ěĝğ": 3671,
      "Ě!\"": 3672,
      "Ěě#": 3673,
      "ĚĀĀğĀ": 3674,
      "Ě'\"": 3675,
      "Ě%%": 3676,
      "ĚĀĀ/": 3677,
      "ě/": 3678,
      "ě#ğ": 3679,
      "ěĞ\"": 3680,
      "ěĞĞ": 3681,
      "ěĝĝ": 3682,
      "ěĚ%": 3683,
      "ě'(": 3684,
      "Ĝ-": 3685,
      "Ĝ$\"": 3686,
      "Ĝĝ!": 3687,
      "ĜĀĀğĀ": 3688,
      "Ĝ%$": 3689,
      "Ĝ(\"": 3690,
      "ĝē": 3691,
      "ĝĝ!": 3692,
      "ĝĝ#": 3693,
      "ĝě#": 3694,
      "ĝ%$": 3695,
      "ĝę\"": 3696,
      "ĝĘĞ": 3697,
      "ĝĘĝ": 3698,
      "ĝĘ!": 3699,
      "ĝ&&": 3700,
      "ĝ('": 3701,
      "ĞĒ": 3702,
      "Ğē": 3703,
      "Ğĝğ": 3704,
      "ĞĜ\"": 3705,
      "Ğ%!": 3706,
      "Ğě\"": 3707,
      "ĞĜ#": 3708,
      "Ğ##": 3709,
      "Ğęĝ": 3710,
      "ğ.": 3711,
      "ğĒ": 3712,
      "ğĔ": 3713,
      "ğĜĞ": 3714,
      "ğĞ!": 3715,
      "ğ\"!": 3716,
      "ğ%#": 3717,
      "ğĚĝ": 3718,
      "ğ&%": 3719,
      "ğ)\"": 3720,
      "ğėĝ": 3721,
      "ğ*)": 3722,
      "Ġ8": 3723,
      "ĠĀĀğĀ!": 3724,
      "ĠĀĀĝĀ!": 3725,
      "ĠĀĀĞĀğ": 3726,
      "ĠĀĀĞĀĞ": 3727,
      "ĠĀĀ\"ĀĞ": 3728,
      "ĠĀĀ#Ā!": 3729,
      "ĠĀĀ!Ā#": 3730,
      "ĠĀĀ#ĀĞ": 3731,
      "ĠĀĀĜĀğ": 3732,
      "ĠĀĀ#Ā$": 3733,
      "ĠĀĀĚĀğ": 3734,
      "ĠĀĀĝĀě": 3735,
      "ĠĀĀ&Āğ": 3736,
      "ĠĀĀ#ĀĘ": 3737,
      "ĠĠĊ": 3738,
      "Ġ!$ĀĀ": 3739,
      "Ġ!Ěĝ": 3740,
      "Ġ!ĚĜ": 3741,
      "Ġ!Ęĝ": 3742,
      "Ġ!Ę!": 3743,
      "Ġ!Ęğ": 3744,
      "Ġ!ě%": 3745,
      "Ġ!)!": 3746,
      "Ġ!ė\"": 3747,
      "Ġ!Ě&": 3748,
      "Ġ!'ĝ": 3749,
      "Ġ!ėğ": 3750,
      "Ġ!)%": 3751,
      "Ġğ-": 3752,
      "ĠğĔ": 3753,
      "ĠğĀĀ": 3754,
      "Ġğ'!": 3755,
      "Ġğ&ĝ": 3756,
      "ĠğĚĜ": 3757,
      "Ġğę#": 3758,
      "ĠğĘĝ": 3759,
      "ĠğęĜ": 3760,
      "ĠğĚ%": 3761,
      "Ġğ(#": 3762,
      "Ġğęě": 3763,
      "Ġğė!": 3764,
      "ĠğĚ$": 3765,
      "Ġğ(Ğ": 3766,
      "Ġğ'ĝ": 3767,
      "Ġğ'%": 3768,
      "ĠğĖĞ": 3769,
      "Ġ\"(!": 3770,
      "Ġ\"'#": 3771,
      "Ġ\"'$": 3772,
      "Ġ\"ě%": 3773,
      "Ġ\"&ě": 3774,
      "Ġ\"'ĝ": 3775,
      "ĠĞĔ": 3776,
      "ĠĞė": 3777,
      "ĠĞęĞ": 3778,
      "ĠĞę\"": 3779,
      "ĠĞĚĜ": 3780,
      "ĠĞ(!": 3781,
      "ĠĞĘĞ": 3782,
      "ĠĞ&&": 3783,
      "ĠĞęĜ": 3784,
      "ĠĞ(#": 3785,
      "ĠĞęě": 3786,
      "ĠĞĚ$": 3787,
      "ĠĞĚě": 3788,
      "ĠĞ'ĝ": 3789,
      "ĠĞę&": 3790,
      "ĠĞĕĞ": 3791,
      "ĠĞ)Ğ": 3792,
      "ĠĞ'ě": 3793,
      "ĀĀą": 3794,
      "ĠĝĀĀ": 3795,
      "Ġĝ&#": 3796,
      "Ġĝ'Ğ": 3797,
      "Ġĝęĝ": 3798,
      "ĠĝĘ!": 3799,
      "Ġĝ(ğ": 3800,
      "Ġĝ'$": 3801,
      "Ġĝ(#": 3802,
      "ĠĝĚ$": 3803,
      "Ġĝ'Ĝ": 3804,
      "ĠĝėĜ": 3805,
      "Ġ#Ěĝ": 3806,
      "Ġ#ěě": 3807,
      "Ġ#'\"": 3808,
      "Ġ#%%": 3809,
      "Ġ#(!": 3810,
      "Ġ#Ę!": 3811,
      "Ġ#(\"": 3812,
      "Ġ#)ğ": 3813,
      "Ġ#)!": 3814,
      "Ġ#&ě": 3815,
      "Ġ#ĚĘ": 3816,
      "Ġ$*": 3817,
      "Ġ$ė": 3818,
      "Ġ$ě$": 3819,
      "Ġ$&Ğ": 3820,
      "Ġ$ęĞ": 3821,
      "Ġ$'\"": 3822,
      "Ġ$ĚĜ": 3823,
      "Ġ$ę#": 3824,
      "Ġ$'$": 3825,
      "Ġ$ęĜ": 3826,
      "Ġ$&Ĝ": 3827,
      "Ġ$ěĚ": 3828,
      "Ġ$ė!": 3829,
      "Ġ$(Ğ": 3830,
      "ĠĜĕ": 3831,
      "ĠĜ$ĝ": 3832,
      "ĠĜě$": 3833,
      "ĠĜ&Ğ": 3834,
      "ĠĜ'ğ": 3835,
      "ĠĜę!": 3836,
      "ĠĜę\"": 3837,
      "ĠĜ(!": 3838,
      "ĠĜě%": 3839,
      "ĠĜĚ$": 3840,
      "ĠĜę$": 3841,
      "ĠĜ)!": 3842,
      "ĠĜ(Ğ": 3843,
      "ĠĜ'ĝ": 3844,
      "ĠĜę%": 3845,
      "ĠĜėğ": 3846,
      "Ġğğ)": 3847,
      "ĠěĖ": 3848,
      "Ġě%Ğ": 3849,
      "ĠěĚğ": 3850,
      "ĠěĚ!": 3851,
      "Ġě%$": 3852,
      "ĠěĚĞ": 3853,
      "ĠěĜ$": 3854,
      "Ġě'ğ": 3855,
      "ĠěĝĜ": 3856,
      "ĠěęĞ": 3857,
      "Ġě'\"": 3858,
      "Ġě&ĝ": 3859,
      "Ġě#Ĝ": 3860,
      "Ġě%%": 3861,
      "Ġěęĝ": 3862,
      "ĠěĘ\"": 3863,
      "ĠěĜ%": 3864,
      "Ġěĝě": 3865,
      "Ġě&ě": 3866,
      "Ġě$ě": 3867,
      "Ġ%*": 3868,
      "Ġ%+": 3869,
      "Ġ%ė": 3870,
      "Ġ%Ĝ#": 3871,
      "Ġ%$#": 3872,
      "Ġ%Ě!": 3873,
      "Ġ%%ĝ": 3874,
      "Ġ%\"#": 3875,
      "Ġ%Ĝ$": 3876,
      "Ġ%&#": 3877,
      "Ġ%&ĝ": 3878,
      "Ġ%ĚĜ": 3879,
      "Ġ%\"%": 3880,
      "Ġ%ę#": 3881,
      "Ġ%'#": 3882,
      "Ġ%$ě": 3883,
      "Ġ%)#": 3884,
      "Ġ%(Ĝ": 3885,
      "Ġğ!Ę": 3886,
      "Ġ!ğ'": 3887,
      "Ġ&ĝ\"": 3888,
      "Ġ&ě\"": 3889,
      "Ġ&%\"": 3890,
      "Ġ&ěĝ": 3891,
      "Ġ&Ě!": 3892,
      "Ġ&ĜĜ": 3893,
      "Ġ&ęğ": 3894,
      "Ġ&'ğ": 3895,
      "Ġ&\"$": 3896,
      "Ġ&'\"": 3897,
      "Ġ&&ĝ": 3898,
      "Ġ&\"Ĝ": 3899,
      "Ġ&(ğ": 3900,
      "Ġ&#ě": 3901,
      "Ġ&!ě": 3902,
      "Ġ&\"ě": 3903,
      "Ġ&ĞĚ": 3904,
      "Ġ&#Ě": 3905,
      "ĠĚĀĀ": 3906,
      "ĠĚ$Ğ": 3907,
      "ĠĚ#\"": 3908,
      "ĠĚ%ğ": 3909,
      "ĠĚ$#": 3910,
      "ĠĚĝĝ": 3911,
      "ĠĚĚ\"": 3912,
      "ĠĚě#": 3913,
      "ĠĚę\"": 3914,
      "ĠĚę$": 3915,
      "ĠĚ!&": 3916,
      "Ġ\"!'": 3917,
      "Ġ!\"(": 3918,
      "Ġ'ę": 3919,
      "Ġ'Ě": 3920,
      "Ġ'$!": 3921,
      "Ġ'Ĝĝ": 3922,
      "Ġ'$ĝ": 3923,
      "Ġ'Ě\"": 3924,
      "Ġ'ěĝ": 3925,
      "Ġ'Ě!": 3926,
      "Ġ'ğ#": 3927,
      "Ġ'!#": 3928,
      "Ġ'!ĝ": 3929,
      "Ġ'%$": 3930,
      "Ġ'#ĝ": 3931,
      "Ġ'ĝĜ": 3932,
      "Ġ'\"%": 3933,
      "Ġ'ğĝ": 3934,
      "Ġ'ğ$": 3935,
      "Ġ'ĞĜ": 3936,
      "Ġ'ğ%": 3937,
      "Ġ'!%": 3938,
      "Ġ'ğě": 3939,
      "Ġ'!ě": 3940,
      "Ġ'&ě": 3941,
      "Ġ'Ğę": 3942,
      "Ġ\"ğė": 3943,
      "ĠęĘ": 3944,
      "ĠęĚ": 3945,
      "ĠęĀĀ": 3946,
      "Ġę#ğ": 3947,
      "ĠęĜğ": 3948,
      "Ġę$\"": 3949,
      "Ġęě!": 3950,
      "Ġę$#": 3951,
      "ĠęĜĝ": 3952,
      "Ġę\"ğ": 3953,
      "Ġę&ĝ": 3954,
      "Ġę#Ĝ": 3955,
      "ĠęĞ$": 3956,
      "ĠęĞ%": 3957,
      "Ġęğ%": 3958,
      "Ġę!%": 3959,
      "ĠęĜ%": 3960,
      "Ġę#%": 3961,
      "Ġę)ğ": 3962,
      "Ġę$ě": 3963,
      "ĠĞ!)": 3964,
      "Ġğ\"'": 3965,
      "Ġ(#ğ": 3966,
      "Ġ($ğ": 3967,
      "Ġ($!": 3968,
      "Ġ(Ĝğ": 3969,
      "Ġ(ĝğ": 3970,
      "Ġ($Ğ": 3971,
      "Ġ(ě\"": 3972,
      "Ġ(!ğ": 3973,
      "Ġ(%\"": 3974,
      "Ġ(ĞĞ": 3975,
      "Ġ(Ěğ": 3976,
      "Ġ(Ğĝ": 3977,
      "Ġ(!#": 3978,
      "Ġ(\"#": 3979,
      "Ġ(#ĝ": 3980,
      "Ġ(#$": 3981,
      "Ġ(ğĝ": 3982,
      "Ġ(Ğ%": 3983,
      "Ġ(ĞĜ": 3984,
      "Ġ(#ě": 3985,
      "Ġ(ğĚ": 3986,
      "ĠĘĜğ": 3987,
      "ĠĘĜ\"": 3988,
      "ĠĘĜĞ": 3989,
      "ĠĘ!ğ": 3990,
      "ĠĘ\"ğ": 3991,
      "ĠĘ%Ğ": 3992,
      "ĠĘ\"Ğ": 3993,
      "ĠĘ\"$": 3994,
      "ĠĘ%%": 3995,
      "ĠĘğ$": 3996,
      "ĠĘ$Ĝ": 3997,
      "ĠĘĞ&": 3998,
      "Ā!\"": 3999,
      "Ā!$ĝ": 4000,
      "Ā!ğĜ": 4001,
      "ĠĞĞ'": 4002,
      "ĀğĞ": 4003,
      "ĀğĝĞ": 4004,
      "Āğ\"ğ": 4005,
      "Ā\"ğğ": 4006,
      "Ā\"!!": 4007,
      "Ā\"\"ğ": 4008,
      "Ā\"!ĝ": 4009,
      "Ġ\"Ğ'": 4010,
      "Ġ\"Ğ(": 4011,
      "Ġ\"ĞĘ": 4012,
      "Ġ#!&": 4013,
      "Ġ#!Ę": 4014,
      "ĀĞğ": 4015,
      "ĀĞ\"ğ": 4016,
      "ĀĞ##": 4017,
      "Āĝ!\"": 4018,
      "Ġĝğę": 4019,
      "Ġğĝ(": 4020,
      "Ġ)'": 4021,
      "Ġ)ě": 4022,
      "Ġ)Ğ\"": 4023,
      "Ġ)$#": 4024,
      "Ġ)ĝĜ": 4025,
      "Ġ)\"Ĝ": 4026,
      "Ġ)ğĜ": 4027,
      "Ġ#ğ%": 4028,
      "Ġ#ğ&": 4029,
      "Ġė'": 4030,
      "Ġė$ğ": 4031,
      "Ġė$\"": 4032,
      "Ġė#\"": 4033,
      "ĠėĞ!": 4034,
      "Ġėğğ": 4035,
      "Ġė\"\"": 4036,
      "Ġė&!": 4037,
      "#!$": 4038,
      "#!&": 4039,
      "#!(": 4040,
      "#!Ğ": 4041,
      "Ā$ĝĞ": 4042,
      "Ā$ĝě": 4043,
      "Ā#Ğ": 4044,
      "ĠĞĝ'": 4045,
      "Ġ*!": 4046,
      "Ġ*,": 4047,
      "Ġ*$ğ": 4048,
      "Ġ*$Ğ": 4049,
      "Ġ*Ğ\"": 4050,
      "Ġ*!ĝ": 4051,
      "Āě\"\"": 4052,
      "ĠĖ#": 4053,
      "ĠĖ$": 4054,
      "ĠĖĞğ": 4055,
      "ĠĖğ!": 4056,
      "ĠĖĚ!": 4057,
      "Ā%Ĝ%": 4058,
      "Ġ#Ğ%": 4059,
      "$ğĝ": 4060,
      "$!%ĀĀ": 4061,
      "Ā&$ğ": 4062,
      "Ĝğ'": 4063,
      "Ġ$ğĘ": 4064,
      "Ĝ\"$": 4065,
      "Ĝ\"'": 4066,
      "Ġ+!": 4067,
      "Ġ+\"": 4068,
      "Ġ+%": 4069,
      "Ġ+\"Ĝ": 4070,
      "$\"Ğ": 4071,
      "ĠĜ!Ĝ": 4072,
      "ĝ!$": 4073,
      "#\"\"": 4074,
      "Ġĕ\"": 4075,
      "Ġĕğ": 4076,
      "Ğ!\"": 4077,
      "ĀĀ&Ā(": 4078,
      "#Ğ#": 4079,
      "ěğ!": 4080,
      "$ĀĀď": 4081,
      "ĝ\"%": 4082,
      "#ĀĀĎ": 4083,
      "#ĀĀĖ": 4084,
      "Ğ\"!": 4085,
      "ğğ!": 4086,
      "ğğĞ": 4087,
      "ĠĀĀ,": 4088,
      "ĠĀĀ/": 4089,
      "%!ĀĀ": 4090,
      "%ĀĀĆ": 4091,
      "%ĀĀē": 4092,
      "ě\"$": 4093,
      "%ğ#": 4094,
      "ĠĞ#ė": 4095
    },
    "merges": [
      "Ġ Ġ",
      "Ġ !",
      "Ġ ğ",
      "ĠĠ ĠĠ",
      "Ġ \"",
      "Ġ Ğ",
      "ĠĠ Ġ",
      "Ā Ā",
      "Ġ ĝ",
      "Ġ #",
      "Ġ $",
      "ĠĠĠĠ Ġ",
      "Ġ Ĝ",
      "Ġ! !",
      "Ġğ ğ",
      "Ġ ě",
      "Ġ %",
      "ĠĠĠĠ ĠĠĠĠ",
      "Ġğ !",
      "Ġ! ğ",
      "Ġ &",
      "Ġ Ě",
      "Ġ\" !",
      "Ġğ Ğ",
      "ĠĞ ğ",
      "Ġ! \"",
      "Ġ '",
      "Ġ\" ğ",
      "Ġ ę",
      "ĠĞ !",
      "Ġğ \"",
      "Ġ! Ğ",
      "ĠĠĠĠ ĠĠ",
      "Ġ (",
      "Ġ Ę",
      "Ġ\" \"",
      "Ā !",
      "ĠĞ Ğ",
      "Ā ğ",
      "ĠĞ \"",
      "ĀĀ ğ",
      "Ā \"",
      "Ġ\" Ğ",
      "Ġ# !",
      "Ā Ğ",
      "Ā ĝ",
      "ĀĀ Ğ",
      "Ġĝ ğ",
      "# ğ",
      "Ġğ ĝ",
      "Ġĝ !",
      "ĀĀ !",
      "Ġ )",
      "Ġ# ğ",
      "Ġ! ĝ",
      "Ġ ė",
      "# !",
      "ĀĀ ĝ",
      "ĀĀ \"",
      "Ā Ĝ",
      "Ġ!! ğ",
      "Ā $",
      "Ā #",
      "Ġğğ !",
      "ĠĠĠĠ ĠĠĠ",
      "Ġ! #",
      "Ġğ! !",
      "Ġ!ğ ğ",
      "ĠĞ ĝ",
      "Ġ# \"",
      "Ġĝ Ğ",
      "Ġğ #",
      "Ġ *",
      "ĀĀ Ĝ",
      "Ġğ! ğ",
      "ĀĀ #",
      "Ġ!! !",
      "Ā ě",
      "Ġ Ė",
      "Ġğğ ğ",
      "ĠĠĠĠĠĠĠĠ ĠĠĠ",
      "Ā %",
      "Ġĝ \"",
      "Ġ# Ğ",
      "Ġ!ğ !",
      "Ġ\" ĝ",
      "$ ğ",
      "Ĝ !",
      "$ !",
      "ĀĀ $",
      "ĀĀ ě",
      "ĠĠĠĠĠĠĠĠ ĠĠĠĠ",
      "Ā &",
      "Ġ\" #",
      "Ĝ ğ",
      "Ā Ě",
      "ĠĜ ğ",
      "Ġ$ ğ",
      "ĝ ğ",
      "Ġ$ !",
      "Ĝ \"",
      "Ġ +",
      "ĀĀ %",
      "$ Ğ",
      "$ \"",
      "ĠĜ !",
      "ĝ !",
      "ĀĀ Ě",
      "# \"",
      "Ğ ğ",
      "Ġ$ \"",
      "Ġ ĕ",
      "Ĝ Ğ",
      "Ā ę",
      "ĠĠĠĠĠĠĠĠ ĠĠ",
      "Ğ !",
      "ĀĀ &",
      "# Ğ",
      "Ā '",
      "ě ğ",
      "Ġ\"! ğ",
      "$ ĀĀ",
      "ĝ \"",
      "ĠĜ \"",
      "# ĀĀ",
      "ĝ Ğ",
      "ĠĞğ !",
      "Ğ \"",
      "ğ ğ",
      "Ġ!! Ğ",
      "Ġ ĀĀ",
      "% !",
      "ě !",
      "Ġğğ \"",
      "% ĀĀ",
      "ě \"",
      "% ğ",
      "Ġ!ğ Ğ",
      "Ā Ę",
      "Ġ!\" ğ",
      "Ġ\"ğ ğ",
      "! ğ",
      "Ġğ! \"",
      "ĠĞ #",
      "! !",
      "& ĀĀ",
      "' ĀĀ",
      "Ĝ #",
      "ĠğĞ !",
      "$ #",
      "Ĝ ĝ",
      "Ġ ,",
      "\" \"",
      "Ġğ\" !",
      "% \"",
      "ĠğĞ ğ",
      "Ġ Ĕ",
      "ĠĞ! !",
      "ĠĠĠĠĠĠĠĠ ĠĠĠĠĠĠĠĠ",
      "\" ğ",
      "Ġ!Ğ ğ",
      "ĝ #",
      "Ġ!\" !",
      "ğ !",
      "Ğ Ğ",
      "$ ĝ",
      "% Ğ",
      "\" !",
      "# #",
      "Ā (",
      "ğ Ğ",
      "Ġ\"! !",
      "Ā ė",
      "Ě ğ",
      "ě Ğ",
      "ĝ ĝ",
      "! Ğ",
      "( ĀĀ",
      "Ġ!Ğ !",
      ") ĀĀ",
      "Ġğğ Ğ",
      "Ġ!! \"",
      "Ġğ\" ğ",
      "! \"",
      "ĠĞ! ğ",
      "\" Ğ",
      "Ġğ Ĝ",
      "ĠĜ Ğ",
      "ĠĞğ ğ",
      "& !",
      "Ġ# #",
      "Ě \"",
      "Ġ! Ĝ",
      "ě ĝ",
      "Ě !",
      "Ġ\"\" ğ",
      "Ġ\"ğ !",
      "* ĀĀ",
      "Ā )",
      "ğ \"",
      "Ġ -",
      "Ġğ! Ğ",
      "Ġ# ĝ",
      "$ $",
      "Ġ!ğ \"",
      "ĠĞğ \"",
      "% #",
      "Ġ\"! Ğ",
      "ĠĞĞ !",
      "Ġĝ ĝ",
      "& ğ",
      "Ğ ĝ",
      "ě #",
      "ğ #",
      "! #",
      "Ĝ Ĝ",
      "ĀĀ '",
      "% ĝ",
      "Ġ Ā",
      "Ġĝ #",
      "! ĝ",
      "\" #",
      "ĀĀ ę",
      "ĠĞ! \"",
      "ĠĠĠĠ ĠĠĠĠĠ",
      "Ġ\"ğ Ğ",
      "Ġ! $",
      "ĀĀğ Ā",
      "% $",
      "& \"",
      "ĀĀ Ę",
      "ĀĀĞ Ā",
      "ĀĀ\" Ā",
      "Ġ\" $",
      "ĠĞ\" !",
      "ę ğ",
      "ĀĀ (",
      "Ě Ğ",
      "ĠĞ Ĝ",
      "\" ĝ",
      "Ğ #",
      "Ġ#! ğ",
      "Ġĝğ !",
      "ě $",
      "ĠĠĠĠĠĠĠĠ ĠĠĠĠĠ",
      "Ġğ $",
      "Ġ ē",
      "Ġ!\" Ğ",
      "Ě #",
      "Ġğ\" \"",
      "Ĝ $",
      "& Ğ",
      "' !",
      "Ě ĝ",
      "Ġ!Ğ Ğ",
      "# ĝ",
      "ĠğĞ \"",
      "ĠĞĞ ğ",
      "Ġ\"Ğ ğ",
      "' ğ",
      "Ġ$ Ğ",
      "ĀĀĝ Ā",
      "Ġ% ğ",
      "Ġ .",
      "# $",
      "ĠĞ $",
      "ě Ĝ",
      "Ġ!! ĝ",
      "ę !",
      "ĀĀ ė",
      "Ġĝ! !",
      "Ġ#ğ ğ",
      "ĀĀ! Ā",
      "ĝ Ĝ",
      "\" $",
      "ę Ğ",
      "ě ě",
      "ĝ $",
      "Ġě !",
      "ĠĞ\" ğ",
      "ĀĀ )",
      "Ġ\"\" !",
      "Ġğğ #",
      "' \"",
      "Ġ! #ğ",
      "Ġ!ğ ĝ",
      "& #",
      "Ġğĝ !",
      "ę \"",
      "Ġğ! #",
      "Ġğ\" Ğ",
      "Ġ!\" \"",
      "& $",
      "& ĝ",
      "# Ĝ",
      "Ġě ğ",
      "Ġ% !",
      "Ě Ĝ",
      "Ġ\" Ĝ",
      "ĀĀ Ė",
      "ĠğĞ Ğ",
      "Ġ\"Ğ !",
      "Ġě Ğ",
      "Ġ#! !",
      "Ġĝğ ğ",
      "Ġ Ē",
      "% Ĝ",
      "ĀĀ# Ā",
      "ĠĜ ĝ",
      "\" %",
      "ę #",
      "Ġ!Ğ \"",
      "ĠĝĞ !",
      "' Ğ",
      "ĀĀ ĕ",
      "Ġ\"! ĝ",
      "ĠĞĞ \"",
      "Ġ#! Ğ",
      "Ġğĝ ğ",
      "% %",
      "\" Ĝ",
      "ę ĝ",
      "ğ ĝ",
      "Ġ# $",
      "Ġ\"\" Ğ",
      "ĠĞĝ !",
      "ĀĀĜ Ā",
      "ğ Ĝ",
      "Ġ#\" ğ",
      "! $",
      "ĠĞ! Ğ",
      "Ġ\"Ğ Ğ",
      "Ġ!ĝ !",
      "( !",
      "Ę Ğ",
      "Ġğ ě",
      "Ę ĝ",
      "Ġĝ $",
      "Ġ$ ĝ",
      "ĠĞğ Ğ",
      "Ġ\"! \"",
      "' #",
      "+ ĀĀ",
      "Ę !",
      "Ę ğ",
      "Ġ /",
      "Ġ\" #ğ",
      "Ġ$ #",
      "ĠğĞ #",
      "Ġ\"ğ \"",
      "Ġĝğ \"",
      "ĀĀě Ā",
      "Ğ $",
      "( ğ",
      "Ġğğ ĝ",
      "( \"",
      "Ġĝ Ĝ",
      "ĀĀ +",
      "Ġ% Ğ",
      "& &",
      "ğ $",
      "Ġğ #ğ",
      "ĠĞğ #",
      "Ġĝ! ğ",
      "Ġ Ā!",
      "Ġ# Ĝ",
      "ĠĠĠĠĠĠĠĠ ĠĠĠĠĠĠĠ",
      "Ġ!# Ğ",
      "' $",
      "Ę \"",
      "Ġ#ğ Ğ",
      "Ġ!ĝ ğ",
      "! Ĝ",
      "ę Ĝ",
      "ě %",
      "Ġ ĀĞ",
      "Ġ! #!",
      "ĀĀ *",
      "ĠĞ\" \"",
      "Ġ! %",
      "ĠĞ! #",
      "Ġ!! #",
      "ĀĀğ Āğ",
      "Ġĝ! \"",
      "$ %",
      "Ě %",
      "ĠĠĠĠĠĠĠĠ ĠĠĠĠĠĠĠĠĠĠ",
      "Ġğ\" #",
      "Ġ#ğ !",
      "ė Ğ",
      "Ğ %",
      "Ġ Āğ",
      "Ġ!ğ #",
      "Ġ\"ğ ĝ",
      "ĀĀğ ĀĞ",
      "Ğ Ĝ",
      "ĀĀ! Ā!",
      "& Ĝ",
      "Ġğ %",
      "ĀĀ -",
      "( #",
      "ğ %",
      "ĠĜ #",
      "ĀĀğ Ā!",
      "! %",
      "ę ě",
      "Ġğ! ĝ",
      "Ġğ #!",
      "Ġĝ\" !",
      "ě Ě",
      "Ġ Ā\"",
      "ĀĀğ Ā\"",
      "Ĝ %",
      "Ġ\" #!",
      "ĠĞ #!",
      "Ġ$ $",
      "Ġě \"",
      "ĀĀ% Ā",
      "ė !",
      "ĀĀĞ Ā!",
      "Ġğĝ \"",
      "ĀĀ$ Ā",
      "& %",
      "Ę Ĝ",
      "Ě $",
      "ĝ %",
      "ĝ ě",
      "Ġ đ",
      "Ġ!! Ĝ",
      "# %",
      "ę $",
      "Ĝ ě",
      "ğ ě",
      "Ġ\" ě",
      "ĀĀ Ĕ",
      "Ġ!\" ĝ",
      "ĀĀ! Āğ",
      ") ğ",
      "ĀĀ .",
      "Ġ!Ğ ĝ",
      "Ġ\"\" ĝ",
      "ĀĀĝ Ā!",
      "ĠĞĝ ğ",
      "Ġğ# \"",
      ") !",
      "Ġ# #ğ",
      "ĀĀ! Ā\"",
      "Ě ě",
      "Ġ\" %",
      "ĀĀ ,",
      "ĀĀĞ Ā\"",
      "ĀĀĝ Āğ",
      "Ġ!# \"",
      "Ġ#\" !",
      "ĠĝĞ ğ",
      "ĀĀĜ Ā!",
      "# ě",
      "' &",
      "( Ğ",
      "Ġ! ě",
      "Ġ#! ĝ",
      "ĀĀĞ Āğ",
      "ĀĀğ Āĝ",
      "ĀĀğ ĀĜ",
      "( $",
      "Ġ Āĝ",
      "Ġ!ğ Ĝ",
      "ĠĝĞ \"",
      "Ġ\"# Ğ",
      "( ĝ",
      "ė \"",
      "ĀĀ /",
      "ĠĠĠĠĠĠĠĠ ĠĠĠĠĠĠĠĠĠĠĠĠ",
      "Ġğĝ Ğ",
      "ĀĀ& Ā",
      "Ě &",
      "Ġ% \"",
      "Ġ\"\" \"",
      "ĀĀĞ Āĝ",
      "Ġğ# Ğ",
      "Ġ\"ĝ ğ",
      "ĀĀĚ Ā",
      "! ě",
      "$ Ĝ",
      "& ě",
      "' ĝ",
      ") \"",
      "ė ĝ",
      "ę %",
      "Ġ 0",
      "ĀĀ Ē",
      "ĠĞĞ Ğ",
      "Ġ!ĝ Ğ",
      "Ġ$ğ ğ",
      "ė ğ",
      "ĀĀ ē",
      "Ġě ĝ",
      "Ġ#Ğ Ğ",
      "Ġ#Ğ ğ",
      "ĠĜ! !",
      "# &",
      "ĠĞ %",
      "ĀĀĝ Ā\"",
      "ĀĀĝ Āĝ",
      "( %",
      "Ğ ě",
      "\" &",
      "Ę $",
      "ĠĞ ě",
      "ĠĠĠĠĠĠĠĠ ĠĠĠĠĠĠĠĠĠĠĠ",
      "ĀĀ! ĀĞ",
      "Ġ#\" Ğ",
      "Ġ\"ĝ !",
      "Ġ$! ğ",
      "Ę #",
      "Ġĝ #!",
      "Ġĝ ĝğ",
      "ĠĞ\" Ğ",
      "ĠĜğ !",
      "! &",
      "Ġĝ ĝ!",
      "ĠğĞ ĝ",
      "ĀĀ\" Āğ",
      "ĀĀ\" Āĝ",
      "$ &",
      "ĠĜ Ĝ",
      "Ġğğ $",
      "Ġ Āě",
      "Ġ$ Ğğ",
      "Ġ!\" #",
      "Ġ!Ğ #",
      "ĠĞĞ #",
      "ĠĞ\" #",
      "Ġ\"Ğ \"",
      "Ġ!ĝ \"",
      "Ġĝ\" ğ",
      "ĠĜğ \"",
      "' %",
      "' Ĝ",
      "Ġ# %",
      "Ġ\"Ğ ĝ",
      "ĀĀ! Āĝ",
      "' '",
      "* !",
      "Ğ &",
      "ĠĞ! $",
      "\" ě",
      "Ā Ė",
      "ė Ĝ",
      "Ġğ! $",
      "Ġ#! \"",
      "ĀĀĞ ĀĞ",
      "\" Ě",
      "Ā ,",
      "Ė Ğ",
      "Ğ Ě",
      "ğ Ě",
      "ĠĞ #\"",
      "ĀĀ! ĀĜ",
      "ĠĞĝ \"",
      "Ę ě",
      "Ĝ Ě",
      "Ġ! $ğ",
      "Ġğ $ğ",
      "ĠĞ! ĝ",
      "* \"",
      "Ġ Đ",
      "ĠĞ #ğ",
      "ĠĚ ğ",
      "Ġ\"! Ĝ",
      "Ġ$\" ğ",
      "$ ě",
      "ĝ &",
      "Ġĝ ě",
      "Ġ% #",
      "Ġğ\" ĝ",
      "Ġ#Ğ !",
      "Ā +",
      "Ė !",
      "ę Ě",
      "Ġĝğ #",
      "ĀĀ\" Ā!",
      "Ġ#Ğ ĝ",
      "Ġ$! !",
      "Ġğ $!",
      "ĀĀĞ Āě",
      "ĀĀ! Ā$",
      "ĀĀ\" Ā\"",
      "ĀĀ\" ĀĞ",
      "Ġ\"ĝ \"",
      "Ġ\"ĝ Ğ",
      ", ĀĀ",
      "Ā *",
      "ğ '",
      "Ġ Ā$",
      "Ġ\" $ğ",
      "ĠĞğ $",
      "Ġ\"ğ #",
      "Ġ!# ĝ",
      "Ġĝ\" \"",
      "Ė ě",
      "ĠĜ Ğ!",
      "Ġ& !",
      "Ġ\"! #",
      "ĀĀğ Āě",
      "ĀĀĞ Ā#",
      "( '",
      "Ė ĝ",
      "ę &",
      "Ġĝ #\"",
      "Ġ\"ğ Ĝ",
      "Ġ#ğ Ĝ",
      "Ġ!ĝ ĝ",
      "ĀĀ\" ĀĜ",
      "ĀĀ# Ā\"",
      ") #",
      "ĕ Ğ",
      "Ġ! Ĝ!",
      "ĀĀ đ",
      "Ġĝ ĝ\"",
      "Ġ# ě",
      "Ġ$ Ĝ",
      "ĠĞğ ĝ",
      "ĀĀĝ ĀĜ",
      "Ġ\"# ĝ",
      "Ġ$ğ Ğ",
      "ĠĜ! \"",
      "# Ě",
      "% &",
      ") $",
      "Ė ğ",
      "Ġğ Ĝğ",
      "Ġ# #!",
      "Ġ!! $",
      "Ġ% ĝ",
      "Ġ!ğ $",
      "ĠĞ\" ĝ",
      "Ġĝğ Ğ",
      "Ġĝ! $",
      "Ġ!ĝ #",
      "Ġ$! Ğ",
      "ĠĜ! ğ",
      "\" '",
      "Ġ ĀĜ",
      "Ġ! Ě",
      "Ġ! Ĝğ",
      "Ġğ Ĝ\"",
      "ĀĀğ Ā$",
      "ĀĀĝ ĀĞ",
      "Ġğ# #",
      "ĠĜ\" !",
      "% ě",
      ") Ğ",
      "* #",
      "Ġğ $Ğ",
      "Ġ\" Ĝ!",
      "Ġ# $!",
      "Ġğğ Ĝ",
      "ĀĀ# Āĝ",
      "ě &",
      "Ğ ę",
      "Ġ! &",
      "Ġğ Ě",
      "Ġě #",
      "ĀĀğ Ā%",
      "ĀĀĞ Ā%",
      "Ġĝ! Ğ",
      "Ġĝ\" #",
      "Ġ$\" !",
      ") &",
      "ė Ě",
      "Ĝ ę",
      "ğ &",
      "Ġ Ā#",
      "Ġ! $!",
      "Ġğ Ĝ!",
      "Ġĝ! #",
      "Ġ#ğ ĝ",
      "ĀĀĜ Āĝ",
      "ĠĜğ ğ",
      "Ġ$\" Ğ",
      "! Ě",
      "* $",
      "+ !",
      "ĕ ĝ",
      "ę ę",
      "Ĝ &",
      "Ġğ $\"",
      "Ġ\" Ě",
      "ĀĀğ Ā#",
      "Ġ\"Ğ #",
      "Ġğĝ #",
      "ĀĀ! Ā%",
      "Ġ#ğ \"",
      "ĀĀ# Ā!",
      "Ġ\"ĝ ĝ",
      "Ġ\"# \"",
      "ĠĠĠĠĠĠĠĠĠĠĠĠĠĠĠĠ ĠĠĠĠĠĠĠĠĠĠĠĠĠĠĠĠ",
      "ĕ Ĝ",
      "Ė \"",
      "Ė Ĝ",
      "ĝ Ě",
      "Ġ! '",
      "Ġ\" $Ğ",
      "ĠĞ Ĝ!",
      "ĠĞ $!",
      "Ġĝ #ğ",
      "Ġ# ĝ!",
      "Ġ& ğ",
      "Ġğ\" $",
      "Ġ\"\" #",
      "ĀĀğ ĀĚ",
      "ĠĝĞ Ğ",
      "ĀĀě Ā!",
      "ĠĜ\" ğ",
      "# (",
      "( &",
      ") %",
      "ė ě",
      "ě ę",
      "ĠĞ Ĝğ",
      "ĠĜ $",
      "Ġğ! Ĝ",
      "ĠğĞ $",
      "ĀĀ! Ā#",
      "ĀĀ! Āě",
      "ĀĀ\" Ā#",
      "ĠĝĞ #",
      "ĀĀĜ ĀĞ",
      "ĀĀ# Āğ",
      "ĀĀ# ĀĞ",
      "ĀĀĚ Ā!",
      "ĠĜ\" \"",
      "' ě",
      ") ĝ",
      "+ \"",
      "Ġğ &",
      "ĠĞ Ĝ\"",
      "ĠĞ #Ğ",
      "Ġĝ %",
      "Ġ# ĝğ",
      "Ġ# #Ğ",
      "Ġ$ %",
      "ĠĚ !",
      "Ġ#! #",
      "Ġ!# #",
      "ĠĞĝ Ğ",
      "Ġ#\" \"",
      "Ġ#\" ĝ",
      "Ġ#Ğ \"",
      "ĀĀě Āğ",
      "Ġ$ğ !",
      "( Ĝ",
      "ė #",
      "Ġ 1",
      "Ġ\" &",
      "ĠĜ Ğğ",
      "ĠĞĞ ĝ",
      "ĀĀĞ ĀĜ",
      "ĀĀĝ Ā#",
      "ĀĀĜ Āğ",
      "ĀĀ# Ā$",
      "ĀĀ$ Āĝ",
      "ĠĜğ #",
      "Ġ$! ĝ",
      "ĀĀĚ Āğ",
      "! '",
      ") )",
      "* Ğ",
      "Ę &",
      "Ę Ě",
      "Ġ% !ğ",
      "ĀĀĞ Ā$",
      "ĀĀĝ Ā$",
      "Ġğ# ĝ",
      "ĀĀ$ Ā\"",
      "ĀĀ% Āğ",
      "ĕ \"",
      "Ğ '",
      "Ġ! Ĝ\"",
      "Ġ! $Ğ",
      "Ġ! $\"",
      "Ġ\" $!",
      "Ġ$ #ğ",
      "Ġ$ Ğ!",
      "ĠĜ ĝğ",
      "ĠĜ Ğ\"",
      "Ġ!! ě",
      "ĠĠĠĠĠĠĠĠ ĠĠĠĠĠĠ",
      "Ġ\"ğ ě",
      "Ġ#! Ĝ",
      "Ġ!ĝ Ĝ",
      "ĀĀĝ Āě",
      "ĀĀĜ Ā\"",
      "ĀĀ$ Ā!",
      "ĀĀ$ ĀĞ",
      "ĀĀě Ā\"",
      "Ġ## ĝ",
      "' (",
      "' Ā",
      ") (",
      "Ę %",
      "ĠĞ $Ğ",
      "ĀĀ Đ",
      "Ġĝ ĝĞ",
      "Ġ# &",
      "Ġ# $ğ",
      "Ġ# #\"",
      "Ġě Ĝ",
      "Ġ% $",
      "Ġğ! %",
      "Ġ& \"",
      "Ġ\"! ě",
      "Ġ\"Ğ Ĝ",
      "Ġğĝ ĝ",
      "ĠĞĝ #",
      "Ġĝ\" Ğ",
      "Ĕ Ĝ",
      "ĕ ğ",
      "Ě ę",
      "ĝ ę",
      "Ġ 2",
      "Ġ$ ě",
      "Ġ$ #Ğ",
      "Ġę !",
      "ĀĀ\" Ā$",
      "ĀĀ\" ĀĚ",
      "ĀĀĜ ĀĜ",
      "Ġĝ\" $",
      "ĀĀě ĀĜ",
      "% '",
      ") '",
      "ĕ !",
      "Ę ę",
      "Ġ ĀĚ",
      "Ġ\" Ĝğ",
      "ĀĀ ď",
      "Ġ# ĝ\"",
      "ĠĜ ĝ!",
      "Ġě ğğ",
      "Ġ!\" Ĝ",
      "Ġ!Ğ Ĝ",
      "ĀĀĜ Ā#",
      "ĀĀ$ Āğ",
      "ĀĀ% Ā\"",
      "Ġ$\" ĝ",
      "ĀĀ& Āĝ",
      "ĠĞ# #",
      "ĀĀ( Ā",
      "# '",
      "% Ě",
      "& (",
      "* ğ",
      "Ě '",
      "ğ ę",
      "Ġ\" ĜĞ",
      "Ġ# ĝĞ",
      "Ġ$ $Ğ",
      "Ġ!ğ ě",
      "Ġ& $",
      "ĀĀĞ Ā&",
      "ĀĀ! ĀĚ",
      "ĀĀ# ĀĜ",
      "+ $",
      "Ė #",
      "ę ĀĀ",
      "Ě Ě",
      "Ĝ '",
      "Ġ ď",
      "Ġ Āę",
      "Ġĝ $!",
      "Ġ# $Ğ",
      "Ġ$ ĞĞ",
      "ĠĜ ě",
      "Ġě Ğğ",
      "ĠĚ \"",
      "ĠğĞ Ĝ",
      "Ġ' !",
      "Ġ!Ğ $",
      "ĀĀ# Ā#",
      "ĀĀ& Āğ",
      "* %",
      "* (",
      "Ĕ Ğ",
      "Ė Ě",
      "ė Ę",
      "ĝ ĀĀ",
      "ğ Ę",
      "Ġ Ā&",
      "Ġ! ěğ",
      "Ġğ Ĝĝ",
      "Ġ$ &",
      "Ġě $",
      "Ġě !!",
      "Ġ\"ğ $",
      "ĀĀğ Ā'",
      "Ġĝ! ĝ",
      "Ġ#\" #",
      "ĀĀĜ Ā$",
      "& '",
      "+ &",
      "Ā ĕ",
      "ě (",
      "ĝ '",
      "Ġ! %Ğ",
      "Ġğ ĜĞ",
      "Ġĝ Ĝ!",
      "Ġ# Ĝğ",
      "Ġ$ $ğ",
      "Ġě !ğ",
      "Ġ% \"ğ",
      "Ġ\"! $",
      "Ġę Ğ",
      "Ġĝğ ĝ",
      "ĀĀ\" Ā%",
      "ĀĀě ĀĞ",
      "Ġ$ğ ĝ",
      "$ '",
      "+ %",
      "+ ğ",
      "Ā .",
      "Ė $",
      "ė ę",
      "Ę ĀĀ",
      "Ġ Ā'",
      "Ġ! ě\"",
      "Ġ! $#",
      "Ġ! Ĝĝ",
      "Ġ\" Ĝ\"",
      "ĠĞ Ě",
      "Ġĝ Ĝğ",
      "ĠĜ Ĝ!",
      "ĠĜ ĝ\"",
      "ĠĚ Ğ",
      "Ġ!\" ě",
      "Ġ' \"",
      "Ġ\"\" Ĝ",
      "Ġ#\" Ĝ",
      "ĀĀě Ā$",
      "ĀĀě Ā#",
      "ĠĜ! Ğ",
      "ĀĀ& Ā!",
      "ĠĜ\" #",
      "ĠĞ# ĝ",
      "\" (",
      "' ę",
      "* '",
      "Ġ$ %ğ",
      "Ġğğ ě",
      "ĠĚ Ĝ",
      "Ġ!\" $",
      "ĠĞĞ $",
      "Ġ#ğ #",
      "ĀĀ\" Āě",
      "ĠĜğ Ğ",
      "Ġ$! \"",
      "ĀĀ% ĀĞ",
      "ĀĀ% Āĝ",
      "$ĀĀ ę",
      "! (",
      "! ĀĀ",
      "% (",
      "( ě",
      "Ā #!",
      "ė $",
      "ė ė",
      "ĝ Ę",
      "Ğ ĀĀ",
      "Ġğ %!",
      "Ġğ $#",
      "Ġ\" $\"",
      "ĠĞ $ğ",
      "Ġ# ĝĝ",
      "Ġ$ #!",
      "ĠĜ Ě",
      "Ġğğ %",
      "Ġğ\" Ĝ",
      "ĀĀĞ Āę",
      "ĀĀ! Āę",
      "Ġĝ\" ĝ",
      "ĀĀ$ ĀĜ",
      "ĀĀ$ Ā#",
      "Ġ$ğ \"",
      "ĀĀ% Ā!",
      "ĀĀĚ ĀĞ",
      "ĀĀę Ā",
      "$ Ě",
      ") Ĝ",
      "- ĀĀ",
      "ĕ #",
      "Ė ę",
      "ė %",
      "Ę '",
      "Ĝ Ę",
      "ĝ (",
      "Ġ Ď",
      "Ġ! ĜĞ",
      "Ġ! $ĝ",
      "Ġ\" ę",
      "Ġĝ #Ğ",
      "Ġĝ ##",
      "Ġ$ ĝğ",
      "Ġě ĝ!",
      "Ġě ğ\"",
      "Ġę ğ",
      "ĠĞ\" Ĝ",
      "ĀĀğ Āę",
      "ĀĀğ ĀĘ",
      "Ġ!# Ĝ",
      "ĀĀĜ Ā&",
      "Ġ#Ğ Ĝ",
      "ĀĀ$ Āě",
      "ĀĀ% Āě",
      "ĀĀĚ Āĝ",
      "ĀĀĚ Ā#",
      "\" ę",
      "\" ĀĀ",
      "* &",
      ". ĀĀ",
      "Ā #ğ",
      "ē ĝ",
      "ĕ ě",
      "Ě (",
      "Ğ (",
      "Ġ Ā%",
      "Ġğ Ĝ#",
      "Ġ\" %Ğ",
      "ĠĞ $#",
      "ĠĜ #ğ",
      "ĠĜ #!",
      "Ġ% Ĝ",
      "Ġ% Ğğ",
      "Ġ& ĝ",
      "ĠĞğ %",
      "ĠĞğ Ĝ",
      "ĀĀĝ Ā&",
      "ĠĞĝ ĝ",
      "ĀĀĜ Āě",
      "ĀĀě Āĝ",
      "Ġ\"# Ĝ",
      "ĀĀ% Ā#",
      "ĀĀ& Ā\"",
      "ĀĀ' Ā",
      "Ġ\"$ Ĝ",
      "Ġ%ğ ĝ",
      "! ę",
      "$ ę",
      ", #",
      "Ā Ĕ",
      "Ĕ ĝ",
      "ĕ Ě",
      "Ě ĀĀ",
      "Ġ! Ĝ#",
      "Ġğ ę",
      "ĠĞ $\"",
      "ĀĀ Ď",
      "Ġĝ Ě",
      "Ġ# ĜĞ",
      "Ġ# $ĝ",
      "Ġ$ #ĝ",
      "Ġ% Ğ!",
      "Ġ% ğĞ",
      "Ġ& Ĝ",
      "Ġ& Ğ",
      "ĠĞ! %",
      "Ġ!Ğ ě",
      "ĠĞ\" $",
      "Ġ\"Ğ ě",
      "ĀĀĞ ĀĘ",
      "Ġĝğ $",
      "ĀĀ! Ā'",
      "Ġ\"ĝ #",
      "ĠĜğ ĝ",
      "ĀĀ% Ā$",
      "% ę",
      "+ #",
      "ė &",
      "ė ĀĀ",
      "Ě Ę",
      "ě ĀĀ",
      "ĝ )",
      "Ğ Ę",
      "Ġğ %ğ",
      "Ġğ %Ğ",
      "Ġ\" ě!",
      "Ġ\" %ğ",
      "ĠĞ ě!",
      "Ġ$ $!",
      "Ġ$ ĝ!",
      "ĠĜ Ĝ\"",
      "Ġě ě",
      "Ġě \"\"",
      "Ġ% #Ğ",
      "Ġ% !!",
      "Ġ% \"Ğ",
      "Ġ% !ĝ",
      "ĠĚ #",
      "ĠĞ! Ĝ",
      "ĀĀğ Ā&",
      "ĀĀĝ Ā%",
      "ĀĀ\" Āę",
      "Ġğ# $",
      "ĀĀ# Āě",
      "ĀĀ# Āę",
      "ĀĀ$ Ā%",
      "ĀĀ$ Ā&",
      "ĀĀ$ ĀĚ",
      "ĀĀ% ĀĜ",
      "ĠĜ! #",
      "ĀĀ& ĀĞ",
      "ĠĠĠĠĠĠĠĠĠĠĠĠĠĠĠĠ ĠĠĠĠĠĠ",
      "Ġ#ĝ Ĝ",
      "\" *",
      "\" Ę",
      "$ (",
      "( Ě",
      "ē !",
      "Ĕ ě",
      "Ė %",
      "Ę Ę",
      "Ġğ ě!",
      "Ġ\" ěğ",
      "ĠĞ ě\"",
      "Ġĝ ĝĝ",
      "Ġ# Ĝ!",
      "Ġ$ Ğĝ",
      "ĠĜ %",
      "ĠĜ ĝĞ",
      "Ġ!! %",
      "Ġě ĝ\"",
      "Ġě ğ!",
      "Ġ% ğğ",
      "Ġ% !Ğ",
      "ĠĞĞ Ĝ",
      "ĀĀĞ ĀĚ",
      "Ġĝ! %",
      "ĀĀ# Ā&",
      "ĀĀ$ Āę",
      "ĀĀě Ā%",
      "ĀĀĚ Ā\"",
      "Ġ$\" \"",
      "ĀĀ& Ā#",
      "ĠĜĞ #",
      "ĠĠĠĠĠĠĠĠĠĠĠĠĠĠĠĠĠĠĠĠ ĠĠĠĠĠ",
      "' )",
      "* +",
      "* ĝ",
      "Ā -",
      "Ē ĝ",
      "Ę Ė",
      "Ġ! %ğ",
      "Ġğ $ĝ",
      "ĠĞ &",
      "ĠĞ ĜĞ",
      "ĠĞ Ěğ",
      "Ġĝ ĜĞ",
      "Ġ# '",
      "Ġ# ěğ",
      "Ġ# %!",
      "ĠĜ ĝ#",
      "Ġğğ &",
      "Ġě !\"",
      "Ġě !#",
      "ĠĚ ĝ",
      "Ġę #",
      "ĠĘ !",
      "ĀĀğ Āė",
      "Ġğĝ Ĝ",
      "ĀĀĝ ĀĚ",
      "ĀĀ\" ĀĘ",
      "Ġğ# Ĝ",
      "ĀĀ# ĀĘ",
      "ĠĠĠĠĠĠĠĠĠĠĠĠ ĠĠĠĠĠ",
      "ĀĀĚ Ā%",
      "&ĀĀ Ę",
      "+ '",
      "Ĕ #",
      "ĕ $",
      "ę Ė",
      "Ĝ Ė",
      "Ĝ ė",
      "ğ (",
      "Ġğ ě\"",
      "Ġ\" '",
      "Ġ\" Ĝĝ",
      "Ġ\" $ĝ",
      "Ġĝ &",
      "Ġĝ $ğ",
      "Ġĝ Ĝ\"",
      "Ġĝ $\"",
      "Ġĝ ě\"",
      "Ġĝ Ĝ#",
      "ĠĜ ĞĞ",
      "Ġě #ğ",
      "Ġě Ğ!",
      "Ġě ĝ#",
      "Ġ% ğ!",
      "Ġğ! ě",
      "ĠĚ Ğğ",
      "ĠĚ Ğ!",
      "ĠğĞ %",
      "Ġ' Ğ",
      "Ġ\"\" $",
      "Ġğĝ $",
      "Ġĝ! Ĝ",
      "ĀĀ! ĀĘ",
      "ĀĀĝ Ā'",
      "ĀĀĝ ĀĘ",
      "ĀĀĜ Ā%",
      "ĀĀĜ ĀĚ",
      "ĀĀ% ĀĚ",
      "ĀĀĚ Ā$",
      "ĀĀ& ĀĜ",
      "#ĀĀ )",
      "ĀĀę Ā!",
      "! ė",
      ", \"",
      "Ĕ !",
      "Ĕ \"",
      "ĕ Ę",
      "ě '",
      "ĝ Ė",
      "Ġ ĀĘ",
      "Ġ Ā(",
      "Ġ! %\"",
      "Ġğ '",
      "Ġğ %\"",
      "ĠĞ '",
      "ĠĞ ěğ",
      "ĠĞ %ğ",
      "ĠĜ #\"",
      "ĠĜ ĝĝ",
      "Ġě Ĝ!",
      "Ġě Ğ\"",
      "Ġě \"ğ",
      "Ġ% $ğ",
      "Ġ% Ĝ!",
      "Ġ% ĝğ",
      "Ġ% $Ğ",
      "Ġ% Ğĝ",
      "Ġ( \"",
      "ĠĞĞ %",
      "ĀĀğ Ā(",
      "Ġ\"Ğ $",
      "Ġ#! ě",
      "ĀĀĞ Ā'",
      "ĀĀĞ Āė",
      "Ġĝğ Ĝ",
      "ĀĀ! Ā&",
      "Ġ!ĝ ě",
      "ĀĀ\" Ā&",
      "ĀĀ\" Ā'",
      "Ġ!# $",
      "ĠĝĞ ĝ",
      "ĠĜğ $",
      "Ġ$\" #",
      "ĠĜ\" ĝ",
      "%ĀĀ Ę",
      "ĠĞ# $",
      "ĠĜĞ ĝ",
      "ĀĀĘ Ā",
      "\" )",
      "# ĕ",
      ", !",
      ", ğ",
      "Ĕ ğ",
      "Ė ė",
      "ė Ė",
      "Ę ė",
      "ę '",
      "Ğ )",
      "Ġ! ę",
      "Ġ! ěĝ",
      "Ġ! $$",
      "Ġ! &ğ",
      "Ġ! %ĝ",
      "Ġğ %$",
      "ĠĞ ěĞ",
      "ĀĀ :",
      "Ġĝ ę",
      "Ġ# Ě!",
      "Ġě Ĝ\"",
      "Ġğ! &",
      "Ġ!ğ Ě",
      "Ġ!\" %",
      "Ġ' #",
      "ĠĞ\" %",
      "ĀĀĞ Ā(",
      "Ġ#ğ ě",
      "ĠĝĞ Ĝ",
      "ĀĀĜ Ā'",
      "ĀĀ# Ā%",
      "Ġ\"ĝ $",
      "ĀĀ$ Ā$",
      "Ġ\"# #",
      "Ġ$ğ Ĝ",
      "ĀĀ% Ā&",
      "ĀĀĚ Ā&",
      "ĀĀ& Ā$",
      "ĠĀĀ )",
      "ĠĀĀ *",
      "ĠĜĞ $",
      "Ġ!Ĝ Ĝ",
      "\" +",
      "& Ě",
      ") ,",
      "+ Ĝ",
      ", $",
      ", (",
      "- \"",
      "Ę (",
      "Ğ *",
      "ğ +",
      "Ġ! %!",
      "Ġ! ě!",
      "Ġ\" (",
      "Ġ\" ěĞ",
      "Ġ\" ĜĜ",
      "ĠĞ Ĝ#",
      "Ġĝ %ğ",
      "Ġĝ Ěğ",
      "Ġ# Ĝ\"",
      "Ġ# %Ğ",
      "Ġ$ Ĝ!",
      "Ġ$ %!",
      "ĠĜ $!",
      "ĠĜ Ĝğ",
      "Ġě \"!",
      "Ġě ğ#",
      "Ġě \"ĝ",
      "Ġ% #ğ",
      "Ġ% #!",
      "Ġ% ĞĞ",
      "Ġ% #ĝ",
      "Ġ& ğğ",
      "ĠĚ Ğ\"",
      "Ġę ĝ",
      "Ġğ\" ě",
      "Ġ( !",
      "Ġ#! $",
      "ĀĀ! Āė",
      "ĀĀĝ Āę",
      "ĀĀ# ĀĚ",
      "Ġ#Ğ ě",
      "Ġ\"ĝ Ĝ",
      "ĀĀě Āě",
      "ĀĀě Ā&",
      "Ġ$ğ #",
      "Ġ$ğ ě",
      "Ġ$! Ĝ",
      "$ĀĀ ė",
      "ĠĜ\" Ğ",
      "#ĀĀ ę",
      "ĠĀĀ -",
      "%ĀĀ ę",
      "(ĀĀ (",
      "Ġĝĝ $",
      "ĀĀę Āğ",
      "Ġě! $",
      "# ę",
      "$ )",
      ") *",
      "* ě",
      "+ Ğ",
      "- %",
      "Ĕ ĀĀ",
      "ĕ '",
      "ĕ ĀĀ",
      "Ė Ę",
      "ě )",
      "ě Ę",
      "Ğ ė",
      "Ġ 4",
      "Ġ! Ě!",
      "Ġğ ěğ",
      "Ġğ ĚĞ",
      "Ġ\" %\"",
      "Ġ\" Ěğ",
      "ĠĞ ę",
      "ĠĞ Ĝĝ",
      "Ġĝ Ĝĝ",
      "Ġĝ ĝ#",
      "Ġ$ $\"",
      "Ġ$ ĝĞ",
      "Ġ$ Ğ\"",
      "Ġ$ #Ĝ",
      "ĠĜ #Ğ",
      "ĠĜ Ĝ#",
      "Ġě %",
      "Ġě ğĞ",
      "Ġě !Ğ",
      "Ġ% &",
      "ĠĚ ğ\"",
      "ĠĞ! ě",
      "Ġğ\" %",
      "Ġ\"\" ě",
      "Ġ!ĝ $",
      "ĠĞĝ Ĝ",
      "ĀĀĜ ĀĘ",
      "Ġĝ\" Ĝ",
      "Ġ#Ğ #",
      "ĀĀ$ ĀĘ",
      "ĀĀě ĀĚ",
      "ĀĀě Ā'",
      "ĀĀ% ĀĘ",
      "ĠĜ! ĝ",
      "ĀĀĚ Āě",
      "$ĀĀ )",
      "%ĀĀ ė",
      "&ĀĀ (",
      "ĠĠĠĠĠĠĠĠĠĠĠĠĠĠĠĠ ĠĠĠĠĠĠĠĠĠĠĠ",
      "ĠĠĠĠĠĠĠĠĠĠĠĠĠĠĠĠ ĠĠĠĠĠĠĠĠĠĠ",
      "ĀĀ' Āğ",
      "ĀĀ' Ā\"",
      "ĀĀĘ Āğ",
      "ĀĀ#Ā Ė",
      "! )",
      "! +",
      "\" ė",
      "# )",
      "$ Ę",
      "% Ę",
      "' +",
      "' Ě",
      "( (",
      "( )",
      "( ę",
      ") ě",
      "- Ğ",
      ". %",
      "ē Ĝ",
      "ē Ğ",
      "Ė ĀĀ",
      "ě ė",
      "Ġ! ěĞ",
      "Ġğ Ěĝ",
      "ĠĞ %ĝ",
      "Ġ# Ě",
      "Ġ# ĀĀ",
      "Ġ# $\"",
      "Ġ# $#",
      "Ġ# %\"",
      "Ġ# ĝ#",
      "Ġ$ Ě",
      "Ġ$ Ĝ\"",
      "Ġ$ #\"",
      "Ġ$ ĜĞ",
      "Ġ$ ĝ#",
      "Ġ$ ĝĝ",
      "ĠĜ &",
      "ĠĜ $ğ",
      "Ġě Ĝğ",
      "Ġě #Ğ",
      "Ġě \"#",
      "Ġ% $!",
      "Ġ% \"\"",
      "Ġ!ğ %",
      "Ġ& #",
      "Ġ& %",
      "Ġ& #ğ",
      "Ġ& ĝğ",
      "Ġ& \"ğ",
      "Ġ& \"Ğ",
      "ĠĚ $",
      "ĠĚ ĝğ",
      "Ġ\"! Ě",
      "Ġ' ğ",
      "Ġ!Ğ %",
      "ĠĘ ğ",
      "Ġğĝ ě",
      "ĀĀĝ Ā)",
      "ĀĀ\" Ā(",
      "Ġ!# ě",
      "ĠĞĝ ě",
      "ĠĜ! $",
      "ĀĀĚ Āę",
      "ĠĜ\" $",
      "ĠĀĀ (",
      "ĠĀĀ ę",
      "'ĀĀ ę",
      ")ĀĀ )",
      ")ĀĀ ę",
      "ĠğĜ ě",
      "ĀĀ( Ā!",
      "Ġ%ğ Ĝ",
      "ĠĞ$ Ĝ",
      "Ġ$# ě",
      "$ ,",
      "$ Ė",
      "* )",
      "* *",
      "+ +",
      ", %",
      ". ğ",
      "Ē !",
      "ĕ ė",
      "Ė &",
      "Ė (",
      "Ę ĕ",
      "Ě ė",
      "Ĝ (",
      "Ĝ ĀĀ",
      "ğ ė",
      "Ġ! Ě\"",
      "Ġğ $$",
      "Ġğ ě#",
      "Ġ\" $#",
      "Ġ\" &ğ",
      "Ġ\" %ĝ",
      "ĠĞ $ĝ",
      "Ġĝ $Ğ",
      "Ġĝ %!",
      "Ġ# ĜĜ",
      "Ġ$ Ĝĝ",
      "Ġ$ $ĝ",
      "Ġ$ ĝĜ",
      "ĠĜ ěğ",
      "ĠĜ ##",
      "ĠĜ ě#",
      "Ġě ĝĞ",
      "Ġ% ě",
      "Ġ% ĝĞ",
      "Ġ% \"!",
      "Ġ& &",
      "Ġ& $ğ",
      "Ġ& Ğ!",
      "Ġ& ğ!",
      "Ġ& \"!",
      "Ġ& ğĞ",
      "Ġ& !Ğ",
      "ĠĚ ğğ",
      "ĠğĞ ě",
      "Ġ' ĝ",
      "Ġę \"",
      "Ġ( ğ",
      "ĠĘ Ğ",
      "ĀĀĞ Ā)",
      "Ġ#ğ Ě",
      "ĀĀĝ Āė",
      "ĠĞĝ $",
      "ĠĝĞ $",
      "Ġğ# %",
      "Ġ$\" Ĝ",
      "ĀĀ& Ā%",
      "ĀĀ& Ā&",
      "#ĀĀ (",
      "#ĀĀ +",
      "ĠĀĀ +",
      "ĠĀĀ Ę",
      "%ĀĀ *",
      "%ĀĀ Ė",
      "&ĀĀ ė",
      "'ĀĀ *",
      "'ĀĀ ė",
      "ĠĜĞ Ĝ",
      "Ġ## Ĝ",
      "*ĀĀ '",
      "*ĀĀ Ę",
      "Ġ#ĝ ě",
      "Ġĝĝ %",
      "Ġ%ğ ě",
      "ĠĞ$ %",
      "ĀĀė ĀĞ",
      "ĀĀ) Ā",
      "ĀĀ) Āğ",
      "Ġ%! ě",
      "Ġ%! Ĝ",
      "# Ę",
      "& )",
      "* Ĝ",
      "+ (",
      ", ĝ",
      "- *",
      "Ē ğ",
      "Ĕ Ě",
      "Ė '",
      "ğ )",
      "Ġ 3",
      "Ġ! ė",
      "Ġ! %#",
      "Ġ! ěĜ",
      "Ġ! &#",
      "Ġğ ěĞ",
      "Ġ\" ě\"",
      "Ġ\" %#",
      "ĠĞ %!",
      "ĠĞ %Ğ",
      "ĠĞ &!",
      "ĠĞ Ě!",
      "Ġĝ ěğ",
      "Ġĝ ě!",
      "Ġĝ $#",
      "Ġĝ Ě\"",
      "Ġ# ##",
      "Ġ$ ěğ",
      "Ġ$ ĝ\"",
      "Ġě $ğ",
      "Ġě Ĝ#",
      "Ġě Ğ#",
      "Ġ% ĝ!",
      "Ġ& ě",
      "Ġ& Ğğ",
      "ĠĚ $ğ",
      "ĠĚ \"#",
      "Ġ' !ğ",
      "ĠĘ Ĝ",
      "ĠĝĞ %",
      "ĀĀĜ Āė",
      "ĀĀ# Ā'",
      "ĀĀ# Āė",
      "Ġ$! #",
      "ĀĀĚ ĀĜ",
      "ĀĀ& Āę",
      "$ĀĀ (",
      "$ĀĀ Ę",
      "#ĀĀ ė",
      "&ĀĀ '",
      "&ĀĀ *",
      "'ĀĀ (",
      ")ĀĀ (",
      "ĀĀ' ĀĞ",
      "Ġĝ# $",
      "ĀĀę ĀĞ",
      "ĀĀĘ ĀĜ",
      "ĀĀ( Ā#",
      "ĀĀė Ā",
      "ĀĀĖ Ā!",
      "ĀĀ- Ā",
      "$ ĕ",
      "* Ě",
      ", '",
      ". !",
      ". &",
      "/ ĀĀ",
      "Ē ě",
      "Ē Ĝ",
      "ē \"",
      "ē Ę",
      "ē Ě",
      "Ĕ %",
      "Ĕ &",
      "ė ĕ",
      "ę (",
      "ę ė",
      "Ğ Ė",
      "ğ ĕ",
      "Ġ 5",
      "Ġ Āė",
      "Ġ! (",
      "Ġğ Ě\"",
      "Ġğ ěĝ",
      "Ġğ Ě#",
      "Ġ\" Ĝ#",
      "Ġ\" Ě!",
      "Ġ\" Ĝ$",
      "Ġ\" &Ğ",
      "ĠĞ Ě\"",
      "ĠĞ ěĝ",
      "ĠĞ ě#",
      "ĠĞ ęğ",
      "ĠĞ 'ğ",
      "Ġĝ (",
      "Ġĝ ě#",
      "Ġ# (",
      "Ġ# %ğ",
      "Ġ# Ĝĝ",
      "Ġ# &ğ",
      "Ġ$ Ĝğ",
      "Ġ$ ##",
      "ĠĜ $Ğ",
      "ĠĜ $\"",
      "ĠĜ ĜĞ",
      "ĠĜ #Ĝ",
      "Ġ!! Ě",
      "Ġě #\"",
      "Ġě ĞĞ",
      "Ġě \"Ğ",
      "Ġ% %",
      "Ġ% Ě",
      "Ġ% ĜĞ",
      "Ġ% \"ĝ",
      "Ġ& !ğ",
      "Ġ& !!",
      "Ġ& Ğĝ",
      "ĠĚ ě",
      "ĠĚ ĝ!",
      "Ġ' ğğ",
      "Ġ' ğĞ",
      "Ġę Ĝ",
      "ĠĘ ĝ",
      "Ġ\"Ğ %",
      "Ġ\"Ğ Ě",
      "#ğ \"",
      "Ġ) ğ",
      "Ġ#\" $",
      "Ġ#\" %",
      "Ġ#\" ě",
      "ĀĀ# Ā(",
      "Ġĝ\" %",
      "ĀĀ$ Ā'",
      "ĠĜğ ě",
      "Ġ$! $",
      "ĀĀ% Ā%",
      "Ġ$\" $",
      "$ĀĀ ĕ",
      "#ĀĀ ,",
      "ĠĀĀ '",
      "ĠĞ# Ĝ",
      "ĠğĜ $",
      "Ġ!Ĝ $",
      "*ĀĀ (",
      "ĀĀ' Ā!",
      "Ġĝ# ĝ",
      "ĀĀĘ Ā\"",
      "ĀĀ) Ā!",
      "ĀĀĕ Āğ",
      "Ġ#$ Ĝ",
      "Ġ%Ğ ě",
      "! *",
      "% )",
      "( ,",
      ") -",
      "+ ě",
      "+ ĝ",
      "- !",
      "- $",
      "- '",
      "ē #",
      "ē ğ",
      "Ĕ ė",
      "ĕ &",
      "Ě *",
      "ě Ė",
      "Ĝ +",
      "Ĝ .",
      "Ĝ ē",
      "Ĝ Ĕ",
      "ĝ ė",
      "Ġ! ĀĀ",
      "Ġ! &Ğ",
      "Ġ! 'ğ",
      "Ġ! 'Ğ",
      "Ġğ (",
      "Ġğ Ěğ",
      "Ġğ Ě!",
      "Ġğ %#",
      "Ġğ %ĝ",
      "Ġğ &Ğ",
      "Ġğ '\"",
      "Ġ\" ĀĀ",
      "Ġ\" %!",
      "Ġ\" '!",
      "ĠĞ %\"",
      "ĠĞ $$",
      "ĠĞ &ğ",
      "Ġĝ '",
      "Ġĝ ěĞ",
      "Ġĝ &!",
      "Ġ# ę",
      "Ġ# ě\"",
      "Ġ# Ěğ",
      "Ġ# ěĞ",
      "Ġ# Ě\"",
      "Ġ# %ĝ",
      "Ġ$ %\"",
      "Ġ$ ěĞ",
      "Ġ$ &!",
      "Ġ$ &ğ",
      "ĠĜ $#",
      "ĠĜ Ĝĝ",
      "ĠĜ Ě!",
      "ĠĜ ĝ$",
      "Ġě ĝğ",
      "Ġě ĜĞ",
      "Ġě ěğ",
      "Ġě #$",
      "Ġ% ĝ\"",
      "Ġ& #!",
      "Ġ& Ğ\"",
      "Ġ& ğě",
      "ĠĚ &",
      "ĠĚ !ğ",
      "ĠĚ !!",
      "ĠĚ !Ğ",
      "ĠĚ !\"",
      "ĠĚ \"Ğ",
      "Ġ\"! %",
      "ĠĞğ &",
      "ĠĞğ ě",
      "Ġ!\" Ě",
      "Ġ' \"!",
      "Ġ' !Ğ",
      "Ġę $",
      "Ġ( #",
      "Ġ( ĝ",
      "Ġ\"\" Ě",
      "Ġĝ! &",
      "ĀĀ! Ā(",
      "Ġ) \"",
      "ĠĞĝ %",
      "Ġğ# Ě",
      "ĀĀĜ Ā)",
      "Ġ\"ĝ ě",
      "ĀĀě Ā)",
      "ĠĜğ Ĝ",
      "ĠĜ! %",
      "ĀĀĚ Ā'",
      "Ġ$\" ě",
      "ĀĀ& Āě",
      "$ĀĀ +",
      "ĠĀĀ Ĕ",
      "ĠĀĀ ĕ",
      "ĠĀĀ Ė",
      "%ĀĀ '",
      "%ĀĀ (",
      "%ĀĀ ĕ",
      "'ĀĀ '",
      "$ĝ ĀĀ",
      "(ĀĀ Ę",
      "(ĀĀ ę",
      "ĠĜĞ %",
      "Ġ#ĝ $",
      "ĀĀ' Ā#",
      "ĠĀ Ė",
      "ĀĀĞĀ *",
      "Ġ$Ğ Ĝ",
      "ĀĀĝĀ *",
      "ĀĀ!Ā *",
      "Ġě! %",
      "ĀĀ) Ā\"",
      "ĠěĞ %",
      "\" ,",
      "# ,",
      "# Ė",
      "% .",
      "& ę",
      ") ę",
      "* ,",
      ", )",
      "- )",
      "Ā Ē",
      "Ā ē",
      "č Ġ",
      "Đ Ĝ",
      "ē $",
      "ē ĀĀ",
      "Ĕ Ę",
      "ĕ ę",
      "ė '",
      "Ě +",
      "Ĝ )",
      "ğ ,",
      "ğ ĀĀ",
      "Ġ Ā)",
      "Ġ ĀĀ\"Ā",
      "Ġ! Ěğ",
      "Ġ! &ĝ",
      "Ġğ ę!",
      "Ġğ &#",
      "Ġ\" ě#",
      "Ġ\" ěĜ",
      "Ġĝ %\"",
      "Ġĝ $ĝ",
      "Ġĝ ĜĜ",
      "Ġ# Ę",
      "Ġ$ Ĝ#",
      "Ġ$ Ěğ",
      "Ġ$ ěĝ",
      "Ġ$ ĜĜ",
      "Ġ$ Ğ#",
      "Ġ$ #$",
      "ĠĜ %ğ",
      "Ġ!! ę",
      "Ġě Ě",
      "Ġě #!",
      "Ġě &!",
      "Ġ% ĀĀ",
      "Ġ% ěğ",
      "Ġ% ě\"",
      "Ġ% %ğ",
      "Ġ% !\"",
      "Ġ% &!",
      "Ġ% 'ğ",
      "Ġ% #Ĝ",
      "Ġ% \"Ĝ",
      "Ġ& $!",
      "Ġ& ĝ!",
      "Ġ& #Ğ",
      "Ġ& Ĝĝ",
      "Ġ& \"ĝ",
      "Ġ& ğĝ",
      "Ġ& !Ĝ",
      "ĠĚ %",
      "ĠĚ Ĝğ",
      "ĠĚ Ğ#",
      "ĠĞğ Ě",
      "Ġ' $",
      "Ġ' Ğğ",
      "Ġ\"ğ %",
      "Ġę ğ!",
      "Ġę \"!",
      "Ġ( (",
      "Ġ( !ĝ",
      "ĠĘ \"",
      "ĠĞ\" '",
      "ĠĞ\" ě",
      "ĀĀğ Ā)",
      "Ġĝğ %",
      "Ġĝğ ě",
      "Ġ#ğ $",
      "Ġė \"",
      "#! ĀĀ",
      "ĀĀ\" Āė",
      "Ġ!# %",
      "Ġğ# &",
      "ĀĀ$ Ā(",
      "Ġ\"# $",
      "ĀĀ% Āę",
      "ĀĀĚ Ā(",
      "ĀĀ& Ā'",
      "$ĀĀ '",
      "$ĀĀ *",
      "$ĀĀ ē",
      "#ĀĀ *",
      "#ĀĀ 'Ā",
      "ĠĀĀ ė",
      "&ĀĀ )",
      "&ĀĀ ę",
      "%\" ĀĀ",
      ")ĀĀ -",
      "ĠğĜ Ĝ",
      "*ĀĀ ę",
      "Ġ#ĝ %",
      "ĀĀ' Āĝ",
      "ĀĀ' Āě",
      "ĀĀę Āě",
      "ĀĀĘ ĀĞ",
      "ĀĀĘ Ā#",
      "ĀĀ( Ā\"",
      "Ġğ$ Ĝ",
      "Ġě! ě",
      "Ġ\"Ĝ ě",
      "ĠěĞ $",
      "Ġğě %",
      "ĀĀ+ Āğ",
      "ĀĀ* Ā\"",
      "! Ę",
      "* ę",
      "* 'ĀĀ",
      "- #",
      "- &",
      "- (",
      "- ,",
      "Ā /",
      "đ ĝ",
      "Ē Ě",
      "Ē Ā\"",
      "ĕ (",
      "ė Ĕ",
      "Ę Ē",
      "ę )",
      "Ě )",
      "ě ,",
      "ě ē",
      "ě Ĕ",
      "ě ĕ",
      "Ĝ ĕ",
      "Ġ! Ě#",
      "Ġ! &$",
      "Ġğ ęĞ",
      "Ġ\" &!",
      "Ġ\" %$",
      "Ġ\" &\"",
      "Ġ\" ĚĞ",
      "ĠĞ Ę",
      "ĠĞ ĜĜ",
      "ĀĀ <",
      "ĀĀ Ą",
      "Ġĝ %Ğ",
      "Ġĝ &ğ",
      "Ġĝ &Ğ",
      "Ġ# ě!",
      "Ġ# Ĝ#",
      "Ġ$ ę",
      "Ġ$ $#",
      "Ġ$ %Ğ",
      "Ġ$ Ĝ$",
      "ĠĜ ę",
      "ĠĜ %!",
      "ĠĜ ě!",
      "ĠĜ ě\"",
      "ĠĜ %\"",
      "ĠĜ %Ğ",
      "ĠĜ %#",
      "ĠĜ ĝĜ",
      "Ġě &",
      "Ġě $!",
      "Ġě ##",
      "Ġě \"$",
      "Ġ% (",
      "Ġ% )",
      "Ġ% Ĝğ",
      "Ġ% #\"",
      "Ġ% Ğ\"",
      "Ġ% ĝĝ",
      "Ġ% ğ\"",
      "Ġ% !#",
      "Ġ% &Ğ",
      "Ġğ! Ě",
      "Ġ!ğ &",
      "Ġ!ğ ę",
      "Ġ& ę",
      "Ġ& ĀĀ",
      "Ġ& Ĝğ",
      "ĠĚ Ĝ!",
      "ĠĚ !#",
      "Ġ' Ĝ",
      "Ġ' #Ğ",
      "Ġę ě",
      "Ġę Ĝ\"",
      "Ġę ğğ",
      "Ġę !\"",
      "Ġ( Ğ",
      "ĠĘ $",
      "ĠĞĞ ě",
      "ĠĞ\" &",
      "Ġğĝ %",
      "Ġĝ! ě",
      "ĀĀ\" Ā)",
      "Ġ#\" Ě",
      "Ġğ# ě",
      "ĀĀĜ Āę",
      "ĀĀĜ Ā(",
      "Ġĝ\" ě",
      "Ġ$ğ $",
      "ĀĀĚ ĀĚ",
      "ĀĀĚ Āė",
      "ĀĀĚ Ā)",
      "ĀĀ& ĀĚ",
      "ĀĀ& ĀĘ",
      "$ĀĀ /",
      "$ĀĀ Ė",
      "#ĀĀ Ę",
      "ĠĀĀ ē",
      "%ĀĀ +",
      "%ĀĀ Ĕ",
      "&ĀĀ ,",
      "&ĀĀ -",
      "ĠĠĠĠĠĠĠĠĠĠĠĠĠĠĠĠ ĠĠĠĠĠ",
      "(ĀĀ )",
      ")ĀĀ '",
      ")ĀĀ +",
      ")ĀĀ Ę",
      "ĠğĜ %",
      "Ġ## $",
      "Ġ## ě",
      "Ġ!Ĝ %",
      "Ġ!Ĝ ě",
      "*ĀĀ +",
      "Ġĝĝ Ĝ",
      "ĀĀ' ĀĜ",
      "ĀĀ' Ā%",
      "ĀĀğĀ *",
      "ĀĀĘ Āĝ",
      "ĀĀĞĀ #ğ",
      "ĀĀė Ā!",
      "ĀĀė Ā\"",
      "ĀĀ) ĀĜ",
      "ĀĀĖ Ā\"",
      "ĠĝĜ %",
      "ĀĀ* Ā",
      "ĀĀ* Āğ",
      "ĀĀĔ ĀĞ",
      "ĀĀ. Ā",
      "ĀĀ/ Ā$",
      "! ,",
      "! \"\"",
      "\" ĕ",
      "\" Ė",
      "\" ĝ!",
      "# *",
      "# +",
      "# /",
      "% ĀĀĞĀ!",
      "& ĀĀğĀ",
      "' Ę",
      "( ĕ",
      "( Ę",
      "( ĀĀğĀĞ",
      ", Ā",
      ". )",
      ". Ā",
      "/ Ğ",
      "ď Ā!",
      "Ē ĀĀ",
      "Ē Ā!",
      "ē ę",
      "Ĕ (",
      "Ĕ ĕ",
      "Ė )",
      "Ė ĕ",
      "Ė Ė",
      "Ę Ĕ",
      "Ě Ė",
      "Ğ ,",
      "ğ ē",
      "ğ ĝğ",
      "Ġ ĀĀĝĀ",
      "Ġ! )",
      "Ġ! Ę",
      "Ġ! &!",
      "Ġ! ě$",
      "Ġ! '!",
      "Ġ! %Ĝ",
      "Ġ! (\"",
      "Ġğ ė",
      "Ġğ &!",
      "Ġğ 'ğ",
      "Ġ\" ė",
      "Ġ\" Ě\"",
      "Ġ\" ęğ",
      "Ġ\" ě$",
      "ĠĞ (",
      "ĠĞ )",
      "ĠĞ ĚĞ",
      "ĠĞ ěĜ",
      "ĀĀ ;",
      "ĀĀ =",
      "Ġĝ ė",
      "Ġĝ ěĝ",
      "Ġĝ ĚĞ",
      "Ġĝ Ěĝ",
      "Ġĝ ę!",
      "Ġ# &\"",
      "Ġ# &Ğ",
      "Ġ$ ĀĀ",
      "Ġ$ ě!",
      "Ġ$ 'ğ",
      "ĠĜ ěĞ",
      "ĠĜ ěĝ",
      "Ġ!! &",
      "Ġě $$",
      "Ġě Ğĝ",
      "Ġě ě#",
      "Ġ% $\"",
      "Ġ% %!",
      "Ġ% ğ#",
      "Ġ% &\"",
      "Ġ% \"$",
      "Ġ% #ě",
      "Ġ& $Ğ",
      "Ġ& $\"",
      "Ġ& %ğ",
      "Ġ& ĞĞ",
      "Ġ& !\"",
      "ĠĚ Ę",
      "ĠĚ ğ!",
      "ĠĚ ##",
      "ĠĚ Ě!",
      "ĠĚ ğ#",
      "ĠğĞ Ě",
      "Ġ' '",
      "Ġ\"ğ &",
      "Ġ\"ğ ę",
      "Ġę Ĝ!",
      "Ġę Ğ\"",
      "Ġğ\" &",
      "Ġğ\" Ě",
      "Ġ!Ğ &",
      "ĠĘ #",
      "ĠĘ Ě",
      "ĠĞĞ Ě",
      "Ġ#! Ě",
      "Ġ) $",
      "Ġ!ĝ %",
      "Ġė Ĝ",
      "#! ğ",
      "ĀĀĝ Ā(",
      "ĀĀ# Ā)",
      "Ġ#Ğ $",
      "Ġ\"ĝ %",
      "ĀĀě Āę",
      "ĠĜğ %",
      "ĠĜ! &",
      "#\" $",
      "#ĀĀ Đ",
      "#ĀĀ ē",
      "ĠĞ# &",
      "&ĀĀ ē",
      "'ĀĀ ĕ",
      "'ĀĀ Ę",
      "(ĀĀ Ė",
      ")ĀĀ Ė",
      "*ĀĀ )",
      "Ġĝĝ ě",
      "ĀĀę Āĝ",
      "ĀĀę Ā#",
      "ĀĀę Ā%",
      "Ġ!$ Ĝ",
      "ĀĀĘ Āě",
      "ĀĀĘ Ā%",
      "ĀĀĘ ĀĚ",
      "ęğ ĀĀ",
      "ĀĀ( ĀĞ",
      "ĀĀ( Ā'",
      "Ġ$Ğ $",
      "Ġ$Ğ Ě",
      "ĀĀė Āğ",
      "ĀĀė Ā$",
      "ĀĀ) ĀĞ",
      "ĀĀ) Āĝ",
      "ĀĀ) Ā%",
      "Ġěğ $",
      "ĀĀĖ Āĝ",
      "ĀĀĕ Ā!",
      "ĀĀĕ Ā\"",
      "ĀĀ+ Āĝ",
      "Ġğ% ě",
      "ĀĀĔ Ā",
      "ĀĀ. Āğ",
      "ĀĀ. Āĝ",
      "Ġ\"% ě",
      "ĀĀ, Āĝ",
      "! -",
      "! ĕ",
      "! Ĝ$",
      "# ē",
      "# ĀĀğĀ",
      "% +",
      "% ė",
      "% ĀĀĜĀ!",
      "& ĀĀğĀ!",
      "' *",
      "' Ė",
      "' ė",
      "( ĀĀĜĀ!",
      "* -",
      "+ )",
      "+ ,",
      "+ .",
      "+ /",
      ", &",
      "- ĝ",
      ". $",
      ". ĝ",
      "/ !",
      "đ !",
      "đ \"",
      "đ Ĝ",
      "đ Ğ",
      "Ē \"",
      "ē ě",
      "Ĕ $",
      "Ĕ ę",
      "ė *",
      "Ę )",
      "ę *",
      "ę ĕ",
      "Ĝ ,",
      "ĝ ,",
      "Ğ -",
      "Ğ Ĕ",
      "Ğ ĕ",
      "ğ Ė",
      "ğ Ĝ\"",
      "Ġ ĀĀĞĀ",
      "Ġ! ę!",
      "Ġ! ę#",
      "Ġ! (ğ",
      "Ġ! ė!",
      "Ġğ &ğ",
      "Ġğ &\"",
      "Ġğ ęğ",
      "Ġğ ě$",
      "Ġğ ěĜ",
      "Ġğ '#",
      "Ġ\" Ę",
      "Ġ\" 'Ğ",
      "ĠĞ %#",
      "ĠĞ ě$",
      "ĠĞ Ě#",
      "ĠĞ '!",
      "ĠĞ ěě",
      "ĠĞ 'Ğ",
      "ĠĞ ěĚ",
      "ĀĀ ć",
      "Ġĝ Ę",
      "Ġĝ %#",
      "Ġĝ %ĝ",
      "Ġĝ ě$",
      "Ġĝ ĘĞ",
      "Ġĝ ě%",
      "Ġ# )",
      "Ġ# ěĝ",
      "Ġ# $$",
      "Ġ# ě#",
      "Ġ# ĚĞ",
      "Ġ# %Ĝ",
      "Ġ$ Ě!",
      "Ġ$ %ĝ",
      "Ġ$ ĚĞ",
      "Ġ$ Ĝě",
      "ĠĜ Ě\"",
      "Ġ!! '",
      "Ġğğ Ě",
      "Ġě (",
      "Ġě $\"",
      "Ġě %!",
      "Ġě Ě\"",
      "Ġě !ĝ",
      "Ġě &Ğ",
      "Ġ% ę",
      "Ġ% ĝ#",
      "Ġ% ěĞ",
      "Ġ% ĜĜ",
      "Ġ% '!",
      "Ġ% ĝĜ",
      "Ġ% ĝ$",
      "Ġ% %Ĝ",
      "Ġ% $Ĝ",
      "Ġ& Ě",
      "Ġ& ĝ#",
      "ĠĚ #ğ",
      "ĠĚ ĜĞ",
      "ĠĚ ĝ\"",
      "ĠĚ ĝĞ",
      "ĠĚ %!",
      "ĠĚ ě!",
      "ĠĚ Ĝ#",
      "ĠĚ ğĞ",
      "ĠĚ &!",
      "ĠĚ #Ĝ",
      "ĠĚ \"%",
      "ĠĚ ğĝ",
      "ĠĚ ğĜ",
      "ĠĚ ğ$",
      "ĠĚ %&",
      "ĠğĞ &",
      "Ġ' ě",
      "Ġ' #ğ",
      "Ġ' ěğ",
      "Ġ' %ğ",
      "Ġ' !!",
      "Ġ' \"ğ",
      "Ġ' ğ!",
      "Ġ' \"Ğ",
      "Ġ' \"ĝ",
      "Ġę &",
      "Ġę ĝğ",
      "Ġę !!",
      "Ġ!Ğ Ě",
      "Ġ( Ĝ",
      "Ġ( #!",
      "ĠĘ ě",
      "ĠĘ ğ!",
      "Ġ\"\" %",
      "Ġĝğ &",
      "#ğ ğ",
      "#ğ ĀĀ",
      "Ġğĝ Ě",
      "Ġĝ! Ě",
      "Ġ) !",
      "Ġ) ĝ",
      "Ġ!ĝ &",
      "Ġ!ĝ Ě",
      "Ġė Ğ",
      "#! \"",
      "Ġ!# ę",
      "ĠĝĞ ě",
      "ĠĖ ĝ",
      "ĀĀě ĀĘ",
      "ĀĀě Ā(",
      "Ġ\"# Ě",
      "ĠĜğ &",
      "Ġ$! ě",
      "ĀĀ% Ā(",
      "ĀĀ% Āė",
      "#\" ĀĀ",
      "Ġ$\" Ě",
      "#Ğ ĀĀ",
      "$ĀĀ Ē",
      "#ĀĀ '",
      "ĝĞ ĀĀ",
      "ĠĞ# %",
      "!! ĀĀ",
      "&ĀĀ ĕ",
      "'ĀĀ +",
      "'ĀĀ -",
      "'ĀĀ Ĕ",
      "'ĀĀ Ė",
      "ĠĠĠĠĠĠĠĠĠĠĠĠĠĠĠĠ ĠĠĠĠĠĠĠĠĠĠĠĠĠĠĠĠĠĠĠĠ",
      "ĠğĜ &",
      "*ĀĀ *",
      "*ĀĀ ĕ",
      "*ĀĀ ė",
      "ĀĀ' Ā$",
      "ĠĀ ,",
      "Ġĝ# %",
      "Ġĝ# Ĝ",
      "Ġ!$ %",
      "ĀĀĘ Ā$",
      "ĀĀ\"Ā Ĕ",
      "Ġ\"$ %",
      "ĀĀ( ĀĜ",
      "ĀĀ( Ā$",
      "ĀĀ( Ā%",
      "ĠĞĜ $",
      "Ġ$Ğ ě",
      "ĀĀė ĀĜ",
      "ĀĀė Āě",
      "ĀĀ) Ā#",
      "ĀĀĖ Ā",
      "ĀĀĖ ĀĞ",
      "ĀĀĖ Ā$",
      "ĀĀĕ Āĝ",
      "ĀĀěĀ *",
      "ĀĀ+ Ā",
      "ĀĀ+ Ā!",
      "ĀĀ* Ā!",
      "Ġě\" ě",
      "ĀĀ, Ā!",
      "ĀĀ, Ā\"",
      "ĀĀ/ Ā!",
      "ĀĀē Ā$",
      "! Ē",
      "! Ė",
      "! Ğ\"",
      "! ĞĞ",
      "! &ğ",
      "\" #\"",
      "# ė",
      "$ ė",
      "% -",
      "% Ė",
      "% $\"",
      "& +",
      "& Ę",
      "' ĕ",
      "' ĀĀ\"Ā",
      "( ĀĀĜĀ",
      "( ĀĀ!ĀĞ",
      ") ĀĀĚĀ!",
      "* Ę",
      "* ĀĀĝĀ",
      "+ *",
      "+ ĀĀğĀ",
      ", Ě",
      "- ğ",
      ". \"",
      ". *ĀĀ",
      "/ #",
      "/ )",
      "/ ĀĞ",
      "/ Ā$",
      "Ā đ",
      "Đ ę",
      "đ Ě",
      "đ ě",
      "đ Āě",
      "Ē $",
      "Ē ę",
      "ĕ %",
      "ė ē",
      "ę ď",
      "ę Ĕ",
      "Ě Ĕ",
      "ě đ",
      "ĝ Đ",
      "Ğ đ",
      "Ğ Ğ\"",
      "ğ *",
      "Ġ 6",
      "Ġ ĀĀğĀ",
      "Ġ ĀĀ!Ā",
      "Ġ ĀĀĝĀ\"",
      "Ġ ĀĀ$Ā!",
      "Ġ! ęğ",
      "Ġ! ĚĞ",
      "Ġ! ěě",
      "Ġ! '#",
      "Ġğ Ę",
      "Ġğ &$",
      "Ġğ %Ĝ",
      "Ġğ 'Ğ",
      "Ġğ %%",
      "Ġğ Ęğ",
      "Ġ\" +",
      "Ġ\" ěĝ",
      "Ġ\" $$",
      "Ġ\" Ěĝ",
      "Ġ\" '\"",
      "Ġ\" %Ĝ",
      "Ġ\" ėĞ",
      "Ġ\" 'Ĝ",
      "ĠĞ *",
      "ĠĞ %$",
      "ĠĞ &\"",
      "ĠĞ Ěĝ",
      "ĠĞ ę!",
      "ĀĀ >",
      "ĀĀ Ć",
      "Ġĝ $$",
      "Ġĝ &\"",
      "Ġĝ ęğ",
      "Ġĝ Ě#",
      "Ġĝ Ĝ$",
      "Ġĝ ěě",
      "Ġĝ '\"",
      "Ġ# ė",
      "Ġ# &!",
      "Ġ# ě$",
      "Ġ$ '",
      "Ġ$ (",
      "Ġ$ %#",
      "Ġ$ &\"",
      "Ġ$ '!",
      "Ġ$ ěĜ",
      "Ġ$ ę!",
      "Ġ$ ĝ$",
      "Ġ$ Ĝ%",
      "ĠĜ ĀĀ",
      "ĠĜ $$",
      "ĠĜ ęğ",
      "ĠĜ #$",
      "ĠĜ Ęĝ",
      "ĠĜ $Ĝ",
      "Ġ!! Ę",
      "Ġğğ '",
      "Ġě $Ğ",
      "Ġě %ğ",
      "Ġě ĝĝ",
      "Ġě ěĝ",
      "Ġě \"Ĝ",
      "Ġ% Ĝĝ",
      "Ġ% $ĝ",
      "Ġ% Ě\"",
      "Ġ% ĝě",
      "Ġ% %ě",
      "Ġ& (",
      "Ġ& ĜĞ",
      "Ġ& ĝĞ",
      "Ġ& ##",
      "Ġ& ğ\"",
      "Ġ& %#",
      "Ġ& ğ#",
      "Ġ& !ĝ",
      "Ġ& Ğ#",
      "Ġ& #ĝ",
      "Ġ& ĝĜ",
      "ĠĚ Ě",
      "ĠĚ $!",
      "ĠĚ $\"",
      "ĠĚ ĞĞ",
      "ĠĚ $ĝ",
      "ĠĚ \"!",
      "ĠĚ '!",
      "ĠĚ ĝĜ",
      "Ġ\"! ę",
      "ĠğĞ ę",
      "Ġ' %",
      "Ġ' &",
      "Ġ' (",
      "Ġ' ĀĀ",
      "Ġ' #!",
      "Ġ' #\"",
      "Ġ' Ğ!",
      "Ġ' ĝĞ",
      "Ġ' ğ\"",
      "Ġ\"ğ Ě",
      "Ġę %",
      "Ġę #!",
      "Ġę $!",
      "Ġę Ğ!",
      "Ġę !ğ",
      "Ġę ğ#",
      "Ġę ğ$",
      "ĠĞ! &",
      "ĠĞ! '",
      "ĠĞ! Ě",
      "Ġ!Ğ '",
      "Ġ( %",
      "Ġ( &",
      "Ġ( \"ğ",
      "ĠĘ !#",
      "Āğ \"",
      "Ġ\"Ğ &",
      "Ġ\"Ğ ę",
      "Ġ#! %",
      "Ġĝğ Ě",
      "#ğ #",
      "Ġ) ğğ",
      "Ġ#ğ ę",
      "Ġė !",
      "Ġė ě",
      "ĠĞĝ &",
      "ĠĞĝ ę",
      "Ġ#Ğ Ě",
      "ĀĀ$ Āė",
      "ĀĀě Āė",
      "Ġ\"# &",
      "Ġ\"# ě",
      "ĝğ \"",
      "Ġ$! %",
      "$ĀĀ -",
      "$ĀĀ Đ",
      "$ĀĀ đ",
      "ĠĜ\" Ě",
      "ĠĜ\" Ĝ",
      "#ĀĀ Ĕ",
      "#ĀĀ ĕ",
      "%ĀĀ )",
      "%ĀĀ ,",
      "%ĀĀ -",
      "ě\" ĀĀ",
      "ĠĞ# ě",
      "&ĀĀ .",
      "&ĀĀ Ĕ",
      "'ĀĀ ē",
      "ĠĠĠĠĠĠĠĠĠĠĠĠĠĠĠĠ ĠĠĠĠĠĠĠĠĠĠĠĠĠĠĠĠĠ",
      "(ĀĀ .",
      "(ĀĀ ĕ",
      ")ĀĀ ,",
      "ĠĜĞ &",
      "&! ĀĀ",
      "Ġ## %",
      "*ĀĀ Ĕ",
      "Ġĝĝ Ě",
      "ĠĀ Ĕ",
      "ĀĀę Ā\"",
      "ĀĀę Ā$",
      "ĀĀę Ā(",
      "&\" ĀĀ",
      "ĀĀĘ Ā&",
      "ĀĀĘ Āę",
      "ĀĀĞĀ ĕ",
      "ĀĀĞĀ Ė",
      "ĠĞĜ ě",
      "Ġğ$ ě",
      "ĀĀė Āĝ",
      "ĀĀė Ā%",
      "ĀĀ!Ā ĕ",
      "Ġěğ &",
      "Ġěğ ĝ",
      "Ġ%! $",
      "ĀĀĖ Ā#",
      "ĀĀĖ Āě",
      "ĀĀĖ Ā&",
      "ĀĀĖ Ā(",
      "ĠěĞ &",
      "ĀĀ#Ā ĕ",
      "ĠĜĝ ě",
      "ĀĀĕ ĀĞ",
      "ĀĀĕ ĀĜ",
      "ĀĀĕ Ā&",
      "Ġ#$ ě",
      "Ġĝ$ %",
      "Ġĝ$ Ĝ",
      "+ĀĀ *",
      "ĀĀ+ Ā\"",
      "ĀĀ+ ĀĜ",
      "ĀĀ+ Ā$",
      "Ġ%Ğ Ĝ",
      "Ġ#Ĝ ě",
      "Ġ!% Ě",
      "Ġ!% ě",
      "Ġ$$ ě",
      "ĀĀĔ Āğ",
      "ĀĀ&Ā ĕ",
      "Ġ%\" ě",
      "ĀĀĒ Ā",
      "ĀĀĒ Ā(",
      "ĀĀē Āĝ",
      "ĀĀē ĀĚ",
      "! ē",
      "! Ĝ!",
      "! Ĝğ",
      "! ęĝ",
      "\" -",
      "\" Ĝ#",
      "$ ē",
      "$ ě!",
      "$ ĀĀĞĀ",
      "$ ĀĀĝĀ",
      "% *",
      "% Ĕ",
      "% ĕ",
      "% ĀĀğĀ!",
      "& *",
      "& ,",
      "& ĀĀĝĀ!",
      "& ĀĀĝĀğ",
      "' ,",
      "' -",
      "' ĀĀğĀĞ",
      ") ĀĀğĀğ",
      ") ĀĀ!Āĝ",
      "* ĀĀĞĀě",
      "+ Ė",
      "+ Ě",
      "+ ĀĀ(",
      ", Ğ",
      "- .",
      "- /",
      "- )ĀĀ",
      "- ĀĀ\"Ā",
      ". Ğ",
      "/ \"",
      "/ &",
      "/ ğ",
      "; Ā",
      "Ď Ā!",
      "ď Ę",
      "Đ !",
      "Đ ě",
      "đ '",
      "đ ĕ",
      "đ ĀĀ",
      "đ Ā!",
      "Ē &",
      "Ē '",
      "Ē ĀĚ",
      "ē (",
      "Ĕ Ė",
      "ĕ .",
      "ė (",
      "ė )",
      "ė Ē",
      "Ę ,",
      "ę +",
      "Ě ĕ",
      "ě *",
      "Ĝ ĝ\"",
      "ĝ /",
      "ĝ Ē",
      "ĝ ĕ",
      "ĝ Ğ!",
      "ĝ $$",
      "ĝ ''",
      "Ğ #\"",
      "ğ ĝ\"",
      "ğ Ğ\"",
      "ğ !!",
      "Ġ ĀĀğĀğ",
      "Ġ ĀĀĞĀ!",
      "Ġ ĀĀ!Ā\"",
      "Ġ ĀĀĜĀ!",
      "Ġ ĀĀğĀĜ",
      "Ġ ĀĀĞĀĝ",
      "ĠĠ Č",
      "Ġ! ě#",
      "Ġ! %$",
      "Ġ! ęĞ",
      "Ġ! ęĝ",
      "Ġ! (!",
      "Ġ! Ěě",
      "Ġ! *!",
      "Ġğ ěě",
      "Ġğ ę\"",
      "Ġğ ęĝ",
      "Ġğ &ě",
      "Ġ\" Ě#",
      "Ġ\" ę!",
      "Ġ\" ęĞ",
      "Ġ\" ěě",
      "Ġ\" &ĝ",
      "Ġ\" Ě%",
      "Ġ\" &Ĝ",
      "Ġ\" (Ğ",
      "ĠĞ &Ğ",
      "ĠĞ &#",
      "ĠĞ &$",
      "ĠĞ ęĝ",
      "ĠĞ Ęğ",
      "ĠĞ Ě%",
      "ĠĞ &%",
      "Ġĝ Ě!",
      "Ġĝ '!",
      "Ġĝ ěĜ",
      "Ġĝ ę\"",
      "Ġĝ Ę\"",
      "Ġĝ Ě%",
      "Ġ# %$",
      "Ġ# ęğ",
      "Ġ# Ě#",
      "Ġ# '!",
      "Ġ# 'ğ",
      "Ġ# ěĜ",
      "Ġ# &#",
      "Ġ# &ĝ",
      "Ġ# ĚĜ",
      "Ġ# &Ĝ",
      "Ġ$ Ę",
      "Ġ$ ě\"",
      "Ġ$ ęğ",
      "Ġ$ ěě",
      "Ġ$ Ęğ",
      "Ġ$ Ě$",
      "Ġ$ ĜĚ",
      "ĠĜ '",
      "ĠĜ (",
      "ĠĜ ė",
      "ĠĜ Ěğ",
      "ĠĜ &!",
      "ĠĜ &\"",
      "ĠĜ ĚĞ",
      "ĠĜ Ě#",
      "ĠĜ Ĝ$",
      "ĠĜ #ĝ",
      "ĠĜ %Ĝ",
      "Ġğğ ę",
      "Ġě Ę",
      "Ġě ě!",
      "Ġě %#",
      "Ġě &ğ",
      "Ġě &\"",
      "Ġě ęğ",
      "Ġě #ĝ",
      "Ġě ĝ$",
      "Ġě %Ĝ",
      "Ġě $%",
      "Ġě ęě",
      "Ġ% %\"",
      "Ġ% %Ğ",
      "Ġ% ##",
      "Ġ% Ğ#",
      "Ġ% Ěĝ",
      "Ġ% #$",
      "Ġ% ěĜ",
      "Ġ% 'Ğ",
      "Ġ% ĝ%",
      "Ġğ! ę",
      "Ġ& '",
      "Ġ& Ĝ\"",
      "Ġ& #\"",
      "Ġ& ě!",
      "Ġ& \"\"",
      "Ġ& %Ğ",
      "Ġ& &!",
      "Ġ& &ğ",
      "Ġ& \"#",
      "Ġ& &Ğ",
      "Ġ& ĝ$",
      "Ġ& ĞĜ",
      "ĠĚ ę",
      "ĠĚ #!",
      "ĠĚ ěğ",
      "ĠĚ \"\"",
      "ĠĚ %\"",
      "ĠĚ \"ğ",
      "ĠĚ Ğĝ",
      "ĠĚ \"ĝ",
      "ĠĚ ę!",
      "ĠĚ ęĞ",
      "ĠĚ ĝ$",
      "ĠĚ Ğ$",
      "ĠĞğ '",
      "Ġ!\" Ę",
      "Ġ' $ğ",
      "Ġ' $Ğ",
      "Ġ' \"\"",
      "Ġ' ##",
      "Ġ' (ğ",
      "Ġę $Ğ",
      "Ġę #\"",
      "Ġę #Ğ",
      "Ġę ĝ#",
      "Ġę \"Ğ",
      "Ġę !ĝ",
      "Ġę \"ĝ",
      "Ġę ĝ$",
      "Ġğ\" Ę",
      "Ġ( $",
      "Ġ( \"\"",
      "Ġ( !Ğ",
      "Ġ( \"Ğ",
      "Ġ( \"ĝ",
      "Ġ( ğĜ",
      "ĠĘ ĝ\"",
      "ĠĘ ĝ#",
      "Ā! !",
      "Ā! ğ",
      "ĠĞĞ &",
      "Āğ Ğ!",
      "Āğ !\"",
      "Ā\" !",
      "Ġĝ! '",
      "ĀĀ! Ā)",
      "Ġ) ĀĀ",
      "Ġ) \"ğ",
      "Ġė #",
      "Ġė ę",
      "Ġė ĝ",
      "Ġė ğ",
      "Ġė !ğ",
      "Ġė ğĞ",
      "Ġė !$",
      "#! #",
      "Ġ!# Ě",
      "ĠĝĞ &",
      "Ġ* Ğ",
      "Ġĝ\" ę",
      "Ġ\"ĝ &",
      "Ĝ! ĀĀ",
      "Ġ\"# %",
      "Ġ$ğ ę",
      "Ġ$ğ Ě",
      "Ġ$! Ě",
      "ĀĀ% Ā'",
      "ĀĀĚ ĀĘ",
      "Ġ$\" %",
      "ĀĀ& Āė",
      "ěğ ĀĀ",
      "ĠĜ\" %",
      "ĠĜ\" &",
      "#ĀĀ .",
      "Ğ\" #",
      "ĠĀĀ Đ",
      "ĠĀĀ 'Ā",
      "ě! #",
      "%ĀĀ .",
      "!! %",
      "&ĀĀ Đ",
      "&ĀĀ Ė",
      "'ĀĀ )",
      "Ĝĝ ĀĀ",
      "ĠĠĠĠĠĠĠĠĠĠĠĠĠĠĠĠ ĠĠĠĠĠĠĠĠĠĠĠĠĠ",
      "ĠĠĠĠĠĠĠĠĠĠĠĠĠĠĠĠ ĠĠĠĠĠĠĠĠĠĠĠĠĠĠĠĠĠĠ",
      "\"ğ ĀĀ",
      "(ĀĀ '",
      "(ĀĀ *",
      "(ĀĀ Ĕ",
      "(ĀĀ ė",
      ")ĀĀ *",
      ")ĀĀ ė",
      "Ġ## Ě",
      "Ě\" ĀĀ",
      "Ġ!Ĝ ę",
      "*ĀĀ Ė",
      "Ġĝĝ ę",
      "ĀĀ' Ā&",
      "ĀĀę ĀĜ",
      "ĀĀę Ā)",
      "Ġ!$ ě",
      "ĀĀĘ Ā!",
      "ĀĀ\"Ā ĕ",
      "ĀĀ( Āğ",
      "ĀĀ( Āě",
      "ĀĀ( Ā&",
      "ĀĀė Ā&",
      "ĀĀė ĀĚ",
      "\"$ &",
      "ĀĀ) Ā&",
      "Ġěğ Ĝ",
      "ĀĀĖ Ā'",
      "ĠěĞ Ĝ",
      "ĠĜĝ %",
      "ĀĀĕ Ā",
      "ĀĀĕ Ā'",
      "ĀĀĜĀ Ė",
      "Ġ$ĝ ę",
      "+ĀĀ ē",
      "Ġ$# %",
      "Ġ$# Ě",
      "ĠĝĜ ě",
      "ĀĀ+ ĀĞ",
      "ĀĀ+ Ā%",
      "ĀĀ* Ā$",
      "ĀĀ* Ā%",
      "ĀĀ- Āğ",
      "ĀĀ- ĀĞ",
      "ĀĀ- Āĝ",
      "Ġ$$ Ĝ",
      "ĀĀ$Ā +",
      "ĀĀ$Ā ĕ",
      "ĀĀ, ĀĞ",
      "ĀĀ/ Ā",
      "ĀĀĒ Ā!",
      "ĀĀĒ Ā$",
      "ĀĀĒ Ā%",
      "ĀĀē Ā",
      "ĀĀē Āğ",
      "ĀĀē Ā\"",
      "ĀĀđ Āĝ",
      "Ġ#ě ę",
      "ĀĀď Ā$",
      "Ā#! ğ",
      "ĀĀĎ ĀĞ",
      "! $\"",
      "! ĝ!",
      "! ĚĞ",
      "! %%",
      "! (!",
      "! &%",
      "! ''",
      "\" .",
      "\" Ē",
      "\" ĚĜ",
      "\" &&",
      "# Ĝ!",
      "# $!",
      "$ +",
      "$ /",
      "$ đ",
      "$ Ē",
      "$ ĝğ",
      "$ $\"",
      "$ ĀĀĜĀ",
      "% $!",
      "% \"\"",
      "% ĀĀğĀğ",
      "& -",
      "& Ĕ",
      "& $ğ",
      "& ĀĀĞĀ",
      "& ĀĀğĀğ",
      "& ĀĀĞĀ!",
      "& ĀĀĝĀ\"",
      "& ĀĀ\"Ā\"",
      "' ĀĀğĀ",
      "' ĀĀ!Āğ",
      "' ĀĀĝĀğ",
      "' ĀĀğĀ$",
      "( *",
      "( Đ",
      "( Ė",
      "( ĀĀğĀ",
      "( ĀĀĝĀ",
      "( ĀĀ!Ā",
      "( ĀĀ!Ā!",
      "( ĀĀĞĀğ",
      ") Ě",
      ") ĀĀğĀ",
      ") ĀĀ!Ā",
      ") ĀĀěĀ",
      ") ĀĀ!Ā%",
      ") ĀĀĜĀ#",
      "* ĀĀğĀĜ",
      "+ ĀĀğĀğ",
      "+ ĀĀĞĀğ",
      "+ ĀĀğĀĜ",
      ", ę",
      ", Ĝ",
      ", ĀĀ\"Ā",
      "- +",
      "- ĀĀ\"Āĝ",
      ". #",
      ". '",
      ". Ā$",
      ". ĀĀĜĀ",
      "/ %",
      "/ ě",
      "/ Ā#",
      "? Ā",
      "@ Ā",
      "Ď ğ",
      "Ď ĀĀ",
      "ď Ğ",
      "Đ '",
      "Đ ė",
      "Đ Ę",
      "Đ ĝ",
      "Đ ğ",
      "đ Ė",
      "đ ę",
      "đ ğ",
      "Ē #",
      "Ē %",
      "Ē )",
      "Ē ĕ",
      "Ē Ğ",
      "ē ĕ",
      "Ĕ *",
      "Ĕ Ē",
      "Ĕ ē",
      "ĕ )",
      "ĕ ,",
      "ĕ Ĕ",
      "Ė ğĞ",
      "Ę *",
      "Ę +",
      "ę Ę",
      "Ě đ",
      "Ě Ē",
      "Ě ĝ\"",
      "ě ě\"",
      "Ĝ /",
      "Ĝ đ",
      "ĝ *",
      "ĝ Ĝ!",
      "ĝ #\"",
      "ĝ Ĝ$",
      "ĝ )(",
      "Ğ +",
      "Ğ Ğ!",
      "Ğ Ě\"",
      "ğ /",
      "ğ $\"",
      "ğ #\"",
      "ğ Ęĝ",
      "Ġ ĀĀ#Ā",
      "Ġ ĀĀĜĀ",
      "Ġ ĀĀğĀ\"",
      "Ġ ĀĀ!Āğ",
      "Ġ ĀĀĞĀ\"",
      "Ġ ĀĀĝĀğ",
      "Ġ ĀĀ\"Āĝ",
      "Ġ ĀĀ!Āĝ",
      "Ġ ĀĀ!ĀĜ",
      "Ġ ĀĀ\"Ā\"",
      "Ġ ĀĀğĀĚ",
      "Ġ ĀĀĞĀę",
      "Ġ! &\"",
      "Ġ! '\"",
      "Ġ! ĘĞ",
      "Ġ! ęě",
      "Ġ! ěĚ",
      "Ġ! &ě",
      "Ġ! Ęě",
      "Ġğ Ė",
      "Ġğ (!",
      "Ġğ ĘĞ",
      "Ġğ ėĞ",
      "Ġğ )ğ",
      "Ġğ Ěě",
      "Ġğ (ĝ",
      "Ġ\" 'ğ",
      "Ġ\" &#",
      "Ġ\" ę\"",
      "Ġ\" Ę!",
      "Ġ\" Ęğ",
      "Ġ\" (ğ",
      "Ġ\" (\"",
      "Ġ\" &&",
      "Ġ\" ė\"",
      "ĠĞ ĀĀ",
      "ĠĞ &ĝ",
      "ĠĞ %Ĝ",
      "ĠĞ ę#",
      "ĠĞ Ę!",
      "ĠĞ Ę\"",
      "ĠĞ ě%",
      "ĠĞ &Ĝ",
      "ĀĀ Ĉ",
      "Ġĝ Ė",
      "Ġĝ %$",
      "Ġĝ 'ğ",
      "Ġĝ ęĞ",
      "Ġĝ &$",
      "Ġĝ %Ĝ",
      "Ġĝ ę#",
      "Ġĝ '#",
      "Ġ# *",
      "Ġ# Ė",
      "Ġ# %#",
      "Ġ# ę!",
      "Ġ# ę\"",
      "Ġ# &$",
      "Ġ# 'Ğ",
      "Ġ# (ğ",
      "Ġ# ėĞ",
      "Ġ# ė!",
      "Ġ# '&",
      "Ġ# (ĝ",
      "Ġ$ )",
      "Ġ$ 'Ğ",
      "Ġ$ (\"",
      "Ġ$ 'ĝ",
      "ĠĜ Ę",
      "ĠĜ ĜĜ",
      "ĠĜ %ĝ",
      "ĠĜ ęĞ",
      "ĠĜ &ĝ",
      "ĠĜ ĚĜ",
      "ĠĜ Ę\"",
      "ĠĜ ęĜ",
      "ĠĜ $&",
      "Ġě ę",
      "Ġě $#",
      "Ġě Ĝĝ",
      "Ġě ěĞ",
      "Ġě ĜĜ",
      "Ġě %ĝ",
      "Ġě ě$",
      "Ġě (ĝ",
      "Ġě Ĝ&",
      "Ġ% Ę",
      "Ġ% Ĝ\"",
      "Ġ% ě!",
      "Ġ% Ěğ",
      "Ġ% ěĝ",
      "Ġ% %#",
      "Ġ% &ğ",
      "Ġ% ę\"",
      "Ġ% ěĚ",
      "Ġ% Ĝě",
      "Ġğ! '",
      "Ġğ! )",
      "Ġ& ěğ",
      "Ġ& %!",
      "Ġ& $#",
      "Ġ& ěĞ",
      "Ġ& Ě\"",
      "Ġ& %ĝ",
      "Ġ& 'Ğ",
      "Ġ& ğĜ",
      "Ġ& !$",
      "Ġ& &Ĝ",
      "Ġ& $Ĝ",
      "Ġ& Ğě",
      "ĠĚ '",
      "ĠĚ #Ğ",
      "ĠĚ ĝ#",
      "ĠĚ ěĞ",
      "ĠĚ ěĝ",
      "ĠĚ !ĝ",
      "ĠĚ Ĝ$",
      "ĠĚ #ĝ",
      "ĠĚ ěě",
      "ĠĚ ę#",
      "ĠĚ !$",
      "ĠĚ '#",
      "ĠĚ !Ĝ",
      "ĠĚ !%",
      "ĠĚ ĝ%",
      "ĠĚ Ğě",
      "Ġ!\" &",
      "Ġ!\" ę",
      "Ġ' Ĝ!",
      "Ġ' Ĝğ",
      "Ġ' ĝğ",
      "Ġ' ĜĞ",
      "Ġ' ĝ\"",
      "Ġ' Ğ\"",
      "Ġ' ě!",
      "Ġ' %\"",
      "Ġ' ĞĞ",
      "Ġ' ĝĝ",
      "Ġ' !\"",
      "Ġ' &ğ",
      "Ġ' \"#",
      "Ġ' '!",
      "Ġ' 'ğ",
      "Ġ' #Ĝ",
      "Ġ' ĚĜ",
      "Ġ\"ğ '",
      "Ġę ĕ",
      "Ġę $ğ",
      "Ġę \"\"",
      "Ġę ##",
      "Ġę ğ\"",
      "Ġę Ğĝ",
      "Ġę !#",
      "Ġę Ğ#",
      "Ġę #$",
      "ĠĞ! (",
      "ĠĞ! ę",
      "Ġğ\" ę",
      "Ġ!Ğ (",
      "Ġ!Ğ ę",
      "Ġ( ě",
      "Ġ( ĀĀ",
      "Ġ( ě!",
      "Ġ( ğ!",
      "Ġ( \"!",
      "Ġ( $%",
      "ĠĘ %",
      "ĠĘ '",
      "ĠĘ (",
      "ĠĘ !!",
      "ĠĘ ğĞ",
      "ĠĘ ğ\"",
      "ĠĘ \"ĝ",
      "ĠĘ Ğ$",
      "Ġ\"\" &",
      "Ā! !ě",
      "ĠĞĞ ę",
      "ĠĞ\" Ě",
      "Ā\" ğ!",
      "Ā\" !\"",
      "ĀĞ !ğ",
      "Āĝ Ğ",
      "Ġĝğ '",
      "#ğ !",
      "#ğ ĝ",
      "Ġğĝ &",
      "Ġğĝ '",
      "Ġ) #",
      "Ġ) Ğ",
      "Ġ) %\"",
      "Ġ) ğ!",
      "Ġ) ğ\"",
      "Ġ) \"#",
      "Ġ) \"ĝ",
      "Ġė ĝ#",
      "#! !",
      "#! Ĝ",
      "Ā$ &",
      "Ā$ \"\"",
      "Ā# #ğ",
      "Ā# ĝĞ",
      "ĠĞĝ Ě",
      "Ġ#\" ę",
      "ĠĝĞ Ě",
      "Ġğ# '",
      "Ġ* \"",
      "Ġ* )",
      "Ġ* ğğ",
      "Ġ* !\"",
      "Āě !!",
      "ĠĖ \"",
      "ĠĖ ğ",
      "ĠĖ \"\"",
      "Ġ#Ğ &",
      "Ġ#Ğ ę",
      "Ġ\"ĝ Ě",
      "Ĝ! #",
      "ĀĀ$ Ā)",
      "Ā& Ěĝ",
      "Ĝğ Ğ",
      "Ĝğ ĀĀ",
      "ĝğ !",
      "ĀĀ% Ā)",
      "$\" #",
      "$\" &",
      "ĠĜ! Ě",
      "ĠĜ! ě",
      "ĝ! %",
      "ĝ! ĀĀ",
      "Ğğ !",
      "Ġĕ Ğ",
      "ĀĀ& Ā)",
      "#Ğ Ğ",
      "$ĀĀ ,",
      "$ĀĀ Ĕ",
      "ĝ\" \"",
      "#ĀĀ đ",
      "#ĀĀ Ē",
      "Ğ\" \"",
      "Ğ\" &",
      "ğğ \"",
      "ĠĀĀ .",
      "ĠĀĀ :",
      "ĠĀĀ đ",
      "ĠĀĀ Ē",
      "ě! ĀĀ",
      "%ĀĀ Ď",
      "!ğ !",
      "&ĀĀ Ď",
      "'ĀĀ Đ",
      "\"\" \"",
      "\"! &",
      "(ĀĀ Ď",
      "(ĀĀ Ē",
      ")ĀĀ ē",
      ")ĀĀ Ĕ",
      "ĠĜĞ ě",
      "Ġ## ę",
      "Ġ!Ĝ Ě",
      "*ĀĀ ē",
      "ĀĀ' Ā'",
      "ĠĀ -",
      "ĠĀ ĕ",
      "Ġĝ# &",
      "!ĝ ĀĀ",
      "ĀĀę Ā&",
      "ĀĀę ĀĚ",
      "ĀĀę Āę",
      "Ġ!$ Ě",
      "ĀĀĞĀ Ē",
      "ĀĀ\"Ā ē",
      "ĀĀ\"Ā Ė",
      "Ġ\"$ ě",
      "ĀĀ( Āĝ",
      "ĀĀ( ĀĚ",
      "ĀĀ( Āę",
      "ĀĀ( Āė",
      "ĠĞĜ &",
      "ĠĞĜ Ě",
      "\"ĝ (",
      "Ġğ$ &",
      "'! ĀĀ",
      "Ġ$Ğ ę",
      "ĀĀĝĀ -",
      "ĀĀĝĀ .",
      "ĀĀĝĀ Ė",
      "Ġ%ğ $",
      "ĠĞ$ ę",
      "ĠĞ$ ě",
      "ĀĀė Ā#",
      "ĀĀė ĀĘ",
      "ĀĀ!Ā Ĕ",
      "Ġě! Ĝ",
      "ĀĀ) Ā$",
      "ĀĀ) ĀĚ",
      "ĀĀ) Āė",
      "Ġěğ %",
      "Ġěğ ě",
      "Ġ%! ę",
      "Ġ%! Ě",
      "Ġ\"Ĝ %",
      "ĀĀĖ ĀĚ",
      "ĀĀĖ Āė",
      "ĠĜĝ Ě",
      "ĀĀĕ Āę",
      "ĀĀĕ Ā(",
      "Ġ#$ ę",
      "ĀĀĜĀ *",
      "Ġĝ$ '",
      "Ġ$ĝ ě",
      "+ĀĀ -",
      "+ĀĀ Đ",
      "+ĀĀ Ĕ",
      "ĀĀěĀ Ĕ",
      "ĀĀ+ ĀĚ",
      "ĀĀ+ Ā(",
      "Ġ%Ğ Ě",
      "ęĜ ĀĀ",
      "ĀĀ* Āĝ",
      "Ğ% -",
      "ĀĀ- Ā%",
      "ĀĀ- Ā&",
      "!% (",
      "ĀĀ%Ā Ė",
      "ĀĀ$Ā Ė",
      "ĀĀĔ Ā!",
      "ĀĀĔ Ā\"",
      "ĀĀĔ Āě",
      "ĀĀ. Ā!",
      "Ġ\"% &",
      "ĀĀ, ĀĜ",
      "ĀĀ, Ā$",
      "ĀĀ, Ā+",
      "ĀĀ/ ĀĞ",
      "ĀĀĚĀ .",
      "ĀĀĚĀ Ė",
      "ĀĀĒ Āğ",
      "ĀĀĒ ĀĞ",
      "ĀĀĒ Ā&",
      "Ġěĝ Ě",
      "ĀĀĝĀĝ !",
      "ĠĜĜ '",
      "Ġ#% ě",
      "ĖĞ ĀĀ",
      "ĀĀĐ Āĝ",
      "Ā#ğ Ğ",
      "$ĀĀ) Ā",
      "$ĀĀĘ Ā\"",
      "*ĀĀę Ā!",
      "! Ĕ",
      "! Ğ!",
      "! ğğ",
      "! ĝĝ",
      "! '\"",
      "! ę\"",
      "! '#",
      "! ĘĜ",
      "\" Ď",
      "\" Ĝ!",
      "\" ĝğ",
      "\" Ğ!",
      "\" ĝ\"",
      "\" Ĝĝ",
      "\" ĚĞ",
      "\" ęĞ",
      "\" &#",
      "\" Ě%",
      "\" ėĞ",
      "\" &%",
      "\" '&",
      "\" ęĚ",
      "# #ğ",
      "# $\"",
      "# Ğğ",
      "# ĝ\"",
      "# ěĝ",
      "# %$",
      "# ĚĞ",
      "# ę\"",
      "# &&",
      "$ *",
      "$ ěĝ",
      "$ 'ğ",
      "$ ĀĀ%Ā",
      "$ ĀĀĞĀ\"",
      "% Ğ!",
      "% ĀĀĞĀ",
      "% ĀĀğĀĞ",
      "% ĀĀ!Ā!",
      "% ĀĀĞĀĞ",
      "% ĀĀ!ĀĜ",
      "% ĀĀ#Ā!",
      "& Ď",
      "& Ė",
      "& ė",
      "& Ěğ",
      "& \"Ğ",
      "& Ě\"",
      "& ĀĀĞĀĞ",
      "& ĀĀĝĀ$",
      "' .",
      "' ĀĀĞĀ",
      "' ĀĀ!Ā",
      "' ĀĀ!Ā!",
      "' ĀĀğĀ!",
      "' ĀĀ%Ā",
      "' ĀĀĞĀ!",
      "' ĀĀĝĀ!",
      "' ĀĀ!Ā\"",
      "' ĀĀĞĀ\"",
      "' ĀĀ\"Āğ",
      "' *\"",
      "' ĀĀĜĀĝ",
      "' ĀĀ&Āĝ",
      "( ĀĀğĀ!",
      "( ĀĀ&Āğ",
      "( ĀĀĜĀ&",
      ") Ē",
      ") ė",
      ") Ę",
      ") ĀĀĞĀğ",
      ") ĀĀ#Ā$",
      "* ĀĀğĀĞ",
      "* ĀĀ!Ā!",
      "* ĀĀ\"Āğ",
      "* ĀĀ\"Ā!",
      "* ĀĀĝĀĜ",
      "* ĀĀĞĀę",
      "+ ĀĀěĀ",
      "+ ĀĀ$Ā",
      "+ ĀĀĞĀĝ",
      "+ ĀĀĜĀĝ",
      ", *",
      ", ,",
      "- ė",
      "- ě",
      "- ĀĀĜĀĞ",
      ". ,",
      ". Ĝ",
      "/ $",
      "/ '",
      "/ ĝ",
      ": Ā\"",
      "Ā ď",
      "ď !",
      "ď Ĝ",
      "ď Ā\"",
      "Đ )",
      "Đ Ė",
      "Đ Ě",
      "Đ Ğ",
      "đ đ",
      "ē /",
      "ē Đ",
      "ĕ ĕ",
      "ĕ Ĝğ",
      "ĕ \"'",
      "Ė +",
      "Ė ,",
      "Ė ē",
      "Ė ě!",
      "ė Ě\"",
      "Ę -",
      "Ę Ĝ!",
      "Ę Ğ\"",
      "Ę ğ\"",
      "Ę ĚĞ",
      "Ę !$",
      "Ę ĀĀ%Ā#",
      "ę -",
      "ę /",
      "ę đ",
      "ę ěĞ",
      "Ě ,",
      "Ě ĝğ",
      "Ě !\"",
      "Ě ě#",
      "Ě ĀĀğĀ",
      "Ě '\"",
      "Ě %%",
      "Ě ĀĀ/",
      "ě /",
      "ě #ğ",
      "ě Ğ\"",
      "ě ĞĞ",
      "ě ĝĝ",
      "ě Ě%",
      "ě '(",
      "Ĝ -",
      "Ĝ $\"",
      "Ĝ ĝ!",
      "Ĝ ĀĀğĀ",
      "Ĝ %$",
      "Ĝ (\"",
      "ĝ ē",
      "ĝ ĝ!",
      "ĝ ĝ#",
      "ĝ ě#",
      "ĝ %$",
      "ĝ ę\"",
      "ĝ ĘĞ",
      "ĝ Ęĝ",
      "ĝ Ę!",
      "ĝ &&",
      "ĝ ('",
      "Ğ Ē",
      "Ğ ē",
      "Ğ ĝğ",
      "Ğ Ĝ\"",
      "Ğ %!",
      "Ğ ě\"",
      "Ğ Ĝ#",
      "Ğ ##",
      "Ğ ęĝ",
      "ğ .",
      "ğ Ē",
      "ğ Ĕ",
      "ğ ĜĞ",
      "ğ Ğ!",
      "ğ \"!",
      "ğ %#",
      "ğ Ěĝ",
      "ğ &%",
      "ğ )\"",
      "ğ ėĝ",
      "ğ *)",
      "Ġ 8",
      "Ġ ĀĀğĀ!",
      "Ġ ĀĀĝĀ!",
      "Ġ ĀĀĞĀğ",
      "Ġ ĀĀĞĀĞ",
      "Ġ ĀĀ\"ĀĞ",
      "Ġ ĀĀ#Ā!",
      "Ġ ĀĀ!Ā#",
      "Ġ ĀĀ#ĀĞ",
      "Ġ ĀĀĜĀğ",
      "Ġ ĀĀ#Ā$",
      "Ġ ĀĀĚĀğ",
      "Ġ ĀĀĝĀě",
      "Ġ ĀĀ&Āğ",
      "Ġ ĀĀ#ĀĘ",
      "ĠĠ Ċ",
      "Ġ! $ĀĀ",
      "Ġ! Ěĝ",
      "Ġ! ĚĜ",
      "Ġ! Ęĝ",
      "Ġ! Ę!",
      "Ġ! Ęğ",
      "Ġ! ě%",
      "Ġ! )!",
      "Ġ! ė\"",
      "Ġ! Ě&",
      "Ġ! 'ĝ",
      "Ġ! ėğ",
      "Ġ! )%",
      "Ġğ -",
      "Ġğ Ĕ",
      "Ġğ ĀĀ",
      "Ġğ '!",
      "Ġğ &ĝ",
      "Ġğ ĚĜ",
      "Ġğ ę#",
      "Ġğ Ęĝ",
      "Ġğ ęĜ",
      "Ġğ Ě%",
      "Ġğ (#",
      "Ġğ ęě",
      "Ġğ ė!",
      "Ġğ Ě$",
      "Ġğ (Ğ",
      "Ġğ 'ĝ",
      "Ġğ '%",
      "Ġğ ĖĞ",
      "Ġ\" (!",
      "Ġ\" '#",
      "Ġ\" '$",
      "Ġ\" ě%",
      "Ġ\" &ě",
      "Ġ\" 'ĝ",
      "ĠĞ Ĕ",
      "ĠĞ ė",
      "ĠĞ ęĞ",
      "ĠĞ ę\"",
      "ĠĞ ĚĜ",
      "ĠĞ (!",
      "ĠĞ ĘĞ",
      "ĠĞ &&",
      "ĠĞ ęĜ",
      "ĠĞ (#",
      "ĠĞ ęě",
      "ĠĞ Ě$",
      "ĠĞ Ěě",
      "ĠĞ 'ĝ",
      "ĠĞ ę&",
      "ĠĞ ĕĞ",
      "ĠĞ )Ğ",
      "ĠĞ 'ě",
      "ĀĀ ą",
      "Ġĝ ĀĀ",
      "Ġĝ &#",
      "Ġĝ 'Ğ",
      "Ġĝ ęĝ",
      "Ġĝ Ę!",
      "Ġĝ (ğ",
      "Ġĝ '$",
      "Ġĝ (#",
      "Ġĝ Ě$",
      "Ġĝ 'Ĝ",
      "Ġĝ ėĜ",
      "Ġ# Ěĝ",
      "Ġ# ěě",
      "Ġ# '\"",
      "Ġ# %%",
      "Ġ# (!",
      "Ġ# Ę!",
      "Ġ# (\"",
      "Ġ# )ğ",
      "Ġ# )!",
      "Ġ# &ě",
      "Ġ# ĚĘ",
      "Ġ$ *",
      "Ġ$ ė",
      "Ġ$ ě$",
      "Ġ$ &Ğ",
      "Ġ$ ęĞ",
      "Ġ$ '\"",
      "Ġ$ ĚĜ",
      "Ġ$ ę#",
      "Ġ$ '$",
      "Ġ$ ęĜ",
      "Ġ$ &Ĝ",
      "Ġ$ ěĚ",
      "Ġ$ ė!",
      "Ġ$ (Ğ",
      "ĠĜ ĕ",
      "ĠĜ $ĝ",
      "ĠĜ ě$",
      "ĠĜ &Ğ",
      "ĠĜ 'ğ",
      "ĠĜ ę!",
      "ĠĜ ę\"",
      "ĠĜ (!",
      "ĠĜ ě%",
      "ĠĜ Ě$",
      "ĠĜ ę$",
      "ĠĜ )!",
      "ĠĜ (Ğ",
      "ĠĜ 'ĝ",
      "ĠĜ ę%",
      "ĠĜ ėğ",
      "Ġğğ )",
      "Ġě Ė",
      "Ġě %Ğ",
      "Ġě Ěğ",
      "Ġě Ě!",
      "Ġě %$",
      "Ġě ĚĞ",
      "Ġě Ĝ$",
      "Ġě 'ğ",
      "Ġě ĝĜ",
      "Ġě ęĞ",
      "Ġě '\"",
      "Ġě &ĝ",
      "Ġě #Ĝ",
      "Ġě %%",
      "Ġě ęĝ",
      "Ġě Ę\"",
      "Ġě Ĝ%",
      "Ġě ĝě",
      "Ġě &ě",
      "Ġě $ě",
      "Ġ% *",
      "Ġ% +",
      "Ġ% ė",
      "Ġ% Ĝ#",
      "Ġ% $#",
      "Ġ% Ě!",
      "Ġ% %ĝ",
      "Ġ% \"#",
      "Ġ% Ĝ$",
      "Ġ% &#",
      "Ġ% &ĝ",
      "Ġ% ĚĜ",
      "Ġ% \"%",
      "Ġ% ę#",
      "Ġ% '#",
      "Ġ% $ě",
      "Ġ% )#",
      "Ġ% (Ĝ",
      "Ġğ! Ę",
      "Ġ!ğ '",
      "Ġ& ĝ\"",
      "Ġ& ě\"",
      "Ġ& %\"",
      "Ġ& ěĝ",
      "Ġ& Ě!",
      "Ġ& ĜĜ",
      "Ġ& ęğ",
      "Ġ& 'ğ",
      "Ġ& \"$",
      "Ġ& '\"",
      "Ġ& &ĝ",
      "Ġ& \"Ĝ",
      "Ġ& (ğ",
      "Ġ& #ě",
      "Ġ& !ě",
      "Ġ& \"ě",
      "Ġ& ĞĚ",
      "Ġ& #Ě",
      "ĠĚ ĀĀ",
      "ĠĚ $Ğ",
      "ĠĚ #\"",
      "ĠĚ %ğ",
      "ĠĚ $#",
      "ĠĚ ĝĝ",
      "ĠĚ Ě\"",
      "ĠĚ ě#",
      "ĠĚ ę\"",
      "ĠĚ ę$",
      "ĠĚ !&",
      "Ġ\"! '",
      "Ġ!\" (",
      "Ġ' ę",
      "Ġ' Ě",
      "Ġ' $!",
      "Ġ' Ĝĝ",
      "Ġ' $ĝ",
      "Ġ' Ě\"",
      "Ġ' ěĝ",
      "Ġ' Ě!",
      "Ġ' ğ#",
      "Ġ' !#",
      "Ġ' !ĝ",
      "Ġ' %$",
      "Ġ' #ĝ",
      "Ġ' ĝĜ",
      "Ġ' \"%",
      "Ġ' ğĝ",
      "Ġ' ğ$",
      "Ġ' ĞĜ",
      "Ġ' ğ%",
      "Ġ' !%",
      "Ġ' ğě",
      "Ġ' !ě",
      "Ġ' &ě",
      "Ġ' Ğę",
      "Ġ\"ğ ė",
      "Ġę Ę",
      "Ġę Ě",
      "Ġę ĀĀ",
      "Ġę #ğ",
      "Ġę Ĝğ",
      "Ġę $\"",
      "Ġę ě!",
      "Ġę $#",
      "Ġę Ĝĝ",
      "Ġę \"ğ",
      "Ġę &ĝ",
      "Ġę #Ĝ",
      "Ġę Ğ$",
      "Ġę Ğ%",
      "Ġę ğ%",
      "Ġę !%",
      "Ġę Ĝ%",
      "Ġę #%",
      "Ġę )ğ",
      "Ġę $ě",
      "ĠĞ! )",
      "Ġğ\" '",
      "Ġ( #ğ",
      "Ġ( $ğ",
      "Ġ( $!",
      "Ġ( Ĝğ",
      "Ġ( ĝğ",
      "Ġ( $Ğ",
      "Ġ( ě\"",
      "Ġ( !ğ",
      "Ġ( %\"",
      "Ġ( ĞĞ",
      "Ġ( Ěğ",
      "Ġ( Ğĝ",
      "Ġ( !#",
      "Ġ( \"#",
      "Ġ( #ĝ",
      "Ġ( #$",
      "Ġ( ğĝ",
      "Ġ( Ğ%",
      "Ġ( ĞĜ",
      "Ġ( #ě",
      "Ġ( ğĚ",
      "ĠĘ Ĝğ",
      "ĠĘ Ĝ\"",
      "ĠĘ ĜĞ",
      "ĠĘ !ğ",
      "ĠĘ \"ğ",
      "ĠĘ %Ğ",
      "ĠĘ \"Ğ",
      "ĠĘ \"$",
      "ĠĘ %%",
      "ĠĘ ğ$",
      "ĠĘ $Ĝ",
      "ĠĘ Ğ&",
      "Ā! \"",
      "Ā! $ĝ",
      "Ā! ğĜ",
      "ĠĞĞ '",
      "Āğ Ğ",
      "Āğ ĝĞ",
      "Āğ \"ğ",
      "Ā\" ğğ",
      "Ā\" !!",
      "Ā\" \"ğ",
      "Ā\" !ĝ",
      "Ġ\"Ğ '",
      "Ġ\"Ğ (",
      "Ġ\"Ğ Ę",
      "Ġ#! &",
      "Ġ#! Ę",
      "ĀĞ ğ",
      "ĀĞ \"ğ",
      "ĀĞ ##",
      "Āĝ !\"",
      "Ġĝğ ę",
      "Ġğĝ (",
      "Ġ) '",
      "Ġ) ě",
      "Ġ) Ğ\"",
      "Ġ) $#",
      "Ġ) ĝĜ",
      "Ġ) \"Ĝ",
      "Ġ) ğĜ",
      "Ġ#ğ %",
      "Ġ#ğ &",
      "Ġė '",
      "Ġė $ğ",
      "Ġė $\"",
      "Ġė #\"",
      "Ġė Ğ!",
      "Ġė ğğ",
      "Ġė \"\"",
      "Ġė &!",
      "#! $",
      "#! &",
      "#! (",
      "#! Ğ",
      "Ā$ ĝĞ",
      "Ā$ ĝě",
      "Ā# Ğ",
      "ĠĞĝ '",
      "Ġ* !",
      "Ġ* ,",
      "Ġ* $ğ",
      "Ġ* $Ğ",
      "Ġ* Ğ\"",
      "Ġ* !ĝ",
      "Āě \"\"",
      "ĠĖ #",
      "ĠĖ $",
      "ĠĖ Ğğ",
      "ĠĖ ğ!",
      "ĠĖ Ě!",
      "Ā% Ĝ%",
      "Ġ#Ğ %",
      "$ğ ĝ",
      "$! %ĀĀ",
      "Ā& $ğ",
      "Ĝğ '",
      "Ġ$ğ Ę",
      "Ĝ\" $",
      "Ĝ\" '",
      "Ġ+ !",
      "Ġ+ \"",
      "Ġ+ %",
      "Ġ+ \"Ĝ",
      "$\" Ğ",
      "ĠĜ! Ĝ",
      "ĝ! $",
      "#\" \"",
      "Ġĕ \"",
      "Ġĕ ğ",
      "Ğ! \"",
      "ĀĀ& Ā(",
      "#Ğ #",
      "ěğ !",
      "$ĀĀ ď",
      "ĝ\" %",
      "#ĀĀ Ď",
      "#ĀĀ Ė",
      "Ğ\" !",
      "ğğ !",
      "ğğ Ğ",
      "ĠĀĀ ,",
      "ĠĀĀ /",
      "%! ĀĀ",
      "%ĀĀ Ć",
      "%ĀĀ ē",
      "ě\" $",
      "%ğ #",
      "ĠĞ# ė"
    ]
  }
}