{
  "version": "1.0",
  "truncation": null,
  "padding": null,
  "added_tokens": [],
  "normalizer": null,
  "pre_tokenizer": {
    "type": "ByteLevel",
    "add_prefix_space": false,
    "trim_offsets": true,
    "use_regex": true
  },
  "post_processor": {
    "type": "ByteLevel",
    "add_prefix_space": true,
    "trim_offsets": false,
    "use_regex": true
  },
  "decoder": {
    "type": "ByteLevel",
    "add_prefix_space": true,
    "trim_offsets": true,
    "use_regex": true
  },
  "model": {
    "type": "BPE",
    "dropout": null,
    "unk_token": null,
    "continuing_subword_prefix": null,
    "end_of_word_suffix": null,
    "fuse_unk": false,
    "byte_fallback": false,
    "ignore_merges": false,
    "vocab": {
      "\u0000": 0,
      "\u0001": 1,
      "\u0002": 2,
      "\u0003": 3,
      "\u0004": 4,
      "\u0005": 5,
      "\u0006": 6,
      "\u0007": 7,
      "\b": 8,
      "\t": 9,
      "\n": 10,
      "\u000b": 11,
      "\f": 12,
      "\r": 13,
      "\u000e": 14,
      "\u000f": 15,
      "\u0010": 16,
      "\u0011": 17,
      "\u0012": 18,
      "\u0013": 19,
      "\u0014": 20,
      "\u0015": 21,
      "\u0016": 22,
      "\u0017": 23,
      "\u0018": 24,
      "\u0019": 25,
      "\u001a": 26,
      "\u001b": 27,
      "\u001c": 28,
      "\u001d": 29,
      "\u001e": 30,
      "\u001f": 31,
      " ": 32,
      "!": 33,
      "\"": 34,
      "#": 35,
      "$": 36,
      "%": 37,
      "&": 38,
      "'": 39,
      "(": 40,
      ")": 41,
      "*": 42,
      "+": 43,
      ",": 44,
      "-": 45,
      ".": 46,
      "/": 47,
      "0": 48,
      "1": 49,
      "2": 50,
      "3": 51,
      "4": 52,
      "5": 53,
      "6": 54,
      "7": 55,
      "8": 56,
      "9": 57,
      ":": 58,
      ";": 59,
      "<": 60,
      "=": 61,
      ">": 62,
      "?": 63,
      "@": 64,
      "Ā": 65,
      "ă": 66,
      "Ą": 67,
      "ą": 68,
      "Ć": 69,
      "ć": 70,
      "Ĉ": 71,
      "ĉ": 72,
      "Ċ": 73,
      "ċ": 74,
      "Č": 75,
      "č": 76,
      "Ď": 77,
      "ď": 78,
      "Đ": 79,
      "đ": 80,
      "Ē": 81,
      "ē": 82,
      "Ĕ": 83,
      "ĕ": 84,
      "Ė": 85,
      "ė": 86,
      "Ę": 87,
      "ę": 88,
      "Ě": 89,
      "ě": 90,
      "Ĝ": 91,
      "ĝ": 92,
      "Ğ": 93,
      "ğ": 94,
      "Ġ": 95,
      "ĠĠ": 96,
      "Ġ!": 97,
      "Ġğ": 98,
      "ĠĠĠĠ": 99,
      "Ġ\"": 100,
      "ĠĞ": 101,
      "ĠĠĠ": 102,
      "ĀĀ": 103,
      "Ġĝ": 104,
      "Ġ#": 105,
      "Ġ$": 106,
      "ĠĜ": 107,
      "ĠĠĠĠĠ": 108,
      "Ġě": 109,
      "Ġ!!": 110,
      "Ġ!ğ": 111,
      "Ġğğ": 112,
      "Ġ%": 113,
      "Ġğ!": 114,
      "ĠĠĠĠĠĠĠĠ": 115,
      "Ġ&": 116,
      "ĠĚ": 117,
      "Ġ'": 118,
      "Ġ\"!": 119,
      "Ġę": 120,
      "Ġ\"ğ": 121,
      "ĠğĞ": 122,
      "ĠĞ!": 123,
      "ĠĞğ": 124,
      "Ġ!\"": 125,
      "Ġ!Ğ": 126,
      "Ġğ\"": 127,
      "ĠĠĠĠĠĠ": 128,
      "ĠĘ": 129,
      "Ġ(": 130,
      "Ġ\"\"": 131,
      "Ā!": 132,
      "Ā\"": 133,
      "Āğ": 134,
      "Ġ\"Ğ": 135,
      "ĠĞĞ": 136,
      "ĠĞ\"": 137,
      "Ġ#!": 138,
      "ĀĀğ": 139,
      "ĀĞ": 140,
      "Ā#": 141,
      "Ġ!ĝ": 142,
      "Ġĝğ": 143,
      "Ġ)": 144,
      "Ġė": 145,
      "Ġ!#": 146,
      "Ġ#ğ": 147,
      "Ġĝ!": 148,
      "ĀĀ!": 149,
      "ĀĀĞ": 150,
      "ĀĀ\"": 151,
      "Ġğ#": 152,
      "Ġğĝ": 153,
      "Āĝ": 154,
      "Ā$": 155,
      "ĀĜ": 156,
      "Ġ!!ğ": 157,
      "Ġ!ğğ": 158,
      "Ġğ!!": 159,
      "ĀĀĝ": 160,
      "Ġ*": 161,
      "Ġğğ!": 162,
      "Ā%": 163,
      "ĀĀ#": 164,
      "ĠĠĠĠĠĠĠ": 165,
      "Ġ#\"": 166,
      "Ġ\"#": 167,
      "ĀĀĜ": 168,
      "ĠĝĞ": 169,
      "Ġ#Ğ": 170,
      "Ġĝ\"": 171,
      "Ā&": 172,
      "Ġ!ğ!": 173,
      "Ġ!!!": 174,
      "ĠĖ": 175,
      "Āě": 176,
      "Ġ\"ĝ": 177,
      "Ĝğ": 178,
      "ĠĞĝ": 179,
      "Ġğ!ğ": 180,
      "ĠĠĠĠĠĠĠĠĠĠĠ": 181,
      "Ġğğğ": 182,
      "Ĝ!": 183,
      "Ġ$ğ": 184,
      "ĠĞ#": 185,
      "ĀĀ$": 186,
      "ĀĀĚ": 187,
      "Ġĝĝ": 188,
      "$ğ": 189,
      "Ġ+": 190,
      "ĠĠĠĠĠĠĠĠĠĠĠĠ": 191,
      "$!": 192,
      "$Ğ": 193,
      "Ā'": 194,
      "ĀĀě": 195,
      "!!": 196,
      "Ĝ\"": 197,
      "ĀĀ%": 198,
      "ĀĚ": 199,
      "Ġ$\"": 200,
      "ĠĜğ": 201,
      "ĜĞ": 202,
      "Ġĕ": 203,
      "Ġ!ğĞ": 204,
      "#ğ": 205,
      "Ĝĝ": 206,
      "ĠĠĠĠĠĠĠĠĠĠ": 207,
      "ĀĀ&": 208,
      "$\"": 209,
      "Ğ!": 210,
      "Ġ#ĝ": 211,
      "ĠĜ!": 212,
      "Ġ\"!ğ": 213,
      "\"\"": 214,
      "Ġĝ#": 215,
      "Ġ$!": 216,
      "ĀĀĘ": 217,
      "ěğ": 218,
      "Ġğğ\"": 219,
      "Ġ\"ğğ": 220,
      "ĠĞğ!": 221,
      "\"!": 222,
      "ğğ": 223,
      "ĠğĞ!": 224,
      "ĠĔ": 225,
      "Ġ!!Ğ": 226,
      "Ĝ#": 227,
      "Ā)": 228,
      "ĝğ": 229,
      "ĀĀ(": 230,
      "Āę": 231,
      "ĀĀę": 232,
      "Ġ,": 233,
      "ĀĀ'": 234,
      "Ġ$Ğ": 235,
      "\"ğ": 236,
      "$ĝ": 237,
      "Ġ##": 238,
      "ě!": 239,
      "ĠĜĞ": 240,
      "$#": 241,
      "Ġ!\"!": 242,
      "Ġ$ĝ": 243,
      "Ġğ\"!": 244,
      "%!": 245,
      "Ā(": 246,
      "ĀĀė": 247,
      "Ġ!\"ğ": 248,
      "ĠĞ!!": 249,
      "Ġ!Ğğ": 250,
      "%#": 251,
      "%Ğ": 252,
      "&!": 253,
      "ĠĜĝ": 254,
      "ĠěĞ": 255,
      "!ğ": 256,
      "%ğ": 257,
      "ĀĀ)": 258,
      "ĠğĞğ": 259,
      "#Ğ": 260,
      "$$": 261,
      "ě\"": 262,
      "ěĞ": 263,
      "ĀĀĖ": 264,
      "Ġ!!\"": 265,
      "Ġ\"!!": 266,
      "ĀĘ": 267,
      "ĠĞ!ğ": 268,
      "ĠğğĞ": 269,
      "#\"": 270,
      "ğ!": 271,
      "Ġğ\"ğ": 272,
      "%\"": 273,
      "ĠĞğğ": 274,
      "#!": 275,
      "Ěğ": 276,
      "Ġ!ğ\"": 277,
      "Ġ\"!Ğ": 278,
      "!Ğ": 279,
      "\"Ğ": 280,
      "Ě!": 281,
      "Ġ!Ĝ": 282,
      "Ġğ!\"": 283,
      "\"ĝ": 284,
      "ĀĀ+": 285,
      "Ġ!Ğ!": 286,
      "Ě\"": 287,
      "ĞĞ": 288,
      "ğĞ": 289,
      "ğĝ": 290,
      "ĝĞ": 291,
      "ğ#": 292,
      "Ġ\"ğ!": 293,
      "Ġ\"\"ğ": 294,
      "Ġ-": 295,
      "Ġ!$": 296,
      "ĠĞ!\"": 297,
      "&ĀĀ": 298,
      "Āė": 299,
      "ĠĞğ\"": 300,
      "!ĝ": 301,
      "'ĀĀ": 302,
      "ĜĜ": 303,
      "Ġğ!Ğ": 304,
      "ĠĠĠĠĠĠĠĠĠĠĠĠĠĠĠĠ": 305,
      "\"#": 306,
      "Ĝ$": 307,
      "&\"": 308,
      "ě#": 309,
      "ěĝ": 310,
      "!\"": 311,
      "Ġ\"ğĞ": 312,
      "%ĝ": 313,
      "ĠĠĠĠĠĠĠĠĠ": 314,
      "##": 315,
      "ěě": 316,
      "Ġ#ğğ": 317,
      "!#": 318,
      "$ĀĀ": 319,
      "%ĀĀ": 320,
      "(ĀĀ": 321,
      "Ġ!ĞĞ": 322,
      "Ġ\"Ğğ": 323,
      "ĀĀğĀ": 324,
      "%$": 325,
      "&Ğ": 326,
      "Ě#": 327,
      "Ğĝ": 328,
      "Ġē": 329,
      "ĠĞĜ": 330,
      "Ġ$#": 331,
      "ĠĠĠĠĠĠĠĠĠĠĠĠĠ": 332,
      "Ġğ\"\"": 333,
      "ĠĞĞ!": 334,
      "ĠĞ\"!": 335,
      "'ğ": 336,
      "Ěĝ": 337,
      "Ğ\"": 338,
      "Ğğ": 339,
      "ğ\"": 340,
      "&ğ": 341,
      "ęğ": 342,
      "ě$": 343,
      "ĠĀĀ": 344,
      "Ġ\"$": 345,
      "Ġĝğ!": 346,
      "Ġ.": 347,
      "ĠĞ$": 348,
      "ĠĜ\"": 349,
      "Ġ!!ĝ": 350,
      "Ġ!\"Ğ": 351,
      "%Ĝ": 352,
      "Ā*": 353,
      "Ęĝ": 354,
      "Ġ!ğĝ": 355,
      "Ġ\"Ğ!": 356,
      "ĝ#": 357,
      "ĠğĜ": 358,
      "Ġ%!": 359,
      "Ġ#!ğ": 360,
      "ĚĜ": 361,
      "ĠĀ": 362,
      "Ġ\"\"Ğ": 363,
      "\"$": 364,
      "&#": 365,
      "*ĀĀ": 366,
      "ĚĞ": 367,
      "ĝ!": 368,
      "Ġğ$": 369,
      "Ġ\"!ĝ": 370,
      "Ġĝ!!": 371,
      "ĀĀĞĀ": 372,
      "ĀĀ\"Ā": 373,
      "'!": 374,
      ")ĀĀ": 375,
      "ĝ$": 376,
      "ğĜ": 377,
      "Ġğě": 378,
      "Ġě!": 379,
      "ĠğĞĞ": 380,
      "ĠĞĞğ": 381,
      "ĀĀ#Ā": 382,
      "#$": 383,
      "ę!": 384,
      "ęĞ": 385,
      "ĝ\"": 386,
      "Ġğ\"Ğ": 387,
      "%&": 388,
      "'\"": 389,
      "ĀĀĕ": 390,
      "Ġğğ#": 391,
      "Ġ\"\"!": 392,
      "ěĜ": 393,
      "ğě": 394,
      "ĠĒ": 395,
      "Ġ!\"\"": 396,
      "Ġ\"ĞĞ": 397,
      "Ġĝğ\"": 398,
      "\"%": 399,
      "$Ĝ": 400,
      "&&": 401,
      "Ā+": 402,
      "ėĞ": 403,
      "Ğě": 404,
      "Ġ!!Ĝ": 405,
      "ĠğĞ\"": 406,
      "Ġ!ĝğ": 407,
      "Ġ!#ğ": 408,
      "\"Ĝ": 409,
      "Ęğ": 410,
      "ĝĝ": 411,
      "Ğ#": 412,
      "Ġğ%": 413,
      "Ġğ!#": 414,
      "ĠĞğ#": 415,
      "Ġ#!Ğ": 416,
      "Ġ#\"ğ": 417,
      "(\"": 418,
      "ĀĀ,": 419,
      "ĠğĞ#": 420,
      "ĠĞ!Ğ": 421,
      "Ġ#ğĞ": 422,
      "ĀĀ!Ā": 423,
      "'#": 424,
      "Ġ!&": 425,
      "ĠĝĜ": 426,
      "Ġěğ": 427,
      "Ġ#!!": 428,
      "Ġĝğğ": 429,
      "(!": 430,
      "ĀĀ-": 431,
      "Ġ#$": 432,
      "Ġğğĝ": 433,
      "Ġ\"!\"": 434,
      "ĠĞĞ\"": 435,
      "Ġĝ!\"": 436,
      "ĠĝĞ!": 437,
      "!Ĝ": 438,
      "(ğ": 439,
      "ęě": 440,
      "Ěě": 441,
      "Ĝě": 442,
      "Ğ$": 443,
      "ĠĞě": 444,
      "ĀĀ.": 445,
      "ĀĀĒ": 446,
      "Ġĝ$": 447,
      "Ġğ!ĝ": 448,
      "ĠĠĠĠĠĠĠĠĠĠĠĠĠĠĠĠĠĠ": 449,
      "ĠĞğĞ": 450,
      "ĠĞ\"ğ": 451,
      "Ġ!ĝ!": 452,
      "Ġ!#!": 453,
      "Ġ!#Ğ": 454,
      "Ġğĝğ": 455,
      "#&": 456,
      "&ĝ": 457,
      "'Ğ": 458,
      "ĘĞ": 459,
      "ĝĜ": 460,
      "ĞĜ": 461,
      "ğĚ": 462,
      "ĠĠĠĠĠĠĠĠĠĠĠĠĠĠĠ": 463,
      "Ġ#\"!": 464,
      "ĀĀĜĀ": 465,
      "&$": 466,
      ")ğ": 467,
      "Ę\"": 468,
      "ęĜ": 469,
      "ĀĀ*": 470,
      "ĀĀē": 471,
      "ĠĜĜ": 472,
      "Ġě\"": 473,
      "Ġ\"ğĝ": 474,
      "ĠĞ!#": 475,
      "Ġ\"\"ĝ": 476,
      "Ġĝ!ğ": 477,
      "ĀĀěĀ": 478,
      "\"ě": 479,
      "#ĝ": 480,
      "&%": 481,
      "&Ĝ": 482,
      "Ę!": 483,
      "Ġ/": 484,
      "ĀĀĔ": 485,
      "Ġ\"ğ\"": 486,
      "Ġ!Ğĝ": 487,
      "Ġ#!ĝ": 488,
      "Ġ!ĝĞ": 489,
      "Ġğ#!": 490,
      "Ġğ#Ğ": 491,
      "Ġğ#ğ": 492,
      "ĠğĝĞ": 493,
      "Ġ\"#ğ": 494,
      "Ġ#ĞĞ": 495,
      "Ġ$ğğ": 496,
      "#ě": 497,
      "#Ĝ": 498,
      ")!": 499,
      "ęĝ": 500,
      "ğ$": 501,
      "ĠĀ!": 502,
      "ĠĀ\"": 503,
      "Ġ!Ě": 504,
      "Ġěĝ": 505,
      "Ġğ\"#": 506,
      "Ġ\"Ğĝ": 507,
      "ĀĀ!Ā!": 508,
      "Ġĝ\"!": 509,
      "ĠĞĝ!": 510,
      "Ġĝĝğ": 511,
      "ĀĀ%Ā": 512,
      "$ě": 513,
      "%ě": 514,
      "ėĝ": 515,
      "ėğ": 516,
      "ĠĀğ": 517,
      "Ġ\"Ĝ": 518,
      "ĠĞ%": 519,
      "ĀĀ/": 520,
      "Ġ#ě": 521,
      "Ġ#Ĝ": 522,
      "Ġ%Ğ": 523,
      "Ġ!Ğ\"": 524,
      "ĠĞ\"\"": 525,
      "Ġ#ğ!": 526,
      "ĀĀ!Āğ": 527,
      "ĀĀĞĀğ": 528,
      "Ġ$ğĞ": 529,
      "!$": 530,
      "$&": 531,
      "%'": 532,
      "($": 533,
      "ĘĜ": 534,
      "ę\"": 535,
      "ğ'": 536,
      "Ġ!$ğ": 537,
      "Ġ!ğĜ": 538,
      "Ġ\"ğĜ": 539,
      "ĀĀğĀ\"": 540,
      "Ġğ#\"": 541,
      "Ġğĝ!": 542,
      "ĀĀĝĀ\"": 543,
      "Ġ\"#!": 544,
      "Ġ\"ĝ!": 545,
      "!%": 546,
      "!Ě": 547,
      "(%": 548,
      "(Ĝ": 549,
      "(ĝ": 550,
      ",ĀĀ": 551,
      "Ę$": 552,
      "ě%": 553,
      "ğ%": 554,
      "ğĘ": 555,
      "Ġ0": 556,
      "ĀĀğĀĞ": 557,
      "ĀĀĞĀ#": 558,
      "ĀĀĝĀ": 559,
      "ĀĀĜĀ!": 560,
      "Ġ#Ğğ": 561,
      "Ġĝ\"ğ": 562,
      "ĀĀ'Ā": 563,
      ")\"": 564,
      ")$": 565,
      "ĀĖ": 566,
      "Ėĝ": 567,
      "Ę#": 568,
      "Ęě": 569,
      "ę#": 570,
      "ęĚ": 571,
      "ĞĚ": 572,
      "Ġđ": 573,
      "ĀĀđ": 574,
      "Ġ##ğ": 575,
      "Ġ!ğ#": 576,
      "ĠĠĠĠĠĠĠĠĠĠĠĠĠĠĠĠĠĠĠĠ": 577,
      "ĠĞ!ĝ": 578,
      "Ġ\"\"\"": 579,
      "ĀĀ!Ā\"": 580,
      "ĀĀ#Ā!": 581,
      "Ġ\"#Ğ": 582,
      "ĠĝĞ\"": 583,
      "ĠĞ#!": 584,
      "Ġĝĝ!": 585,
      "ĠĜğ\"": 586,
      "Ġĝ#!": 587,
      "!ě": 588,
      "\"'": 589,
      "\"Ě": 590,
      "#Ě": 591,
      "%Ě": 592,
      "'$": 593,
      "(#": 594,
      "(Ğ": 595,
      "ė!": 596,
      "ę$": 597,
      "ĝě": 598,
      "ğę": 599,
      "ĠĀě": 600,
      "Ġ!Ĝğ": 601,
      "Ġ\"ě": 602,
      "Ġ\"$Ğ": 603,
      "Ġ!ğ$": 604,
      "ĠğğĜ": 605,
      "ĠĚğ": 606,
      "Ġ\"!Ĝ": 607,
      "Ġ#!\"": 608,
      "Ġ!#ĝ": 609,
      "ĀĀ!ĀĞ": 610,
      "ĀĀ\"Ā!": 611,
      "Ġğĝ\"": 612,
      "ĀĀĝĀ!": 613,
      "ĀĀĝĀğ": 614,
      "ĀĀĝĀĞ": 615,
      "ĀĀĝĀ#": 616,
      "Ġ\"#ĝ": 617,
      "ĠĝĞğ": 618,
      "ĠĞ#\"": 619,
      "Ġ$!ğ": 620,
      "Ġ$Ğğ": 621,
      "\"&": 622,
      "$%": 623,
      "&ě": 624,
      "'&": 625,
      "''": 626,
      "'ĝ": 627,
      "(&": 628,
      "*!": 629,
      "*#": 630,
      "+ĀĀ": 631,
      "ė\"": 632,
      "ėĚ": 633,
      "ĜĚ": 634,
      "ĝ%": 635,
      "ĝĚ": 636,
      "ĠĀĜ": 637,
      "Ġ!ě": 638,
      "Ġ\"%": 639,
      "Ġ\"$ğ": 640,
      "Ġĝ%": 641,
      "ĠĜ#": 642,
      "Ġ!!#": 643,
      "Ġ%#": 644,
      "Ġğ!$": 645,
      "Ġ\"!#": 646,
      "ĠğĞĝ": 647,
      "Ġ!\"ĝ": 648,
      "ĀĀğĀğ": 649,
      "ĀĀğĀ#": 650,
      "Ġĝğ#": 651,
      "Ġ#ğĜ": 652,
      "Ġĝ!#": 653,
      "ĀĀ!Āĝ": 654,
      "ĀĀĞĀ!": 655,
      "ĀĀ\"Āğ": 656,
      "ĀĀ\"Ā$": 657,
      "ĀĀ#Ā\"": 658,
      "Ġ\"ĝĞ": 659,
      "Ġ\"ĝğ": 660,
      "!&": 661,
      "#ĀĀ": 662,
      "'%": 663,
      "'(": 664,
      "*\"": 665,
      "+!": 666,
      "ę%": 667,
      "ĚĚ": 668,
      "ĝ&": 669,
      "Ğ%": 670,
      "ĠĀĞ": 671,
      "ĠĀĝ": 672,
      "Ġğ$!": 673,
      "ĠğĜ\"": 674,
      "Ġ\"$!": 675,
      "Ġ#%": 676,
      "Ġ#$Ğ": 677,
      "ĠĜ!!": 678,
      "Ġğğ$": 679,
      "Ġğ!%": 680,
      "Ġ!\"#": 681,
      "Ġ!Ğ#": 682,
      "Ġ\"ĞĜ": 683,
      "Ġ#!#": 684,
      "ĀĀğĀ!": 685,
      "ĀĀğĀĜ": 686,
      "ĀĀĞĀ\"": 687,
      "ĀĀĞĀ%": 688,
      "ĀĀ\"Āĝ": 689,
      "Ġ#\"Ğ": 690,
      "Ġ#Ğ!": 691,
      "Ġ#Ğĝ": 692,
      "ĀĀ&Ā": 693,
      "ĠĜ!\"": 694,
      "Ġ$!Ğ": 695,
      "ĀĀĘĀ": 696,
      "$Ě": 697,
      "*'": 698,
      "ĕĝ": 699,
      "Ė!": 700,
      "ėė": 701,
      "ęĖ": 702,
      "Ě%": 703,
      "ĝ)": 704,
      "Ğ)": 705,
      "Ġ!%": 706,
      "ĠğĜğ": 707,
      "Ġğ$Ğ": 708,
      "Ġ\"&": 709,
      "Ġ\"Ě": 710,
      "ĠĞĜ!": 711,
      "Ġ$%": 712,
      "Ġ$Ĝ": 713,
      "ĠĜĞ!": 714,
      "Ġ%ğ": 715,
      "Ġğ\"ĝ": 716,
      "ĠĞĞĞ": 717,
      "ĀĀğĀ%": 718,
      "Ġ!#\"": 719,
      "Ġ#ğĝ": 720,
      "ĀĀ!Ā#": 721,
      "ĀĀ!Ā$": 722,
      "ĀĀ!ĀĜ": 723,
      "ĀĀĝĀĝ": 724,
      "Ġĝ\"\"": 725,
      "ĀĀ$Āĝ": 726,
      "ĠĝĝĞ": 727,
      "Ġ$\"!": 728,
      "Ġ$\"ĝ": 729,
      "Ġ$\"Ğ": 730,
      "ĠĜğ!": 731,
      "Ġ##Ğ": 732,
      "#%": 733,
      "&(": 734,
      "&ĀĀě": 735,
      ")%": 736,
      ")ĝ": 737,
      "Ā,": 738,
      "ĕĜ": 739,
      "ĕĀĀ": 740,
      "Ė\"": 741,
      "Ė#": 742,
      "ĖĜ": 743,
      "ĖĞ": 744,
      "ėĜ": 745,
      "Ğę": 746,
      "ğ&": 747,
      "ĠĀ$": 748,
      "Ġ!'": 749,
      "ĠğĚ": 750,
      "Ġ\"Ĝğ": 751,
      "ĠĞĚ": 752,
      "ĠĞĜ\"": 753,
      "Ġ$ě": 754,
      "Ġ$Ğ!": 755,
      "Ġ!!$": 756,
      "Ġ\"ğ#": 757,
      "ĠĞ!$": 758,
      "Ġ\"Ğ\"": 759,
      "ĠĞĞ#": 760,
      "ĠĞ\"#": 761,
      "ĀĀğĀĝ": 762,
      "ĀĀğĀ$": 763,
      "ĀĀğĀě": 764,
      "Ġ!ĝ\"": 765,
      "Ġ!ĝ#": 766,
      "ĀĀĞĀĞ": 767,
      "ĀĀĞĀ$": 768,
      "ĀĀ\"Ā\"": 769,
      "ĀĀ\"ĀĞ": 770,
      "ĀĀ\"Ā#": 771,
      "Ġĝ\"#": 772,
      "Ġ\"ĝ\"": 773,
      "ĀĀ$Ā\"": 774,
      "ĀĀĚĀ": 775,
      "ĀĀĚĀğ": 776,
      "Ġ$\"ğ": 777,
      "Ġ#ĝĞ": 778,
      "Ġĝ#\"": 779,
      "!ę": 780,
      "\"ę": 781,
      "(ě": 782,
      "*$": 783,
      "*(": 784,
      "*Ğ": 785,
      "Ĕě": 786,
      "Ėě": 787,
      "Ęę": 788,
      "ĘĀĀ": 789,
      "ĜĘ": 790,
      "Ĝę": 791,
      "Ğ(": 792,
      "ğĕ": 793,
      "ĠĐ": 794,
      "ĠĀ#": 795,
      "Ġ!Ĝ!": 796,
      "Ġ!$!": 797,
      "Ġ!ěğ": 798,
      "Ġğ&": 799,
      "ĠğĜĞ": 800,
      "Ġ\"ĜĞ": 801,
      "Ġ\"$ĝ": 802,
      "Ġ#ĜĞ": 803,
      "Ġ$!!": 804,
      "ĠĜ$": 805,
      "ĠĜě": 806,
      "ĠĜ\"ğ": 807,
      "Ġ%\"": 808,
      "ĠĚĝ": 809,
      "ĠĞ\"Ğ": 810,
      "ĀĀ\"ĀĜ": 811,
      "Ġğ#ĝ": 812,
      "ĀĀĝĀ$": 813,
      "ĀĀĝĀĜ": 814,
      "ĀĀ#ĀĞ": 815,
      "ĀĀ#Ā$": 816,
      "ĀĀĜĀĝ": 817,
      "Ġĝ\"ĝ": 818,
      "ĠĞĝĞ": 819,
      "ĠĞ##": 820,
      "ĠĞ#ğ": 821,
      "ĀĀĚĀĞ": 822,
      "ĀĀęĀ": 823,
      "ĀĀęĀ!": 824,
      "ĀĀĖĀ$": 825,
      "!(": 826,
      "'ě": 827,
      ")&": 828,
      ")*": 829,
      "*+": 830,
      ".ĀĀ": 831,
      "ĔĜ": 832,
      "Ėğ": 833,
      "ė$": 834,
      "ėę": 835,
      "ėě": 836,
      "Ę&": 837,
      "ĘĖ": 838,
      "ęę": 839,
      "Ĝ%": 840,
      "ĜĔ": 841,
      "Ġď": 842,
      "ĠĀ%": 843,
      "Ġ!$\"": 844,
      "Ġ!$#": 845,
      "Ġğ$ğ": 846,
      "Ġğ$\"": 847,
      "ĠĞĜğ": 848,
      "ĠĞ$!": 849,
      "ĠĞ$Ğ": 850,
      "Ġ#$ğ": 851,
      "ĠĜ\"\"": 852,
      "Ġ%Ğ!": 853,
      "Ġ%ğĞ": 854,
      "Ġğ!ě": 855,
      "ĠĠĠĠĠĠĠĠĠĠĠĠĠĠ": 856,
      "ĠĠĠĠĠĠĠĠĠĠĠĠĠĠĠĠĠĠĠ": 857,
      "Ġ&$": 858,
      "Ġ\"!ě": 859,
      "ĠęĞ": 860,
      "Ġ\"ğ$": 861,
      "ĠĞğ$": 862,
      "ĠĞğĝ": 863,
      "Ġ!Ğ$": 864,
      "Ġğ\"$": 865,
      "ĠĘĞ": 866,
      "Ġ!ĝĝ": 867,
      "ĀĀĞĀĝ": 868,
      "ĀĀĞĀĜ": 869,
      "ĀĀĞĀ&": 870,
      "ĀĀĞĀě": 871,
      "Ġğ##": 872,
      "ĀĀĜĀ#": 873,
      "ĠĝĞ#": 874,
      "ĠĞĝ\"": 875,
      "Ġ$ğĝ": 876,
      "ĀĀ$Ā!": 877,
      "ĀĀĚĀ!": 878,
      "ĀĀĚĀ\"": 879,
      "ĀĀĚĀ#": 880,
      "Ġĝĝ\"": 881,
      "ĀĀ%Āğ": 882,
      "ĠĜğğ": 883,
      "ĀĀ&Āğ": 884,
      "Ġ$!ĝ": 885,
      "ĀĀ(Ā": 886,
      "Ġ$Ğĝ": 887,
      "ĠĜĝ!": 888,
      "Ġ$#Ĝ": 889,
      "!'": 890,
      "\"+": 891,
      "\"Ę": 892,
      "%ę": 893,
      "&)": 894,
      "'Ě": 895,
      "()": 896,
      "(Ě": 897,
      ")-": 898,
      "+'": 899,
      "Āĕ": 900,
      "Ēĝ": 901,
      "Ĕĝ": 902,
      "ĕ\"": 903,
      "ĕĞ": 904,
      "Ėę": 905,
      "ėĕ": 906,
      "ėĘ": 907,
      "ėĀĀ": 908,
      "Ę%": 909,
      "Ě&": 910,
      "ĚĘ": 911,
      "Ĝ'": 912,
      "Ĝ(": 913,
      "ĝĖ": 914,
      "ĠğĜ#": 915,
      "Ġ\"Ĝ!": 916,
      "Ġ\"%Ğ": 917,
      "Ġĝě": 918,
      "Ġĝ$!": 919,
      "Ġ$$": 920,
      "Ġ$#ğ": 921,
      "Ġ$%ğ": 922,
      "Ġě!!": 923,
      "Ġě\"ğ": 924,
      "Ġğğ%": 925,
      "Ġğğ&": 926,
      "Ġ%!!": 927,
      "Ġğ!Ĝ": 928,
      "Ġ&!": 929,
      "Ġ&\"": 930,
      "Ġ&ĝ": 931,
      "Ġ&ğğ": 932,
      "Ġ'!": 933,
      "Ġ'\"": 934,
      "Ġ\"!Ě": 935,
      "ĠğĞ$": 936,
      "ĠĞ!Ĝ": 937,
      "Ġ!\"ě": 938,
      "Ġ\"Ğ#": 939,
      "ĠĞ\"$": 940,
      "ĠĞ\"ĝ": 941,
      "ĀĀğĀĚ": 942,
      "Ġ!ĝ$": 943,
      "Ġĝğĝ": 944,
      "Ġ!##": 945,
      "Ġĝ!$": 946,
      "Ġĝ!Ğ": 947,
      "ĀĀ!Ā%": 948,
      "ĀĀ!Āě": 949,
      "ĀĀ!Āę": 950,
      "ĀĀ\"Ā&": 951,
      "ĀĀ\"Ā'": 952,
      "ĀĀ#Āğ": 953,
      "ĀĀ#Āĝ": 954,
      "ĀĀ#ĀĜ": 955,
      "Ġ#\"\"": 956,
      "Ġ\"#Ĝ": 957,
      "ĀĀĜĀĜ": 958,
      "Ġ#Ğ\"": 959,
      "Ġ#Ğě": 960,
      "Ġ\"ĝĝ": 961,
      "Ġ$ğ!": 962,
      "ĠĞ#Ğ": 963,
      "ĀĀ$Āğ": 964,
      "ĀĀĚĀ&": 965,
      "ĀĀ%Ā&": 966,
      "ĠĜğ#": 967,
      "ĀĀ&Ā\"": 968,
      "ĀĀ&Āĝ": 969,
      "ĀĀ&ĀĜ": 970,
      "Ġ#ĝĝ": 971,
      "ĀĀ'Āğ": 972,
      "Ġ##!": 973,
      "Ġ$ĝĞ": 974,
      "ĠěĞğ": 975,
      "ĀĀĖĀ\"": 976,
      "#(": 977,
      "$(": 978,
      "$ę": 979,
      "%%": 980,
      "%Ę": 981,
      "'+": 982,
      ")#": 983,
      ")(": 984,
      "**": 985,
      "+Ĝ": 986,
      "ēĀĀ": 987,
      "Ĕ#": 988,
      "ĕ!": 989,
      "ĕğ": 990,
      "Ėė": 991,
      "ė#": 992,
      "ė&": 993,
      "Ę'": 994,
      "Ęĕ": 995,
      "ęĀĀ": 996,
      "ě&": 997,
      "ěę": 998,
      "ĝ(": 999,
      "ĝ,": 1000,
      "Ğė": 1001,
      "ĞĘ": 1002,
      "ğ+": 1003,
      "Ġ2": 1004,
      "Ġ!ĜĞ": 1005,
      "Ġ!$ĝ": 1006,
      "Ġğę": 1007,
      "Ġğ$#": 1008,
      "Ġğ%Ğ": 1009,
      "Ġ\"ę": 1010,
      "Ġ\"ěğ": 1011,
      "ĠĞ$#": 1012,
      "ĀĀď": 1013,
      "Ġĝ&": 1014,
      "ĠĝĜ!": 1015,
      "Ġ$#Ğ": 1016,
      "ĠĜ\"!": 1017,
      "ĠěĜğ": 1018,
      "ĠěĜ!": 1019,
      "Ġ!!ě": 1020,
      "Ġ!ğě": 1021,
      "Ġğğě": 1022,
      "Ġ%$": 1023,
      "Ġ%\"!": 1024,
      "Ġ%ğě": 1025,
      "Ġ&ě": 1026,
      "Ġ&ğ": 1027,
      "ĠĚ!": 1028,
      "Ġę#": 1029,
      "Ġ\"ğě": 1030,
      "ĠğĞĜ": 1031,
      "Ġ!Ğě": 1032,
      "Ġ!ĞĜ": 1033,
      "Ġ\"\"#": 1034,
      "Ġ#!Ĝ": 1035,
      "ĀĀğĀ'": 1036,
      "ĠĝğĞ": 1037,
      "Ġ!#Ĝ": 1038,
      "ĀĀ!ĀĚ": 1039,
      "ĀĀ\"Āě": 1040,
      "ĀĀ\"ĀĚ": 1041,
      "Ġğĝ#": 1042,
      "ĀĀĝĀ%": 1043,
      "Ġ#\"ĝ": 1044,
      "ĀĀĜĀ\"": 1045,
      "ĀĀĜĀğ": 1046,
      "ĀĀĜĀĞ": 1047,
      "ĀĀĜĀ$": 1048,
      "ĀĀĜĀ'": 1049,
      "Ġĝ\"Ğ": 1050,
      "Ġ\"ĝĜ": 1051,
      "ĠĞĝğ": 1052,
      "ĠĞ#ĝ": 1053,
      "ĀĀ$Ā": 1054,
      "ĀĀ$ĀĞ": 1055,
      "ĀĀ$ĀĜ": 1056,
      "ĀĀěĀ\"": 1057,
      "ĀĀěĀĞ": 1058,
      "ĀĀ%ĀĞ": 1059,
      "ĀĀ%Ā#": 1060,
      "Ġ#ĝ!": 1061,
      "ĠĜ!ğ": 1062,
      "Ġĝ#Ğ": 1063,
      "ĀĀĘĀĜ": 1064,
      "Ġ$ĞĞ": 1065,
      "Ġ##\"": 1066,
      "Ġ##ĝ": 1067,
      "ĠĜĞ\"": 1068,
      "Ġ$ĝ\"": 1069,
      "ĠĜĝĝ": 1070,
      "ĠĜĝĞ": 1071,
      "ĀĀ)Ā": 1072,
      "!+": 1073,
      "\"ĕ": 1074,
      "\"ĀĀ": 1075,
      "$'": 1076,
      "'Ę": 1077,
      "'Ĝ": 1078,
      "(*": 1079,
      "(,": 1080,
      "))": 1081,
      ")Ğ": 1082,
      ")ĀĀ)": 1083,
      "*ĝ": 1084,
      ".$": 1085,
      "/#": 1086,
      "čĠ": 1087,
      "ĕĚ": 1088,
      "ĘĒ": 1089,
      "ĘĔ": 1090,
      "ĘĚ": 1091,
      "ęė": 1092,
      "Ě$": 1093,
      "Ěė": 1094,
      "ě,": 1095,
      "Ĝ&": 1096,
      "Ĝ)": 1097,
      "Ĝė": 1098,
      "ĝ+": 1099,
      "ĝē": 1100,
      "ĝĘ": 1101,
      "ĝę": 1102,
      "Ğ'": 1103,
      "ĠĀ&": 1104,
      "ĠĀ'": 1105,
      "ĠĀĚ": 1106,
      "ĠĀę": 1107,
      "Ġ!$Ğ": 1108,
      "Ġ!Ĝĝ": 1109,
      "Ġ!%Ğ": 1110,
      "Ġ!%\"": 1111,
      "ĠğĜĝ": 1112,
      "Ġ\"&Ğ": 1113,
      "ĠĞ&": 1114,
      "ĠĞěĝ": 1115,
      "ĀĀć": 1116,
      "Ġĝ(": 1117,
      "ĠĝĜğ": 1118,
      "Ġ$&": 1119,
      "Ġ$Ĝ!": 1120,
      "Ġ$$!": 1121,
      "Ġ$$Ğ": 1122,
      "ĠĜĜ\"": 1123,
      "ĠĜě#": 1124,
      "Ġě#": 1125,
      "Ġě$": 1126,
      "ĠěĜ": 1127,
      "Ġě\"\"": 1128,
      "Ġě!ğ": 1129,
      "ĠěĝĞ": 1130,
      "Ġě!#": 1131,
      "Ġ%ĝğ": 1132,
      "Ġ%\"ğ": 1133,
      "Ġ%!ğ": 1134,
      "Ġ%!Ğ": 1135,
      "Ġ%Ğĝ": 1136,
      "Ġ&Ĝĝ": 1137,
      "Ġ&ĝğ": 1138,
      "Ġ&ğĝ": 1139,
      "ĠĚ#": 1140,
      "ĠĚĞ": 1141,
      "Ġę!": 1142,
      "Ġ!\"$": 1143,
      "Ġ!\"Ĝ": 1144,
      "Ġğ\"%": 1145,
      "ĠĞĞĝ": 1146,
      "Ġ#!ě": 1147,
      "ĀĀğĀĘ": 1148,
      "Ġĝ!Ĝ": 1149,
      "Ġĝ!ĝ": 1150,
      "ĀĀ!Ā&": 1151,
      "Ġğ#Ĝ": 1152,
      "ĀĀĝĀ&": 1153,
      "ĀĀĝĀ)": 1154,
      "Ġ#\"Ĝ": 1155,
      "ĀĀĜĀ%": 1156,
      "ĀĀĜĀě": 1157,
      "ĀĀ$Ā#": 1158,
      "ĀĀ$Ā&": 1159,
      "ĀĀ$Āě": 1160,
      "ĀĀ$ĀĚ": 1161,
      "ĀĀěĀğ": 1162,
      "ĀĀěĀ#": 1163,
      "ĀĀ%Ā$": 1164,
      "ĀĀ&ĀĞ": 1165,
      "Ġĝ#ĝ": 1166,
      "ĀĀĘĀ\"": 1167,
      "ĀĀĘĀğ": 1168,
      "ĀĀĘĀ#": 1169,
      "ĀĀĘĀě": 1170,
      "ĀĀ(Ā#": 1171,
      "ĀĀęĀ\"": 1172,
      "ĀĀęĀğ": 1173,
      "Ġ$ĝ!": 1174,
      "ĀĀėĀ!": 1175,
      "ĀĀ)Ā#": 1176,
      "ĀĀ+Ā": 1177,
      "Ġ$#ĝ": 1178,
      "Ġ%!ě": 1179,
      "!ĀĀ": 1180,
      "\"(": 1181,
      "$Ė": 1182,
      "%Ĕ": 1183,
      "')": 1184,
      "'ę": 1185,
      ")ě": 1186,
      "*ě": 1187,
      "*ğ": 1188,
      "+#": 1189,
      "+$": 1190,
      "+%": 1191,
      ",#": 1192,
      ",$": 1193,
      "-)": 1194,
      "/ĀĀ": 1195,
      "Ēě": 1196,
      "ē#": 1197,
      "Ĕğ": 1198,
      "ĕ$": 1199,
      "ĕĔ": 1200,
      "ĕĕ": 1201,
      "Ė$": 1202,
      "Ė)": 1203,
      "ĖĚ": 1204,
      "ė%": 1205,
      "Ĝ.": 1206,
      "Ĝĕ": 1207,
      "ĜĀĀ": 1208,
      "ğė": 1209,
      "ĠĎ": 1210,
      "Ġ!Ĝ\"": 1211,
      "Ġ!%!": 1212,
      "Ġ!&ğ": 1213,
      "Ġğě\"": 1214,
      "ĠğĚ!": 1215,
      "Ġ\"Ĝ\"": 1216,
      "Ġ\"ě!": 1217,
      "ĠĞę": 1218,
      "ĠĞě!": 1219,
      "ĠĞ%!": 1220,
      "ĠĞ&!": 1221,
      "ĀĀ;": 1222,
      "ĠĝĜĞ": 1223,
      "Ġĝ#ğ": 1224,
      "ĠĝĜĝ": 1225,
      "ĠĝĜ#": 1226,
      "Ġĝ&Ğ": 1227,
      "Ġ#&": 1228,
      "Ġ#Ě": 1229,
      "Ġ#Ĝğ": 1230,
      "Ġ#$!": 1231,
      "Ġ#$ĝ": 1232,
      "Ġ$Ĝğ": 1233,
      "Ġ$Ĝĝ": 1234,
      "Ġ$ĝğ": 1235,
      "Ġ$ĜĜ": 1236,
      "ĠĜ&": 1237,
      "ĠĜĚ": 1238,
      "ĠĜ#ğ": 1239,
      "ĠĜĚ!": 1240,
      "Ġě#ğ": 1241,
      "Ġěğğ": 1242,
      "Ġě#\"": 1243,
      "Ġ!ğ%": 1244,
      "Ġ%Ě": 1245,
      "Ġ%ě": 1246,
      "Ġ%ĝ": 1247,
      "Ġ%Ĝ!": 1248,
      "Ġ%$ğ": 1249,
      "Ġ%$!": 1250,
      "Ġ%\"\"": 1251,
      "Ġ%#Ğ": 1252,
      "Ġ%\"Ğ": 1253,
      "Ġ%ĞĞ": 1254,
      "Ġ%ğĝ": 1255,
      "Ġğ!&": 1256,
      "Ġ&\"ğ": 1257,
      "Ġ&#!": 1258,
      "ĠĚ$": 1259,
      "ĠĚĜ": 1260,
      "ĠĚ\"%": 1261,
      "Ġ'ĝ": 1262,
      "Ġ\"!$": 1263,
      "Ġęĝ": 1264,
      "Ġęğ": 1265,
      "Ġğ\"Ĝ": 1266,
      "ĠĘ!": 1267,
      "ĠĘğ": 1268,
      "Ġ(\"": 1269,
      "Ġ\"Ğ%": 1270,
      "ĠĞĞĜ": 1271,
      "ĠĞ\"Ĝ": 1272,
      "ĀĀğĀę": 1273,
      "ĀĀğĀ(": 1274,
      "Ġ!ĝě": 1275,
      "Ġ!ĝĜ": 1276,
      "Ġĝğ$": 1277,
      "ĠĝğĜ": 1278,
      "Ġ#ğ\"": 1279,
      "Ġ#ğ#": 1280,
      "Ġĝ!%": 1281,
      "ĀĀ!Ā'": 1282,
      "ĀĀĞĀĚ": 1283,
      "ĀĀĞĀĘ": 1284,
      "ĀĀ\"Ā%": 1285,
      "Ġğĝĝ": 1286,
      "ĀĀĝĀě": 1287,
      "ĀĀĝĀĚ": 1288,
      "ĀĀ#Ā#": 1289,
      "ĀĀ#Ā&": 1290,
      "ĀĀ#Ā'": 1291,
      "Ġ#\"ě": 1292,
      "Ġ\"#\"": 1293,
      "ĀĀĜĀ&": 1294,
      "ĀĀĜĀĚ": 1295,
      "Ġ\"ĝ#": 1296,
      "ĠĞĝ#": 1297,
      "ĠĞĝě": 1298,
      "ĠĞĝĝ": 1299,
      "Ġ$ğ\"": 1300,
      "Ġ$ğě": 1301,
      "ĀĀ$Ā%": 1302,
      "ĀĀĚĀ$": 1303,
      "ĀĀĚĀĜ": 1304,
      "ĀĀĚĀ%": 1305,
      "ĠĠĠĠĠĠĠĠĠĠĠĠĠĠĠĠĠ": 1306,
      "ĀĀěĀĝ": 1307,
      "ĀĀěĀ$": 1308,
      "ĀĀěĀ'": 1309,
      "ĀĀ%ĀĜ": 1310,
      "ĀĀ%Āě": 1311,
      "ĠĜğĞ": 1312,
      "ĀĀ&Ā#": 1313,
      "ĀĀ&Ā&": 1314,
      "ĠĜ!#": 1315,
      "ĠĜ!Ğ": 1316,
      "Ġĝ##": 1317,
      "ĀĀ(Ā$": 1318,
      "ĀĀęĀě": 1319,
      "ĀĀ'Ā\"": 1320,
      "Ġ$ĝĜ": 1321,
      "ĀĀėĀ&": 1322,
      "ĠĜĝ\"": 1323,
      "ĠĜĝ#": 1324,
      "ĀĀ)Ā%": 1325,
      "Ġ!ĜĜ": 1326,
      "ĀĀ+Ā\"": 1327,
      "ĠĠĠĠĠĠĠĠĠĠĠĠĠĠĠĠĠĠĠĠĠĠĠĠĠĠĠĠĠĠĠĠ": 1328,
      "Ġě!ě": 1329,
      "ĠĠĠĠĠĠĠĠĠĠĠĠĠĠĠĠĠĠĠĠĠĠĠĠĠ": 1330,
      "!)": 1331,
      "!ė": 1332,
      "!Ę": 1333,
      "#'": 1334,
      "#)": 1335,
      "#+": 1336,
      "#ē": 1337,
      "#ė": 1338,
      "$,": 1339,
      "$Ę": 1340,
      "%Ė": 1341,
      "&'": 1342,
      "&+": 1343,
      "&ė": 1344,
      "&Ę": 1345,
      ")Ĝ": 1346,
      ",-": 1347,
      "-*": 1348,
      "-Ğ": 1349,
      "-Āğ": 1350,
      ".&": 1351,
      "Ā-": 1352,
      "Ā.": 1353,
      "Ē!": 1354,
      "Ē&": 1355,
      "Ēę": 1356,
      "ēę": 1357,
      "ēĚ": 1358,
      "ēĞ": 1359,
      "Ĕĕ": 1360,
      "Ĕė": 1361,
      "ĖĖ": 1362,
      "ĖĀĀ": 1363,
      "ė)": 1364,
      "ė*": 1365,
      "Ę+": 1366,
      "ĘĘ": 1367,
      "Ě)": 1368,
      "Ěĕ": 1369,
      "Ěę": 1370,
      "ě)": 1371,
      "ěē": 1372,
      "ěĔ": 1373,
      "ěĕ": 1374,
      "ěĀĀ": 1375,
      "ĝ'": 1376,
      "ĞĀĀ": 1377,
      "ğ(": 1378,
      "ğē": 1379,
      "ĠĀ)": 1380,
      "ĠĀ(": 1381,
      "ĠĀė": 1382,
      "ĠĀĀ!Ā\"": 1383,
      "Ġ!(": 1384,
      "Ġ!%#": 1385,
      "Ġ!%ğ": 1386,
      "Ġ!$$": 1387,
      "Ġ!ě\"": 1388,
      "Ġ!ěĞ": 1389,
      "Ġğ$ĝ": 1390,
      "Ġğě!": 1391,
      "Ġğ%!": 1392,
      "Ġğ%#": 1393,
      "Ġğ%ğ": 1394,
      "ĠğĜĜ": 1395,
      "ĠğĚĝ": 1396,
      "Ġğę!": 1397,
      "Ġ\"Ĝĝ": 1398,
      "Ġ\"$\"": 1399,
      "ĠĞ)": 1400,
      "ĠĞĘ": 1401,
      "ĠĞ$ğ": 1402,
      "ĠĞěğ": 1403,
      "ĠĞĚğ": 1404,
      "ĠĝĜ\"": 1405,
      "Ġĝě!": 1406,
      "Ġĝ%!": 1407,
      "Ġ#'": 1408,
      "Ġ#Ę": 1409,
      "Ġ#ĀĀ": 1410,
      "Ġ#Ĝĝ": 1411,
      "Ġ#%Ğ": 1412,
      "Ġ#Ěğ": 1413,
      "Ġ#&ğ": 1414,
      "Ġ$Ĝ\"": 1415,
      "Ġ$ĜĞ": 1416,
      "Ġ$ěğ": 1417,
      "Ġ$Ĝ#": 1418,
      "Ġ$$ĝ": 1419,
      "Ġ$#\"": 1420,
      "ĠĜ%": 1421,
      "ĠĜĜ!": 1422,
      "ĠĜ$ğ": 1423,
      "ĠĜĜĞ": 1424,
      "ĠĜĜĝ": 1425,
      "ĠĜěğ": 1426,
      "ĠĜĝğ": 1427,
      "ĠĜ\"ĝ": 1428,
      "ĠěĜ#": 1429,
      "Ġě!Ğ": 1430,
      "Ġěğĝ": 1431,
      "Ġě\"#": 1432,
      "Ġěğ\"": 1433,
      "Ġ!ğĚ": 1434,
      "Ġ%$Ğ": 1435,
      "Ġ%ĜĞ": 1436,
      "Ġ%ě\"": 1437,
      "Ġ%#!": 1438,
      "Ġ%!ĝ": 1439,
      "Ġ%Ğě": 1440,
      "Ġ%\"Ĝ": 1441,
      "Ġğ!Ě": 1442,
      "Ġ&%": 1443,
      "Ġ&Ĝ": 1444,
      "Ġ&Ğ": 1445,
      "Ġ&!!": 1446,
      "Ġ&ğě": 1447,
      "ĠĚ&": 1448,
      "ĠĚğğ": 1449,
      "ĠĚ\"#": 1450,
      "ĠĚ!\"": 1451,
      "ĠĚğ\"": 1452,
      "ĠĚĞě": 1453,
      "Ġ'#": 1454,
      "Ġ'#\"": 1455,
      "Ġ!Ğ%": 1456,
      "Ġ(ĝ": 1457,
      "Ġ(!ĝ": 1458,
      "Ġ\"\"$": 1459,
      "Ġ\"\"ě": 1460,
      "Ġ\"\"Ĝ": 1461,
      "Ġ\"Ğ$": 1462,
      "Ġ\"Ğě": 1463,
      "ĠĞĞě": 1464,
      "ĀĀğĀ&": 1465,
      "ĀĀğĀ)": 1466,
      "Ġ!#$": 1467,
      "Ġ#ğĚ": 1468,
      "Ġĝ!&": 1469,
      "ĀĀĞĀ'": 1470,
      "ĀĀ\"Ā)": 1471,
      "ĀĀ\"Āę": 1472,
      "Ġğ#$": 1473,
      "Ġğĝ$": 1474,
      "ĀĀ#Ā%": 1475,
      "ĀĀ#Āę": 1476,
      "ĀĀ#Āė": 1477,
      "Ġ#\"#": 1478,
      "ĀĀĜĀ)": 1479,
      "ĠĝĞ%": 1480,
      "ĠĝĞĜ": 1481,
      "ĠĝĞĞ": 1482,
      "Ġ#Ğ#": 1483,
      "Ġ#ĞĜ": 1484,
      "Ġ\"ĝ$": 1485,
      "Ġ$ğĜ": 1486,
      "ĠĞ#$": 1487,
      "ĀĀĚĀĝ": 1488,
      "ĀĀĚĀ(": 1489,
      "Ġĝĝ#": 1490,
      "ĀĀěĀ!": 1491,
      "ĀĀěĀĜ": 1492,
      "ĀĀěĀ%": 1493,
      "ĀĀ%Ā!": 1494,
      "ĀĀ%Ā\"": 1495,
      "ĀĀ%Āĝ": 1496,
      "Ġ$\"\"": 1497,
      "Ġ$\"#": 1498,
      "ĀĀ&Ā!": 1499,
      "Ġ#ĝ\"": 1500,
      "Ġ#ĝğ": 1501,
      "\"\"ĀĀ": 1502,
      "Ġ$!\"": 1503,
      "ĀĀĘĀ!": 1504,
      "ĀĀĘĀĞ": 1505,
      "ĀĀ(ĀĜ": 1506,
      "ĀĀ(Ā%": 1507,
      "ĀĀ(Ā'": 1508,
      "ĀĀ(ĀĚ": 1509,
      "ĀĀ'ĀĞ": 1510,
      "ĀĀ'Āĝ": 1511,
      "ĠĜĞ#": 1512,
      "ĠĜĞ$": 1513,
      "ĠĜĞ%": 1514,
      "ĠĜĞĝ": 1515,
      "ĠĜĞğ": 1516,
      "ĀĀėĀĞ": 1517,
      "ĀĀėĀ%": 1518,
      "&!ĀĀ": 1519,
      "ĠěĞ%": 1520,
      "ĀĀ)Ā!": 1521,
      "ĀĀ)Āğ": 1522,
      "ĀĀĖĀ!": 1523,
      "ĀĀĖĀĞ": 1524,
      "ĀĀĖĀĝ": 1525,
      "ĀĀĖĀ(": 1526,
      "ĀĀ+Ā!": 1527,
      "ĀĀ+Ā$": 1528,
      "&ĀĀ*": 1529,
      "(ĀĀĒ": 1530,
      "ĠğĜě": 1531,
      "Ġě!$": 1532,
      "ĀĀ#ĀĖ": 1533,
      "ĀĀ,Ā!": 1534,
      "ĀĀ,Ā\"": 1535,
      "ĀĀ-Ā": 1536,
      "\"Ė": 1537,
      "#ĕ": 1538,
      "#ę": 1539,
      "$)": 1540,
      "$ė": 1541,
      "%)": 1542,
      "&Ĕ": 1543,
      "&ę": 1544,
      "&ĀĀ'": 1545,
      "'*": 1546,
      "('": 1547,
      "(-": 1548,
      "(.": 1549,
      "(ĕ": 1550,
      "(ę": 1551,
      ")ĀĀ!Ā": 1552,
      "*%": 1553,
      "*-": 1554,
      "*Ě": 1555,
      "+*": 1556,
      ",\"": 1557,
      "-!": 1558,
      "-\"": 1559,
      "-'": 1560,
      "-ĝ": 1561,
      "-ĀĀ": 1562,
      "/!": 1563,
      "/)": 1564,
      "/ğ": 1565,
      "Ā/": 1566,
      "ďĀ!": 1567,
      "ĐĀ$": 1568,
      "đ'": 1569,
      "Ēğ": 1570,
      "ē$": 1571,
      "ēĕ": 1572,
      "ēĘ": 1573,
      "ēĝ": 1574,
      "Ĕ\"": 1575,
      "ĔĒ": 1576,
      "ĔĘ": 1577,
      "ĔĚ": 1578,
      "ĔĀĀ": 1579,
      "ĕ#": 1580,
      "ĕĘ": 1581,
      "Ė%": 1582,
      "Ėĕ": 1583,
      "ę&": 1584,
      "ĚĀĀ": 1585,
      "ěđ": 1586,
      "ěĖ": 1587,
      "ěė": 1588,
      "ěĘ": 1589,
      "ěĚ": 1590,
      "ĜĖ": 1591,
      "ĝĐ": 1592,
      "ĝĕ": 1593,
      "ĞĒ": 1594,
      "Ğē": 1595,
      "ğĒ": 1596,
      "ğĖ": 1597,
      "ğ!!": 1598,
      "Ġ1": 1599,
      "ĠĀĘ": 1600,
      "ĠĀĀ+": 1601,
      "Ġ!ĀĀ": 1602,
      "Ġ!ě!": 1603,
      "Ġ!&!": 1604,
      "Ġ!Ěğ": 1605,
      "Ġ!Ě!": 1606,
      "Ġ!Ě\"": 1607,
      "Ġ!ěĝ": 1608,
      "Ġ!&#": 1609,
      "Ġ!ěĜ": 1610,
      "Ġğ'": 1611,
      "Ġğ(": 1612,
      "Ġğ-": 1613,
      "ĠğĘ": 1614,
      "ĠğĜ!": 1615,
      "Ġğěğ": 1616,
      "Ġğ$$": 1617,
      "ĠğĜ$": 1618,
      "Ġğěĝ": 1619,
      "Ġğ%ĝ": 1620,
      "Ġ\"'": 1621,
      "Ġ\"ěĞ": 1622,
      "Ġ\"%\"": 1623,
      "Ġ\"Ě\"": 1624,
      "Ġ\"ĜĜ": 1625,
      "Ġ\"Ĝ$": 1626,
      "Ġ\"&\"": 1627,
      "Ġ\"&&": 1628,
      "ĠĞ$\"": 1629,
      "ĠĞ$ĝ": 1630,
      "ĠĞ%#": 1631,
      "ĠĞĜ$": 1632,
      "ĠĞ%ĝ": 1633,
      "ĠĞ%Ĝ": 1634,
      "ĠĞ&#": 1635,
      "ĀĀĈ": 1636,
      "Ġĝė": 1637,
      "Ġĝę": 1638,
      "ĠĝĚ": 1639,
      "Ġĝ$\"": 1640,
      "Ġĝ&!": 1641,
      "ĠĝĚ\"": 1642,
      "ĠĝĜĜ": 1643,
      "Ġĝěĝ": 1644,
      "Ġ#Ĝ!": 1645,
      "Ġ#$$": 1646,
      "Ġ#%\"": 1647,
      "Ġ#%ĝ": 1648,
      "Ġ$$ğ": 1649,
      "Ġ$$\"": 1650,
      "Ġ$%!": 1651,
      "Ġ$ěĞ": 1652,
      "Ġ$Ě!": 1653,
      "Ġ$ěĝ": 1654,
      "ĠĜ$Ğ": 1655,
      "ĠĜ%#": 1656,
      "ĠĜ\"Ğ": 1657,
      "ĠĜ\"#": 1658,
      "ĠĜĘĝ": 1659,
      "ĠĜ$Ĝ": 1660,
      "Ġě%": 1661,
      "Ġěě": 1662,
      "Ġě$ğ": 1663,
      "ĠěĜĞ": 1664,
      "ĠěĞ!": 1665,
      "Ġě&!": 1666,
      "Ġě\"ĝ": 1667,
      "Ġě!\"": 1668,
      "Ġěęğ": 1669,
      "Ġěĝ!": 1670,
      "Ġ!!Ę": 1671,
      "Ġ!!ę": 1672,
      "Ġ%ğğ": 1673,
      "Ġ%%Ğ": 1674,
      "Ġ%\"ĝ": 1675,
      "Ġ%ĝĞ": 1676,
      "Ġ%Ğğ": 1677,
      "Ġ%ĝĜ": 1678,
      "Ġ&Ğ!": 1679,
      "Ġ&#Ğ": 1680,
      "Ġ&ğ!": 1681,
      "Ġ&!Ğ": 1682,
      "Ġ&\"ĝ": 1683,
      "Ġ&Ğĝ": 1684,
      "ĠĚ$ğ": 1685,
      "ĠĚ!!": 1686,
      "ĠĚĞ!": 1687,
      "ĠĚĝğ": 1688,
      "ĠĚ$ĝ": 1689,
      "ĠĚ%!": 1690,
      "ĠĚ\"Ğ": 1691,
      "ĠĚĞ\"": 1692,
      "ĠĚ%&": 1693,
      "ĠĚĞ#": 1694,
      "Ġ'$": 1695,
      "Ġ'Ğ": 1696,
      "Ġ'!!": 1697,
      "Ġ'\"!": 1698,
      "Ġ'#Ğ": 1699,
      "Ġ\"ğę": 1700,
      "ĠğĞ%": 1701,
      "ĠĞ!%": 1702,
      "ĠĞ!ě": 1703,
      "ĠĞğĚ": 1704,
      "Ġ!\"%": 1705,
      "ĠĘ#": 1706,
      "ĠĘ'": 1707,
      "ĠĘĜ": 1708,
      "Ġ(!": 1709,
      "Ġ(#!": 1710,
      "ĠĞ\"%": 1711,
      "ĠĞ\"Ě": 1712,
      "ĠĞ\"ě": 1713,
      "Ġ#!Ě": 1714,
      "ĀĀğĀė": 1715,
      "Ġ!ĝ&": 1716,
      "Ġė\"\"": 1717,
      "Ġė!ğ": 1718,
      "Ġ#ğę": 1719,
      "ĀĀĞĀė": 1720,
      "ĀĀ\"ĀĘ": 1721,
      "ĀĀ\"Āė": 1722,
      "Ġğĝ%": 1723,
      "ĀĀĝĀ'": 1724,
      "Ġ*!ĝ": 1725,
      "ĀĀĜĀĘ": 1726,
      "ĠĝĞĝ": 1727,
      "Ġĝ\"$": 1728,
      "Ġĝ\"%": 1729,
      "ĠĞĝĜ": 1730,
      "ĠĞ#Ĝ": 1731,
      "ĀĀ$Ā$": 1732,
      "ĀĀ$Ā+": 1733,
      "ĀĀĚĀĚ": 1734,
      "ĀĀĚĀ)": 1735,
      "ĠĝĝĜ": 1736,
      "ĠĜğ$": 1737,
      "ĠĜğĝ": 1738,
      "ĠĜ!%": 1739,
      "Ġ$!ě": 1740,
      "ĀĀĘĀĝ": 1741,
      "ĀĀĘĀ$": 1742,
      "Ĝ#ĀĀ": 1743,
      "ĀĀ(Ā!": 1744,
      "ĀĀ(ĀĞ": 1745,
      "ĀĀ(Āĝ": 1746,
      "ĀĀ(Ā&": 1747,
      "ĀĀ(Āė": 1748,
      "ĀĀęĀĞ": 1749,
      "ĀĀęĀ&": 1750,
      "ĀĀ'Ā&": 1751,
      "ĀĀ'Āě": 1752,
      "Ġ##Ĝ": 1753,
      "Ġ$ĝĝ": 1754,
      "ĀĀėĀ\"": 1755,
      "ĀĀėĀğ": 1756,
      "ĀĀėĀĜ": 1757,
      "ĀĀėĀě": 1758,
      "ĀĀėĀ'": 1759,
      "ĀĀėĀ)": 1760,
      "ĠĜĝě": 1761,
      "ĠěĞ$": 1762,
      "ĠěĞĞ": 1763,
      "!ğ%": 1764,
      "ĀĀ)Āĝ": 1765,
      "ĀĀ)ĀĜ": 1766,
      "#!ĀĀ": 1767,
      "Ġ!Ĝě": 1768,
      "ĀĀ+Ā%": 1769,
      "ĀĀ+ĀĚ": 1770,
      "'ĀĀ*": 1771,
      "'ĀĀĕ": 1772,
      "%ĀĀ*": 1773,
      "%ĀĀ-": 1774,
      "ĠĀĀ*": 1775,
      "ĠĞ$%": 1776,
      "ĠĜ\"&": 1777,
      "Ġ%!Ĝ": 1778,
      "ĀĀĞĀĕ": 1779,
      "ĀĀĕĀğ": 1780,
      "ĀĀĕĀĞ": 1781,
      "ĀĀĕĀ%": 1782,
      "ĀĀ,Ā+": 1783,
      "ĀĀ*Āğ": 1784,
      "ĀĀ/Ā": 1785,
      "ĀĀ/Ā!": 1786,
      "ĀĀ/Ā#": 1787,
      "!ē": 1788,
      "!Ĕ": 1789,
      "!Ė": 1790,
      "!Ĝ!": 1791,
      "\")": 1792,
      "\"#\"": 1793,
      "\"Ĝ$": 1794,
      "\"ĀĀĝĀ#": 1795,
      "#Ę": 1796,
      "#ĚĞ": 1797,
      "$đ": 1798,
      "$ē": 1799,
      "$ĀĀĞĀğ": 1800,
      "%(": 1801,
      "%ė": 1802,
      "%ĀĀğĀ": 1803,
      "%ĀĀĜĀ!": 1804,
      "%ĀĀ\"Ā\"": 1805,
      "&Ě": 1806,
      "&ĀĀ$": 1807,
      "&ĀĀė": 1808,
      "&Ę!": 1809,
      "&ĀĀĝĀ!": 1810,
      "'ė": 1811,
      "'ĀĀ\"Ā": 1812,
      "(Ė": 1813,
      "(Ě\"": 1814,
      "(ĀĀğĀ": 1815,
      ")ė": 1816,
      "*ĀĀ'": 1817,
      "+\"": 1818,
      "+Ė": 1819,
      "+ę": 1820,
      "+ě": 1821,
      ",'": 1822,
      ",(": 1823,
      ",)": 1824,
      ",*": 1825,
      ",Ė": 1826,
      ",Ğ": 1827,
      ",ĀĜ": 1828,
      ".ğ": 1829,
      "/\"": 1830,
      "/,": 1831,
      "/ě": 1832,
      ":Ā!": 1833,
      "ĎĀĞ": 1834,
      "ĎĀ$": 1835,
      "Đ#": 1836,
      "đđ": 1837,
      "đĕ": 1838,
      "đę": 1839,
      "đě": 1840,
      "đĜ": 1841,
      "đğ": 1842,
      "đ'+": 1843,
      "ē!": 1844,
      "ēĚĝ": 1845,
      "Ĕ%": 1846,
      "Ĕ&": 1847,
      "Ĕ.": 1848,
      "ĔĞ": 1849,
      "ĖĘ": 1850,
      "ė'": 1851,
      "ėĖ": 1852,
      "Ę*": 1853,
      "Ę,": 1854,
      "Ęė": 1855,
      "ę'": 1856,
      "ę(": 1857,
      "ę.": 1858,
      "ęĘ": 1859,
      "Ě(": 1860,
      "Ěđ": 1861,
      "ĚĒ": 1862,
      "ĚĔ": 1863,
      "ĚĀĀĒ": 1864,
      "Ĝ+": 1865,
      "Ĝ,": 1866,
      "Ĝ/": 1867,
      "Ĝđ": 1868,
      "ĝĒ": 1869,
      "ĝĀĀ": 1870,
      "ĝ\"\"": 1871,
      "ĝ##": 1872,
      "ĝ%&": 1873,
      "Ğ*": 1874,
      "Ğ+": 1875,
      "Ğ.": 1876,
      "ĞĔ": 1877,
      "Ğĕ": 1878,
      "ĞĖ": 1879,
      "Ğ\"#": 1880,
      "ğ)": 1881,
      "ğĐ": 1882,
      "ğđ": 1883,
      "Ġ3": 1884,
      "Ġ4": 1885,
      "Ġ5": 1886,
      "ĠĀĀğĀ": 1887,
      "ĠĀĀĞĀ": 1888,
      "ĠĀĀ!Āĝ": 1889,
      "Ġ!)": 1890,
      "Ġ!Ĕ": 1891,
      "Ġ!Ę": 1892,
      "Ġ!ę": 1893,
      "Ġ!Ĝ#": 1894,
      "Ġ!&\"": 1895,
      "Ġ!%$": 1896,
      "Ġ!'ğ": 1897,
      "Ġ!ęĞ": 1898,
      "Ġ!Ęğ": 1899,
      "Ġ!ęě": 1900,
      "Ġ!'Ğ": 1901,
      "Ġ!%ě": 1902,
      "Ġ!ě%": 1903,
      "Ġ!Ęě": 1904,
      "Ġ!%Ě": 1905,
      "Ġ!*!": 1906,
      "ĠğĖ": 1907,
      "Ġğ%\"": 1908,
      "Ġğ&\"": 1909,
      "Ġğěě": 1910,
      "Ġğ%$": 1911,
      "ĠğĚ#": 1912,
      "ĠğĘğ": 1913,
      "Ġğ&$": 1914,
      "ĠğęĜ": 1915,
      "Ġ\"Ĝ#": 1916,
      "Ġ\"$#": 1917,
      "Ġ\"%#": 1918,
      "Ġ\"&!": 1919,
      "Ġ\"ě\"": 1920,
      "Ġ\"Ěğ": 1921,
      "Ġ\"ěĝ": 1922,
      "Ġ\"ěě": 1923,
      "Ġ\"%Ĝ": 1924,
      "Ġ\"'!": 1925,
      "Ġ\"ěĜ": 1926,
      "Ġ\"Ĝě": 1927,
      "ĠĞĜĞ": 1928,
      "ĠĞ$$": 1929,
      "ĠĞěĞ": 1930,
      "ĠĞěě": 1931,
      "ĠĞ%$": 1932,
      "ĠĞę!": 1933,
      "ĠĞĘ\"": 1934,
      "ĠĞęĝ": 1935,
      "ĀĀĄ": 1936,
      "ĀĀĐ": 1937,
      "ĠĝĖ": 1938,
      "Ġĝ$ĝ": 1939,
      "Ġĝ$#": 1940,
      "Ġĝ$$": 1941,
      "Ġĝ%\"": 1942,
      "ĠĝĚğ": 1943,
      "Ġĝě#": 1944,
      "Ġĝ%ĝ": 1945,
      "Ġĝęğ": 1946,
      "Ġĝě%": 1947,
      "Ġ#ę": 1948,
      "Ġ#Ĝ\"": 1949,
      "Ġ#Ĝ#": 1950,
      "Ġ#ě\"": 1951,
      "Ġ#ěĞ": 1952,
      "Ġ#Ě!": 1953,
      "Ġ#ĜĜ": 1954,
      "Ġ#&\"": 1955,
      "Ġ#ě#": 1956,
      "Ġ#&Ğ": 1957,
      "Ġ#ĚĜ": 1958,
      "Ġ#&Ĝ": 1959,
      "Ġ#)!": 1960,
      "Ġ#'&": 1961,
      "Ġ$ę": 1962,
      "Ġ$Ě": 1963,
      "Ġ$ĀĀ": 1964,
      "Ġ$ě!": 1965,
      "Ġ$$$": 1966,
      "Ġ$&\"": 1967,
      "Ġ$ěě": 1968,
      "Ġ$&ğ": 1969,
      "Ġ$$Ĝ": 1970,
      "Ġ$Ĝě": 1971,
      "Ġ$$ě": 1972,
      "Ġ$(ĝ": 1973,
      "ĠĜĕ": 1974,
      "ĠĜĀĀ": 1975,
      "ĠĜ$\"": 1976,
      "ĠĜĜ#": 1977,
      "ĠĜ%!": 1978,
      "ĠĜ%Ğ": 1979,
      "ĠĜĜ$": 1980,
      "ĠĜ##": 1981,
      "ĠĜĚĞ": 1982,
      "Ġě$!": 1983,
      "Ġěĝğ": 1984,
      "Ġě$$": 1985,
      "ĠěĚ\"": 1986,
      "Ġěğ#": 1987,
      "Ġě##": 1988,
      "Ġěě$": 1989,
      "Ġěĝ#": 1990,
      "ĠěğĜ": 1991,
      "Ġě&$": 1992,
      "ĠěĘ\"": 1993,
      "Ġ!ğę": 1994,
      "Ġğğ'": 1995,
      "Ġ%&": 1996,
      "Ġ%Ĝ": 1997,
      "Ġ%Ĝ\"": 1998,
      "Ġ%#ğ": 1999,
      "Ġ%$ĝ": 2000,
      "Ġ%%#": 2001,
      "Ġ%ěĞ": 2002,
      "Ġ%ğ!": 2003,
      "Ġ%Ěğ": 2004,
      "Ġ%'ğ": 2005,
      "Ġ%ĝ$": 2006,
      "Ġ%#ĝ": 2007,
      "Ġ%%ě": 2008,
      "Ġğ!'": 2009,
      "Ġğ!Ę": 2010,
      "Ġ&&": 2011,
      "Ġ&*": 2012,
      "Ġ&ę": 2013,
      "Ġ&$!": 2014,
      "Ġ&ĜĞ": 2015,
      "Ġ&#ğ": 2016,
      "Ġ&\"!": 2017,
      "Ġ&Ě!": 2018,
      "Ġ&ğĞ": 2019,
      "Ġ&ĝĞ": 2020,
      "Ġ&ğ\"": 2021,
      "Ġ&\"ě": 2022,
      "Ġ&&Ĝ": 2023,
      "Ġ&!ě": 2024,
      "ĠĚę": 2025,
      "ĠĚĚ": 2026,
      "ĠĚ$\"": 2027,
      "ĠĚ\"!": 2028,
      "ĠĚ&!": 2029,
      "ĠĚğ#": 2030,
      "ĠĚğě": 2031,
      "ĠĚĝĜ": 2032,
      "Ġ''": 2033,
      "Ġ'(": 2034,
      "Ġ'ĀĀ": 2035,
      "Ġ'\"\"": 2036,
      "Ġ'ěğ": 2037,
      "Ġ'ğğ": 2038,
      "Ġ'!ğ": 2039,
      "Ġ'\"Ğ": 2040,
      "Ġ''ğ": 2041,
      "Ġ'Ğ\"": 2042,
      "Ġę\"": 2043,
      "Ġę$": 2044,
      "ĠęĜ": 2045,
      "Ġę$Ğ": 2046,
      "ĠęĜ\"": 2047,
      "ĠęĞ!": 2048,
      "Ġę\"!": 2049,
      "Ġę\"ğ": 2050,
      "Ġęğ#": 2051,
      "ĠğĞę": 2052,
      "ĠĞ!'": 2053,
      "ĠĞğ%": 2054,
      "ĠĞğě": 2055,
      "Ġ!Ğ&": 2056,
      "Ġğ\"ė": 2057,
      "Ġğ\"Ě": 2058,
      "Ġğ\"ě": 2059,
      "ĠĘ$": 2060,
      "ĠĘ%": 2061,
      "ĠĘĝ": 2062,
      "Ġ(#": 2063,
      "Ġ((": 2064,
      "Ġ(Ĝğ": 2065,
      "Ġ(\"\"": 2066,
      "Ġ\"\"Ě": 2067,
      "Ġ\"Ğę": 2068,
      "Ġ\"ĞĚ": 2069,
      "ĠĞĞ$": 2070,
      "ĠĞĞę": 2071,
      "ĠĞ\"&": 2072,
      "ĠĞ\"'": 2073,
      "Ġĝğę": 2074,
      "Ġ)ğ": 2075,
      "Ġ)ĀĀ": 2076,
      "ĠėĜ": 2077,
      "Ġėĝ": 2078,
      "Ġ!#ě": 2079,
      "Ġ#ğě": 2080,
      "ĀĀ!Ā(": 2081,
      "ĀĀ!Āė": 2082,
      "ĀĀĞĀ)": 2083,
      "ĀĀĞĀ*": 2084,
      "ĀĀ\"Ā(": 2085,
      "Ġğ#&": 2086,
      "Ġğ#Ě": 2087,
      "ĀĀĝĀę": 2088,
      "ĀĀĝĀ(": 2089,
      "ĀĀĝĀ*": 2090,
      "Ġ*$ğ": 2091,
      "Ā%\"": 2092,
      "ĀĀ#Āě": 2093,
      "ĀĀ#ĀĚ": 2094,
      "ĀĀ#Ā(": 2095,
      "Ġ#\"$": 2096,
      "Ġ#\"Ě": 2097,
      "Ġ\"#%": 2098,
      "ĀĀĜĀę": 2099,
      "ĀĀĜĀ(": 2100,
      "ĠĝĞ$": 2101,
      "ĠĝĞĚ": 2102,
      "Ġĝ\"Ĝ": 2103,
      "Ġ\"ĝě": 2104,
      "ĠĞĝ$": 2105,
      "Ġ$ğ#": 2106,
      "Ġ$ğĚ": 2107,
      "ĠĞ#Ě": 2108,
      "ĀĀ$Ā'": 2109,
      "ĀĀ$ĀĘ": 2110,
      "ĀĀĚĀę": 2111,
      "ĀĀĚĀĘ": 2112,
      "Ġĝĝ$": 2113,
      "Ġĝĝ%": 2114,
      "Ġĝĝě": 2115,
      "Ġĝĝĝ": 2116,
      "ĀĀěĀ&": 2117,
      "ĀĀěĀě": 2118,
      "!!ĀĀ": 2119,
      "Ĝ\"$": 2120,
      "ĀĀ%Ā%": 2121,
      "ĀĀ%Ā'": 2122,
      "ĀĀ%ĀĚ": 2123,
      "ĀĀ%Ā)": 2124,
      "ĀĀ%ĀĘ": 2125,
      "Ġ$\"$": 2126,
      "Ġ$\"ě": 2127,
      "ĠĜğ%": 2128,
      "ĠĜğĚ": 2129,
      "ĠĜğě": 2130,
      "ĜĝĀĀ": 2131,
      "ĀĀ&Ā$": 2132,
      "ĀĀ&Āě": 2133,
      "ĀĀ&Āę": 2134,
      "Ġ#ĝ#": 2135,
      "Ġ#ĝĜ": 2136,
      "ĠĜ!$": 2137,
      "ĠĜ!&": 2138,
      "ĠĜ!ě": 2139,
      "ĠĜ!ĝ": 2140,
      "Ġĝ#Ĝ": 2141,
      "Ġ$!Ĝ": 2142,
      "ĀĀĘĀ&": 2143,
      "ĀĀĘĀ(": 2144,
      "ğğ%": 2145,
      "ĝğĀĀ": 2146,
      "ĀĀ(Ā\"": 2147,
      "ĀĀ(Ā)": 2148,
      "ĀĀęĀ#": 2149,
      "ĀĀęĀĝ": 2150,
      "ĀĀęĀ$": 2151,
      "ĀĀęĀĜ": 2152,
      "ĀĀęĀ%": 2153,
      "ĀĀęĀ'": 2154,
      "ĀĀęĀ)": 2155,
      "ĀĀ'Ā!": 2156,
      "ĀĀ'Ā$": 2157,
      "ĀĀ'Āę": 2158,
      "\"ğ$": 2159,
      "Ġ##%": 2160,
      "Ġ##ě": 2161,
      "ě!#": 2162,
      "ĠĜĞĜ": 2163,
      "ĠĜĞĞ": 2164,
      "Ġ$ĝ#": 2165,
      "ĀĀėĀ$": 2166,
      "%#\"": 2167,
      "%#ĀĀ": 2168,
      "ĀĀ)ĀĞ": 2169,
      "ĀĀ)Ā&": 2170,
      "ĀĀ)ĀĚ": 2171,
      "ĀĀ)Āė": 2172,
      "#ĞĀĀ": 2173,
      "ěĞ#": 2174,
      "ĀĀĖĀ": 2175,
      "ĀĀĖĀ&": 2176,
      "\"ĝ!": 2177,
      "ĀĀ+Āğ": 2178,
      "ĀĀ+ĀĜ": 2179,
      "ĞĞ\"": 2180,
      "ğ#'": 2181,
      "Ġ!$Ĝ": 2182,
      "&ĀĀ.": 2183,
      "&ĀĀĔ": 2184,
      "'ĀĀ-": 2185,
      "ĠĠĠĠĠĠĠĠĠĠĠĠĠĠĠĠĠĠĠĠĠĠ": 2186,
      "ĠĠĠĠĠĠĠĠĠĠĠĠĠĠĠĠĠĠĠĠĠĠĠĠĠĠĠ": 2187,
      "ĠĠĠĠĠĠĠĠĠĠĠĠĠĠĠĠĠĠĠĠĠĠĠĠĠĠ": 2188,
      "ĠĠĠĠĠĠĠĠĠĠĠĠĠĠĠĠĠĠĠĠĠĠĠĠĠĠĠĠĠĠĠĠĠĠĠĠ": 2189,
      "$ĀĀ*": 2190,
      "$ĀĀď": 2191,
      "%ĀĀĔ": 2192,
      "(ĀĀ.": 2193,
      "(ĀĀĎ": 2194,
      "Ġ$#Ě": 2195,
      "Ġ$#ě": 2196,
      "Ğğ)": 2197,
      "ĠĀĀ-": 2198,
      "ĠĀĀĔ": 2199,
      "Ġ\"$Ĝ": 2200,
      "ĠĞ$Ĝ": 2201,
      "ĠĜ\"$": 2202,
      "ĠğĜ&": 2203,
      "Ġ%!ę": 2204,
      "ĠĀĕ": 2205,
      "*ĀĀĒ": 2206,
      "*ĀĀĕ": 2207,
      "Ġğ$&": 2208,
      "Ġğ$Ĝ": 2209,
      "ĀĀ\"Ā/": 2210,
      ")ĀĀ/": 2211,
      ")ĀĀē": 2212,
      "Ġğě%": 2213,
      "Ġě!%": 2214,
      "ĀĀĕĀ!": 2215,
      "ĀĀĕĀę": 2216,
      "Ġğ%ě": 2217,
      "Ġ!&$": 2218,
      "Ġěğ'": 2219,
      "(!ĀĀ": 2220,
      "ĀĀ-Ā#": 2221,
      "Ġ#$%": 2222,
      "Ġ#$ę": 2223,
      "ĀĀ.Ā": 2224,
      "ĀĀ.Āğ": 2225,
      "ĀĀ.Ā#": 2226,
      "ĀĀ.Āĝ": 2227,
      "ĀĀĒĀ\"": 2228,
      "ĀĀĒĀ#": 2229,
      "ĀĀĒĀ$": 2230,
      "ĀĀĒĀ(": 2231,
      ")ğĀĀ": 2232,
      "ĀĀ*Ā\"": 2233,
      "ĀĀ*ĀĞ": 2234,
      "ĀĀēĀĝ": 2235,
      "ĀĀēĀ$": 2236,
      "ĠĜĜ'": 2237,
      "ĀĀĔĀ": 2238,
      "ĀĀĔĀ&": 2239,
      "ĀĀ%Āĕ": 2240,
      "ĀĀđĀ\"": 2241,
      "Ġ\"&Ě": 2242,
      "ĠĞĚ$": 2243,
      "!,": 2244,
      "!Ē": 2245,
      "!ĕ": 2246,
      "!Ĝğ": 2247,
      "!$\"": 2248,
      "!\"\"": 2249,
      "!ě!": 2250,
      "!$#": 2251,
      "!Ęĝ": 2252,
      "!'\"": 2253,
      "!ęě": 2254,
      "!ĀĀđ": 2255,
      "!''": 2256,
      "!ĀĀ!Āĝ": 2257,
      "!Ęę": 2258,
      "!\"\"ĀĀ": 2259,
      "\"-": 2260,
      "\".": 2261,
      "\"Ď": 2262,
      "\"ė": 2263,
      "\"Ĝ!": 2264,
      "\"Ĝĝ": 2265,
      "\"ěĞ": 2266,
      "\"ĚĜ": 2267,
      "\"&&": 2268,
      "\"&%": 2269,
      "\"ĀĀ!ĀĞ": 2270,
      "#*": 2271,
      "#-": 2272,
      "#đ": 2273,
      "#Ē": 2274,
      "#Ė": 2275,
      "#Ĝ!": 2276,
      "#ĀĀ(": 2277,
      "#ě!": 2278,
      "#ě\"": 2279,
      "##\"": 2280,
      "#ĀĀĔ": 2281,
      "#*#": 2282,
      "#ėė": 2283,
      "#ęĖ": 2284,
      "#*$": 2285,
      "#/#": 2286,
      "$/": 2287,
      "$ď": 2288,
      "$ĕ": 2289,
      "$Ĝ!": 2290,
      "$ěĞ": 2291,
      "$(Ĝ": 2292,
      "$ĀĀĞĀ\"": 2293,
      "$ĀĀğĀ$": 2294,
      "$ĀĀ$Ā\"": 2295,
      "%-": 2296,
      "%.": 2297,
      "%ē": 2298,
      "%ĜĞ": 2299,
      "%$\"": 2300,
      "%(ğ": 2301,
      "%%ě": 2302,
      "%ĀĀĞĀ\"": 2303,
      "%ĀĀ!Ā#": 2304,
      "%ĀĀĞĀ$": 2305,
      "%ĀĀ!Ā&": 2306,
      "%ĀĀ$Āě": 2307,
      "&,": 2308,
      "&$ğ": 2309,
      "&ğĝ": 2310,
      "&&ğ": 2311,
      "&$Ĝ": 2312,
      "&ĀĀěĀ": 2313,
      "&ĀĀğĀ\"": 2314,
      "&ęĚ": 2315,
      "&ĀĀ\"Ā!": 2316,
      "&ĀĀğĀğ": 2317,
      "&ĀĀğĀ!": 2318,
      "&ĀĀ&Ā": 2319,
      "&*(": 2320,
      "&ĀĀĝĀę": 2321,
      "'-": 2322,
      "'Đ": 2323,
      "'Ē": 2324,
      "'ĀĀĞ": 2325,
      "'ĀĀě": 2326,
      "'$\"": 2327,
      "'##": 2328,
      "'ĀĀ%Ā": 2329,
      "'ĀĀ!Āğ": 2330,
      "'ĀĀĞĀ#": 2331,
      "'ĀĀ#Ā!": 2332,
      "'*\"": 2333,
      "'ĀĀ%Āğ": 2334,
      "'ėĘ": 2335,
      "'ĀĀ#ĀĜ": 2336,
      "'ĀĀ'Āğ": 2337,
      "(ė": 2338,
      "(\"ğ": 2339,
      "($$": 2340,
      "(ĜĜ": 2341,
      "(ĀĀ\"Ā": 2342,
      "(ę!": 2343,
      "(Ğ#": 2344,
      "(ĀĀ!Ā": 2345,
      "(ĀĀĝĀğ": 2346,
      "(ėė": 2347,
      "(ĀĀĖĀ$": 2348,
      ")Ę": 2349,
      ")ę": 2350,
      ")ĀĀĞĀ": 2351,
      ")ĀĀĝĀ\"": 2352,
      ")ĀĀĜĀ#": 2353,
      "*/": 2354,
      "*ė": 2355,
      "*Ę": 2356,
      "*Ĝ": 2357,
      "*ĀĀ!Ā!": 2358,
      "*ĀĀğĀĞ": 2359,
      "*ĀĀĝĀ!": 2360,
      "*ĀĀğĀ#": 2361,
      "*ĀĀ!ĀĜ": 2362,
      "*ĀĀĝĀĜ": 2363,
      "+&": 2364,
      "+(": 2365,
      "++": 2366,
      "+-": 2367,
      "+ď": 2368,
      "+ĝ": 2369,
      "+ĀĀ(": 2370,
      "+ĀĀ\"Ā": 2371,
      "+ĀĀěĀ": 2372,
      "+ĀĀĞĀğ": 2373,
      "+ĀĀğĀě": 2374,
      "+ĀĀĚĀĞ": 2375,
      ",!": 2376,
      ",%": 2377,
      ",&": 2378,
      ",.": 2379,
      ",Ā": 2380,
      ",ę": 2381,
      ",ĝ": 2382,
      ",Ā\"": 2383,
      ",ĀĀ,": 2384,
      ",ĀĀ.": 2385,
      ",ĀĀ!Ā!": 2386,
      ",ĀĀ\"Ā!": 2387,
      ",ĀĀ!Āĝ": 2388,
      ",ĀĀĜĀ#": 2389,
      ",Ęĕ": 2390,
      ",ĀĀğĀ'": 2391,
      "-%": 2392,
      "-ě": 2393,
      "-ĀĀĞĀ": 2394,
      "-ĀĀ%Ā": 2395,
      "-ĀĀğĀĜ": 2396,
      "-ĀĀ\"Āĝ": 2397,
      "-ĀĀ$Ā!": 2398,
      "-ĀĀĜĀ\"": 2399,
      ".\"": 2400,
      ".Ğ": 2401,
      ".Ā$": 2402,
      ".Āě": 2403,
      ".ĀĀ\"Ā": 2404,
      ".ĀĀĜĀĜ": 2405,
      "/$": 2406,
      "/%": 2407,
      "/(": 2408,
      "/ď": 2409,
      "/Ā#": 2410,
      "/ĀĀ!Ā!": 2411,
      ";Ā": 2412,
      "@Ā": 2413,
      "Āē": 2414,
      "ĀĔ": 2415,
      "Ďĝ": 2416,
      "ď+": 2417,
      "ďĀ\"": 2418,
      "ďĀ&": 2419,
      "Đ\"": 2420,
      "Đ%": 2421,
      "Đě": 2422,
      "Đĝ": 2423,
      "Đğ": 2424,
      "ĐĀ#": 2425,
      "ĐĀ)": 2426,
      "đĘ": 2427,
      "đĚ": 2428,
      "đĝ": 2429,
      "đĀ#": 2430,
      "đĀĜ": 2431,
      "Ē\"": 2432,
      "ĒĚ": 2433,
      "ĒĞ": 2434,
      "ĒĀĀ": 2435,
      "ĒĀĀ/": 2436,
      "ē\"": 2437,
      "ē%": 2438,
      "ēĀ": 2439,
      "ēĐ": 2440,
      "ēē": 2441,
      "ēě": 2442,
      "ēĜ": 2443,
      "ēĀğ": 2444,
      "ēĀ&": 2445,
      "ēĀĀ/Ā!": 2446,
      "Ĕ!": 2447,
      "Ĕ$": 2448,
      "Ĕ*": 2449,
      "Ĕ$$": 2450,
      "Ĕ!ĝ": 2451,
      "ĔĘĝ": 2452,
      "ĕ+": 2453,
      "ĕ,": 2454,
      "ĕĀ\"": 2455,
      "ĕ$$": 2456,
      "ĕĀĀ%Ā": 2457,
      "ĕĘ#": 2458,
      "ĕĀĀĚĀ#": 2459,
      "Ė'": 2460,
      "Ė.": 2461,
      "ĖĔ": 2462,
      "Ė$(": 2463,
      "ĖĀĀ,Ā!": 2464,
      "ė(": 2465,
      "ė+": 2466,
      "ėĔ": 2467,
      "Ę/": 2468,
      "ĘĐ": 2469,
      "ĘĞ\"": 2470,
      "ĘĀĀ#Ā": 2471,
      "ĘĀĀ$Ā&": 2472,
      "ĘĀĀĞĀ)": 2473,
      "ę)": 2474,
      "ę*": 2475,
      "ęđ": 2476,
      "ęĔ": 2477,
      "ęĜ$": 2478,
      "ę!#": 2479,
      "ęĚ#": 2480,
      "Ě'": 2481,
      "Ě*": 2482,
      "Ěē": 2483,
      "ĚĖ": 2484,
      "Ě%!": 2485,
      "Ě!ğ": 2486,
      "Ě%\"": 2487,
      "Ě'#": 2488,
      "Ě$&": 2489,
      "Ě'&": 2490,
      "Ě+'": 2491,
      "ě(": 2492,
      "ěĒ": 2493,
      "ě!!": 2494,
      "ě\"!": 2495,
      "ěėĞ": 2496,
      "ě'&": 2497,
      "ě&(": 2498,
      "ě#!ĀĀ": 2499,
      "Ĝ-": 2500,
      "Ĝē": 2501,
      "ĜĜğ": 2502,
      "Ĝ$!": 2503,
      "ĜĀĀğĀ": 2504,
      "Ĝ%'": 2505,
      "ĜęĚ": 2506,
      "Ĝ*'": 2507,
      "Ĝ&(": 2508,
      "ĝĞ!": 2509,
      "ĝěğ": 2510,
      "ĝ\"!": 2511,
      "ĝ#\"": 2512,
      "ĝě#": 2513,
      "ĝĀĀ#Ā": 2514,
      "ĝ'Ğ": 2515,
      "ĝ($": 2516,
      "Ğď": 2517,
      "ĞĐ": 2518,
      "Ğđ": 2519,
      "ĞĞ!": 2520,
      "Ğğ#": 2521,
      "ĞĜĜ": 2522,
      "ĞĚ#": 2523,
      "ĞĀĀē": 2524,
      "Ğ%'": 2525,
      "Ğ)\"": 2526,
      "Ğę$": 2527,
      "ĞĖĞ": 2528,
      "ĞĜ#ĀĀ": 2529,
      "ğ.": 2530,
      "ğĀĀ": 2531,
      "ğĜ#": 2532,
      "ğĝğ": 2533,
      "ğ$#": 2534,
      "ğě\"": 2535,
      "ğ#\"": 2536,
      "ğ&Ğ": 2537,
      "ğĚĝ": 2538,
      "ğ)\"": 2539,
      "ĠĀĀė": 2540,
      "ĠĀĀĖ": 2541,
      "ĠĀ*": 2542,
      "ĠĀĀ!Āğ": 2543,
      "ĠĀĀĝĀ\"": 2544,
      "ĠĀĀĞĀ!": 2545,
      "ĠĀĀğĀ%": 2546,
      "ĠĀĀ!Ā#": 2547,
      "ĠĀĀĚĀğ": 2548,
      "ĠĀĀĞĀĝ": 2549,
      "ĠĀĀĞĀ&": 2550,
      "ĠĀĀ$Ā!": 2551,
      "ĠĀĀ&Āğ": 2552,
      "ĠĀĀ(Ā": 2553,
      "ĠĀĀĜĀĜ": 2554,
      "ĠĀĀĖĀ\"": 2555,
      "ĠĀĀĜĀğ": 2556,
      "ĠĀĀ+Ā": 2557,
      "ĠĀĀ(Ā$": 2558,
      "Ġ!ė": 2559,
      "Ġ!%ĝ": 2560,
      "Ġ!&Ğ": 2561,
      "Ġ!Ě#": 2562,
      "Ġ!Ěĝ": 2563,
      "Ġ!ě$": 2564,
      "Ġ!%Ĝ": 2565,
      "Ġ!Ęĝ": 2566,
      "Ġ!'!": 2567,
      "Ġ!ę!": 2568,
      "Ġ!ėĞ": 2569,
      "Ġ!(\"": 2570,
      "Ġ!Ěě": 2571,
      "Ġ!ėğ": 2572,
      "Ġ!(ĝ": 2573,
      "Ġ!Ėĝ": 2574,
      "ĠğĒ": 2575,
      "Ġğė": 2576,
      "Ġğ&!": 2577,
      "ĠğěĞ": 2578,
      "ĠğĚğ": 2579,
      "ĠğĚ\"": 2580,
      "Ġğě#": 2581,
      "Ġğ&ğ": 2582,
      "Ġğě$": 2583,
      "ĠğĘĝ": 2584,
      "ĠğĚĞ": 2585,
      "Ġğ'\"": 2586,
      "Ġğ'#": 2587,
      "Ġğęě": 2588,
      "Ġğ&ĝ": 2589,
      "Ġğ'Ğ": 2590,
      "ĠğĘĞ": 2591,
      "Ġğ)\"": 2592,
      "ĠğĖ#": 2593,
      "ĠğėĜ": 2594,
      "Ġğ)&": 2595,
      "Ġ\"(": 2596,
      "Ġ\"Ē": 2597,
      "Ġ\"ė": 2598,
      "Ġ\"Ę": 2599,
      "Ġ\"%!": 2600,
      "Ġ\"Ě!": 2601,
      "Ġ\"ě#": 2602,
      "Ġ\"%ĝ": 2603,
      "Ġ\"%$": 2604,
      "Ġ\"'ğ": 2605,
      "Ġ\"ęğ": 2606,
      "Ġ\"ĚĞ": 2607,
      "Ġ\"ĀĀ\"Ā": 2608,
      "Ġ\"ęĞ": 2609,
      "Ġ\"%&": 2610,
      "Ġ\"ėĞ": 2611,
      "Ġ\"(\"": 2612,
      "Ġ\"'Ğ": 2613,
      "Ġ\"ĘĞ": 2614,
      "Ġ\"%ě": 2615,
      "Ġ\"($": 2616,
      "Ġ\"Ėĝ": 2617,
      "Ġ\"ėě": 2618,
      "ĠĞ'": 2619,
      "ĠĞĔ": 2620,
      "ĠĞĖ": 2621,
      "ĠĞė": 2622,
      "ĠĞĜĝ": 2623,
      "ĠĞ%ğ": 2624,
      "ĠĞ%\"": 2625,
      "ĠĞĚ!": 2626,
      "ĠĞĚ\"": 2627,
      "ĠĞě#": 2628,
      "ĠĞ'ğ": 2629,
      "ĠĞ&ğ": 2630,
      "ĠĞęğ": 2631,
      "ĠĞĚĜ": 2632,
      "ĠĞĚĞ": 2633,
      "ĠĞěĜ": 2634,
      "ĠĞ'Ğ": 2635,
      "ĠĞęĜ": 2636,
      "ĠĞ(Ĝ": 2637,
      "ĠĞ(Ğ": 2638,
      "ĠĞėĚ": 2639,
      "ĠĞĕĞ": 2640,
      "ĠĞė#": 2641,
      "ĀĀĆ": 2642,
      "Ġĝ'": 2643,
      "ĠĝĘ": 2644,
      "Ġĝ$ğ": 2645,
      "Ġĝ$Ğ": 2646,
      "Ġĝ%#": 2647,
      "Ġĝ%ğ": 2648,
      "ĠĝěĞ": 2649,
      "Ġĝ'ğ": 2650,
      "ĠĝĚĝ": 2651,
      "Ġĝ&ğ": 2652,
      "Ġĝě$": 2653,
      "Ġĝ%Ĝ": 2654,
      "ĠĝĚĞ": 2655,
      "ĠĝęĞ": 2656,
      "Ġĝ'\"": 2657,
      "ĠĝěĜ": 2658,
      "Ġĝ'#": 2659,
      "ĠĝĘĞ": 2660,
      "Ġĝę\"": 2661,
      "ĠĝĖĜ": 2662,
      "Ġĝ+#": 2663,
      "Ġ#)": 2664,
      "Ġ#$\"": 2665,
      "Ġ#$#": 2666,
      "Ġ#%!": 2667,
      "Ġ#%ğ": 2668,
      "Ġ#Ě\"": 2669,
      "Ġ#ěě": 2670,
      "Ġ#%$": 2671,
      "Ġ#%Ĝ": 2672,
      "Ġ#ę!": 2673,
      "Ġ#Ęğ": 2674,
      "Ġ#(ğ": 2675,
      "Ġ#)ğ": 2676,
      "Ġ#ę\"": 2677,
      "Ġ#ĀĀĞĀ#": 2678,
      "Ġ#)$": 2679,
      "Ġ#%Ě": 2680,
      "Ġ#(ě": 2681,
      "Ġ#ĚĘ": 2682,
      "Ġ#ĔĚ": 2683,
      "Ġ$'": 2684,
      "Ġ$(": 2685,
      "Ġ$ē": 2686,
      "Ġ$Ę": 2687,
      "Ġ$$#": 2688,
      "Ġ$%Ğ": 2689,
      "Ġ$&!": 2690,
      "Ġ$%\"": 2691,
      "Ġ$Ĝ$": 2692,
      "Ġ$%ĝ": 2693,
      "Ġ$##": 2694,
      "Ġ$'ğ": 2695,
      "Ġ$ě$": 2696,
      "Ġ$Ęĝ": 2697,
      "Ġ$ĚĜ": 2698,
      "Ġ$ĚĞ": 2699,
      "Ġ$'!": 2700,
      "Ġ$Ęğ": 2701,
      "Ġ$(Ĝ": 2702,
      "Ġ$(ě": 2703,
      "Ġ$*$": 2704,
      "Ġ$ėę": 2705,
      "Ġ$'Ě": 2706,
      "Ġ$ĕĞ": 2707,
      "ĠĜĘ": 2708,
      "ĠĜĜğ": 2709,
      "ĠĜ%ğ": 2710,
      "ĠĜ#\"": 2711,
      "ĠĜ%\"": 2712,
      "ĠĜ#!": 2713,
      "ĠĜĚğ": 2714,
      "ĠĜ'ğ": 2715,
      "ĠĜęğ": 2716,
      "ĠĜ#$": 2717,
      "ĠĜĚě": 2718,
      "ĠĜ)ğ": 2719,
      "ĠĜ&Ĝ": 2720,
      "ĠĜ#Ĝ": 2721,
      "ĠĜėğ": 2722,
      "ĠĜ'ĝ": 2723,
      "ĠĜĔě": 2724,
      "Ġě&": 2725,
      "ĠěĖ": 2726,
      "ĠěĘ": 2727,
      "ĠěĀĀ": 2728,
      "Ġě$Ğ": 2729,
      "ĠěĜ\"": 2730,
      "ĠěĜĝ": 2731,
      "Ġě\"!": 2732,
      "Ġěě!": 2733,
      "Ġě$#": 2734,
      "Ġě%!": 2735,
      "Ġě#Ğ": 2736,
      "Ġěě\"": 2737,
      "ĠěěĞ": 2738,
      "Ġě\"Ğ": 2739,
      "ĠěğĞ": 2740,
      "Ġě!ĝ": 2741,
      "Ġě&\"": 2742,
      "Ġěě#": 2743,
      "Ġě&Ğ": 2744,
      "Ġě'ğ": 2745,
      "Ġě&ğ": 2746,
      "Ġě\"$": 2747,
      "ĠěęĞ": 2748,
      "Ġě'\"": 2749,
      "Ġě\"Ĝ": 2750,
      "Ġě(!": 2751,
      "Ġě)ğ": 2752,
      "Ġě$%": 2753,
      "ĠěėĜ": 2754,
      "Ġě%ę": 2755,
      "Ġě%%": 2756,
      "Ġ!!%": 2757,
      "Ġ!!'": 2758,
      "Ġ!!Ė": 2759,
      "Ġ!ğ(": 2760,
      "ĠğğĚ": 2761,
      "Ġ%(": 2762,
      "Ġ%)": 2763,
      "Ġ%*": 2764,
      "Ġ%+": 2765,
      "Ġ%ę": 2766,
      "Ġ%ĀĀ": 2767,
      "Ġ%Ĝğ": 2768,
      "Ġ%Ĝĝ": 2769,
      "Ġ%Ĝ#": 2770,
      "Ġ%%ğ": 2771,
      "Ġ%$$": 2772,
      "Ġ%Ě\"": 2773,
      "Ġ%&\"": 2774,
      "Ġ%ě#": 2775,
      "Ġ%!\"": 2776,
      "Ġ%%ĝ": 2777,
      "Ġ%&Ğ": 2778,
      "Ġ%Ěĝ": 2779,
      "Ġ%Ğ\"": 2780,
      "Ġ%%Ĝ": 2781,
      "Ġ%Ęĝ": 2782,
      "Ġ%ĝ!": 2783,
      "Ġ%'!": 2784,
      "Ġ%ğĜ": 2785,
      "Ġ%\"%": 2786,
      "Ġ%$Ĝ": 2787,
      "Ġ%ĝĝ": 2788,
      "Ġ%Ğ#": 2789,
      "Ġ%Ę!": 2790,
      "Ġ%$&": 2791,
      "Ġ%ę\"": 2792,
      "Ġ%ğ%": 2793,
      "Ġ%(Ğ": 2794,
      "Ġ%Ě%": 2795,
      "Ġ%Ēĝ": 2796,
      "Ġ%'Ĝ": 2797,
      "Ġğ!ę": 2798,
      "Ġ&#": 2799,
      "Ġ&'": 2800,
      "Ġ&(": 2801,
      "Ġ&.": 2802,
      "Ġ&ė": 2803,
      "Ġ&Ě": 2804,
      "Ġ&ĀĀ": 2805,
      "Ġ&Ĝğ": 2806,
      "Ġ&\"\"": 2807,
      "Ġ&$ĝ": 2808,
      "Ġ&ě!": 2809,
      "Ġ&!ğ": 2810,
      "Ġ&ěĞ": 2811,
      "Ġ&#\"": 2812,
      "Ġ&Ě\"": 2813,
      "Ġ&ěĝ": 2814,
      "Ġ&!\"": 2815,
      "Ġ&(ĀĀ": 2816,
      "Ġ&Ğ\"": 2817,
      "Ġ&Ğğ": 2818,
      "Ġ&&ğ": 2819,
      "Ġ&\"Ĝ": 2820,
      "Ġ&!Ĝ": 2821,
      "Ġ&Ĝě": 2822,
      "Ġ&Ğ$": 2823,
      "Ġ&&ĝ": 2824,
      "Ġ&#ě": 2825,
      "Ġ&ğĘ": 2826,
      "Ġ&ĝĚ": 2827,
      "Ġ&%%": 2828,
      "Ġ&)Ĝ": 2829,
      "ĠĚ\"": 2830,
      "ĠĚĘ": 2831,
      "ĠĚě": 2832,
      "ĠĚĜ!": 2833,
      "ĠĚĜĞ": 2834,
      "ĠĚğ!": 2835,
      "ĠĚ\"ĝ": 2836,
      "ĠĚĞĞ": 2837,
      "ĠĚğĞ": 2838,
      "ĠĚĜ$": 2839,
      "ĠĚ'ğ": 2840,
      "ĠĚĘĝ": 2841,
      "ĠĚ'!": 2842,
      "ĠĚğĜ": 2843,
      "ĠĚĝ\"": 2844,
      "ĠĚ'#": 2845,
      "ĠĚĞĜ": 2846,
      "ĠĚ#ĝ": 2847,
      "ĠĚğ$": 2848,
      "ĠĚ!$": 2849,
      "ĠĚĜĚ": 2850,
      "Ġ'ě": 2851,
      "Ġ'Ĝ": 2852,
      "Ġ'Ĝğ": 2853,
      "Ġ'ĜĞ": 2854,
      "Ġ'Ĝĝ": 2855,
      "Ġ'Ğ!": 2856,
      "Ġ'ĝğ": 2857,
      "Ġ'\"ğ": 2858,
      "Ġ'ě!": 2859,
      "Ġ'%ğ": 2860,
      "Ġ'#!": 2861,
      "Ġ'!Ğ": 2862,
      "Ġ'Ě\"": 2863,
      "Ġ'ĞĞ": 2864,
      "Ġ'ğĞ": 2865,
      "Ġ'ĝĞ": 2866,
      "Ġ'!ĝ": 2867,
      "Ġ'&\"": 2868,
      "Ġ'Ğĝ": 2869,
      "Ġ'Ğğ": 2870,
      "Ġ'ğ\"": 2871,
      "Ġ'ĝ#": 2872,
      "Ġ'ĚĜ": 2873,
      "Ġ'\"$": 2874,
      "Ġ'ĝ$": 2875,
      "Ġ'ğě": 2876,
      "Ġ'Ğě": 2877,
      "Ġ'ĞĜ": 2878,
      "Ġ'ğĚ": 2879,
      "Ġ'\"ě": 2880,
      "Ġ'!%": 2881,
      "Ġ'&ě": 2882,
      "Ġ'$Ě": 2883,
      "Ġ\"!ę": 2884,
      "Ġę%": 2885,
      "Ġęĕ": 2886,
      "ĠęĖ": 2887,
      "Ġęę": 2888,
      "ĠęĀĀ": 2889,
      "Ġę$!": 2890,
      "Ġę$#": 2891,
      "Ġęğ!": 2892,
      "Ġę#!": 2893,
      "Ġę##": 2894,
      "Ġę!#": 2895,
      "ĠęĞ\"": 2896,
      "ĠęĚĞ": 2897,
      "Ġęĝ$": 2898,
      "Ġę#$": 2899,
      "ĠęėĞ": 2900,
      "ĠęĞĜ": 2901,
      "Ġęğ$": 2902,
      "Ġ\"ğ&": 2903,
      "Ġ\"ğĘ": 2904,
      "Ġ\"ğĚ": 2905,
      "ĠğĞě": 2906,
      "ĠĞ!&": 2907,
      "ĠĞ!Ě": 2908,
      "ĠĞğĜ": 2909,
      "Ġ!\"&": 2910,
      "Ġ!\"ę": 2911,
      "Ġ!\"Ě": 2912,
      "Ġ!Ğ(": 2913,
      "Ġğ\"*": 2914,
      "Ġğ\"Ę": 2915,
      "Ġğ\"ę": 2916,
      "ĠĘ\"": 2917,
      "ĠĘ!ğ": 2918,
      "ĠĘğ!": 2919,
      "ĠĘ\"#": 2920,
      "ĠĘĝ#": 2921,
      "ĠĘ$Ĝ": 2922,
      "ĠĘğ$": 2923,
      "ĠĘ%Ę": 2924,
      "Ġ(%": 2925,
      "Ġ(&": 2926,
      "Ġ(Ğ": 2927,
      "Ġ(ğ": 2928,
      "Ġ(ěğ": 2929,
      "Ġ(!Ğ": 2930,
      "Ġ(\"ĝ": 2931,
      "Ġ(ęĞ": 2932,
      "Ġ(!Ĝ": 2933,
      "Ġ(ĞĜ": 2934,
      "Ġ(#ě": 2935,
      "Ġ(ė$": 2936,
      "Ġ\"\"(": 2937,
      "Ā!$#": 2938,
      "Ā!ğ%": 2939,
      "Ā\"ĝĞ": 2940,
      "Ġ\"Ğ'": 2941,
      "ĠĞĞ%": 2942,
      "ĠĞĞ&": 2943,
      "ĠĞĞĘ": 2944,
      "ĠĞĞĚ": 2945,
      "Ġ#!$": 2946,
      "Ġ#!%": 2947,
      "Ġ#!Ę": 2948,
      "ĀĞ!ğ": 2949,
      "ĀĞěě": 2950,
      "Ā#ĝ#": 2951,
      "Ā#ĝ&": 2952,
      "Ġ!ĝĚ": 2953,
      "Ġĝğ%": 2954,
      "Ġĝğ&": 2955,
      "ĠĝğĚ": 2956,
      "Ġ)!": 2957,
      "Ġ)\"": 2958,
      "Ġ)ĝ": 2959,
      "Ġ)\"\"": 2960,
      "Ġ)\"ğ": 2961,
      "Ġ)ě!": 2962,
      "Ġ)ĜĜ": 2963,
      "Ġ)Ğ\"": 2964,
      "Ġ)ğĜ": 2965,
      "Ġ)ĝ\"": 2966,
      "Ġ)ěĜ": 2967,
      "Ġ)ĝĜ": 2968,
      "Ġ)Ğę": 2969,
      "Ġė!": 2970,
      "Ġė#": 2971,
      "Ġėě": 2972,
      "ĠėĞ": 2973,
      "Ġėğ": 2974,
      "ĠėĀĀ": 2975,
      "Ġėğ!": 2976,
      "ĠėĞ$": 2977,
      "ĠėĖ!": 2978,
      "Ġ!#'": 2979,
      "Ġ!#ę": 2980,
      "Ġ#ğ&": 2981,
      "Ġĝ!'": 2982,
      "Ġĝ!Ě": 2983,
      "Ġĝ!ě": 2984,
      "ĀĀ!Ā)": 2985,
      "ĀĀ!ĀĘ": 2986,
      "ĀĀ!Ā*": 2987,
      "ĀĀ\"Ā*": 2988,
      "Ġğ#%": 2989,
      "Ġğ#'": 2990,
      "Ġğ#ĀĀ": 2991,
      "Ġğĝě": 2992,
      "ĠğĝĜ": 2993,
      "Āĝğĝ": 2994,
      "Ā$ĝě": 2995,
      "Ā$ĕĕ": 2996,
      "ĀĜ$ğ": 2997,
      "ĀĜ\"Ğ": 2998,
      "ĀĀĝĀĘ": 2999,
      "Ġ*Ğ": 3000,
      "Ġ*$Ğ": 3001,
      "Ġ*ğğ": 3002,
      "Ġ*&\"": 3003,
      "Ġ*#Ĝ": 3004,
      "Ġ*.$": 3005,
      "Ā%$": 3006,
      "ĀĀ#Ā)": 3007,
      "ĀĀ#ĀĘ": 3008,
      "ĀĀ#Ā*": 3009,
      "Ġ#\"ę": 3010,
      "Ġ\"#$": 3011,
      "Ġ\"#Ě": 3012,
      "ĀĀĜĀ*": 3013,
      "ĀĀĜĀ+": 3014,
      "Ġ#ĞĚ": 3015,
      "Ġĝ\"ę": 3016,
      "Ġĝ\"ě": 3017,
      "ĠĖĚ": 3018,
      "ĠĖğ": 3019,
      "ĠĖ\"\"": 3020,
      "ĠĖĞ#": 3021,
      "Āě+": 3022,
      "Āě\"\"": 3023,
      "Ġ\"ĝ&": 3024,
      "ĠĞĝ%": 3025,
      "ĠĞĝ&": 3026,
      "Ġ$ğ$": 3027,
      "Ġ$ğĘ": 3028,
      "ĠĞ#%": 3029,
      "ĠĞ#Ę": 3030,
      "ĀĀ$Ā(": 3031,
      "ĀĀ$ĀĖ": 3032,
      "ĀĀĚĀ'": 3033,
      "ĀĀĚĀė": 3034,
      "ĠĝĝĚ": 3035,
      "$ğ!": 3036,
      "$ğğĀĀ": 3037,
      "Ġ+!": 3038,
      "Ġ+#": 3039,
      "Ġ+ě\"": 3040,
      "$Ğğ": 3041,
      "ĀĀěĀĚ": 3042,
      "ĀĀěĀ)": 3043,
      "ĀĀěĀ(": 3044,
      "!!&": 3045,
      "Ĝ\"ĝ": 3046,
      "ĀĀ%Āę": 3047,
      "ĀĚĞ": 3048,
      "Ġ$\"%": 3049,
      "Ġ$\"ę": 3050,
      "Ġ$\"Ĝ": 3051,
      "ĠĜğ&": 3052,
      "ĠĕĚ)": 3053,
      "ĀĀ&Ā%": 3054,
      "ĀĀ&Ā'": 3055,
      "ĀĀ&Ā)": 3056,
      "ĀĀ&ĀĘ": 3057,
      "$\"#": 3058,
      "$\"Ĝ": 3059,
      "Ğ!#": 3060,
      "Ġ#ĝ%": 3061,
      "ĠĜ!Ě": 3062,
      "\"\"\"": 3063,
      "Ġĝ#$": 3064,
      "Ġĝ#&": 3065,
      "Ġ$!#": 3066,
      "Ġ$!(": 3067,
      "ĀĀĘĀę": 3068,
      "ĀĀĘĀė": 3069,
      "ĀĀĘĀ*": 3070,
      "ĀĀĘĀ+": 3071,
      "ĀĀĘĀ%\"": 3072,
      "ěğ\"": 3073,
      "ěğ*": 3074,
      "\"!$": 3075,
      "\"!-": 3076,
      "ğğ*": 3077,
      "ğğğ": 3078,
      "ĠĔ!": 3079,
      "ĠĔĞ!": 3080,
      "ĠĔ#!": 3081,
      "Ĝ#(": 3082,
      "ĝğ!": 3083,
      "ĀĀ(Āğ": 3084,
      "ĀĀ(Ā,": 3085,
      "ĀĀęĀĚ": 3086,
      "ĀĀęĀę": 3087,
      "ĀĀęĀ(": 3088,
      "ĀĀ'Ā%": 3089,
      "ĀĀ'Ā)": 3090,
      "Ġ$Ğ\"": 3091,
      "Ġ$Ğ$": 3092,
      "Ġ$Ğ%": 3093,
      "Ġ$Ğ)": 3094,
      "Ġ$Ğě": 3095,
      "Ġ$ĞĜ": 3096,
      "\"ğ$ĀĀ": 3097,
      "\"ğ!ĀĀ": 3098,
      "$ĝ%": 3099,
      "Ġ###": 3100,
      "Ġ##ė": 3101,
      "ĠĜĞě": 3102,
      "$#*": 3103,
      "Ġ$ĝ&": 3104,
      "Ġ$ĝę": 3105,
      "Ġ$ĝě": 3106,
      "Ā($Ğ": 3107,
      "ĀĀėĀ": 3108,
      "ĀĀėĀĝ": 3109,
      "ĀĀėĀĚ": 3110,
      "ĀĀėĀ*": 3111,
      "%#$": 3112,
      "%#Ę": 3113,
      "ĠĜĝ$": 3114,
      "ĠĜĝĜ": 3115,
      "ĠěĞ\"": 3116,
      "ĠěĞ#": 3117,
      "ĠěĞĚ": 3118,
      "ĠěĞě": 3119,
      "ĠěĞĜ": 3120,
      "ĠěĞĝ": 3121,
      "%ğė": 3122,
      "ĀĀ)Ā'": 3123,
      "ĀĀ)Ā+": 3124,
      "#Ğ%": 3125,
      "#Ğğ": 3126,
      "ě\"ĀĀ": 3127,
      "ĀĀĖĀ%": 3128,
      "ĀĀĖĀě": 3129,
      "ĀĀĖĀ'": 3130,
      "ĀĀĖĀ-": 3131,
      "ĀĘĞĞ": 3132,
      "#\"$": 3133,
      "ğ!#": 3134,
      "ğ!(": 3135,
      "%\"ĀĀ": 3136,
      "#!)": 3137,
      "Ě!#": 3138,
      "Ě!ĀĀ": 3139,
      "\"ĝĀĀ": 3140,
      "ĀĀ+ĀĞ": 3141,
      "ĀĀ+Ā#": 3142,
      "ĀĀ+Āĝ": 3143,
      "ĀĀ+Ā'": 3144,
      "ĀĀ+Ā(": 3145,
      "Ě\"(": 3146,
      "ğĞ\"": 3147,
      "ğĝě": 3148,
      "ĝĞ)": 3149,
      "&ĀĀ,": 3150,
      "ĀėĞĞ": 3151,
      "ĜĜ%": 3152,
      "ĠĠĠĠĠĠĠĠĠĠĠĠĠĠĠĠĠĠĠĠĠ": 3153,
      "ĠĠĠĠĠĠĠĠĠĠĠĠĠĠĠĠĠĠĠĠĠĠĠĠĠĠĠĠ": 3154,
      "ĠĠĠĠĠĠĠĠĠĠĠĠĠĠĠĠĠĠĠĠĠĠĠĠĠĠĠĠĠ": 3155,
      "\"#%": 3156,
      "\"#(": 3157,
      "##ĀĀ\"Ā'": 3158,
      "$ĀĀ/": 3159,
      "$ĀĀĐ": 3160,
      "$ĀĀđ": 3161,
      "$ĀĀĕ": 3162,
      "$ĀĀ-Āğ": 3163,
      "%ĀĀĕ": 3164,
      "(ĀĀ-": 3165,
      "(ĀĀđ": 3166,
      "(ĀĀēĀ&": 3167,
      "ĀĀğĀĕ": 3168,
      "Ě#-": 3169,
      "Ğĝ*": 3170,
      "ĞĝĀĀ": 3171,
      "Ġ$#$": 3172,
      "Ğ\")": 3173,
      "Ğ\"+": 3174,
      "Ğğ%": 3175,
      "Ğğ,": 3176,
      "ęğ&": 3177,
      "ęğ+": 3178,
      "ě$,": 3179,
      "ĠĀĀ.": 3180,
      "ĠĀĀĕ": 3181,
      "ĠĀĀ-Āğ": 3182,
      "Ġ\"$%": 3183,
      "Ġ\"$&": 3184,
      "Ġ\"$Ė": 3185,
      "Ġ\"$ě": 3186,
      "ĠĞ$ę": 3187,
      "ĠĞ$ě": 3188,
      "ĠĜ\"Ĝ": 3189,
      "Ġ%!Ę": 3190,
      "ĠĀ,": 3191,
      "ĠĀē": 3192,
      "ĠĀĔ": 3193,
      "ĠĀĖ": 3194,
      "&#-": 3195,
      "&#ĀĀ": 3196,
      "ĝ!(": 3197,
      "Ġğ$ě": 3198,
      "ĀĀĞĀ,": 3199,
      "ĀĀĞĀ-": 3200,
      "ĀĀĞĀ.": 3201,
      "ĀĀ\"ĀĒ": 3202,
      "ĀĀ\"ĀĔ": 3203,
      ")ĀĀ-": 3204,
      ")ĀĀ,ĀĜ": 3205,
      ")ĀĀđĀĜ": 3206,
      "ĠğěĜ": 3207,
      "#$'": 3208,
      "ĝ\"'": 3209,
      "%&&": 3210,
      "ĀĀĕĀĝ": 3211,
      "ĀĀĕĀĜ": 3212,
      "ĀĀĕĀ&": 3213,
      "ěĜĀĀ": 3214,
      "ĠĒĀĀ": 3215,
      "\"%)": 3216,
      "ĘğĀĀ": 3217,
      "Ġğ%%": 3218,
      "(\"ě": 3219,
      "ĀĀ,Āğ": 3220,
      "ĀĀ,Āĝ": 3221,
      "Ġ!&ě": 3222,
      "Ġ!&Ĝ": 3223,
      "Ġ!&ĝ": 3224,
      "ĠĝĜ%": 3225,
      "Ġěğę": 3226,
      "ĀĀ-ĀĞ": 3227,
      "ĀĀ-Ā%": 3228,
      "ĀĀ-ĀĚ": 3229,
      "ĀĀ-Āę": 3230,
      "Ěě,": 3231,
      "ĠĞěĚ": 3232,
      "ĀĀ.Āě": 3233,
      "ĀĀ.Ā(": 3234,
      "ĞĜ%": 3235,
      "ĀĀ*Ā#": 3236,
      "ĀĀ*Ā%": 3237,
      "ĀĀēĀ\"": 3238,
      "ĀĀēĀĞ": 3239,
      "ĀĀēĀĚ": 3240,
      "ĀĀēĀę": 3241,
      "ĠĜĜ&": 3242,
      "ĠĜĜĚ": 3243,
      "Ġě\"Ė": 3244,
      "Ġě\"Ě": 3245,
      "ĀĀěĀď": 3246,
      "Ġ/#": 3247,
      "ęĝĀĀěĀ": 3248,
      "ĠĀ!!Ğ": 3249,
      "Ġěĝ%": 3250,
      "ĀĀ!Ā!ĜĞ": 3251,
      "ĀĀ/Āě": 3252,
      "Ġ#ěę": 3253,
      "Ġ#Ĝę": 3254,
      "Ġ#ĜĚ": 3255,
      "Ġ%Ğ'": 3256,
      "ĀĀĞĀğĝ\"": 3257,
      "!Ěė": 3258,
      "ĀĀĜĀ!Ğē": 3259,
      "ĀĀ'Ā,": 3260,
      "ĀĀ'Ā/": 3261,
      "ĀĀ'Āĕ": 3262,
      "ĀĀđĀ#": 3263,
      "ĀĀđĀĝ": 3264,
      "ĠĀě%\"": 3265,
      "ĀĀ\"Ā!ğğ": 3266,
      "ĀĀĝĀĞ&!": 3267,
      "ĀĀĝĀĞğĝ": 3268,
      "(&ĀĀ\"Ā'": 3269,
      "*!Ė": 3270,
      "+ĀĀĐ": 3271,
      "Ġ\"%(": 3272,
      "ĠĜ#%": 3273,
      "ĀĀĞĀ!#ğ": 3274,
      "ĀĀ#Ā\")ğ": 3275,
      "ĀĀĞĀ\"ě": 3276,
      "ĀĀĘĀ.": 3277,
      "ĀĀĘĀĔ": 3278,
      "ĕĝĀĀ!Āğ": 3279,
      "ĝ)#": 3280,
      "ĝ)'": 3281,
      "ĝ)(": 3282,
      "ĝ)-": 3283,
      "Ġ$Ĝ%": 3284,
      "ĀĀğĀ%&&": 3285,
      "&ĀĀěĀĞ": 3286,
      "&ĀĀěĀ&": 3287,
      "&ĀĀěĀ'": 3288,
      "Ė#*": 3289,
      "ğ&.": 3290,
      "Ġ!'Ĝ": 3291,
      "ĀĀĞĀĞ%": 3292,
      "ĀĀ$Ā\"#ğ": 3293,
      "ĀĀęĀ.": 3294,
      "Ę&-": 3295,
      "ęę&": 3296,
      "ĠĘĞ&": 3297,
      "ĀĀĞĀĝ#$": 3298,
      "ĀĀ(Ā-": 3299,
      "\"+(": 3300,
      "ĀĀ\"Ā&!!": 3301,
      "ĀĀĚĀ&ĚĜ": 3302,
      "$(%ĀĀ": 3303,
      "ė&+": 3304,
      "ĀĀďĀ#": 3305,
      "Ġ%$Ę": 3306,
      "ĀĀĜĀ$Ĝğ": 3307,
      "!+)": 3308,
      "Ğ'*": 3309,
      "ĀĀćĀ%": 3310,
      "ĀĀ$Ā#ę!": 3311,
      "ĀĀęĀ\"ĝĝ": 3312,
      "')ęĀĀ": 3313,
      "Ĝ.+": 3314,
      "ĀĀ;Ā#": 3315,
      "ĀĀėĀĞĝĜ": 3316,
      "(ĀĀĒĀ!": 3317,
      "'ĀĀ*Ā!": 3318,
      "ę.)": 3319,
      "$ĀĀďĀ": 3320,
      "'ĀĀĞĀę": 3321,
      "ĠĀĀĖĀğ": 3322,
      "ĀĀĘĀę#\"": 3323,
      "(&ĀĀ\"Ā'\"ğ": 3324
    },
    "merges": [
      "Ġ Ġ",
      "Ġ !",
      "Ġ ğ",
      "ĠĠ ĠĠ",
      "Ġ \"",
      "Ġ Ğ",
      "ĠĠ Ġ",
      "Ā Ā",
      "Ġ ĝ",
      "Ġ #",
      "Ġ $",
      "Ġ Ĝ",
      "ĠĠĠĠ Ġ",
      "Ġ ě",
      "Ġ! !",
      "Ġ! ğ",
      "Ġğ ğ",
      "Ġ %",
      "Ġğ !",
      "ĠĠĠĠ ĠĠĠĠ",
      "Ġ &",
      "Ġ Ě",
      "Ġ '",
      "Ġ\" !",
      "Ġ ę",
      "Ġ\" ğ",
      "Ġğ Ğ",
      "ĠĞ !",
      "ĠĞ ğ",
      "Ġ! \"",
      "Ġ! Ğ",
      "Ġğ \"",
      "ĠĠĠĠ ĠĠ",
      "Ġ Ę",
      "Ġ (",
      "Ġ\" \"",
      "Ā !",
      "Ā \"",
      "Ā ğ",
      "Ġ\" Ğ",
      "ĠĞ Ğ",
      "ĠĞ \"",
      "Ġ# !",
      "ĀĀ ğ",
      "Ā Ğ",
      "Ā #",
      "Ġ! ĝ",
      "Ġĝ ğ",
      "Ġ )",
      "Ġ ė",
      "Ġ! #",
      "Ġ# ğ",
      "Ġĝ !",
      "ĀĀ !",
      "ĀĀ Ğ",
      "ĀĀ \"",
      "Ġğ #",
      "Ġğ ĝ",
      "Ā ĝ",
      "Ā $",
      "Ā Ĝ",
      "Ġ!! ğ",
      "Ġ!ğ ğ",
      "Ġğ! !",
      "ĀĀ ĝ",
      "Ġ *",
      "Ġğğ !",
      "Ā %",
      "ĀĀ #",
      "ĠĠĠĠ ĠĠĠ",
      "Ġ# \"",
      "Ġ\" #",
      "ĀĀ Ĝ",
      "Ġĝ Ğ",
      "Ġ# Ğ",
      "Ġĝ \"",
      "Ā &",
      "Ġ!ğ !",
      "Ġ!! !",
      "Ġ Ė",
      "Ā ě",
      "Ġ\" ĝ",
      "Ĝ ğ",
      "ĠĞ ĝ",
      "Ġğ! ğ",
      "ĠĠĠĠĠĠĠĠ ĠĠĠ",
      "Ġğğ ğ",
      "Ĝ !",
      "Ġ$ ğ",
      "ĠĞ #",
      "ĀĀ $",
      "ĀĀ Ě",
      "Ġĝ ĝ",
      "$ ğ",
      "Ġ +",
      "ĠĠĠĠĠĠĠĠ ĠĠĠĠ",
      "$ !",
      "$ Ğ",
      "Ā '",
      "ĀĀ ě",
      "! !",
      "Ĝ \"",
      "ĀĀ %",
      "Ā Ě",
      "Ġ$ \"",
      "ĠĜ ğ",
      "Ĝ Ğ",
      "Ġ ĕ",
      "Ġ!ğ Ğ",
      "# ğ",
      "Ĝ ĝ",
      "ĠĠĠĠĠĠĠĠ ĠĠ",
      "ĀĀ &",
      "$ \"",
      "Ğ !",
      "Ġ# ĝ",
      "ĠĜ !",
      "Ġ\"! ğ",
      "\" \"",
      "Ġĝ #",
      "Ġ$ !",
      "ĀĀ Ę",
      "ě ğ",
      "Ġğğ \"",
      "Ġ\"ğ ğ",
      "ĠĞğ !",
      "\" !",
      "ğ ğ",
      "ĠğĞ !",
      "Ġ Ĕ",
      "Ġ!! Ğ",
      "Ĝ #",
      "Ā )",
      "ĝ ğ",
      "ĀĀ (",
      "Ā ę",
      "ĀĀ ę",
      "Ġ ,",
      "ĀĀ '",
      "Ġ$ Ğ",
      "\" ğ",
      "$ ĝ",
      "Ġ# #",
      "ě !",
      "ĠĜ Ğ",
      "$ #",
      "Ġ!\" !",
      "Ġ$ ĝ",
      "Ġğ\" !",
      "% !",
      "Ā (",
      "ĀĀ ė",
      "Ġ!\" ğ",
      "ĠĞ! !",
      "Ġ!Ğ ğ",
      "% #",
      "% Ğ",
      "& !",
      "ĠĜ ĝ",
      "Ġě Ğ",
      "! ğ",
      "% ğ",
      "ĀĀ )",
      "ĠğĞ ğ",
      "# Ğ",
      "$ $",
      "ě \"",
      "ě Ğ",
      "ĀĀ Ė",
      "Ġ!! \"",
      "Ġ\"! !",
      "Ā Ę",
      "ĠĞ! ğ",
      "Ġğğ Ğ",
      "# \"",
      "ğ !",
      "Ġğ\" ğ",
      "% \"",
      "ĠĞğ ğ",
      "# !",
      "Ě ğ",
      "Ġ!ğ \"",
      "Ġ\"! Ğ",
      "! Ğ",
      "\" Ğ",
      "Ě !",
      "Ġ! Ĝ",
      "Ġğ! \"",
      "\" ĝ",
      "ĀĀ +",
      "Ġ!Ğ !",
      "Ě \"",
      "Ğ Ğ",
      "ğ Ğ",
      "ğ ĝ",
      "ĝ Ğ",
      "ğ #",
      "Ġ\"ğ !",
      "Ġ\"\" ğ",
      "Ġ -",
      "Ġ! $",
      "ĠĞ! \"",
      "& ĀĀ",
      "Ā ė",
      "ĠĞğ \"",
      "! ĝ",
      "' ĀĀ",
      "Ĝ Ĝ",
      "Ġğ! Ğ",
      "ĠĠĠĠĠĠĠĠ ĠĠĠĠĠĠĠĠ",
      "\" #",
      "Ĝ $",
      "& \"",
      "ě #",
      "ě ĝ",
      "! \"",
      "Ġ\"ğ Ğ",
      "% ĝ",
      "ĠĠĠĠ ĠĠĠĠĠ",
      "# #",
      "ě ě",
      "Ġ#ğ ğ",
      "! #",
      "$ ĀĀ",
      "% ĀĀ",
      "( ĀĀ",
      "Ġ!Ğ Ğ",
      "Ġ\"Ğ ğ",
      "ĀĀğ Ā",
      "% $",
      "& Ğ",
      "Ě #",
      "Ğ ĝ",
      "Ġ ē",
      "ĠĞ Ĝ",
      "Ġ$ #",
      "ĠĠĠĠĠĠĠĠ ĠĠĠĠĠ",
      "Ġğ\" \"",
      "ĠĞĞ !",
      "ĠĞ\" !",
      "' ğ",
      "Ě ĝ",
      "Ğ \"",
      "Ğ ğ",
      "ğ \"",
      "& ğ",
      "ę ğ",
      "ě $",
      "Ġ ĀĀ",
      "Ġ\" $",
      "Ġĝğ !",
      "Ġ .",
      "ĠĞ $",
      "ĠĜ \"",
      "Ġ!! ĝ",
      "Ġ!\" Ğ",
      "% Ĝ",
      "Ā *",
      "Ę ĝ",
      "Ġ!ğ ĝ",
      "Ġ\"Ğ !",
      "ĝ #",
      "Ġğ Ĝ",
      "Ġ% !",
      "Ġ#! ğ",
      "Ě Ĝ",
      "Ġ Ā",
      "Ġ\"\" Ğ",
      "\" $",
      "& #",
      "* ĀĀ",
      "Ě Ğ",
      "ĝ !",
      "Ġğ $",
      "Ġ\"! ĝ",
      "Ġĝ! !",
      "ĀĀĞ Ā",
      "ĀĀ\" Ā",
      "' !",
      ") ĀĀ",
      "ĝ $",
      "ğ Ĝ",
      "Ġğ ě",
      "Ġě !",
      "ĠğĞ Ğ",
      "ĠĞĞ ğ",
      "ĀĀ# Ā",
      "# $",
      "ę !",
      "ę Ğ",
      "ĝ \"",
      "Ġğ\" Ğ",
      "% &",
      "' \"",
      "ĀĀ ĕ",
      "Ġğğ #",
      "Ġ\"\" !",
      "ě Ĝ",
      "ğ ě",
      "Ġ Ē",
      "Ġ!\" \"",
      "Ġ\"Ğ Ğ",
      "Ġĝğ \"",
      "\" %",
      "$ Ĝ",
      "& &",
      "Ā +",
      "ė Ğ",
      "Ğ ě",
      "Ġ!! Ĝ",
      "ĠğĞ \"",
      "Ġ!ĝ ğ",
      "Ġ!# ğ",
      "\" Ĝ",
      "Ę ğ",
      "ĝ ĝ",
      "Ğ #",
      "Ġğ %",
      "Ġğ! #",
      "ĠĞğ #",
      "Ġ#! Ğ",
      "Ġ#\" ğ",
      "( \"",
      "ĀĀ ,",
      "ĠğĞ #",
      "ĠĞ! Ğ",
      "Ġ#ğ Ğ",
      "ĀĀ! Ā",
      "' #",
      "Ġ! &",
      "Ġĝ Ĝ",
      "Ġě ğ",
      "Ġ#! !",
      "Ġĝğ ğ",
      "( !",
      "ĀĀ -",
      "Ġ# $",
      "Ġğğ ĝ",
      "Ġ\"! \"",
      "ĠĞĞ \"",
      "Ġĝ! \"",
      "ĠĝĞ !",
      "! Ĝ",
      "( ğ",
      "ę ě",
      "Ě ě",
      "Ĝ ě",
      "Ğ $",
      "ĠĞ ě",
      "ĀĀ .",
      "ĀĀ Ē",
      "Ġĝ $",
      "Ġğ! ĝ",
      "ĠĠĠĠĠĠĠĠ ĠĠĠĠĠĠĠĠĠĠ",
      "ĠĞğ Ğ",
      "ĠĞ\" ğ",
      "Ġ!ĝ !",
      "Ġ!# !",
      "Ġ!# Ğ",
      "Ġğĝ ğ",
      "# &",
      "& ĝ",
      "' Ğ",
      "Ę Ğ",
      "ĝ Ĝ",
      "Ğ Ĝ",
      "ğ Ě",
      "ĠĠĠĠĠĠĠĠ ĠĠĠĠĠĠĠ",
      "Ġ#\" !",
      "ĀĀĜ Ā",
      "& $",
      ") ğ",
      "Ę \"",
      "ę Ĝ",
      "ĀĀ *",
      "ĀĀ ē",
      "ĠĜ Ĝ",
      "Ġě \"",
      "Ġ\"ğ ĝ",
      "ĠĞ! #",
      "Ġ\"\" ĝ",
      "Ġĝ! ğ",
      "ĀĀě Ā",
      "\" ě",
      "# ĝ",
      "& %",
      "& Ĝ",
      "Ę !",
      "Ġ /",
      "ĀĀ Ĕ",
      "Ġ\"ğ \"",
      "Ġ!Ğ ĝ",
      "Ġ#! ĝ",
      "Ġ!ĝ Ğ",
      "Ġğ# !",
      "Ġğ# Ğ",
      "Ġğ# ğ",
      "Ġğĝ Ğ",
      "Ġ\"# ğ",
      "Ġ#Ğ Ğ",
      "Ġ$ğ ğ",
      "# ě",
      "# Ĝ",
      ") !",
      "ę ĝ",
      "ğ $",
      "Ġ Ā!",
      "Ġ Ā\"",
      "Ġ! Ě",
      "Ġě ĝ",
      "Ġğ\" #",
      "Ġ\"Ğ ĝ",
      "ĀĀ! Ā!",
      "Ġĝ\" !",
      "ĠĞĝ !",
      "Ġĝĝ ğ",
      "ĀĀ% Ā",
      "$ ě",
      "% ě",
      "ė ĝ",
      "ė ğ",
      "Ġ Āğ",
      "Ġ\" Ĝ",
      "ĠĞ %",
      "ĀĀ /",
      "Ġ# ě",
      "Ġ# Ĝ",
      "Ġ% Ğ",
      "Ġ!Ğ \"",
      "ĠĞ\" \"",
      "Ġ#ğ !",
      "ĀĀ! Āğ",
      "ĀĀĞ Āğ",
      "Ġ$ğ Ğ",
      "! $",
      "$ &",
      "% '",
      "( $",
      "Ę Ĝ",
      "ę \"",
      "ğ '",
      "Ġ! $ğ",
      "Ġ!ğ Ĝ",
      "Ġ\"ğ Ĝ",
      "ĀĀğ Ā\"",
      "Ġğ# \"",
      "Ġğĝ !",
      "ĀĀĝ Ā\"",
      "Ġ\"# !",
      "Ġ\"ĝ !",
      "! %",
      "! Ě",
      "( %",
      "( Ĝ",
      "( ĝ",
      ", ĀĀ",
      "Ę $",
      "ě %",
      "ğ %",
      "ğ Ę",
      "Ġ 0",
      "ĀĀğ ĀĞ",
      "ĀĀĞ Ā#",
      "ĀĀĝ Ā",
      "ĀĀĜ Ā!",
      "Ġ#Ğ ğ",
      "Ġĝ\" ğ",
      "ĀĀ' Ā",
      ") \"",
      ") $",
      "Ā Ė",
      "Ė ĝ",
      "Ę #",
      "Ę ě",
      "ę #",
      "ę Ě",
      "Ğ Ě",
      "Ġ đ",
      "ĀĀ đ",
      "Ġ# #ğ",
      "Ġ!ğ #",
      "ĠĠĠĠĠĠĠĠ ĠĠĠĠĠĠĠĠĠĠĠĠ",
      "ĠĞ! ĝ",
      "Ġ\"\" \"",
      "ĀĀ! Ā\"",
      "ĀĀ# Ā!",
      "Ġ\"# Ğ",
      "ĠĝĞ \"",
      "ĠĞ# !",
      "Ġĝĝ !",
      "ĠĜğ \"",
      "Ġĝ# !",
      "! ě",
      "\" '",
      "\" Ě",
      "# Ě",
      "% Ě",
      "' $",
      "( #",
      "( Ğ",
      "ė !",
      "ę $",
      "ĝ ě",
      "ğ ę",
      "Ġ Āě",
      "Ġ! Ĝğ",
      "Ġ\" ě",
      "Ġ\" $Ğ",
      "Ġ!ğ $",
      "Ġğğ Ĝ",
      "ĠĚ ğ",
      "Ġ\"! Ĝ",
      "Ġ#! \"",
      "Ġ!# ĝ",
      "ĀĀ! ĀĞ",
      "ĀĀ\" Ā!",
      "Ġğĝ \"",
      "ĀĀĝ Ā!",
      "ĀĀĝ Āğ",
      "ĀĀĝ ĀĞ",
      "ĀĀĝ Ā#",
      "Ġ\"# ĝ",
      "ĠĝĞ ğ",
      "ĠĞ# \"",
      "Ġ$! ğ",
      "Ġ$Ğ ğ",
      "\" &",
      "$ %",
      "& ě",
      "' &",
      "' '",
      "' ĝ",
      "( &",
      "* !",
      "* #",
      "+ ĀĀ",
      "ė \"",
      "ė Ě",
      "Ĝ Ě",
      "ĝ %",
      "ĝ Ě",
      "Ġ ĀĜ",
      "Ġ! ě",
      "Ġ\" %",
      "Ġ\" $ğ",
      "Ġĝ %",
      "ĠĜ #",
      "Ġ!! #",
      "Ġ% #",
      "Ġğ! $",
      "Ġ\"! #",
      "ĠğĞ ĝ",
      "Ġ!\" ĝ",
      "ĀĀğ Āğ",
      "ĀĀğ Ā#",
      "Ġĝğ #",
      "Ġ#ğ Ĝ",
      "Ġĝ! #",
      "ĀĀ! Āĝ",
      "ĀĀĞ Ā!",
      "ĀĀ\" Āğ",
      "ĀĀ\" Ā$",
      "ĀĀ# Ā\"",
      "Ġ\"ĝ Ğ",
      "Ġ\"ĝ ğ",
      "! &",
      "# ĀĀ",
      "' %",
      "' (",
      "* \"",
      "+ !",
      "ę %",
      "Ě Ě",
      "ĝ &",
      "Ğ %",
      "Ġ ĀĞ",
      "Ġ Āĝ",
      "Ġğ $!",
      "Ġğ Ĝ\"",
      "Ġ\" $!",
      "Ġ# %",
      "Ġ# $Ğ",
      "ĠĜ !!",
      "Ġğğ $",
      "Ġğ! %",
      "Ġ!\" #",
      "Ġ!Ğ #",
      "Ġ\"Ğ Ĝ",
      "Ġ#! #",
      "ĀĀğ Ā!",
      "ĀĀğ ĀĜ",
      "ĀĀĞ Ā\"",
      "ĀĀĞ Ā%",
      "ĀĀ\" Āĝ",
      "Ġ#\" Ğ",
      "Ġ#Ğ !",
      "Ġ#Ğ ĝ",
      "ĀĀ& Ā",
      "ĠĜ! \"",
      "Ġ$! Ğ",
      "ĀĀĘ Ā",
      "$ Ě",
      "* '",
      "ĕ ĝ",
      "Ė !",
      "ė ė",
      "ę Ė",
      "Ě %",
      "ĝ )",
      "Ğ )",
      "Ġ! %",
      "Ġğ Ĝğ",
      "Ġğ $Ğ",
      "Ġ\" &",
      "Ġ\" Ě",
      "ĠĞ Ĝ!",
      "Ġ$ %",
      "Ġ$ Ĝ",
      "ĠĜ Ğ!",
      "Ġ% ğ",
      "Ġğ\" ĝ",
      "ĠĞĞ Ğ",
      "ĀĀğ Ā%",
      "Ġ!# \"",
      "Ġ#ğ ĝ",
      "ĀĀ! Ā#",
      "ĀĀ! Ā$",
      "ĀĀ! ĀĜ",
      "ĀĀĝ Āĝ",
      "Ġĝ\" \"",
      "ĀĀ$ Āĝ",
      "Ġĝĝ Ğ",
      "Ġ$\" !",
      "Ġ$\" ĝ",
      "Ġ$\" Ğ",
      "ĠĜğ !",
      "Ġ## Ğ",
      "# %",
      "& (",
      "& ĀĀě",
      ") %",
      ") ĝ",
      "Ā ,",
      "ĕ Ĝ",
      "ĕ ĀĀ",
      "Ė \"",
      "Ė #",
      "Ė Ĝ",
      "Ė Ğ",
      "ė Ĝ",
      "Ğ ę",
      "ğ &",
      "Ġ Ā$",
      "Ġ! '",
      "Ġğ Ě",
      "Ġ\" Ĝğ",
      "ĠĞ Ě",
      "ĠĞ Ĝ\"",
      "Ġ$ ě",
      "Ġ$ Ğ!",
      "Ġ!! $",
      "Ġ\"ğ #",
      "ĠĞ! $",
      "Ġ\"Ğ \"",
      "ĠĞĞ #",
      "ĠĞ\" #",
      "ĀĀğ Āĝ",
      "ĀĀğ Ā$",
      "ĀĀğ Āě",
      "Ġ!ĝ \"",
      "Ġ!ĝ #",
      "ĀĀĞ ĀĞ",
      "ĀĀĞ Ā$",
      "ĀĀ\" Ā\"",
      "ĀĀ\" ĀĞ",
      "ĀĀ\" Ā#",
      "Ġĝ\" #",
      "Ġ\"ĝ \"",
      "ĀĀ$ Ā\"",
      "ĀĀĚ Ā",
      "ĀĀĚ Āğ",
      "Ġ$\" ğ",
      "Ġ#ĝ Ğ",
      "Ġĝ# \"",
      "! ę",
      "\" ę",
      "( ě",
      "* $",
      "* (",
      "* Ğ",
      "Ĕ ě",
      "Ė ě",
      "Ę ę",
      "Ę ĀĀ",
      "Ĝ Ę",
      "Ĝ ę",
      "Ğ (",
      "ğ ĕ",
      "Ġ Đ",
      "Ġ Ā#",
      "Ġ! Ĝ!",
      "Ġ! $!",
      "Ġ! ěğ",
      "Ġğ &",
      "Ġğ ĜĞ",
      "Ġ\" ĜĞ",
      "Ġ\" $ĝ",
      "Ġ# ĜĞ",
      "Ġ$ !!",
      "ĠĜ $",
      "ĠĜ ě",
      "ĠĜ \"ğ",
      "Ġ% \"",
      "ĠĚ ĝ",
      "ĠĞ\" Ğ",
      "ĀĀ\" ĀĜ",
      "Ġğ# ĝ",
      "ĀĀĝ Ā$",
      "ĀĀĝ ĀĜ",
      "ĀĀ# ĀĞ",
      "ĀĀ# Ā$",
      "ĀĀĜ Āĝ",
      "Ġĝ\" ĝ",
      "ĠĞĝ Ğ",
      "ĠĞ# #",
      "ĠĞ# ğ",
      "ĀĀĚ ĀĞ",
      "ĀĀę Ā",
      "ĀĀę Ā!",
      "ĀĀĖ Ā$",
      "! (",
      "' ě",
      ") &",
      ") *",
      "* +",
      ". ĀĀ",
      "Ĕ Ĝ",
      "Ė ğ",
      "ė $",
      "ė ę",
      "ė ě",
      "Ę &",
      "Ę Ė",
      "ę ę",
      "Ĝ %",
      "Ĝ Ĕ",
      "Ġ ď",
      "Ġ Ā%",
      "Ġ! $\"",
      "Ġ! $#",
      "Ġğ $ğ",
      "Ġğ $\"",
      "ĠĞ Ĝğ",
      "ĠĞ $!",
      "ĠĞ $Ğ",
      "Ġ# $ğ",
      "ĠĜ \"\"",
      "Ġ% Ğ!",
      "Ġ% ğĞ",
      "Ġğ! ě",
      "ĠĠĠĠĠĠĠĠ ĠĠĠĠĠĠ",
      "ĠĠĠĠĠĠĠĠ ĠĠĠĠĠĠĠĠĠĠĠ",
      "Ġ& $",
      "Ġ\"! ě",
      "Ġę Ğ",
      "Ġ\"ğ $",
      "ĠĞğ $",
      "ĠĞğ ĝ",
      "Ġ!Ğ $",
      "Ġğ\" $",
      "ĠĘ Ğ",
      "Ġ!ĝ ĝ",
      "ĀĀĞ Āĝ",
      "ĀĀĞ ĀĜ",
      "ĀĀĞ Ā&",
      "ĀĀĞ Āě",
      "Ġğ# #",
      "ĀĀĜ Ā#",
      "ĠĝĞ #",
      "ĠĞĝ \"",
      "Ġ$ğ ĝ",
      "ĀĀ$ Ā!",
      "ĀĀĚ Ā!",
      "ĀĀĚ Ā\"",
      "ĀĀĚ Ā#",
      "Ġĝĝ \"",
      "ĀĀ% Āğ",
      "ĠĜğ ğ",
      "ĀĀ& Āğ",
      "Ġ$! ĝ",
      "ĀĀ( Ā",
      "Ġ$Ğ ĝ",
      "ĠĜĝ !",
      "Ġ$# Ĝ",
      "! '",
      "\" +",
      "\" Ę",
      "% ę",
      "& )",
      "' Ě",
      "( )",
      "( Ě",
      ") -",
      "+ '",
      "Ā ĕ",
      "Ē ĝ",
      "Ĕ ĝ",
      "ĕ \"",
      "ĕ Ğ",
      "Ė ę",
      "ė ĕ",
      "ė Ę",
      "ė ĀĀ",
      "Ę %",
      "Ě &",
      "Ě Ę",
      "Ĝ '",
      "Ĝ (",
      "ĝ Ė",
      "Ġğ Ĝ#",
      "Ġ\" Ĝ!",
      "Ġ\" %Ğ",
      "Ġĝ ě",
      "Ġĝ $!",
      "Ġ$ $",
      "Ġ$ #ğ",
      "Ġ$ %ğ",
      "Ġě !!",
      "Ġě \"ğ",
      "Ġğğ %",
      "Ġğğ &",
      "Ġ% !!",
      "Ġğ! Ĝ",
      "Ġ& !",
      "Ġ& \"",
      "Ġ& ĝ",
      "Ġ& ğğ",
      "Ġ' !",
      "Ġ' \"",
      "Ġ\"! Ě",
      "ĠğĞ $",
      "ĠĞ! Ĝ",
      "Ġ!\" ě",
      "Ġ\"Ğ #",
      "ĠĞ\" $",
      "ĠĞ\" ĝ",
      "ĀĀğ ĀĚ",
      "Ġ!ĝ $",
      "Ġĝğ ĝ",
      "Ġ!# #",
      "Ġĝ! $",
      "Ġĝ! Ğ",
      "ĀĀ! Ā%",
      "ĀĀ! Āě",
      "ĀĀ! Āę",
      "ĀĀ\" Ā&",
      "ĀĀ\" Ā'",
      "ĀĀ# Āğ",
      "ĀĀ# Āĝ",
      "ĀĀ# ĀĜ",
      "Ġ#\" \"",
      "Ġ\"# Ĝ",
      "ĀĀĜ ĀĜ",
      "Ġ#Ğ \"",
      "Ġ#Ğ ě",
      "Ġ\"ĝ ĝ",
      "Ġ$ğ !",
      "ĠĞ# Ğ",
      "ĀĀ$ Āğ",
      "ĀĀĚ Ā&",
      "ĀĀ% Ā&",
      "ĠĜğ #",
      "ĀĀ& Ā\"",
      "ĀĀ& Āĝ",
      "ĀĀ& ĀĜ",
      "Ġ#ĝ ĝ",
      "ĀĀ' Āğ",
      "Ġ## !",
      "Ġ$ĝ Ğ",
      "ĠěĞ ğ",
      "ĀĀĖ Ā\"",
      "# (",
      "$ (",
      "$ ę",
      "% %",
      "% Ę",
      "' +",
      ") #",
      ") (",
      "* *",
      "+ Ĝ",
      "ē ĀĀ",
      "Ĕ #",
      "ĕ !",
      "ĕ ğ",
      "Ė ė",
      "ė #",
      "ė &",
      "Ę '",
      "Ę ĕ",
      "ę ĀĀ",
      "ě &",
      "ě ę",
      "ĝ (",
      "ĝ ,",
      "Ğ ė",
      "Ğ Ę",
      "ğ +",
      "Ġ 2",
      "Ġ! ĜĞ",
      "Ġ! $ĝ",
      "Ġğ ę",
      "Ġğ $#",
      "Ġğ %Ğ",
      "Ġ\" ę",
      "Ġ\" ěğ",
      "ĠĞ $#",
      "ĀĀ ď",
      "Ġĝ &",
      "Ġĝ Ĝ!",
      "Ġ$ #Ğ",
      "ĠĜ \"!",
      "Ġě Ĝğ",
      "Ġě Ĝ!",
      "Ġ!! ě",
      "Ġ!ğ ě",
      "Ġğğ ě",
      "Ġ% $",
      "Ġ% \"!",
      "Ġ% ğě",
      "Ġ& ě",
      "Ġ& ğ",
      "ĠĚ !",
      "Ġę #",
      "Ġ\"ğ ě",
      "ĠğĞ Ĝ",
      "Ġ!Ğ ě",
      "Ġ!Ğ Ĝ",
      "Ġ\"\" #",
      "Ġ#! Ĝ",
      "ĀĀğ Ā'",
      "Ġĝğ Ğ",
      "Ġ!# Ĝ",
      "ĀĀ! ĀĚ",
      "ĀĀ\" Āě",
      "ĀĀ\" ĀĚ",
      "Ġğĝ #",
      "ĀĀĝ Ā%",
      "Ġ#\" ĝ",
      "ĀĀĜ Ā\"",
      "ĀĀĜ Āğ",
      "ĀĀĜ ĀĞ",
      "ĀĀĜ Ā$",
      "ĀĀĜ Ā'",
      "Ġĝ\" Ğ",
      "Ġ\"ĝ Ĝ",
      "ĠĞĝ ğ",
      "ĠĞ# ĝ",
      "ĀĀ$ Ā",
      "ĀĀ$ ĀĞ",
      "ĀĀ$ ĀĜ",
      "ĀĀě Ā\"",
      "ĀĀě ĀĞ",
      "ĀĀ% ĀĞ",
      "ĀĀ% Ā#",
      "Ġ#ĝ !",
      "ĠĜ! ğ",
      "Ġĝ# Ğ",
      "ĀĀĘ ĀĜ",
      "Ġ$Ğ Ğ",
      "Ġ## \"",
      "Ġ## ĝ",
      "ĠĜĞ \"",
      "Ġ$ĝ \"",
      "ĠĜĝ ĝ",
      "ĠĜĝ Ğ",
      "ĀĀ) Ā",
      "! +",
      "\" ĕ",
      "\" ĀĀ",
      "$ '",
      "' Ę",
      "' Ĝ",
      "( *",
      "( ,",
      ") )",
      ") Ğ",
      ") ĀĀ)",
      "* ĝ",
      ". $",
      "/ #",
      "č Ġ",
      "ĕ Ě",
      "Ę Ē",
      "Ę Ĕ",
      "Ę Ě",
      "ę ė",
      "Ě $",
      "Ě ė",
      "ě ,",
      "Ĝ &",
      "Ĝ )",
      "Ĝ ė",
      "ĝ +",
      "ĝ ē",
      "ĝ Ę",
      "ĝ ę",
      "Ğ '",
      "Ġ Ā&",
      "Ġ Ā'",
      "Ġ ĀĚ",
      "Ġ Āę",
      "Ġ! $Ğ",
      "Ġ! Ĝĝ",
      "Ġ! %Ğ",
      "Ġ! %\"",
      "Ġğ Ĝĝ",
      "Ġ\" &Ğ",
      "ĠĞ &",
      "ĠĞ ěĝ",
      "ĀĀ ć",
      "Ġĝ (",
      "Ġĝ Ĝğ",
      "Ġ$ &",
      "Ġ$ Ĝ!",
      "Ġ$ $!",
      "Ġ$ $Ğ",
      "ĠĜ Ĝ\"",
      "ĠĜ ě#",
      "Ġě #",
      "Ġě $",
      "Ġě Ĝ",
      "Ġě \"\"",
      "Ġě !ğ",
      "Ġě ĝĞ",
      "Ġě !#",
      "Ġ% ĝğ",
      "Ġ% \"ğ",
      "Ġ% !ğ",
      "Ġ% !Ğ",
      "Ġ% Ğĝ",
      "Ġ& Ĝĝ",
      "Ġ& ĝğ",
      "Ġ& ğĝ",
      "ĠĚ #",
      "ĠĚ Ğ",
      "Ġę !",
      "Ġ!\" $",
      "Ġ!\" Ĝ",
      "Ġğ\" %",
      "ĠĞĞ ĝ",
      "Ġ#! ě",
      "ĀĀğ ĀĘ",
      "Ġĝ! Ĝ",
      "Ġĝ! ĝ",
      "ĀĀ! Ā&",
      "Ġğ# Ĝ",
      "ĀĀĝ Ā&",
      "ĀĀĝ Ā)",
      "Ġ#\" Ĝ",
      "ĀĀĜ Ā%",
      "ĀĀĜ Āě",
      "ĀĀ$ Ā#",
      "ĀĀ$ Ā&",
      "ĀĀ$ Āě",
      "ĀĀ$ ĀĚ",
      "ĀĀě Āğ",
      "ĀĀě Ā#",
      "ĀĀ% Ā$",
      "ĀĀ& ĀĞ",
      "Ġĝ# ĝ",
      "ĀĀĘ Ā\"",
      "ĀĀĘ Āğ",
      "ĀĀĘ Ā#",
      "ĀĀĘ Āě",
      "ĀĀ( Ā#",
      "ĀĀę Ā\"",
      "ĀĀę Āğ",
      "Ġ$ĝ !",
      "ĀĀė Ā!",
      "ĀĀ) Ā#",
      "ĀĀ+ Ā",
      "Ġ$# ĝ",
      "Ġ%! ě",
      "! ĀĀ",
      "\" (",
      "$ Ė",
      "% Ĕ",
      "' )",
      "' ę",
      ") ě",
      "* ě",
      "* ğ",
      "+ #",
      "+ $",
      "+ %",
      ", #",
      ", $",
      "- )",
      "/ ĀĀ",
      "Ē ě",
      "ē #",
      "Ĕ ğ",
      "ĕ $",
      "ĕ Ĕ",
      "ĕ ĕ",
      "Ė $",
      "Ė )",
      "Ė Ě",
      "ė %",
      "Ĝ .",
      "Ĝ ĕ",
      "Ĝ ĀĀ",
      "ğ ė",
      "Ġ Ď",
      "Ġ! Ĝ\"",
      "Ġ! %!",
      "Ġ! &ğ",
      "Ġğ ě\"",
      "Ġğ Ě!",
      "Ġ\" Ĝ\"",
      "Ġ\" ě!",
      "ĠĞ ę",
      "ĠĞ ě!",
      "ĠĞ %!",
      "ĠĞ &!",
      "ĀĀ ;",
      "Ġĝ ĜĞ",
      "Ġĝ #ğ",
      "Ġĝ Ĝĝ",
      "Ġĝ Ĝ#",
      "Ġĝ &Ğ",
      "Ġ# &",
      "Ġ# Ě",
      "Ġ# Ĝğ",
      "Ġ# $!",
      "Ġ# $ĝ",
      "Ġ$ Ĝğ",
      "Ġ$ Ĝĝ",
      "Ġ$ ĝğ",
      "Ġ$ ĜĜ",
      "ĠĜ &",
      "ĠĜ Ě",
      "ĠĜ #ğ",
      "ĠĜ Ě!",
      "Ġě #ğ",
      "Ġě ğğ",
      "Ġě #\"",
      "Ġ!ğ %",
      "Ġ% Ě",
      "Ġ% ě",
      "Ġ% ĝ",
      "Ġ% Ĝ!",
      "Ġ% $ğ",
      "Ġ% $!",
      "Ġ% \"\"",
      "Ġ% #Ğ",
      "Ġ% \"Ğ",
      "Ġ% ĞĞ",
      "Ġ% ğĝ",
      "Ġğ! &",
      "Ġ& \"ğ",
      "Ġ& #!",
      "ĠĚ $",
      "ĠĚ Ĝ",
      "ĠĚ \"%",
      "Ġ' ĝ",
      "Ġ\"! $",
      "Ġę ĝ",
      "Ġę ğ",
      "Ġğ\" Ĝ",
      "ĠĘ !",
      "ĠĘ ğ",
      "Ġ( \"",
      "Ġ\"Ğ %",
      "ĠĞĞ Ĝ",
      "ĠĞ\" Ĝ",
      "ĀĀğ Āę",
      "ĀĀğ Ā(",
      "Ġ!ĝ ě",
      "Ġ!ĝ Ĝ",
      "Ġĝğ $",
      "Ġĝğ Ĝ",
      "Ġ#ğ \"",
      "Ġ#ğ #",
      "Ġĝ! %",
      "ĀĀ! Ā'",
      "ĀĀĞ ĀĚ",
      "ĀĀĞ ĀĘ",
      "ĀĀ\" Ā%",
      "Ġğĝ ĝ",
      "ĀĀĝ Āě",
      "ĀĀĝ ĀĚ",
      "ĀĀ# Ā#",
      "ĀĀ# Ā&",
      "ĀĀ# Ā'",
      "Ġ#\" ě",
      "Ġ\"# \"",
      "ĀĀĜ Ā&",
      "ĀĀĜ ĀĚ",
      "Ġ\"ĝ #",
      "ĠĞĝ #",
      "ĠĞĝ ě",
      "ĠĞĝ ĝ",
      "Ġ$ğ \"",
      "Ġ$ğ ě",
      "ĀĀ$ Ā%",
      "ĀĀĚ Ā$",
      "ĀĀĚ ĀĜ",
      "ĀĀĚ Ā%",
      "ĠĠĠĠĠĠĠĠĠĠĠĠ ĠĠĠĠĠ",
      "ĀĀě Āĝ",
      "ĀĀě Ā$",
      "ĀĀě Ā'",
      "ĀĀ% ĀĜ",
      "ĀĀ% Āě",
      "ĠĜğ Ğ",
      "ĀĀ& Ā#",
      "ĀĀ& Ā&",
      "ĠĜ! #",
      "ĠĜ! Ğ",
      "Ġĝ# #",
      "ĀĀ( Ā$",
      "ĀĀę Āě",
      "ĀĀ' Ā\"",
      "Ġ$ĝ Ĝ",
      "ĀĀė Ā&",
      "ĠĜĝ \"",
      "ĠĜĝ #",
      "ĀĀ) Ā%",
      "Ġ!Ĝ Ĝ",
      "ĀĀ+ Ā\"",
      "ĠĠĠĠĠĠĠĠĠĠĠĠĠĠĠĠ ĠĠĠĠĠĠĠĠĠĠĠĠĠĠĠĠ",
      "Ġě! ě",
      "ĠĠĠĠĠĠĠĠĠĠĠĠĠĠĠĠĠĠĠĠ ĠĠĠĠĠ",
      "! )",
      "! ė",
      "! Ę",
      "# '",
      "# )",
      "# +",
      "# ē",
      "# ė",
      "$ ,",
      "$ Ę",
      "% Ė",
      "& '",
      "& +",
      "& ė",
      "& Ę",
      ") Ĝ",
      ", -",
      "- *",
      "- Ğ",
      "- Āğ",
      ". &",
      "Ā -",
      "Ā .",
      "Ē !",
      "Ē &",
      "Ē ę",
      "ē ę",
      "ē Ě",
      "ē Ğ",
      "Ĕ ĕ",
      "Ĕ ė",
      "Ė Ė",
      "Ė ĀĀ",
      "ė )",
      "ė *",
      "Ę +",
      "Ę Ę",
      "Ě )",
      "Ě ĕ",
      "Ě ę",
      "ě )",
      "ě ē",
      "ě Ĕ",
      "ě ĕ",
      "ě ĀĀ",
      "ĝ '",
      "Ğ ĀĀ",
      "ğ (",
      "ğ ē",
      "Ġ Ā)",
      "Ġ Ā(",
      "Ġ Āė",
      "Ġ ĀĀ!Ā\"",
      "Ġ! (",
      "Ġ! %#",
      "Ġ! %ğ",
      "Ġ! $$",
      "Ġ! ě\"",
      "Ġ! ěĞ",
      "Ġğ $ĝ",
      "Ġğ ě!",
      "Ġğ %!",
      "Ġğ %#",
      "Ġğ %ğ",
      "Ġğ ĜĜ",
      "Ġğ Ěĝ",
      "Ġğ ę!",
      "Ġ\" Ĝĝ",
      "Ġ\" $\"",
      "ĠĞ )",
      "ĠĞ Ę",
      "ĠĞ $ğ",
      "ĠĞ ěğ",
      "ĠĞ Ěğ",
      "Ġĝ Ĝ\"",
      "Ġĝ ě!",
      "Ġĝ %!",
      "Ġ# '",
      "Ġ# Ę",
      "Ġ# ĀĀ",
      "Ġ# Ĝĝ",
      "Ġ# %Ğ",
      "Ġ# Ěğ",
      "Ġ# &ğ",
      "Ġ$ Ĝ\"",
      "Ġ$ ĜĞ",
      "Ġ$ ěğ",
      "Ġ$ Ĝ#",
      "Ġ$ $ĝ",
      "Ġ$ #\"",
      "ĠĜ %",
      "ĠĜ Ĝ!",
      "ĠĜ $ğ",
      "ĠĜ ĜĞ",
      "ĠĜ Ĝĝ",
      "ĠĜ ěğ",
      "ĠĜ ĝğ",
      "ĠĜ \"ĝ",
      "Ġě Ĝ#",
      "Ġě !Ğ",
      "Ġě ğĝ",
      "Ġě \"#",
      "Ġě ğ\"",
      "Ġ!ğ Ě",
      "Ġ% $Ğ",
      "Ġ% ĜĞ",
      "Ġ% ě\"",
      "Ġ% #!",
      "Ġ% !ĝ",
      "Ġ% Ğě",
      "Ġ% \"Ĝ",
      "Ġğ! Ě",
      "Ġ& %",
      "Ġ& Ĝ",
      "Ġ& Ğ",
      "Ġ& !!",
      "Ġ& ğě",
      "ĠĚ &",
      "ĠĚ ğğ",
      "ĠĚ \"#",
      "ĠĚ !\"",
      "ĠĚ ğ\"",
      "ĠĚ Ğě",
      "Ġ' #",
      "Ġ' #\"",
      "Ġ!Ğ %",
      "Ġ( ĝ",
      "Ġ( !ĝ",
      "Ġ\"\" $",
      "Ġ\"\" ě",
      "Ġ\"\" Ĝ",
      "Ġ\"Ğ $",
      "Ġ\"Ğ ě",
      "ĠĞĞ ě",
      "ĀĀğ Ā&",
      "ĀĀğ Ā)",
      "Ġ!# $",
      "Ġ#ğ Ě",
      "Ġĝ! &",
      "ĀĀĞ Ā'",
      "ĀĀ\" Ā)",
      "ĀĀ\" Āę",
      "Ġğ# $",
      "Ġğĝ $",
      "ĀĀ# Ā%",
      "ĀĀ# Āę",
      "ĀĀ# Āė",
      "Ġ#\" #",
      "ĀĀĜ Ā)",
      "ĠĝĞ %",
      "ĠĝĞ Ĝ",
      "ĠĝĞ Ğ",
      "Ġ#Ğ #",
      "Ġ#Ğ Ĝ",
      "Ġ\"ĝ $",
      "Ġ$ğ Ĝ",
      "ĠĞ# $",
      "ĀĀĚ Āĝ",
      "ĀĀĚ Ā(",
      "Ġĝĝ #",
      "ĀĀě Ā!",
      "ĀĀě ĀĜ",
      "ĀĀě Ā%",
      "ĀĀ% Ā!",
      "ĀĀ% Ā\"",
      "ĀĀ% Āĝ",
      "Ġ$\" \"",
      "Ġ$\" #",
      "ĀĀ& Ā!",
      "Ġ#ĝ \"",
      "Ġ#ĝ ğ",
      "\"\" ĀĀ",
      "Ġ$! \"",
      "ĀĀĘ Ā!",
      "ĀĀĘ ĀĞ",
      "ĀĀ( ĀĜ",
      "ĀĀ( Ā%",
      "ĀĀ( Ā'",
      "ĀĀ( ĀĚ",
      "ĀĀ' ĀĞ",
      "ĀĀ' Āĝ",
      "ĠĜĞ #",
      "ĠĜĞ $",
      "ĠĜĞ %",
      "ĠĜĞ ĝ",
      "ĠĜĞ ğ",
      "ĀĀė ĀĞ",
      "ĀĀė Ā%",
      "&! ĀĀ",
      "ĠěĞ %",
      "ĀĀ) Ā!",
      "ĀĀ) Āğ",
      "ĀĀĖ Ā!",
      "ĀĀĖ ĀĞ",
      "ĀĀĖ Āĝ",
      "ĀĀĖ Ā(",
      "ĀĀ+ Ā!",
      "ĀĀ+ Ā$",
      "&ĀĀ *",
      "(ĀĀ Ē",
      "ĠğĜ ě",
      "Ġě! $",
      "ĀĀ#Ā Ė",
      "ĀĀ, Ā!",
      "ĀĀ, Ā\"",
      "ĀĀ- Ā",
      "\" Ė",
      "# ĕ",
      "# ę",
      "$ )",
      "$ ė",
      "% )",
      "& Ĕ",
      "& ę",
      "& ĀĀ'",
      "' *",
      "( '",
      "( -",
      "( .",
      "( ĕ",
      "( ę",
      ") ĀĀ!Ā",
      "* %",
      "* -",
      "* Ě",
      "+ *",
      ", \"",
      "- !",
      "- \"",
      "- '",
      "- ĝ",
      "- ĀĀ",
      "/ !",
      "/ )",
      "/ ğ",
      "Ā /",
      "ď Ā!",
      "Đ Ā$",
      "đ '",
      "Ē ğ",
      "ē $",
      "ē ĕ",
      "ē Ę",
      "ē ĝ",
      "Ĕ \"",
      "Ĕ Ē",
      "Ĕ Ę",
      "Ĕ Ě",
      "Ĕ ĀĀ",
      "ĕ #",
      "ĕ Ę",
      "Ė %",
      "Ė ĕ",
      "ę &",
      "Ě ĀĀ",
      "ě đ",
      "ě Ė",
      "ě ė",
      "ě Ę",
      "ě Ě",
      "Ĝ Ė",
      "ĝ Đ",
      "ĝ ĕ",
      "Ğ Ē",
      "Ğ ē",
      "ğ Ē",
      "ğ Ė",
      "ğ !!",
      "Ġ 1",
      "Ġ ĀĘ",
      "Ġ ĀĀ+",
      "Ġ! ĀĀ",
      "Ġ! ě!",
      "Ġ! &!",
      "Ġ! Ěğ",
      "Ġ! Ě!",
      "Ġ! Ě\"",
      "Ġ! ěĝ",
      "Ġ! &#",
      "Ġ! ěĜ",
      "Ġğ '",
      "Ġğ (",
      "Ġğ -",
      "Ġğ Ę",
      "Ġğ Ĝ!",
      "Ġğ ěğ",
      "Ġğ $$",
      "Ġğ Ĝ$",
      "Ġğ ěĝ",
      "Ġğ %ĝ",
      "Ġ\" '",
      "Ġ\" ěĞ",
      "Ġ\" %\"",
      "Ġ\" Ě\"",
      "Ġ\" ĜĜ",
      "Ġ\" Ĝ$",
      "Ġ\" &\"",
      "Ġ\" &&",
      "ĠĞ $\"",
      "ĠĞ $ĝ",
      "ĠĞ %#",
      "ĠĞ Ĝ$",
      "ĠĞ %ĝ",
      "ĠĞ %Ĝ",
      "ĠĞ &#",
      "ĀĀ Ĉ",
      "Ġĝ ė",
      "Ġĝ ę",
      "Ġĝ Ě",
      "Ġĝ $\"",
      "Ġĝ &!",
      "Ġĝ Ě\"",
      "Ġĝ ĜĜ",
      "Ġĝ ěĝ",
      "Ġ# Ĝ!",
      "Ġ# $$",
      "Ġ# %\"",
      "Ġ# %ĝ",
      "Ġ$ $ğ",
      "Ġ$ $\"",
      "Ġ$ %!",
      "Ġ$ ěĞ",
      "Ġ$ Ě!",
      "Ġ$ ěĝ",
      "ĠĜ $Ğ",
      "ĠĜ %#",
      "ĠĜ \"Ğ",
      "ĠĜ \"#",
      "ĠĜ Ęĝ",
      "ĠĜ $Ĝ",
      "Ġě %",
      "Ġě ě",
      "Ġě $ğ",
      "Ġě ĜĞ",
      "Ġě Ğ!",
      "Ġě &!",
      "Ġě \"ĝ",
      "Ġě !\"",
      "Ġě ęğ",
      "Ġě ĝ!",
      "Ġ!! Ę",
      "Ġ!! ę",
      "Ġ% ğğ",
      "Ġ% %Ğ",
      "Ġ% \"ĝ",
      "Ġ% ĝĞ",
      "Ġ% Ğğ",
      "Ġ% ĝĜ",
      "Ġ& Ğ!",
      "Ġ& #Ğ",
      "Ġ& ğ!",
      "Ġ& !Ğ",
      "Ġ& \"ĝ",
      "Ġ& Ğĝ",
      "ĠĚ $ğ",
      "ĠĚ !!",
      "ĠĚ Ğ!",
      "ĠĚ ĝğ",
      "ĠĚ $ĝ",
      "ĠĚ %!",
      "ĠĚ \"Ğ",
      "ĠĚ Ğ\"",
      "ĠĚ %&",
      "ĠĚ Ğ#",
      "Ġ' $",
      "Ġ' Ğ",
      "Ġ' !!",
      "Ġ' \"!",
      "Ġ' #Ğ",
      "Ġ\"ğ ę",
      "ĠğĞ %",
      "ĠĞ! %",
      "ĠĞ! ě",
      "ĠĞğ Ě",
      "Ġ!\" %",
      "ĠĘ #",
      "ĠĘ '",
      "ĠĘ Ĝ",
      "Ġ( !",
      "Ġ( #!",
      "ĠĞ\" %",
      "ĠĞ\" Ě",
      "ĠĞ\" ě",
      "Ġ#! Ě",
      "ĀĀğ Āė",
      "Ġ!ĝ &",
      "Ġė \"\"",
      "Ġė !ğ",
      "Ġ#ğ ę",
      "ĀĀĞ Āė",
      "ĀĀ\" ĀĘ",
      "ĀĀ\" Āė",
      "Ġğĝ %",
      "ĀĀĝ Ā'",
      "Ġ* !ĝ",
      "ĀĀĜ ĀĘ",
      "ĠĝĞ ĝ",
      "Ġĝ\" $",
      "Ġĝ\" %",
      "ĠĞĝ Ĝ",
      "ĠĞ# Ĝ",
      "ĀĀ$ Ā$",
      "ĀĀ$ Ā+",
      "ĀĀĚ ĀĚ",
      "ĀĀĚ Ā)",
      "Ġĝĝ Ĝ",
      "ĠĜğ $",
      "ĠĜğ ĝ",
      "ĠĜ! %",
      "Ġ$! ě",
      "ĀĀĘ Āĝ",
      "ĀĀĘ Ā$",
      "Ĝ# ĀĀ",
      "ĀĀ( Ā!",
      "ĀĀ( ĀĞ",
      "ĀĀ( Āĝ",
      "ĀĀ( Ā&",
      "ĀĀ( Āė",
      "ĀĀę ĀĞ",
      "ĀĀę Ā&",
      "ĀĀ' Ā&",
      "ĀĀ' Āě",
      "Ġ## Ĝ",
      "Ġ$ĝ ĝ",
      "ĀĀė Ā\"",
      "ĀĀė Āğ",
      "ĀĀė ĀĜ",
      "ĀĀė Āě",
      "ĀĀė Ā'",
      "ĀĀė Ā)",
      "ĠĜĝ ě",
      "ĠěĞ $",
      "ĠěĞ Ğ",
      "!ğ %",
      "ĀĀ) Āĝ",
      "ĀĀ) ĀĜ",
      "#! ĀĀ",
      "Ġ!Ĝ ě",
      "ĀĀ+ Ā%",
      "ĀĀ+ ĀĚ",
      "'ĀĀ *",
      "'ĀĀ ĕ",
      "%ĀĀ *",
      "%ĀĀ -",
      "ĠĀĀ *",
      "ĠĞ$ %",
      "ĠĜ\" &",
      "Ġ%! Ĝ",
      "ĀĀĞĀ ĕ",
      "ĀĀĕ Āğ",
      "ĀĀĕ ĀĞ",
      "ĀĀĕ Ā%",
      "ĀĀ, Ā+",
      "ĀĀ* Āğ",
      "ĀĀ/ Ā",
      "ĀĀ/ Ā!",
      "ĀĀ/ Ā#",
      "! ē",
      "! Ĕ",
      "! Ė",
      "! Ĝ!",
      "\" )",
      "\" #\"",
      "\" Ĝ$",
      "\" ĀĀĝĀ#",
      "# Ę",
      "# ĚĞ",
      "$ đ",
      "$ ē",
      "$ ĀĀĞĀğ",
      "% (",
      "% ė",
      "% ĀĀğĀ",
      "% ĀĀĜĀ!",
      "% ĀĀ\"Ā\"",
      "& Ě",
      "& ĀĀ$",
      "& ĀĀė",
      "& Ę!",
      "& ĀĀĝĀ!",
      "' ė",
      "' ĀĀ\"Ā",
      "( Ė",
      "( Ě\"",
      "( ĀĀğĀ",
      ") ė",
      "* ĀĀ'",
      "+ \"",
      "+ Ė",
      "+ ę",
      "+ ě",
      ", '",
      ", (",
      ", )",
      ", *",
      ", Ė",
      ", Ğ",
      ", ĀĜ",
      ". ğ",
      "/ \"",
      "/ ,",
      "/ ě",
      ": Ā!",
      "Ď ĀĞ",
      "Ď Ā$",
      "Đ #",
      "đ đ",
      "đ ĕ",
      "đ ę",
      "đ ě",
      "đ Ĝ",
      "đ ğ",
      "đ '+",
      "ē !",
      "ē Ěĝ",
      "Ĕ %",
      "Ĕ &",
      "Ĕ .",
      "Ĕ Ğ",
      "Ė Ę",
      "ė '",
      "ė Ė",
      "Ę *",
      "Ę ,",
      "Ę ė",
      "ę '",
      "ę (",
      "ę .",
      "ę Ę",
      "Ě (",
      "Ě đ",
      "Ě Ē",
      "Ě Ĕ",
      "Ě ĀĀĒ",
      "Ĝ +",
      "Ĝ ,",
      "Ĝ /",
      "Ĝ đ",
      "ĝ Ē",
      "ĝ ĀĀ",
      "ĝ \"\"",
      "ĝ ##",
      "ĝ %&",
      "Ğ *",
      "Ğ +",
      "Ğ .",
      "Ğ Ĕ",
      "Ğ ĕ",
      "Ğ Ė",
      "Ğ \"#",
      "ğ )",
      "ğ Đ",
      "ğ đ",
      "Ġ 3",
      "Ġ 4",
      "Ġ 5",
      "Ġ ĀĀğĀ",
      "Ġ ĀĀĞĀ",
      "Ġ ĀĀ!Āĝ",
      "Ġ! )",
      "Ġ! Ĕ",
      "Ġ! Ę",
      "Ġ! ę",
      "Ġ! Ĝ#",
      "Ġ! &\"",
      "Ġ! %$",
      "Ġ! 'ğ",
      "Ġ! ęĞ",
      "Ġ! Ęğ",
      "Ġ! ęě",
      "Ġ! 'Ğ",
      "Ġ! %ě",
      "Ġ! ě%",
      "Ġ! Ęě",
      "Ġ! %Ě",
      "Ġ! *!",
      "Ġğ Ė",
      "Ġğ %\"",
      "Ġğ &\"",
      "Ġğ ěě",
      "Ġğ %$",
      "Ġğ Ě#",
      "Ġğ Ęğ",
      "Ġğ &$",
      "Ġğ ęĜ",
      "Ġ\" Ĝ#",
      "Ġ\" $#",
      "Ġ\" %#",
      "Ġ\" &!",
      "Ġ\" ě\"",
      "Ġ\" Ěğ",
      "Ġ\" ěĝ",
      "Ġ\" ěě",
      "Ġ\" %Ĝ",
      "Ġ\" '!",
      "Ġ\" ěĜ",
      "Ġ\" Ĝě",
      "ĠĞ ĜĞ",
      "ĠĞ $$",
      "ĠĞ ěĞ",
      "ĠĞ ěě",
      "ĠĞ %$",
      "ĠĞ ę!",
      "ĠĞ Ę\"",
      "ĠĞ ęĝ",
      "ĀĀ Ą",
      "ĀĀ Đ",
      "Ġĝ Ė",
      "Ġĝ $ĝ",
      "Ġĝ $#",
      "Ġĝ $$",
      "Ġĝ %\"",
      "Ġĝ Ěğ",
      "Ġĝ ě#",
      "Ġĝ %ĝ",
      "Ġĝ ęğ",
      "Ġĝ ě%",
      "Ġ# ę",
      "Ġ# Ĝ\"",
      "Ġ# Ĝ#",
      "Ġ# ě\"",
      "Ġ# ěĞ",
      "Ġ# Ě!",
      "Ġ# ĜĜ",
      "Ġ# &\"",
      "Ġ# ě#",
      "Ġ# &Ğ",
      "Ġ# ĚĜ",
      "Ġ# &Ĝ",
      "Ġ# )!",
      "Ġ# '&",
      "Ġ$ ę",
      "Ġ$ Ě",
      "Ġ$ ĀĀ",
      "Ġ$ ě!",
      "Ġ$ $$",
      "Ġ$ &\"",
      "Ġ$ ěě",
      "Ġ$ &ğ",
      "Ġ$ $Ĝ",
      "Ġ$ Ĝě",
      "Ġ$ $ě",
      "Ġ$ (ĝ",
      "ĠĜ ĕ",
      "ĠĜ ĀĀ",
      "ĠĜ $\"",
      "ĠĜ Ĝ#",
      "ĠĜ %!",
      "ĠĜ %Ğ",
      "ĠĜ Ĝ$",
      "ĠĜ ##",
      "ĠĜ ĚĞ",
      "Ġě $!",
      "Ġě ĝğ",
      "Ġě $$",
      "Ġě Ě\"",
      "Ġě ğ#",
      "Ġě ##",
      "Ġě ě$",
      "Ġě ĝ#",
      "Ġě ğĜ",
      "Ġě &$",
      "Ġě Ę\"",
      "Ġ!ğ ę",
      "Ġğğ '",
      "Ġ% &",
      "Ġ% Ĝ",
      "Ġ% Ĝ\"",
      "Ġ% #ğ",
      "Ġ% $ĝ",
      "Ġ% %#",
      "Ġ% ěĞ",
      "Ġ% ğ!",
      "Ġ% Ěğ",
      "Ġ% 'ğ",
      "Ġ% ĝ$",
      "Ġ% #ĝ",
      "Ġ% %ě",
      "Ġğ! '",
      "Ġğ! Ę",
      "Ġ& &",
      "Ġ& *",
      "Ġ& ę",
      "Ġ& $!",
      "Ġ& ĜĞ",
      "Ġ& #ğ",
      "Ġ& \"!",
      "Ġ& Ě!",
      "Ġ& ğĞ",
      "Ġ& ĝĞ",
      "Ġ& ğ\"",
      "Ġ& \"ě",
      "Ġ& &Ĝ",
      "Ġ& !ě",
      "ĠĚ ę",
      "ĠĚ Ě",
      "ĠĚ $\"",
      "ĠĚ \"!",
      "ĠĚ &!",
      "ĠĚ ğ#",
      "ĠĚ ğě",
      "ĠĚ ĝĜ",
      "Ġ' '",
      "Ġ' (",
      "Ġ' ĀĀ",
      "Ġ' \"\"",
      "Ġ' ěğ",
      "Ġ' ğğ",
      "Ġ' !ğ",
      "Ġ' \"Ğ",
      "Ġ' 'ğ",
      "Ġ' Ğ\"",
      "Ġę \"",
      "Ġę $",
      "Ġę Ĝ",
      "Ġę $Ğ",
      "Ġę Ĝ\"",
      "Ġę Ğ!",
      "Ġę \"!",
      "Ġę \"ğ",
      "Ġę ğ#",
      "ĠğĞ ę",
      "ĠĞ! '",
      "ĠĞğ %",
      "ĠĞğ ě",
      "Ġ!Ğ &",
      "Ġğ\" ė",
      "Ġğ\" Ě",
      "Ġğ\" ě",
      "ĠĘ $",
      "ĠĘ %",
      "ĠĘ ĝ",
      "Ġ( #",
      "Ġ( (",
      "Ġ( Ĝğ",
      "Ġ( \"\"",
      "Ġ\"\" Ě",
      "Ġ\"Ğ ę",
      "Ġ\"Ğ Ě",
      "ĠĞĞ $",
      "ĠĞĞ ę",
      "ĠĞ\" &",
      "ĠĞ\" '",
      "Ġĝğ ę",
      "Ġ) ğ",
      "Ġ) ĀĀ",
      "Ġė Ĝ",
      "Ġė ĝ",
      "Ġ!# ě",
      "Ġ#ğ ě",
      "ĀĀ! Ā(",
      "ĀĀ! Āė",
      "ĀĀĞ Ā)",
      "ĀĀĞ Ā*",
      "ĀĀ\" Ā(",
      "Ġğ# &",
      "Ġğ# Ě",
      "ĀĀĝ Āę",
      "ĀĀĝ Ā(",
      "ĀĀĝ Ā*",
      "Ġ* $ğ",
      "Ā% \"",
      "ĀĀ# Āě",
      "ĀĀ# ĀĚ",
      "ĀĀ# Ā(",
      "Ġ#\" $",
      "Ġ#\" Ě",
      "Ġ\"# %",
      "ĀĀĜ Āę",
      "ĀĀĜ Ā(",
      "ĠĝĞ $",
      "ĠĝĞ Ě",
      "Ġĝ\" Ĝ",
      "Ġ\"ĝ ě",
      "ĠĞĝ $",
      "Ġ$ğ #",
      "Ġ$ğ Ě",
      "ĠĞ# Ě",
      "ĀĀ$ Ā'",
      "ĀĀ$ ĀĘ",
      "ĀĀĚ Āę",
      "ĀĀĚ ĀĘ",
      "Ġĝĝ $",
      "Ġĝĝ %",
      "Ġĝĝ ě",
      "Ġĝĝ ĝ",
      "ĀĀě Ā&",
      "ĀĀě Āě",
      "!! ĀĀ",
      "Ĝ\" $",
      "ĀĀ% Ā%",
      "ĀĀ% Ā'",
      "ĀĀ% ĀĚ",
      "ĀĀ% Ā)",
      "ĀĀ% ĀĘ",
      "Ġ$\" $",
      "Ġ$\" ě",
      "ĠĜğ %",
      "ĠĜğ Ě",
      "ĠĜğ ě",
      "Ĝĝ ĀĀ",
      "ĀĀ& Ā$",
      "ĀĀ& Āě",
      "ĀĀ& Āę",
      "Ġ#ĝ #",
      "Ġ#ĝ Ĝ",
      "ĠĜ! $",
      "ĠĜ! &",
      "ĠĜ! ě",
      "ĠĜ! ĝ",
      "Ġĝ# Ĝ",
      "Ġ$! Ĝ",
      "ĀĀĘ Ā&",
      "ĀĀĘ Ā(",
      "ğğ %",
      "ĝğ ĀĀ",
      "ĀĀ( Ā\"",
      "ĀĀ( Ā)",
      "ĀĀę Ā#",
      "ĀĀę Āĝ",
      "ĀĀę Ā$",
      "ĀĀę ĀĜ",
      "ĀĀę Ā%",
      "ĀĀę Ā'",
      "ĀĀę Ā)",
      "ĀĀ' Ā!",
      "ĀĀ' Ā$",
      "ĀĀ' Āę",
      "\"ğ $",
      "Ġ## %",
      "Ġ## ě",
      "ě! #",
      "ĠĜĞ Ĝ",
      "ĠĜĞ Ğ",
      "Ġ$ĝ #",
      "ĀĀė Ā$",
      "%# \"",
      "%# ĀĀ",
      "ĀĀ) ĀĞ",
      "ĀĀ) Ā&",
      "ĀĀ) ĀĚ",
      "ĀĀ) Āė",
      "#Ğ ĀĀ",
      "ěĞ #",
      "ĀĀĖ Ā",
      "ĀĀĖ Ā&",
      "\"ĝ !",
      "ĀĀ+ Āğ",
      "ĀĀ+ ĀĜ",
      "ĞĞ \"",
      "ğ# '",
      "Ġ!$ Ĝ",
      "&ĀĀ .",
      "&ĀĀ Ĕ",
      "'ĀĀ -",
      "ĠĠĠĠĠĠĠĠĠĠĠĠĠĠĠĠ ĠĠĠĠĠĠ",
      "ĠĠĠĠĠĠĠĠĠĠĠĠĠĠĠĠ ĠĠĠĠĠĠĠĠĠĠĠ",
      "ĠĠĠĠĠĠĠĠĠĠĠĠĠĠĠĠ ĠĠĠĠĠĠĠĠĠĠ",
      "ĠĠĠĠĠĠĠĠĠĠĠĠĠĠĠĠ ĠĠĠĠĠĠĠĠĠĠĠĠĠĠĠĠĠĠĠĠ",
      "$ĀĀ *",
      "$ĀĀ ď",
      "%ĀĀ Ĕ",
      "(ĀĀ .",
      "(ĀĀ Ď",
      "Ġ$# Ě",
      "Ġ$# ě",
      "Ğğ )",
      "ĠĀĀ -",
      "ĠĀĀ Ĕ",
      "Ġ\"$ Ĝ",
      "ĠĞ$ Ĝ",
      "ĠĜ\" $",
      "ĠğĜ &",
      "Ġ%! ę",
      "ĠĀ ĕ",
      "*ĀĀ Ē",
      "*ĀĀ ĕ",
      "Ġğ$ &",
      "Ġğ$ Ĝ",
      "ĀĀ\"Ā /",
      ")ĀĀ /",
      ")ĀĀ ē",
      "Ġğě %",
      "Ġě! %",
      "ĀĀĕ Ā!",
      "ĀĀĕ Āę",
      "Ġğ% ě",
      "Ġ!& $",
      "Ġěğ '",
      "(! ĀĀ",
      "ĀĀ- Ā#",
      "Ġ#$ %",
      "Ġ#$ ę",
      "ĀĀ. Ā",
      "ĀĀ. Āğ",
      "ĀĀ. Ā#",
      "ĀĀ. Āĝ",
      "ĀĀĒ Ā\"",
      "ĀĀĒ Ā#",
      "ĀĀĒ Ā$",
      "ĀĀĒ Ā(",
      ")ğ ĀĀ",
      "ĀĀ* Ā\"",
      "ĀĀ* ĀĞ",
      "ĀĀē Āĝ",
      "ĀĀē Ā$",
      "ĠĜĜ '",
      "ĀĀĔ Ā",
      "ĀĀĔ Ā&",
      "ĀĀ%Ā ĕ",
      "ĀĀđ Ā\"",
      "Ġ\"& Ě",
      "ĠĞĚ $",
      "! ,",
      "! Ē",
      "! ĕ",
      "! Ĝğ",
      "! $\"",
      "! \"\"",
      "! ě!",
      "! $#",
      "! Ęĝ",
      "! '\"",
      "! ęě",
      "! ĀĀđ",
      "! ''",
      "! ĀĀ!Āĝ",
      "! Ęę",
      "! \"\"ĀĀ",
      "\" -",
      "\" .",
      "\" Ď",
      "\" ė",
      "\" Ĝ!",
      "\" Ĝĝ",
      "\" ěĞ",
      "\" ĚĜ",
      "\" &&",
      "\" &%",
      "\" ĀĀ!ĀĞ",
      "# *",
      "# -",
      "# đ",
      "# Ē",
      "# Ė",
      "# Ĝ!",
      "# ĀĀ(",
      "# ě!",
      "# ě\"",
      "# #\"",
      "# ĀĀĔ",
      "# *#",
      "# ėė",
      "# ęĖ",
      "# *$",
      "# /#",
      "$ /",
      "$ ď",
      "$ ĕ",
      "$ Ĝ!",
      "$ ěĞ",
      "$ (Ĝ",
      "$ ĀĀĞĀ\"",
      "$ ĀĀğĀ$",
      "$ ĀĀ$Ā\"",
      "% -",
      "% .",
      "% ē",
      "% ĜĞ",
      "% $\"",
      "% (ğ",
      "% %ě",
      "% ĀĀĞĀ\"",
      "% ĀĀ!Ā#",
      "% ĀĀĞĀ$",
      "% ĀĀ!Ā&",
      "% ĀĀ$Āě",
      "& ,",
      "& $ğ",
      "& ğĝ",
      "& &ğ",
      "& $Ĝ",
      "& ĀĀěĀ",
      "& ĀĀğĀ\"",
      "& ęĚ",
      "& ĀĀ\"Ā!",
      "& ĀĀğĀğ",
      "& ĀĀğĀ!",
      "& ĀĀ&Ā",
      "& *(",
      "& ĀĀĝĀę",
      "' -",
      "' Đ",
      "' Ē",
      "' ĀĀĞ",
      "' ĀĀě",
      "' $\"",
      "' ##",
      "' ĀĀ%Ā",
      "' ĀĀ!Āğ",
      "' ĀĀĞĀ#",
      "' ĀĀ#Ā!",
      "' *\"",
      "' ĀĀ%Āğ",
      "' ėĘ",
      "' ĀĀ#ĀĜ",
      "' ĀĀ'Āğ",
      "( ė",
      "( \"ğ",
      "( $$",
      "( ĜĜ",
      "( ĀĀ\"Ā",
      "( ę!",
      "( Ğ#",
      "( ĀĀ!Ā",
      "( ĀĀĝĀğ",
      "( ėė",
      "( ĀĀĖĀ$",
      ") Ę",
      ") ę",
      ") ĀĀĞĀ",
      ") ĀĀĝĀ\"",
      ") ĀĀĜĀ#",
      "* /",
      "* ė",
      "* Ę",
      "* Ĝ",
      "* ĀĀ!Ā!",
      "* ĀĀğĀĞ",
      "* ĀĀĝĀ!",
      "* ĀĀğĀ#",
      "* ĀĀ!ĀĜ",
      "* ĀĀĝĀĜ",
      "+ &",
      "+ (",
      "+ +",
      "+ -",
      "+ ď",
      "+ ĝ",
      "+ ĀĀ(",
      "+ ĀĀ\"Ā",
      "+ ĀĀěĀ",
      "+ ĀĀĞĀğ",
      "+ ĀĀğĀě",
      "+ ĀĀĚĀĞ",
      ", !",
      ", %",
      ", &",
      ", .",
      ", Ā",
      ", ę",
      ", ĝ",
      ", Ā\"",
      ", ĀĀ,",
      ", ĀĀ.",
      ", ĀĀ!Ā!",
      ", ĀĀ\"Ā!",
      ", ĀĀ!Āĝ",
      ", ĀĀĜĀ#",
      ", Ęĕ",
      ", ĀĀğĀ'",
      "- %",
      "- ě",
      "- ĀĀĞĀ",
      "- ĀĀ%Ā",
      "- ĀĀğĀĜ",
      "- ĀĀ\"Āĝ",
      "- ĀĀ$Ā!",
      "- ĀĀĜĀ\"",
      ". \"",
      ". Ğ",
      ". Ā$",
      ". Āě",
      ". ĀĀ\"Ā",
      ". ĀĀĜĀĜ",
      "/ $",
      "/ %",
      "/ (",
      "/ ď",
      "/ Ā#",
      "/ ĀĀ!Ā!",
      "; Ā",
      "@ Ā",
      "Ā ē",
      "Ā Ĕ",
      "Ď ĝ",
      "ď +",
      "ď Ā\"",
      "ď Ā&",
      "Đ \"",
      "Đ %",
      "Đ ě",
      "Đ ĝ",
      "Đ ğ",
      "Đ Ā#",
      "Đ Ā)",
      "đ Ę",
      "đ Ě",
      "đ ĝ",
      "đ Ā#",
      "đ ĀĜ",
      "Ē \"",
      "Ē Ě",
      "Ē Ğ",
      "Ē ĀĀ",
      "Ē ĀĀ/",
      "ē \"",
      "ē %",
      "ē Ā",
      "ē Đ",
      "ē ē",
      "ē ě",
      "ē Ĝ",
      "ē Āğ",
      "ē Ā&",
      "ē ĀĀ/Ā!",
      "Ĕ !",
      "Ĕ $",
      "Ĕ *",
      "Ĕ $$",
      "Ĕ !ĝ",
      "Ĕ Ęĝ",
      "ĕ +",
      "ĕ ,",
      "ĕ Ā\"",
      "ĕ $$",
      "ĕ ĀĀ%Ā",
      "ĕ Ę#",
      "ĕ ĀĀĚĀ#",
      "Ė '",
      "Ė .",
      "Ė Ĕ",
      "Ė $(",
      "Ė ĀĀ,Ā!",
      "ė (",
      "ė +",
      "ė Ĕ",
      "Ę /",
      "Ę Đ",
      "Ę Ğ\"",
      "Ę ĀĀ#Ā",
      "Ę ĀĀ$Ā&",
      "Ę ĀĀĞĀ)",
      "ę )",
      "ę *",
      "ę đ",
      "ę Ĕ",
      "ę Ĝ$",
      "ę !#",
      "ę Ě#",
      "Ě '",
      "Ě *",
      "Ě ē",
      "Ě Ė",
      "Ě %!",
      "Ě !ğ",
      "Ě %\"",
      "Ě '#",
      "Ě $&",
      "Ě '&",
      "Ě +'",
      "ě (",
      "ě Ē",
      "ě !!",
      "ě \"!",
      "ě ėĞ",
      "ě '&",
      "ě &(",
      "ě #!ĀĀ",
      "Ĝ -",
      "Ĝ ē",
      "Ĝ Ĝğ",
      "Ĝ $!",
      "Ĝ ĀĀğĀ",
      "Ĝ %'",
      "Ĝ ęĚ",
      "Ĝ *'",
      "Ĝ &(",
      "ĝ Ğ!",
      "ĝ ěğ",
      "ĝ \"!",
      "ĝ #\"",
      "ĝ ě#",
      "ĝ ĀĀ#Ā",
      "ĝ 'Ğ",
      "ĝ ($",
      "Ğ ď",
      "Ğ Đ",
      "Ğ đ",
      "Ğ Ğ!",
      "Ğ ğ#",
      "Ğ ĜĜ",
      "Ğ Ě#",
      "Ğ ĀĀē",
      "Ğ %'",
      "Ğ )\"",
      "Ğ ę$",
      "Ğ ĖĞ",
      "Ğ Ĝ#ĀĀ",
      "ğ .",
      "ğ ĀĀ",
      "ğ Ĝ#",
      "ğ ĝğ",
      "ğ $#",
      "ğ ě\"",
      "ğ #\"",
      "ğ &Ğ",
      "ğ Ěĝ",
      "ğ )\"",
      "Ġ ĀĀė",
      "Ġ ĀĀĖ",
      "Ġ Ā*",
      "Ġ ĀĀ!Āğ",
      "Ġ ĀĀĝĀ\"",
      "Ġ ĀĀĞĀ!",
      "Ġ ĀĀğĀ%",
      "Ġ ĀĀ!Ā#",
      "Ġ ĀĀĚĀğ",
      "Ġ ĀĀĞĀĝ",
      "Ġ ĀĀĞĀ&",
      "Ġ ĀĀ$Ā!",
      "Ġ ĀĀ&Āğ",
      "Ġ ĀĀ(Ā",
      "Ġ ĀĀĜĀĜ",
      "Ġ ĀĀĖĀ\"",
      "Ġ ĀĀĜĀğ",
      "Ġ ĀĀ+Ā",
      "Ġ ĀĀ(Ā$",
      "Ġ! ė",
      "Ġ! %ĝ",
      "Ġ! &Ğ",
      "Ġ! Ě#",
      "Ġ! Ěĝ",
      "Ġ! ě$",
      "Ġ! %Ĝ",
      "Ġ! Ęĝ",
      "Ġ! '!",
      "Ġ! ę!",
      "Ġ! ėĞ",
      "Ġ! (\"",
      "Ġ! Ěě",
      "Ġ! ėğ",
      "Ġ! (ĝ",
      "Ġ! Ėĝ",
      "Ġğ Ē",
      "Ġğ ė",
      "Ġğ &!",
      "Ġğ ěĞ",
      "Ġğ Ěğ",
      "Ġğ Ě\"",
      "Ġğ ě#",
      "Ġğ &ğ",
      "Ġğ ě$",
      "Ġğ Ęĝ",
      "Ġğ ĚĞ",
      "Ġğ '\"",
      "Ġğ '#",
      "Ġğ ęě",
      "Ġğ &ĝ",
      "Ġğ 'Ğ",
      "Ġğ ĘĞ",
      "Ġğ )\"",
      "Ġğ Ė#",
      "Ġğ ėĜ",
      "Ġğ )&",
      "Ġ\" (",
      "Ġ\" Ē",
      "Ġ\" ė",
      "Ġ\" Ę",
      "Ġ\" %!",
      "Ġ\" Ě!",
      "Ġ\" ě#",
      "Ġ\" %ĝ",
      "Ġ\" %$",
      "Ġ\" 'ğ",
      "Ġ\" ęğ",
      "Ġ\" ĚĞ",
      "Ġ\" ĀĀ\"Ā",
      "Ġ\" ęĞ",
      "Ġ\" %&",
      "Ġ\" ėĞ",
      "Ġ\" (\"",
      "Ġ\" 'Ğ",
      "Ġ\" ĘĞ",
      "Ġ\" %ě",
      "Ġ\" ($",
      "Ġ\" Ėĝ",
      "Ġ\" ėě",
      "ĠĞ '",
      "ĠĞ Ĕ",
      "ĠĞ Ė",
      "ĠĞ ė",
      "ĠĞ Ĝĝ",
      "ĠĞ %ğ",
      "ĠĞ %\"",
      "ĠĞ Ě!",
      "ĠĞ Ě\"",
      "ĠĞ ě#",
      "ĠĞ 'ğ",
      "ĠĞ &ğ",
      "ĠĞ ęğ",
      "ĠĞ ĚĜ",
      "ĠĞ ĚĞ",
      "ĠĞ ěĜ",
      "ĠĞ 'Ğ",
      "ĠĞ ęĜ",
      "ĠĞ (Ĝ",
      "ĠĞ (Ğ",
      "ĠĞ ėĚ",
      "ĠĞ ĕĞ",
      "ĠĞ ė#",
      "ĀĀ Ć",
      "Ġĝ '",
      "Ġĝ Ę",
      "Ġĝ $ğ",
      "Ġĝ $Ğ",
      "Ġĝ %#",
      "Ġĝ %ğ",
      "Ġĝ ěĞ",
      "Ġĝ 'ğ",
      "Ġĝ Ěĝ",
      "Ġĝ &ğ",
      "Ġĝ ě$",
      "Ġĝ %Ĝ",
      "Ġĝ ĚĞ",
      "Ġĝ ęĞ",
      "Ġĝ '\"",
      "Ġĝ ěĜ",
      "Ġĝ '#",
      "Ġĝ ĘĞ",
      "Ġĝ ę\"",
      "Ġĝ ĖĜ",
      "Ġĝ +#",
      "Ġ# )",
      "Ġ# $\"",
      "Ġ# $#",
      "Ġ# %!",
      "Ġ# %ğ",
      "Ġ# Ě\"",
      "Ġ# ěě",
      "Ġ# %$",
      "Ġ# %Ĝ",
      "Ġ# ę!",
      "Ġ# Ęğ",
      "Ġ# (ğ",
      "Ġ# )ğ",
      "Ġ# ę\"",
      "Ġ# ĀĀĞĀ#",
      "Ġ# )$",
      "Ġ# %Ě",
      "Ġ# (ě",
      "Ġ# ĚĘ",
      "Ġ# ĔĚ",
      "Ġ$ '",
      "Ġ$ (",
      "Ġ$ ē",
      "Ġ$ Ę",
      "Ġ$ $#",
      "Ġ$ %Ğ",
      "Ġ$ &!",
      "Ġ$ %\"",
      "Ġ$ Ĝ$",
      "Ġ$ %ĝ",
      "Ġ$ ##",
      "Ġ$ 'ğ",
      "Ġ$ ě$",
      "Ġ$ Ęĝ",
      "Ġ$ ĚĜ",
      "Ġ$ ĚĞ",
      "Ġ$ '!",
      "Ġ$ Ęğ",
      "Ġ$ (Ĝ",
      "Ġ$ (ě",
      "Ġ$ *$",
      "Ġ$ ėę",
      "Ġ$ 'Ě",
      "Ġ$ ĕĞ",
      "ĠĜ Ę",
      "ĠĜ Ĝğ",
      "ĠĜ %ğ",
      "ĠĜ #\"",
      "ĠĜ %\"",
      "ĠĜ #!",
      "ĠĜ Ěğ",
      "ĠĜ 'ğ",
      "ĠĜ ęğ",
      "ĠĜ #$",
      "ĠĜ Ěě",
      "ĠĜ )ğ",
      "ĠĜ &Ĝ",
      "ĠĜ #Ĝ",
      "ĠĜ ėğ",
      "ĠĜ 'ĝ",
      "ĠĜ Ĕě",
      "Ġě &",
      "Ġě Ė",
      "Ġě Ę",
      "Ġě ĀĀ",
      "Ġě $Ğ",
      "Ġě Ĝ\"",
      "Ġě Ĝĝ",
      "Ġě \"!",
      "Ġě ě!",
      "Ġě $#",
      "Ġě %!",
      "Ġě #Ğ",
      "Ġě ě\"",
      "Ġě ěĞ",
      "Ġě \"Ğ",
      "Ġě ğĞ",
      "Ġě !ĝ",
      "Ġě &\"",
      "Ġě ě#",
      "Ġě &Ğ",
      "Ġě 'ğ",
      "Ġě &ğ",
      "Ġě \"$",
      "Ġě ęĞ",
      "Ġě '\"",
      "Ġě \"Ĝ",
      "Ġě (!",
      "Ġě )ğ",
      "Ġě $%",
      "Ġě ėĜ",
      "Ġě %ę",
      "Ġě %%",
      "Ġ!! %",
      "Ġ!! '",
      "Ġ!! Ė",
      "Ġ!ğ (",
      "Ġğğ Ě",
      "Ġ% (",
      "Ġ% )",
      "Ġ% *",
      "Ġ% +",
      "Ġ% ę",
      "Ġ% ĀĀ",
      "Ġ% Ĝğ",
      "Ġ% Ĝĝ",
      "Ġ% Ĝ#",
      "Ġ% %ğ",
      "Ġ% $$",
      "Ġ% Ě\"",
      "Ġ% &\"",
      "Ġ% ě#",
      "Ġ% !\"",
      "Ġ% %ĝ",
      "Ġ% &Ğ",
      "Ġ% Ěĝ",
      "Ġ% Ğ\"",
      "Ġ% %Ĝ",
      "Ġ% Ęĝ",
      "Ġ% ĝ!",
      "Ġ% '!",
      "Ġ% ğĜ",
      "Ġ% \"%",
      "Ġ% $Ĝ",
      "Ġ% ĝĝ",
      "Ġ% Ğ#",
      "Ġ% Ę!",
      "Ġ% $&",
      "Ġ% ę\"",
      "Ġ% ğ%",
      "Ġ% (Ğ",
      "Ġ% Ě%",
      "Ġ% Ēĝ",
      "Ġ% 'Ĝ",
      "Ġğ! ę",
      "Ġ& #",
      "Ġ& '",
      "Ġ& (",
      "Ġ& .",
      "Ġ& ė",
      "Ġ& Ě",
      "Ġ& ĀĀ",
      "Ġ& Ĝğ",
      "Ġ& \"\"",
      "Ġ& $ĝ",
      "Ġ& ě!",
      "Ġ& !ğ",
      "Ġ& ěĞ",
      "Ġ& #\"",
      "Ġ& Ě\"",
      "Ġ& ěĝ",
      "Ġ& !\"",
      "Ġ& (ĀĀ",
      "Ġ& Ğ\"",
      "Ġ& Ğğ",
      "Ġ& &ğ",
      "Ġ& \"Ĝ",
      "Ġ& !Ĝ",
      "Ġ& Ĝě",
      "Ġ& Ğ$",
      "Ġ& &ĝ",
      "Ġ& #ě",
      "Ġ& ğĘ",
      "Ġ& ĝĚ",
      "Ġ& %%",
      "Ġ& )Ĝ",
      "ĠĚ \"",
      "ĠĚ Ę",
      "ĠĚ ě",
      "ĠĚ Ĝ!",
      "ĠĚ ĜĞ",
      "ĠĚ ğ!",
      "ĠĚ \"ĝ",
      "ĠĚ ĞĞ",
      "ĠĚ ğĞ",
      "ĠĚ Ĝ$",
      "ĠĚ 'ğ",
      "ĠĚ Ęĝ",
      "ĠĚ '!",
      "ĠĚ ğĜ",
      "ĠĚ ĝ\"",
      "ĠĚ '#",
      "ĠĚ ĞĜ",
      "ĠĚ #ĝ",
      "ĠĚ ğ$",
      "ĠĚ !$",
      "ĠĚ ĜĚ",
      "Ġ' ě",
      "Ġ' Ĝ",
      "Ġ' Ĝğ",
      "Ġ' ĜĞ",
      "Ġ' Ĝĝ",
      "Ġ' Ğ!",
      "Ġ' ĝğ",
      "Ġ' \"ğ",
      "Ġ' ě!",
      "Ġ' %ğ",
      "Ġ' #!",
      "Ġ' !Ğ",
      "Ġ' Ě\"",
      "Ġ' ĞĞ",
      "Ġ' ğĞ",
      "Ġ' ĝĞ",
      "Ġ' !ĝ",
      "Ġ' &\"",
      "Ġ' Ğĝ",
      "Ġ' Ğğ",
      "Ġ' ğ\"",
      "Ġ' ĝ#",
      "Ġ' ĚĜ",
      "Ġ' \"$",
      "Ġ' ĝ$",
      "Ġ' ğě",
      "Ġ' Ğě",
      "Ġ' ĞĜ",
      "Ġ' ğĚ",
      "Ġ' \"ě",
      "Ġ' !%",
      "Ġ' &ě",
      "Ġ' $Ě",
      "Ġ\"! ę",
      "Ġę %",
      "Ġę ĕ",
      "Ġę Ė",
      "Ġę ę",
      "Ġę ĀĀ",
      "Ġę $!",
      "Ġę $#",
      "Ġę ğ!",
      "Ġę #!",
      "Ġę ##",
      "Ġę !#",
      "Ġę Ğ\"",
      "Ġę ĚĞ",
      "Ġę ĝ$",
      "Ġę #$",
      "Ġę ėĞ",
      "Ġę ĞĜ",
      "Ġę ğ$",
      "Ġ\"ğ &",
      "Ġ\"ğ Ę",
      "Ġ\"ğ Ě",
      "ĠğĞ ě",
      "ĠĞ! &",
      "ĠĞ! Ě",
      "ĠĞğ Ĝ",
      "Ġ!\" &",
      "Ġ!\" ę",
      "Ġ!\" Ě",
      "Ġ!Ğ (",
      "Ġğ\" *",
      "Ġğ\" Ę",
      "Ġğ\" ę",
      "ĠĘ \"",
      "ĠĘ !ğ",
      "ĠĘ ğ!",
      "ĠĘ \"#",
      "ĠĘ ĝ#",
      "ĠĘ $Ĝ",
      "ĠĘ ğ$",
      "ĠĘ %Ę",
      "Ġ( %",
      "Ġ( &",
      "Ġ( Ğ",
      "Ġ( ğ",
      "Ġ( ěğ",
      "Ġ( !Ğ",
      "Ġ( \"ĝ",
      "Ġ( ęĞ",
      "Ġ( !Ĝ",
      "Ġ( ĞĜ",
      "Ġ( #ě",
      "Ġ( ė$",
      "Ġ\"\" (",
      "Ā! $#",
      "Ā! ğ%",
      "Ā\" ĝĞ",
      "Ġ\"Ğ '",
      "ĠĞĞ %",
      "ĠĞĞ &",
      "ĠĞĞ Ę",
      "ĠĞĞ Ě",
      "Ġ#! $",
      "Ġ#! %",
      "Ġ#! Ę",
      "ĀĞ !ğ",
      "ĀĞ ěě",
      "Ā# ĝ#",
      "Ā# ĝ&",
      "Ġ!ĝ Ě",
      "Ġĝğ %",
      "Ġĝğ &",
      "Ġĝğ Ě",
      "Ġ) !",
      "Ġ) \"",
      "Ġ) ĝ",
      "Ġ) \"\"",
      "Ġ) \"ğ",
      "Ġ) ě!",
      "Ġ) ĜĜ",
      "Ġ) Ğ\"",
      "Ġ) ğĜ",
      "Ġ) ĝ\"",
      "Ġ) ěĜ",
      "Ġ) ĝĜ",
      "Ġ) Ğę",
      "Ġė !",
      "Ġė #",
      "Ġė ě",
      "Ġė Ğ",
      "Ġė ğ",
      "Ġė ĀĀ",
      "Ġė ğ!",
      "Ġė Ğ$",
      "Ġė Ė!",
      "Ġ!# '",
      "Ġ!# ę",
      "Ġ#ğ &",
      "Ġĝ! '",
      "Ġĝ! Ě",
      "Ġĝ! ě",
      "ĀĀ! Ā)",
      "ĀĀ! ĀĘ",
      "ĀĀ! Ā*",
      "ĀĀ\" Ā*",
      "Ġğ# %",
      "Ġğ# '",
      "Ġğ# ĀĀ",
      "Ġğĝ ě",
      "Ġğĝ Ĝ",
      "Āĝ ğĝ",
      "Ā$ ĝě",
      "Ā$ ĕĕ",
      "ĀĜ $ğ",
      "ĀĜ \"Ğ",
      "ĀĀĝ ĀĘ",
      "Ġ* Ğ",
      "Ġ* $Ğ",
      "Ġ* ğğ",
      "Ġ* &\"",
      "Ġ* #Ĝ",
      "Ġ* .$",
      "Ā% $",
      "ĀĀ# Ā)",
      "ĀĀ# ĀĘ",
      "ĀĀ# Ā*",
      "Ġ#\" ę",
      "Ġ\"# $",
      "Ġ\"# Ě",
      "ĀĀĜ Ā*",
      "ĀĀĜ Ā+",
      "Ġ#Ğ Ě",
      "Ġĝ\" ę",
      "Ġĝ\" ě",
      "ĠĖ Ě",
      "ĠĖ ğ",
      "ĠĖ \"\"",
      "ĠĖ Ğ#",
      "Āě +",
      "Āě \"\"",
      "Ġ\"ĝ &",
      "ĠĞĝ %",
      "ĠĞĝ &",
      "Ġ$ğ $",
      "Ġ$ğ Ę",
      "ĠĞ# %",
      "ĠĞ# Ę",
      "ĀĀ$ Ā(",
      "ĀĀ$ ĀĖ",
      "ĀĀĚ Ā'",
      "ĀĀĚ Āė",
      "Ġĝĝ Ě",
      "$ğ !",
      "$ğ ğĀĀ",
      "Ġ+ !",
      "Ġ+ #",
      "Ġ+ ě\"",
      "$Ğ ğ",
      "ĀĀě ĀĚ",
      "ĀĀě Ā)",
      "ĀĀě Ā(",
      "!! &",
      "Ĝ\" ĝ",
      "ĀĀ% Āę",
      "ĀĚ Ğ",
      "Ġ$\" %",
      "Ġ$\" ę",
      "Ġ$\" Ĝ",
      "ĠĜğ &",
      "Ġĕ Ě)",
      "ĀĀ& Ā%",
      "ĀĀ& Ā'",
      "ĀĀ& Ā)",
      "ĀĀ& ĀĘ",
      "$\" #",
      "$\" Ĝ",
      "Ğ! #",
      "Ġ#ĝ %",
      "ĠĜ! Ě",
      "\"\" \"",
      "Ġĝ# $",
      "Ġĝ# &",
      "Ġ$! #",
      "Ġ$! (",
      "ĀĀĘ Āę",
      "ĀĀĘ Āė",
      "ĀĀĘ Ā*",
      "ĀĀĘ Ā+",
      "ĀĀĘ Ā%\"",
      "ěğ \"",
      "ěğ *",
      "\"! $",
      "\"! -",
      "ğğ *",
      "ğğ ğ",
      "ĠĔ !",
      "ĠĔ Ğ!",
      "ĠĔ #!",
      "Ĝ# (",
      "ĝğ !",
      "ĀĀ( Āğ",
      "ĀĀ( Ā,",
      "ĀĀę ĀĚ",
      "ĀĀę Āę",
      "ĀĀę Ā(",
      "ĀĀ' Ā%",
      "ĀĀ' Ā)",
      "Ġ$Ğ \"",
      "Ġ$Ğ $",
      "Ġ$Ğ %",
      "Ġ$Ğ )",
      "Ġ$Ğ ě",
      "Ġ$Ğ Ĝ",
      "\"ğ $ĀĀ",
      "\"ğ !ĀĀ",
      "$ĝ %",
      "Ġ## #",
      "Ġ## ė",
      "ĠĜĞ ě",
      "$# *",
      "Ġ$ĝ &",
      "Ġ$ĝ ę",
      "Ġ$ĝ ě",
      "Ā( $Ğ",
      "ĀĀė Ā",
      "ĀĀė Āĝ",
      "ĀĀė ĀĚ",
      "ĀĀė Ā*",
      "%# $",
      "%# Ę",
      "ĠĜĝ $",
      "ĠĜĝ Ĝ",
      "ĠěĞ \"",
      "ĠěĞ #",
      "ĠěĞ Ě",
      "ĠěĞ ě",
      "ĠěĞ Ĝ",
      "ĠěĞ ĝ",
      "%ğ ė",
      "ĀĀ) Ā'",
      "ĀĀ) Ā+",
      "#Ğ %",
      "#Ğ ğ",
      "ě\" ĀĀ",
      "ĀĀĖ Ā%",
      "ĀĀĖ Āě",
      "ĀĀĖ Ā'",
      "ĀĀĖ Ā-",
      "ĀĘ ĞĞ",
      "#\" $",
      "ğ! #",
      "ğ! (",
      "%\" ĀĀ",
      "#! )",
      "Ě! #",
      "Ě! ĀĀ",
      "\"ĝ ĀĀ",
      "ĀĀ+ ĀĞ",
      "ĀĀ+ Ā#",
      "ĀĀ+ Āĝ",
      "ĀĀ+ Ā'",
      "ĀĀ+ Ā(",
      "Ě\" (",
      "ğĞ \"",
      "ğĝ ě",
      "ĝĞ )",
      "&ĀĀ ,",
      "Āė ĞĞ",
      "ĜĜ %",
      "ĠĠĠĠĠĠĠĠĠĠĠĠĠĠĠĠ ĠĠĠĠĠ",
      "ĠĠĠĠĠĠĠĠĠĠĠĠĠĠĠĠ ĠĠĠĠĠĠĠĠĠĠĠĠ",
      "ĠĠĠĠĠĠĠĠĠĠĠĠĠĠĠĠ ĠĠĠĠĠĠĠĠĠĠĠĠĠ",
      "\"# %",
      "\"# (",
      "## ĀĀ\"Ā'",
      "$ĀĀ /",
      "$ĀĀ Đ",
      "$ĀĀ đ",
      "$ĀĀ ĕ",
      "$ĀĀ -Āğ",
      "%ĀĀ ĕ",
      "(ĀĀ -",
      "(ĀĀ đ",
      "(ĀĀ ēĀ&",
      "ĀĀğĀ ĕ",
      "Ě# -",
      "Ğĝ *",
      "Ğĝ ĀĀ",
      "Ġ$# $",
      "Ğ\" )",
      "Ğ\" +",
      "Ğğ %",
      "Ğğ ,",
      "ęğ &",
      "ęğ +",
      "ě$ ,",
      "ĠĀĀ .",
      "ĠĀĀ ĕ",
      "ĠĀĀ -Āğ",
      "Ġ\"$ %",
      "Ġ\"$ &",
      "Ġ\"$ Ė",
      "Ġ\"$ ě",
      "ĠĞ$ ę",
      "ĠĞ$ ě",
      "ĠĜ\" Ĝ",
      "Ġ%! Ę",
      "ĠĀ ,",
      "ĠĀ ē",
      "ĠĀ Ĕ",
      "ĠĀ Ė",
      "&# -",
      "&# ĀĀ",
      "ĝ! (",
      "Ġğ$ ě",
      "ĀĀĞĀ ,",
      "ĀĀĞĀ -",
      "ĀĀĞĀ .",
      "ĀĀ\"Ā Ē",
      "ĀĀ\"Ā Ĕ",
      ")ĀĀ -",
      ")ĀĀ ,ĀĜ",
      ")ĀĀ đĀĜ",
      "Ġğě Ĝ",
      "#$ '",
      "ĝ\" '",
      "%& &",
      "ĀĀĕ Āĝ",
      "ĀĀĕ ĀĜ",
      "ĀĀĕ Ā&",
      "ěĜ ĀĀ",
      "ĠĒ ĀĀ",
      "\"% )",
      "Ęğ ĀĀ",
      "Ġğ% %",
      "(\" ě",
      "ĀĀ, Āğ",
      "ĀĀ, Āĝ",
      "Ġ!& ě",
      "Ġ!& Ĝ",
      "Ġ!& ĝ",
      "ĠĝĜ %",
      "Ġěğ ę",
      "ĀĀ- ĀĞ",
      "ĀĀ- Ā%",
      "ĀĀ- ĀĚ",
      "ĀĀ- Āę",
      "Ěě ,",
      "ĠĞě Ě",
      "ĀĀ. Āě",
      "ĀĀ. Ā(",
      "ĞĜ %",
      "ĀĀ* Ā#",
      "ĀĀ* Ā%",
      "ĀĀē Ā\"",
      "ĀĀē ĀĞ",
      "ĀĀē ĀĚ",
      "ĀĀē Āę",
      "ĠĜĜ &",
      "ĠĜĜ Ě",
      "Ġě\" Ė",
      "Ġě\" Ě",
      "ĀĀěĀ ď",
      "Ġ/ #",
      "ęĝ ĀĀěĀ",
      "ĠĀ! !Ğ",
      "Ġěĝ %",
      "ĀĀ!Ā! ĜĞ",
      "ĀĀ/ Āě",
      "Ġ#ě ę",
      "Ġ#Ĝ ę",
      "Ġ#Ĝ Ě",
      "Ġ%Ğ '",
      "ĀĀĞĀğ ĝ\"",
      "!Ě ė",
      "ĀĀĜĀ! Ğē",
      "ĀĀ'Ā ,",
      "ĀĀ'Ā /",
      "ĀĀ'Ā ĕ",
      "ĀĀđ Ā#",
      "ĀĀđ Āĝ",
      "ĠĀě %\"",
      "ĀĀ\"Ā! ğğ",
      "ĀĀĝĀĞ &!",
      "ĀĀĝĀĞ ğĝ",
      "(& ĀĀ\"Ā'",
      "*! Ė",
      "+ĀĀ Đ",
      "Ġ\"% (",
      "ĠĜ# %",
      "ĀĀĞĀ! #ğ",
      "ĀĀ#Ā\" )ğ",
      "ĀĀĞĀ\" ě",
      "ĀĀĘĀ .",
      "ĀĀĘĀ Ĕ",
      "ĕĝ ĀĀ!Āğ",
      "ĝ) #",
      "ĝ) '",
      "ĝ) (",
      "ĝ) -",
      "Ġ$Ĝ %",
      "ĀĀğĀ% &&",
      "&ĀĀě ĀĞ",
      "&ĀĀě Ā&",
      "&ĀĀě Ā'",
      "Ė# *",
      "ğ& .",
      "Ġ!' Ĝ",
      "ĀĀĞĀĞ %",
      "ĀĀ$Ā\" #ğ",
      "ĀĀęĀ .",
      "Ę& -",
      "ęę &",
      "ĠĘĞ &",
      "ĀĀĞĀĝ #$",
      "ĀĀ(Ā -",
      "\"+ (",
      "ĀĀ\"Ā& !!",
      "ĀĀĚĀ& ĚĜ",
      "$( %ĀĀ",
      "ė& +",
      "ĀĀď Ā#",
      "Ġ%$ Ę",
      "ĀĀĜĀ$ Ĝğ",
      "!+ )",
      "Ğ' *",
      "ĀĀć Ā%",
      "ĀĀ$Ā# ę!",
      "ĀĀęĀ\" ĝĝ",
      "') ęĀĀ",
      "Ĝ. +",
      "ĀĀ; Ā#",
      "ĀĀėĀĞ ĝĜ",
      "(ĀĀĒ Ā!",
      "'ĀĀ* Ā!",
      "ę. )",
      "$ĀĀď Ā",
      "'ĀĀĞ Āę",
      "ĠĀĀĖ Āğ",
      "ĀĀĘĀę #\"",
      "(&ĀĀ\"Ā' \"ğ"
    ]
  }
}