{
  "version": "1.0",
  "truncation": null,
  "padding": null,
  "added_tokens": [],
  "normalizer": null,
  "pre_tokenizer": {
    "type": "ByteLevel",
    "add_prefix_space": false,
    "trim_offsets": true,
    "use_regex": true
  },
  "post_processor": {
    "type": "ByteLevel",
    "add_prefix_space": true,
    "trim_offsets": false,
    "use_regex": true
  },
  "decoder": {
    "type": "ByteLevel",
    "add_prefix_space": true,
    "trim_offsets": true,
    "use_regex": true
  },
  "model": {
    "type": "BPE",
    "dropout": null,
    "unk_token": null,
    "continuing_subword_prefix": null,
    "end_of_word_suffix": null,
    "fuse_unk": false,
    "byte_fallback": false,
    "ignore_merges": false,
    "vocab": {
      "\u0000": 0,
      "\u0001": 1,
      "\u0002": 2,
      "\u0003": 3,
      "\u0004": 4,
      "\u0005": 5,
      "\u0006": 6,
      "\u0007": 7,
      "\b": 8,
      "\t": 9,
      "\n": 10,
      "\u000b": 11,
      "\f": 12,
      "\r": 13,
      "\u000e": 14,
      "\u000f": 15,
      "\u0010": 16,
      "\u0011": 17,
      "\u0012": 18,
      "\u0013": 19,
      "\u0014": 20,
      "\u0015": 21,
      "\u0016": 22,
      "\u0017": 23,
      "\u0018": 24,
      "\u0019": 25,
      "\u001a": 26,
      "\u001b": 27,
      "\u001c": 28,
      "\u001d": 29,
      "\u001e": 30,
      "\u001f": 31,
      " ": 32,
      "!": 33,
      "\"": 34,
      "#": 35,
      "$": 36,
      "%": 37,
      "&": 38,
      "'": 39,
      "(": 40,
      ")": 41,
      "*": 42,
      "+": 43,
      ",": 44,
      "-": 45,
      ".": 46,
      "/": 47,
      "0": 48,
      "1": 49,
      "2": 50,
      "Ā": 51,
      "Ă": 52,
      "ă": 53,
      "Ą": 54,
      "ą": 55,
      "Ć": 56,
      "ć": 57,
      "Ĉ": 58,
      "ĉ": 59,
      "Ċ": 60,
      "ċ": 61,
      "Č": 62,
      "č": 63,
      "Ď": 64,
      "ď": 65,
      "Đ": 66,
      "đ": 67,
      "Ē": 68,
      "ē": 69,
      "Ĕ": 70,
      "ĕ": 71,
      "Ė": 72,
      "ė": 73,
      "Ę": 74,
      "ę": 75,
      "Ě": 76,
      "ě": 77,
      "Ĝ": 78,
      "ĝ": 79,
      "Ğ": 80,
      "ğ": 81,
      "Ġ": 82,
      "ęę": 83,
      "ęęęę": 84,
      "ęĚ": 85,
      "ęĘ": 86,
      "ęęĘ": 87,
      "ęęĚ": 88,
      "ĀĀ": 89,
      "ęě": 90,
      "ęė": 91,
      "ęęęęęęęę": 92,
      "ęęė": 93,
      "ęęě": 94,
      "Ęęęęę": 95,
      "ęęęĚ": 96,
      "Ěęęęę": 97,
      "ęęęĘ": 98,
      "ęĜ": 99,
      "ęĖ": 100,
      "ęęĖ": 101,
      "ęęĜ": 102,
      "ęĚęęęę": 103,
      "ęĘęęęę": 104,
      "ęĝ": 105,
      "ęĕ": 106,
      "ĚĘ": 107,
      "ĚęęĚ": 108,
      "ęĚĘ": 109,
      "ĚęęĘ": 110,
      "ĘęęĘ": 111,
      "ęęĕ": 112,
      "ęęęęĘ": 113,
      "ęĘĘ": 114,
      "ęęęė": 115,
      "ėęęęę": 116,
      "ęęĝ": 117,
      "ęĘĚ": 118,
      "ęĚĚ": 119,
      "ęęę": 120,
      "ęęęě": 121,
      "ęęęęĚ": 122,
      "ĘęęĚ": 123,
      "ęĞ": 124,
      "ěęęęę": 125,
      "ęęĚęęęę": 126,
      "ęęĔ": 127,
      "ęęĞ": 128,
      "ėęęĚ": 129,
      "ęĔ": 130,
      "ęęĘęęęę": 131,
      "ęęęęęęęęęęęę": 132,
      "ěęęĘ": 133,
      "ĀĘ": 134,
      "Āě": 135,
      "ėęęĘ": 136,
      "ęĚě": 137,
      "ĀĚ": 138,
      "ĀĀę": 139,
      "ĀĀĘ": 140,
      "ęĘě": 141,
      "ęěĘ": 142,
      "Ěęęė": 143,
      "Ęęęė": 144,
      "ęĚė": 145,
      "ěęęĚ": 146,
      "ęĘė": 147,
      "Ěęęě": 148,
      "ĀĀĚ": 149,
      "ęęē": 150,
      "Āė": 151,
      "ĀĀė": 152,
      "ęěĚ": 153,
      "ĀĖ": 154,
      "ęėĘ": 155,
      "ĀĜ": 156,
      "ęęĚę": 157,
      "ęęĘę": 158,
      "ęęğ": 159,
      "ęėĚ": 160,
      "Ęęęě": 161,
      "ĀĀě": 162,
      "ęęęĜ": 163,
      "ęęęĖ": 164,
      "ęęęęęęęęęęęęęęęę": 165,
      "ėęęě": 166,
      "ĀĀĖ": 167,
      "Āĝ": 168,
      "ęğ": 169,
      "Ėęęęę": 170,
      "ęęęĘęęęę": 171,
      "ęėė": 172,
      "ĀĞ": 173,
      "ęęĚęęęĚ": 174,
      "ęěęęęę": 175,
      "ęėęęęę": 176,
      "ĚĚ": 177,
      "Āĕ": 178,
      "ĖęęĚ": 179,
      "ęē": 180,
      "ĚĘęęĚ": 181,
      "ěęęė": 182,
      "ĀĀĜ": 183,
      "ęěė": 184,
      "ęěě": 185,
      "ėęęė": 186,
      "ęęĘęĚ": 187,
      "ęęęĘę": 188,
      "ęęĒ": 189,
      "ęĚĚęęęę": 190,
      "ęęęĚęęęę": 191,
      "ęĘęęĚ": 192,
      "ĚęęęęĘ": 193,
      "Ĝęęęę": 194,
      "ęĚĘęęęę": 195,
      "ęėě": 196,
      "ĖęęĘ": 197,
      "ęĚęęĘ": 198,
      "ĀĀĕ": 199,
      "ěęęě": 200,
      "ęĘĘęęęę": 201,
      "ĀĀĔ": 202,
      "ęęęĚę": 203,
      "ĀĀĝ": 204,
      "ĜęęĚ": 205,
      "ěĚ": 206,
      "ĘęęęęĘ": 207,
      "ęĜĘ": 208,
      "ęĚĜ": 209,
      "ęĚęęĚ": 210,
      "ęĖĘ": 211,
      "ĜęęĘ": 212,
      "ěĘ": 213,
      "ęĘĚęęęę": 214,
      "ęĘęęęęĘ": 215,
      "ęĘęęęęĚ": 216,
      "ęĚĖ": 217,
      "ęĘęęĘ": 218,
      "ĘęęęęĚ": 219,
      "ęęęęęęęęęęę": 220,
      "ęĘĖ": 221,
      "ęĚęęęęĘ": 222,
      "ĀĔ": 223,
      "Ėęęě": 224,
      "ĘęęĖ": 225,
      "ęĘĜ": 226,
      "ęĒ": 227,
      "ėĚ": 228,
      "ęěĜ": 229,
      "ęęęĕ": 230,
      "ĀĀĞ": 231,
      "ęĜĚ": 232,
      "ęęęęĘĘ": 233,
      "ĀĀğ": 234,
      "ĘęęĜ": 235,
      "ĚęęĖ": 236,
      "ęę!": 237,
      "ęĜė": 238,
      "ęĚęęęęĚ": 239,
      "ěě": 240,
      "ĕęęęę": 241,
      "ęęĘęęęĘ": 242,
      "ĀĀĒ": 243,
      "ęĖĚ": 244,
      "Āğ": 245,
      "ĀĀē": 246,
      "ėĘ": 247,
      "Ėęęė": 248,
      "Ĝęęė": 249,
      "ĚęęĜ": 250,
      "ęęęĝ": 251,
      "ęėĖ": 252,
      "ęėĜ": 253,
      "ĕęęĘ": 254,
      "ĕęęĚ": 255,
      "ėęęĖ": 256,
      "ĀĀęĀ": 257,
      "ěęęĖ": 258,
      "ĚęęęęĚ": 259,
      "ęĖė": 260,
      "ĀĀĘĀ": 261,
      "ęĖĖ": 262,
      "ęĜě": 263,
      "Ĝęęě": 264,
      "ęęđ": 265,
      "ęęęĘęęĚ": 266,
      "ęĜĜ": 267,
      "ěęęĜ": 268,
      "ėě": 269,
      "ėęęĜ": 270,
      "ĖęęĜ": 271,
      "ĀĀđ": 272,
      "ęęęĘęęĘ": 273,
      "ęĘĚęęęĚ": 274,
      "ĖĚ": 275,
      "ę!": 276,
      "ęęęęĘĚ": 277,
      "ĝęęęę": 278,
      "ęĖęęęę": 279,
      "ęęěęęęę": 280,
      "ęęęĞ": 281,
      "ęĘęĚ": 282,
      "ęĘęĚęęęę": 283,
      "ęęĚĚęęĚ": 284,
      "ęę\"": 285,
      "ęĚęęęęęę": 286,
      "ĀĀěĀ": 287,
      "ęĚęĘ": 288,
      "ĚęęĘę": 289,
      "ěĝ": 290,
      "ĀĀ!": 291,
      "ĕĚ": 292,
      "ęęĘĘęęęę": 293,
      "ęěĖ": 294,
      "ęĖě": 295,
      "ėė": 296,
      "ĜĘ": 297,
      "Ĝě": 298,
      "ęĘĕ": 299,
      "ęĜĖ": 300,
      "ęĜęęęę": 301,
      "ęĕĚ": 302,
      "ĝęęĚ": 303,
      "ęėęęĘ": 304,
      "Āē": 305,
      "ĕęęě": 306,
      "ęđ": 307,
      "ęęėęęęę": 308,
      "ęĝĘ": 309,
      "ęęęĚęęĚ": 310,
      "Ėė": 311,
      "Ėě": 312,
      "ęĚęĘęęęę": 313,
      "ęěęęĘ": 314,
      "ĖĘ": 315,
      "ĜĚ": 316,
      "ĜĜ": 317,
      "ęęĐ": 318,
      "ęėęęĚ": 319,
      "ĕĘ": 320,
      "ę\"": 321,
      "ęĘęĘęęęę": 322,
      "ĀĀ$": 323,
      "ęĝĚ": 324,
      "ęęęĚęęĘ": 325,
      "ęĘęęęęęę": 326,
      "ĕęęė": 327,
      "ęĚĝ": 328,
      "ęęĘĘęęĘ": 329,
      "ĀĀ\"": 330,
      "ęĕĘ": 331,
      "ėęęęęĚ": 332,
      "ėĝ": 333,
      "ęĚĚĘ": 334,
      "ęĘĝ": 335,
      "ęęęęĚĚ": 336,
      "ęęęęęęĚ": 337,
      "ęĚĕ": 338,
      "ęĚęĚ": 339,
      "ęěĝ": 340,
      "ęĚĘęęęĘ": 341,
      "ęęĚęęęęę": 342,
      "ęĕė": 343,
      "ĔęęĚ": 344,
      "ĜęęĖ": 345,
      "ĀĀĐ": 346,
      "ĚęęĚę": 347,
      "ĀĀėĀ": 348,
      "ĖęęĖ": 349,
      "Ěęęęęę": 350,
      "ęĚĚęęęĚ": 351,
      "ęęęęęęęęęęęęę": 352,
      "ęĚęĚęęęę": 353,
      "Ėęęĕ": 354,
      "ĘĘ": 355,
      "ěė": 356,
      "ěĜ": 357,
      "ęěęęĚ": 358,
      "ęęęęęęęęęĘ": 359,
      "ęĘĘęęęĘ": 360,
      "ĀĀĖĀ": 361,
      "Ėĝ": 362,
      "ěĞ": 363,
      "ĝęęĘ": 364,
      "ęęĚĘęęĚ": 365,
      "Ěęęĕ": 366,
      "ęĝė": 367,
      "ěęęęęĚ": 368,
      "ęěĕ": 369,
      "ęęęęęęęęęęęęęęęęęęęę": 370,
      "Ěęęęęęę": 371,
      "ęęęĔ": 372,
      "ęĚĞ": 373,
      "ęĘęĘ": 374,
      "ęĚĘĘęęĘ": 375,
      "Ęęęĕ": 376,
      "ĜĞ": 377,
      "ęęĘĚęęĘ": 378,
      "ĀĀ#": 379,
      "ĀĀĎ": 380,
      "ęėęęęęĚ": 381,
      "ĚĘęęě": 382,
      "ęĚĘĚęęĘ": 383,
      "ĀĀĚĀ": 384,
      "ĕě": 385,
      "ĕęęĖ": 386,
      "Ĝė": 387,
      "ĝęęė": 388,
      "ęęď": 389,
      "ęĚĚĘęęĚ": 390,
      "ęęĚĘęęęę": 391,
      "ěęęęęĘ": 392,
      "Ĝęęĕ": 393,
      "ĠĘ": 394,
      "ĀĀď": 395,
      "ęėĝ": 396,
      "ęęęėęęęę": 397,
      "ĔęęĘ": 398,
      "ĘĚ": 399,
      "ęęĚĚęęęę": 400,
      "ęėĕ": 401,
      "ęęęē": 402,
      "ėęęĝ": 403,
      "ĝě": 404,
      "ĝęęě": 405,
      "ĞĞ": 406,
      "ĠĜ": 407,
      "ęęĘęęęęęęęę": 408,
      "ĚĘęęĘ": 409,
      "ęęĘęęęęę": 410,
      "ęęĚęęęĚę": 411,
      "ĀĀĔĀ": 412,
      "Ĕęęęę": 413,
      "ĖęęĞ": 414,
      "ėĜ": 415,
      "ĝĚ": 416,
      "ęĘėęęęę": 417,
      "Ęęęęęęę": 418,
      "ęęęęęęęęęęęęęęęęęę": 419,
      "ĠĚ": 420,
      "ęĚęĘęęĚ": 421,
      "ęĘęĚęęĚ": 422,
      "ęĖĜ": 423,
      "ĀĀĜĀ": 424,
      "ėĖ": 425,
      "ĝĞ": 426,
      "ęěĚęęęę": 427,
      "ęěęęęęĚ": 428,
      "ęęęęęęęęĚ": 429,
      "ęĚęęęęęęĘ": 430,
      "ęĝĜ": 431,
      "ęĞĘ": 432,
      "ėęęęęĘ": 433,
      "Ęęęĝ": 434,
      "ęěęęęęĘ": 435,
      "Ęęęęęę": 436,
      "ęĝě": 437,
      "ęĘĚĚęęĚ": 438,
      "ĀĚĚ": 439,
      "ĀĀĕĀ": 440,
      "ĕęęĕ": 441,
      "ėęęĕ": 442,
      "Ġĝ": 443,
      "ęęėęęęĘ": 444,
      "ęęěęęęĚ": 445,
      "ęĜĕ": 446,
      "ęĜĝ": 447,
      "ęĚęęęęę": 448,
      "ęęęęęęęęęęęęęęę": 449,
      "ĀĀĝĀ": 450,
      "ĔĖ": 451,
      "ĞĚ": 452,
      "ęęĘĚęęęę": 453,
      "ęĚęęęęęęĚ": 454,
      "ęĘęęęęę": 455,
      "ĘęęĘę": 456,
      "ęĘĘĚęęĘ": 457,
      "ęĚĚĚęęęę": 458,
      "Ĕęęė": 459,
      "Ġė": 460,
      "ęę#": 461,
      "ęęĘęęęĚ": 462,
      "ęěĞ": 463,
      "ęęęęęęęęęęęĚ": 464,
      "ęĕĖ": 465,
      "ęĘĚĚęęęę": 466,
      "ęĘėęęęĘ": 467,
      "ęĚĚęęęęę": 468,
      "ĒĘ": 469,
      "ĕęęĜ": 470,
      "ę#": 471,
      "ěĕ": 472,
      "ěęęĕ": 473,
      "ęęĚęęęě": 474,
      "ĀĀ%": 475,
      "ęĚĚĘęęęę": 476,
      "ĀĀĞĀ": 477,
      "Ĕęęě": 478,
      "ęĐ": 479,
      "ğĚ": 480,
      "ęĘęĘęęĚ": 481,
      "ĀĀ'": 482,
      "ĀĀ)": 483,
      "ęęęęęęęęęęęĘ": 484,
      "ęĘęęęęęęĚ": 485,
      "ęĕě": 486,
      "ęĕęęęę": 487,
      "ęĚěęęęĚ": 488,
      "ĀĀĘĀĘ": 489,
      "ĔĘ": 490,
      "Ėęęĝ": 491,
      "ęĘĚĘęęĚ": 492,
      "ęęĚęęĘ": 493,
      "ęėęęęęĘ": 494,
      "ĚęęęęęęĚ": 495,
      "ęĖĕ": 496,
      "ęĘęęęęęęĘ": 497,
      "ęĔĘ": 498,
      "ĀĀğĀ": 499,
      "ĕĞ": 500,
      "ĖĖ": 501,
      "ęĚěęęęę": 502,
      "ęĘęęęĘ": 503,
      "ęęěę": 504,
      "ęĜęęĘ": 505,
      "ęĖĝ": 506,
      "ęĚĘĘęęęę": 507,
      "ęĞĚ": 508,
      "ĀěĘ": 509,
      "ēĘ": 510,
      "ĖĜ": 511,
      "ėęęĞ": 512,
      "ěęęęĚ": 513,
      "ĝĜ": 514,
      "ĝęęĖ": 515,
      "ğĝ": 516,
      "ęĘē": 517,
      "ęĘęě": 518,
      "ęĘęĚęęĘ": 519,
      "ęĖĔ": 520,
      "ęĝĖ": 521,
      "ęęęěę": 522,
      "ęĞě": 523,
      "ęęĘęęęęęęĘ": 524,
      "ĚęęęęĘĘ": 525,
      "ĕĕ": 526,
      "ĖęęęęĚ": 527,
      "ėĞ": 528,
      "ėęęĔ": 529,
      "ĚĚęęęę": 530,
      "ğĘ": 531,
      "ĠĞ": 532,
      "ęęęęęęĘ": 533,
      "ęĘęęė": 534,
      "ĀĀ&": 535,
      "ęėęęě": 536,
      "ęęěĚęęĚ": 537,
      "ĚęęęęęęĘ": 538,
      "ĀĀĚĀĘ": 539,
      "Ēē": 540,
      "ĔĚ": 541,
      "ĔęęĖ": 542,
      "Ġě": 543,
      "ęęĎ": 544,
      "ęĚĔ": 545,
      "ęĚęęė": 546,
      "ęĘĞ": 547,
      "ęėĚęęęę": 548,
      "ęęėĚęęĘ": 549,
      "ęęěĘęęĚ": 550,
      "ĘęęęęęęĚ": 551,
      "ęĚĚĚęęĚ": 552,
      "ęęęğ": 553,
      "ĀĀęĀĘ": 554,
      "ĕĜ": 555,
      "ĖĞ": 556,
      "Ęē": 557,
      "ğě": 558,
      "ğĜ": 559,
      "ğęęĘ": 560,
      "Ġ!": 561,
      "ęėĞ": 562,
      "ęęęęęęęęĘ": 563,
      "ĘęęęęęĚ": 564,
      "ęĘĘĚęęęę": 565,
      "ęĘĘęęęė": 566,
      "ęęĚęęęęęęĚ": 567,
      "ěęęĚę": 568,
      "ĀĖĘ": 569,
      "Ĕě": 570,
      "ĔĞ": 571,
      "ėęęęĘ": 572,
      "ĚĚęęĚ": 573,
      "ĜęęĜ": 574,
      "Ğęęęę": 575,
      "ęĚęęě": 576,
      "ęĚęĘęęĘ": 577,
      "ęĘěęęęę": 578,
      "ęęęęęęęęęĚ": 579,
      "Ęęęęęě": 580,
      "ĘęęęęęęĘ": 581,
      "ęĖęęĘ": 582,
      "ęĘęęęęě": 583,
      "ęĝęęęę": 584,
      "ĚĘęęĚę": 585,
      "ėęęęęė": 586,
      "ęĚěĘęęĚ": 587,
      "ĀĚĜ": 588,
      "ęĘěĚęęĚ": 589,
      "ĀĀĚĀĖ": 590,
      "ĀĀėĀĘ": 591,
      "ĀĀēĀ": 592,
      "!ğ": 593,
      "ėĘęęĘ": 594,
      "ĚęęęĚ": 595,
      "ĜęęęęĘ": 596,
      "Ġĕ": 597,
      "ęę$": 598,
      "ęĘĔ": 599,
      "ĀĀ(": 600,
      "ęĖęęĚ": 601,
      "ęĝĝ": 602,
      "ĚĘĘęęęę": 603,
      "ĚĘęęĜ": 604,
      "ęĘĘěęęĘ": 605,
      "ęęęėęęĘ": 606,
      "ęĔė": 607,
      "ĀĀęĀě": 608,
      "ĀėĘ": 609,
      "ĒĖ": 610,
      "ēęęęę": 611,
      "ĕĝ": 612,
      "ėĕ": 613,
      "ĘĞ": 614,
      "Ěĝ": 615,
      "Ěęęĝ": 616,
      "ĝĝ": 617,
      "ğęęęę": 618,
      "Ġęęęę": 619,
      "ęěęęė": 620,
      "Ěęęęęě": 621,
      "ęĚęęęęě": 622,
      "ĀĀĘĀě": 623,
      "ĒĚ": 624,
      "Ĕĝ": 625,
      "Ĕęęĝ": 626,
      "ĘĜ": 627,
      "ę$": 628,
      "ěęęĔ": 629,
      "ğĞ": 630,
      "ęěĘęęęę": 631,
      "ęĜęęĚ": 632,
      "ęĝĕ": 633,
      "ęĕĜ": 634,
      "ęĚĘėęęĘ": 635,
      "ęĘĘĘęęĘ": 636,
      "ęęęėęęĚ": 637,
      "ęęęěęęęę": 638,
      "ęĞĖ": 639,
      "ęĞė": 640,
      "ĀĀęĀĕ": 641,
      "ĀĀėĀě": 642,
      "ēđ": 643,
      "ēė": 644,
      "ĖęęęęĘ": 645,
      "ėĘęęęę": 646,
      "ęĚęė": 647,
      "ęĚėęęęę": 648,
      "ęĚęĚęęĘ": 649,
      "ęĚęĚęęĚ": 650,
      "ęĘęěęęęę": 651,
      "ęęėĘęęĘ": 652,
      "ęęėęęęė": 653,
      "ęęęĚęęęęĘ": 654,
      "ęĘĚĘęęęę": 655,
      "ęęęĒ": 656,
      "ĘęęĚę": 657,
      "ėęęĚę": 658,
      "ęęĘęęęęęę": 659,
      "ĀĚė": 660,
      "ęĘěęęęĚ": 661,
      "ęĘěĘęęĚ": 662,
      "ęěĘĘęęĘ": 663,
      "ĀĀėĀĜ": 664,
      "ĀĀėĀĝ": 665,
      "ęĚĘęęęęę": 666,
      "!ě": 667,
      "ēĖ": 668,
      "ēĚ": 669,
      "ēĜ": 670,
      "ēęęĚ": 671,
      "ēęęė": 672,
      "ēęęĜ": 673,
      "ĖęęęĘ": 674,
      "Ėęęğ": 675,
      "ěęęĝ": 676,
      "ĜęęęęĚ": 677,
      "Ġğ": 678,
      "ęĚęęęęęęęęęęęę": 679,
      "ęĚęĘęęęęĚ": 680,
      "ęĘęęě": 681,
      "ęĘęęĘę": 682,
      "ęĘęĘęęĘ": 683,
      "ęėĔ": 684,
      "ęėęĘęęęę": 685,
      "ęęėę": 686,
      "ęĜĔ": 687,
      "ęĜĞ": 688,
      "ęĚęęęęęęĚęęęę": 689,
      "ęĝĞ": 690,
      "ĘęęĘęĚĘ": 691,
      "ėęęęęĚĚ": 692,
      "ęĚĚęęęĘ": 693,
      "ęęęěęęĚ": 694,
      "ęĔě": 695,
      "ĀĀĚĀě": 696,
      "ęğĚ": 697,
      "ęĘĘęęęęę": 698,
      "ęĘĚęęęęę": 699,
      "ĒĒ": 700,
      "Ēĕ": 701,
      "ēĞ": 702,
      "Ĕė": 703,
      "ĔĜ": 704,
      "ĞęęĚ": 705,
      "ęęĘĘęęė": 706,
      "ęėęęė": 707,
      "ęęęĘęęė": 708,
      "ęĚĘęęęė": 709,
      "ęęęđ": 710,
      "ęĔĜ": 711,
      "ĀĀęĀĜ": 712,
      "ĀĀĘĀĕ": 713,
      "ęĚėęęęĘ": 714,
      "ęėĚęęęĚ": 715,
      "ĀĀěĀě": 716,
      "ęęęęęęęęęęęęęęęęęęęęęęęę": 717,
      "ĀĀĒĀ": 718,
      "ĀĀ\"Ā": 719,
      "!Ĝ": 720,
      "đė": 721,
      "ĒĐ": 722,
      "ĖĐ": 723,
      "ĝĘ": 724,
      "ĝęęĜ": 725,
      "ĞęęĘ": 726,
      "ĠĀ": 727,
      "ĠĖ": 728,
      "ęĚĚęęĚ": 729,
      "ęĚęęĚę": 730,
      "ęĘęęęęęęęęęęęę": 731,
      "ęęĚęęęĘ": 732,
      "ęěĔ": 733,
      "ęėĘęęęę": 734,
      "ęęęĘęęě": 735,
      "ęęęĘęęęęĘ": 736,
      "ęĜęęęęĘ": 737,
      "ęĚęęęęė": 738,
      "ęĘĘĘęęęę": 739,
      "ęĘĘęęęĚ": 740,
      "ęęę!": 741,
      "ĀĀęĀĝ": 742,
      "ĀĀĘĀĖ": 743,
      "ęĚėĘęęĘ": 744,
      "ĀĀĚĀĜ": 745,
      "ĀėĚ": 746,
      "ĀĀěĀĘ": 747,
      "ęęęęęęęęęęęęęęęęęęę": 748,
      "ęęĚęęęĚęęęę": 749,
      "ĘęęęęĘĘ": 750,
      "ęĚęęęęĘę": 751,
      "đĚ": 752,
      "ēęęĘ": 753,
      "ĔęęĜ": 754,
      "ĕęęĝ": 755,
      "ĘęęĔ": 756,
      "ęĀĀ": 757,
      "ĚĘęęęę": 758,
      "Ĝĝ": 759,
      "ĠĀĀ": 760,
      "ęĘğ": 761,
      "ęĘęęęęęęęę": 762,
      "ęęĚėęęĚ": 763,
      "ęėęĚęęęę": 764,
      "Ęęęęęė": 765,
      "Ěęęęęė": 766,
      "ęęĖęęęę": 767,
      "ĀĀĘĀĜ": 768,
      "ĀĀĚĀĚ": 769,
      "ĀĀĚĀė": 770,
      "ĀĀ#Ā": 771,
      "!Ě": 772,
      "đĖ": 773,
      "Ēė": 774,
      "Ēęęě": 775,
      "ēęęě": 776,
      "Ĕĕ": 777,
      "ĕĖ": 778,
      "ėęęğ": 779,
      "ĘĘęęęę": 780,
      "ĜĖ": 781,
      "Ġ#": 782,
      "ęĚęĘęęęęĘ": 783,
      "ęĘęęęĘę": 784,
      "ęėē": 785,
      "ęėęĚęęĚ": 786,
      "ęęęęęęęęęęĚ": 787,
      "ęęěĚęęě": 788,
      "ęęęĚęęě": 789,
      "ĚęęęęęęĘęęęę": 790,
      "ęĖęęė": 791,
      "ęęĜęęęĚ": 792,
      "ĚĘęęęĘ": 793,
      "ęĚĘęęęĘę": 794,
      "ęĘĘęęęĘę": 795,
      "ęęęėę": 796,
      "ėęęĘę": 797,
      "ĀĀęĀĖ": 798,
      "ęĘėĘęęĘ": 799,
      "ĀĀĖĀĚ": 800,
      "ĀĀĖĀė": 801,
      "ĀĞĚ": 802,
      "ĀĀ$Ā": 803,
      "\"ě": 804,
      "\"Ğ": 805,
      "đĒ": 806,
      "Ēě": 807,
      "Ĕęęĕ": 808,
      "ĖęęĔ": 809,
      "ğęęě": 810,
      "Ġę": 811,
      "ęę%": 812,
      "ęĚē": 813,
      "ęĚęęęĚ": 814,
      "ęĘĚęęĘ": 815,
      "ęęĘęęĚ": 816,
      "ęęĚĘęęě": 817,
      "ęěęĘęęĚ": 818,
      "ęěęĚęęĘ": 819,
      "ęęėęęĘ": 820,
      "ęęęĚęęęęęęęę": 821,
      "ęęęĚęęė": 822,
      "ĚęęęęęęĚęęęę": 823,
      "ęęęĘęęęęĚ": 824,
      "ęęĜęęęę": 825,
      "ęĚęęęęęęęĚ": 826,
      "ĚĘĘęęĘ": 827,
      "ęĚĘėęęęę": 828,
      "ęĘĚęęęě": 829,
      "ęĔĚ": 830,
      "ęęĘęęęęęęĚ": 831,
      "ěęęĘę": 832,
      "ĀĀęĀĚ": 833,
      "ĀĀęĀė": 834,
      "ĀĀĘĀĝ": 835,
      "ęěĚĘęęęę": 836,
      "ęėĘĚęęęę": 837,
      "ĀĀĖĀĘ": 838,
      "ĀĕĘ": 839,
      "ĀĀĜĀĘ": 840,
      "!\"": 841,
      "!ė": 842,
      "ĒĜ": 843,
      "ēęęĕ": 844,
      "ĔĔ": 845,
      "ĕė": 846,
      "ĖęęĘęĚ": 847,
      "ėęęęė": 848,
      "ĚĞ": 849,
      "ěę": 850,
      "ěĘęęęę": 851,
      "ěĘęęĚ": 852,
      "ĝĖ": 853,
      "ęĚęęęęęęęę": 854,
      "ęĚęėęęęę": 855,
      "ęęĘęęęė": 856,
      "ęęĘĚęęė": 857,
      "ęęĚęęĚ": 858,
      "ĀĀ*": 859,
      "ĚęęęęęĘ": 860,
      "ęęĖĘęęĘ": 861,
      "ęĘęęęęęęě": 862,
      "ęĘęęęęęęęĘ": 863,
      "ęĕĕ": 864,
      "ęĕĞ": 865,
      "ĚĘęęė": 866,
      "ęĚĘĘęęė": 867,
      "ęĘĚęęęĘ": 868,
      "ęĚĚėęęęę": 869,
      "ęĚĚęęęě": 870,
      "ęĞĕ": 871,
      "ĀěĞ": 872,
      "ęĚěĚęęĚ": 873,
      "ęěĘĘęęęę": 874,
      "ĀĀėĀė": 875,
      "ĀĀėĀĖ": 876,
      "ęěĚėęęęę": 877,
      "ęėĘęęęĘ": 878,
      "ęęęęęęęęęęęęęęęęęęęęęęęęęęęęęęęę": 879,
      "ĀĀĜĀĖ": 880,
      "ĀĀĕĀĘ": 881,
      "ĀĀđĀ": 882,
      "ĀĀ!Ā": 883,
      "!Ğ": 884,
      "\"Ě": 885,
      "ĐĘ": 886,
      "ĒĞ": 887,
      "Ēęęęę": 888,
      "ĕęęęęĚ": 889,
      "ĕęęĔ": 890,
      "ĘęęĞ": 891,
      "Ěęęęęęęęę": 892,
      "ĚęęĔ": 893,
      "ěĚęęĚ": 894,
      "Ĝęęĝ": 895,
      "ĝęęĕ": 896,
      "ęĚğ": 897,
      "ęĚęęĜ": 898,
      "ęĚęėęęĘ": 899,
      "ęĘĘęęĘ": 900,
      "ęęĘěęęĘ": 901,
      "ęęĚęęęęęęęęęęęę": 902,
      "ĀĀ+": 903,
      "ęěęĘęęęę": 904,
      "ęęěęęĘ": 905,
      "ęęęĚęęęęĚ": 906,
      "ęĖęęęęĘ": 907,
      "ęĝĔ": 908,
      "ęĕĝ": 909,
      "ęĞĜ": 910,
      "ěęęęęė": 911,
      "ęęĚęęęęęęĘ": 912,
      "ęĔĖ": 913,
      "ĀěĚ": 914,
      "ęĚěĘęęě": 915,
      "ĀĀĘĀė": 916,
      "Ěęęėę": 917,
      "ęĚėĚęęĘ": 918,
      "ęĘėĚęęĘ": 919,
      "Ěęęěę": 920,
      "ĀĀėĀĚ": 921,
      "ęėĘĚęęĘ": 922,
      "ęęęĖęęęę": 923,
      "ęęęĖęęĚ": 924,
      "ĀĀĖĀĜ": 925,
      "ęęęĘęęęęę": 926,
      "ĀĀĜĀĚ": 927,
      "ĀĀĜĀė": 928,
      "ęĚęęęęĚę": 929,
      "ĕĚęęĕ": 930,
      "ĀĀĐĀ": 931,
      "!Ę": 932,
      "\"!": 933,
      "ĒęęĚ": 934,
      "ĒęęĜ": 935,
      "ēĔ": 936,
      "ēě": 937,
      "ĔĐ": 938,
      "Ĕđ": 939,
      "ĖĘęęĘ": 940,
      "ėęęē": 941,
      "ėęęęęĘĘ": 942,
      "ěęęĞ": 943,
      "ěęęē": 944,
      "ĝĕ": 945,
      "ĝğ": 946,
      "ęĘęėęęęę": 947,
      "ĀĀ-": 948,
      "ęěğ": 949,
      "ęěěęęęę": 950,
      "ęėęě": 951,
      "ęėęęĜ": 952,
      "ęėęĚęęĘ": 953,
      "ęėęěęęĚ": 954,
      "ęęėĘęęęę": 955,
      "ęęěęęęě": 956,
      "ĚęęęęĚĘ": 957,
      "ęĜęęęęĚ": 958,
      "ęĖĞ": 959,
      "ęĖğ": 960,
      "ęęĖęęęĘ": 961,
      "ęĝęęĘ": 962,
      "ęĝęęĚ": 963,
      "ęĕĔ": 964,
      "ęĕęęĘ": 965,
      "ęĕęęĚ": 966,
      "ęĚĘęęĚ": 967,
      "ęĚĘĚęęĚ": 968,
      "ęĚĘĘęęĚ": 969,
      "ęĚĘěęęĘ": 970,
      "ęĘĚěęęĚ": 971,
      "ęĘĚęęęĚę": 972,
      "ęĚĚĚęęĘ": 973,
      "ęĚĚėęęĚ": 974,
      "ęĞĝ": 975,
      "ęĞęęęę": 976,
      "ęęĚęęęęęę": 977,
      "ęĚěęęęě": 978,
      "ęěĘėęęęę": 979,
      "Ęęęėę": 980,
      "ĀĀĚĀĝ": 981,
      "ĀĀĚĀĞ": 982,
      "ĀĀĚĀĕ": 983,
      "ĀĀĚĀĔ": 984,
      "ęěĚęęęĚ": 985,
      "ęėĘęęęĚ": 986,
      "ęėĘĘęęĘ": 987,
      "ĀĀěĀė": 988,
      "ĀĀěĀĖ": 989,
      "ĀĀěĀĝ": 990,
      "ĀĀĖĀĖ": 991,
      "ęğĜ": 992,
      "ęęęĘęęęęęęĚ": 993,
      "ęėęęęęė": 994,
      "ĚĚĘęęęę": 995,
      "ĀĀĜĀě": 996,
      "ęěėėęęĘ": 997,
      "ęęęĚęęęęęęĚ": 998,
      "ĀĀĔĀĘ": 999,
      "ĀĀĝĀĘ": 1000,
      "ĘęęęęĘĚ": 1001,
      "ęĘęęęęĘę": 1002,
      "ĀĀĞĀĘ": 1003,
      "ęĘęĚęęě": 1004,
      "!ĀĀ": 1005,
      "\"ğ": 1006,
      "ĐĐ": 1007,
      "Ēđ": 1008,
      "ĒĔ": 1009,
      "ĒęęĘ": 1010,
      "ēğ": 1011,
      "ĖĚęęĘ": 1012,
      "ĖęęĘę": 1013,
      "ėęę": 1014,
      "ėĚęęęę": 1015,
      "ęĎ": 1016,
      "ęď": 1017,
      "ěęęęęĘĘ": 1018,
      "ĜęęĞ": 1019,
      "ĝė": 1020,
      "Ğ!": 1021,
      "ĞĘ": 1022,
      "ĞęęĜ": 1023
    },
    "merges": [
      "ę ę",
      "ęę ęę",
      "ę Ě",
      "ę Ę",
      "ęę Ę",
      "ęę Ě",
      "Ā Ā",
      "ę ě",
      "ę ė",
      "ęęęę ęęęę",
      "ęę ė",
      "ęę ě",
      "Ę ęęęę",
      "ęę ęĚ",
      "Ě ęęęę",
      "ęę ęĘ",
      "ę Ĝ",
      "ę Ė",
      "ęę Ė",
      "ęę Ĝ",
      "ęĚ ęęęę",
      "ęĘ ęęęę",
      "ę ĝ",
      "ę ĕ",
      "Ě Ę",
      "Ě ęęĚ",
      "ęĚ Ę",
      "Ě ęęĘ",
      "Ę ęęĘ",
      "ęę ĕ",
      "ęęęę Ę",
      "ęĘ Ę",
      "ęę ęė",
      "ė ęęęę",
      "ęę ĝ",
      "ęĘ Ě",
      "ęĚ Ě",
      "ęę ę",
      "ęę ęě",
      "ęęęę Ě",
      "Ę ęęĚ",
      "ę Ğ",
      "ě ęęęę",
      "ęęĚ ęęęę",
      "ęę Ĕ",
      "ęę Ğ",
      "ė ęęĚ",
      "ę Ĕ",
      "ęęĘ ęęęę",
      "ęęęęęęęę ęęęę",
      "ě ęęĘ",
      "Ā Ę",
      "Ā ě",
      "ė ęęĘ",
      "ęĚ ě",
      "Ā Ě",
      "ĀĀ ę",
      "ĀĀ Ę",
      "ęĘ ě",
      "ęě Ę",
      "Ě ęęė",
      "Ę ęęė",
      "ęĚ ė",
      "ě ęęĚ",
      "ęĘ ė",
      "Ě ęęě",
      "ĀĀ Ě",
      "ęę ē",
      "Ā ė",
      "ĀĀ ė",
      "ęě Ě",
      "Ā Ė",
      "ęė Ę",
      "Ā Ĝ",
      "ęęĚ ę",
      "ęęĘ ę",
      "ęę ğ",
      "ęė Ě",
      "Ę ęęě",
      "ĀĀ ě",
      "ęę ęĜ",
      "ęę ęĖ",
      "ęęęęęęęę ęęęęęęęę",
      "ė ęęě",
      "ĀĀ Ė",
      "Ā ĝ",
      "ę ğ",
      "Ė ęęęę",
      "ęęęĘ ęęęę",
      "ęė ė",
      "Ā Ğ",
      "ęęĚ ęęęĚ",
      "ęě ęęęę",
      "ęė ęęęę",
      "Ě Ě",
      "Ā ĕ",
      "Ė ęęĚ",
      "ę ē",
      "ĚĘ ęęĚ",
      "ě ęęė",
      "ĀĀ Ĝ",
      "ęě ė",
      "ęě ě",
      "ė ęęė",
      "ęęĘ ęĚ",
      "ęęęĘ ę",
      "ęę Ē",
      "ęĚ Ěęęęę",
      "ęęęĚ ęęęę",
      "ęĘ ęęĚ",
      "Ěęęęę Ę",
      "Ĝ ęęęę",
      "ęĚ Ęęęęę",
      "ęė ě",
      "Ė ęęĘ",
      "ęĚ ęęĘ",
      "ĀĀ ĕ",
      "ě ęęě",
      "ęĘ Ęęęęę",
      "ĀĀ Ĕ",
      "ęęęĚ ę",
      "ĀĀ ĝ",
      "Ĝ ęęĚ",
      "ě Ě",
      "Ęęęęę Ę",
      "ęĜ Ę",
      "ęĚ Ĝ",
      "ęĚ ęęĚ",
      "ęĖ Ę",
      "Ĝ ęęĘ",
      "ě Ę",
      "ęĘ Ěęęęę",
      "ęĘęęęę Ę",
      "ęĘęęęę Ě",
      "ęĚ Ė",
      "ęĘ ęęĘ",
      "Ęęęęę Ě",
      "ęęęęęęęę ęęę",
      "ęĘ Ė",
      "ęĚęęęę Ę",
      "Ā Ĕ",
      "Ė ęęě",
      "Ę ęęĖ",
      "ęĘ Ĝ",
      "ę Ē",
      "ė Ě",
      "ęě Ĝ",
      "ęę ęĕ",
      "ĀĀ Ğ",
      "ęĜ Ě",
      "ęęęęĘ Ę",
      "ĀĀ ğ",
      "Ę ęęĜ",
      "Ě ęęĖ",
      "ęę !",
      "ęĜ ė",
      "ęĚęęęę Ě",
      "ě ě",
      "ĕ ęęęę",
      "ęęĘ ęęęĘ",
      "ĀĀ Ē",
      "ęĖ Ě",
      "Ā ğ",
      "ĀĀ ē",
      "ė Ę",
      "Ė ęęė",
      "Ĝ ęęė",
      "Ě ęęĜ",
      "ęę ęĝ",
      "ęė Ė",
      "ęė Ĝ",
      "ĕ ęęĘ",
      "ĕ ęęĚ",
      "ė ęęĖ",
      "ĀĀę Ā",
      "ě ęęĖ",
      "Ěęęęę Ě",
      "ęĖ ė",
      "ĀĀĘ Ā",
      "ęĖ Ė",
      "ęĜ ě",
      "Ĝ ęęě",
      "ęę đ",
      "ęęęĘ ęęĚ",
      "ęĜ Ĝ",
      "ě ęęĜ",
      "ė ě",
      "ė ęęĜ",
      "Ė ęęĜ",
      "ĀĀ đ",
      "ęęęĘ ęęĘ",
      "ęĘĚ ęęęĚ",
      "Ė Ě",
      "ę !",
      "ęęęęĘ Ě",
      "ĝ ęęęę",
      "ęĖ ęęęę",
      "ęęě ęęęę",
      "ęęę Ğ",
      "ęĘ ęĚ",
      "ęĘ ęĚęęęę",
      "ęęĚ ĚęęĚ",
      "ęę \"",
      "ęĚęęęę ęę",
      "ĀĀě Ā",
      "ęĚ ęĘ",
      "ĚęęĘ ę",
      "ě ĝ",
      "ĀĀ !",
      "ĕ Ě",
      "ęęĘ Ęęęęę",
      "ęě Ė",
      "ęĖ ě",
      "ė ė",
      "Ĝ Ę",
      "Ĝ ě",
      "ęĘ ĕ",
      "ęĜ Ė",
      "ęĜ ęęęę",
      "ęĕ Ě",
      "ĝ ęęĚ",
      "ęė ęęĘ",
      "Ā ē",
      "ĕ ęęě",
      "ę đ",
      "ęęė ęęęę",
      "ęĝ Ę",
      "ęęęĚ ęęĚ",
      "Ė ė",
      "Ė ě",
      "ęĚ ęĘęęęę",
      "ęě ęęĘ",
      "Ė Ę",
      "Ĝ Ě",
      "Ĝ Ĝ",
      "ęę Đ",
      "ęė ęęĚ",
      "ĕ Ę",
      "ę \"",
      "ęĘ ęĘęęęę",
      "ĀĀ $",
      "ęĝ Ě",
      "ęęęĚ ęęĘ",
      "ęĘęęęę ęę",
      "ĕ ęęė",
      "ęĚ ĝ",
      "ęęĘ ĘęęĘ",
      "ĀĀ \"",
      "ęĕ Ę",
      "ėęęęę Ě",
      "ė ĝ",
      "ęĚ ĚĘ",
      "ęĘ ĝ",
      "ęęęęĚ Ě",
      "ęęęę ęęĚ",
      "ęĚ ĕ",
      "ęĚ ęĚ",
      "ęě ĝ",
      "ęĚĘ ęęęĘ",
      "ęęĚęęęę ę",
      "ęĕ ė",
      "Ĕ ęęĚ",
      "Ĝ ęęĖ",
      "ĀĀ Đ",
      "ĚęęĚ ę",
      "ĀĀė Ā",
      "Ė ęęĖ",
      "Ěęęęę ę",
      "ęĚĚ ęęęĚ",
      "ęęęęęęęęęęęę ę",
      "ęĚ ęĚęęęę",
      "Ė ęęĕ",
      "Ę Ę",
      "ě ė",
      "ě Ĝ",
      "ęě ęęĚ",
      "ęęęęęęęę ęĘ",
      "ęĘĘ ęęęĘ",
      "ĀĀĖ Ā",
      "Ė ĝ",
      "ě Ğ",
      "ĝ ęęĘ",
      "ęęĚ ĘęęĚ",
      "Ě ęęĕ",
      "ęĝ ė",
      "ě ęęęęĚ",
      "ęě ĕ",
      "ęęęęęęęę ęęęęęęęęęęęę",
      "Ěęęęę ęę",
      "ęęę Ĕ",
      "ęĚ Ğ",
      "ęĘ ęĘ",
      "ęĚĘ ĘęęĘ",
      "Ę ęęĕ",
      "Ĝ Ğ",
      "ęęĘ ĚęęĘ",
      "ĀĀ #",
      "ĀĀ Ď",
      "ęė ęęęęĚ",
      "ĚĘ ęęě",
      "ęĚĘ ĚęęĘ",
      "ĀĀĚ Ā",
      "ĕ ě",
      "ĕ ęęĖ",
      "Ĝ ė",
      "ĝ ęęė",
      "ęę ď",
      "ęĚ ĚĘęęĚ",
      "ęęĚ Ęęęęę",
      "ě ęęęęĘ",
      "Ĝ ęęĕ",
      "Ġ Ę",
      "ĀĀ ď",
      "ęė ĝ",
      "ęęęė ęęęę",
      "Ĕ ęęĘ",
      "Ę Ě",
      "ęęĚ Ěęęęę",
      "ęė ĕ",
      "ęęę ē",
      "ė ęęĝ",
      "ĝ ě",
      "ĝ ęęě",
      "Ğ Ğ",
      "Ġ Ĝ",
      "ęęĘ ęęęęęęęę",
      "ĚĘ ęęĘ",
      "ęęĘęęęę ę",
      "ęęĚęęęĚ ę",
      "ĀĀĔ Ā",
      "Ĕ ęęęę",
      "Ė ęęĞ",
      "ė Ĝ",
      "ĝ Ě",
      "ęĘ ėęęęę",
      "Ęęęęę ęę",
      "ęęęęęęęęęęęęęęęę ęę",
      "Ġ Ě",
      "ęĚ ęĘęęĚ",
      "ęĘ ęĚęęĚ",
      "ęĖ Ĝ",
      "ĀĀĜ Ā",
      "ė Ė",
      "ĝ Ğ",
      "ęě Ěęęęę",
      "ęě ęęęęĚ",
      "ęęęęęęęę Ě",
      "ęĚęęęę ęęĘ",
      "ęĝ Ĝ",
      "ęĞ Ę",
      "ė ęęęęĘ",
      "Ę ęęĝ",
      "ęě ęęęęĘ",
      "Ęęęęę ę",
      "ęĝ ě",
      "ęĘĚ ĚęęĚ",
      "ĀĚ Ě",
      "ĀĀĕ Ā",
      "ĕ ęęĕ",
      "ė ęęĕ",
      "Ġ ĝ",
      "ęęė ęęęĘ",
      "ęęě ęęęĚ",
      "ęĜ ĕ",
      "ęĜ ĝ",
      "ęĚęęęę ę",
      "ęęęęęęęęęęęę ęęę",
      "ĀĀĝ Ā",
      "Ĕ Ė",
      "Ğ Ě",
      "ęęĘ Ěęęęę",
      "ęĚęęęę ęęĚ",
      "ęĘęęęę ę",
      "ĘęęĘ ę",
      "ęĘĘ ĚęęĘ",
      "ęĚĚ Ěęęęę",
      "Ĕ ęęė",
      "Ġ ė",
      "ęę #",
      "ęęĘ ęęęĚ",
      "ęě Ğ",
      "ęęęęęęęę ęęęĚ",
      "ęĕ Ė",
      "ęĘĚ Ěęęęę",
      "ęĘė ęęęĘ",
      "ęĚĚęęęę ę",
      "Ē Ę",
      "ĕ ęęĜ",
      "ę #",
      "ě ĕ",
      "ě ęęĕ",
      "ęęĚ ęęęě",
      "ĀĀ %",
      "ęĚĚ Ęęęęę",
      "ĀĀĞ Ā",
      "Ĕ ęęě",
      "ę Đ",
      "ğ Ě",
      "ęĘ ęĘęęĚ",
      "ĀĀ '",
      "ĀĀ )",
      "ęęęęęęęę ęęęĘ",
      "ęĘęęęę ęęĚ",
      "ęĕ ě",
      "ęĕ ęęęę",
      "ęĚě ęęęĚ",
      "ĀĀĘ ĀĘ",
      "Ĕ Ę",
      "Ė ęęĝ",
      "ęĘ ĚĘęęĚ",
      "ęęĚ ęęĘ",
      "ęė ęęęęĘ",
      "Ěęęęę ęęĚ",
      "ęĖ ĕ",
      "ęĘęęęę ęęĘ",
      "ęĔ Ę",
      "ĀĀğ Ā",
      "ĕ Ğ",
      "Ė Ė",
      "ęĚ ěęęęę",
      "ęĘ ęęęĘ",
      "ęęě ę",
      "ęĜ ęęĘ",
      "ęĖ ĝ",
      "ęĚĘ Ęęęęę",
      "ęĞ Ě",
      "Āě Ę",
      "ē Ę",
      "Ė Ĝ",
      "ė ęęĞ",
      "ě ęęęĚ",
      "ĝ Ĝ",
      "ĝ ęęĖ",
      "ğ ĝ",
      "ęĘ ē",
      "ęĘ ęě",
      "ęĘ ęĚęęĘ",
      "ęĖ Ĕ",
      "ęĝ Ė",
      "ęęęě ę",
      "ęĞ ě",
      "ęęĘęęęę ęęĘ",
      "ĚęęęęĘ Ę",
      "ĕ ĕ",
      "Ė ęęęęĚ",
      "ė Ğ",
      "ė ęęĔ",
      "Ě Ěęęęę",
      "ğ Ę",
      "Ġ Ğ",
      "ęęęę ęęĘ",
      "ęĘ ęęė",
      "ĀĀ &",
      "ęė ęęě",
      "ęęě ĚęęĚ",
      "Ěęęęę ęęĘ",
      "ĀĀĚ ĀĘ",
      "Ē ē",
      "Ĕ Ě",
      "Ĕ ęęĖ",
      "Ġ ě",
      "ęę Ď",
      "ęĚ Ĕ",
      "ęĚ ęęė",
      "ęĘ Ğ",
      "ęė Ěęęęę",
      "ęęė ĚęęĘ",
      "ęęě ĘęęĚ",
      "Ęęęęę ęęĚ",
      "ęĚĚ ĚęęĚ",
      "ęęę ğ",
      "ĀĀę ĀĘ",
      "ĕ Ĝ",
      "Ė Ğ",
      "Ę ē",
      "ğ ě",
      "ğ Ĝ",
      "ğ ęęĘ",
      "Ġ !",
      "ęė Ğ",
      "ęęęęęęęę Ę",
      "Ęęęęę ęĚ",
      "ęĘĘ Ěęęęę",
      "ęĘĘ ęęęė",
      "ęęĚęęęę ęęĚ",
      "ěęęĚ ę",
      "ĀĖ Ę",
      "Ĕ ě",
      "Ĕ Ğ",
      "ė ęęęĘ",
      "Ě ĚęęĚ",
      "Ĝ ęęĜ",
      "Ğ ęęęę",
      "ęĚ ęęě",
      "ęĚ ęĘęęĘ",
      "ęĘ ěęęęę",
      "ęęęęęęęę ęĚ",
      "Ęęęęę ě",
      "Ęęęęę ęęĘ",
      "ęĖ ęęĘ",
      "ęĘęęęę ě",
      "ęĝ ęęęę",
      "ĚĘ ęęĚę",
      "ėęęęę ė",
      "ęĚě ĘęęĚ",
      "ĀĚ Ĝ",
      "ęĘě ĚęęĚ",
      "ĀĀĚ ĀĖ",
      "ĀĀė ĀĘ",
      "ĀĀē Ā",
      "! ğ",
      "ė ĘęęĘ",
      "Ě ęęęĚ",
      "Ĝ ęęęęĘ",
      "Ġ ĕ",
      "ęę $",
      "ęĘ Ĕ",
      "ĀĀ (",
      "ęĖ ęęĚ",
      "ęĝ ĝ",
      "ĚĘ Ęęęęę",
      "ĚĘ ęęĜ",
      "ęĘĘ ěęęĘ",
      "ęęęė ęęĘ",
      "ęĔ ė",
      "ĀĀę Āě",
      "Āė Ę",
      "Ē Ė",
      "ē ęęęę",
      "ĕ ĝ",
      "ė ĕ",
      "Ę Ğ",
      "Ě ĝ",
      "Ě ęęĝ",
      "ĝ ĝ",
      "ğ ęęęę",
      "Ġ ęęęę",
      "ęě ęęė",
      "Ěęęęę ě",
      "ęĚęęęę ě",
      "ĀĀĘ Āě",
      "Ē Ě",
      "Ĕ ĝ",
      "Ĕ ęęĝ",
      "Ę Ĝ",
      "ę $",
      "ě ęęĔ",
      "ğ Ğ",
      "ęě Ęęęęę",
      "ęĜ ęęĚ",
      "ęĝ ĕ",
      "ęĕ Ĝ",
      "ęĚĘ ėęęĘ",
      "ęĘĘ ĘęęĘ",
      "ęęęė ęęĚ",
      "ęęęě ęęęę",
      "ęĞ Ė",
      "ęĞ ė",
      "ĀĀę Āĕ",
      "ĀĀė Āě",
      "ē đ",
      "ē ė",
      "Ė ęęęęĘ",
      "ė Ęęęęę",
      "ęĚ ęė",
      "ęĚ ėęęęę",
      "ęĚ ęĚęęĘ",
      "ęĚ ęĚęęĚ",
      "ęĘ ęěęęęę",
      "ęęė ĘęęĘ",
      "ęęė ęęęė",
      "ęęęĚ ęęęęĘ",
      "ęĘĚ Ęęęęę",
      "ęęę Ē",
      "ĘęęĚ ę",
      "ėęęĚ ę",
      "ęęĘęęęę ęę",
      "ĀĚ ė",
      "ęĘě ęęęĚ",
      "ęĘě ĘęęĚ",
      "ęěĘ ĘęęĘ",
      "ĀĀė ĀĜ",
      "ĀĀė Āĝ",
      "ęĚĘęęęę ę",
      "! ě",
      "ē Ė",
      "ē Ě",
      "ē Ĝ",
      "ē ęęĚ",
      "ē ęęė",
      "ē ęęĜ",
      "Ė ęęęĘ",
      "Ė ęęğ",
      "ě ęęĝ",
      "Ĝ ęęęęĚ",
      "Ġ ğ",
      "ęĚ ęęęęęęęęęęęę",
      "ęĚ ęĘęęęęĚ",
      "ęĘ ęęě",
      "ęĘ ęęĘę",
      "ęĘ ęĘęęĘ",
      "ęė Ĕ",
      "ęė ęĘęęęę",
      "ęęė ę",
      "ęĜ Ĕ",
      "ęĜ Ğ",
      "ęĚęęęę ęęĚęęęę",
      "ęĝ Ğ",
      "ĘęęĘ ęĚĘ",
      "ėęęęę ĚĚ",
      "ęĚĚ ęęęĘ",
      "ęęęě ęęĚ",
      "ęĔ ě",
      "ĀĀĚ Āě",
      "ęğ Ě",
      "ęĘĘęęęę ę",
      "ęĘĚęęęę ę",
      "Ē Ē",
      "Ē ĕ",
      "ē Ğ",
      "Ĕ ė",
      "Ĕ Ĝ",
      "Ğ ęęĚ",
      "ęęĘ Ęęęė",
      "ęė ęęė",
      "ęęęĘ ęęė",
      "ęĚĘ ęęęė",
      "ęęę đ",
      "ęĔ Ĝ",
      "ĀĀę ĀĜ",
      "ĀĀĘ Āĕ",
      "ęĚė ęęęĘ",
      "ęėĚ ęęęĚ",
      "ĀĀě Āě",
      "ęęęęęęęęęęęęęęęę ęęęęęęęę",
      "ĀĀĒ Ā",
      "ĀĀ\" Ā",
      "! Ĝ",
      "đ ė",
      "Ē Đ",
      "Ė Đ",
      "ĝ Ę",
      "ĝ ęęĜ",
      "Ğ ęęĘ",
      "Ġ Ā",
      "Ġ Ė",
      "ęĚ ĚęęĚ",
      "ęĚ ęęĚę",
      "ęĘ ęęęęęęęęęęęę",
      "ęęĚ ęęęĘ",
      "ęě Ĕ",
      "ęė Ęęęęę",
      "ęęęĘ ęęě",
      "ęęęĘ ęęęęĘ",
      "ęĜ ęęęęĘ",
      "ęĚęęęę ė",
      "ęĘĘ Ęęęęę",
      "ęĘĘ ęęęĚ",
      "ęęę !",
      "ĀĀę Āĝ",
      "ĀĀĘ ĀĖ",
      "ęĚė ĘęęĘ",
      "ĀĀĚ ĀĜ",
      "Āė Ě",
      "ĀĀě ĀĘ",
      "ęęęęęęęęęęęęęęęę ęęę",
      "ęęĚęęęĚ ęęęę",
      "ĘęęęęĘ Ę",
      "ęĚęęęęĘ ę",
      "đ Ě",
      "ē ęęĘ",
      "Ĕ ęęĜ",
      "ĕ ęęĝ",
      "Ę ęęĔ",
      "ę ĀĀ",
      "Ě Ęęęęę",
      "Ĝ ĝ",
      "Ġ ĀĀ",
      "ęĘ ğ",
      "ęĘ ęęęęęęęę",
      "ęęĚ ėęęĚ",
      "ęė ęĚęęęę",
      "Ęęęęę ė",
      "Ěęęęę ė",
      "ęęĖ ęęęę",
      "ĀĀĘ ĀĜ",
      "ĀĀĚ ĀĚ",
      "ĀĀĚ Āė",
      "ĀĀ# Ā",
      "! Ě",
      "đ Ė",
      "Ē ė",
      "Ē ęęě",
      "ē ęęě",
      "Ĕ ĕ",
      "ĕ Ė",
      "ė ęęğ",
      "Ę Ęęęęę",
      "Ĝ Ė",
      "Ġ #",
      "ęĚ ęĘęęęęĘ",
      "ęĘ ęęęĘę",
      "ęė ē",
      "ęė ęĚęęĚ",
      "ęęęęęęęę ęęĚ",
      "ęęě Ěęęě",
      "ęęęĚ ęęě",
      "Ěęęęę ęęĘęęęę",
      "ęĖ ęęė",
      "ęęĜ ęęęĚ",
      "ĚĘ ęęęĘ",
      "ęĚĘ ęęęĘę",
      "ęĘĘ ęęęĘę",
      "ęęęė ę",
      "ėęęĘ ę",
      "ĀĀę ĀĖ",
      "ęĘė ĘęęĘ",
      "ĀĀĖ ĀĚ",
      "ĀĀĖ Āė",
      "ĀĞ Ě",
      "ĀĀ$ Ā",
      "\" ě",
      "\" Ğ",
      "đ Ē",
      "Ē ě",
      "Ĕ ęęĕ",
      "Ė ęęĔ",
      "ğ ęęě",
      "Ġ ę",
      "ęę %",
      "ęĚ ē",
      "ęĚ ęęęĚ",
      "ęĘ ĚęęĘ",
      "ęęĘ ęęĚ",
      "ęęĚ Ęęęě",
      "ęě ęĘęęĚ",
      "ęě ęĚęęĘ",
      "ęęė ęęĘ",
      "ęęęĚ ęęęęęęęę",
      "ęęęĚ ęęė",
      "Ěęęęę ęęĚęęęę",
      "ęęęĘ ęęęęĚ",
      "ęęĜ ęęęę",
      "ęĚęęęę ęęęĚ",
      "ĚĘ ĘęęĘ",
      "ęĚĘ ėęęęę",
      "ęĘĚ ęęęě",
      "ęĔ Ě",
      "ęęĘęęęę ęęĚ",
      "ěęęĘ ę",
      "ĀĀę ĀĚ",
      "ĀĀę Āė",
      "ĀĀĘ Āĝ",
      "ęěĚ Ęęęęę",
      "ęėĘ Ěęęęę",
      "ĀĀĖ ĀĘ",
      "Āĕ Ę",
      "ĀĀĜ ĀĘ",
      "! \"",
      "! ė",
      "Ē Ĝ",
      "ē ęęĕ",
      "Ĕ Ĕ",
      "ĕ ė",
      "Ė ęęĘęĚ",
      "ė ęęęė",
      "Ě Ğ",
      "ě ę",
      "ě Ęęęęę",
      "ě ĘęęĚ",
      "ĝ Ė",
      "ęĚ ęęęęęęęę",
      "ęĚ ęėęęęę",
      "ęęĘ ęęęė",
      "ęęĘ Ěęęė",
      "ęęĚ ęęĚ",
      "ĀĀ *",
      "Ěęęęę ęĘ",
      "ęęĖ ĘęęĘ",
      "ęĘęęęę ęęě",
      "ęĘęęęę ęęęĘ",
      "ęĕ ĕ",
      "ęĕ Ğ",
      "ĚĘ ęęė",
      "ęĚĘ Ęęęė",
      "ęĘĚ ęęęĘ",
      "ęĚĚ ėęęęę",
      "ęĚĚ ęęęě",
      "ęĞ ĕ",
      "Āě Ğ",
      "ęĚě ĚęęĚ",
      "ęěĘ Ęęęęę",
      "ĀĀė Āė",
      "ĀĀė ĀĖ",
      "ęěĚ ėęęęę",
      "ęėĘ ęęęĘ",
      "ęęęęęęęęęęęęęęęę ęęęęęęęęęęęęęęęę",
      "ĀĀĜ ĀĖ",
      "ĀĀĕ ĀĘ",
      "ĀĀđ Ā",
      "ĀĀ! Ā",
      "! Ğ",
      "\" Ě",
      "Đ Ę",
      "Ē Ğ",
      "Ē ęęęę",
      "ĕ ęęęęĚ",
      "ĕ ęęĔ",
      "Ę ęęĞ",
      "Ě ęęęęęęęę",
      "Ě ęęĔ",
      "ě ĚęęĚ",
      "Ĝ ęęĝ",
      "ĝ ęęĕ",
      "ęĚ ğ",
      "ęĚ ęęĜ",
      "ęĚ ęėęęĘ",
      "ęĘ ĘęęĘ",
      "ęęĘ ěęęĘ",
      "ęęĚ ęęęęęęęęęęęę",
      "ĀĀ +",
      "ęě ęĘęęęę",
      "ęęě ęęĘ",
      "ęęęĚ ęęęęĚ",
      "ęĖ ęęęęĘ",
      "ęĝ Ĕ",
      "ęĕ ĝ",
      "ęĞ Ĝ",
      "ěęęęę ė",
      "ęęĚęęęę ęęĘ",
      "ęĔ Ė",
      "Āě Ě",
      "ęĚě Ęęęě",
      "ĀĀĘ Āė",
      "Ěęęė ę",
      "ęĚė ĚęęĘ",
      "ęĘė ĚęęĘ",
      "Ěęęě ę",
      "ĀĀė ĀĚ",
      "ęėĘ ĚęęĘ",
      "ęęęĖ ęęęę",
      "ęęęĖ ęęĚ",
      "ĀĀĖ ĀĜ",
      "ęęęĘęęęę ę",
      "ĀĀĜ ĀĚ",
      "ĀĀĜ Āė",
      "ęĚęęęęĚ ę",
      "ĕĚ ęęĕ",
      "ĀĀĐ Ā",
      "! Ę",
      "\" !",
      "Ē ęęĚ",
      "Ē ęęĜ",
      "ē Ĕ",
      "ē ě",
      "Ĕ Đ",
      "Ĕ đ",
      "Ė ĘęęĘ",
      "ė ęęē",
      "ė ęęęęĘĘ",
      "ě ęęĞ",
      "ě ęęē",
      "ĝ ĕ",
      "ĝ ğ",
      "ęĘ ęėęęęę",
      "ĀĀ -",
      "ęě ğ",
      "ęě ěęęęę",
      "ęė ęě",
      "ęė ęęĜ",
      "ęė ęĚęęĘ",
      "ęė ęěęęĚ",
      "ęęė Ęęęęę",
      "ęęě ęęęě",
      "Ěęęęę ĚĘ",
      "ęĜ ęęęęĚ",
      "ęĖ Ğ",
      "ęĖ ğ",
      "ęęĖ ęęęĘ",
      "ęĝ ęęĘ",
      "ęĝ ęęĚ",
      "ęĕ Ĕ",
      "ęĕ ęęĘ",
      "ęĕ ęęĚ",
      "ęĚĘ ęęĚ",
      "ęĚĘ ĚęęĚ",
      "ęĚĘ ĘęęĚ",
      "ęĚĘ ěęęĘ",
      "ęĘĚ ěęęĚ",
      "ęĘĚ ęęęĚę",
      "ęĚĚ ĚęęĘ",
      "ęĚĚ ėęęĚ",
      "ęĞ ĝ",
      "ęĞ ęęęę",
      "ęęĚęęęę ęę",
      "ęĚě ęęęě",
      "ęěĘ ėęęęę",
      "Ęęęė ę",
      "ĀĀĚ Āĝ",
      "ĀĀĚ ĀĞ",
      "ĀĀĚ Āĕ",
      "ĀĀĚ ĀĔ",
      "ęěĚ ęęęĚ",
      "ęėĘ ęęęĚ",
      "ęėĘ ĘęęĘ",
      "ĀĀě Āė",
      "ĀĀě ĀĖ",
      "ĀĀě Āĝ",
      "ĀĀĖ ĀĖ",
      "ęğ Ĝ",
      "ęęęĘęęęę ęęĚ",
      "ęėęęęę ė",
      "ĚĚ Ęęęęę",
      "ĀĀĜ Āě",
      "ęěė ėęęĘ",
      "ęęęĚęęęę ęęĚ",
      "ĀĀĔ ĀĘ",
      "ĀĀĝ ĀĘ",
      "ĘęęęęĘ Ě",
      "ęĘęęęęĘ ę",
      "ĀĀĞ ĀĘ",
      "ęĘęĚ ęęě",
      "! ĀĀ",
      "\" ğ",
      "Đ Đ",
      "Ē đ",
      "Ē Ĕ",
      "Ē ęęĘ",
      "ē ğ",
      "Ė ĚęęĘ",
      "Ė ęęĘę",
      "ė ęę",
      "ė Ěęęęę",
      "ę Ď",
      "ę ď",
      "ě ęęęęĘĘ",
      "Ĝ ęęĞ",
      "ĝ ė",
      "Ğ !",
      "Ğ Ę",
      "Ğ ęęĜ"
    ]
  }
}