{
  "version": "1.0",
  "truncation": null,
  "padding": null,
  "added_tokens": [],
  "normalizer": null,
  "pre_tokenizer": {
    "type": "ByteLevel",
    "add_prefix_space": false,
    "trim_offsets": true,
    "use_regex": true
  },
  "post_processor": {
    "type": "ByteLevel",
    "add_prefix_space": true,
    "trim_offsets": false,
    "use_regex": true
  },
  "decoder": {
    "type": "ByteLevel",
    "add_prefix_space": true,
    "trim_offsets": true,
    "use_regex": true
  },
  "model": {
    "type": "BPE",
    "dropout": null,
    "unk_token": null,
    "continuing_subword_prefix": null,
    "end_of_word_suffix": null,
    "fuse_unk": false,
    "byte_fallback": false,
    "ignore_merges": false,
    "vocab": {
      "\u0000": 0,
      "\u0001": 1,
      "\u0002": 2,
      "\u0003": 3,
      "\u0004": 4,
      "\u0005": 5,
      "\u0006": 6,
      "\u0007": 7,
      "\b": 8,
      "\t": 9,
      "\n": 10,
      "\u000b": 11,
      "\f": 12,
      "\r": 13,
      "\u000e": 14,
      "\u000f": 15,
      "\u0010": 16,
      "\u0011": 17,
      "\u0012": 18,
      "\u0013": 19,
      "\u0014": 20,
      "\u0015": 21,
      "\u0016": 22,
      "\u0017": 23,
      "\u0018": 24,
      "\u0019": 25,
      "\u001a": 26,
      "\u001b": 27,
      "\u001c": 28,
      "\u001d": 29,
      "\u001e": 30,
      "\u001f": 31,
      " ": 32,
      "!": 33,
      "\"": 34,
      "#": 35,
      "$": 36,
      "%": 37,
      "&": 38,
      "'": 39,
      "(": 40,
      ")": 41,
      "*": 42,
      "+": 43,
      ",": 44,
      "-": 45,
      ".": 46,
      "/": 47,
      "0": 48,
      "1": 49,
      "2": 50,
      "Ā": 51,
      "Ă": 52,
      "ă": 53,
      "Ą": 54,
      "ą": 55,
      "Ć": 56,
      "ć": 57,
      "Ĉ": 58,
      "ĉ": 59,
      "Ċ": 60,
      "ċ": 61,
      "Č": 62,
      "č": 63,
      "Ď": 64,
      "ď": 65,
      "Đ": 66,
      "đ": 67,
      "Ē": 68,
      "ē": 69,
      "Ĕ": 70,
      "ĕ": 71,
      "Ė": 72,
      "ė": 73,
      "Ę": 74,
      "ę": 75,
      "Ě": 76,
      "ě": 77,
      "Ĝ": 78,
      "ĝ": 79,
      "Ğ": 80,
      "ğ": 81,
      "Ġ": 82,
      "ęę": 83,
      "ęęęę": 84,
      "ęĚ": 85,
      "ęĘ": 86,
      "ęęĘ": 87,
      "ęęĚ": 88,
      "ĀĀ": 89,
      "ęě": 90,
      "ęė": 91,
      "ęęęęęęęę": 92,
      "ęęė": 93,
      "ęęě": 94,
      "Ęęęęę": 95,
      "ęęęĚ": 96,
      "Ěęęęę": 97,
      "ęęęĘ": 98,
      "ęĜ": 99,
      "ęĖ": 100,
      "ęęĖ": 101,
      "ęęĜ": 102,
      "ęĚęęęę": 103,
      "ęĘęęęę": 104,
      "ęĝ": 105,
      "ęĕ": 106,
      "ĚĘ": 107,
      "ĚęęĚ": 108,
      "ęĚĘ": 109,
      "ĚęęĘ": 110,
      "ĘęęĘ": 111,
      "ęęĕ": 112,
      "ęęęęĘ": 113,
      "ęĘĘ": 114,
      "ęęęė": 115,
      "ėęęęę": 116,
      "ęęĝ": 117,
      "ęĘĚ": 118,
      "ęĚĚ": 119,
      "ęęę": 120,
      "ęęęě": 121,
      "ęęęęĚ": 122,
      "ĘęęĚ": 123,
      "ęĞ": 124,
      "ěęęęę": 125,
      "ęęĚęęęę": 126,
      "ęęĔ": 127,
      "ęęĞ": 128,
      "ėęęĚ": 129,
      "ęĔ": 130,
      "ęęĘęęęę": 131,
      "ęęęęęęęęęęęę": 132,
      "ěęęĘ": 133,
      "ĀĘ": 134,
      "Āě": 135,
      "ėęęĘ": 136,
      "ęĚě": 137,
      "ĀĚ": 138,
      "ĀĀę": 139,
      "ĀĀĘ": 140,
      "ęĘě": 141,
      "ęěĘ": 142,
      "Ěęęė": 143,
      "Ęęęė": 144,
      "ęĚė": 145,
      "ěęęĚ": 146,
      "ęĘė": 147,
      "Ěęęě": 148,
      "ĀĀĚ": 149,
      "ęęē": 150,
      "Āė": 151,
      "ĀĀė": 152,
      "ęěĚ": 153,
      "ĀĖ": 154,
      "ęėĘ": 155,
      "ĀĜ": 156,
      "ęęĚę": 157,
      "ęęĘę": 158,
      "ęęğ": 159,
      "ęėĚ": 160,
      "Ęęęě": 161,
      "ĀĀě": 162,
      "ęęęĜ": 163,
      "ęęęĖ": 164,
      "ęęęęęęęęęęęęęęęę": 165,
      "ėęęě": 166,
      "ĀĀĖ": 167,
      "Āĝ": 168,
      "ęğ": 169,
      "Ėęęęę": 170,
      "ęęęĘęęęę": 171,
      "ęėė": 172,
      "ĀĞ": 173,
      "ęęĚęęęĚ": 174,
      "ęěęęęę": 175,
      "ęėęęęę": 176,
      "ĚĚ": 177,
      "Āĕ": 178,
      "ĖęęĚ": 179,
      "ęē": 180,
      "ĚĘęęĚ": 181,
      "ěęęė": 182,
      "ĀĀĜ": 183,
      "ęěė": 184,
      "ęěě": 185,
      "ėęęė": 186,
      "ęęĘęĚ": 187,
      "ęęęĘę": 188,
      "ęęĒ": 189,
      "ęĚĚęęęę": 190,
      "ęęęĚęęęę": 191,
      "ęĘęęĚ": 192,
      "ĚęęęęĘ": 193,
      "Ĝęęęę": 194,
      "ęĚĘęęęę": 195,
      "ęėě": 196,
      "ĖęęĘ": 197,
      "ęĚęęĘ": 198,
      "ĀĀĕ": 199,
      "ěęęě": 200,
      "ęĘĘęęęę": 201,
      "ĀĀĔ": 202,
      "ęęęĚę": 203,
      "ĀĀĝ": 204,
      "ĜęęĚ": 205,
      "ěĚ": 206,
      "ĘęęęęĘ": 207,
      "ęĜĘ": 208,
      "ęĚĜ": 209,
      "ęĚęęĚ": 210,
      "ęĖĘ": 211,
      "ĜęęĘ": 212,
      "ěĘ": 213,
      "ęĘĚęęęę": 214,
      "ęĘęęęęĘ": 215,
      "ęĘęęęęĚ": 216,
      "ęĚĖ": 217,
      "ęĘęęĘ": 218,
      "ĘęęęęĚ": 219,
      "ęęęęęęęęęęę": 220,
      "ęĘĖ": 221,
      "ęĚęęęęĘ": 222,
      "ĀĔ": 223,
      "Ėęęě": 224,
      "ĘęęĖ": 225,
      "ęĘĜ": 226,
      "ęĒ": 227,
      "ėĚ": 228,
      "ęěĜ": 229,
      "ęęęĕ": 230,
      "ĀĀĞ": 231,
      "ęĜĚ": 232,
      "ęęęęĘĘ": 233,
      "ĀĀğ": 234,
      "ĘęęĜ": 235,
      "ĚęęĖ": 236,
      "ęę!": 237,
      "ęĜė": 238,
      "ęĚęęęęĚ": 239,
      "ěě": 240,
      "ĕęęęę": 241,
      "ęęĘęęęĘ": 242,
      "ĀĀĒ": 243,
      "ęĖĚ": 244,
      "Āğ": 245,
      "ĀĀē": 246,
      "ėĘ": 247,
      "Ėęęė": 248,
      "Ĝęęė": 249,
      "ĚęęĜ": 250,
      "ęęęĝ": 251,
      "ęėĖ": 252,
      "ęėĜ": 253,
      "ĕęęĘ": 254,
      "ĕęęĚ": 255,
      "ėęęĖ": 256,
      "ĀĀęĀ": 257,
      "ěęęĖ": 258,
      "ĚęęęęĚ": 259,
      "ęĖė": 260,
      "ĀĀĘĀ": 261,
      "ęĖĖ": 262,
      "ęĜě": 263,
      "Ĝęęě": 264,
      "ęęđ": 265,
      "ęęęĘęęĚ": 266,
      "ęĜĜ": 267,
      "ěęęĜ": 268,
      "ėě": 269,
      "ėęęĜ": 270,
      "ĖęęĜ": 271,
      "ĀĀđ": 272,
      "ęęęĘęęĘ": 273,
      "ęĘĚęęęĚ": 274,
      "ĖĚ": 275,
      "ę!": 276,
      "ęęęęĘĚ": 277,
      "ĝęęęę": 278,
      "ęĖęęęę": 279,
      "ęęěęęęę": 280,
      "ęęęĞ": 281,
      "ęĘęĚ": 282,
      "ęĘęĚęęęę": 283,
      "ęęĚĚęęĚ": 284,
      "ęę\"": 285,
      "ęĚęęęęęę": 286,
      "ĀĀěĀ": 287,
      "ęĚęĘ": 288,
      "ĚęęĘę": 289,
      "ěĝ": 290,
      "ĀĀ!": 291,
      "ĕĚ": 292,
      "ęęĘĘęęęę": 293,
      "ęěĖ": 294,
      "ęĖě": 295,
      "ėė": 296,
      "ĜĘ": 297,
      "Ĝě": 298,
      "ęĘĕ": 299,
      "ęĜĖ": 300,
      "ęĜęęęę": 301,
      "ęĕĚ": 302,
      "ĝęęĚ": 303,
      "ęėęęĘ": 304,
      "Āē": 305,
      "ĕęęě": 306,
      "ęđ": 307,
      "ęęėęęęę": 308,
      "ęĝĘ": 309,
      "ęęęĚęęĚ": 310,
      "Ėė": 311,
      "Ėě": 312,
      "ęĚęĘęęęę": 313,
      "ęěęęĘ": 314,
      "ĖĘ": 315,
      "ĜĚ": 316,
      "ĜĜ": 317,
      "ęęĐ": 318,
      "ęėęęĚ": 319,
      "ĕĘ": 320,
      "ę\"": 321,
      "ęĘęĘęęęę": 322,
      "ĀĀ$": 323,
      "ęĝĚ": 324,
      "ęęęĚęęĘ": 325,
      "ęĘęęęęęę": 326,
      "ĕęęė": 327,
      "ęĚĝ": 328,
      "ęęĘĘęęĘ": 329,
      "ĀĀ\"": 330,
      "ęĕĘ": 331,
      "ėęęęęĚ": 332,
      "ėĝ": 333,
      "ęĚĚĘ": 334,
      "ęĘĝ": 335,
      "ęęęęĚĚ": 336,
      "ęęęęęęĚ": 337,
      "ęĚĕ": 338,
      "ęĚęĚ": 339,
      "ęěĝ": 340,
      "ęĚĘęęęĘ": 341,
      "ęęĚęęęęę": 342,
      "ęĕė": 343,
      "ĔęęĚ": 344,
      "ĜęęĖ": 345,
      "ĀĀĐ": 346,
      "ĚęęĚę": 347,
      "ĀĀėĀ": 348,
      "ĖęęĖ": 349,
      "Ěęęęęę": 350,
      "ęĚĚęęęĚ": 351,
      "ęęęęęęęęęęęęę": 352,
      "ęĚęĚęęęę": 353,
      "Ėęęĕ": 354,
      "ĘĘ": 355,
      "ěė": 356,
      "ěĜ": 357,
      "ęěęęĚ": 358,
      "ęęęęęęęęęĘ": 359,
      "ęĘĘęęęĘ": 360,
      "ĀĀĖĀ": 361,
      "Ėĝ": 362,
      "ěĞ": 363,
      "ĝęęĘ": 364,
      "ęęĚĘęęĚ": 365,
      "Ěęęĕ": 366,
      "ęĝė": 367,
      "ěęęęęĚ": 368,
      "ęěĕ": 369,
      "ęęęęęęęęęęęęęęęęęęęę": 370,
      "Ěęęęęęę": 371,
      "ęęęĔ": 372,
      "ęĚĞ": 373,
      "ęĘęĘ": 374,
      "ęĚĘĘęęĘ": 375,
      "Ęęęĕ": 376,
      "ĜĞ": 377,
      "ęęĘĚęęĘ": 378,
      "ĀĀ#": 379,
      "ĀĀĎ": 380,
      "ęėęęęęĚ": 381,
      "ĚĘęęě": 382,
      "ęĚĘĚęęĘ": 383,
      "ĀĀĚĀ": 384,
      "ĕě": 385,
      "ĕęęĖ": 386,
      "Ĝė": 387,
      "ĝęęė": 388,
      "ęęď": 389,
      "ęĚĚĘęęĚ": 390,
      "ęęĚĘęęęę": 391,
      "ěęęęęĘ": 392,
      "Ĝęęĕ": 393,
      "ĠĘ": 394,
      "ĀĀď": 395,
      "ęėĝ": 396,
      "ęęęėęęęę": 397,
      "ĔęęĘ": 398,
      "ĘĚ": 399,
      "ęęĚĚęęęę": 400,
      "ęėĕ": 401,
      "ęęęē": 402,
      "ėęęĝ": 403,
      "ĝě": 404,
      "ĝęęě": 405,
      "ĞĞ": 406,
      "ĠĜ": 407,
      "ęęĘęęęęęęęę": 408,
      "ĚĘęęĘ": 409,
      "ęęĘęęęęę": 410,
      "ęęĚęęęĚę": 411,
      "ĀĀĔĀ": 412,
      "Ĕęęęę": 413,
      "ĖęęĞ": 414,
      "ėĜ": 415,
      "ĝĚ": 416,
      "ęĘėęęęę": 417,
      "Ęęęęęęę": 418,
      "ęęęęęęęęęęęęęęęęęę": 419,
      "ĠĚ": 420,
      "ęĚęĘęęĚ": 421,
      "ęĘęĚęęĚ": 422,
      "ęĖĜ": 423,
      "ĀĀĜĀ": 424,
      "ėĖ": 425,
      "ĝĞ": 426,
      "ęěĚęęęę": 427,
      "ęěęęęęĚ": 428,
      "ęęęęęęęęĚ": 429,
      "ęĚęęęęęęĘ": 430,
      "ęĝĜ": 431,
      "ęĞĘ": 432,
      "ėęęęęĘ": 433,
      "Ęęęĝ": 434,
      "ęěęęęęĘ": 435,
      "Ęęęęęę": 436,
      "ęĝě": 437,
      "ęĘĚĚęęĚ": 438,
      "ĀĚĚ": 439,
      "ĀĀĕĀ": 440,
      "ĕęęĕ": 441,
      "ėęęĕ": 442,
      "Ġĝ": 443,
      "ęęėęęęĘ": 444,
      "ęęěęęęĚ": 445,
      "ęĜĕ": 446,
      "ęĜĝ": 447,
      "ęĚęęęęę": 448,
      "ęęęęęęęęęęęęęęę": 449,
      "ĀĀĝĀ": 450,
      "ĔĖ": 451,
      "ĞĚ": 452,
      "ęęĘĚęęęę": 453,
      "ęĚęęęęęęĚ": 454,
      "ęĘęęęęę": 455,
      "ĘęęĘę": 456,
      "ęĘĘĚęęĘ": 457,
      "ęĚĚĚęęęę": 458,
      "Ĕęęė": 459,
      "Ġė": 460,
      "ęę#": 461,
      "ęęĘęęęĚ": 462,
      "ęěĞ": 463,
      "ęęęęęęęęęęęĚ": 464,
      "ęĕĖ": 465,
      "ęĘĚĚęęęę": 466,
      "ęĘėęęęĘ": 467,
      "ęĚĚęęęęę": 468,
      "ĒĘ": 469,
      "ĕęęĜ": 470,
      "ę#": 471,
      "ěĕ": 472,
      "ěęęĕ": 473,
      "ęęĚęęęě": 474,
      "ĀĀ%": 475,
      "ęĚĚĘęęęę": 476,
      "ĀĀĞĀ": 477,
      "Ĕęęě": 478,
      "ęĐ": 479,
      "ğĚ": 480,
      "ęĘęĘęęĚ": 481,
      "ĀĀ'": 482,
      "ĀĀ)": 483,
      "ęęęęęęęęęęęĘ": 484,
      "ęĘęęęęęęĚ": 485,
      "ęĕě": 486,
      "ęĕęęęę": 487,
      "ęĚěęęęĚ": 488,
      "ĀĀĘĀĘ": 489,
      "ĔĘ": 490,
      "Ėęęĝ": 491,
      "ęĘĚĘęęĚ": 492,
      "ęęĚęęĘ": 493,
      "ęėęęęęĘ": 494,
      "ĚęęęęęęĚ": 495,
      "ęĖĕ": 496,
      "ęĘęęęęęęĘ": 497,
      "ęĔĘ": 498,
      "ĀĀğĀ": 499,
      "ĕĞ": 500,
      "ĖĖ": 501,
      "ęĚěęęęę": 502,
      "ęĘęęęĘ": 503,
      "ęęěę": 504,
      "ęĜęęĘ": 505,
      "ęĖĝ": 506,
      "ęĚĘĘęęęę": 507,
      "ęĞĚ": 508,
      "ĀěĘ": 509,
      "ēĘ": 510,
      "ĖĜ": 511,
      "ėęęĞ": 512,
      "ěęęęĚ": 513,
      "ĝĜ": 514,
      "ĝęęĖ": 515,
      "ğĝ": 516,
      "ęĘē": 517,
      "ęĘęě": 518,
      "ęĘęĚęęĘ": 519,
      "ęĖĔ": 520,
      "ęĝĖ": 521,
      "ęęęěę": 522,
      "ęĞě": 523,
      "ęęĘęęęęęęĘ": 524,
      "ĚęęęęĘĘ": 525,
      "ĕĕ": 526,
      "ĖęęęęĚ": 527,
      "ėĞ": 528,
      "ėęęĔ": 529,
      "ĚĚęęęę": 530,
      "ğĘ": 531,
      "ĠĞ": 532,
      "ęęęęęęĘ": 533,
      "ęĘęęė": 534,
      "ĀĀ&": 535,
      "ęėęęě": 536,
      "ęęěĚęęĚ": 537,
      "ĚęęęęęęĘ": 538,
      "ĀĀĚĀĘ": 539,
      "Ēē": 540,
      "ĔĚ": 541,
      "ĔęęĖ": 542,
      "Ġě": 543,
      "ęęĎ": 544,
      "ęĚĔ": 545,
      "ęĚęęė": 546,
      "ęĘĞ": 547,
      "ęėĚęęęę": 548,
      "ęęėĚęęĘ": 549,
      "ęęěĘęęĚ": 550,
      "ĘęęęęęęĚ": 551,
      "ęĚĚĚęęĚ": 552,
      "ęęęğ": 553,
      "ĀĀęĀĘ": 554,
      "ĕĜ": 555,
      "ĖĞ": 556,
      "Ęē": 557,
      "ğě": 558,
      "ğĜ": 559,
      "ğęęĘ": 560,
      "Ġ!": 561,
      "ęėĞ": 562,
      "ęęęęęęęęĘ": 563,
      "ĘęęęęęĚ": 564,
      "ęĘĘĚęęęę": 565,
      "ęĘĘęęęė": 566,
      "ęęĚęęęęęęĚ": 567,
      "ěęęĚę": 568,
      "ĀĖĘ": 569,
      "Ĕě": 570,
      "ĔĞ": 571,
      "ėęęęĘ": 572,
      "ĚĚęęĚ": 573,
      "ĜęęĜ": 574,
      "Ğęęęę": 575,
      "ęĚęęě": 576,
      "ęĚęĘęęĘ": 577,
      "ęĘěęęęę": 578,
      "ęęęęęęęęęĚ": 579,
      "Ęęęęęě": 580,
      "ĘęęęęęęĘ": 581,
      "ęĖęęĘ": 582,
      "ęĘęęęęě": 583,
      "ęĝęęęę": 584,
      "ĚĘęęĚę": 585,
      "ėęęęęė": 586,
      "ęĚěĘęęĚ": 587,
      "ĀĚĜ": 588,
      "ęĘěĚęęĚ": 589,
      "ĀĀĚĀĖ": 590,
      "ĀĀėĀĘ": 591,
      "ĀĀēĀ": 592,
      "!ğ": 593,
      "ėĘęęĘ": 594,
      "ĚęęęĚ": 595,
      "ĜęęęęĘ": 596,
      "Ġĕ": 597,
      "ęę$": 598,
      "ęĘĔ": 599,
      "ĀĀ(": 600,
      "ęĖęęĚ": 601,
      "ęĝĝ": 602,
      "ĚĘĘęęęę": 603,
      "ĚĘęęĜ": 604,
      "ęĘĘěęęĘ": 605,
      "ęęęėęęĘ": 606,
      "ęĔė": 607,
      "ĀĀęĀě": 608,
      "ĀėĘ": 609,
      "ĒĖ": 610,
      "ēęęęę": 611,
      "ĕĝ": 612,
      "ėĕ": 613,
      "ĘĞ": 614,
      "Ěĝ": 615,
      "Ěęęĝ": 616,
      "ĝĝ": 617,
      "ğęęęę": 618,
      "Ġęęęę": 619,
      "ęěęęė": 620,
      "Ěęęęęě": 621,
      "ęĚęęęęě": 622,
      "ĀĀĘĀě": 623,
      "ĒĚ": 624,
      "Ĕĝ": 625,
      "Ĕęęĝ": 626,
      "ĘĜ": 627,
      "ę$": 628,
      "ěęęĔ": 629,
      "ğĞ": 630,
      "ęěĘęęęę": 631,
      "ęĜęęĚ": 632,
      "ęĝĕ": 633,
      "ęĕĜ": 634,
      "ęĚĘėęęĘ": 635,
      "ęĘĘĘęęĘ": 636,
      "ęęęėęęĚ": 637,
      "ęęęěęęęę": 638,
      "ęĞĖ": 639,
      "ęĞė": 640,
      "ĀĀęĀĕ": 641,
      "ĀĀėĀě": 642,
      "ēđ": 643,
      "ēė": 644,
      "ĖęęęęĘ": 645,
      "ėĘęęęę": 646,
      "ęĚęė": 647,
      "ęĚėęęęę": 648,
      "ęĚęĚęęĘ": 649,
      "ęĚęĚęęĚ": 650,
      "ęĘęěęęęę": 651,
      "ęęėĘęęĘ": 652,
      "ęęėęęęė": 653,
      "ęęęĚęęęęĘ": 654,
      "ęĘĚĘęęęę": 655,
      "ęęęĒ": 656,
      "ĘęęĚę": 657,
      "ėęęĚę": 658,
      "ęęĘęęęęęę": 659,
      "ĀĚė": 660,
      "ęĘěęęęĚ": 661,
      "ęĘěĘęęĚ": 662,
      "ęěĘĘęęĘ": 663,
      "ĀĀėĀĜ": 664,
      "ĀĀėĀĝ": 665,
      "ęĚĘęęęęę": 666,
      "!ě": 667,
      "ēĖ": 668,
      "ēĚ": 669,
      "ēĜ": 670,
      "ēęęĚ": 671,
      "ēęęė": 672,
      "ēęęĜ": 673,
      "ĖęęęĘ": 674,
      "Ėęęğ": 675,
      "ěęęĝ": 676,
      "ĜęęęęĚ": 677,
      "Ġğ": 678,
      "ęĚęęęęęęęęęęęę": 679,
      "ęĚęĘęęęęĚ": 680,
      "ęĘęęě": 681,
      "ęĘęęĘę": 682,
      "ęĘęĘęęĘ": 683,
      "ęėĔ": 684,
      "ęėęĘęęęę": 685,
      "ęęėę": 686,
      "ęĜĔ": 687,
      "ęĜĞ": 688,
      "ęĚęęęęęęĚęęęę": 689,
      "ęĝĞ": 690,
      "ĘęęĘęĚĘ": 691,
      "ėęęęęĚĚ": 692,
      "ęĚĚęęęĘ": 693,
      "ęęęěęęĚ": 694,
      "ęĔě": 695,
      "ĀĀĚĀě": 696,
      "ęğĚ": 697,
      "ęĘĘęęęęę": 698,
      "ęĘĚęęęęę": 699,
      "ĒĒ": 700,
      "Ēĕ": 701,
      "ēĞ": 702,
      "Ĕė": 703,
      "ĔĜ": 704,
      "ĞęęĚ": 705,
      "ęęĘĘęęė": 706,
      "ęėęęė": 707,
      "ęęęĘęęė": 708,
      "ęĚĘęęęė": 709,
      "ęęęđ": 710,
      "ęĔĜ": 711,
      "ĀĀęĀĜ": 712,
      "ĀĀĘĀĕ": 713,
      "ęĚėęęęĘ": 714,
      "ęėĚęęęĚ": 715,
      "ĀĀěĀě": 716,
      "ęęęęęęęęęęęęęęęęęęęęęęęę": 717,
      "ĀĀĒĀ": 718,
      "ĀĀ\"Ā": 719,
      "!Ĝ": 720,
      "đė": 721,
      "ĒĐ": 722,
      "ĖĐ": 723,
      "ĝĘ": 724,
      "ĝęęĜ": 725,
      "ĞęęĘ": 726,
      "ĠĀ": 727,
      "ĠĖ": 728,
      "ęĚĚęęĚ": 729,
      "ęĚęęĚę": 730,
      "ęĘęęęęęęęęęęęę": 731,
      "ęęĚęęęĘ": 732,
      "ęěĔ": 733,
      "ęėĘęęęę": 734,
      "ęęęĘęęě": 735,
      "ęęęĘęęęęĘ": 736,
      "ęĜęęęęĘ": 737,
      "ęĚęęęęė": 738,
      "ęĘĘĘęęęę": 739,
      "ęĘĘęęęĚ": 740,
      "ęęę!": 741,
      "ĀĀęĀĝ": 742,
      "ĀĀĘĀĖ": 743,
      "ęĚėĘęęĘ": 744,
      "ĀĀĚĀĜ": 745,
      "ĀėĚ": 746,
      "ĀĀěĀĘ": 747,
      "ęęęęęęęęęęęęęęęęęęę": 748,
      "ęęĚęęęĚęęęę": 749,
      "ĘęęęęĘĘ": 750,
      "ęĚęęęęĘę": 751,
      "đĚ": 752,
      "ēęęĘ": 753,
      "ĔęęĜ": 754,
      "ĕęęĝ": 755,
      "ĘęęĔ": 756,
      "ęĀĀ": 757,
      "ĚĘęęęę": 758,
      "Ĝĝ": 759,
      "ĠĀĀ": 760,
      "ęĘğ": 761,
      "ęĘęęęęęęęę": 762,
      "ęęĚėęęĚ": 763,
      "ęėęĚęęęę": 764,
      "Ęęęęęė": 765,
      "Ěęęęęė": 766,
      "ęęĖęęęę": 767,
      "ĀĀĘĀĜ": 768,
      "ĀĀĚĀĚ": 769,
      "ĀĀĚĀė": 770,
      "ĀĀ#Ā": 771,
      "!Ě": 772,
      "đĖ": 773,
      "Ēė": 774,
      "Ēęęě": 775,
      "ēęęě": 776,
      "Ĕĕ": 777,
      "ĕĖ": 778,
      "ėęęğ": 779,
      "ĘĘęęęę": 780,
      "ĜĖ": 781,
      "Ġ#": 782,
      "ęĚęĘęęęęĘ": 783,
      "ęĘęęęĘę": 784,
      "ęėē": 785,
      "ęėęĚęęĚ": 786,
      "ęęęęęęęęęęĚ": 787,
      "ęęěĚęęě": 788,
      "ęęęĚęęě": 789,
      "ĚęęęęęęĘęęęę": 790,
      "ęĖęęė": 791,
      "ęęĜęęęĚ": 792,
      "ĚĘęęęĘ": 793,
      "ęĚĘęęęĘę": 794,
      "ęĘĘęęęĘę": 795,
      "ęęęėę": 796,
      "ėęęĘę": 797,
      "ĀĀęĀĖ": 798,
      "ęĘėĘęęĘ": 799,
      "ĀĀĖĀĚ": 800,
      "ĀĀĖĀė": 801,
      "ĀĞĚ": 802,
      "ĀĀ$Ā": 803,
      "\"ě": 804,
      "\"Ğ": 805,
      "đĒ": 806,
      "Ēě": 807,
      "Ĕęęĕ": 808,
      "ĖęęĔ": 809,
      "ğęęě": 810,
      "Ġę": 811,
      "ęę%": 812,
      "ęĚē": 813,
      "ęĚęęęĚ": 814,
      "ęĘĚęęĘ": 815,
      "ęęĘęęĚ": 816,
      "ęęĚĘęęě": 817,
      "ęěęĘęęĚ": 818,
      "ęěęĚęęĘ": 819,
      "ęęėęęĘ": 820,
      "ęęęĚęęęęęęęę": 821,
      "ęęęĚęęė": 822,
      "ĚęęęęęęĚęęęę": 823,
      "ęęęĘęęęęĚ": 824,
      "ęęĜęęęę": 825,
      "ęĚęęęęęęęĚ": 826,
      "ĚĘĘęęĘ": 827,
      "ęĚĘėęęęę": 828,
      "ęĘĚęęęě": 829,
      "ęĔĚ": 830,
      "ęęĘęęęęęęĚ": 831,
      "ěęęĘę": 832,
      "ĀĀęĀĚ": 833,
      "ĀĀęĀė": 834,
      "ĀĀĘĀĝ": 835,
      "ęěĚĘęęęę": 836,
      "ęėĘĚęęęę": 837,
      "ĀĀĖĀĘ": 838,
      "ĀĕĘ": 839,
      "ĀĀĜĀĘ": 840,
      "!\"": 841,
      "!ė": 842,
      "ĒĜ": 843,
      "ēęęĕ": 844,
      "ĔĔ": 845,
      "ĕė": 846,
      "ĖęęĘęĚ": 847,
      "ėęęęė": 848,
      "ĚĞ": 849,
      "ěę": 850,
      "ěĘęęęę": 851,
      "ěĘęęĚ": 852,
      "ĝĖ": 853,
      "ęĚęęęęęęęę": 854,
      "ęĚęėęęęę": 855,
      "ęęĘęęęė": 856,
      "ęęĘĚęęė": 857,
      "ęęĚęęĚ": 858,
      "ĀĀ*": 859,
      "ĚęęęęęĘ": 860,
      "ęęĖĘęęĘ": 861,
      "ęĘęęęęęęě": 862,
      "ęĘęęęęęęęĘ": 863,
      "ęĕĕ": 864,
      "ęĕĞ": 865,
      "ĚĘęęė": 866,
      "ęĚĘĘęęė": 867,
      "ęĘĚęęęĘ": 868,
      "ęĚĚėęęęę": 869,
      "ęĚĚęęęě": 870,
      "ęĞĕ": 871,
      "ĀěĞ": 872,
      "ęĚěĚęęĚ": 873,
      "ęěĘĘęęęę": 874,
      "ĀĀėĀė": 875,
      "ĀĀėĀĖ": 876,
      "ęěĚėęęęę": 877,
      "ęėĘęęęĘ": 878,
      "ęęęęęęęęęęęęęęęęęęęęęęęęęęęęęęęę": 879,
      "ĀĀĜĀĖ": 880,
      "ĀĀĕĀĘ": 881,
      "ĀĀđĀ": 882,
      "ĀĀ!Ā": 883,
      "!Ğ": 884,
      "\"Ě": 885,
      "ĐĘ": 886,
      "ĒĞ": 887,
      "Ēęęęę": 888,
      "ĕęęęęĚ": 889,
      "ĕęęĔ": 890,
      "ĘęęĞ": 891,
      "Ěęęęęęęęę": 892,
      "ĚęęĔ": 893,
      "ěĚęęĚ": 894,
      "Ĝęęĝ": 895,
      "ĝęęĕ": 896,
      "ęĚğ": 897,
      "ęĚęęĜ": 898,
      "ęĚęėęęĘ": 899,
      "ęĘĘęęĘ": 900,
      "ęęĘěęęĘ": 901,
      "ęęĚęęęęęęęęęęęę": 902,
      "ĀĀ+": 903,
      "ęěęĘęęęę": 904,
      "ęęěęęĘ": 905,
      "ęęęĚęęęęĚ": 906,
      "ęĖęęęęĘ": 907,
      "ęĝĔ": 908,
      "ęĕĝ": 909,
      "ęĞĜ": 910,
      "ěęęęęė": 911,
      "ęęĚęęęęęęĘ": 912,
      "ęĔĖ": 913,
      "ĀěĚ": 914,
      "ęĚěĘęęě": 915,
      "ĀĀĘĀė": 916,
      "Ěęęėę": 917,
      "ęĚėĚęęĘ": 918,
      "ęĘėĚęęĘ": 919,
      "Ěęęěę": 920,
      "ĀĀėĀĚ": 921,
      "ęėĘĚęęĘ": 922,
      "ęęęĖęęęę": 923,
      "ęęęĖęęĚ": 924,
      "ĀĀĖĀĜ": 925,
      "ęęęĘęęęęę": 926,
      "ĀĀĜĀĚ": 927,
      "ĀĀĜĀė": 928,
      "ęĚęęęęĚę": 929,
      "ĕĚęęĕ": 930,
      "ĀĀĐĀ": 931,
      "!Ę": 932,
      "\"!": 933,
      "ĒęęĚ": 934,
      "ĒęęĜ": 935,
      "ēĔ": 936,
      "ēě": 937,
      "ĔĐ": 938,
      "Ĕđ": 939,
      "ĖĘęęĘ": 940,
      "ėęęē": 941,
      "ėęęęęĘĘ": 942,
      "ěęęĞ": 943,
      "ěęęē": 944,
      "ĝĕ": 945,
      "ĝğ": 946,
      "ęĘęėęęęę": 947,
      "ĀĀ-": 948,
      "ęěğ": 949,
      "ęěěęęęę": 950,
      "ęėęě": 951,
      "ęėęęĜ": 952,
      "ęėęĚęęĘ": 953,
      "ęėęěęęĚ": 954,
      "ęęėĘęęęę": 955,
      "ęęěęęęě": 956,
      "ĚęęęęĚĘ": 957,
      "ęĜęęęęĚ": 958,
      "ęĖĞ": 959,
      "ęĖğ": 960,
      "ęęĖęęęĘ": 961,
      "ęĝęęĘ": 962,
      "ęĝęęĚ": 963,
      "ęĕĔ": 964,
      "ęĕęęĘ": 965,
      "ęĕęęĚ": 966,
      "ęĚĘęęĚ": 967,
      "ęĚĘĚęęĚ": 968,
      "ęĚĘĘęęĚ": 969,
      "ęĚĘěęęĘ": 970,
      "ęĘĚěęęĚ": 971,
      "ęĘĚęęęĚę": 972,
      "ęĚĚĚęęĘ": 973,
      "ęĚĚėęęĚ": 974,
      "ęĞĝ": 975,
      "ęĞęęęę": 976,
      "ęęĚęęęęęę": 977,
      "ęĚěęęęě": 978,
      "ęěĘėęęęę": 979,
      "Ęęęėę": 980,
      "ĀĀĚĀĝ": 981,
      "ĀĀĚĀĞ": 982,
      "ĀĀĚĀĕ": 983,
      "ĀĀĚĀĔ": 984,
      "ęěĚęęęĚ": 985,
      "ęėĘęęęĚ": 986,
      "ęėĘĘęęĘ": 987,
      "ĀĀěĀė": 988,
      "ĀĀěĀĖ": 989,
      "ĀĀěĀĝ": 990,
      "ĀĀĖĀĖ": 991,
      "ęğĜ": 992,
      "ęęęĘęęęęęęĚ": 993,
      "ęėęęęęė": 994,
      "ĚĚĘęęęę": 995,
      "ĀĀĜĀě": 996,
      "ęěėėęęĘ": 997,
      "ęęęĚęęęęęęĚ": 998,
      "ĀĀĔĀĘ": 999,
      "ĀĀĝĀĘ": 1000,
      "ĘęęęęĘĚ": 1001,
      "ęĘęęęęĘę": 1002,
      "ĀĀĞĀĘ": 1003,
      "ęĘęĚęęě": 1004,
      "!ĀĀ": 1005,
      "\"ğ": 1006,
      "ĐĐ": 1007,
      "Ēđ": 1008,
      "ĒĔ": 1009,
      "ĒęęĘ": 1010,
      "ēğ": 1011,
      "ĖĚęęĘ": 1012,
      "ĖęęĘę": 1013,
      "ėęę": 1014,
      "ėĚęęęę": 1015,
      "ęĎ": 1016,
      "ęď": 1017,
      "ěęęęęĘĘ": 1018,
      "ĜęęĞ": 1019,
      "ĝė": 1020,
      "Ğ!": 1021,
      "ĞĘ": 1022,
      "ĞęęĜ": 1023,
      "ęęęęę": 1024,
      "ęĚęě": 1025,
      "ęĘęęĖ": 1026,
      "ęĘęĔ": 1027,
      "ęĘęęĚę": 1028,
      "ęęĘĘęęĚ": 1029,
      "ęęĘęęęĘę": 1030,
      "ęęĚĚęęĘ": 1031,
      "ęęĚěęęĚ": 1032,
      "ęěęęęĚ": 1033,
      "ęěėęęęę": 1034,
      "ęěĚĘęęĚ": 1035,
      "ęęęęęęęęęęęęĚ": 1036,
      "ęęėěęęĘ": 1037,
      "ĚęęęęĚĚ": 1038,
      "ęęęĘęęĚę": 1039,
      "ęĜęęė": 1040,
      "ęĜęęě": 1041,
      "ęĖęęě": 1042,
      "ęĖęęęęĚ": 1043,
      "ęęĜęęęě": 1044,
      "ęĕęęĜ": 1045,
      "ęęęęĘě": 1046,
      "ęĘĘĘęęĚ": 1047,
      "ęĘĚěęęęę": 1048,
      "ęęĚęęęęęęĚęęęę": 1049,
      "ęĔĕ": 1050,
      "ęęęęęęęęęęęęęĚ": 1051,
      "ęĘěĚęęě": 1052,
      "ęěĘĚęęĘ": 1053,
      "ęěĘėęęĘ": 1054,
      "ęĚėęęęė": 1055,
      "ĀĀėĀĕ": 1056,
      "ęěĚęęęĘ": 1057,
      "ęėĘĚęęĚ": 1058,
      "ĀĜĘ": 1059,
      "ĀĀěĀĚ": 1060,
      "ĀĀĖĀĝ": 1061,
      "ĀĀĖĀĕ": 1062,
      "ęęęĘęęęęęęĘ": 1063,
      "ęėėęęęĘ": 1064,
      "ĀĞĘ": 1065,
      "ęēĘ": 1066,
      "ęěėĚęęĘ": 1067,
      "ęěėĘęęĘ": 1068,
      "ęėěęęęĚ": 1069,
      "ĀĀĕĀĚ": 1070,
      "ĀğĘ": 1071,
      "ęęĚĚęęĚę": 1072,
      "ęęęęęęęęęęęęęęęęęęęęęę": 1073,
      "ĀĀ'Ā": 1074,
      "\"ĕ": 1075,
      "#!": 1076,
      "%ě": 1077,
      "Đĕ": 1078,
      "đĞ": 1079,
      "đęęė": 1080,
      "ēę": 1081,
      "ēęęĖ": 1082,
      "ēęęĝ": 1083,
      "ēęęĔ": 1084,
      "ĕď": 1085,
      "ĖĒ": 1086,
      "ĖĘęęęę": 1087,
      "ėěęęĘ": 1088,
      "ėęę!": 1089,
      "Ěė": 1090,
      "ĚĜ": 1091,
      "ĚęęĞ": 1092,
      "ěĖ": 1093,
      "ěěęęęę": 1094,
      "ĜęęĘęĚ": 1095,
      "ĞĜ": 1096,
      "Ğęęė": 1097,
      "ğ!": 1098,
      "ğğ": 1099,
      "ğęęĚ": 1100,
      "ğęęė": 1101,
      "ĠęęĜ": 1102,
      "ęĚęęĖ": 1103,
      "ęĘĒ": 1104,
      "ęęĘĘ": 1105,
      "ęęĘĚęęĚ": 1106,
      "ĀĀą": 1107,
      "ĀĀĈ": 1108,
      "ęěĒ": 1109,
      "ęěĚĘ": 1110,
      "ęėęęęĘ": 1111,
      "ęėėęęęę": 1112,
      "ęęęęęęęęęęęęĘ": 1113,
      "ęęęęęęęęĘĚ": 1114,
      "ęęėėęęĘ": 1115,
      "ęęėĚęęė": 1116,
      "ęęęĘęęĘę": 1117,
      "ęĜē": 1118,
      "ęĖē": 1119,
      "ęĖĘęęęę": 1120,
      "ęĚęęęęęęęĚęęęę": 1121,
      "ęĘęęęęė": 1122,
      "ęĘęęęęęęĘęęęę": 1123,
      "ęĝğ": 1124,
      "ęĕğ": 1125,
      "ęĚĘęęęĚ": 1126,
      "ęĚĘĘęęęęĚ": 1127,
      "ęĘĘĚęęĚ": 1128,
      "ęĘĘěęęĚ": 1129,
      "ęĘĚĚęęĘ": 1130,
      "ęĚĚėęęě": 1131,
      "ęęęęęęęęęęęęęĘęęęę": 1132,
      "Āěĕ": 1133,
      "ĀĀĘĀĞ": 1134,
      "ĀĀĘĀĔ": 1135,
      "ęĘěěęęĚ": 1136,
      "ęěĘęęęĘ": 1137,
      "ęĚėĘęęęę": 1138,
      "ęĚėėęęĘ": 1139,
      "ĀĀĚĀğ": 1140,
      "ęěĚėęęĚ": 1141,
      "ęęęĜęęęę": 1142,
      "ęęęĜęęĚ": 1143,
      "ęğęęęę": 1144,
      "Ėęęęęė": 1145,
      "ĀĀĜĀĜ": 1146,
      "ęěěĘęęě": 1147,
      "ĚęęęęĘĚ": 1148,
      "ĀĀĕĀĖ": 1149,
      "ĀĀĕĀĜ": 1150,
      "ĀĀĕĀĝ": 1151,
      "ĀĀĔĀė": 1152,
      "ĀĀĝĀĕ": 1153,
      "ěĚęęĜ": 1154,
      "ĀĀĞĀĖ": 1155,
      "ęĜėĘęęė": 1156,
      "ĚęęĜę": 1157,
      "ęĘęĚęęĚę": 1158,
      "ĀĀ%Ā": 1159,
      "ęęęęęęęęęęęęęęęęęęęęęęęęę": 1160,
      "!!": 1161,
      "ĐĚ": 1162,
      "đđ": 1163,
      "đĕ": 1164,
      "đĘ": 1165,
      "đĜ": 1166,
      "ĒęęĖ": 1167,
      "ĔęęĔ": 1168,
      "ĕęę": 1169,
      "Ėĕ": 1170,
      "ėĎ": 1171,
      "ėĚęęĘ": 1172,
      "ę&": 1173,
      "Ěęęğ": 1174,
      "ěĚęęęę": 1175,
      "ěėęęĚ": 1176,
      "ĜęęęĚ": 1177,
      "Ĝęęęě": 1178,
      "ĜĘęęĜ": 1179,
      "ğė": 1180,
      "ĠęęĚ": 1181,
      "ęĚęĚęęęęĚ": 1182,
      "ęĚęėęęĚ": 1183,
      "ęĘęĚęęęęĘ": 1184,
      "ęĘęĚęęęęĚ": 1185,
      "ęĘęěęęĚ": 1186,
      "ęĘĚĘęęě": 1187,
      "ęęĘėęęęę": 1188,
      "ęęĘėęęĘ": 1189,
      "ęęĘęęęĘęęęę": 1190,
      "ęęĚěęęęę": 1191,
      "ĀĀć": 1192,
      "ęěęĚęęęę": 1193,
      "ęěęĘęęĘ": 1194,
      "ęěęėęęĚ": 1195,
      "ęěĚĘęęě": 1196,
      "ęėęęĖ": 1197,
      "ęėĘęęĘ": 1198,
      "ęėĚĘęęĚ": 1199,
      "ęėęĘęęĘ": 1200,
      "ęęęęęęęęĚęęęę": 1201,
      "ęęėĘ": 1202,
      "ęęěėęęě": 1203,
      "ĘęęęęĚĘ": 1204,
      "ĚęęęęěĚ": 1205,
      "ęĜĘęęęę": 1206,
      "ęĕē": 1207,
      "ęĘĘĘęęė": 1208,
      "ęĘĘĚęęĘę": 1209,
      "ėęęęęĜ": 1210,
      "ęĘĚėęęĚ": 1211,
      "ęĘĚĚęęě": 1212,
      "ęęęěęęĘ": 1213,
      "ęĞĔ": 1214,
      "ėęęĚęėĚ": 1215,
      "ęĔĔ": 1216,
      "ęęĘęęęęęęĘęęęę": 1217,
      "ęęęęęęęęęęęęęĚęęęę": 1218,
      "ĀĀĘĀĚ": 1219,
      "ęĘěėęęĚ": 1220,
      "ęĘěĘęęě": 1221,
      "ęĚėĚęęė": 1222,
      "ęĘėěęęĘ": 1223,
      "ęęēęĝ": 1224,
      "ĀĀėĀĞ": 1225,
      "ęėĚĚęęĚ": 1226,
      "ĀĀěĀĜ": 1227,
      "ęğė": 1228,
      "ęğĘ": 1229,
      "ęğĝ": 1230,
      "ĀĞė": 1231,
      "ęėęęęęě": 1232,
      "ĀĀĔĀě": 1233,
      "ĀĀĔĀĜ": 1234,
      "ĀĀĝĀĜ": 1235,
      "ĘęęęęĘęĚęęęę": 1236,
      "ęĚĜęęęĚ": 1237,
      "ęĚĖĘęęĘ": 1238,
      "ĀĀĞĀė": 1239,
      "ęęęęĘĘĚęęęę": 1240,
      "ĀĀğĀĘ": 1241,
      "ĀĀēĀĘ": 1242,
      "ĀĀēĀĚ": 1243,
      "ęĖėęęęĘ": 1244,
      "ĀĀđĀĜ": 1245,
      "ĀĀ!ĀĘ": 1246,
      "ėĝęęė": 1247,
      "ęĚĚĘęęĚę": 1248,
      "ęĚęĚęęė": 1249,
      "ĀĀĎĀ": 1250,
      "ĀĀ(Ā": 1251,
      "\"ĝ": 1252,
      "\"ĀĀ": 1253,
      "ďĖ": 1254,
      "ďęęĚ": 1255,
      "Đė": 1256,
      "ĐĜ": 1257,
      "đē": 1258,
      "đęęĚ": 1259,
      "ĒĎ": 1260,
      "Ēęęė": 1261,
      "ēĎ": 1262,
      "ēĕ": 1263,
      "Ĕęę": 1264,
      "ĕęęęęĘ": 1265,
      "ĕęęĒ": 1266,
      "Ėď": 1267,
      "ėęęęęĘĚ": 1268,
      "ĘĚęęęę": 1269,
      "ěęę": 1270,
      "ěěęęĚ": 1271,
      "ěęęęęĘĚ": 1272,
      "ĜĚęęĚ": 1273,
      "ĜęęĘę": 1274,
      "Ĝęęğ": 1275,
      "ĝęęĝ": 1276,
      "Ğĕ": 1277,
      "Ğęęĝ": 1278,
      "ğĀĀ": 1279,
      "ęęęęė": 1280,
      "ęĚęęĘę": 1281,
      "ęĚęĚęęęęĘ": 1282,
      "ęĚęěęęĘ": 1283,
      "ęĘęęęęęęęęęęę": 1284,
      "ęĘęěęęĘ": 1285,
      "ęĘęėęęĚ": 1286,
      "ęĘĚĘęęĘ": 1287,
      "ęęĚĘ": 1288,
      "ęęĚĘęęĘ": 1289,
      "ęęĚĚęęě": 1290,
      "ęęĚĖęęĚ": 1291,
      "ęěē": 1292,
      "ęěęėęęęę": 1293,
      "ęėĚęęĘ": 1294,
      "ęėěęęęę": 1295,
      "ęęęęęęęęĘęęęę": 1296,
      "ęęėĚęęęę": 1297,
      "ęęėěęęė": 1298,
      "ęęěĘęęęę": 1299,
      "ęęěĘęęě": 1300,
      "ĚęęęęęęęĚ": 1301,
      "ęęęĘęęĖ": 1302,
      "ęĜğ": 1303,
      "ęĜĚęęęę": 1304,
      "ęĜęĘęęĘ": 1305,
      "ęęĖęęęė": 1306,
      "ęĚęęęęęęĜ": 1307,
      "ęĘęęęęęęęĚ": 1308,
      "ĚĘęęĞ": 1309,
      "ęĚĘĚęęė": 1310,
      "ęĘĘėęęęę": 1311,
      "ęĘĘěęęęę": 1312,
      "ęĘĘĚęęė": 1313,
      "ęĘĚĖęęĚ": 1314,
      "ęĚĚěęęęę": 1315,
      "ęĚĚęęęĜ": 1316,
      "ęęęĐ": 1317,
      "ęęęęĚė": 1318,
      "ęĞğ": 1319,
      "ęĞęęĘ": 1320,
      "ęĔĞ": 1321,
      "ĀěĖ": 1322,
      "Āěė": 1323,
      "ęĚěĘęęęę": 1324,
      "ęĘėĚęęė": 1325,
      "ęěĚĚęęęę": 1326,
      "ęěĚĚęęĚ": 1327,
      "ęěĚĚęęĘ": 1328,
      "ęěĚěęęĚ": 1329,
      "ęėĚęęęě": 1330,
      "ęęęĜęęĘ": 1331,
      "ęėėęęęė": 1332,
      "ĀĞğ": 1333,
      "ĚĚĚęęęę": 1334,
      "ĀĕĚ": 1335,
      "ęěėęęęĘ": 1336,
      "ęěěęęęĚ": 1337,
      "ęěěėęęĚ": 1338,
      "ęęĘęĚĜ": 1339,
      "ĚęęęęĘęĚęęęę": 1340,
      "ęėěĚęęĚ": 1341,
      "ĀĀĔĀĚ": 1342,
      "ĀĀĔĀĞ": 1343,
      "ĀĀĝĀė": 1344,
      "ĀĀĝĀĖ": 1345,
      "ĀĀĝĀĞ": 1346,
      "ęĜĘĘęęĘ": 1347,
      "ęĚĜėęęĚ": 1348,
      "ęĚĖęęęĘ": 1349,
      "ęĘĖęęęĘ": 1350,
      "ęĘĜėęęĚ": 1351,
      "ęěĜęęęĚ": 1352,
      "ęėĜėęęĚ": 1353,
      "ęĚęĘęęě": 1354,
      "ęęęęęęęęęĘę": 1355,
      "ęĘęĘęęě": 1356,
      "ĀĀ)Ā": 1357,
      "ĀĀ&Ā": 1358,
      "\"#": 1359,
      "\"ė": 1360,
      "\"Ĝ": 1361,
      "#Ğ": 1362,
      "Ďė": 1363,
      "ĐĖ": 1364,
      "đęęĘ": 1365,
      "ēĐ": 1366,
      "ēĝ": 1367,
      "ēęęĞ": 1368,
      "Ĕē": 1369,
      "Ĕęęğ": 1370,
      "ĕęęē": 1371,
      "ĕęęğ": 1372,
      "Ėęęē": 1373,
      "ĖęęęęĘĘ": 1374,
      "ėęĚęęęę": 1375,
      "ĘęęĒ": 1376,
      "Ěě": 1377,
      "Ěęęęęęęęęęęęę": 1378,
      "ěď": 1379,
      "ěęęęě": 1380,
      "ěĚęęě": 1381,
      "ĜĘęęě": 1382,
      "ğ\"": 1383,
      "ğęęĖ": 1384,
      "ĠęęĘ": 1385,
      "Ġęęě": 1386,
      "ĠęęęĞ": 1387,
      "ęęęęęęĚę": 1388,
      "ęĘđ": 1389,
      "ęĘęĘęęęęĘ": 1390,
      "ĀĀ,": 1391,
      "ęěęě": 1392,
      "ęěęėęęĘ": 1393,
      "ęėđ": 1394,
      "ęėğ": 1395,
      "ęėęĘ": 1396,
      "ęėęęĘęĚ": 1397,
      "ęėęĘęęĚ": 1398,
      "ęėęěęęĘ": 1399,
      "ęęęęęęęęĚęęęęęę": 1400,
      "ęęėęęĚ": 1401,
      "ęęėĘęęĚ": 1402,
      "ęęěĚęęęę": 1403,
      "ęęěěęęĚ": 1404,
      "ĘęęęęěĚ": 1405,
      "ęĜĚĘęęĚ": 1406,
      "ęĖęě": 1407,
      "ęĖĚęęęę": 1408,
      "ęĖėęęęę": 1409,
      "ęĖęěęęęę": 1410,
      "ęęĜĚęęě": 1411,
      "ęĚęęęęĘęęęę": 1412,
      "ęĚęęęęĘęęĘ": 1413,
      "ęĚęęęęęęĘęęęęęę": 1414,
      "ęĘęęęęĚęęĘ": 1415,
      "ęĘęęęęĘęęĘ": 1416,
      "ęĝęęě": 1417,
      "ęĕĒ": 1418,
      "ĚĘĚęęęę": 1419,
      "ĚĘęęĖ": 1420,
      "ĚĘĚęęĘ": 1421,
      "ęĚĘĚęęęę": 1422,
      "ęĚĘĖęęęę": 1423,
      "ęĚĘėęęė": 1424,
      "ęĚĘęęęĘęęĘ": 1425,
      "ęęęęĘęĚęęęę": 1426,
      "ęĘĘėęęĚ": 1427,
      "ęĘĘėęęĘ": 1428,
      "ęęęėęęě": 1429,
      "ęĘĚėęęęę": 1430,
      "ęĚĚęęęĚę": 1431,
      "ęĞĞ": 1432,
      "ęęĚęęęęęęĘę": 1433,
      "ęęĚęęęęęĘĘęęęę": 1434,
      "ęĔĝ": 1435,
      "ěęęĘęęĚ": 1436,
      "ęĚěėęęĚ": 1437,
      "ęĚěĖęęĚ": 1438,
      "ęĚěęęęĚę": 1439,
      "ĀĀęĀĔ": 1440,
      "ęĘěęęęě": 1441,
      "ęěĘĚęęĚ": 1442,
      "ęĚėĘęęė": 1443,
      "ęĘėęęęė": 1444,
      "ĀĀěĀĕ": 1445,
      "ĀĀěĀĔ": 1446,
      "ęęęĖę": 1447,
      "ĀĀĖĀĞ": 1448,
      "ęğĞ": 1449,
      "ęėėĘęęęę": 1450,
      "ęėėěęęĘ": 1451,
      "ęěęęęęė": 1452,
      "ĚĚęęęĚ": 1453,
      "ęēĖ": 1454,
      "ęēė": 1455,
      "ęēě": 1456,
      "ęēęęĘ": 1457,
      "ĀĀĜĀĝ": 1458,
      "ĀĀĜĀĞ": 1459,
      "ęěěĚęęĚ": 1460,
      "ęĚĚęęęęĚ": 1461,
      "ęęęĚęęęęęęĘ": 1462,
      "ĚęęęęĘĘęęęę": 1463,
      "ęėěęęęě": 1464,
      "ĀĀĝĀĚ": 1465,
      "ęĜĘėęęĘ": 1466,
      "ęĚĜĘęęĚ": 1467,
      "ęĚĜĘęęě": 1468,
      "ęĘęęęęĚę": 1469,
      "ęĘĖĚęęĘ": 1470,
      "ęĘĖęęęė": 1471,
      "ęĘĜĚęęĚ": 1472,
      "ĀĀĞĀĚ": 1473,
      "ĀĀğĀĜ": 1474,
      "ĀĀğĀĝ": 1475,
      "ĀĀĒĀĘ": 1476,
      "ĀĀĒĀė": 1477,
      "ęĖĚĚęęĚ": 1478,
      "ĀĀēĀĕ": 1479,
      "ĚęęęęĚęĚęęęę": 1480,
      "ĖĚęęĕ": 1481,
      "ęĖęęęęě": 1482,
      "ęęěęęęęęęĚ": 1483,
      "ęĘęĚęęė": 1484,
      "ęĘęĚęęĘę": 1485,
      "ęĚęĘęęĖ": 1486,
      "Ėėęęĕ": 1487,
      "ĀĀ$ĀĘ": 1488,
      "ęęĘĘęęĘę": 1489,
      "ęĚĚĘęęĘ": 1490,
      "ĀĀĐĀĘ": 1491,
      "ĀĀďĀ": 1492,
      "!$": 1493,
      "!ĝ": 1494,
      "\"ĀĀěĀ": 1495,
      "ĀĚĘ": 1496,
      "ĎĚ": 1497,
      "ďĚ": 1498,
      "Đď": 1499,
      "Đē": 1500,
      "ĐĞ": 1501,
      "đĔ": 1502,
      "đęęě": 1503,
      "ēď": 1504,
      "Ĕęęęė": 1505,
      "ĔěęęĘ": 1506,
      "ĕğ": 1507,
      "Ė$": 1508,
      "ĖĔ": 1509,
      "Ėęĝ": 1510,
      "ĖěęęĘ": 1511,
      "ĖĘęęė": 1512,
      "ėĔ": 1513,
      "ėęě": 1514,
      "Ęě": 1515,
      "ĘėęęĘ": 1516,
      "Ęęęğ": 1517,
      "Ęęęęęęęęęęęę": 1518,
      "ĚĀĀ": 1519,
      "ĚęęęĚę": 1520,
      "ěęĚęęęę": 1521,
      "ěĚęęė": 1522,
      "ěĘęęě": 1523,
      "Ĝę": 1524,
      "ĜęęĔ": 1525,
      "ĝęęĔ": 1526,
      "ĝĘęęě": 1527,
      "Ğęęě": 1528,
      "ĞęęĖ": 1529,
      "Ğęęĕ": 1530,
      "ĞęęęęĘ": 1531,
      "ğęęĜ": 1532,
      "ĠĒ": 1533,
      "Ġęęė": 1534,
      "ĠĀě": 1535,
      "ĠĀĝ": 1536,
      "ęęęęęęě": 1537,
      "ęęęęęęĘę": 1538,
      "ęĚęęĕ": 1539,
      "ęĚęęęęęęęęęęęęę": 1540,
      "ęĚęęęęęęęęęęęĚ": 1541,
      "ęĘęĜ": 1542,
      "ęĘėęęĘ": 1543,
      "ęĘĖęęęę": 1544,
      "ęĘęĜęęęę": 1545,
      "ęĘęėęęĘ": 1546,
      "ęęĘęęĘ": 1547,
      "ęęĘěęęęę": 1548,
      "ęęĘėęęĚ": 1549,
      "ęęĚěęęĘ": 1550,
      "ĀĀ.": 1551,
      "ęěęĘęęęęĘ": 1552,
      "ęěĚĘęęĘ": 1553,
      "ęėęĚęęě": 1554,
      "ęęęęęęęęęęĘ": 1555,
      "ęęęęęęęęęęĚę": 1556,
      "ęęęęęęęęęęęĘęęęę": 1557,
      "ęęėęęęĚ": 1558,
      "ęęěėęęĚ": 1559,
      "ęęęĘęęęęĘĘ": 1560,
      "ęĜěęęęę": 1561,
      "ęĖęęĘę": 1562,
      "ęęĜĚęęĚ": 1563,
      "ęęĜėęęĚ": 1564,
      "ęĚęęęęęęęĘ": 1565,
      "ęĘęęęęęęė": 1566,
      "ęĘęęęęĚęęĚ": 1567,
      "ęĘęęęęęęęĚęęęę": 1568,
      "ęĝęęęęĚ": 1569,
      "ęĝęĚęęĚ": 1570,
      "ęĕęęě": 1571,
      "ĚĘęęĝ": 1572,
      "ęĚĘėęęě": 1573,
      "ęĚĘĘęęęęĘ": 1574,
      "ęĚĘĜęęĘ": 1575,
      "ęĘĘęęęě": 1576,
      "ėęęęęęęĚ": 1577,
      "ėęęęęĚĘ": 1578,
      "ėęęęęėĚ": 1579,
      "ęęĝęě": 1580,
      "ęĘĚěęęĘ": 1581,
      "ęĘĚěęęě": 1582,
      "ęĘĚĜęęĚ": 1583,
      "ęĘĚĚęęĚę": 1584,
      "ęĚĚěęęĚ": 1585,
      "ęĚĚĚęęě": 1586,
      "ęęęĎ": 1587,
      "ęęęď": 1588,
      "ęęęěęęě": 1589,
      "ęĔğ": 1590,
      "ęĔęęęę": 1591,
      "Āěě": 1592,
      "ęĚěĚęęęę": 1593,
      "ęĚěęęęĜ": 1594,
      "ęĚěėęęě": 1595,
      "ęĘěĚęęęę": 1596,
      "ęěĘęęęė": 1597,
      "ęěĘĘęęě": 1598,
      "ęěĘęęęĖ": 1599,
      "ęěĘėęęė": 1600,
      "ęěĘĖęęĘ": 1601,
      "ęĚėėęęė": 1602,
      "ęĘėĚęęęę": 1603,
      "ęĘėĘęęė": 1604,
      "ĀĀĚĀē": 1605,
      "ĀĀėĀĔ": 1606,
      "ęęĚęē": 1607,
      "ęėĚęęęĘ": 1608,
      "ęėĚěęęě": 1609,
      "ĀĀěĀğ": 1610,
      "ĀĀĖĀğ": 1611,
      "ęėėĘęęė": 1612,
      "ęėėěęęė": 1613,
      "ęěęęęęęęĚ": 1614,
      "ĚĚęęĜ": 1615,
      "ęēĝ": 1616,
      "ěęęėę": 1617,
      "ĀĀĜĀĔ": 1618,
      "ęěėęęęė": 1619,
      "ęěėęęęĖ": 1620,
      "ęěěĘęęęę": 1621,
      "ęěěęęęě": 1622,
      "ęęĘęĚęĘęęęę": 1623,
      "ęėěĚęęě": 1624,
      "ěęęěę": 1625,
      "ĀĀĔĀĔ": 1626,
      "ęĜĘęęęĘ": 1627,
      "ęĚĜĖęęĚ": 1628,
      "ęĖĘęęęĘ": 1629,
      "ěĘęęęĘ": 1630,
      "ěĘęęĜ": 1631,
      "ěĘęęĞ": 1632,
      "ęĚĖĘęęė": 1633,
      "ĘęęęęĚĚęęęę": 1634,
      "ęĘĜĘęęě": 1635,
      "ęĒĘ": 1636,
      "ęęęĕęęĚ": 1637,
      "ęĜĚęęęĘ": 1638,
      "ĀĀğĀĔ": 1639,
      "ęĜėęęęĘ": 1640,
      "ĀĀĒĀĖ": 1641,
      "ĀĀĒĀĕ": 1642,
      "ęĖĚęęęĚ": 1643,
      "ĀĀēĀĖ": 1644,
      "ęėĖęęęĘ": 1645,
      "ęėĖěęęĘ": 1646,
      "ęĜĜėęęĚ": 1647,
      "ęęęęĘĚĚęęęę": 1648,
      "ęĖěęęęĜ": 1649,
      "ęđė": 1650,
      "ĖĘęęĕ": 1651,
      "ĕĘęęĕ": 1652,
      "ę\"Ę": 1653,
      "ĀĀ$Āė": 1654,
      "ęęĚĘęęĚę": 1655,
      "ęĘęĘęęė": 1656,
      "ęĚĘĘęęĘę": 1657,
      "ĀĀĎĀě": 1658,
      "ęėęęęęĚę": 1659,
      "ęĚęęęęęęĚĘ": 1660,
      "ęęęęęęęęęęęęęęęęęęęęęęęęęę": 1661,
      "\"Ę": 1662,
      "$ĀĀ": 1663,
      "%Ę": 1664,
      "ďĕ": 1665,
      "ĐĒ": 1666,
      "Đğ": 1667,
      "đĐ": 1668,
      "đě": 1669,
      "Ē!": 1670,
      "Ēę": 1671,
      "Ēĝ": 1672,
      "ēē": 1673,
      "ĔĘęęĘ": 1674,
      "ĔęęęęĘ": 1675,
      "ĔęęĞ": 1676,
      "ĕĔ": 1677,
      "ĕęęĚę": 1678,
      "ĕęęĘę": 1679,
      "Ėę": 1680,
      "Ėęęęė": 1681,
      "ĖėęęĘ": 1682,
      "ĖĖęęĘ": 1683,
      "Ėĕęęęę": 1684,
      "ė\"": 1685,
      "ėėęęĘ": 1686,
      "Ęęę!": 1687,
      "ęĀĀĘĀ": 1688,
      "Ěęę": 1689,
      "ĚęĚ": 1690,
      "Ěęęęęęęęęęęę": 1691,
      "Ěęę!": 1692,
      "ě\"": 1693,
      "ěęęğ": 1694,
      "ěėęęě": 1695,
      "ěĜęęě": 1696,
      "ĜĐ": 1697,
      "ĜĘęęęę": 1698,
      "ĜĘęęĚ": 1699,
      "ĜėęęĚ": 1700,
      "ĜěęęĚ": 1701,
      "ĜęęĚę": 1702,
      "ĜęęęęĘĘ": 1703,
      "ĝď": 1704,
      "ĝęĚ": 1705,
      "ĝĘęęęę": 1706,
      "ĝęęęęĚ": 1707,
      "ĝĘęęĚ": 1708,
      "ĝęęē": 1709,
      "ĝęęĘęĚ": 1710,
      "ĞĀĀ": 1711,
      "ĞęęĞ": 1712,
      "ĞĚęęě": 1713,
      "ğĐ": 1714,
      "Ġ\"": 1715,
      "ĠĔ": 1716,
      "ĠęęĖ": 1717,
      "Ġěęęě": 1718,
      "ĠĀĀęĀ": 1719,
      "ĠĀĀĘĀ": 1720,
      "ęę&": 1721,
      "ęęęęĜ": 1722,
      "ęĚęĔ": 1723,
      "ęĚęęęęęęęęęęęęęęęę": 1724,
      "ęĚĖęęęę": 1725,
      "ęĚęęĘęĚ": 1726,
      "ęĚĜęęęę": 1727,
      "ęĚęęęĚę": 1728,
      "ęĚęĖęęęę": 1729,
      "ęĚęěęęĚ": 1730,
      "ęĘęė": 1731,
      "ęĘęē": 1732,
      "ęĘęĘęęęęĚ": 1733,
      "ęĘęęęęęęęęęęęęę": 1734,
      "ęĘęęęęęęęęęęęęęęęęęęęę": 1735,
      "ęĘęěęęęęĚ": 1736,
      "ęĘęęęęęęęęęęęĚ": 1737,
      "ęĘęĜęęĘ": 1738,
      "ęęĘęęė": 1739,
      "ęęĘĖęęĘ": 1740,
      "ęęĚėęęęę": 1741,
      "ęęĚĜęęĚ": 1742,
      "ęěđ": 1743,
      "ęěęęĜ": 1744,
      "ęěĘęęĚ": 1745,
      "ęėĒ": 1746,
      "ęėęĜ": 1747,
      "ęėęėęęęę": 1748,
      "ęėĜęęęę": 1749,
      "ęėęĚęęė": 1750,
      "ęėęĜęęĚ": 1751,
      "ęęėěęęęę": 1752,
      "ęęėĘęęė": 1753,
      "ęęėęęęĘę": 1754,
      "ęęěĚęęĘ": 1755,
      "ĘęęęęėĘ": 1756,
      "ęęęĚęęĘę": 1757,
      "ĚęęęęęęęĘ": 1758,
      "ęĜęĚęęęę": 1759,
      "ęĜęĘęęęę": 1760,
      "ęĜėęęęę": 1761,
      "ęĜęėęęĘ": 1762,
      "ęĜĚĘęęĘ": 1763,
      "ęĖęė": 1764,
      "ęĖęęĖ": 1765,
      "ęĖęĚęęęę": 1766,
      "ęĖęĚęęĘ": 1767,
      "ęęĖĚęęė": 1768,
      "ęęĜĘęęĚ": 1769,
      "ęęĜěęęĚ": 1770,
      "ęęĜėęęě": 1771,
      "ęĚęęęęĖ": 1772,
      "ęĚęęęęęĘęęęę": 1773,
      "ęĚęęęęĚęęĚ": 1774,
      "ęĘęęęęęęĚĘęęęę": 1775,
      "ęĝ!": 1776,
      "ęĝē": 1777,
      "ęĕęęĖ": 1778,
      "ĚĘęęĕ": 1779,
      "ęĚĘęęęě": 1780,
      "ęĚĘęęĚę": 1781,
      "ęĚĘĘęęě": 1782,
      "ęĚĘĖęęě": 1783,
      "ęĘĘĚęęě": 1784,
      "ęĘĘĖęęĘ": 1785,
      "ęĘĘęęęĚę": 1786,
      "ęĘĘĘęęęęĚ": 1787,
      "ęĘĘěęęęęĚ": 1788,
      "ėęęęęě": 1789,
      "ėęęęęęęĘ": 1790,
      "ęęĝęĕ": 1791,
      "ęĘĚęęęĜ": 1792,
      "ęĘĚęęęěę": 1793,
      "ęĚĚęęęęęęęęęęęę": 1794,
      "ęĚĚĖęęęę": 1795,
      "ęĚĚĘęęęęĘ": 1796,
      "ęĚĚĖęęě": 1797,
      "ęĚĚĕęęĚ": 1798,
      "ęęęęĚęĚęęęę": 1799,
      "ęęęęĚęĘęęęę": 1800,
      "ĘęęĚęĖ": 1801,
      "ěęęęęėĘ": 1802,
      "ęęĔę": 1803,
      "ęęĞęě": 1804,
      "ęĔęęĚ": 1805,
      "Āěğ": 1806,
      "ęĚěĚęęě": 1807,
      "ĀĀęĀĞ": 1808,
      "ęěĘĘęęĚ": 1809,
      "ęěĘĘęęė": 1810,
      "ęěĘĖęęęę": 1811,
      "ĘęęėęĜĘ": 1812,
      "ęĚėĜęęĘ": 1813,
      "ęĘėĘęęęę": 1814,
      "ęĘėėęęė": 1815,
      "ęĘėĜęęė": 1816,
      "ęěĚęęęě": 1817,
      "ęěĚĖęęĚ": 1818,
      "ęėĘěęęĘ": 1819,
      "ĀĜĚ": 1820,
      "ĀĜĜ": 1821,
      "ęėĚĘęęęę": 1822,
      "ęėĚĚęęĘ": 1823,
      "ęėĚĚęęě": 1824,
      "ęėĚėęęě": 1825,
      "ęėĚĜęęĚ": 1826,
      "ĀĀĖĀě": 1827,
      "ĀĀĖĀē": 1828,
      "ęğğ": 1829,
      "ęęęĘęęęęęęĘęęęę": 1830,
      "ęėėĚęęė": 1831,
      "ęęĚęęęĚęęĘ": 1832,
      "ęęĚęęęĚęęĚ": 1833,
      "ęěęęęęęęĘ": 1834,
      "ęěęęęęęęě": 1835,
      "ęěęęęęęęĘęęęę": 1836,
      "ĚĚęęĞ": 1837,
      "ęěěĘęęĚ": 1838,
      "ęěěėęęě": 1839,
      "ęęĒęĜ": 1840,
      "ęęęĚęęęęęę": 1841,
      "Ĝęęęęė": 1842,
      "ęėěĚęęęę": 1843,
      "ĀĀĕĀĞ": 1844,
      "ĀĀĔĀĝ": 1845,
      "ĀĀĝĀě": 1846,
      "ĀĀĝĀĔ": 1847,
      "ĘęęęęĘęĘęęęę": 1848,
      "ęĜĘęęęė": 1849,
      "ęĚĜęęęě": 1850,
      "ęĖĘĚęęęę": 1851,
      "ęĖĘĚęęĚ": 1852,
      "ęĖĘĘęęĘ": 1853,
      "ěĘĘęęęę": 1854,
      "ĘęęęęĚė": 1855,
      "ĘęęęęĚęĘęęęę": 1856,
      "ęĘĜĚęęě": 1857,
      "ėĚęęęĚ": 1858,
      "ėĚęęĕ": 1859,
      "ęěĜĘęęĚ": 1860,
      "ęěĜėęęĚ": 1861,
      "ęěĜĘęęě": 1862,
      "ęěĜėęęě": 1863,
      "ęĜĚęęęĚ": 1864,
      "ęĜĚĚęęĚ": 1865,
      "ęęęęĘĘĘęęęę": 1866,
      "ĀĀğĀĖ": 1867,
      "ĀĀğĀĞ": 1868,
      "ęĜėĚęęĘ": 1869,
      "ęĜėęęęė": 1870,
      "ĀĀĒĀĞ": 1871,
      "ĀĀēĀĞ": 1872,
      "ęėĖęęęė": 1873,
      "ĕęęĚęĔ": 1874,
      "ĚęęęęĚęĘęęęę": 1875,
      "ėěĚęęĚ": 1876,
      "ĀĀđĀĘ": 1877,
      "ĀĀđĀğ": 1878,
      "ę!Ě": 1879,
      "ęĚęĘęęĚę": 1880,
      "ěĝęęě": 1881,
      "ĀĀ!Āė": 1882,
      "ĕĚęęĔ": 1883,
      "ęęĘĘęęęęę": 1884,
      "ęĕĚĚęęĚ": 1885,
      "ęĕĚėęęĚ": 1886,
      "ęĚĚĘęęě": 1887,
      "ęęęęĚĚĚęęęę": 1888,
      "ęĘĘęęęĘęęęęęęęę": 1889,
      "ěĞęęęę": 1890,
      "ĠĘęęğ": 1891,
      "ĠĚęęĞ": 1892,
      "ęĘęěęęě": 1893,
      "!Ė": 1894,
      "!ĀĀėĀ": 1895,
      "#ė": 1896,
      "#ě": 1897,
      "#ğ": 1898,
      "$Ę": 1899,
      "$ě": 1900,
      "$ĝ": 1901,
      "%ĕ": 1902,
      "&#": 1903,
      "Ā#": 1904,
      "Ďĕ": 1905,
      "ďē": 1906,
      "Đđ": 1907,
      "đęęĖ": 1908,
      "ē$": 1909,
      "ĔěĜ": 1910,
      "ĕĘęęĘ": 1911,
      "ĕęęĞ": 1912,
      "ĕĚęęė": 1913,
      "ĕęęęĖ": 1914,
      "Ėē": 1915,
      "Ėğ": 1916,
      "Ėęę": 1917,
      "Ėěęęęę": 1918,
      "ĖęęĚę": 1919,
      "Ėėęęė": 1920,
      "Ėęę!": 1921,
      "ėĘęęĚ": 1922,
      "ėėęęĚ": 1923,
      "ėĘęęė": 1924,
      "ėĖęęĘ": 1925,
      "Ę\"": 1926,
      "Ęęę": 1927,
      "ĘęęęĘ": 1928,
      "Ęęęęęęęęęęęęę": 1929,
      "ĘĘęęęęĚ": 1930,
      "ęĀĀęĀ": 1931,
      "Ěğ": 1932,
      "Ěęęęě": 1933,
      "ĚěęęĚ": 1934,
      "Ěęęē": 1935,
      "Ěęęęęęęęęęęęęęęęęęę": 1936,
      "ěğ": 1937,
      "ěęĘęęęę": 1938,
      "ěĚęęĘ": 1939,
      "ěĘęęĘ": 1940,
      "ěĜęęĚ": 1941,
      "ĜĎ": 1942,
      "ĜĔ": 1943,
      "Ĝěęęęę": 1944,
      "Ĝęęē": 1945,
      "Ĝėęęě": 1946,
      "ĜĔęęĚ": 1947,
      "ĝęęęĚ": 1948,
      "ĝęęęě": 1949,
      "ĝĚęęě": 1950,
      "ĝęęĚę": 1951,
      "ĝĜęęĚ": 1952,
      "ğ&": 1953,
      "ğęęĕ": 1954,
      "Ġ$": 1955,
      "Ġď": 1956,
      "Ġē": 1957,
      "Ġęęĝ": 1958,
      "ĠęęĔ": 1959,
      "ĠĀĘ": 1960,
      "Ġėęęě": 1961,
      "ĠęęĘęĚ": 1962,
      "ĠęĘĜ": 1963,
      "ęęęęęęĖ": 1964,
      "ęĚėęęĚ": 1965,
      "ęĚęěęęęę": 1966,
      "ęĚęęęęęęęęęęę": 1967,
      "ęĚęėęęě": 1968,
      "ęĘĐ": 1969,
      "ęĘęėęęě": 1970,
      "ęĘĚĘęęĚę": 1971,
      "ęĘĚĘęęĜ": 1972,
      "ęĘęĜęęĚ": 1973,
      "ęĘęėęęė": 1974,
      "ęĘęĝęęĘ": 1975,
      "ęęĘĖęęęę": 1976,
      "ęęĘěęęė": 1977,
      "ęęĘęęęĚę": 1978,
      "ęęĘĖęęě": 1979,
      "ęęĘĚęęęęĚ": 1980,
      "ęęĘĚęęĘę": 1981,
      "ęęĚĚęęė": 1982,
      "ęęĚęęęĜ": 1983,
      "ęęĚĚęęęęĘ": 1984,
      "ęęĚĜęęęę": 1985,
      "ĀĀă": 1986,
      "ĀĀĄ": 1987,
      "ęěęĘ": 1988,
      "ęěęė": 1989,
      "ęěęęĘęĚ": 1990,
      "ęěĜęęęę": 1991,
      "ęěęĚęęĚ": 1992,
      "ęěęĘęęęęĚ": 1993,
      "ęěęęęęĘĘ": 1994,
      "ęěęĘęęė": 1995,
      "ęěęĖęęĚ": 1996,
      "ęėęĚ": 1997,
      "ęėęė": 1998,
      "ęėęĘęęęęĚ": 1999,
      "ęėęĖęęęę": 2000,
      "ęęęęęęęęęęęė": 2001,
      "ęęęęęęęęęęĚęęęę": 2002,
      "ęęęęęęęęĚęęęęĘ": 2003,
      "ęęęęęęęęęęęęĘĚ": 2004,
      "ęęęęęęęęĘĘ": 2005,
      "ęęęęęęęęĘęęęęęę": 2006,
      "ęęėęĝ": 2007,
      "ęęėĖęęĘ": 2008,
      "ęęėĚęęĖ": 2009,
      "ęęėĜęęė": 2010,
      "ęęěęęęĚę": 2011,
      "Ęęęęęęė": 2012,
      "ĘęęęęęęĘęęęę": 2013,
      "ĘęęęęĚĚ": 2014,
      "ęęęĚĚęęęę": 2015,
      "ęęęĚęęĘęęęę": 2016,
      "ęęęĚęęĚę": 2017,
      "ĚęęęęęĚĚęęęę": 2018,
      "ĚęęęęėĘ": 2019,
      "ęęęĘęęĜ": 2020,
      "ęĜĜęęęę": 2021,
      "ęĜęĚęęĚ": 2022,
      "ęĜĚĘęęė": 2023,
      "ęĖĐ": 2024,
      "ęĖĒ": 2025,
      "ęĖęęĜ": 2026,
      "ęęĖėęęė": 2027,
      "ęęĜęęĘ": 2028,
      "ęĚęęęęęęě": 2029,
      "ęĚęęęęĚęęĘ": 2030,
      "ęĚęęęęėęęęę": 2031,
      "ęĚęęęęęęĘęęęę": 2032,
      "ęĘęęęęęęĚĚęęęę": 2033,
      "ęĝĒ": 2034,
      "ęĝęęęęĘ": 2035,
      "ęĕĘęęęę": 2036,
      "ęĕęĘęęĚ": 2037,
      "ĚĘęę": 2038,
      "ĚĘęęĘę": 2039,
      "ĚĘĚęęĘę": 2040,
      "ĚęęĚęĘĚ": 2041,
      "ĚęęĚęĘě": 2042,
      "ęĚĘĘ": 2043,
      "ęĚĘėęęĚ": 2044,
      "ęĚĘěęęė": 2045,
      "ęĚĘĕęęĘ": 2046,
      "ęĚĘęęęĘęęĚ": 2047
    },
    "merges": [
      "ę ę",
      "ęę ęę",
      "ę Ě",
      "ę Ę",
      "ęę Ę",
      "ęę Ě",
      "Ā Ā",
      "ę ě",
      "ę ė",
      "ęęęę ęęęę",
      "ęę ė",
      "ęę ě",
      "Ę ęęęę",
      "ęę ęĚ",
      "Ě ęęęę",
      "ęę ęĘ",
      "ę Ĝ",
      "ę Ė",
      "ęę Ė",
      "ęę Ĝ",
      "ęĚ ęęęę",
      "ęĘ ęęęę",
      "ę ĝ",
      "ę ĕ",
      "Ě Ę",
      "Ě ęęĚ",
      "ęĚ Ę",
      "Ě ęęĘ",
      "Ę ęęĘ",
      "ęę ĕ",
      "ęęęę Ę",
      "ęĘ Ę",
      "ęę ęė",
      "ė ęęęę",
      "ęę ĝ",
      "ęĘ Ě",
      "ęĚ Ě",
      "ęę ę",
      "ęę ęě",
      "ęęęę Ě",
      "Ę ęęĚ",
      "ę Ğ",
      "ě ęęęę",
      "ęęĚ ęęęę",
      "ęę Ĕ",
      "ęę Ğ",
      "ė ęęĚ",
      "ę Ĕ",
      "ęęĘ ęęęę",
      "ęęęęęęęę ęęęę",
      "ě ęęĘ",
      "Ā Ę",
      "Ā ě",
      "ė ęęĘ",
      "ęĚ ě",
      "Ā Ě",
      "ĀĀ ę",
      "ĀĀ Ę",
      "ęĘ ě",
      "ęě Ę",
      "Ě ęęė",
      "Ę ęęė",
      "ęĚ ė",
      "ě ęęĚ",
      "ęĘ ė",
      "Ě ęęě",
      "ĀĀ Ě",
      "ęę ē",
      "Ā ė",
      "ĀĀ ė",
      "ęě Ě",
      "Ā Ė",
      "ęė Ę",
      "Ā Ĝ",
      "ęęĚ ę",
      "ęęĘ ę",
      "ęę ğ",
      "ęė Ě",
      "Ę ęęě",
      "ĀĀ ě",
      "ęę ęĜ",
      "ęę ęĖ",
      "ęęęęęęęę ęęęęęęęę",
      "ė ęęě",
      "ĀĀ Ė",
      "Ā ĝ",
      "ę ğ",
      "Ė ęęęę",
      "ęęęĘ ęęęę",
      "ęė ė",
      "Ā Ğ",
      "ęęĚ ęęęĚ",
      "ęě ęęęę",
      "ęė ęęęę",
      "Ě Ě",
      "Ā ĕ",
      "Ė ęęĚ",
      "ę ē",
      "ĚĘ ęęĚ",
      "ě ęęė",
      "ĀĀ Ĝ",
      "ęě ė",
      "ęě ě",
      "ė ęęė",
      "ęęĘ ęĚ",
      "ęęęĘ ę",
      "ęę Ē",
      "ęĚ Ěęęęę",
      "ęęęĚ ęęęę",
      "ęĘ ęęĚ",
      "Ěęęęę Ę",
      "Ĝ ęęęę",
      "ęĚ Ęęęęę",
      "ęė ě",
      "Ė ęęĘ",
      "ęĚ ęęĘ",
      "ĀĀ ĕ",
      "ě ęęě",
      "ęĘ Ęęęęę",
      "ĀĀ Ĕ",
      "ęęęĚ ę",
      "ĀĀ ĝ",
      "Ĝ ęęĚ",
      "ě Ě",
      "Ęęęęę Ę",
      "ęĜ Ę",
      "ęĚ Ĝ",
      "ęĚ ęęĚ",
      "ęĖ Ę",
      "Ĝ ęęĘ",
      "ě Ę",
      "ęĘ Ěęęęę",
      "ęĘęęęę Ę",
      "ęĘęęęę Ě",
      "ęĚ Ė",
      "ęĘ ęęĘ",
      "Ęęęęę Ě",
      "ęęęęęęęę ęęę",
      "ęĘ Ė",
      "ęĚęęęę Ę",
      "Ā Ĕ",
      "Ė ęęě",
      "Ę ęęĖ",
      "ęĘ Ĝ",
      "ę Ē",
      "ė Ě",
      "ęě Ĝ",
      "ęę ęĕ",
      "ĀĀ Ğ",
      "ęĜ Ě",
      "ęęęęĘ Ę",
      "ĀĀ ğ",
      "Ę ęęĜ",
      "Ě ęęĖ",
      "ęę !",
      "ęĜ ė",
      "ęĚęęęę Ě",
      "ě ě",
      "ĕ ęęęę",
      "ęęĘ ęęęĘ",
      "ĀĀ Ē",
      "ęĖ Ě",
      "Ā ğ",
      "ĀĀ ē",
      "ė Ę",
      "Ė ęęė",
      "Ĝ ęęė",
      "Ě ęęĜ",
      "ęę ęĝ",
      "ęė Ė",
      "ęė Ĝ",
      "ĕ ęęĘ",
      "ĕ ęęĚ",
      "ė ęęĖ",
      "ĀĀę Ā",
      "ě ęęĖ",
      "Ěęęęę Ě",
      "ęĖ ė",
      "ĀĀĘ Ā",
      "ęĖ Ė",
      "ęĜ ě",
      "Ĝ ęęě",
      "ęę đ",
      "ęęęĘ ęęĚ",
      "ęĜ Ĝ",
      "ě ęęĜ",
      "ė ě",
      "ė ęęĜ",
      "Ė ęęĜ",
      "ĀĀ đ",
      "ęęęĘ ęęĘ",
      "ęĘĚ ęęęĚ",
      "Ė Ě",
      "ę !",
      "ęęęęĘ Ě",
      "ĝ ęęęę",
      "ęĖ ęęęę",
      "ęęě ęęęę",
      "ęęę Ğ",
      "ęĘ ęĚ",
      "ęĘ ęĚęęęę",
      "ęęĚ ĚęęĚ",
      "ęę \"",
      "ęĚęęęę ęę",
      "ĀĀě Ā",
      "ęĚ ęĘ",
      "ĚęęĘ ę",
      "ě ĝ",
      "ĀĀ !",
      "ĕ Ě",
      "ęęĘ Ęęęęę",
      "ęě Ė",
      "ęĖ ě",
      "ė ė",
      "Ĝ Ę",
      "Ĝ ě",
      "ęĘ ĕ",
      "ęĜ Ė",
      "ęĜ ęęęę",
      "ęĕ Ě",
      "ĝ ęęĚ",
      "ęė ęęĘ",
      "Ā ē",
      "ĕ ęęě",
      "ę đ",
      "ęęė ęęęę",
      "ęĝ Ę",
      "ęęęĚ ęęĚ",
      "Ė ė",
      "Ė ě",
      "ęĚ ęĘęęęę",
      "ęě ęęĘ",
      "Ė Ę",
      "Ĝ Ě",
      "Ĝ Ĝ",
      "ęę Đ",
      "ęė ęęĚ",
      "ĕ Ę",
      "ę \"",
      "ęĘ ęĘęęęę",
      "ĀĀ $",
      "ęĝ Ě",
      "ęęęĚ ęęĘ",
      "ęĘęęęę ęę",
      "ĕ ęęė",
      "ęĚ ĝ",
      "ęęĘ ĘęęĘ",
      "ĀĀ \"",
      "ęĕ Ę",
      "ėęęęę Ě",
      "ė ĝ",
      "ęĚ ĚĘ",
      "ęĘ ĝ",
      "ęęęęĚ Ě",
      "ęęęę ęęĚ",
      "ęĚ ĕ",
      "ęĚ ęĚ",
      "ęě ĝ",
      "ęĚĘ ęęęĘ",
      "ęęĚęęęę ę",
      "ęĕ ė",
      "Ĕ ęęĚ",
      "Ĝ ęęĖ",
      "ĀĀ Đ",
      "ĚęęĚ ę",
      "ĀĀė Ā",
      "Ė ęęĖ",
      "Ěęęęę ę",
      "ęĚĚ ęęęĚ",
      "ęęęęęęęęęęęę ę",
      "ęĚ ęĚęęęę",
      "Ė ęęĕ",
      "Ę Ę",
      "ě ė",
      "ě Ĝ",
      "ęě ęęĚ",
      "ęęęęęęęę ęĘ",
      "ęĘĘ ęęęĘ",
      "ĀĀĖ Ā",
      "Ė ĝ",
      "ě Ğ",
      "ĝ ęęĘ",
      "ęęĚ ĘęęĚ",
      "Ě ęęĕ",
      "ęĝ ė",
      "ě ęęęęĚ",
      "ęě ĕ",
      "ęęęęęęęę ęęęęęęęęęęęę",
      "Ěęęęę ęę",
      "ęęę Ĕ",
      "ęĚ Ğ",
      "ęĘ ęĘ",
      "ęĚĘ ĘęęĘ",
      "Ę ęęĕ",
      "Ĝ Ğ",
      "ęęĘ ĚęęĘ",
      "ĀĀ #",
      "ĀĀ Ď",
      "ęė ęęęęĚ",
      "ĚĘ ęęě",
      "ęĚĘ ĚęęĘ",
      "ĀĀĚ Ā",
      "ĕ ě",
      "ĕ ęęĖ",
      "Ĝ ė",
      "ĝ ęęė",
      "ęę ď",
      "ęĚ ĚĘęęĚ",
      "ęęĚ Ęęęęę",
      "ě ęęęęĘ",
      "Ĝ ęęĕ",
      "Ġ Ę",
      "ĀĀ ď",
      "ęė ĝ",
      "ęęęė ęęęę",
      "Ĕ ęęĘ",
      "Ę Ě",
      "ęęĚ Ěęęęę",
      "ęė ĕ",
      "ęęę ē",
      "ė ęęĝ",
      "ĝ ě",
      "ĝ ęęě",
      "Ğ Ğ",
      "Ġ Ĝ",
      "ęęĘ ęęęęęęęę",
      "ĚĘ ęęĘ",
      "ęęĘęęęę ę",
      "ęęĚęęęĚ ę",
      "ĀĀĔ Ā",
      "Ĕ ęęęę",
      "Ė ęęĞ",
      "ė Ĝ",
      "ĝ Ě",
      "ęĘ ėęęęę",
      "Ęęęęę ęę",
      "ęęęęęęęęęęęęęęęę ęę",
      "Ġ Ě",
      "ęĚ ęĘęęĚ",
      "ęĘ ęĚęęĚ",
      "ęĖ Ĝ",
      "ĀĀĜ Ā",
      "ė Ė",
      "ĝ Ğ",
      "ęě Ěęęęę",
      "ęě ęęęęĚ",
      "ęęęęęęęę Ě",
      "ęĚęęęę ęęĘ",
      "ęĝ Ĝ",
      "ęĞ Ę",
      "ė ęęęęĘ",
      "Ę ęęĝ",
      "ęě ęęęęĘ",
      "Ęęęęę ę",
      "ęĝ ě",
      "ęĘĚ ĚęęĚ",
      "ĀĚ Ě",
      "ĀĀĕ Ā",
      "ĕ ęęĕ",
      "ė ęęĕ",
      "Ġ ĝ",
      "ęęė ęęęĘ",
      "ęęě ęęęĚ",
      "ęĜ ĕ",
      "ęĜ ĝ",
      "ęĚęęęę ę",
      "ęęęęęęęęęęęę ęęę",
      "ĀĀĝ Ā",
      "Ĕ Ė",
      "Ğ Ě",
      "ęęĘ Ěęęęę",
      "ęĚęęęę ęęĚ",
      "ęĘęęęę ę",
      "ĘęęĘ ę",
      "ęĘĘ ĚęęĘ",
      "ęĚĚ Ěęęęę",
      "Ĕ ęęė",
      "Ġ ė",
      "ęę #",
      "ęęĘ ęęęĚ",
      "ęě Ğ",
      "ęęęęęęęę ęęęĚ",
      "ęĕ Ė",
      "ęĘĚ Ěęęęę",
      "ęĘė ęęęĘ",
      "ęĚĚęęęę ę",
      "Ē Ę",
      "ĕ ęęĜ",
      "ę #",
      "ě ĕ",
      "ě ęęĕ",
      "ęęĚ ęęęě",
      "ĀĀ %",
      "ęĚĚ Ęęęęę",
      "ĀĀĞ Ā",
      "Ĕ ęęě",
      "ę Đ",
      "ğ Ě",
      "ęĘ ęĘęęĚ",
      "ĀĀ '",
      "ĀĀ )",
      "ęęęęęęęę ęęęĘ",
      "ęĘęęęę ęęĚ",
      "ęĕ ě",
      "ęĕ ęęęę",
      "ęĚě ęęęĚ",
      "ĀĀĘ ĀĘ",
      "Ĕ Ę",
      "Ė ęęĝ",
      "ęĘ ĚĘęęĚ",
      "ęęĚ ęęĘ",
      "ęė ęęęęĘ",
      "Ěęęęę ęęĚ",
      "ęĖ ĕ",
      "ęĘęęęę ęęĘ",
      "ęĔ Ę",
      "ĀĀğ Ā",
      "ĕ Ğ",
      "Ė Ė",
      "ęĚ ěęęęę",
      "ęĘ ęęęĘ",
      "ęęě ę",
      "ęĜ ęęĘ",
      "ęĖ ĝ",
      "ęĚĘ Ęęęęę",
      "ęĞ Ě",
      "Āě Ę",
      "ē Ę",
      "Ė Ĝ",
      "ė ęęĞ",
      "ě ęęęĚ",
      "ĝ Ĝ",
      "ĝ ęęĖ",
      "ğ ĝ",
      "ęĘ ē",
      "ęĘ ęě",
      "ęĘ ęĚęęĘ",
      "ęĖ Ĕ",
      "ęĝ Ė",
      "ęęęě ę",
      "ęĞ ě",
      "ęęĘęęęę ęęĘ",
      "ĚęęęęĘ Ę",
      "ĕ ĕ",
      "Ė ęęęęĚ",
      "ė Ğ",
      "ė ęęĔ",
      "Ě Ěęęęę",
      "ğ Ę",
      "Ġ Ğ",
      "ęęęę ęęĘ",
      "ęĘ ęęė",
      "ĀĀ &",
      "ęė ęęě",
      "ęęě ĚęęĚ",
      "Ěęęęę ęęĘ",
      "ĀĀĚ ĀĘ",
      "Ē ē",
      "Ĕ Ě",
      "Ĕ ęęĖ",
      "Ġ ě",
      "ęę Ď",
      "ęĚ Ĕ",
      "ęĚ ęęė",
      "ęĘ Ğ",
      "ęė Ěęęęę",
      "ęęė ĚęęĘ",
      "ęęě ĘęęĚ",
      "Ęęęęę ęęĚ",
      "ęĚĚ ĚęęĚ",
      "ęęę ğ",
      "ĀĀę ĀĘ",
      "ĕ Ĝ",
      "Ė Ğ",
      "Ę ē",
      "ğ ě",
      "ğ Ĝ",
      "ğ ęęĘ",
      "Ġ !",
      "ęė Ğ",
      "ęęęęęęęę Ę",
      "Ęęęęę ęĚ",
      "ęĘĘ Ěęęęę",
      "ęĘĘ ęęęė",
      "ęęĚęęęę ęęĚ",
      "ěęęĚ ę",
      "ĀĖ Ę",
      "Ĕ ě",
      "Ĕ Ğ",
      "ė ęęęĘ",
      "Ě ĚęęĚ",
      "Ĝ ęęĜ",
      "Ğ ęęęę",
      "ęĚ ęęě",
      "ęĚ ęĘęęĘ",
      "ęĘ ěęęęę",
      "ęęęęęęęę ęĚ",
      "Ęęęęę ě",
      "Ęęęęę ęęĘ",
      "ęĖ ęęĘ",
      "ęĘęęęę ě",
      "ęĝ ęęęę",
      "ĚĘ ęęĚę",
      "ėęęęę ė",
      "ęĚě ĘęęĚ",
      "ĀĚ Ĝ",
      "ęĘě ĚęęĚ",
      "ĀĀĚ ĀĖ",
      "ĀĀė ĀĘ",
      "ĀĀē Ā",
      "! ğ",
      "ė ĘęęĘ",
      "Ě ęęęĚ",
      "Ĝ ęęęęĘ",
      "Ġ ĕ",
      "ęę $",
      "ęĘ Ĕ",
      "ĀĀ (",
      "ęĖ ęęĚ",
      "ęĝ ĝ",
      "ĚĘ Ęęęęę",
      "ĚĘ ęęĜ",
      "ęĘĘ ěęęĘ",
      "ęęęė ęęĘ",
      "ęĔ ė",
      "ĀĀę Āě",
      "Āė Ę",
      "Ē Ė",
      "ē ęęęę",
      "ĕ ĝ",
      "ė ĕ",
      "Ę Ğ",
      "Ě ĝ",
      "Ě ęęĝ",
      "ĝ ĝ",
      "ğ ęęęę",
      "Ġ ęęęę",
      "ęě ęęė",
      "Ěęęęę ě",
      "ęĚęęęę ě",
      "ĀĀĘ Āě",
      "Ē Ě",
      "Ĕ ĝ",
      "Ĕ ęęĝ",
      "Ę Ĝ",
      "ę $",
      "ě ęęĔ",
      "ğ Ğ",
      "ęě Ęęęęę",
      "ęĜ ęęĚ",
      "ęĝ ĕ",
      "ęĕ Ĝ",
      "ęĚĘ ėęęĘ",
      "ęĘĘ ĘęęĘ",
      "ęęęė ęęĚ",
      "ęęęě ęęęę",
      "ęĞ Ė",
      "ęĞ ė",
      "ĀĀę Āĕ",
      "ĀĀė Āě",
      "ē đ",
      "ē ė",
      "Ė ęęęęĘ",
      "ė Ęęęęę",
      "ęĚ ęė",
      "ęĚ ėęęęę",
      "ęĚ ęĚęęĘ",
      "ęĚ ęĚęęĚ",
      "ęĘ ęěęęęę",
      "ęęė ĘęęĘ",
      "ęęė ęęęė",
      "ęęęĚ ęęęęĘ",
      "ęĘĚ Ęęęęę",
      "ęęę Ē",
      "ĘęęĚ ę",
      "ėęęĚ ę",
      "ęęĘęęęę ęę",
      "ĀĚ ė",
      "ęĘě ęęęĚ",
      "ęĘě ĘęęĚ",
      "ęěĘ ĘęęĘ",
      "ĀĀė ĀĜ",
      "ĀĀė Āĝ",
      "ęĚĘęęęę ę",
      "! ě",
      "ē Ė",
      "ē Ě",
      "ē Ĝ",
      "ē ęęĚ",
      "ē ęęė",
      "ē ęęĜ",
      "Ė ęęęĘ",
      "Ė ęęğ",
      "ě ęęĝ",
      "Ĝ ęęęęĚ",
      "Ġ ğ",
      "ęĚ ęęęęęęęęęęęę",
      "ęĚ ęĘęęęęĚ",
      "ęĘ ęęě",
      "ęĘ ęęĘę",
      "ęĘ ęĘęęĘ",
      "ęė Ĕ",
      "ęė ęĘęęęę",
      "ęęė ę",
      "ęĜ Ĕ",
      "ęĜ Ğ",
      "ęĚęęęę ęęĚęęęę",
      "ęĝ Ğ",
      "ĘęęĘ ęĚĘ",
      "ėęęęę ĚĚ",
      "ęĚĚ ęęęĘ",
      "ęęęě ęęĚ",
      "ęĔ ě",
      "ĀĀĚ Āě",
      "ęğ Ě",
      "ęĘĘęęęę ę",
      "ęĘĚęęęę ę",
      "Ē Ē",
      "Ē ĕ",
      "ē Ğ",
      "Ĕ ė",
      "Ĕ Ĝ",
      "Ğ ęęĚ",
      "ęęĘ Ęęęė",
      "ęė ęęė",
      "ęęęĘ ęęė",
      "ęĚĘ ęęęė",
      "ęęę đ",
      "ęĔ Ĝ",
      "ĀĀę ĀĜ",
      "ĀĀĘ Āĕ",
      "ęĚė ęęęĘ",
      "ęėĚ ęęęĚ",
      "ĀĀě Āě",
      "ęęęęęęęęęęęęęęęę ęęęęęęęę",
      "ĀĀĒ Ā",
      "ĀĀ\" Ā",
      "! Ĝ",
      "đ ė",
      "Ē Đ",
      "Ė Đ",
      "ĝ Ę",
      "ĝ ęęĜ",
      "Ğ ęęĘ",
      "Ġ Ā",
      "Ġ Ė",
      "ęĚ ĚęęĚ",
      "ęĚ ęęĚę",
      "ęĘ ęęęęęęęęęęęę",
      "ęęĚ ęęęĘ",
      "ęě Ĕ",
      "ęė Ęęęęę",
      "ęęęĘ ęęě",
      "ęęęĘ ęęęęĘ",
      "ęĜ ęęęęĘ",
      "ęĚęęęę ė",
      "ęĘĘ Ęęęęę",
      "ęĘĘ ęęęĚ",
      "ęęę !",
      "ĀĀę Āĝ",
      "ĀĀĘ ĀĖ",
      "ęĚė ĘęęĘ",
      "ĀĀĚ ĀĜ",
      "Āė Ě",
      "ĀĀě ĀĘ",
      "ęęęęęęęęęęęęęęęę ęęę",
      "ęęĚęęęĚ ęęęę",
      "ĘęęęęĘ Ę",
      "ęĚęęęęĘ ę",
      "đ Ě",
      "ē ęęĘ",
      "Ĕ ęęĜ",
      "ĕ ęęĝ",
      "Ę ęęĔ",
      "ę ĀĀ",
      "Ě Ęęęęę",
      "Ĝ ĝ",
      "Ġ ĀĀ",
      "ęĘ ğ",
      "ęĘ ęęęęęęęę",
      "ęęĚ ėęęĚ",
      "ęė ęĚęęęę",
      "Ęęęęę ė",
      "Ěęęęę ė",
      "ęęĖ ęęęę",
      "ĀĀĘ ĀĜ",
      "ĀĀĚ ĀĚ",
      "ĀĀĚ Āė",
      "ĀĀ# Ā",
      "! Ě",
      "đ Ė",
      "Ē ė",
      "Ē ęęě",
      "ē ęęě",
      "Ĕ ĕ",
      "ĕ Ė",
      "ė ęęğ",
      "Ę Ęęęęę",
      "Ĝ Ė",
      "Ġ #",
      "ęĚ ęĘęęęęĘ",
      "ęĘ ęęęĘę",
      "ęė ē",
      "ęė ęĚęęĚ",
      "ęęęęęęęę ęęĚ",
      "ęęě Ěęęě",
      "ęęęĚ ęęě",
      "Ěęęęę ęęĘęęęę",
      "ęĖ ęęė",
      "ęęĜ ęęęĚ",
      "ĚĘ ęęęĘ",
      "ęĚĘ ęęęĘę",
      "ęĘĘ ęęęĘę",
      "ęęęė ę",
      "ėęęĘ ę",
      "ĀĀę ĀĖ",
      "ęĘė ĘęęĘ",
      "ĀĀĖ ĀĚ",
      "ĀĀĖ Āė",
      "ĀĞ Ě",
      "ĀĀ$ Ā",
      "\" ě",
      "\" Ğ",
      "đ Ē",
      "Ē ě",
      "Ĕ ęęĕ",
      "Ė ęęĔ",
      "ğ ęęě",
      "Ġ ę",
      "ęę %",
      "ęĚ ē",
      "ęĚ ęęęĚ",
      "ęĘ ĚęęĘ",
      "ęęĘ ęęĚ",
      "ęęĚ Ęęęě",
      "ęě ęĘęęĚ",
      "ęě ęĚęęĘ",
      "ęęė ęęĘ",
      "ęęęĚ ęęęęęęęę",
      "ęęęĚ ęęė",
      "Ěęęęę ęęĚęęęę",
      "ęęęĘ ęęęęĚ",
      "ęęĜ ęęęę",
      "ęĚęęęę ęęęĚ",
      "ĚĘ ĘęęĘ",
      "ęĚĘ ėęęęę",
      "ęĘĚ ęęęě",
      "ęĔ Ě",
      "ęęĘęęęę ęęĚ",
      "ěęęĘ ę",
      "ĀĀę ĀĚ",
      "ĀĀę Āė",
      "ĀĀĘ Āĝ",
      "ęěĚ Ęęęęę",
      "ęėĘ Ěęęęę",
      "ĀĀĖ ĀĘ",
      "Āĕ Ę",
      "ĀĀĜ ĀĘ",
      "! \"",
      "! ė",
      "Ē Ĝ",
      "ē ęęĕ",
      "Ĕ Ĕ",
      "ĕ ė",
      "Ė ęęĘęĚ",
      "ė ęęęė",
      "Ě Ğ",
      "ě ę",
      "ě Ęęęęę",
      "ě ĘęęĚ",
      "ĝ Ė",
      "ęĚ ęęęęęęęę",
      "ęĚ ęėęęęę",
      "ęęĘ ęęęė",
      "ęęĘ Ěęęė",
      "ęęĚ ęęĚ",
      "ĀĀ *",
      "Ěęęęę ęĘ",
      "ęęĖ ĘęęĘ",
      "ęĘęęęę ęęě",
      "ęĘęęęę ęęęĘ",
      "ęĕ ĕ",
      "ęĕ Ğ",
      "ĚĘ ęęė",
      "ęĚĘ Ęęęė",
      "ęĘĚ ęęęĘ",
      "ęĚĚ ėęęęę",
      "ęĚĚ ęęęě",
      "ęĞ ĕ",
      "Āě Ğ",
      "ęĚě ĚęęĚ",
      "ęěĘ Ęęęęę",
      "ĀĀė Āė",
      "ĀĀė ĀĖ",
      "ęěĚ ėęęęę",
      "ęėĘ ęęęĘ",
      "ęęęęęęęęęęęęęęęę ęęęęęęęęęęęęęęęę",
      "ĀĀĜ ĀĖ",
      "ĀĀĕ ĀĘ",
      "ĀĀđ Ā",
      "ĀĀ! Ā",
      "! Ğ",
      "\" Ě",
      "Đ Ę",
      "Ē Ğ",
      "Ē ęęęę",
      "ĕ ęęęęĚ",
      "ĕ ęęĔ",
      "Ę ęęĞ",
      "Ě ęęęęęęęę",
      "Ě ęęĔ",
      "ě ĚęęĚ",
      "Ĝ ęęĝ",
      "ĝ ęęĕ",
      "ęĚ ğ",
      "ęĚ ęęĜ",
      "ęĚ ęėęęĘ",
      "ęĘ ĘęęĘ",
      "ęęĘ ěęęĘ",
      "ęęĚ ęęęęęęęęęęęę",
      "ĀĀ +",
      "ęě ęĘęęęę",
      "ęęě ęęĘ",
      "ęęęĚ ęęęęĚ",
      "ęĖ ęęęęĘ",
      "ęĝ Ĕ",
      "ęĕ ĝ",
      "ęĞ Ĝ",
      "ěęęęę ė",
      "ęęĚęęęę ęęĘ",
      "ęĔ Ė",
      "Āě Ě",
      "ęĚě Ęęęě",
      "ĀĀĘ Āė",
      "Ěęęė ę",
      "ęĚė ĚęęĘ",
      "ęĘė ĚęęĘ",
      "Ěęęě ę",
      "ĀĀė ĀĚ",
      "ęėĘ ĚęęĘ",
      "ęęęĖ ęęęę",
      "ęęęĖ ęęĚ",
      "ĀĀĖ ĀĜ",
      "ęęęĘęęęę ę",
      "ĀĀĜ ĀĚ",
      "ĀĀĜ Āė",
      "ęĚęęęęĚ ę",
      "ĕĚ ęęĕ",
      "ĀĀĐ Ā",
      "! Ę",
      "\" !",
      "Ē ęęĚ",
      "Ē ęęĜ",
      "ē Ĕ",
      "ē ě",
      "Ĕ Đ",
      "Ĕ đ",
      "Ė ĘęęĘ",
      "ė ęęē",
      "ė ęęęęĘĘ",
      "ě ęęĞ",
      "ě ęęē",
      "ĝ ĕ",
      "ĝ ğ",
      "ęĘ ęėęęęę",
      "ĀĀ -",
      "ęě ğ",
      "ęě ěęęęę",
      "ęė ęě",
      "ęė ęęĜ",
      "ęė ęĚęęĘ",
      "ęė ęěęęĚ",
      "ęęė Ęęęęę",
      "ęęě ęęęě",
      "Ěęęęę ĚĘ",
      "ęĜ ęęęęĚ",
      "ęĖ Ğ",
      "ęĖ ğ",
      "ęęĖ ęęęĘ",
      "ęĝ ęęĘ",
      "ęĝ ęęĚ",
      "ęĕ Ĕ",
      "ęĕ ęęĘ",
      "ęĕ ęęĚ",
      "ęĚĘ ęęĚ",
      "ęĚĘ ĚęęĚ",
      "ęĚĘ ĘęęĚ",
      "ęĚĘ ěęęĘ",
      "ęĘĚ ěęęĚ",
      "ęĘĚ ęęęĚę",
      "ęĚĚ ĚęęĘ",
      "ęĚĚ ėęęĚ",
      "ęĞ ĝ",
      "ęĞ ęęęę",
      "ęęĚęęęę ęę",
      "ęĚě ęęęě",
      "ęěĘ ėęęęę",
      "Ęęęė ę",
      "ĀĀĚ Āĝ",
      "ĀĀĚ ĀĞ",
      "ĀĀĚ Āĕ",
      "ĀĀĚ ĀĔ",
      "ęěĚ ęęęĚ",
      "ęėĘ ęęęĚ",
      "ęėĘ ĘęęĘ",
      "ĀĀě Āė",
      "ĀĀě ĀĖ",
      "ĀĀě Āĝ",
      "ĀĀĖ ĀĖ",
      "ęğ Ĝ",
      "ęęęĘęęęę ęęĚ",
      "ęėęęęę ė",
      "ĚĚ Ęęęęę",
      "ĀĀĜ Āě",
      "ęěė ėęęĘ",
      "ęęęĚęęęę ęęĚ",
      "ĀĀĔ ĀĘ",
      "ĀĀĝ ĀĘ",
      "ĘęęęęĘ Ě",
      "ęĘęęęęĘ ę",
      "ĀĀĞ ĀĘ",
      "ęĘęĚ ęęě",
      "! ĀĀ",
      "\" ğ",
      "Đ Đ",
      "Ē đ",
      "Ē Ĕ",
      "Ē ęęĘ",
      "ē ğ",
      "Ė ĚęęĘ",
      "Ė ęęĘę",
      "ė ęę",
      "ė Ěęęęę",
      "ę Ď",
      "ę ď",
      "ě ęęęęĘĘ",
      "Ĝ ęęĞ",
      "ĝ ė",
      "Ğ !",
      "Ğ Ę",
      "Ğ ęęĜ",
      "ęęęę ę",
      "ęĚ ęě",
      "ęĘ ęęĖ",
      "ęĘ ęĔ",
      "ęĘ ęęĚę",
      "ęęĘ ĘęęĚ",
      "ęęĘ ęęęĘę",
      "ęęĚ ĚęęĘ",
      "ęęĚ ěęęĚ",
      "ęě ęęęĚ",
      "ęě ėęęęę",
      "ęě ĚĘęęĚ",
      "ęęęęęęęę ęęęęĚ",
      "ęęė ěęęĘ",
      "Ěęęęę ĚĚ",
      "ęęęĘ ęęĚę",
      "ęĜ ęęė",
      "ęĜ ęęě",
      "ęĖ ęęě",
      "ęĖ ęęęęĚ",
      "ęęĜ ęęęě",
      "ęĕ ęęĜ",
      "ęęęęĘ ě",
      "ęĘĘ ĘęęĚ",
      "ęĘĚ ěęęęę",
      "ęęĚęęęę ęęĚęęęę",
      "ęĔ ĕ",
      "ęęęęęęęęęęęę ęĚ",
      "ęĘě Ěęęě",
      "ęěĘ ĚęęĘ",
      "ęěĘ ėęęĘ",
      "ęĚė ęęęė",
      "ĀĀė Āĕ",
      "ęěĚ ęęęĘ",
      "ęėĘ ĚęęĚ",
      "ĀĜ Ę",
      "ĀĀě ĀĚ",
      "ĀĀĖ Āĝ",
      "ĀĀĖ Āĕ",
      "ęęęĘęęęę ęęĘ",
      "ęėė ęęęĘ",
      "ĀĞ Ę",
      "ęē Ę",
      "ęěė ĚęęĘ",
      "ęěė ĘęęĘ",
      "ęėě ęęęĚ",
      "ĀĀĕ ĀĚ",
      "Āğ Ę",
      "ęęĚĚęęĚ ę",
      "ęęęęęęęęęęęęęęęęęęęę ęę",
      "ĀĀ' Ā",
      "\" ĕ",
      "# !",
      "% ě",
      "Đ ĕ",
      "đ Ğ",
      "đ ęęė",
      "ē ę",
      "ē ęęĖ",
      "ē ęęĝ",
      "ē ęęĔ",
      "ĕ ď",
      "Ė Ē",
      "Ė Ęęęęę",
      "ė ěęęĘ",
      "ė ęę!",
      "Ě ė",
      "Ě Ĝ",
      "Ě ęęĞ",
      "ě Ė",
      "ě ěęęęę",
      "Ĝ ęęĘęĚ",
      "Ğ Ĝ",
      "Ğ ęęė",
      "ğ !",
      "ğ ğ",
      "ğ ęęĚ",
      "ğ ęęė",
      "Ġ ęęĜ",
      "ęĚ ęęĖ",
      "ęĘ Ē",
      "ęęĘ Ę",
      "ęęĘ ĚęęĚ",
      "ĀĀ ą",
      "ĀĀ Ĉ",
      "ęě Ē",
      "ęě ĚĘ",
      "ęė ęęęĘ",
      "ęė ėęęęę",
      "ęęęęęęęę ęęęęĘ",
      "ęęęęęęęę ĘĚ",
      "ęęė ėęęĘ",
      "ęęė Ěęęė",
      "ęęęĘ ęęĘę",
      "ęĜ ē",
      "ęĖ ē",
      "ęĖ Ęęęęę",
      "ęĚęęęę ęęęĚęęęę",
      "ęĘęęęę ė",
      "ęĘęęęę ęęĘęęęę",
      "ęĝ ğ",
      "ęĕ ğ",
      "ęĚĘ ęęęĚ",
      "ęĚĘ ĘęęęęĚ",
      "ęĘĘ ĚęęĚ",
      "ęĘĘ ěęęĚ",
      "ęĘĚ ĚęęĘ",
      "ęĚĚ ėęęě",
      "ęęęęęęęęęęęę ęĘęęęę",
      "Āě ĕ",
      "ĀĀĘ ĀĞ",
      "ĀĀĘ ĀĔ",
      "ęĘě ěęęĚ",
      "ęěĘ ęęęĘ",
      "ęĚė Ęęęęę",
      "ęĚė ėęęĘ",
      "ĀĀĚ Āğ",
      "ęěĚ ėęęĚ",
      "ęęęĜ ęęęę",
      "ęęęĜ ęęĚ",
      "ęğ ęęęę",
      "Ėęęęę ė",
      "ĀĀĜ ĀĜ",
      "ęěě Ęęęě",
      "ĚęęęęĘ Ě",
      "ĀĀĕ ĀĖ",
      "ĀĀĕ ĀĜ",
      "ĀĀĕ Āĝ",
      "ĀĀĔ Āė",
      "ĀĀĝ Āĕ",
      "ěĚ ęęĜ",
      "ĀĀĞ ĀĖ",
      "ęĜė Ęęęė",
      "ĚęęĜ ę",
      "ęĘęĚ ęęĚę",
      "ĀĀ% Ā",
      "ęęęęęęęęęęęęęęęęęęęęęęęę ę",
      "! !",
      "Đ Ě",
      "đ đ",
      "đ ĕ",
      "đ Ę",
      "đ Ĝ",
      "Ē ęęĖ",
      "Ĕ ęęĔ",
      "ĕ ęę",
      "Ė ĕ",
      "ė Ď",
      "ė ĚęęĘ",
      "ę &",
      "Ě ęęğ",
      "ě Ěęęęę",
      "ě ėęęĚ",
      "Ĝ ęęęĚ",
      "Ĝ ęęęě",
      "Ĝ ĘęęĜ",
      "ğ ė",
      "Ġ ęęĚ",
      "ęĚ ęĚęęęęĚ",
      "ęĚ ęėęęĚ",
      "ęĘ ęĚęęęęĘ",
      "ęĘ ęĚęęęęĚ",
      "ęĘ ęěęęĚ",
      "ęĘ ĚĘęęě",
      "ęęĘ ėęęęę",
      "ęęĘ ėęęĘ",
      "ęęĘ ęęęĘęęęę",
      "ęęĚ ěęęęę",
      "ĀĀ ć",
      "ęě ęĚęęęę",
      "ęě ęĘęęĘ",
      "ęě ęėęęĚ",
      "ęě ĚĘęęě",
      "ęė ęęĖ",
      "ęė ĘęęĘ",
      "ęė ĚĘęęĚ",
      "ęė ęĘęęĘ",
      "ęęęęęęęę Ěęęęę",
      "ęęė Ę",
      "ęęě ėęęě",
      "Ęęęęę ĚĘ",
      "Ěęęęę ěĚ",
      "ęĜ Ęęęęę",
      "ęĕ ē",
      "ęĘĘ Ęęęė",
      "ęĘĘ ĚęęĘę",
      "ėęęęę Ĝ",
      "ęĘĚ ėęęĚ",
      "ęĘĚ Ěęęě",
      "ęęęě ęęĘ",
      "ęĞ Ĕ",
      "ėęęĚ ęėĚ",
      "ęĔ Ĕ",
      "ęęĘęęęę ęęĘęęęę",
      "ęęęęęęęęęęęę ęĚęęęę",
      "ĀĀĘ ĀĚ",
      "ęĘě ėęęĚ",
      "ęĘě Ęęęě",
      "ęĚė Ěęęė",
      "ęĘė ěęęĘ",
      "ęęē ęĝ",
      "ĀĀė ĀĞ",
      "ęėĚ ĚęęĚ",
      "ĀĀě ĀĜ",
      "ęğ ė",
      "ęğ Ę",
      "ęğ ĝ",
      "ĀĞ ė",
      "ęėęęęę ě",
      "ĀĀĔ Āě",
      "ĀĀĔ ĀĜ",
      "ĀĀĝ ĀĜ",
      "ĘęęęęĘ ęĚęęęę",
      "ęĚĜ ęęęĚ",
      "ęĚĖ ĘęęĘ",
      "ĀĀĞ Āė",
      "ęęęęĘĘ Ěęęęę",
      "ĀĀğ ĀĘ",
      "ĀĀē ĀĘ",
      "ĀĀē ĀĚ",
      "ęĖė ęęęĘ",
      "ĀĀđ ĀĜ",
      "ĀĀ! ĀĘ",
      "ėĝ ęęė",
      "ęĚĚĘ ęęĚę",
      "ęĚęĚ ęęė",
      "ĀĀĎ Ā",
      "ĀĀ( Ā",
      "\" ĝ",
      "\" ĀĀ",
      "ď Ė",
      "ď ęęĚ",
      "Đ ė",
      "Đ Ĝ",
      "đ ē",
      "đ ęęĚ",
      "Ē Ď",
      "Ē ęęė",
      "ē Ď",
      "ē ĕ",
      "Ĕ ęę",
      "ĕ ęęęęĘ",
      "ĕ ęęĒ",
      "Ė ď",
      "ė ęęęęĘĚ",
      "Ę Ěęęęę",
      "ě ęę",
      "ě ěęęĚ",
      "ě ęęęęĘĚ",
      "Ĝ ĚęęĚ",
      "Ĝ ęęĘę",
      "Ĝ ęęğ",
      "ĝ ęęĝ",
      "Ğ ĕ",
      "Ğ ęęĝ",
      "ğ ĀĀ",
      "ęęęę ė",
      "ęĚ ęęĘę",
      "ęĚ ęĚęęęęĘ",
      "ęĚ ęěęęĘ",
      "ęĘ ęęęęęęęęęęę",
      "ęĘ ęěęęĘ",
      "ęĘ ęėęęĚ",
      "ęĘ ĚĘęęĘ",
      "ęęĚ Ę",
      "ęęĚ ĘęęĘ",
      "ęęĚ Ěęęě",
      "ęęĚ ĖęęĚ",
      "ęě ē",
      "ęě ęėęęęę",
      "ęė ĚęęĘ",
      "ęė ěęęęę",
      "ęęęęęęęę Ęęęęę",
      "ęęė Ěęęęę",
      "ęęė ěęęė",
      "ęęě Ęęęęę",
      "ęęě Ęęęě",
      "Ěęęęę ęęęĚ",
      "ęęęĘ ęęĖ",
      "ęĜ ğ",
      "ęĜ Ěęęęę",
      "ęĜ ęĘęęĘ",
      "ęęĖ ęęęė",
      "ęĚęęęę ęęĜ",
      "ęĘęęęę ęęęĚ",
      "ĚĘ ęęĞ",
      "ęĚĘ Ěęęė",
      "ęĘĘ ėęęęę",
      "ęĘĘ ěęęęę",
      "ęĘĘ Ěęęė",
      "ęĘĚ ĖęęĚ",
      "ęĚĚ ěęęęę",
      "ęĚĚ ęęęĜ",
      "ęęę Đ",
      "ęęęęĚ ė",
      "ęĞ ğ",
      "ęĞ ęęĘ",
      "ęĔ Ğ",
      "Āě Ė",
      "Āě ė",
      "ęĚě Ęęęęę",
      "ęĘė Ěęęė",
      "ęěĚ Ěęęęę",
      "ęěĚ ĚęęĚ",
      "ęěĚ ĚęęĘ",
      "ęěĚ ěęęĚ",
      "ęėĚ ęęęě",
      "ęęęĜ ęęĘ",
      "ęėė ęęęė",
      "ĀĞ ğ",
      "ĚĚ Ěęęęę",
      "Āĕ Ě",
      "ęěė ęęęĘ",
      "ęěě ęęęĚ",
      "ęěě ėęęĚ",
      "ęęĘęĚ Ĝ",
      "ĚęęęęĘ ęĚęęęę",
      "ęėě ĚęęĚ",
      "ĀĀĔ ĀĚ",
      "ĀĀĔ ĀĞ",
      "ĀĀĝ Āė",
      "ĀĀĝ ĀĖ",
      "ĀĀĝ ĀĞ",
      "ęĜĘ ĘęęĘ",
      "ęĚĜ ėęęĚ",
      "ęĚĖ ęęęĘ",
      "ęĘĖ ęęęĘ",
      "ęĘĜ ėęęĚ",
      "ęěĜ ęęęĚ",
      "ęėĜ ėęęĚ",
      "ęĚęĘ ęęě",
      "ęęęęęęęęęĘ ę",
      "ęĘęĘ ęęě",
      "ĀĀ) Ā",
      "ĀĀ& Ā",
      "\" #",
      "\" ė",
      "\" Ĝ",
      "# Ğ",
      "Ď ė",
      "Đ Ė",
      "đ ęęĘ",
      "ē Đ",
      "ē ĝ",
      "ē ęęĞ",
      "Ĕ ē",
      "Ĕ ęęğ",
      "ĕ ęęē",
      "ĕ ęęğ",
      "Ė ęęē",
      "Ė ęęęęĘĘ",
      "ė ęĚęęęę",
      "Ę ęęĒ",
      "Ě ě",
      "Ě ęęęęęęęęęęęę",
      "ě ď",
      "ě ęęęě",
      "ě Ěęęě",
      "Ĝ Ęęęě",
      "ğ \"",
      "ğ ęęĖ",
      "Ġ ęęĘ",
      "Ġ ęęě",
      "Ġ ęęęĞ",
      "ęęęę ęęĚę",
      "ęĘ đ",
      "ęĘ ęĘęęęęĘ",
      "ĀĀ ,",
      "ęě ęě",
      "ęě ęėęęĘ",
      "ęė đ",
      "ęė ğ",
      "ęė ęĘ",
      "ęė ęęĘęĚ",
      "ęė ęĘęęĚ",
      "ęė ęěęęĘ",
      "ęęęęęęęę Ěęęęęęę",
      "ęęė ęęĚ",
      "ęęė ĘęęĚ",
      "ęęě Ěęęęę",
      "ęęě ěęęĚ",
      "Ęęęęę ěĚ",
      "ęĜ ĚĘęęĚ",
      "ęĖ ęě",
      "ęĖ Ěęęęę",
      "ęĖ ėęęęę",
      "ęĖ ęěęęęę",
      "ęęĜ Ěęęě",
      "ęĚęęęę Ęęęęę",
      "ęĚęęęę ĘęęĘ",
      "ęĚęęęę ęęĘęęęęęę",
      "ęĘęęęę ĚęęĘ",
      "ęĘęęęę ĘęęĘ",
      "ęĝ ęęě",
      "ęĕ Ē",
      "ĚĘ Ěęęęę",
      "ĚĘ ęęĖ",
      "ĚĘ ĚęęĘ",
      "ęĚĘ Ěęęęę",
      "ęĚĘ Ėęęęę",
      "ęĚĘ ėęęė",
      "ęĚĘ ęęęĘęęĘ",
      "ęęęęĘ ęĚęęęę",
      "ęĘĘ ėęęĚ",
      "ęĘĘ ėęęĘ",
      "ęęęė ęęě",
      "ęĘĚ ėęęęę",
      "ęĚĚ ęęęĚę",
      "ęĞ Ğ",
      "ęęĚęęęę ęęĘę",
      "ęęĚęęęę ęĘĘęęęę",
      "ęĔ ĝ",
      "ěęęĘ ęęĚ",
      "ęĚě ėęęĚ",
      "ęĚě ĖęęĚ",
      "ęĚě ęęęĚę",
      "ĀĀę ĀĔ",
      "ęĘě ęęęě",
      "ęěĘ ĚęęĚ",
      "ęĚė Ęęęė",
      "ęĘė ęęęė",
      "ĀĀě Āĕ",
      "ĀĀě ĀĔ",
      "ęęęĖ ę",
      "ĀĀĖ ĀĞ",
      "ęğ Ğ",
      "ęėė Ęęęęę",
      "ęėė ěęęĘ",
      "ęěęęęę ė",
      "ĚĚ ęęęĚ",
      "ęē Ė",
      "ęē ė",
      "ęē ě",
      "ęē ęęĘ",
      "ĀĀĜ Āĝ",
      "ĀĀĜ ĀĞ",
      "ęěě ĚęęĚ",
      "ęĚĚęęęę Ě",
      "ęęęĚęęęę ęęĘ",
      "ĚęęęęĘ Ęęęęę",
      "ęėě ęęęě",
      "ĀĀĝ ĀĚ",
      "ęĜĘ ėęęĘ",
      "ęĚĜ ĘęęĚ",
      "ęĚĜ Ęęęě",
      "ęĘęęęęĚ ę",
      "ęĘĖ ĚęęĘ",
      "ęĘĖ ęęęė",
      "ęĘĜ ĚęęĚ",
      "ĀĀĞ ĀĚ",
      "ĀĀğ ĀĜ",
      "ĀĀğ Āĝ",
      "ĀĀĒ ĀĘ",
      "ĀĀĒ Āė",
      "ęĖĚ ĚęęĚ",
      "ĀĀē Āĕ",
      "ĚęęęęĚ ęĚęęęę",
      "ĖĚ ęęĕ",
      "ęĖęęęę ě",
      "ęęěęęęę ęęĚ",
      "ęĘęĚ ęęė",
      "ęĘęĚ ęęĘę",
      "ęĚęĘ ęęĖ",
      "Ėė ęęĕ",
      "ĀĀ$ ĀĘ",
      "ęęĘĘęęĘ ę",
      "ęĚĚĘ ęęĘ",
      "ĀĀĐ ĀĘ",
      "ĀĀď Ā",
      "! $",
      "! ĝ",
      "\" ĀĀěĀ",
      "Ā ĚĘ",
      "Ď Ě",
      "ď Ě",
      "Đ ď",
      "Đ ē",
      "Đ Ğ",
      "đ Ĕ",
      "đ ęęě",
      "ē ď",
      "Ĕ ęęęė",
      "Ĕ ěęęĘ",
      "ĕ ğ",
      "Ė $",
      "Ė Ĕ",
      "Ė ęĝ",
      "Ė ěęęĘ",
      "Ė Ęęęė",
      "ė Ĕ",
      "ė ęě",
      "Ę ě",
      "Ę ėęęĘ",
      "Ę ęęğ",
      "Ę ęęęęęęęęęęę",
      "Ě ĀĀ",
      "Ě ęęęĚę",
      "ě ęĚęęęę",
      "ě Ěęęė",
      "ě Ęęęě",
      "Ĝ ę",
      "Ĝ ęęĔ",
      "ĝ ęęĔ",
      "ĝ Ęęęě",
      "Ğ ęęě",
      "Ğ ęęĖ",
      "Ğ ęęĕ",
      "Ğ ęęęęĘ",
      "ğ ęęĜ",
      "Ġ Ē",
      "Ġ ęęė",
      "Ġ Āě",
      "Ġ Āĝ",
      "ęęęę ęęě",
      "ęęęę ęęĘę",
      "ęĚ ęęĕ",
      "ęĚ ęęęęęęęęęęęęę",
      "ęĚ ęęęęęęęęęęęĚ",
      "ęĘ ęĜ",
      "ęĘ ėęęĘ",
      "ęĘ Ėęęęę",
      "ęĘ ęĜęęęę",
      "ęĘ ęėęęĘ",
      "ęęĘ ęęĘ",
      "ęęĘ ěęęęę",
      "ęęĘ ėęęĚ",
      "ęęĚ ěęęĘ",
      "ĀĀ .",
      "ęě ęĘęęęęĘ",
      "ęě ĚĘęęĘ",
      "ęė ęĚęęě",
      "ęęęęęęęę ęęĘ",
      "ęęęęęęęę ęęĚę",
      "ęęęęęęęę ęęęĘęęęę",
      "ęęė ęęęĚ",
      "ęęě ėęęĚ",
      "ęęęĘ ęęęęĘĘ",
      "ęĜ ěęęęę",
      "ęĖ ęęĘę",
      "ęęĜ ĚęęĚ",
      "ęęĜ ėęęĚ",
      "ęĚęęęę ęęęĘ",
      "ęĘęęęę ęęė",
      "ęĘęęęę ĚęęĚ",
      "ęĘęęęę ęęęĚęęęę",
      "ęĝ ęęęęĚ",
      "ęĝ ęĚęęĚ",
      "ęĕ ęęě",
      "ĚĘ ęęĝ",
      "ęĚĘ ėęęě",
      "ęĚĘ ĘęęęęĘ",
      "ęĚĘ ĜęęĘ",
      "ęĘĘ ęęęě",
      "ėęęęę ęęĚ",
      "ėęęęę ĚĘ",
      "ėęęęę ėĚ",
      "ęęĝ ęě",
      "ęĘĚ ěęęĘ",
      "ęĘĚ ěęęě",
      "ęĘĚ ĜęęĚ",
      "ęĘĚ ĚęęĚę",
      "ęĚĚ ěęęĚ",
      "ęĚĚ Ěęęě",
      "ęęę Ď",
      "ęęę ď",
      "ęęęě ęęě",
      "ęĔ ğ",
      "ęĔ ęęęę",
      "Āě ě",
      "ęĚě Ěęęęę",
      "ęĚě ęęęĜ",
      "ęĚě ėęęě",
      "ęĘě Ěęęęę",
      "ęěĘ ęęęė",
      "ęěĘ Ęęęě",
      "ęěĘ ęęęĖ",
      "ęěĘ ėęęė",
      "ęěĘ ĖęęĘ",
      "ęĚė ėęęė",
      "ęĘė Ěęęęę",
      "ęĘė Ęęęė",
      "ĀĀĚ Āē",
      "ĀĀė ĀĔ",
      "ęęĚę ē",
      "ęėĚ ęęęĘ",
      "ęėĚ ěęęě",
      "ĀĀě Āğ",
      "ĀĀĖ Āğ",
      "ęėė Ęęęė",
      "ęėė ěęęė",
      "ęěęęęę ęęĚ",
      "ĚĚ ęęĜ",
      "ęē ĝ",
      "ěęęė ę",
      "ĀĀĜ ĀĔ",
      "ęěė ęęęė",
      "ęěė ęęęĖ",
      "ęěě Ęęęęę",
      "ęěě ęęęě",
      "ęęĘęĚ ęĘęęęę",
      "ęėě Ěęęě",
      "ěęęě ę",
      "ĀĀĔ ĀĔ",
      "ęĜĘ ęęęĘ",
      "ęĚĜ ĖęęĚ",
      "ęĖĘ ęęęĘ",
      "ěĘ ęęęĘ",
      "ěĘ ęęĜ",
      "ěĘ ęęĞ",
      "ęĚĖ Ęęęė",
      "ĘęęęęĚ Ěęęęę",
      "ęĘĜ Ęęęě",
      "ęĒ Ę",
      "ęęęĕ ęęĚ",
      "ęĜĚ ęęęĘ",
      "ĀĀğ ĀĔ",
      "ęĜė ęęęĘ",
      "ĀĀĒ ĀĖ",
      "ĀĀĒ Āĕ",
      "ęĖĚ ęęęĚ",
      "ĀĀē ĀĖ",
      "ęėĖ ęęęĘ",
      "ęėĖ ěęęĘ",
      "ęĜĜ ėęęĚ",
      "ęęęęĘĚ Ěęęęę",
      "ęĖě ęęęĜ",
      "ęđ ė",
      "ĖĘ ęęĕ",
      "ĕĘ ęęĕ",
      "ę\" Ę",
      "ĀĀ$ Āė",
      "ęęĚĘęęĚ ę",
      "ęĘęĘ ęęė",
      "ęĚĘĘęęĘ ę",
      "ĀĀĎ Āě",
      "ęėęęęęĚ ę",
      "ęĚęęęęęęĚ Ę",
      "ęęęęęęęęęęęęęęęęęęęęęęęę ęę",
      "\" Ę",
      "$ ĀĀ",
      "% Ę",
      "ď ĕ",
      "Đ Ē",
      "Đ ğ",
      "đ Đ",
      "đ ě",
      "Ē !",
      "Ē ę",
      "Ē ĝ",
      "ē ē",
      "Ĕ ĘęęĘ",
      "Ĕ ęęęęĘ",
      "Ĕ ęęĞ",
      "ĕ Ĕ",
      "ĕ ęęĚę",
      "ĕ ęęĘę",
      "Ė ę",
      "Ė ęęęė",
      "Ė ėęęĘ",
      "Ė ĖęęĘ",
      "Ė ĕęęęę",
      "ė \"",
      "ė ėęęĘ",
      "Ę ęę!",
      "ę ĀĀĘĀ",
      "Ě ęę",
      "Ě ęĚ",
      "Ě ęęęęęęęęęęę",
      "Ě ęę!",
      "ě \"",
      "ě ęęğ",
      "ě ėęęě",
      "ě Ĝęęě",
      "Ĝ Đ",
      "Ĝ Ęęęęę",
      "Ĝ ĘęęĚ",
      "Ĝ ėęęĚ",
      "Ĝ ěęęĚ",
      "Ĝ ęęĚę",
      "Ĝ ęęęęĘĘ",
      "ĝ ď",
      "ĝ ęĚ",
      "ĝ Ęęęęę",
      "ĝ ęęęęĚ",
      "ĝ ĘęęĚ",
      "ĝ ęęē",
      "ĝ ęęĘęĚ",
      "Ğ ĀĀ",
      "Ğ ęęĞ",
      "Ğ Ěęęě",
      "ğ Đ",
      "Ġ \"",
      "Ġ Ĕ",
      "Ġ ęęĖ",
      "Ġ ěęęě",
      "Ġ ĀĀęĀ",
      "Ġ ĀĀĘĀ",
      "ęę &",
      "ęęęę Ĝ",
      "ęĚ ęĔ",
      "ęĚ ęęęęęęęęęęęęęęęę",
      "ęĚ Ėęęęę",
      "ęĚ ęęĘęĚ",
      "ęĚ Ĝęęęę",
      "ęĚ ęęęĚę",
      "ęĚ ęĖęęęę",
      "ęĚ ęěęęĚ",
      "ęĘ ęė",
      "ęĘ ęē",
      "ęĘ ęĘęęęęĚ",
      "ęĘ ęęęęęęęęęęęęę",
      "ęĘ ęęęęęęęęęęęęęęęęęęęę",
      "ęĘ ęěęęęęĚ",
      "ęĘ ęęęęęęęęęęęĚ",
      "ęĘ ęĜęęĘ",
      "ęęĘ ęęė",
      "ęęĘ ĖęęĘ",
      "ęęĚ ėęęęę",
      "ęęĚ ĜęęĚ",
      "ęě đ",
      "ęě ęęĜ",
      "ęě ĘęęĚ",
      "ęė Ē",
      "ęė ęĜ",
      "ęė ęėęęęę",
      "ęė Ĝęęęę",
      "ęė ęĚęęė",
      "ęė ęĜęęĚ",
      "ęęė ěęęęę",
      "ęęė Ęęęė",
      "ęęė ęęęĘę",
      "ęęě ĚęęĘ",
      "Ęęęęę ėĘ",
      "ęęęĚ ęęĘę",
      "Ěęęęę ęęęĘ",
      "ęĜ ęĚęęęę",
      "ęĜ ęĘęęęę",
      "ęĜ ėęęęę",
      "ęĜ ęėęęĘ",
      "ęĜ ĚĘęęĘ",
      "ęĖ ęė",
      "ęĖ ęęĖ",
      "ęĖ ęĚęęęę",
      "ęĖ ęĚęęĘ",
      "ęęĖ Ěęęė",
      "ęęĜ ĘęęĚ",
      "ęęĜ ěęęĚ",
      "ęęĜ ėęęě",
      "ęĚęęęę Ė",
      "ęĚęęęę ęĘęęęę",
      "ęĚęęęę ĚęęĚ",
      "ęĘęęęę ęęĚĘęęęę",
      "ęĝ !",
      "ęĝ ē",
      "ęĕ ęęĖ",
      "ĚĘ ęęĕ",
      "ęĚĘ ęęęě",
      "ęĚĘ ęęĚę",
      "ęĚĘ Ęęęě",
      "ęĚĘ Ėęęě",
      "ęĘĘ Ěęęě",
      "ęĘĘ ĖęęĘ",
      "ęĘĘ ęęęĚę",
      "ęĘĘ ĘęęęęĚ",
      "ęĘĘ ěęęęęĚ",
      "ėęęęę ě",
      "ėęęęę ęęĘ",
      "ęęĝ ęĕ",
      "ęĘĚ ęęęĜ",
      "ęĘĚ ęęęěę",
      "ęĚĚ ęęęęęęęęęęęę",
      "ęĚĚ Ėęęęę",
      "ęĚĚ ĘęęęęĘ",
      "ęĚĚ Ėęęě",
      "ęĚĚ ĕęęĚ",
      "ęęęęĚ ęĚęęęę",
      "ęęęęĚ ęĘęęęę",
      "ĘęęĚ ęĖ",
      "ěęęęę ėĘ",
      "ęęĔ ę",
      "ęęĞ ęě",
      "ęĔ ęęĚ",
      "Āě ğ",
      "ęĚě Ěęęě",
      "ĀĀę ĀĞ",
      "ęěĘ ĘęęĚ",
      "ęěĘ Ęęęė",
      "ęěĘ Ėęęęę",
      "Ęęęė ęĜĘ",
      "ęĚė ĜęęĘ",
      "ęĘė Ęęęęę",
      "ęĘė ėęęė",
      "ęĘė Ĝęęė",
      "ęěĚ ęęęě",
      "ęěĚ ĖęęĚ",
      "ęėĘ ěęęĘ",
      "ĀĜ Ě",
      "ĀĜ Ĝ",
      "ęėĚ Ęęęęę",
      "ęėĚ ĚęęĘ",
      "ęėĚ Ěęęě",
      "ęėĚ ėęęě",
      "ęėĚ ĜęęĚ",
      "ĀĀĖ Āě",
      "ĀĀĖ Āē",
      "ęğ ğ",
      "ęęęĘęęęę ęęĘęęęę",
      "ęėė Ěęęė",
      "ęęĚęęęĚ ęęĘ",
      "ęęĚęęęĚ ęęĚ",
      "ęěęęęę ęęĘ",
      "ęěęęęę ęęě",
      "ęěęęęę ęęĘęęęę",
      "ĚĚ ęęĞ",
      "ęěě ĘęęĚ",
      "ęěě ėęęě",
      "ęęĒ ęĜ",
      "ęęęĚęęęę ęę",
      "Ĝęęęę ė",
      "ęėě Ěęęęę",
      "ĀĀĕ ĀĞ",
      "ĀĀĔ Āĝ",
      "ĀĀĝ Āě",
      "ĀĀĝ ĀĔ",
      "ĘęęęęĘ ęĘęęęę",
      "ęĜĘ ęęęė",
      "ęĚĜ ęęęě",
      "ęĖĘ Ěęęęę",
      "ęĖĘ ĚęęĚ",
      "ęĖĘ ĘęęĘ",
      "ěĘ Ęęęęę",
      "ĘęęęęĚ ė",
      "ĘęęęęĚ ęĘęęęę",
      "ęĘĜ Ěęęě",
      "ėĚ ęęęĚ",
      "ėĚ ęęĕ",
      "ęěĜ ĘęęĚ",
      "ęěĜ ėęęĚ",
      "ęěĜ Ęęęě",
      "ęěĜ ėęęě",
      "ęĜĚ ęęęĚ",
      "ęĜĚ ĚęęĚ",
      "ęęęęĘĘ Ęęęęę",
      "ĀĀğ ĀĖ",
      "ĀĀğ ĀĞ",
      "ęĜė ĚęęĘ",
      "ęĜė ęęęė",
      "ĀĀĒ ĀĞ",
      "ĀĀē ĀĞ",
      "ęėĖ ęęęė",
      "ĕęęĚ ęĔ",
      "ĚęęęęĚ ęĘęęęę",
      "ėě ĚęęĚ",
      "ĀĀđ ĀĘ",
      "ĀĀđ Āğ",
      "ę! Ě",
      "ęĚęĘ ęęĚę",
      "ěĝ ęęě",
      "ĀĀ! Āė",
      "ĕĚ ęęĔ",
      "ęęĘĘęęęę ę",
      "ęĕĚ ĚęęĚ",
      "ęĕĚ ėęęĚ",
      "ęĚĚĘ ęęě",
      "ęęęęĚĚ Ěęęęę",
      "ęĘĘęęęĘ ęęęęęęęę",
      "ěĞ ęęęę",
      "ĠĘ ęęğ",
      "ĠĚ ęęĞ",
      "ęĘęě ęęě",
      "! Ė",
      "! ĀĀėĀ",
      "# ė",
      "# ě",
      "# ğ",
      "$ Ę",
      "$ ě",
      "$ ĝ",
      "% ĕ",
      "& #",
      "Ā #",
      "Ď ĕ",
      "ď ē",
      "Đ đ",
      "đ ęęĖ",
      "ē $",
      "Ĕ ěĜ",
      "ĕ ĘęęĘ",
      "ĕ ęęĞ",
      "ĕ Ěęęė",
      "ĕ ęęęĖ",
      "Ė ē",
      "Ė ğ",
      "Ė ęę",
      "Ė ěęęęę",
      "Ė ęęĚę",
      "Ė ėęęė",
      "Ė ęę!",
      "ė ĘęęĚ",
      "ė ėęęĚ",
      "ė Ęęęė",
      "ė ĖęęĘ",
      "Ę \"",
      "Ę ęę",
      "Ę ęęęĘ",
      "Ę ęęęęęęęęęęęę",
      "Ę ĘęęęęĚ",
      "ę ĀĀęĀ",
      "Ě ğ",
      "Ě ęęęě",
      "Ě ěęęĚ",
      "Ě ęęē",
      "Ě ęęęęęęęęęęęęęęęęęę",
      "ě ğ",
      "ě ęĘęęęę",
      "ě ĚęęĘ",
      "ě ĘęęĘ",
      "ě ĜęęĚ",
      "Ĝ Ď",
      "Ĝ Ĕ",
      "Ĝ ěęęęę",
      "Ĝ ęęē",
      "Ĝ ėęęě",
      "Ĝ ĔęęĚ",
      "ĝ ęęęĚ",
      "ĝ ęęęě",
      "ĝ Ěęęě",
      "ĝ ęęĚę",
      "ĝ ĜęęĚ",
      "ğ &",
      "ğ ęęĕ",
      "Ġ $",
      "Ġ ď",
      "Ġ ē",
      "Ġ ęęĝ",
      "Ġ ęęĔ",
      "Ġ ĀĘ",
      "Ġ ėęęě",
      "Ġ ęęĘęĚ",
      "Ġ ęĘĜ",
      "ęęęę ęęĖ",
      "ęĚ ėęęĚ",
      "ęĚ ęěęęęę",
      "ęĚ ęęęęęęęęęęę",
      "ęĚ ęėęęě",
      "ęĘ Đ",
      "ęĘ ęėęęě",
      "ęĘ ĚĘęęĚę",
      "ęĘ ĚĘęęĜ",
      "ęĘ ęĜęęĚ",
      "ęĘ ęėęęė",
      "ęĘ ęĝęęĘ",
      "ęęĘ Ėęęęę",
      "ęęĘ ěęęė",
      "ęęĘ ęęęĚę",
      "ęęĘ Ėęęě",
      "ęęĘ ĚęęęęĚ",
      "ęęĘ ĚęęĘę",
      "ęęĚ Ěęęė",
      "ęęĚ ęęęĜ",
      "ęęĚ ĚęęęęĘ",
      "ęęĚ Ĝęęęę",
      "ĀĀ ă",
      "ĀĀ Ą",
      "ęě ęĘ",
      "ęě ęė",
      "ęě ęęĘęĚ",
      "ęě Ĝęęęę",
      "ęě ęĚęęĚ",
      "ęě ęĘęęęęĚ",
      "ęě ęęęęĘĘ",
      "ęě ęĘęęė",
      "ęě ęĖęęĚ",
      "ęė ęĚ",
      "ęė ęė",
      "ęė ęĘęęęęĚ",
      "ęė ęĖęęęę",
      "ęęęęęęęę ęęęė",
      "ęęęęęęęę ęęĚęęęę",
      "ęęęęęęęę ĚęęęęĘ",
      "ęęęęęęęę ęęęęĘĚ",
      "ęęęęęęęę ĘĘ",
      "ęęęęęęęę Ęęęęęęę",
      "ęęė ęĝ",
      "ęęė ĖęęĘ",
      "ęęė ĚęęĖ",
      "ęęė Ĝęęė",
      "ęęě ęęęĚę",
      "Ęęęęę ęė",
      "Ęęęęę ęęĘęęęę",
      "Ęęęęę ĚĚ",
      "ęęęĚ Ěęęęę",
      "ęęęĚ ęęĘęęęę",
      "ęęęĚ ęęĚę",
      "Ěęęęę ęĚĚęęęę",
      "Ěęęęę ėĘ",
      "ęęęĘ ęęĜ",
      "ęĜ Ĝęęęę",
      "ęĜ ęĚęęĚ",
      "ęĜ ĚĘęęė",
      "ęĖ Đ",
      "ęĖ Ē",
      "ęĖ ęęĜ",
      "ęęĖ ėęęė",
      "ęęĜ ęęĘ",
      "ęĚęęęę ęęě",
      "ęĚęęęę ĚęęĘ",
      "ęĚęęęę ėęęęę",
      "ęĚęęęę ęęĘęęęę",
      "ęĘęęęę ęęĚĚęęęę",
      "ęĝ Ē",
      "ęĝ ęęęęĘ",
      "ęĕ Ęęęęę",
      "ęĕ ęĘęęĚ",
      "ĚĘ ęę",
      "ĚĘ ęęĘę",
      "ĚĘ ĚęęĘę",
      "ĚęęĚ ęĘĚ",
      "ĚęęĚ ęĘě",
      "ęĚĘ Ę",
      "ęĚĘ ėęęĚ",
      "ęĚĘ ěęęė",
      "ęĚĘ ĕęęĘ",
      "ęĚĘ ęęęĘęęĚ"
    ]
  }
}