{
  "version": "1.0",
  "truncation": null,
  "padding": null,
  "added_tokens": [],
  "normalizer": null,
  "pre_tokenizer": {
    "type": "ByteLevel",
    "add_prefix_space": false,
    "trim_offsets": true,
    "use_regex": true
  },
  "post_processor": {
    "type": "ByteLevel",
    "add_prefix_space": true,
    "trim_offsets": false,
    "use_regex": true
  },
  "decoder": {
    "type": "ByteLevel",
    "add_prefix_space": true,
    "trim_offsets": true,
    "use_regex": true
  },
  "model": {
    "type": "BPE",
    "dropout": null,
    "unk_token": null,
    "continuing_subword_prefix": null,
    "end_of_word_suffix": null,
    "fuse_unk": false,
    "byte_fallback": false,
    "ignore_merges": false,
    "vocab": {
      "\u0000": 0,
      "\u0001": 1,
      "\u0002": 2,
      "\u0003": 3,
      "\u0004": 4,
      "\u0005": 5,
      "\u0006": 6,
      "\u0007": 7,
      "\b": 8,
      "\t": 9,
      "\n": 10,
      "\u000b": 11,
      "\f": 12,
      "\r": 13,
      "\u000e": 14,
      "\u000f": 15,
      "\u0010": 16,
      "\u0011": 17,
      "\u0012": 18,
      "\u0013": 19,
      "\u0014": 20,
      "\u0015": 21,
      "\u0016": 22,
      "\u0017": 23,
      "\u0018": 24,
      "\u0019": 25,
      "\u001a": 26,
      "\u001b": 27,
      "\u001c": 28,
      "\u001d": 29,
      "\u001e": 30,
      "\u001f": 31,
      " ": 32,
      "!": 33,
      "\"": 34,
      "#": 35,
      "$": 36,
      "%": 37,
      "&": 38,
      "'": 39,
      "(": 40,
      ")": 41,
      "*": 42,
      "+": 43,
      ",": 44,
      "-": 45,
      ".": 46,
      "/": 47,
      "0": 48,
      "1": 49,
      "2": 50,
      "3": 51,
      "4": 52,
      "5": 53,
      "6": 54,
      "7": 55,
      "8": 56,
      "9": 57,
      ":": 58,
      ";": 59,
      "<": 60,
      "=": 61,
      ">": 62,
      "?": 63,
      "@": 64,
      "A": 65,
      "B": 66,
      "C": 67,
      "D": 68,
      "E": 69,
      "F": 70,
      "G": 71,
      "H": 72,
      "I": 73,
      "J": 74,
      "K": 75,
      "L": 76,
      "Ā": 77,
      "ā": 78,
      "Ă": 79,
      "ă": 80,
      "Ą": 81,
      "ą": 82,
      "Ć": 83,
      "ć": 84,
      "Ĉ": 85,
      "ĉ": 86,
      "Ċ": 87,
      "ċ": 88,
      "Č": 89,
      "č": 90,
      "Ď": 91,
      "ď": 92,
      "Đ": 93,
      "đ": 94,
      "Ē": 95,
      "ē": 96,
      "Ĕ": 97,
      "ĕ": 98,
      "Ė": 99,
      "ė": 100,
      "Ę": 101,
      "ę": 102,
      "Ě": 103,
      "ě": 104,
      "Ĝ": 105,
      "ĝ": 106,
      "Ğ": 107,
      "ğ": 108,
      "Ġ": 109,
      "&&": 110,
      "&&&&": 111,
      "&'": 112,
      "&%": 113,
      "&&'": 114,
      "&&%": 115,
      "ĀĀ": 116,
      "&(": 117,
      "&$": 118,
      "&&(": 119,
      "&&$": 120,
      "&)": 121,
      "&#": 122,
      "%&&": 123,
      "'&&": 124,
      "%&&&&": 125,
      "'&&&&": 126,
      "&*": 127,
      "&\"": 128,
      "&&#": 129,
      "&&)": 130,
      "&'&&&&": 131,
      "&%&&&&": 132,
      "$&&": 133,
      "(&&": 134,
      "&&'&": 135,
      "&&%&": 136,
      "&+": 137,
      "#&&": 138,
      "&!": 139,
      ")&&": 140,
      "$&&&&": 141,
      "&&&&&&&&": 142,
      "(&&&&": 143,
      "&&'&'": 144,
      "&&%&'": 145,
      "&&'&%": 146,
      "&&%&%": 147,
      "*&&": 148,
      "%'": 149,
      "\"&&": 150,
      "''": 151,
      "&,": 152,
      "%%": 153,
      "&&&%": 154,
      "'%": 155,
      "&&&'": 156,
      "!&&": 157,
      "&&%&(": 158,
      "&&'&$": 159,
      "&&&&%": 160,
      "&&'&(": 161,
      "&&%&$": 162,
      "&&(&": 163,
      "&&&&'": 164,
      "&&$&": 165,
      "&&\"": 166,
      "&&*": 167,
      "&&(&%": 168,
      "&&$&'": 169,
      "&&(&'": 170,
      "&&$&%": 171,
      "('": 172,
      "(%": 173,
      "$%": 174,
      "&-": 175,
      "'&&&'": 176,
      "#&&&&": 177,
      "$'": 178,
      ")&&&&": 179,
      "%&&&%": 180,
      "%Ā": 181,
      "ĀĀ%Ā": 182,
      "&ğ": 183,
      "&Ā": 184,
      "ĀĀ&Ā": 185,
      "&&%&&&&": 186,
      "+&&": 187,
      "$Ā": 188,
      "ĀĀ$Ā": 189,
      "%(": 190,
      "&&'&&&&": 191,
      "&&'&&": 192,
      "'(": 193,
      "'$": 194,
      "Ġ&&": 195,
      "%$": 196,
      "&&%&&": 197,
      "&$&&&&": 198,
      "''&&&&": 199,
      "'Ā": 200,
      "ĀĀ'Ā": 201,
      "&&$&(": 202,
      "($": 203,
      "%%&&&&": 204,
      "&(&&&&": 205,
      "&&(&$": 206,
      "&.": 207,
      "#Ā": 208,
      "ĀĀ#Ā": 209,
      "(Ā": 210,
      "ĀĀ(Ā": 211,
      "$(": 212,
      "((": 213,
      "&&%&)": 214,
      "&&$&$": 215,
      "%'&&&&": 216,
      "&&'&#": 217,
      "&&(&(": 218,
      ",&&": 219,
      "\"Ā": 220,
      "ĀĀ\"Ā": 221,
      "$$": 222,
      "%&&)": 223,
      "&&'&)": 224,
      "'&&#": 225,
      "'%&&&&": 226,
      "&&%&#": 227,
      "%&&#": 228,
      ")Ā": 229,
      "ĀĀ)Ā": 230,
      "#'": 231,
      "&Ğ": 232,
      "'&&)": 233,
      "')": 234,
      "%)": 235,
      "&&&": 236,
      "\"&&&&": 237,
      "$&&&%": 238,
      "'#": 239,
      "%#": 240,
      "&&!": 241,
      "(&&&'": 242,
      "!Ā": 243,
      "ĀĀ!Ā": 244,
      "$)": 245,
      "*&&&&": 246,
      "&&+": 247,
      ")'": 248,
      ")%": 249,
      ")$": 250,
      "&&%&&%": 251,
      "(#": 252,
      "&&'&&'": 253,
      "&&'&&%": 254,
      "*Ā": 255,
      "ĀĀ*Ā": 256,
      "&&$&)": 257,
      "#%": 258,
      "&/": 259,
      ")(": 260,
      "#(": 261,
      "&&(&#": 262,
      "&&%&&'": 263,
      "#$": 264,
      "+Ā": 265,
      "ĀĀ+Ā": 266,
      "&&$&#": 267,
      "&&)&'": 268,
      "&&)&%": 269,
      "&&%&*": 270,
      "ĠĀ": 271,
      "&&#&'": 272,
      "ğ&&": 273,
      "&&#&%": 274,
      "()": 275,
      "&&(&)": 276,
      "'\"": 277,
      "&ĝ": 278,
      "&&'&\"": 279,
      "$#": 280,
      "&&(&&": 281,
      "'*": 282,
      "-&&": 283,
      "%&&&'": 284,
      "%&&\"": 285,
      "ğĀ": 286,
      "ĀĀğĀ": 287,
      ",Ā": 288,
      "ĀĀ,Ā": 289,
      "%&&*": 290,
      "*%": 291,
      "&&$&&": 292,
      "&&'&*": 293,
      "!&&&&": 294,
      "'&&&%": 295,
      "&&#&(": 296,
      "*(": 297,
      "&&%&\"": 298,
      "#)": 299,
      "&&)&$": 300,
      "%\"": 301,
      "'&&\"": 302,
      "%*": 303,
      "'&&*": 304,
      "-Ā": 305,
      "ĀĀ-Ā": 306,
      "))": 307,
      "&'&&&&%": 308,
      "\"'": 309,
      "*$": 310,
      "\"$": 311,
      "&Ĝ": 312,
      "##": 313,
      "Ğ&&": 314,
      "%&&&$": 315,
      "'&&&(": 316,
      "+&&&&": 317,
      "&'%": 318,
      "&&#&$": 319,
      "&&)&(": 320,
      "$&&*": 321,
      "*'": 322,
      "&#&&&&": 323,
      "'&&&&&": 324,
      "\"%": 325,
      "&%%&&&&": 326,
      "\"(": 327,
      "ĞĀ": 328,
      "ĀĀĞĀ": 329,
      "&&(&\"": 330,
      ".Ā": 331,
      "ĀĀ.Ā": 332,
      "&)&&&&": 333,
      "(%&&&&": 334,
      "$*": 335,
      "$%&&&&": 336,
      "Ġ&&&&": 337,
      "&&'&&&'": 338,
      "&%&&&&'": 339,
      "(&&&(": 340,
      "&&)&": 341,
      ")#": 342,
      "$\"": 343,
      "(*": 344,
      "(&&\"": 345,
      "&&&&&&&&&&&&": 346,
      "$'&&&&": 347,
      "&&%&&&%": 348,
      "&&(&*": 349,
      "&&#&": 350,
      "&&(&&&&": 351,
      "(\"": 352,
      "&'%&&&&": 353,
      "&%'": 354,
      "('&&&&": 355,
      "&%&&&&%": 356,
      "%&&+": 357,
      "'+": 358,
      ")*": 359,
      "&&$&*": 360,
      "$&&\"": 361,
      "&'&&&&'": 362,
      "&'&&&&&&": 363,
      "ĝĀ": 364,
      "ĀĀĝĀ": 365,
      ".&&": 366,
      ")&&&'": 367,
      "'$&&&&": 368,
      "(+": 369,
      "/Ā": 370,
      "ĀĀ/Ā": 371,
      "$&&&$": 372,
      "&&%&+": 373,
      "!(": 374,
      "ĝ&&": 375,
      "%$&&&&": 376,
      "'(&&&&": 377,
      "\")": 378,
      "&&$&\"": 379,
      "&&'&+": 380,
      "Ġ(": 381,
      "(&&*": 382,
      "!%": 383,
      "*)": 384,
      "&&$&&&&": 385,
      "$+": 386,
      "&&)&#": 387,
      "&%&'": 388,
      "&&'&&(": 389,
      "&&#&)": 390,
      "ĜĀ": 391,
      "ĀĀĜĀ": 392,
      "'&&&'&": 393,
      "!)": 394,
      ")&&\"": 395,
      "#&&*": 396,
      "&%&&&&&&": 397,
      "%(&&&&": 398,
      "&&%&&&&&&&&": 399,
      "#*": 400,
      "&&'&&&&&&&&": 401,
      "&''": 402,
      "&&)&)": 403,
      "'&&+": 404,
      "&&%&!": 405,
      "#&&\"": 406,
      "#\"": 407,
      "%+": 408,
      "&'&%": 409,
      "&''&&&&": 410,
      ")&&*": 411,
      "%&&!": 412,
      "ěĀ": 413,
      "ĀĀěĀ": 414,
      "&&'&!": 415,
      "%!": 416,
      "',": 417,
      "&&%&&$": 418,
      "&%&%": 419,
      ")\"": 420,
      "&&(&&'": 421,
      "#+": 422,
      "'&&!": 423,
      "%&&&%&": 424,
      "Ġ#": 425,
      "&&$&+": 426,
      "*#": 427,
      ")+": 428,
      "&$&%": 429,
      "&&(&!": 430,
      "&&#&*": 431,
      "/&&": 432,
      "&&$&&%": 433,
      "!$": 434,
      "+$": 435,
      "&&%&&(": 436,
      "&&#&#": 437,
      "*\"": 438,
      "Ġ%": 439,
      "&'&&&&&&&&": 440,
      "&&&%&": 441,
      "Ġ$": 442,
      "'!": 443,
      "&&#&&": 444,
      "&(&%": 445,
      "&ě": 446,
      "\"#": 447,
      "**": 448,
      "$!": 449,
      "$&&+": 450,
      "+(": 451,
      "&&$&&'": 452,
      "&%&&&&&&&&": 453,
      "\"\"": 454,
      "&&(&&%": 455,
      "-ĀĀ": 456,
      "Ĝ&&": 457,
      "&%%": 458,
      "&%(": 459,
      "&%'&&&&": 460,
      "!#": 461,
      "$&&!": 462,
      "(&&+": 463,
      "&$&'": 464,
      "&&(&+": 465,
      "&\"&&&&": 466,
      ",&&&&": 467,
      "&(&'": 468,
      "&&$&!": 469,
      "&&&'&": 470,
      "&ĀĀ": 471,
      "#&&&%": 472,
      "+%": 473,
      "+ĀĀ": 474,
      "ĚĀ": 475,
      "&'&'": 476,
      ",ĀĀ": 477,
      "(&&!": 478,
      "ęĀ": 479,
      "Ġ)": 480,
      "+'": 481,
      ",)": 482,
      "Ġ&'": 483,
      "&&'&&$": 484,
      "*&&\"": 485,
      "(!": 486,
      "&$%": 487,
      "+)": 488,
      "\"&&*": 489,
      "+#": 490,
      "%&&&&&": 491,
      "/ĀĀ": 492,
      ",(": 493,
      "Ġ'": 494,
      "&&&&&&&&&&&&&&&&": 495,
      "Ġ\"": 496,
      "&&)&\"": 497,
      "Ġ&(": 498,
      "*ĀĀ": 499,
      "'&&&&%": 500,
      "&&,": 501,
      "&&#&+": 502,
      "!'": 503,
      "&&&'&&&&": 504,
      "&%$": 505,
      "&&%&&&&&": 506,
      "((&&&&": 507,
      "($&&&&": 508,
      "&*&&&&": 509,
      "*&&*": 510,
      "ğ)": 511,
      "Ġ*": 512,
      "%&&,": 513,
      "#&&+": 514,
      ".ĀĀ": 515,
      "&&ğ": 516,
      "&#&'": 517,
      "'&&&)": 518,
      "$,": 519,
      "Ġ&)": 520,
      "&&$&,": 521,
      "&Ě": 522,
      "\"*": 523,
      "#!": 524,
      "%&&'&": 525,
      "%&&&&%": 526,
      ")!": 527,
      "&&&%&&&&": 528,
      "&&''": 529,
      "&%#": 530,
      "&&)&&": 531,
      "&&'&&&&&": 532,
      "&&%'": 533,
      "#&&!": 534,
      "$$&&&&": 535,
      "ĘĀ": 536,
      "&&%&,": 537,
      "*+": 538,
      "Ġ&": 539,
      "&('": 540,
      "Ġ+": 541,
      "&(&": 542,
      "'&&,": 543,
      "Ġ!": 544,
      "&$'": 545,
      "#&&&$": 546,
      ",'": 547,
      "&&%&&&'": 548,
      "%&&&&'": 549,
      "\"&&\"": 550,
      ")&&!": 551,
      ")&&+": 552,
      "!&&*": 553,
      "Ā+": 554,
      "&'(": 555,
      "*&&!": 556,
      "%,": 557,
      "&&'&&&%": 558,
      "&&#&\"": 559,
      "ğ(": 560,
      "&(&$": 561,
      "&&$&&$": 562,
      "$&&,": 563,
      "\"!": 564,
      "&(%": 565,
      "&&)&*": 566,
      "-(": 567,
      "ĀĀĚĀ": 568,
      "!&&\"": 569,
      "Ġ&%": 570,
      "Ġ&$": 571,
      "&&(&&(": 572,
      "'&&&&'": 573,
      "'%&&'&": 574,
      "(&&,": 575,
      "-&&&&": 576,
      "&&'%": 577,
      "ğ%": 578,
      "ĀĀęĀ": 579,
      "%&&&&&&": 580,
      ",#": 581,
      ",%": 582,
      "-'": 583,
      "%'&&%&": 584,
      "ě&&": 585,
      "&'#": 586,
      "'&&&'&%": 587,
      "!\"": 588,
      "&$&&&&'": 589,
      "&)&%": 590,
      "'&&&&&&": 591,
      "*&&&'": 592,
      ",*": 593,
      "-$": 594,
      "(&&&%": 595,
      "%%&&%&": 596,
      "!*": 597,
      "+*": 598,
      "ėĀ": 599,
      "&'$": 600,
      "ĖĀ": 601,
      "&&%%": 602,
      "&&%%&&&&": 603,
      "%&&-": 604,
      "&&'&&&'&&&&": 605,
      ")ĀĀ": 606,
      ",$": 607,
      "&&'&%&&&&": 608,
      "&#&%": 609,
      "\"&&+": 610,
      ")ğ": 611,
      "&&$&&&%": 612,
      "Ġ-": 613,
      "&(&(": 614,
      ",+": 615,
      "%&&ğ": 616,
      "&&%&&&$": 617,
      "Ġ&*": 618,
      "&&%&%&&&&": 619,
      "&$$": 620,
      "%&&&%&%": 621,
      "\"+": 622,
      "'ğ": 623,
      "&&'&&)": 624,
      "&(&&&&%": 625,
      "&&$&&(": 626,
      "'&&&$": 627,
      "'&&&&&&&&": 628,
      "(&&&'&": 629,
      "!!": 630,
      "&ę": 631,
      "&&-": 632,
      "&%)": 633,
      "#&&,": 634,
      "&&Ğ": 635,
      "'&&-": 636,
      "(,": 637,
      "*!": 638,
      "Ġğ": 639,
      "'&&&&&'": 640,
      "&&'&ğ": 641,
      "'&&&'&'": 642,
      "%&&&%&'": 643,
      "&&%&&&%&&&&": 644,
      "'-": 645,
      "&&(&&$": 646,
      "$&&-": 647,
      "\"&&&$": 648,
      "''&&'&": 649,
      "#,": 650,
      "),": 651,
      "&&%&&#": 652,
      "$&&&'": 653,
      "$Ğ": 654,
      "(ğ": 655,
      "*,": 656,
      "Ġ,": 657,
      "%&&&&&&&&": 658,
      "$(&&&&": 659,
      "&((": 660,
      "Ġ&#": 661,
      "&(&&&&'": 662,
      "&$(": 663,
      "'&&&&&%": 664,
      "&'&&&&&": 665,
      "&&'&,": 666,
      "%#&&&&": 667,
      "(ĀĀ": 668,
      "ĕĀ": 669,
      "&($": 670,
      "&&%&-": 671,
      "\"&&!": 672,
      "\"&&&%": 673,
      "$&&&%&": 674,
      "&')": 675,
      "&&)&+": 676,
      "&&%&&)": 677,
      "%ğ": 678,
      "'#&&&&": 679,
      "+\"": 680,
      "&&(&&&'": 681,
      "%&&&&&%": 682,
      "&'&&&&(": 683,
      "*&&+": 684,
      "%'&&%&'": 685,
      "$ğ": 686,
      "&$&&&&%": 687,
      "&&(&,": 688,
      "&()": 689,
      "&$#": 690,
      "%&&&&&'": 691,
      "&&&%&'": 692,
      "Ā-": 693,
      "&'&&%&": 694,
      "&'&&&&$": 695,
      ")&&,": 696,
      "%-": 697,
      "&&&&$": 698,
      "ĀĀĘĀ": 699,
      "&#'": 700,
      "&%&&&&&": 701,
      "$&&ğ": 702,
      ")&&&(": 703,
      "!+": 704,
      "ĔĀ": 705,
      "&'*": 706,
      "&&%'&&&&": 707,
      "&#&": 708,
      "&#&$": 709,
      "'&&ğ": 710,
      "Ġ&&\"": 711,
      "&&.": 712,
      "&%&&'&": 713,
      "&&)&!": 714,
      "&%&&&&(": 715,
      "(&&&&&": 716,
      "')&&&&": 717,
      ")-": 718,
      "ğ$": 719,
      "ĠĞ": 720,
      "&(*": 721,
      "&)&'": 722,
      ",\"": 723,
      "Ā.": 724,
      "Ġ&&*": 725,
      "%&&.": 726,
      "(&&ğ": 727,
      "(&&&&'": 728,
      "'%&&'&'": 729,
      "#-": 730,
      "(-": 731,
      "(.": 732,
      ").": 733,
      "%&&Ğ": 734,
      "&'&&&&&&'": 735,
      "&&'&&&%&&&&": 736,
      "\"ğ": 737,
      ")&&ğ": 738,
      "$&&&&%": 739,
      "#ĀĀ": 740,
      ")'&&&&": 741,
      "++": 742,
      "ğ\"": 743,
      "Ğ$": 744,
      "!&&+": 745,
      "'.": 746,
      "'ĀĀ": 747,
      "&'&&'&": 748,
      "&&(%": 749,
      "&&#&!": 750,
      "#&&-": 751,
      "*&&&)": 752,
      "&&&%&%": 753,
      "&&%&&&'&&&&": 754,
      ":Ā": 755,
      "ğ*": 756,
      "&(#": 757,
      "(&&-": 758,
      ")&&&)": 759,
      "''%&&&&": 760,
      "\"-": 761,
      "%Ğ": 762,
      "Ě&&": 763,
      "&&'%&&&&": 764,
      "&)$": 765,
      "'%&&'&%": 766,
      "!-": 767,
      "%.": 768,
      "%&&%&": 769,
      "+!": 770,
      "&)'": 771,
      "(&&&)": 772,
      "!&&!": 773,
      ";Ā": 774,
      "&%&&%&": 775,
      "&%$&&&&": 776,
      "&&''&&&&": 777,
      "&%&&&&$": 778,
      "(&&.": 779,
      "&!&&&&": 780,
      "(&&&&%": 781,
      "%%&&%&'": 782,
      "&&'&&&(": 783,
      "-*": 784,
      "&&&$": 785,
      "&)(": 786,
      "&#&(": 787,
      "&&'&&&$": 788,
      "\",": 789,
      "#%&&&&": 790,
      "Ğ(": 791,
      "ğ'": 792,
      "%)&&&&": 793,
      ",,": 794,
      "&'&%&&&&": 795,
      "ĀĀėĀ": 796,
      "'&&.": 797,
      "(&&&*": 798,
      "&+&&&&": 799,
      "#&&ğ": 800,
      "%&&)&%": 801,
      "%&&#&%": 802,
      "#ğ": 803,
      "ēĀ": 804,
      "ĝ$": 805,
      "Ğ\"": 806,
      "Ġ&\"": 807,
      "&)%": 808,
      "&&#&,": 809,
      "#.": 810,
      "Ġ&+": 811,
      "*&&&*": 812,
      "'&&#&%": 813,
      "!.": 814,
      "&Ę": 815,
      "*-": 816,
      "&&#'": 817,
      "(&&Ğ": 818,
      "&&$&.": 819,
      "%ĀĀ": 820,
      "Ġĝ": 821,
      "&&%$": 822,
      "&&$'": 823,
      "&\"&'": 824,
      "'''&&&&": 825,
      "!ĀĀ": 826,
      "'&&'&": 827,
      ")%&&&&": 828,
      "*.": 829,
      "Ġ.": 830,
      "Ġ&,": 831,
      "&&&(": 832,
      "''&&'&'": 833,
      "&&*&%": 834,
      "$.": 835,
      "ĠĀĀ": 836,
      "$&&.": 837,
      ")&&-": 838,
      "*&&&(": 839,
      "&&(&ğ": 840,
      "&&\"&%": 841,
      "(%&&'&": 842,
      "'&&#&'": 843,
      "\"ĝ": 844,
      "$-": 845,
      "%&&'&'": 846,
      "(Ğ": 847,
      ")/": 848,
      "ğ#": 849,
      "&&%&'&&&&": 850,
      "'&&Ğ": 851,
      "#&&&'": 852,
      "$&&&&'": 853,
      "%'&&%&%": 854,
      "''&&'&%": 855,
      "'Ğ": 856,
      "&&ĝ": 857,
      "&&&&(": 858,
      "&%*": 859,
      "&&('": 860,
      "%&&&(": 861,
      "'&&&'&$": 862,
      "!,": 863,
      "/+": 864,
      "00": 865,
      "&&&'&%": 866,
      "('&&'&": 867,
      "+&&!": 868,
      "Ġ&&!": 869,
      "&&'&&&'&": 870,
      "\"Ğ": 871,
      "#'&&&&": 872,
      "%&&%&'": 873,
      "Ā'": 874,
      "Ā(": 875,
      "&%&&'&%": 876,
      "&&'&&#": 877,
      "&$*": 878,
      "&$&$": 879,
      "&#(": 880,
      "&&)&&&&": 881,
      "%'%&&&&": 882,
      "%''&&&&": 883,
      "\"&&ğ": 884,
      "\"ĀĀ": 885,
      "#$&&&&": 886,
      "%&&%&%": 887,
      "Ā%": 888,
      "(&&&'&'": 889,
      "+,": 890,
      "-.": 891,
      "&$&&%&": 892,
      "&&$&&#": 893,
      "&#%": 894,
      "%&&ĝ": 895,
      "$&&&#": 896,
      "$&&&\"": 897,
      "#&&&#": 898,
      "*&&,": 899,
      "\"&&,": 900,
      "\"&&-": 901,
      "!&&,": 902,
      "&$&&&&(": 903,
      "%&&&'&": 904,
      "-+": 905,
      "ğ!": 906,
      "Ġ/": 907,
      "Ġ0": 908,
      "&&'(": 909,
      "&&'&'&&&&": 910,
      "&&%(": 911,
      "&$&(": 912,
      "'&&&*": 913,
      "&&)&,": 914,
      "&%&&&&&&&&&&&&": 915,
      "\"&&&#": 916,
      "%%&&%&(": 917,
      "ĝ%": 918,
      "&'\"": 919,
      "&%\"": 920,
      "&&%&Ğ": 921,
      "$'&&%&'": 922,
      "$&&&%&'": 923,
      "%&&\"&'": 924,
      "$&&'&%": 925,
      "%\"&&&&": 926,
      "*Ğ": 927,
      "+-": 928,
      ".(": 929,
      "Ā$": 930,
      "&&/": 931,
      "ĀĀĕĀ": 932,
      "&#$": 933,
      "'&&&&&(": 934,
      ")&&&%": 935,
      "&&&&'&": 936,
      "(%&&'&%": 937,
      "(&&&'&%": 938,
      "'&&&%&": 939,
      "!ğ": 940,
      "()&&&&": 941,
      "/*": 942,
      "Ā#": 943,
      "ĝ#": 944,
      "&)&$": 945,
      "&#*": 946,
      "&&%&%&'": 947,
      "%%%&&&&": 948,
      "%%'&&&&": 949,
      "&&&'&'": 950,
      "&&(&Ğ": 951,
      "%&&#&'": 952,
      "&%&&&&'&": 953,
      "%&&'&%": 954,
      "+.": 955,
      "-)": 956,
      "--": 957,
      "&&&&&&": 958,
      "&&$&&)": 959,
      "&'&&&&&&&&&&&&": 960,
      "&&'&Ğ": 961,
      "&&%&.": 962,
      "*&&-": 963,
      "'%%&&&&": 964,
      "%&&)&'": 965,
      "'&&&(&": 966,
      "#Ğ": 967,
      "&ė": 968,
      "ĝ\"": 969,
      "Ġě": 970,
      "&%&&'&'": 971,
      "&&'&&'&&&&": 972,
      "&$)": 973,
      "*&&ğ": 974,
      "%''": 975,
      "(%&&'&'": 976,
      "%%&&&&'": 977,
      "$ĀĀ": 978,
      "$)&&&&": 979,
      "Ġ&-": 980,
      "&\"%": 981,
      "%'&&%&(": 982,
      "'%&&'&(": 983,
      "!&&-": 984,
      "$%&&%&%": 985,
      "$'&&%&": 986,
      "+&&,": 987,
      "Ġ&&+": 988,
      "$&&&%&%": 989,
      "&&%&&%'": 990,
      "&&$&&&$": 991,
      "\".": 992,
      "'ĝ": 993,
      "(/": 994,
      "<Ā": 995,
      "Ĝ&": 996,
      "Ġ&!": 997,
      "%&&&\"": 998,
      "%&&&&&&&&&&&&": 999,
      "&&#&&&&": 1000,
      "&&#&-": 1001,
      "&&)&-": 1002,
      "$&&Ğ": 1003,
      "$&&&&&": 1004,
      "(&&&&&%": 1005,
      "'''": 1006,
      "%%&&%&%": 1007,
      "&&(&-": 1008,
      "'&&&'&(": 1009,
      "'&&#&": 1010,
      "'&&)&": 1011,
      "&%%&&&&&": 1012,
      "'*&&&&": 1013,
      "*/": 1014,
      "*ğ": 1015,
      "ę&&": 1016,
      "&'&$": 1017,
      "&$&)": 1018,
      "&))": 1019,
      "%&&/": 1020,
      "'&&/": 1021,
      "&\"(": 1022,
      "\"&&&\"": 1023,
      "&&%&&&(": 1024,
      ",&&!": 1025,
      "&&'&&''": 1026,
      "$&&%&%": 1027,
      "$#&&&&": 1028,
      "'/": 1029,
      "(ĝ": 1030,
      "(&&'&": 1031,
      "(#&&&&": 1032,
      ",-": 1033,
      "ĀĞ": 1034,
      "Ĝ#": 1035,
      "&&(&&)": 1036,
      "&##": 1037,
      "&*$": 1038,
      "&\"#": 1039,
      "&%&&&&&&%": 1040,
      ")&&&*": 1041,
      "$%&&%&'": 1042,
      "&$&&&&$": 1043,
      "(&&'&'": 1044,
      "Ğ&": 1045,
      "&'&&'&%": 1046,
      "&&%&&'&&&&": 1047,
      "ĀĀĖĀ": 1048,
      "&&(&&&%": 1049,
      "&)\"": 1050,
      "'&&ĝ": 1051,
      "%&&&&&(": 1052,
      "$&&/": 1053,
      "(&&ĝ": 1054,
      "!&&&\"": 1055,
      "('&&'&'": 1056,
      "'&&)&$": 1057,
      "(&&&(&": 1058,
      "$/": 1059,
      "$&&'&'": 1060,
      "%/": 1061,
      ")ĝ": 1062,
      ")Ğ": 1063,
      "Ĝ$": 1064,
      "ğ-": 1065,
      "ğ.": 1066,
      "Ġ1": 1067,
      "$&&ĝ": 1068,
      "&&*&'": 1069,
      "+&&&(": 1070,
      "!Ğ": 1071,
      "%ĝ": 1072,
      "Ā*": 1073,
      "Ā,": 1074,
      "ĝ!": 1075,
      "&'$&&&&": 1076,
      "&'&&%&'": 1077,
      "&'&&%&%": 1078,
      "&%!": 1079,
      "&&'&&\"": 1080,
      "&&%&&%&&&&": 1081,
      "&(!": 1082,
      "&(\"": 1083,
      "&(+": 1084,
      "&(&&%&": 1085,
      "&$!": 1086,
      "&$+": 1087,
      "&&$&&&&&&&&": 1088,
      "&)*": 1089,
      "&#&&&&%": 1090,
      "%&&&#": 1091,
      "&&*&": 1092,
      "&&*&\"": 1093,
      "$%&&%&": 1094,
      "&&'&&%'": 1095,
      "&'&&&&%&": 1096,
      "$&&'&": 1097,
      "'\"&&&&": 1098,
      ",ĀĀ$Ā": 1099,
      "&'+": 1100,
      "&%&%&&&&": 1101,
      "&%&&%&%": 1102,
      "&$\"": 1103,
      "&#\"": 1104,
      "&&)&ğ": 1105,
      "&&'&-": 1106,
      "\"&&&!": 1107,
      "&&\"&": 1108,
      "+&&+": 1109,
      ",&&+": 1110,
      "(&&%&'": 1111,
      "ĒĀ": 1112,
      "Ğ*": 1113,
      "ğ&&&&": 1114,
      "&'&(": 1115,
      "&'(&&&&": 1116,
      "&%+": 1117,
      "&&%&'&&&&&&": 1118,
      "&&$&&&'": 1119,
      "'&&&&&&&&&&&&": 1120,
      "&*'": 1121,
      "&&#&.": 1122,
      "'%&&'&$": 1123,
      "!&&ğ": 1124,
      "%&&)&$": 1125,
      "&&'&&%%&&&&": 1126,
      "&&%&&''": 1127,
      "&&&&&&&&&&&&&&": 1128,
      "&&&&&&&&&&&&&&&": 1129,
      "&'&&&&'&": 1130,
      "..": 1131,
      ">Ā": 1132,
      "Ğ#": 1133,
      "Ġ&&%&'": 1134,
      "&%&'&&&&": 1135,
      "&)+": 1136,
      "#&&.": 1137,
      "\"&&.": 1138,
      "'%'&&&&": 1139,
      "&&(&.": 1140,
      "&&\"&'": 1141,
      "+&&&)": 1142,
      "'&&)&'": 1143,
      "&&(&&&(": 1144,
      "&&%&&&%&": 1145,
      "-ĀĀ%Ā": 1146,
      "/)": 1147,
      "ğĀĀ": 1148,
      "&%,": 1149,
      "&%&&": 1150,
      "&&'&&*": 1151,
      "&&'&&%&&&&": 1152,
      "&)#": 1153,
      "&#)": 1154,
      "'&&&&(": 1155,
      "&%&&&&&&'": 1156,
      ")&&.": 1157,
      ")&&Ğ": 1158,
      "&&'&%&'&&&&": 1159,
      "%%&&%&$": 1160,
      "!&&&$": 1161,
      "&&&&%&'": 1162,
      "&&$&-": 1163,
      "&&$&ğ": 1164,
      "&&*&#": 1165,
      "Ġ&&,": 1166,
      "&&%&&%%": 1167,
      "&'%&&&&&": 1168,
      "$&&%&'": 1169,
      "(&&%&%": 1170,
      ")$&&&&": 1171,
      "+/": 1172,
      ",ĀĀ'Ā": 1173,
      ".&&&&": 1174,
      ".ĀĀ%Ā": 1175,
      "10": 1176,
      "Ĝ\"": 1177,
      "Ğ'": 1178,
      "Ğ)": 1179,
      "ĀĀ:Ā": 1180,
      "&&(&&&&&&&&": 1181,
      "'&&&&&$": 1182,
      "&*#": 1183,
      "&*(": 1184,
      "&&#&ğ": 1185,
      "(&&/": 1186,
      "&&'&'&%&&&&": 1187,
      "%%&&'&": 1188,
      "!&&&#": 1189,
      "$'&&%&%": 1190,
      "%&&&%&(": 1191,
      "%(&&%&'": 1192,
      "&&'&&&)": 1193,
      "%&&)&": 1194,
      "%&&#&": 1195,
      "&&%&&%%&&&&": 1196,
      "&&'&&'%&&&&": 1197,
      "$ĝ": 1198,
      "(&": 1199,
      "-#": 1200,
      "/,": 1201,
      "ĝ'": 1202,
      "&%&&%&'": 1203,
      "&(&&'&%": 1204,
      "&$&&'&": 1205,
      "&&$%": 1206,
      "&\"$": 1207,
      "#&&Ğ": 1208,
      "%'(&&&&": 1209,
      "&&&&%&": 1210,
      "&&%&&'%": 1211,
      "&&%&&''&&&&": 1212,
      "&%&&&&%&": 1213,
      "&'&&&&&&&&&&&": 1214,
      "-ĀĀ'Ā": 1215,
      "/'": 1216,
      "Ĝ(": 1217,
      "ğ,": 1218,
      "ğ/": 1219,
      "&(ğ": 1220,
      "&(&&": 1221,
      "&&(&&#": 1222,
      "&#&&&&'": 1223,
      "'&&Ĝ": 1224,
      "&*%": 1225,
      "&*+": 1226,
      "&\"'": 1227,
      "'%&&%&": 1228,
      "'%&&(&%": 1229,
      "&&&&%&%": 1230,
      "&&\"&$": 1231,
      "&&\"&)": 1232,
      "&&*&(": 1233,
      "%$&&%&'": 1234,
      "''&&&&%": 1235,
      "%&&#&$": 1236,
      "'&&)&%": 1237,
      "%&&&$&": 1238,
      "$&&&$&": 1239,
      "(Ĝ": 1240,
      "-%": 1241,
      "/ĀĀ'Ā": 1242,
      "Ā\"": 1243,
      "Ĝ!": 1244,
      "Ġ%&&": 1245,
      "&%(&&&&": 1246,
      "&**": 1247,
      "&\"\"": 1248,
      "&'&&&&#": 1249,
      "&'&&&&&&%": 1250,
      "&&'&.": 1251,
      "#&&&\"": 1252,
      ")&&/": 1253,
      ")&&ĝ": 1254,
      "$&&&&&%": 1255,
      "*&&/": 1256,
      "''&&'&$": 1257,
      "&,&&&&": 1258,
      "&&(&ĝ": 1259,
      "&&$&/": 1260,
      "%&&&%&$": 1261,
      "+&&ğ": 1262,
      "%&&)&(": 1263,
      "'&&#&$": 1264,
      "%&&&'&%": 1265,
      "&ĀĀ$Ā": 1266,
      "(&&%&": 1267,
      "Ā)": 1268,
      "ĝ+": 1269,
      "Ğ&&&&": 1270,
      "&'&&'&'": 1271,
      "'&&&&&&'": 1272,
      "&\"*": 1273,
      "&&#&&%": 1274,
      "%'&&%&$": 1275,
      "''&&%&": 1276,
      "''&&(&": 1277,
      "%%%": 1278,
      "&&&%&(": 1279,
      "('&&'&%": 1280,
      "&&%&&&&&&": 1281,
      "+&&-": 1282,
      "'(&&'&": 1283,
      ",&&,": 1284,
      "'&&#&(": 1285,
      "&&%&&'%&&&&": 1286,
      "'&&\"&'": 1287,
      ",.": 1288,
      "-\"": 1289,
      ".ĀĀ'Ā": 1290,
      "/ĀĀ%Ā": 1291,
      "20": 1292,
      "Ğ%": 1293,
      "&'!": 1294,
      "&'&'&&&&": 1295,
      "&%&(": 1296,
      "&&'$": 1297,
      "ĀĀĔĀ": 1298,
      "ĀĀ;Ā": 1299,
      "ĀĀēĀ": 1300,
      "&$,": 1301,
      "&$%&&&&": 1302,
      "&)&&&&%": 1303,
      "'&&&&$": 1304,
      "&&%&ğ": 1305,
      "#&&/": 1306,
      "%'%": 1307,
      "%'&&'&": 1308,
      "''&&(&%": 1309,
      "''&&(&'": 1310,
      "&&*&$": 1311,
      "(%&&'&$": 1312,
      "$%&&$&'": 1313,
      "&&'&&&&&&": 1314,
      "'(&&'&'": 1315,
      "&%&&&&&&&&&&&": 1316,
      "&ĀĀ%Ā": 1317,
      ")&&%&'": 1318,
      ",ĀĀ&Ā": 1319,
      "-ĀĀ&Ā": 1320,
      "/ĀĀ&Ā": 1321,
      "=Ā": 1322,
      "Ā!": 1323,
      "đĀ": 1324,
      "ě&": 1325,
      "&&&&&&&": 1326,
      "#&&&!": 1327,
      "*&&ĝ": 1328,
      "\"&&/": 1329,
      "''%": 1330,
      "&&\"&(": 1331,
      "(%&&(&": 1332,
      "$'&&$&'": 1333,
      "%%&&&&&": 1334,
      "'&&#&)": 1335,
      "&&'&&%'&&&&": 1336,
      ")&&&'&": 1337,
      "(&&'&%": 1338,
      ")(&&&&": 1339,
      ",ğ": 1340,
      ".#": 1341,
      ".$": 1342,
      ".+": 1343,
      "/$": 1344,
      "ĐĀ": 1345,
      "ĝ,": 1346,
      "ğ+": 1347,
      "&%''&&&&": 1348,
      "&&'&%&&&&&&": 1349,
      "&$&&": 1350,
      "&&($": 1351,
      "&*&%": 1352,
      "&'&&&&)": 1353,
      "(&&Ĝ": 1354,
      "&+%": 1355,
      "&+)": 1356,
      "*&&.": 1357,
      "*&&Ğ": 1358,
      "%'&&$&'": 1359,
      "''&&%&%": 1360,
      "%%&&'&'": 1361,
      "&&$&Ğ": 1362,
      "ĀĀ&Ā#": 1363,
      "%(&&%&": 1364,
      "'$&&'&%": 1365,
      "''&&&&&": 1366,
      "'%&&&&%": 1367,
      "(&&&'&$": 1368,
      "&&'&&%%": 1369,
      "ğ&&,": 1370,
      "%&&&$&'": 1371,
      "#&&&&%": 1372,
      "*ĀĀ&Ā": 1373,
      ",!": 1374,
      "-ĀĀ$Ā": 1375,
      "11": 1376,
      "?Ā": 1377,
      "ě!": 1378,
      "&''&&&&&": 1379,
      "&'&&&'&": 1380,
      "&(&&'&'": 1381,
      "&(&&%&%": 1382,
      "%&&&&$": 1383,
      "$&&Ĝ": 1384,
      "(&&&$": 1385,
      "&&%&/": 1386,
      "&+(": 1387,
      "&+&'": 1388,
      "('&&'&$": 1389,
      "'(&&'&%": 1390,
      "Ġ&&Ğ": 1391,
      "%%&&&&%": 1392,
      "%'&&&&'": 1393,
      "/-": 1394,
      "@Ā": 1395,
      "ĝ(": 1396,
      "Ğ!": 1397,
      "Ğ+": 1398,
      "Ğ,": 1399,
      "ğğ": 1400,
      "ĠĚ": 1401,
      "Ġ&&&&'": 1402,
      "Ġ,&&": 1403,
      "&&&&#": 1404,
      "&'&": 1405,
      "&&%&&\"": 1406,
      "&(,": 1407,
      "&)!": 1408,
      "&)&": 1409,
      "&#+": 1410,
      "&\")": 1411,
      "&&)&&)": 1412,
      "#&&ĝ": 1413,
      "%'&&$&": 1414,
      "!&&Ğ": 1415,
      "&&$&%&'": 1416,
      "(%&&(&%": 1417,
      "(%&&(&'": 1418,
      "$'&&$&": 1419,
      "''&&&&'": 1420,
      "%'&&&&&": 1421,
      "%&&)&#": 1422,
      "'%&&&&'": 1423,
      "'&&&%&%": 1424,
      "'&&&(&'": 1425,
      "#&&&%&": 1426,
      "$&&%&": 1427,
      "-ĀĀ#Ā": 1428,
      ".*": 1429,
      ".-": 1430,
      ".ĀĀ&Ā": 1431,
      "01": 1432,
      "ĝĀĀ": 1433,
      "ĠĜ": 1434,
      "Ġ(&&": 1435,
      "&'''&&&&": 1436,
      "&&%&&*": 1437,
      "&$&&'&%": 1438,
      "&)&(": 1439,
      "&)&&&&'": 1440,
      "&#!": 1441,
      "'&&&#": 1442,
      "'&&&&&&%": 1443,
      "&*&'": 1444,
      "&&)&&'": 1445,
      "$&&&(": 1446,
      "&+*": 1447,
      "&!!": 1448,
      "&!$": 1449,
      "&&&&&&&&&&&": 1450,
      "(&&&&(": 1451,
      "%&&&%&#": 1452,
      "'$&&'&": 1453,
      "%$&&%&": 1454,
      "&&%&&&#": 1455,
      "ğ&&ğ": 1456,
      "%&&*&%": 1457,
      "!ĝ": 1458,
      "##&&&&": 1459,
      "$&%": 1460,
      "%*&&&&": 1461,
      "&Ė": 1462,
      "'Ĝ": 1463,
      ")&&&&%": 1464,
      "))&&&&": 1465,
      "+ĀĀ$Ā": 1466,
      ".)": 1467,
      "ě%": 1468,
      "Ġ2": 1469,
      "&&((": 1470,
      "&)&&": 1471,
      "%&&&&(": 1472,
      "&&)&Ğ": 1473,
      "&!#": 1474,
      "&!(": 1475,
      "%'&&'&'": 1476,
      "%'&&$&%": 1477,
      "'%&&(&": 1478,
      "'%&&(&'": 1479,
      "('%&&&&": 1480,
      "(%&&'&(": 1481,
      "$%&&%&$": 1482,
      "%$&&%&%": 1483,
      "($&&'&'": 1484,
      ",&&-": 1485,
      "'&&)&(": 1486,
      "(&&&(&%": 1487,
      "#/": 1488,
      "(*&&&&": 1489,
      "-!": 1490,
      "Ĝ)": 1491,
      "ĝ)": 1492,
      "Ġ'&&": 1493,
      "Ġ&.": 1494,
      "&&&&\"": 1495,
      "&&'&'&&&&&&": 1496,
      "&#&&'&%": 1497,
      "&*!": 1498,
      "&%&&&&#": 1499,
      "&+$": 1500,
      "&++": 1501,
      "&+&%": 1502,
      "&!'": 1503,
      "&!&%": 1504,
      "&!&(": 1505,
      "$&&&&(": 1506,
      "%%$&&&&": 1507,
      "%%&&$&'": 1508,
      "'%&&%&'": 1509,
      "$%'&&&&": 1510,
      "$'&&%&(": 1511,
      "ĀĀ%Ā!": 1512,
      "'$&&'&'": 1513,
      "Ġ&&.": 1514,
      "((&&'&": 1515,
      ",&&ğ": 1516,
      "%&&#&(": 1517,
      "%&&#&)": 1518,
      "'&&)&#": 1519,
      "$&&&%&(": 1520,
      "&&%&&'&&&'": 1521,
      "%&&*&$": 1522,
      "'&&&%&'": 1523,
      "(&&\"&%": 1524,
      "&&&&&&&&&&&&&": 1525,
      "#ĝ": 1526,
      "#&&'&%": 1527,
      "$&'&&&&": 1528,
      "&ĀĀ)Ā": 1529,
      ")ě": 1530,
      ")&&'&%": 1531,
      ",ĀĀ#Ā": 1532,
      "-ğ": 1533,
      ".'": 1534,
      ".ĀĀ#Ā": 1535,
      "/(": 1536,
      "ĚĀĀ": 1537,
      "Ġ$&&": 1538,
      "Ġ&&(&%": 1539,
      "&&Ĝ": 1540,
      "&'&&": 1541,
      "&%&&&%": 1542,
      "&(&&'&": 1543,
      "&(&&%&'": 1544,
      "&$&&%&'": 1545,
      "&&$$": 1546,
      "&)&#": 1547,
      "%&&&&&$": 1548,
      "&&)&&%": 1549,
      "&%&&&&&&%&&&&": 1550,
      "#&&Ĝ": 1551,
      "#&&&%&%": 1552,
      ")&&Ĝ": 1553,
      "$&&&&&(": 1554,
      "(&&&&&(": 1555,
      "%'&&%&)": 1556,
      "\"&&Ğ": 1557,
      "&,#": 1558,
      "'%&&%&%": 1559,
      "!&&ĝ": 1560,
      "&&\"&*": 1561,
      "&&'&&&(&&&&": 1562,
      "Ġ&&ğ": 1563,
      "&$&&&&&&": 1564,
      ",&&&(": 1565,
      "$$&&%&'": 1566,
      "'%&&&&&": 1567,
      "#'&&$&%": 1568,
      "&&&ĝ": 1569,
      "&&+&": 1570,
      ")%&&'&'": 1571,
      "%&&\"&%": 1572,
      "%&&*&": 1573,
      "\"/": 1574,
      "#&&%&": 1575,
      "#&&'&'": 1576,
      "$&": 1577,
      "'&&'&%": 1578,
      "'!&&&&": 1579,
      ",Ğ": 1580,
      "-,": 1581,
      "Ĝ,": 1582,
      "ĜĜ": 1583,
      "ĜĀĀ": 1584,
      "ĞĞ": 1585,
      "Ġ&&'&%": 1586,
      "Ġ&/": 1587,
      "&&&*": 1588,
      "&%&$": 1589,
      "&&%&%&&&&%": 1590,
      "&$&&'&'": 1591,
      "%&&&*": 1592,
      "%&&&%&&&&": 1593,
      "'&&&&)": 1594,
      "&\"!": 1595,
      "&&#&&#": 1596,
      "(&&&+": 1597,
      "&+!": 1598,
      "#&&&": 1599,
      "&!%": 1600,
      "''&&%&'": 1601,
      "$%&&%&(": 1602,
      "$%&&$&%": 1603,
      "#&&&&$": 1604,
      "#&&&&(": 1605,
      "+&&ĝ": 1606,
      "+&&&*": 1607,
      "%(&&%&%": 1608,
      "&&'&&&$&&&&": 1609,
      "Ġ&&&\"": 1610,
      "&&%&&&(&&&&": 1611,
      "$(&&%&%": 1612,
      "#'&&%&%": 1613,
      ")%&&'&": 1614,
      "&&'&&'%": 1615,
      "&&'&&''&&&&": 1616,
      "ğ&&-": 1617,
      "'&&\"&(": 1618,
      "$&&*&'": 1619,
      "$&&&$&'": 1620,
      ")&&\"&'": 1621,
      "&&(&&'%": 1622,
      "#Ĝ": 1623,
      "#(&&&&": 1624,
      ",ĀĀ%Ā": 1625,
      "-ĀĀ(Ā": 1626,
      ".ĀĀ$Ā": 1627,
      "ďĀ": 1628,
      "Ę&&": 1629,
      "ě)": 1630,
      "ěĀĀ": 1631,
      "ĞĀĀ": 1632,
      "Ġ&&'&'": 1633,
      "&'&&%&(": 1634,
      "&&%&%&&&&&&": 1635,
      "&$&": 1636,
      "&&()": 1637,
      "&&(&&\"": 1638,
      "'&&ě": 1639,
      "'&&&'&&&&&&&&": 1640,
      "&\"ğ": 1641,
      "&+\"": 1642,
      "#&&&%&'": 1643,
      "$&&&&&'": 1644,
      "\"&&Ĝ": 1645,
      "\"&&&%&%": 1646,
      "&,*": 1647,
      "&&&'&(": 1648,
      "&&&&%&'&&&&": 1649,
      "&&&&'&%&&&&": 1650,
      "('&&(&": 1651,
      "$'&&$&%": 1652,
      "+&&.": 1653,
      "&&'&&&(&": 1654,
      "'(&&'&$": 1655,
      "&&%&&&$&&&&": 1656,
      "&(&&&&&&": 1657,
      "$$&&%&%": 1658,
      "&&!&'": 1659,
      "%&&*&(": 1660,
      "+Ğ": 1661,
      "+ğ": 1662,
      "+ĀĀ(Ā": 1663,
      "-/": 1664,
      ".%": 1665,
      "/%": 1666,
      "/ĀĀ(Ā": 1667,
      "Āğ": 1668,
      "ę&": 1669,
      "ě#": 1670,
      "ěğ": 1671,
      "ĝ*": 1672,
      "Ġ&&'&": 1673,
      "&%&": 1674,
      "&%-": 1675,
      "&%%%&&&&": 1676,
      "&&')": 1677,
      "&(&&'&(": 1678,
      "&$&&%&%": 1679,
      "&$&&'&$": 1680,
      "&)&)": 1681,
      "&#&*": 1682,
      "'&&&'&&&&": 1683,
      "%&&&&&&'": 1684,
      "%&&&&&)": 1685,
      "&*\"": 1686,
      "&+#": 1687,
      "(&&&&&'": 1688,
      "*&&ě": 1689,
      "''$&&&&": 1690,
      "'%&&(&$": 1691,
      "&&&&%&(": 1692,
      "&&*&&&&": 1693,
      "('&&'&(": 1694,
      "$'&&%&$": 1695,
      "ĀĀ$Ā#": 1696,
      "'(&&'&(": 1697,
      "Ġ&&ĝ": 1698,
      "&(&&&&(": 1699,
      "$(&&%&'": 1700,
      "&&&/": 1701,
      "$&&&%&$": 1702,
      "&&+&%": 1703,
      "'&&&%&$": 1704,
      "'&&*&$": 1705,
      "'&&&(&%": 1706,
      "$&&&$&%": 1707,
      "&ĀĀ(Ā": 1708,
      "'&&'&'": 1709,
      "'&&%&%": 1710,
      "(&&$&'": 1711,
      "(\"&&&&": 1712,
      ")%&&)": 1713,
      "+ĀĀ%Ā": 1714,
      "/ĀĀ!Ā": 1715,
      "05": 1716,
      "21": 1717,
      "Ĝ*": 1718,
      "ĝ.": 1719,
      "&%&&&%&": 1720,
      "&&'&&%&&&&&": 1721,
      "&#ğ": 1722,
      "&#&&'&": 1723,
      "&#&&%&%": 1724,
      "&*,": 1725,
      "&&#&&$": 1726,
      "&+&": 1727,
      "&!+": 1728,
      "&!&'": 1729,
      "(&&&&)": 1730,
      "&,+": 1731,
      "%%&&$&%": 1732,
      "&&(&Ĝ": 1733,
      "&&$&ĝ": 1734,
      "&&*&)": 1735,
      "%(&&%&(": 1736,
      "Ġ&&-": 1737,
      "($&&'&": 1738,
      "($&&'&%": 1739,
      "$$&&%&": 1740,
      "%)&&%&'": 1741,
      ")%&&'&%": 1742,
      "%&&&'&'": 1743,
      "%&&\"&$": 1744,
      "%&&*&'": 1745,
      "'&&*&": 1746,
      "$&&*&%": 1747,
      "&%&&&&'&'": 1748,
      "$'&&&&(": 1749,
      "%&&!&'": 1750,
      "$%&&#": 1751,
      "&ĀĀ#Ā": 1752,
      "(&&$&%": 1753,
      ")&&&&'": 1754,
      "*ĀĀ%Ā": 1755,
      "-Ĝ": 1756,
      ".ĀĀ(Ā": 1757,
      "/ĀĀ)Ā": 1758,
      "30": 1759,
      "ĘĀĀ": 1760,
      "Ě\"": 1761,
      "Ě#": 1762,
      "Ě(": 1763,
      "ě\"": 1764,
      "ě$": 1765,
      "Ġ)&&": 1766,
      "Ġ&&&&%": 1767,
      "&&ě": 1768,
      "&&&&*": 1769,
      "&(-": 1770,
      "&(&&'&$": 1771,
      "&&(&&*": 1772,
      "&&(&&%&&&%": 1773,
      "&&$&'&&&&": 1774,
      "%&&&&&&%": 1775,
      "&\"+": 1776,
      "&'&&&&&&%&&&&": 1777,
      "&%&&&&&'": 1778,
      "$&&&": 1779,
      "&+&#": 1780,
      "&!\"": 1781,
      "(&&&&&$": 1782,
      "''(&&&&": 1783,
      "''&&'&(": 1784,
      "''&&%&$": 1785,
      "&&&%&$": 1786,
      "('&&(&%": 1787,
      ")&&&&$": 1788,
      "+&&Ğ": 1789,
      "%(&&%&$": 1790,
      "''&&&&(": 1791,
      "%'&&&&%": 1792,
      "$$&&$&'": 1793,
      "%&&)&!": 1794,
      "'&&#&#": 1795,
      "(&&&'&(": 1796,
      "&&+&'": 1797,
      "&&%&&%'&&&&": 1798,
      "&'&&&&%&'": 1799,
      "$&&*&": 1800,
      "&#&&&&(": 1801,
      "(&&\"&(": 1802,
      ")&&&'&%": 1803,
      "&&(&&'$": 1804,
      "&&&&&&&&&&&&&&&&&&&&&&&&&&&&&&&&": 1805,
      "!Ĝ": 1806,
      "\"Ĝ": 1807,
      "\"&&%&'": 1808,
      "$Ĝ": 1809,
      "&ĕ": 1810,
      ")&&'&": 1811,
      "+ĀĀ&Ā": 1812,
      ".\"": 1813,
      "/ĀĀ$Ā": 1814,
      "13": 1815,
      "ęĀĀ": 1816,
      "ě'": 1817,
      "&&&&&&'": 1818,
      "&'&&'&$": 1819,
      "&%&&'&(": 1820,
      "&$&&%&$": 1821,
      "&$%(": 1822,
      "&&(&'&&&&": 1823,
      "&&$&&\"": 1824,
      "&)&&'&'": 1825,
      "%&&ě": 1826,
      "&&#&&(": 1827,
      "&&#&Ğ": 1828,
      "&&#&/": 1829,
      "&&)&ĝ": 1830,
      "&+&$": 1831,
      "&!*": 1832,
      "&&'&'&'&&&&": 1833,
      "%'&&'&%": 1834,
      "&,'": 1835,
      "%%&&'&%": 1836,
      "%%&&$&(": 1837,
      "'%$&&&&": 1838,
      "!&&.": 1839,
      "&&&&%&%&&&&": 1840,
      "&&&&'&(": 1841,
      "(%%&&&&": 1842,
      ")&&&&(": 1843,
      "'$&&'&$": 1844,
      "''&&&&$": 1845,
      "%%&&&&(": 1846,
      "((&&'&'": 1847,
      "ĀĀ\"Ā#": 1848,
      "'&&#&*": 1849,
      "'%&&&&$": 1850,
      "#'&&%&'": 1851,
      "'&&)&\"": 1852,
      "%#&&&&%": 1853,
      "&&!&": 1854,
      "&&!&%": 1855,
      "#%&&%&%": 1856,
      "'&&*&'": 1857,
      "'&&*&%": 1858,
      "%&&&$&%": 1859,
      "&)&&&&(": 1860,
      "%&&+&%": 1861,
      "'&&+&'": 1862,
      "&&%&&$%": 1863,
      "\"'&&&&": 1864,
      "#&&'&": 1865,
      "&ĀĀ\"Ā": 1866,
      "'Ě": 1867,
      ",&": 1868,
      ",ĀĀ(Ā": 1869,
      "-ĀĀ)Ā": 1870,
      ".ĀĀ)Ā": 1871,
      "/\"": 1872,
      "/&&&&": 1873,
      "12": 1874,
      "ě+": 1875,
      "Ĝ+": 1876,
      "ĝĝ": 1877,
      "Ġ5": 1878,
      "Ġ&&'&$": 1879,
      "Ġ&&$&%": 1880,
      "&&&&)": 1881,
      "&&&&&&%": 1882,
      "&''%&&&&": 1883,
      "&&'&&&&&&&&&&&&": 1884,
      "ĀĀ<Ā": 1885,
      "&$'&&&&": 1886,
      "&&(#": 1887,
      "&)ğ": 1888,
      "&)&&%&'": 1889,
      "%&&Ě": 1890,
      "'&&&&&)": 1891,
      "&&)&.": 1892,
      "(&&&#": 1893,
      "&&'&ĝ": 1894,
      "&+'": 1895,
      "&!)": 1896,
      ")&&&(&%": 1897,
      "\"&&ĝ": 1898,
      "&,\"": 1899,
      "&,$": 1900,
      "%%&&'&$": 1901,
      "&&&'&$": 1902,
      "!&&&": 1903,
      "&&&&'&'": 1904,
      "&&&&'&'&&&&": 1905,
      "&&\"&#": 1906,
      "&&\"&+": 1907,
      "&&*&*": 1908,
      "&&(&'&'": 1909,
      "$%&&$&": 1910,
      "#&&&&&(": 1911,
      "&ğ#": 1912,
      "&&%&&&&&&'&": 1913,
      "'$&&%&'": 1914,
      "'$&&(&'": 1915,
      "Ġ&&/": 1916,
      "%'&&&&(": 1917,
      "'&&)&*": 1918,
      "$)&&%&%": 1919,
      ")%&&'&$": 1920,
      "&&%&&%&&&%&": 1921,
      "&&(&&&$": 1922,
      "-&&.": 1923,
      "-&&ğ": 1924,
      "&&$&&&#": 1925,
      "'&&&%&(": 1926,
      "'&&\"&%": 1927,
      "&'%$&&&&": 1928,
      "(&&\"&": 1929,
      "'$&&&&'": 1930,
      "&&$&&%%": 1931,
      "#&&%&%": 1932,
      "$&&'&(": 1933,
      "%Ĝ": 1934,
      ")ĀĀ)Ā": 1935,
      "*ĝ": 1936,
      "*ĀĀ(Ā": 1937,
      "+ĝ": 1938,
      ".!": 1939,
      ".ğ": 1940,
      ".ĀĀ\"Ā": 1941,
      "/ğ": 1942,
      "/ĀĀ#Ā": 1943,
      "ę\"": 1944,
      "ĝ/": 1945,
      "Ğğ": 1946,
      "Ġ&&%&$": 1947,
      "Ġ&&$&'": 1948,
      "&&%&&%&&&&&": 1949,
      "&&%&&'&&&&&": 1950,
      "&('&&&&": 1951,
      "&$%&&": 1952,
      "&&(&%&&&&": 1953,
      "&&$&%&&&&": 1954,
      "&)&&%&%": 1955,
      "'&&Ě": 1956,
      "'&&&\"": 1957,
      "%&&&&&#": 1958,
      "&*&&": 1959,
      "&&#&&'": 1960,
      "&&)&&#": 1961,
      "$&&&!": 1962,
      "(&&Ě": 1963,
      "&+-": 1964,
      "#&&&$&%": 1965,
      ")&&&$": 1966,
      ")&&&(&": 1967,
      "*&&&+": 1968,
      "%'$&&&&": 1969,
      "''&&%&(": 1970,
      "%%(&&&&": 1971,
      "%%&&'&(": 1972,
      "%%&&$&": 1973,
      "('&&(&'": 1974,
      "('&&(&(": 1975,
      "(%&&%&'": 1976,
      "Ġ&&&!": 1977,
      "%$&&$&'": 1978,
      "($&&'&$": 1979,
      "((&&'&%": 1980,
      "%&&#&#": 1981,
      "#'&&$&'": 1982,
      "'&&)&)": 1983,
      "'#&&'&%": 1984,
      "&&+&(": 1985,
      "&&+&$": 1986,
      "&&%&&%$": 1987,
      "&&'&&%&&&%": 1988,
      "%&&\"&(": 1989,
      "%&&&$&(": 1990,
      "&&(&&&&&": 1991,
      "%&&+&'": 1992,
      ")&&&'&$": 1993,
      "(&&*&'": 1994,
      "#&&*&$": 1995,
      "&&%&&('": 1996,
      "'&&&&&&&&&&&": 1997,
      "\"&&'&%": 1998,
      "#&&'&$": 1999,
      "#&&(&%": 2000,
      "#\"&&&&": 2001,
      "$\"&&&&": 2002,
      "%&&(&%": 2003,
      "&ĀĀ'Ā": 2004,
      "'%&&": 2005,
      "(ę": 2006,
      "(&&'&(": 2007,
      "*ĀĀ'Ā": 2008,
      ",ĀĀ\"Ā": 2009,
      "24": 2010,
      "Ā/": 2011,
      "Ė&&": 2012,
      "ěĚ": 2013,
      "Ĝ%": 2014,
      "Ğ-": 2015,
      "Ġ3": 2016,
      "Ġ&&%&": 2017,
      "Ġ&&%&%": 2018,
      "Ġ&&&%": 2019,
      "Ġ&&%&(": 2020,
      "Ġ&&'&(": 2021,
      "&&&&&&&%": 2022,
      "&&%&'&&&&%": 2023,
      "&(Ğ": 2024,
      "&),": 2025,
      "&#&&": 2026,
      "'&&&&*": 2027,
      "&*)": 2028,
      "&*-": 2029,
      "&*ğ": 2030,
      "&\",": 2031,
      "&\"&%": 2032,
      "&&#&&)": 2033,
      "$&&&#&%": 2034,
      "#&&ě": 2035,
      ")&&&+": 2036,
      ")&&&-": 2037,
      "\"&&&": 2038,
      "&,.": 2039,
      "'%&&%&$": 2040,
      "&&(&/": 2041,
      "&&&&'&%": 2042,
      "('&&'&#": 2043,
      "&-\"": 2044,
      "'&&&'&#": 2045,
      "#&&&&&": 2046,
      "$'&&$&(": 2047
    },
    "merges": [
      "& &",
      "&& &&",
      "& '",
      "& %",
      "&& '",
      "&& %",
      "Ā Ā",
      "& (",
      "& $",
      "&& (",
      "&& $",
      "& )",
      "& #",
      "% &&",
      "' &&",
      "% &&&&",
      "' &&&&",
      "& *",
      "& \"",
      "&& #",
      "&& )",
      "&' &&&&",
      "&% &&&&",
      "$ &&",
      "( &&",
      "&&' &",
      "&&% &",
      "& +",
      "# &&",
      "& !",
      ") &&",
      "$ &&&&",
      "&&&& &&&&",
      "( &&&&",
      "&&' &'",
      "&&% &'",
      "&&' &%",
      "&&% &%",
      "* &&",
      "% '",
      "\" &&",
      "' '",
      "& ,",
      "% %",
      "&& &%",
      "' %",
      "&& &'",
      "! &&",
      "&&% &(",
      "&&' &$",
      "&&&& %",
      "&&' &(",
      "&&% &$",
      "&&( &",
      "&&&& '",
      "&&$ &",
      "&& \"",
      "&& *",
      "&&( &%",
      "&&$ &'",
      "&&( &'",
      "&&$ &%",
      "( '",
      "( %",
      "$ %",
      "& -",
      "'&& &'",
      "# &&&&",
      "$ '",
      ") &&&&",
      "%&& &%",
      "% Ā",
      "ĀĀ %Ā",
      "& ğ",
      "& Ā",
      "ĀĀ &Ā",
      "&&% &&&&",
      "+ &&",
      "$ Ā",
      "ĀĀ $Ā",
      "% (",
      "&&' &&&&",
      "&&' &&",
      "' (",
      "' $",
      "Ġ &&",
      "% $",
      "&&% &&",
      "&$ &&&&",
      "' '&&&&",
      "' Ā",
      "ĀĀ 'Ā",
      "&&$ &(",
      "( $",
      "% %&&&&",
      "&( &&&&",
      "&&( &$",
      "& .",
      "# Ā",
      "ĀĀ #Ā",
      "( Ā",
      "ĀĀ (Ā",
      "$ (",
      "( (",
      "&&% &)",
      "&&$ &$",
      "% '&&&&",
      "&&' &#",
      "&&( &(",
      ", &&",
      "\" Ā",
      "ĀĀ \"Ā",
      "$ $",
      "%&& )",
      "&&' &)",
      "'&& #",
      "' %&&&&",
      "&&% &#",
      "%&& #",
      ") Ā",
      "ĀĀ )Ā",
      "# '",
      "& Ğ",
      "'&& )",
      "' )",
      "% )",
      "&& &",
      "\" &&&&",
      "$&& &%",
      "' #",
      "% #",
      "&& !",
      "(&& &'",
      "! Ā",
      "ĀĀ !Ā",
      "$ )",
      "* &&&&",
      "&& +",
      ") '",
      ") %",
      ") $",
      "&&% &&%",
      "( #",
      "&&' &&'",
      "&&' &&%",
      "* Ā",
      "ĀĀ *Ā",
      "&&$ &)",
      "# %",
      "& /",
      ") (",
      "# (",
      "&&( &#",
      "&&% &&'",
      "# $",
      "+ Ā",
      "ĀĀ +Ā",
      "&&$ &#",
      "&&) &'",
      "&&) &%",
      "&&% &*",
      "Ġ Ā",
      "&&# &'",
      "ğ &&",
      "&&# &%",
      "( )",
      "&&( &)",
      "' \"",
      "& ĝ",
      "&&' &\"",
      "$ #",
      "&&( &&",
      "' *",
      "- &&",
      "%&& &'",
      "%&& \"",
      "ğ Ā",
      "ĀĀ ğĀ",
      ", Ā",
      "ĀĀ ,Ā",
      "%&& *",
      "* %",
      "&&$ &&",
      "&&' &*",
      "! &&&&",
      "'&& &%",
      "&&# &(",
      "* (",
      "&&% &\"",
      "# )",
      "&&) &$",
      "% \"",
      "'&& \"",
      "% *",
      "'&& *",
      "- Ā",
      "ĀĀ -Ā",
      ") )",
      "&'&&&& %",
      "\" '",
      "* $",
      "\" $",
      "& Ĝ",
      "# #",
      "Ğ &&",
      "%&& &$",
      "'&& &(",
      "+ &&&&",
      "&' %",
      "&&# &$",
      "&&) &(",
      "$&& *",
      "* '",
      "&# &&&&",
      "'&&&& &",
      "\" %",
      "&% %&&&&",
      "\" (",
      "Ğ Ā",
      "ĀĀ ĞĀ",
      "&&( &\"",
      ". Ā",
      "ĀĀ .Ā",
      "&) &&&&",
      "( %&&&&",
      "$ *",
      "$ %&&&&",
      "Ġ &&&&",
      "&&' &&&'",
      "&%&&&& '",
      "(&& &(",
      "&&) &",
      ") #",
      "$ \"",
      "( *",
      "(&& \"",
      "&&&&&&&& &&&&",
      "$ '&&&&",
      "&&% &&&%",
      "&&( &*",
      "&&# &",
      "&&( &&&&",
      "( \"",
      "&' %&&&&",
      "&% '",
      "( '&&&&",
      "&%&&&& %",
      "%&& +",
      "' +",
      ") *",
      "&&$ &*",
      "$&& \"",
      "&'&&&& '",
      "&'&&&& &&",
      "ĝ Ā",
      "ĀĀ ĝĀ",
      ". &&",
      ")&& &'",
      "' $&&&&",
      "( +",
      "/ Ā",
      "ĀĀ /Ā",
      "$&& &$",
      "&&%& +",
      "! (",
      "ĝ &&",
      "% $&&&&",
      "' (&&&&",
      "\" )",
      "&&$ &\"",
      "&&'& +",
      "Ġ (",
      "(&& *",
      "! %",
      "* )",
      "&&$ &&&&",
      "$ +",
      "&&) &#",
      "&% &'",
      "&&' &&(",
      "&&# &)",
      "Ĝ Ā",
      "ĀĀ ĜĀ",
      "'&&&' &",
      "! )",
      ")&& \"",
      "#&& *",
      "&%&&&& &&",
      "% (&&&&",
      "&&% &&&&&&&&",
      "# *",
      "&&' &&&&&&&&",
      "&' '",
      "&&) &)",
      "'&& +",
      "&&%& !",
      "#&& \"",
      "# \"",
      "% +",
      "&' &%",
      "&' '&&&&",
      ")&& *",
      "%&& !",
      "ě Ā",
      "ĀĀ ěĀ",
      "&&'& !",
      "% !",
      "' ,",
      "&&% &&$",
      "&% &%",
      ") \"",
      "&&( &&'",
      "# +",
      "'&& !",
      "%&&&% &",
      "Ġ #",
      "&&$ &+",
      "* #",
      ") +",
      "&$ &%",
      "&&( &!",
      "&&# &*",
      "/ &&",
      "&&$ &&%",
      "! $",
      "+ $",
      "&&% &&(",
      "&&# &#",
      "* \"",
      "Ġ %",
      "&'&&&& &&&&",
      "&&&% &",
      "Ġ $",
      "' !",
      "&&# &&",
      "&( &%",
      "& ě",
      "\" #",
      "* *",
      "$ !",
      "$&& +",
      "+ (",
      "&&$ &&'",
      "&%&&&& &&&&",
      "\" \"",
      "&&( &&%",
      "- ĀĀ",
      "Ĝ &&",
      "&% %",
      "&% (",
      "&% '&&&&",
      "! #",
      "$&& !",
      "(&& +",
      "&$ &'",
      "&&( &+",
      "&\" &&&&",
      ", &&&&",
      "&( &'",
      "&&$ &!",
      "&&&' &",
      "& ĀĀ",
      "#&& &%",
      "+ %",
      "+ ĀĀ",
      "Ě Ā",
      "&' &'",
      ", ĀĀ",
      "(&& !",
      "ę Ā",
      "Ġ )",
      "+ '",
      ", )",
      "Ġ &'",
      "&&' &&$",
      "*&& \"",
      "( !",
      "&$ %",
      "+ )",
      "\"&& *",
      "+ #",
      "%&&&& &",
      "/ ĀĀ",
      ", (",
      "Ġ '",
      "&&&&&&&& &&&&&&&&",
      "Ġ \"",
      "&&) &\"",
      "Ġ &(",
      "* ĀĀ",
      "'&&&& %",
      "&& ,",
      "&&# &+",
      "! '",
      "&& &'&&&&",
      "&% $",
      "&&%&&&& &",
      "( (&&&&",
      "( $&&&&",
      "&* &&&&",
      "*&& *",
      "ğ )",
      "Ġ *",
      "%&& ,",
      "#&& +",
      ". ĀĀ",
      "&& ğ",
      "&# &'",
      "'&& &)",
      "$ ,",
      "Ġ &)",
      "&&$ &,",
      "& Ě",
      "\" *",
      "# !",
      "% &&'&",
      "%&&&& %",
      ") !",
      "&& &%&&&&",
      "&&' '",
      "&% #",
      "&&) &&",
      "&&'&&&& &",
      "&&% '",
      "#&& !",
      "$ $&&&&",
      "Ę Ā",
      "&&%& ,",
      "* +",
      "Ġ &",
      "&( '",
      "Ġ +",
      "&( &",
      "'&& ,",
      "Ġ !",
      "&$ '",
      "#&& &$",
      ", '",
      "&&% &&&'",
      "%&&&& '",
      "\"&& \"",
      ")&& !",
      ")&& +",
      "!&& *",
      "Ā +",
      "&' (",
      "*&& !",
      "% ,",
      "&&' &&&%",
      "&&# &\"",
      "ğ (",
      "&( &$",
      "&&$ &&$",
      "$&& ,",
      "\" !",
      "&( %",
      "&&) &*",
      "- (",
      "ĀĀ ĚĀ",
      "!&& \"",
      "Ġ &%",
      "Ġ &$",
      "&&( &&(",
      "'&&&& '",
      "'% &&'&",
      "(&& ,",
      "- &&&&",
      "&&' %",
      "ğ %",
      "ĀĀ ęĀ",
      "%&&&& &&",
      ", #",
      ", %",
      "- '",
      "%' &&%&",
      "ě &&",
      "&' #",
      "'&&&' &%",
      "! \"",
      "&$ &&&&'",
      "&) &%",
      "'&&&& &&",
      "*&& &'",
      ", *",
      "- $",
      "(&& &%",
      "%% &&%&",
      "! *",
      "+ *",
      "ė Ā",
      "&' $",
      "Ė Ā",
      "&&% %",
      "&&% %&&&&",
      "%&& -",
      "&&'&& &'&&&&",
      ") ĀĀ",
      ", $",
      "&&' &%&&&&",
      "&# &%",
      "\"&& +",
      ") ğ",
      "&&$ &&&%",
      "Ġ -",
      "&( &(",
      ", +",
      "%&& ğ",
      "&&%&& &$",
      "Ġ &*",
      "&&% &%&&&&",
      "&$ $",
      "%&&&% &%",
      "\" +",
      "' ğ",
      "&&' &&)",
      "&( &&&&%",
      "&&$ &&(",
      "'&& &$",
      "'&&&& &&&&",
      "(&&&' &",
      "! !",
      "& ę",
      "&& -",
      "&% )",
      "#&& ,",
      "&& Ğ",
      "'&& -",
      "( ,",
      "* !",
      "Ġ ğ",
      "'&&&& &'",
      "&&'& ğ",
      "'&&&' &'",
      "%&&&% &'",
      "&&%&& &%&&&&",
      "' -",
      "&&( &&$",
      "$&& -",
      "\"&& &$",
      "'' &&'&",
      "# ,",
      ") ,",
      "&&% &&#",
      "$&& &'",
      "$ Ğ",
      "( ğ",
      "* ,",
      "Ġ ,",
      "%&&&& &&&&",
      "$ (&&&&",
      "&( (",
      "Ġ &#",
      "&( &&&&'",
      "&$ (",
      "'&&&& &%",
      "&'&&&& &",
      "&&'& ,",
      "% #&&&&",
      "( ĀĀ",
      "ĕ Ā",
      "&( $",
      "&&%& -",
      "\"&& !",
      "\"&& &%",
      "$&&&% &",
      "&' )",
      "&&) &+",
      "&&% &&)",
      "% ğ",
      "' #&&&&",
      "+ \"",
      "&&( &&&'",
      "%&&&& &%",
      "&'&&&& (",
      "*&& +",
      "%' &&%&'",
      "$ ğ",
      "&$ &&&&%",
      "&&( &,",
      "&( )",
      "&$ #",
      "%&&&& &'",
      "&&&% &'",
      "Ā -",
      "&' &&%&",
      "&'&&&& $",
      ")&& ,",
      "% -",
      "&&&& $",
      "ĀĀ ĘĀ",
      "&# '",
      "&%&&&& &",
      "$&& ğ",
      ")&& &(",
      "! +",
      "Ĕ Ā",
      "&' *",
      "&&% '&&&&",
      "&# &",
      "&# &$",
      "'&& ğ",
      "Ġ &&\"",
      "&& .",
      "&% &&'&",
      "&&) &!",
      "&%&&&& (",
      "(&&&& &",
      "' )&&&&",
      ") -",
      "ğ $",
      "Ġ Ğ",
      "&( *",
      "&) &'",
      ", \"",
      "Ā .",
      "Ġ &&*",
      "%&& .",
      "(&& ğ",
      "(&&&& '",
      "'% &&'&'",
      "# -",
      "( -",
      "( .",
      ") .",
      "%&& Ğ",
      "&'&&&& &&'",
      "&&'&& &%&&&&",
      "\" ğ",
      ")&& ğ",
      "$&&&& %",
      "# ĀĀ",
      ") '&&&&",
      "+ +",
      "ğ \"",
      "Ğ $",
      "!&& +",
      "' .",
      "' ĀĀ",
      "&' &&'&",
      "&&( %",
      "&&# &!",
      "#&& -",
      "*&& &)",
      "&&&% &%",
      "&&%&& &'&&&&",
      ": Ā",
      "ğ *",
      "&( #",
      "(&& -",
      ")&& &)",
      "'' %&&&&",
      "\" -",
      "% Ğ",
      "Ě &&",
      "&&' %&&&&",
      "&) $",
      "'% &&'&%",
      "! -",
      "% .",
      "% &&%&",
      "+ !",
      "&) '",
      "(&& &)",
      "!&& !",
      "; Ā",
      "&% &&%&",
      "&% $&&&&",
      "&&' '&&&&",
      "&%&&&& $",
      "(&& .",
      "&! &&&&",
      "(&&&& %",
      "%% &&%&'",
      "&&'&& &(",
      "- *",
      "&& &$",
      "&) (",
      "&# &(",
      "&&'&& &$",
      "\" ,",
      "# %&&&&",
      "Ğ (",
      "ğ '",
      "% )&&&&",
      ", ,",
      "&' &%&&&&",
      "ĀĀ ėĀ",
      "'&& .",
      "(&& &*",
      "&+ &&&&",
      "#&& ğ",
      "%&&) &%",
      "%&&# &%",
      "# ğ",
      "ē Ā",
      "ĝ $",
      "Ğ \"",
      "Ġ &\"",
      "&) %",
      "&&# &,",
      "# .",
      "Ġ &+",
      "*&& &*",
      "'&&# &%",
      "! .",
      "& Ę",
      "* -",
      "&&# '",
      "(&& Ğ",
      "&&$& .",
      "% ĀĀ",
      "Ġ ĝ",
      "&&% $",
      "&&$ '",
      "&\" &'",
      "'' '&&&&",
      "! ĀĀ",
      "' &&'&",
      ") %&&&&",
      "* .",
      "Ġ .",
      "Ġ &,",
      "&& &(",
      "'' &&'&'",
      "&&* &%",
      "$ .",
      "Ġ ĀĀ",
      "$&& .",
      ")&& -",
      "*&& &(",
      "&&(& ğ",
      "&&\" &%",
      "(% &&'&",
      "'&&# &'",
      "\" ĝ",
      "$ -",
      "% &&'&'",
      "( Ğ",
      ") /",
      "ğ #",
      "&&% &'&&&&",
      "'&& Ğ",
      "#&& &'",
      "$&&&& '",
      "%' &&%&%",
      "'' &&'&%",
      "' Ğ",
      "&& ĝ",
      "&&&& (",
      "&% *",
      "&&( '",
      "%&& &(",
      "'&&&' &$",
      "! ,",
      "/ +",
      "0 0",
      "&&&' &%",
      "(' &&'&",
      "+&& !",
      "Ġ&& !",
      "&&'&&&' &",
      "\" Ğ",
      "# '&&&&",
      "% &&%&'",
      "Ā '",
      "Ā (",
      "&% &&'&%",
      "&&' &&#",
      "&$ *",
      "&$ &$",
      "&# (",
      "&&) &&&&",
      "%' %&&&&",
      "%' '&&&&",
      "\"&& ğ",
      "\" ĀĀ",
      "# $&&&&",
      "% &&%&%",
      "Ā %",
      "(&&&' &'",
      "+ ,",
      "- .",
      "&$ &&%&",
      "&&$ &&#",
      "&# %",
      "%&& ĝ",
      "$&& &#",
      "$&& &\"",
      "#&& &#",
      "*&& ,",
      "\"&& ,",
      "\"&& -",
      "!&& ,",
      "&$&&&& (",
      "%&&&' &",
      "- +",
      "ğ !",
      "Ġ /",
      "Ġ 0",
      "&&' (",
      "&&' &'&&&&",
      "&&% (",
      "&$ &(",
      "'&& &*",
      "&&) &,",
      "&%&&&& &&&&&&&&",
      "\"&& &#",
      "%% &&%&(",
      "ĝ %",
      "&' \"",
      "&% \"",
      "&&%& Ğ",
      "$' &&%&'",
      "$&&&% &'",
      "%&&\" &'",
      "$ &&'&%",
      "% \"&&&&",
      "* Ğ",
      "+ -",
      ". (",
      "Ā $",
      "&& /",
      "ĀĀ ĕĀ",
      "&# $",
      "'&&&& &(",
      ")&& &%",
      "&&&&' &",
      "(% &&'&%",
      "(&&&' &%",
      "'&&&% &",
      "! ğ",
      "( )&&&&",
      "/ *",
      "Ā #",
      "ĝ #",
      "&) &$",
      "&# *",
      "&&%&% &'",
      "%% %&&&&",
      "%% '&&&&",
      "&&&' &'",
      "&&(& Ğ",
      "%&&# &'",
      "&%&&&&' &",
      "% &&'&%",
      "+ .",
      "- )",
      "- -",
      "&&&& &&",
      "&&$ &&)",
      "&'&&&& &&&&&&&&",
      "&&'& Ğ",
      "&&%& .",
      "*&& -",
      "'% %&&&&",
      "%&&) &'",
      "'&&&( &",
      "# Ğ",
      "& ė",
      "ĝ \"",
      "Ġ ě",
      "&% &&'&'",
      "&&' &&'&&&&",
      "&$ )",
      "*&& ğ",
      "%' '",
      "(% &&'&'",
      "%%&&&& '",
      "$ ĀĀ",
      "$ )&&&&",
      "Ġ &-",
      "&\" %",
      "%' &&%&(",
      "'% &&'&(",
      "!&& -",
      "$% &&%&%",
      "$' &&%&",
      "+&& ,",
      "Ġ&& +",
      "$&&&% &%",
      "&&%&&% '",
      "&&$&& &$",
      "\" .",
      "' ĝ",
      "( /",
      "< Ā",
      "Ĝ &",
      "Ġ &!",
      "%&& &\"",
      "%&&&& &&&&&&&&",
      "&&# &&&&",
      "&&# &-",
      "&&) &-",
      "$&& Ğ",
      "$&&&& &",
      "(&&&& &%",
      "'' '",
      "%% &&%&%",
      "&&(& -",
      "'&&&' &(",
      "'&&# &",
      "'&&) &",
      "&%%&&&& &",
      "' *&&&&",
      "* /",
      "* ğ",
      "ę &&",
      "&' &$",
      "&$ &)",
      "&) )",
      "%&& /",
      "'&& /",
      "&\" (",
      "\"&& &\"",
      "&&%&& &(",
      ",&& !",
      "&&'&&' '",
      "$ &&%&%",
      "$ #&&&&",
      "' /",
      "( ĝ",
      "( &&'&",
      "( #&&&&",
      ", -",
      "Ā Ğ",
      "Ĝ #",
      "&&( &&)",
      "&# #",
      "&* $",
      "&\" #",
      "&%&&&& &&%",
      ")&& &*",
      "$% &&%&'",
      "&$&&&& $",
      "( &&'&'",
      "Ğ &",
      "&' &&'&%",
      "&&% &&'&&&&",
      "ĀĀ ĖĀ",
      "&&( &&&%",
      "&) \"",
      "'&& ĝ",
      "%&&&& &(",
      "$&& /",
      "(&& ĝ",
      "!&& &\"",
      "(' &&'&'",
      "'&&) &$",
      "(&&&( &",
      "$ /",
      "$ &&'&'",
      "% /",
      ") ĝ",
      ") Ğ",
      "Ĝ $",
      "ğ -",
      "ğ .",
      "Ġ 1",
      "$&& ĝ",
      "&&* &'",
      "+&& &(",
      "! Ğ",
      "% ĝ",
      "Ā *",
      "Ā ,",
      "ĝ !",
      "&' $&&&&",
      "&' &&%&'",
      "&' &&%&%",
      "&% !",
      "&&' &&\"",
      "&&% &&%&&&&",
      "&( !",
      "&( \"",
      "&( +",
      "&( &&%&",
      "&$ !",
      "&$ +",
      "&&$ &&&&&&&&",
      "&) *",
      "&# &&&&%",
      "%&& &#",
      "&&* &",
      "&&* &\"",
      "$% &&%&",
      "&&'&&% '",
      "&'&&&&% &",
      "$ &&'&",
      "' \"&&&&",
      ", ĀĀ$Ā",
      "&' +",
      "&% &%&&&&",
      "&% &&%&%",
      "&$ \"",
      "&# \"",
      "&&) &ğ",
      "&&'& -",
      "\"&& &!",
      "&&\" &",
      "+&& +",
      ",&& +",
      "( &&%&'",
      "Ē Ā",
      "Ğ *",
      "ğ &&&&",
      "&' &(",
      "&' (&&&&",
      "&% +",
      "&&% &'&&&&&&",
      "&&$ &&&'",
      "'&&&& &&&&&&&&",
      "&* '",
      "&&# &.",
      "'% &&'&$",
      "!&& ğ",
      "%&&) &$",
      "&&'&&% %&&&&",
      "&&%&&' '",
      "&&&&&&&&&&&& &&",
      "&&&&&&&&&&&& &&&",
      "&'&&&&' &",
      ". .",
      "> Ā",
      "Ğ #",
      "Ġ &&%&'",
      "&% &'&&&&",
      "&) +",
      "#&& .",
      "\"&& .",
      "'% '&&&&",
      "&&(& .",
      "&&\" &'",
      "+&& &)",
      "'&&) &'",
      "&&(&& &(",
      "&&%&&&% &",
      "- ĀĀ%Ā",
      "/ )",
      "ğ ĀĀ",
      "&% ,",
      "&% &&",
      "&&' &&*",
      "&&' &&%&&&&",
      "&) #",
      "&# )",
      "'&&&& (",
      "&%&&&& &&'",
      ")&& .",
      ")&& Ğ",
      "&&'&% &'&&&&",
      "%% &&%&$",
      "!&& &$",
      "&&&&% &'",
      "&&$& -",
      "&&$& ğ",
      "&&* &#",
      "Ġ&& ,",
      "&&%&&% %",
      "&'%&&&& &",
      "$ &&%&'",
      "( &&%&%",
      ") $&&&&",
      "+ /",
      ", ĀĀ'Ā",
      ". &&&&",
      ". ĀĀ%Ā",
      "1 0",
      "Ĝ \"",
      "Ğ '",
      "Ğ )",
      "ĀĀ :Ā",
      "&&( &&&&&&&&",
      "'&&&& &$",
      "&* #",
      "&* (",
      "&&# &ğ",
      "(&& /",
      "&&'&' &%&&&&",
      "%% &&'&",
      "!&& &#",
      "$' &&%&%",
      "%&&&% &(",
      "%( &&%&'",
      "&&'&& &)",
      "%&&) &",
      "%&&# &",
      "&&%&&% %&&&&",
      "&&'&&' %&&&&",
      "$ ĝ",
      "( &",
      "- #",
      "/ ,",
      "ĝ '",
      "&% &&%&'",
      "&( &&'&%",
      "&$ &&'&",
      "&&$ %",
      "&\" $",
      "#&& Ğ",
      "%' (&&&&",
      "&&&&% &",
      "&&%&&' %",
      "&&%&&' '&&&&",
      "&%&&&&% &",
      "&'&&&&&&&& &&&",
      "- ĀĀ'Ā",
      "/ '",
      "Ĝ (",
      "ğ ,",
      "ğ /",
      "&( ğ",
      "&( &&",
      "&&( &&#",
      "&# &&&&'",
      "'&& Ĝ",
      "&* %",
      "&* +",
      "&\" '",
      "'% &&%&",
      "'% &&(&%",
      "&&&&% &%",
      "&&\" &$",
      "&&\" &)",
      "&&* &(",
      "%$ &&%&'",
      "''&&&& %",
      "%&&# &$",
      "'&&) &%",
      "%&&&$ &",
      "$&&&$ &",
      "( Ĝ",
      "- %",
      "/ ĀĀ'Ā",
      "Ā \"",
      "Ĝ !",
      "Ġ %&&",
      "&% (&&&&",
      "&* *",
      "&\" \"",
      "&'&&&& #",
      "&'&&&& &&%",
      "&&'& .",
      "#&& &\"",
      ")&& /",
      ")&& ĝ",
      "$&&&& &%",
      "*&& /",
      "'' &&'&$",
      "&, &&&&",
      "&&(& ĝ",
      "&&$& /",
      "%&&&% &$",
      "+&& ğ",
      "%&&) &(",
      "'&&# &$",
      "%&&&' &%",
      "& ĀĀ$Ā",
      "( &&%&",
      "Ā )",
      "ĝ +",
      "Ğ &&&&",
      "&' &&'&'",
      "'&&&& &&'",
      "&\" *",
      "&&# &&%",
      "%' &&%&$",
      "'' &&%&",
      "'' &&(&",
      "%% %",
      "&&&% &(",
      "(' &&'&%",
      "&&%&&&& &&",
      "+&& -",
      "'( &&'&",
      ",&& ,",
      "'&&# &(",
      "&&%&&' %&&&&",
      "'&&\" &'",
      ", .",
      "- \"",
      ". ĀĀ'Ā",
      "/ ĀĀ%Ā",
      "2 0",
      "Ğ %",
      "&' !",
      "&' &'&&&&",
      "&% &(",
      "&&' $",
      "ĀĀ ĔĀ",
      "ĀĀ ;Ā",
      "ĀĀ ēĀ",
      "&$ ,",
      "&$ %&&&&",
      "&) &&&&%",
      "'&&&& $",
      "&&%& ğ",
      "#&& /",
      "%' %",
      "%' &&'&",
      "'' &&(&%",
      "'' &&(&'",
      "&&* &$",
      "(% &&'&$",
      "$% &&$&'",
      "&&'&&&& &&",
      "'( &&'&'",
      "&%&&&&&&&& &&&",
      "& ĀĀ%Ā",
      ") &&%&'",
      ", ĀĀ&Ā",
      "- ĀĀ&Ā",
      "/ ĀĀ&Ā",
      "= Ā",
      "Ā !",
      "đ Ā",
      "ě &",
      "&&&& &&&",
      "#&& &!",
      "*&& ĝ",
      "\"&& /",
      "'' %",
      "&&\" &(",
      "(% &&(&",
      "$' &&$&'",
      "%%&&&& &",
      "'&&# &)",
      "&&'&&% '&&&&",
      ")&&&' &",
      "( &&'&%",
      ") (&&&&",
      ", ğ",
      ". #",
      ". $",
      ". +",
      "/ $",
      "Đ Ā",
      "ĝ ,",
      "ğ +",
      "&% ''&&&&",
      "&&' &%&&&&&&",
      "&$ &&",
      "&&( $",
      "&* &%",
      "&'&&&& )",
      "(&& Ĝ",
      "&+ %",
      "&+ )",
      "*&& .",
      "*&& Ğ",
      "%' &&$&'",
      "'' &&%&%",
      "%% &&'&'",
      "&&$& Ğ",
      "ĀĀ&Ā #",
      "%( &&%&",
      "'$ &&'&%",
      "''&&&& &",
      "'%&&&& %",
      "(&&&' &$",
      "&&'&&% %",
      "ğ&& ,",
      "%&&&$ &'",
      "# &&&&%",
      "* ĀĀ&Ā",
      ", !",
      "- ĀĀ$Ā",
      "1 1",
      "? Ā",
      "ě !",
      "&' '&&&&&",
      "&' &&&'&",
      "&( &&'&'",
      "&( &&%&%",
      "%&&&& $",
      "$&& Ĝ",
      "(&& &$",
      "&&%& /",
      "&+ (",
      "&+ &'",
      "(' &&'&$",
      "'( &&'&%",
      "Ġ&& Ğ",
      "%%&&&& %",
      "%'&&&& '",
      "/ -",
      "@ Ā",
      "ĝ (",
      "Ğ !",
      "Ğ +",
      "Ğ ,",
      "ğ ğ",
      "Ġ Ě",
      "Ġ &&&&'",
      "Ġ ,&&",
      "&&&& #",
      "&' &",
      "&&% &&\"",
      "&( ,",
      "&) !",
      "&) &",
      "&# +",
      "&\" )",
      "&&) &&)",
      "#&& ĝ",
      "%' &&$&",
      "!&& Ğ",
      "&&$&% &'",
      "(% &&(&%",
      "(% &&(&'",
      "$' &&$&",
      "''&&&& '",
      "%'&&&& &",
      "%&&) &#",
      "'%&&&& '",
      "'&&&% &%",
      "'&&&( &'",
      "#&&&% &",
      "$ &&%&",
      "- ĀĀ#Ā",
      ". *",
      ". -",
      ". ĀĀ&Ā",
      "0 1",
      "ĝ ĀĀ",
      "Ġ Ĝ",
      "Ġ (&&",
      "&' ''&&&&",
      "&&% &&*",
      "&$ &&'&%",
      "&) &(",
      "&) &&&&'",
      "&# !",
      "'&& &#",
      "'&&&& &&%",
      "&* &'",
      "&&) &&'",
      "$&& &(",
      "&+ *",
      "&! !",
      "&! $",
      "&&&&&&&& &&&",
      "(&&&& (",
      "%&&&% &#",
      "'$ &&'&",
      "%$ &&%&",
      "&&%&& &#",
      "ğ&& ğ",
      "%&&* &%",
      "! ĝ",
      "# #&&&&",
      "$ &%",
      "% *&&&&",
      "& Ė",
      "' Ĝ",
      ") &&&&%",
      ") )&&&&",
      "+ ĀĀ$Ā",
      ". )",
      "ě %",
      "Ġ 2",
      "&&( (",
      "&) &&",
      "%&&&& (",
      "&&) &Ğ",
      "&! #",
      "&! (",
      "%' &&'&'",
      "%' &&$&%",
      "'% &&(&",
      "'% &&(&'",
      "(' %&&&&",
      "(% &&'&(",
      "$% &&%&$",
      "%$ &&%&%",
      "($ &&'&'",
      ",&& -",
      "'&&) &(",
      "(&&&( &%",
      "# /",
      "( *&&&&",
      "- !",
      "Ĝ )",
      "ĝ )",
      "Ġ '&&",
      "Ġ &.",
      "&&&& \"",
      "&&' &'&&&&&&",
      "&# &&'&%",
      "&* !",
      "&%&&&& #",
      "&+ $",
      "&+ +",
      "&+ &%",
      "&! '",
      "&! &%",
      "&! &(",
      "$&&&& (",
      "%% $&&&&",
      "%% &&$&'",
      "'% &&%&'",
      "$% '&&&&",
      "$' &&%&(",
      "ĀĀ%Ā !",
      "'$ &&'&'",
      "Ġ&& .",
      "(( &&'&",
      ",&& ğ",
      "%&&# &(",
      "%&&# &)",
      "'&&) &#",
      "$&&&% &(",
      "&&%&&' &&&'",
      "%&&* &$",
      "'&&&% &'",
      "(&&\" &%",
      "&&&&&&&&&&&& &",
      "# ĝ",
      "# &&'&%",
      "$ &'&&&&",
      "& ĀĀ)Ā",
      ") ě",
      ") &&'&%",
      ", ĀĀ#Ā",
      "- ğ",
      ". '",
      ". ĀĀ#Ā",
      "/ (",
      "Ě ĀĀ",
      "Ġ $&&",
      "Ġ &&(&%",
      "&& Ĝ",
      "&' &&",
      "&% &&&%",
      "&( &&'&",
      "&( &&%&'",
      "&$ &&%&'",
      "&&$ $",
      "&) &#",
      "%&&&& &$",
      "&&) &&%",
      "&%&&&& &&%&&&&",
      "#&& Ĝ",
      "#&& &%&%",
      ")&& Ĝ",
      "$&&&& &(",
      "(&&&& &(",
      "%' &&%&)",
      "\"&& Ğ",
      "&, #",
      "'% &&%&%",
      "!&& ĝ",
      "&&\" &*",
      "&&'&& &(&&&&",
      "Ġ&& ğ",
      "&$&&&& &&",
      ",&& &(",
      "$$ &&%&'",
      "'%&&&& &",
      "#' &&$&%",
      "&&& ĝ",
      "&&+ &",
      ")% &&'&'",
      "%&&\" &%",
      "%&&* &",
      "\" /",
      "# &&%&",
      "# &&'&'",
      "$ &",
      "' &&'&%",
      "' !&&&&",
      ", Ğ",
      "- ,",
      "Ĝ ,",
      "Ĝ Ĝ",
      "Ĝ ĀĀ",
      "Ğ Ğ",
      "Ġ &&'&%",
      "Ġ &/",
      "&& &*",
      "&% &$",
      "&&% &%&&&&%",
      "&$ &&'&'",
      "%&& &*",
      "%&& &%&&&&",
      "'&&&& )",
      "&\" !",
      "&&# &&#",
      "(&& &+",
      "&+ !",
      "#&& &",
      "&! %",
      "'' &&%&'",
      "$% &&%&(",
      "$% &&$&%",
      "#&&&& $",
      "#&&&& (",
      "+&& ĝ",
      "+&& &*",
      "%( &&%&%",
      "&&'&& &$&&&&",
      "Ġ&& &\"",
      "&&%&& &(&&&&",
      "$( &&%&%",
      "#' &&%&%",
      ")% &&'&",
      "&&'&&' %",
      "&&'&&' '&&&&",
      "ğ&& -",
      "'&&\" &(",
      "$&&* &'",
      "$&&&$ &'",
      ")&&\" &'",
      "&&(&&' %",
      "# Ĝ",
      "# (&&&&",
      ", ĀĀ%Ā",
      "- ĀĀ(Ā",
      ". ĀĀ$Ā",
      "ď Ā",
      "Ę &&",
      "ě )",
      "ě ĀĀ",
      "Ğ ĀĀ",
      "Ġ &&'&'",
      "&' &&%&(",
      "&&% &%&&&&&&",
      "&$ &",
      "&&( )",
      "&&( &&\"",
      "'&& ě",
      "'&& &'&&&&&&&&",
      "&\" ğ",
      "&+ \"",
      "#&& &%&'",
      "$&&&& &'",
      "\"&& Ĝ",
      "\"&& &%&%",
      "&, *",
      "&&&' &(",
      "&&&&% &'&&&&",
      "&&&&' &%&&&&",
      "(' &&(&",
      "$' &&$&%",
      "+&& .",
      "&&'&& &(&",
      "'( &&'&$",
      "&&%&& &$&&&&",
      "&(&&&& &&",
      "$$ &&%&%",
      "&&! &'",
      "%&&* &(",
      "+ Ğ",
      "+ ğ",
      "+ ĀĀ(Ā",
      "- /",
      ". %",
      "/ %",
      "/ ĀĀ(Ā",
      "Ā ğ",
      "ę &",
      "ě #",
      "ě ğ",
      "ĝ *",
      "Ġ &&'&",
      "&% &",
      "&% -",
      "&% %%&&&&",
      "&&' )",
      "&( &&'&(",
      "&$ &&%&%",
      "&$ &&'&$",
      "&) &)",
      "&# &*",
      "'&& &'&&&&",
      "%&&&& &&'",
      "%&&&& &)",
      "&* \"",
      "&+ #",
      "(&&&& &'",
      "*&& ě",
      "'' $&&&&",
      "'% &&(&$",
      "&&&&% &(",
      "&&* &&&&",
      "(' &&'&(",
      "$' &&%&$",
      "ĀĀ$Ā #",
      "'( &&'&(",
      "Ġ&& ĝ",
      "&(&&&& (",
      "$( &&%&'",
      "&&& /",
      "$&&&% &$",
      "&&+ &%",
      "'&&&% &$",
      "'&&* &$",
      "'&&&( &%",
      "$&&&$ &%",
      "& ĀĀ(Ā",
      "' &&'&'",
      "' &&%&%",
      "( &&$&'",
      "( \"&&&&",
      ") %&&)",
      "+ ĀĀ%Ā",
      "/ ĀĀ!Ā",
      "0 5",
      "2 1",
      "Ĝ *",
      "ĝ .",
      "&% &&&%&",
      "&&' &&%&&&&&",
      "&# ğ",
      "&# &&'&",
      "&# &&%&%",
      "&* ,",
      "&&# &&$",
      "&+ &",
      "&! +",
      "&! &'",
      "(&&&& )",
      "&, +",
      "%% &&$&%",
      "&&(& Ĝ",
      "&&$& ĝ",
      "&&* &)",
      "%( &&%&(",
      "Ġ&& -",
      "($ &&'&",
      "($ &&'&%",
      "$$ &&%&",
      "%) &&%&'",
      ")% &&'&%",
      "%&&&' &'",
      "%&&\" &$",
      "%&&* &'",
      "'&&* &",
      "$&&* &%",
      "&%&&&&' &'",
      "$'&&&& (",
      "%&&! &'",
      "$ %&&#",
      "& ĀĀ#Ā",
      "( &&$&%",
      ") &&&&'",
      "* ĀĀ%Ā",
      "- Ĝ",
      ". ĀĀ(Ā",
      "/ ĀĀ)Ā",
      "3 0",
      "Ę ĀĀ",
      "Ě \"",
      "Ě #",
      "Ě (",
      "ě \"",
      "ě $",
      "Ġ )&&",
      "Ġ &&&&%",
      "&& ě",
      "&&&& *",
      "&( -",
      "&( &&'&$",
      "&&( &&*",
      "&&( &&%&&&%",
      "&&$ &'&&&&",
      "%&&&& &&%",
      "&\" +",
      "&'&&&& &&%&&&&",
      "&%&&&& &'",
      "$&& &",
      "&+ &#",
      "&! \"",
      "(&&&& &$",
      "'' (&&&&",
      "'' &&'&(",
      "'' &&%&$",
      "&&&% &$",
      "(' &&(&%",
      ")&&&& $",
      "+&& Ğ",
      "%( &&%&$",
      "''&&&& (",
      "%'&&&& %",
      "$$ &&$&'",
      "%&&) &!",
      "'&&# &#",
      "(&&&' &(",
      "&&+ &'",
      "&&%&&% '&&&&",
      "&'&&&&% &'",
      "$&&* &",
      "&#&&&& (",
      "(&&\" &(",
      ")&&&' &%",
      "&&(&&' $",
      "&&&&&&&&&&&&&&&& &&&&&&&&&&&&&&&&",
      "! Ĝ",
      "\" Ĝ",
      "\" &&%&'",
      "$ Ĝ",
      "& ĕ",
      ") &&'&",
      "+ ĀĀ&Ā",
      ". \"",
      "/ ĀĀ$Ā",
      "1 3",
      "ę ĀĀ",
      "ě '",
      "&&&& &&'",
      "&' &&'&$",
      "&% &&'&(",
      "&$ &&%&$",
      "&$ %(",
      "&&( &'&&&&",
      "&&$ &&\"",
      "&) &&'&'",
      "%&& ě",
      "&&# &&(",
      "&&# &Ğ",
      "&&# &/",
      "&&) &ĝ",
      "&+ &$",
      "&! *",
      "&&'&' &'&&&&",
      "%' &&'&%",
      "&, '",
      "%% &&'&%",
      "%% &&$&(",
      "'% $&&&&",
      "!&& .",
      "&&&&% &%&&&&",
      "&&&&' &(",
      "(% %&&&&",
      ")&&&& (",
      "'$ &&'&$",
      "''&&&& $",
      "%%&&&& (",
      "(( &&'&'",
      "ĀĀ\"Ā #",
      "'&&# &*",
      "'%&&&& $",
      "#' &&%&'",
      "'&&) &\"",
      "%# &&&&%",
      "&&! &",
      "&&! &%",
      "#% &&%&%",
      "'&&* &'",
      "'&&* &%",
      "%&&&$ &%",
      "&)&&&& (",
      "%&&+ &%",
      "'&&+ &'",
      "&&%&&$ %",
      "\" '&&&&",
      "# &&'&",
      "& ĀĀ\"Ā",
      "' Ě",
      ", &",
      ", ĀĀ(Ā",
      "- ĀĀ)Ā",
      ". ĀĀ)Ā",
      "/ \"",
      "/ &&&&",
      "1 2",
      "ě +",
      "Ĝ +",
      "ĝ ĝ",
      "Ġ 5",
      "Ġ &&'&$",
      "Ġ &&$&%",
      "&&&& )",
      "&&&& &&%",
      "&' '%&&&&",
      "&&' &&&&&&&&&&&&",
      "ĀĀ <Ā",
      "&$ '&&&&",
      "&&( #",
      "&) ğ",
      "&) &&%&'",
      "%&& Ě",
      "'&&&& &)",
      "&&) &.",
      "(&& &#",
      "&&'& ĝ",
      "&+ '",
      "&! )",
      ")&& &(&%",
      "\"&& ĝ",
      "&, \"",
      "&, $",
      "%% &&'&$",
      "&&&' &$",
      "!&& &",
      "&&&&' &'",
      "&&&&' &'&&&&",
      "&&\" &#",
      "&&\" &+",
      "&&* &*",
      "&&(&' &'",
      "$% &&$&",
      "#&&&& &(",
      "&ğ #",
      "&&%&&&& &&'&",
      "'$ &&%&'",
      "'$ &&(&'",
      "Ġ&& /",
      "%'&&&& (",
      "'&&) &*",
      "$) &&%&%",
      ")% &&'&$",
      "&&%&&% &&&%&",
      "&&(&& &$",
      "-&& .",
      "-&& ğ",
      "&&$&& &#",
      "'&&&% &(",
      "'&&\" &%",
      "&'% $&&&&",
      "(&&\" &",
      "'$&&&& '",
      "&&$&&% %",
      "# &&%&%",
      "$ &&'&(",
      "% Ĝ",
      ") ĀĀ)Ā",
      "* ĝ",
      "* ĀĀ(Ā",
      "+ ĝ",
      ". !",
      ". ğ",
      ". ĀĀ\"Ā",
      "/ ğ",
      "/ ĀĀ#Ā",
      "ę \"",
      "ĝ /",
      "Ğ ğ",
      "Ġ &&%&$",
      "Ġ &&$&'",
      "&&% &&%&&&&&",
      "&&% &&'&&&&&",
      "&( '&&&&",
      "&$ %&&",
      "&&( &%&&&&",
      "&&$ &%&&&&",
      "&) &&%&%",
      "'&& Ě",
      "'&& &\"",
      "%&&&& &#",
      "&* &&",
      "&&# &&'",
      "&&) &&#",
      "$&& &!",
      "(&& Ě",
      "&+ -",
      "#&& &$&%",
      ")&& &$",
      ")&& &(&",
      "*&& &+",
      "%' $&&&&",
      "'' &&%&(",
      "%% (&&&&",
      "%% &&'&(",
      "%% &&$&",
      "(' &&(&'",
      "(' &&(&(",
      "(% &&%&'",
      "Ġ&& &!",
      "%$ &&$&'",
      "($ &&'&$",
      "(( &&'&%",
      "%&&# &#",
      "#' &&$&'",
      "'&&) &)",
      "'# &&'&%",
      "&&+ &(",
      "&&+ &$",
      "&&%&&% $",
      "&&'&&% &&&%",
      "%&&\" &(",
      "%&&&$ &(",
      "&&(&&&& &",
      "%&&+ &'",
      ")&&&' &$",
      "(&&* &'",
      "#&&* &$",
      "&&%&&( '",
      "'&&&&&&&& &&&",
      "\" &&'&%",
      "# &&'&$",
      "# &&(&%",
      "# \"&&&&",
      "$ \"&&&&",
      "% &&(&%",
      "& ĀĀ'Ā",
      "' %&&",
      "( ę",
      "( &&'&(",
      "* ĀĀ'Ā",
      ", ĀĀ\"Ā",
      "2 4",
      "Ā /",
      "Ė &&",
      "ě Ě",
      "Ĝ %",
      "Ğ -",
      "Ġ 3",
      "Ġ &&%&",
      "Ġ &&%&%",
      "Ġ &&&%",
      "Ġ &&%&(",
      "Ġ &&'&(",
      "&&&& &&&%",
      "&&% &'&&&&%",
      "&( Ğ",
      "&) ,",
      "&# &&",
      "'&&&& *",
      "&* )",
      "&* -",
      "&* ğ",
      "&\" ,",
      "&\" &%",
      "&&# &&)",
      "$&& &#&%",
      "#&& ě",
      ")&& &+",
      ")&& &-",
      "\"&& &",
      "&, .",
      "'% &&%&$",
      "&&(& /",
      "&&&&' &%",
      "(' &&'&#",
      "&- \"",
      "'&&&' &#",
      "#&&&& &",
      "$' &&$&("
    ]
  }
}