{
  "version": "1.0",
  "truncation": null,
  "padding": null,
  "added_tokens": [],
  "normalizer": null,
  "pre_tokenizer": {
    "type": "ByteLevel",
    "add_prefix_space": false,
    "trim_offsets": true,
    "use_regex": true
  },
  "post_processor": {
    "type": "ByteLevel",
    "add_prefix_space": true,
    "trim_offsets": false,
    "use_regex": true
  },
  "decoder": {
    "type": "ByteLevel",
    "add_prefix_space": true,
    "trim_offsets": true,
    "use_regex": true
  },
  "model": {
    "type": "BPE",
    "dropout": null,
    "unk_token": null,
    "continuing_subword_prefix": null,
    "end_of_word_suffix": null,
    "fuse_unk": false,
    "byte_fallback": false,
    "ignore_merges": false,
    "vocab": {
      "\u0000": 0,
      "\u0001": 1,
      "\u0002": 2,
      "\u0003": 3,
      "\u0004": 4,
      "\u0005": 5,
      "\u0006": 6,
      "\u0007": 7,
      "\b": 8,
      "\t": 9,
      "\n": 10,
      "\u000b": 11,
      "\f": 12,
      "\r": 13,
      "\u000e": 14,
      "\u000f": 15,
      "\u0010": 16,
      "\u0011": 17,
      "\u0012": 18,
      "\u0013": 19,
      "\u0014": 20,
      "\u0015": 21,
      "\u0016": 22,
      "\u0017": 23,
      "\u0018": 24,
      "\u0019": 25,
      "\u001a": 26,
      "\u001b": 27,
      "\u001c": 28,
      "\u001d": 29,
      "\u001e": 30,
      "\u001f": 31,
      " ": 32,
      "!": 33,
      "\"": 34,
      "#": 35,
      "$": 36,
      "%": 37,
      "&": 38,
      "'": 39,
      "(": 40,
      ")": 41,
      "*": 42,
      "+": 43,
      ",": 44,
      "-": 45,
      ".": 46,
      "/": 47,
      "0": 48,
      "1": 49,
      "2": 50,
      "3": 51,
      "4": 52,
      "5": 53,
      "6": 54,
      "7": 55,
      "8": 56,
      "9": 57,
      ":": 58,
      ";": 59,
      "<": 60,
      "=": 61,
      ">": 62,
      "?": 63,
      "@": 64,
      "A": 65,
      "B": 66,
      "C": 67,
      "D": 68,
      "E": 69,
      "F": 70,
      "G": 71,
      "H": 72,
      "I": 73,
      "J": 74,
      "K": 75,
      "L": 76,
      "Ā": 77,
      "ā": 78,
      "ă": 79,
      "Ą": 80,
      "ą": 81,
      "Ć": 82,
      "ć": 83,
      "Ĉ": 84,
      "ĉ": 85,
      "Ċ": 86,
      "ċ": 87,
      "Č": 88,
      "č": 89,
      "Ď": 90,
      "ď": 91,
      "Đ": 92,
      "đ": 93,
      "Ē": 94,
      "ē": 95,
      "Ĕ": 96,
      "ĕ": 97,
      "Ė": 98,
      "ė": 99,
      "Ę": 100,
      "ę": 101,
      "Ě": 102,
      "ě": 103,
      "Ĝ": 104,
      "ĝ": 105,
      "Ğ": 106,
      "ğ": 107,
      "Ġ": 108,
      "&&": 109,
      "&&&&": 110,
      "&'": 111,
      "&%": 112,
      "&&%": 113,
      "&&'": 114,
      "ĀĀ": 115,
      "&(": 116,
      "&$": 117,
      "&&(": 118,
      "&&$": 119,
      "&)": 120,
      "&#": 121,
      "%&&": 122,
      "'&&": 123,
      "%&&&&": 124,
      "'&&&&": 125,
      "&*": 126,
      "&\"": 127,
      "&&#": 128,
      "&&)": 129,
      "&'&&&&": 130,
      "&%&&&&": 131,
      "$&&": 132,
      "(&&": 133,
      "&&%&": 134,
      "&&'&": 135,
      "&+": 136,
      ")&&": 137,
      "#&&": 138,
      "&!": 139,
      "$&&&&": 140,
      "(&&&&": 141,
      "&&&&&&&&": 142,
      "&&%&'": 143,
      "&&'&'": 144,
      "&&%&%": 145,
      "\"&&": 146,
      "&&'&%": 147,
      "'%": 148,
      "*&&": 149,
      "''": 150,
      "%%": 151,
      "&,": 152,
      "&&&%": 153,
      "%'": 154,
      "&&&'": 155,
      "&&\"": 156,
      "&&%&(": 157,
      "&&*": 158,
      "&-": 159,
      "&&'&$": 160,
      "&&'&(": 161,
      "&&$&'": 162,
      "#&&&&": 163,
      "&&%&$": 164,
      "'(": 165,
      "&&(&": 166,
      "&$&&&&": 167,
      ")&&&&": 168,
      "%$": 169,
      "&&(&'": 170,
      "!&&": 171,
      "&&(&%": 172,
      "&(&&&&": 173,
      "('": 174,
      "&&$&": 175,
      "$'": 176,
      "&&$&%": 177,
      "+&&": 178,
      "%(": 179,
      "&&%&&&&": 180,
      "$%": 181,
      "%&&&%": 182,
      "'&&&'": 183,
      "Ā(": 184,
      "&&'&&&&": 185,
      "&ğ": 186,
      "ĀĀ%": 187,
      "Ā)": 188,
      "'$": 189,
      "Ā$": 190,
      "Ġ&&": 191,
      "(%": 192,
      "ĀĀ&": 193,
      "&&'&&": 194,
      "ĀĀ$": 195,
      "ĀĀ'": 196,
      "%%&&&&": 197,
      "&&%&&": 198,
      "''&&&&": 199,
      "&&%&)": 200,
      "Ā%": 201,
      "ĀĀ(": 202,
      "Ā\"": 203,
      "&.": 204,
      "&&(&$": 205,
      "'%&&&&": 206,
      "ĀĀ#": 207,
      "Ā#": 208,
      "Ā*": 209,
      "&&$&(": 210,
      "&&'&#": 211,
      "Ā!": 212,
      "&&(&(": 213,
      "$$": 214,
      "\"&&&&": 215,
      "&&%&#": 216,
      "%'&&&&": 217,
      "Ā'": 218,
      "ĀĀ\"": 219,
      "($": 220,
      "&&$&$": 221,
      ",&&": 222,
      "&&'&)": 223,
      "%&&)": 224,
      "((": 225,
      "&Ğ": 226,
      "'&&)": 227,
      "ĀĀ)": 228,
      "*&&&&": 229,
      "'&&#": 230,
      "$(": 231,
      "ğ&&": 232,
      "Ā+": 233,
      "#'": 234,
      "%)": 235,
      "-&&": 236,
      "&&'&&'": 237,
      "ĀĀ!": 238,
      "%&&#": 239,
      "%#": 240,
      "Ā,": 241,
      "'#": 242,
      "&&%&&%": 243,
      ")'": 244,
      "(&&&'": 245,
      "&&&": 246,
      "&&'&&%": 247,
      ")%": 248,
      ")(": 249,
      "ĀĀ*": 250,
      "&&)&'": 251,
      "$&&&%": 252,
      "&&$&)": 253,
      "&&)&%": 254,
      "&ĝ": 255,
      "Ā-": 256,
      "&&#&'": 257,
      "&&%&*": 258,
      ")$": 259,
      "&/": 260,
      "&&!": 261,
      "&&%&&'": 262,
      "&&+": 263,
      "&&'&\"": 264,
      "#%": 265,
      "#$": 266,
      "&#&&&&": 267,
      "&&#&%": 268,
      "&&(&#": 269,
      "(#": 270,
      "ĀĀ+": 271,
      "!&&&&": 272,
      "&&(&&": 273,
      "Āğ": 274,
      "ĀĀğ": 275,
      "&)&&&&": 276,
      "#(": 277,
      "&&$&#": 278,
      "&&$&&": 279,
      "')": 280,
      "ĀĀ,": 281,
      "&&#&(": 282,
      "%&&&'": 283,
      "+&&&&": 284,
      "Ā.": 285,
      "&&%&\"": 286,
      "&&'&*": 287,
      "$#": 288,
      "&Ĝ": 289,
      "&&(&)": 290,
      "'&&\"": 291,
      "%&&\"": 292,
      "'&&&%": 293,
      "%&&*": 294,
      "$)": 295,
      "&'%": 296,
      "&&)&$": 297,
      "ĀĀ%Ā": 298,
      "ĀĀ-": 299,
      "&'&&&&%": 300,
      "'\"": 301,
      "Ğ&&": 302,
      "Ġ(": 303,
      "Ġ&&&&": 304,
      "'&&*": 305,
      "&$&'": 306,
      "&'&&&&'": 307,
      "$%&&&&": 308,
      "*%": 309,
      "ĀĀ/": 310,
      "*(": 311,
      "ĀĀ&Ā": 312,
      "\"'": 313,
      "ĝ&&": 314,
      "&'%&&&&": 315,
      ")&&&'": 316,
      "ĀĀ$Ā": 317,
      "\"$": 318,
      "&&%&&&%": 319,
      "%*": 320,
      "&(&%": 321,
      "%(&&&&": 322,
      "()": 323,
      "&%'": 324,
      "&&)&(": 325,
      "&&(&&&&": 326,
      ")#": 327,
      "&&'&&&'": 328,
      "*$": 329,
      "*'": 330,
      "+ĀĀ": 331,
      "&%&&&&'": 332,
      "(&&\"": 333,
      "&&&&&&&&&&&&": 334,
      "%\"": 335,
      "'&&&&&": 336,
      "ĀĀ'Ā": 337,
      "&''": 338,
      "&&$&*": 339,
      "&&#&": 340,
      "&&)&": 341,
      "##": 342,
      "&%%&&&&": 343,
      "&&(&*": 344,
      "&&(&\"": 345,
      ".&&": 346,
      "ĀĀĞ": 347,
      "&&$&\"": 348,
      "\"(": 349,
      "&(&'": 350,
      "&&$&&&&": 351,
      "%&&&$": 352,
      "$&&\"": 353,
      "$&&*": 354,
      "'*": 355,
      "'$&&&&": 356,
      "$*": 357,
      "(\"": 358,
      "ĀĀĜ": 359,
      "&&&'&&&&": 360,
      "&&%&!": 361,
      "'(&&&&": 362,
      "&&#&$": 363,
      "%&&+": 364,
      "#)": 365,
      "&&%&+": 366,
      "&&'&+": 367,
      ")&&\"": 368,
      "ĀĞ": 369,
      "ĀĀ.": 370,
      "&&(&&'": 371,
      "\"%": 372,
      "$'&&&&": 373,
      "(%&&&&": 374,
      "ĀĀě": 375,
      "&&#&)": 376,
      "$&&&$": 377,
      "&&'&!": 378,
      "(*": 379,
      "('&&&&": 380,
      "))": 381,
      "&%&'": 382,
      "ĀĀĝ": 383,
      "&&'&&(": 384,
      "(&&*": 385,
      "&&,": 386,
      "&\"&&&&": 387,
      "&%&&&&%": 388,
      "$\"": 389,
      "Ġ%": 390,
      "ĀĀ(Ā": 391,
      "%&&!": 392,
      "&&)&#": 393,
      "&'&&&&&&": 394,
      "#&&\"": 395,
      "&&%&&&&&&&&": 396,
      "&(&": 397,
      "%&&&%&": 398,
      "ĀĀ\"Ā": 399,
      "%$&&&&": 400,
      "Ġ$": 401,
      "'!": 402,
      "(+": 403,
      "&'&%": 404,
      "&%&&&&&&&&": 405,
      "'&&&'&": 406,
      "ĀĀ)Ā": 407,
      ")*": 408,
      "&%'&&&&": 409,
      "&&%&&$": 410,
      "&&$&+": 411,
      "ĀĀ#Ā": 412,
      "ĀĀĚ": 413,
      "'&&+": 414,
      "&''&&&&": 415,
      "'&&!": 416,
      "*#": 417,
      "+(": 418,
      ",&&&&": 419,
      "#&&*": 420,
      "Ġ'": 421,
      "&%%": 422,
      "&&%'": 423,
      ")&&*": 424,
      "Ġ!": 425,
      "&%$": 426,
      "#\"": 427,
      "&&(&+": 428,
      "&&#&*": 429,
      "&&)&)": 430,
      "&&'&&&&&&&&": 431,
      "&&&%&": 432,
      "&&&'&": 433,
      "&%&&&&&&": 434,
      "+$": 435,
      "Ġ#": 436,
      "$&&!": 437,
      "%!": 438,
      "&ě": 439,
      "Ġ&(": 440,
      "&&%&&(": 441,
      ")\"": 442,
      "&'&'": 443,
      "&&$&&'": 444,
      "&*&&&&": 445,
      "(&&!": 446,
      "#&&&%": 447,
      "((&&&&": 448,
      "*)": 449,
      "ĀĀ!Ā": 450,
      "!%": 451,
      "!'": 452,
      "Ġ\"": 453,
      "&&(&!": 454,
      "%&&&&&": 455,
      "&'&&&&&&&&": 456,
      "+#": 457,
      "&$%": 458,
      "$&&+": 459,
      "+'": 460,
      "-ĀĀ": 461,
      "ğ&&&&": 462,
      "&$&%": 463,
      "&&#&#": 464,
      "ĀĀ*Ā": 465,
      ",ĀĀ": 466,
      "\"&&*": 467,
      "$!": 468,
      "&ĀĀ": 469,
      "&(&(": 470,
      "\")": 471,
      "Ġ*": 472,
      "&&&&&&&&&&&&&&&&": 473,
      "&&%&&&&&": 474,
      "!$": 475,
      "Ġ&'": 476,
      "&&ğ": 477,
      "(&&+": 478,
      "*&&\"": 479,
      ",)": 480,
      "&('": 481,
      "#&&!": 482,
      "\"#": 483,
      "&&-": 484,
      "&%(": 485,
      "&&%%": 486,
      "#&&+": 487,
      "Ġ)": 488,
      "&$'": 489,
      "&&#&&": 490,
      "Ġ&)": 491,
      "&&%&&&'": 492,
      "#+": 493,
      "%+": 494,
      "+%": 495,
      "&&)&&": 496,
      "&&)&\"": 497,
      "\"\"": 498,
      "',": 499,
      "&(&$": 500,
      "&&$&!": 501,
      "%#&&&&": 502,
      "+)": 503,
      "ĀĀę": 504,
      "'&&&)": 505,
      "*&&*": 506,
      "!#": 507,
      "!(": 508,
      "*+": 509,
      "Ĝ&&": 510,
      "ĠĀ": 511,
      "&&&&%": 512,
      "&&&&'": 513,
      "&&%&,": 514,
      "\"&&\"": 515,
      "&&'&&&&&": 516,
      "&&'&&$": 517,
      "ĀĀ+Ā": 518,
      "*\"": 519,
      "Ġ&%": 520,
      "&#&'": 521,
      "'%&&'&": 522,
      "#!": 523,
      "#*": 524,
      ")+": 525,
      "&%&%": 526,
      "&&#&\"": 527,
      ".ĀĀ": 528,
      "%&&&&'": 529,
      "')&&&&": 530,
      "),": 531,
      "&($": 532,
      "(&&&(": 533,
      "'+": 534,
      "/ĀĀ": 535,
      "Ġ&": 536,
      "&&&%&&&&": 537,
      "&'$": 538,
      "&&(%": 539,
      "'&&&&%": 540,
      "\"&&+": 541,
      "!)": 542,
      "(,": 543,
      "&&#&+": 544,
      "Āĝ": 545,
      "ğ)": 546,
      "&&(&&$": 547,
      ")&&!": 548,
      "%,": 549,
      "(!": 550,
      "/&&": 551,
      "%&&&&%": 552,
      ")&&+": 553,
      "*&&&'": 554,
      "$+": 555,
      ")!": 556,
      "**": 557,
      "Ā/": 558,
      "Ġ+": 559,
      "&((": 560,
      "%&&ğ": 561,
      "'&&&(": 562,
      "'&&&&&&&&": 563,
      "&&)&*": 564,
      "''&&'&": 565,
      "&&$&&%": 566,
      "&&$&&$": 567,
      "'&&,": 568,
      "%&&&&&&&&": 569,
      "Ġ&$": 570,
      "Ġ&*": 571,
      "&%&'&&&&": 572,
      "&&'&&)": 573,
      "&&$&,": 574,
      "%&&&&&&": 575,
      "#&&&$": 576,
      "&Ě": 577,
      ",'": 578,
      "Ġ&#": 579,
      "&&Ğ": 580,
      "&&''": 581,
      "&$$": 582,
      "&%&&&&(": 583,
      ")&&&(": 584,
      "&'(": 585,
      "&&%&'&&&&": 586,
      "&&'&&&%": 587,
      "&$(": 588,
      "$&&,": 589,
      "$&&&#": 590,
      "*&&!": 591,
      "%&&'&": 592,
      "(ĀĀ": 593,
      "&%%'": 594,
      "'&&&&'": 595,
      "(&&,": 596,
      "&&%&-": 597,
      "&&'&ğ": 598,
      "#&&,": 599,
      "%&&&%&'": 600,
      "$&&&%&": 601,
      "ĀĀ,Ā": 602,
      "\"!": 603,
      "\"+": 604,
      "'#&&&&": 605,
      "-&&&&": 606,
      "\"*": 607,
      "*!": 608,
      "-&": 609,
      "Ġ,": 610,
      "&&(&&%": 611,
      "&&$&&(": 612,
      "%&&,": 613,
      "&&*&%": 614,
      "&&%&&&%&&&&": 615,
      "ĀĀĞĀ": 616,
      "$,": 617,
      "$$&&&&": 618,
      "'ğ": 619,
      "*ĀĀ": 620,
      "++": 621,
      "&&%&&#": 622,
      "&(%": 623,
      "&#%": 624,
      "(&&&%": 625,
      "'&&&'&%": 626,
      "ĀĀğĀ": 627,
      "($&&&&": 628,
      ")ĀĀ": 629,
      "'&&ğ": 630,
      "&+&&&&": 631,
      "&(&&&&%": 632,
      "Ġ-": 633,
      "&&.": 634,
      "&&'%": 635,
      "&&'&'&&&&": 636,
      "&(#": 637,
      "&$&(": 638,
      "&&)&!": 639,
      "\"&&&%": 640,
      "&&\"&%": 641,
      "&$&&&&'": 642,
      "!!": 643,
      "$ĀĀ": 644,
      "'ĀĀ": 645,
      "+*": 646,
      ",+": 647,
      "&$&": 648,
      "%&&-": 649,
      "&&)&+": 650,
      ")&&&)": 651,
      "#&&&#": 652,
      "&!&&&&": 653,
      "&'\"": 654,
      "&&(&&(": 655,
      "&&$&&&%": 656,
      "'&&&&&&": 657,
      "'&&&&&%": 658,
      "%%&&%&": 659,
      "(&&&'&": 660,
      "ĀĀ-Ā": 661,
      "!\"": 662,
      "%&'&&&&": 663,
      "%)&&&&": 664,
      "'-": 665,
      "Ğ!": 666,
      "ğ$": 667,
      "&&%%&&&&": 668,
      "&&%&%&&&&": 669,
      "%&&Ğ": 670,
      "&*&%": 671,
      "&&'&,": 672,
      "(-": 673,
      "(ğ": 674,
      "&%#": 675,
      "&$&$": 676,
      "!&&+": 677,
      "ĀĀ/Ā": 678,
      "!+": 679,
      "#ğ": 680,
      "%-": 681,
      ")ğ": 682,
      ")%&&&&": 683,
      ",*": 684,
      "ě&&": 685,
      "Ġğ": 686,
      "&%&&'&": 687,
      "&&'&%&&&&": 688,
      "&&(&,": 689,
      "'&&&&&'": 690,
      ")&&,": 691,
      "*&&&)": 692,
      "%'&&%&": 693,
      "#ĀĀ": 694,
      "%&&%&": 695,
      "'&&'&": 696,
      ".&": 697,
      "&&&$": 698,
      "&&%&&)": 699,
      "&&(&&&'": 700,
      "&)$": 701,
      "%&&&#": 702,
      "&\"&'": 703,
      "&'&&&&(": 704,
      "$&&-": 705,
      "(&&-": 706,
      "!&&!": 707,
      "'&&&'&'": 708,
      "&&'&&&'&&&&": 709,
      "%&&)&%": 710,
      "&ę": 711,
      "'&&%&": 712,
      "ğ(": 713,
      "ĠĀĀ": 714,
      "Ġ&&\"": 715,
      "&&ĝ": 716,
      "&&&&$": 717,
      "&&'%&&&&": 718,
      "&$#": 719,
      "'&&-": 720,
      "\"&&&#": 721,
      "''&&'&%": 722,
      "&&*&'": 723,
      "+&&&)": 724,
      "&&'&&&%&&&&": 725,
      "ĀĀĜĀ": 726,
      "'&&%&'": 727,
      ")'&&&&": 728,
      "*,": 729,
      "Ğ\"": 730,
      "Ġ&&*": 731,
      "&%&&&&&": 732,
      "(&&&)": 733,
      "$&&&&%": 734,
      "\"&&-": 735,
      "'%&&'&'": 736,
      "$%&&%&": 737,
      "&&'&&&(": 738,
      "ĀĀĝĀ": 739,
      "#,": 740,
      "%ĝ": 741,
      "&Ę": 742,
      ",%": 743,
      "Ġ&+": 744,
      "&&'&&#": 745,
      "&##": 746,
      "&'&&&&&": 747,
      "#&&ğ": 748,
      "'%%&&&&": 749,
      "''&&'&'": 750,
      "&&(&ğ": 751,
      "&(&&&&'": 752,
      "&&%&&&$": 753,
      "\",": 754,
      "$#&&&&": 755,
      "(#&&&&": 756,
      "*-": 757,
      "-)": 758,
      "ğ%": 759,
      "&'*": 760,
      "&'(&&&&": 761,
      "&%)": 762,
      "&&''&&&&": 763,
      "&$*": 764,
      "&)'": 765,
      "&&#&!": 766,
      "$&&ğ": 767,
      "&&%&.": 768,
      "\"&&,": 769,
      "&&&'&'": 770,
      "+&&!": 771,
      "&&%&&&'&&&&": 772,
      "+\"": 773,
      ",#": 774,
      ",$": 775,
      "-$": 776,
      ".$": 777,
      "&%&&%&": 778,
      "&%$&&&&": 779,
      "&(*": 780,
      "&#'": 781,
      "$&&/": 782,
      "\"&&!": 783,
      "&&'&%&'": 784,
      "&&&'&%": 785,
      "+&&&(": 786,
      "()&&&&": 787,
      "+!": 788,
      ",(": 789,
      "-*": 790,
      "..": 791,
      "Ě&&": 792,
      "Ğ&": 793,
      "Ġ&\"": 794,
      "&&%'&&&&": 795,
      "ĀĀė": 796,
      "%&&.": 797,
      "&%&&&&$": 798,
      "*&&ğ": 799,
      "&&&%&'": 800,
      "!&&&#": 801,
      "Ġ&&!": 802,
      ",&&!": 803,
      "ĀĀ.Ā": 804,
      "#-": 805,
      "#$&&&&": 806,
      ".(": 807,
      "./": 808,
      "00": 809,
      "ĝ$": 810,
      "Ğ&&&&": 811,
      "&%&&'&'": 812,
      "&()": 813,
      "&))": 814,
      "%&&&&(": 815,
      "&&#&,": 816,
      "$&&&'": 817,
      "&&%&ğ": 818,
      ")&&-": 819,
      "#&&-": 820,
      "&&%&%&'": 821,
      "\"&&ğ": 822,
      "'''&&&&": 823,
      "%%&&%&'": 824,
      "%'&&%&'": 825,
      "&&(&Ğ": 826,
      "+&&+": 827,
      "%&&&%&%": 828,
      "'&&)&": 829,
      "!*": 830,
      "$(&&&&": 831,
      "%&'": 832,
      ",,": 833,
      "-%": 834,
      "-'": 835,
      ".&&&&": 836,
      "Ĝ$": 837,
      "Ġ1": 838,
      "Ġě": 839,
      "&')": 840,
      "&%*": 841,
      "ĀĀĖ": 842,
      "&(+": 843,
      "&$)": 844,
      "'&&ĝ": 845,
      "'&&Ğ": 846,
      "(&&.": 847,
      "(&&ğ": 848,
      ")&&ğ": 849,
      "'%&&'&(": 850,
      "''%&&&&": 851,
      "%%'&&&&": 852,
      "%'%&&&&": 853,
      "&&\"&": 854,
      "(%&&'&%": 855,
      "&&'&&&$": 856,
      "#'&&&&": 857,
      "%\"&&&&": 858,
      "(&&%&'": 859,
      ")-": 860,
      ",\"": 861,
      "-(": 862,
      "/&&&&": 863,
      "ĝ!": 864,
      "ĝ#": 865,
      "ĝ'": 866,
      "Ğ$": 867,
      "&$&&": 868,
      "&&(&-": 869,
      "&&$&-": 870,
      "%&&&(": 871,
      "%&&&)": 872,
      "'%%": 873,
      "*&&&*": 874,
      "%''&&&&": 875,
      "&&\"&*": 876,
      "'&&&'&$": 877,
      "ĀĀ%Ā$": 878,
      "&&'&&&'&": 879,
      "ĀĀěĀ": 880,
      "#%&&&&": 881,
      "(&&%&%": 882,
      "))&&&&": 883,
      ".%": 884,
      "ğ\"": 885,
      "Ġĝ": 886,
      "Ġ&,": 887,
      "&'&&'&": 888,
      "ĀĀĕ": 889,
      "&&$&&#": 890,
      "&)%": 891,
      "'&&&$": 892,
      "&\"(": 893,
      "&'&&&&$": 894,
      "(&&&*": 895,
      "(&&&&&": 896,
      "'(&&'&": 897,
      "&$&&&&%": 898,
      "&$&&&&(": 899,
      "$'&&%&'": 900,
      "+&&,": 901,
      "ĀĀ&Ā$": 902,
      "'&&#&'": 903,
      "%&&#&%": 904,
      "%&&&'&": 905,
      "&&%&&&%&": 906,
      "ĀĀĚĀ": 907,
      "!ĀĀ": 908,
      "\"ğ": 909,
      "$Ğ": 910,
      "$&&'&": 911,
      "'&%&&&&": 912,
      "'&&%&%": 913,
      "*.": 914,
      "-#": 915,
      "ğ#": 916,
      "Ġ.": 917,
      "Ġ%&&": 918,
      "&%&%&&&&": 919,
      "&#*": 920,
      "'%&&'&%": 921,
      "*&&+": 922,
      "&&$&ğ": 923,
      "%&&)&": 924,
      "&&$&&&$": 925,
      "$-": 926,
      "$&&'&%": 927,
      "%&&'&'": 928,
      "'&'": 929,
      "(ĝ": 930,
      "(Ğ": 931,
      ")Ğ": 932,
      "&'#": 933,
      "&'&%&&&&": 934,
      "&)\"": 935,
      "&)(": 936,
      "&)&&": 937,
      "&#&$": 938,
      "&\"#": 939,
      "&&)&,": 940,
      "$&&Ğ": 941,
      "#&&.": 942,
      "%%%&&&&": 943,
      "!&&,": 944,
      "('&&'&'": 945,
      "ĀĀ%Ā(": 946,
      "ĀĀ%Ā)": 947,
      "Ġ&&,": 948,
      "(%&&'&": 949,
      "ĀĀ(Ā$": 950,
      "(&&&'&%": 951,
      "&'&&&&'&": 952,
      "$&&&$&": 953,
      "%ĀĀ": 954,
      "%&%&&&&": 955,
      "'*&&&&": 956,
      "*ğ": 957,
      "+.": 958,
      "/&": 959,
      "ğ*": 960,
      "ĠĞ": 961,
      "&'$&&&&": 962,
      "&'%%&&&&": 963,
      "&%!": 964,
      "&%\"": 965,
      "&%$'": 966,
      "ĀĀ:": 967,
      "&(\"": 968,
      "&)*": 969,
      "%&&&&&'": 970,
      "&*(": 971,
      "&&)&&&&": 972,
      "&&)&&'": 973,
      "&%&&&&&&&&&&&&": 974,
      "$&&.": 975,
      "&&'&Ğ": 976,
      "#&&&'": 977,
      "#&&&\"": 978,
      "\"&&&\"": 979,
      "&&\"&$": 980,
      "&&*&$": 981,
      "&&'&&''": 982,
      "&'&&&&%&": 983,
      "%&&&$&": 984,
      "$&&'&'": 985,
      "'&'&&&&": 986,
      ")(&&&&": 987,
      ".+": 988,
      "ĘĀ": 989,
      "ę&&": 990,
      "ĝ&": 991,
      "ğ'": 992,
      "Ġ/": 993,
      "&%(&&&&": 994,
      "&%''": 995,
      "&&%&&&&&&&&&&&&": 996,
      "&&('": 997,
      "&&$'": 998,
      "'&&&&(": 999,
      "&*'": 1000,
      "\"&&&$": 1001,
      "&&\"&'": 1002,
      "&&*&\"": 1003,
      "!&&&\"": 1004,
      "('&&'&": 1005,
      "Ġ&&+": 1006,
      "ĀĀ&Ā\"": 1007,
      "ĀĀ$Ā#": 1008,
      "ĀĀ#Ā(": 1009,
      "'&&)&$": 1010,
      "'&&#&%": 1011,
      "&&'&&%%": 1012,
      "&'%&&&&&": 1013,
      "&%%&&&&&": 1014,
      "!-": 1015,
      "$)&&&&": 1016,
      "%ğ": 1017,
      "(&&'&'": 1018,
      "(\"&&&&": 1019,
      ")$&&&&": 1020,
      "ĝ&&&&": 1021,
      "Ğ(": 1022,
      "ĠĜ": 1023,
      "&'&&%&": 1024,
      "&%&&%&%": 1025,
      "&%&&'&%": 1026,
      "&&%(": 1027,
      "&&%&&*": 1028,
      "&(&&%&": 1029,
      "&$&&'&'": 1030,
      "&&$&&)": 1031,
      "%&&/": 1032,
      "%&&ĝ": 1033,
      "'&&/": 1034,
      "%&&&&&%": 1035,
      "%&&&&&(": 1036,
      "%&&&&&&&&&&&&": 1037,
      "'&&&&&&&&&&&&": 1038,
      "&%&&&&&&%&&&&": 1039,
      "(&&Ğ": 1040,
      "(&&&(&": 1041,
      ")&&ĝ": 1042,
      "'%&&'&$": 1043,
      "'%&&(&%": 1044,
      "&&\"&#": 1045,
      "&&*&": 1046,
      "&&*&#": 1047,
      "'(&&'&'": 1048,
      "$%&&%&'": 1049,
      "$%&&%&%": 1050,
      "ĀĀ%Ā*": 1051,
      "ĀĀ$Ā$": 1052,
      "ĀĀ$Ā!": 1053,
      "ĀĀ'Ā(": 1054,
      "ĀĀ'Ā\"": 1055,
      "ĀĀ#Ā)": 1056,
      "&&%&&%'": 1057,
      "&&%&&'%": 1058,
      "&%&&&&'&": 1059,
      "!Ğ": 1060,
      "\"ĀĀ": 1061,
      "#%&&#": 1062,
      ").": 1063,
      "+-": 1064,
      "-\"": 1065,
      ".'": 1066,
      "/'": 1067,
      "/*": 1068,
      "11": 1069,
      "Ĝ&": 1070,
      "&'!": 1071,
      "&(!": 1072,
      "&(&#": 1073,
      "&)+": 1074,
      "%&&&\"": 1075,
      "'&&.": 1076,
      "'&&&&&$": 1077,
      "&*%": 1078,
      "&*&'": 1079,
      "&'&&&&&&'&&&&": 1080,
      "(&&ĝ": 1081,
      "(&&&$": 1082,
      "&+)": 1083,
      ")&&.": 1084,
      ")&&Ğ": 1085,
      "#&&Ĝ": 1086,
      "&!$": 1087,
      "&!(": 1088,
      "%%&&'&": 1089,
      "%%&&%&$": 1090,
      "&&&%&%": 1091,
      "&&\"&\"": 1092,
      "%$&&%&'": 1093,
      "!&&-": 1094,
      "&&$&%&'": 1095,
      "Ā()": 1096,
      "ĀĀ$Ā)": 1097,
      "ĀĀ'Ā)": 1098,
      "ĀĀ'Ā$": 1099,
      "ĀĀ(Ā'": 1100,
      "ĀĀ\"Ā'": 1101,
      ",&&,": 1102,
      "(&&&'&'": 1103,
      "&%&&&&&&&&&&&": 1104,
      "!/": 1105,
      "\"$&&": 1106,
      "$&&%&'": 1107,
      "'.": 1108,
      "(.": 1109,
      "(&&'&": 1110,
      ",/": 1111,
      "ĝĀĀ": 1112,
      "Ğ%": 1113,
      "Ġ&&'&'": 1114,
      "&%&&%&'": 1115,
      "&&%&&%&&&&": 1116,
      "&&'&&'&&&&": 1117,
      "&(&&": 1118,
      "&&(&&#": 1119,
      "&#&%": 1120,
      "%&&&$&'": 1121,
      "'&&Ĝ": 1122,
      "'&&&(&%": 1123,
      "&*$": 1124,
      "&&#&&&&": 1125,
      "&&#&-": 1126,
      "$&&&\"": 1127,
      "$&&&&&": 1128,
      "(&&&&%": 1129,
      "&&%&%&'&&&&": 1130,
      "&&%&%%'": 1131,
      "\"&&&'": 1132,
      "'%'": 1133,
      "'%'&&&&": 1134,
      "%%&&$&'": 1135,
      "&,&&&&": 1136,
      "!&&ğ": 1137,
      "&(&&&&(": 1138,
      "+&&-": 1139,
      "'&&&'&(": 1140,
      "ĀĀ%Ā%": 1141,
      "(%&&'&'": 1142,
      "ĀĀ&Ā)": 1143,
      "ĀĀ$Ā(": 1144,
      "ĀĀ$Ā%": 1145,
      "%%&&&&&": 1146,
      "ĀĀ(Ā#": 1147,
      "ĀĀ\"Ā$": 1148,
      "%&&)&(": 1149,
      "'&&#&": 1150,
      "%&&#&'": 1151,
      "&&%&&%'&&&&": 1152,
      "'&&&%&": 1153,
      ")&&&'&": 1154,
      "\"&&%&'": 1155,
      "#Ğ": 1156,
      "#$&&": 1157,
      "#&&'&'": 1158,
      "##&&&&": 1159,
      "$/": 1160,
      "%&&%&'": 1161,
      "'\"&&&&": 1162,
      "(&": 1163,
      "(/": 1164,
      "(&&%&": 1165,
      "/)": 1166,
      "20": 1167,
      "Ĝ!": 1168,
      "Ğ*": 1169,
      "Ğğ": 1170,
      "ĞĀĀ": 1171,
      "Ġ0": 1172,
      "Ġ&!": 1173,
      "&&&&\"": 1174,
      "&&&&&&&": 1175,
      "&'+": 1176,
      "&%&&": 1177,
      "&%&&%&$": 1178,
      "&&%&&'&&&&": 1179,
      "&&%&'&&&&&&": 1180,
      "&&'&%&&&&&&": 1181,
      "ĀĀ>": 1182,
      "&$+": 1183,
      "&$&&%&": 1184,
      "&$&&'&%": 1185,
      "&&(&&)": 1186,
      "&&(&&&%": 1187,
      "&)&'": 1188,
      "&)&(": 1189,
      "'&&&#": 1190,
      "'&&&(&": 1191,
      "%&&&&&&%": 1192,
      "&&)&ğ": 1193,
      ")&&&%": 1194,
      ")&&&+": 1195,
      "$&&&&&%": 1196,
      "''&&(&'": 1197,
      "&&\"&)": 1198,
      "&&*&*": 1199,
      "%$&&%&": 1200,
      "('&&'&%": 1201,
      "ĀĀ&Ā#": 1202,
      "ĀĀ&Ā!": 1203,
      "ĀĀ&Ā'": 1204,
      "ĀĀ'Ā%": 1205,
      "ĀĀ'Ā#": 1206,
      "ĀĀ#Ā$": 1207,
      "ĀĀ\"Ā(": 1208,
      "%&&)&'": 1209,
      "'&&)&%": 1210,
      "&&'&&''&&&&": 1211,
      "&&'&&%%&&&&": 1212,
      "&&'&&%'&&&&": 1213,
      "$&&&%&'": 1214,
      "$&&&%&%": 1215,
      "'&&\"&(": 1216,
      "!.": 1217,
      "$&(": 1218,
      "%/": 1219,
      "*Ğ": 1220,
      ",!": 1221,
      "-+": 1222,
      ".-": 1223,
      "ě$": 1224,
      "ě)": 1225,
      "Ĝ#": 1226,
      "ĝ,": 1227,
      "ğ!": 1228,
      "Ġ&&'&": 1229,
      "Ġ\"&&": 1230,
      "Ġ&&&%": 1231,
      "&'&&": 1232,
      "&'&&'&%": 1233,
      "&'&&&'&": 1234,
      "&&'&&%&&&&": 1235,
      "ĀĀē": 1236,
      "&$\"": 1237,
      "&$&&%&'": 1238,
      "&$%'": 1239,
      "&&()": 1240,
      "&&(&&*": 1241,
      "&&$&&&'": 1242,
      "&#$": 1243,
      "'&&&'&&&&&&&&": 1244,
      "&\"$": 1245,
      "&&)&&)": 1246,
      "&'&&&&&&%&&&&": 1247,
      "&%&&&&#": 1248,
      "(&&/": 1249,
      ")&&&*": 1250,
      "(&&&&'": 1251,
      "(&&&&(": 1252,
      "(&&&&&'": 1253,
      "\"&&.": 1254,
      "'%&&(&": 1255,
      "*&&-": 1256,
      "%%$&&&&": 1257,
      "!&&Ğ": 1258,
      "&&$&/": 1259,
      "$'&&%&": 1260,
      "$'&&%&%": 1261,
      "%(&&%&'": 1262,
      "$%&&$&'": 1263,
      "%&&&%&$": 1264,
      "'$&&'&%": 1265,
      "ĀĀ&Ā(": 1266,
      "ĀĀ$Ā*": 1267,
      "''&&&&&": 1268,
      "ĀĀ(Ā%": 1269,
      "ĀĀ(Ā\"": 1270,
      "ĀĀ#Ā#": 1271,
      "ĀĀ#Ā!": 1272,
      "'&&#&(": 1273,
      "ğ&&!": 1274,
      "-&&+": 1275,
      "&&'&&'%&&&&": 1276,
      "ĀĀ!Ā!": 1277,
      "(&&&'&$": 1278,
      "'&&&%&'": 1279,
      "!,": 1280,
      "\"-": 1281,
      "#&&'&%": 1282,
      "$ğ": 1283,
      "$&&%&": 1284,
      "$\"&&&&": 1285,
      "%Ğ": 1286,
      "%*&&&&": 1287,
      "&ė": 1288,
      "'&%": 1289,
      "''&&)": 1290,
      "+,": 1291,
      "+$&&&&": 1292,
      ".,": 1293,
      "Ğ#": 1294,
      "Ğ'": 1295,
      "ğ&": 1296,
      "Ġ'&&": 1297,
      "Ġ$&&": 1298,
      "Ġ&-": 1299,
      "&'&&&'": 1300,
      "&&'(": 1301,
      "&&'&%&&&&'": 1302,
      "&&'&'&&&&&&": 1303,
      "ĀĀĔ": 1304,
      "&(-": 1305,
      "&(ğ": 1306,
      "&(&%&&&&": 1307,
      "&(&&'&": 1308,
      "&(&&%&%": 1309,
      "&$&&'&": 1310,
      "&$&&%&%": 1311,
      "&&('&&&&": 1312,
      "&#\"": 1313,
      "&#&&": 1314,
      "&\"'": 1315,
      "&\"&&": 1316,
      "&&#&&%": 1317,
      "&&#&.": 1318,
      "&&)&Ğ": 1319,
      "&+*": 1320,
      "#&&&$&'": 1321,
      "$&&&&$": 1322,
      "$&&&&(": 1323,
      "\"&&&!": 1324,
      "'%&&%&%": 1325,
      "*&&,": 1326,
      "*&&Ğ": 1327,
      "'''": 1328,
      "%%&&%&%": 1329,
      "%%&&%&(": 1330,
      ")&&&&%": 1331,
      "%$&&%&%": 1332,
      "&&$&.": 1333,
      "%(&&%&%": 1334,
      "&&'&&&$&&&&": 1335,
      "&&'&&&(&&&&": 1336,
      "ĀĀ(Ā(": 1337,
      "'%&&&&&": 1338,
      "'%&&&&'": 1339,
      "ĀĀ\"Ā#": 1340,
      "ĀĀ\"Ā*": 1341,
      ",&&+": 1342,
      "%&&)&$": 1343,
      "'&&#&$": 1344,
      "ğ&&+": 1345,
      "&&%&&'%&&&&": 1346,
      "&&(&&&(": 1347,
      "%&&&'&%": 1348,
      "&&&&&&&&&&&&&&": 1349,
      "&&&&&&&&&&&&&&&": 1350,
      "&%&&&&%&": 1351,
      "!ĝ": 1352,
      "!(&&": 1353,
      "\".": 1354,
      "\"/": 1355,
      "\"%&&&&": 1356,
      "#Ĝ": 1357,
      "$Ĝ": 1358,
      "'ĝ": 1359,
      ")ě": 1360,
      ")ĝ": 1361,
      "+/": 1362,
      ".*": 1363,
      "/+": 1364,
      "10": 1365,
      "ĀĜ": 1366,
      "Ě!": 1367,
      "ěğ": 1368,
      "Ğ)": 1369,
      "Ğ,": 1370,
      "Ğ&&+": 1371,
      "Ġ&&%&": 1372,
      "Ġ&&%&'": 1373,
      "&&&&(": 1374,
      "&&&&&&": 1375,
      "&'&&%&'": 1376,
      "&%''&&&&": 1377,
      "&&'&&\"": 1378,
      "ĀĀ=": 1379,
      "&$&)": 1380,
      "&&(&&&&&&&&": 1381,
      "&&(&&%%": 1382,
      "&&$%": 1383,
      "&)&": 1384,
      "&)&&'&'": 1385,
      "&#(": 1386,
      "&#'(": 1387,
      "'&&&*": 1388,
      "'&&&(&'": 1389,
      "&&#'": 1390,
      "&&#&ğ": 1391,
      "&&)&-": 1392,
      "$&&ĝ": 1393,
      "$&&&!": 1394,
      "$&&&$&'": 1395,
      "#&&&!": 1396,
      "$&&&&&(": 1397,
      "*&&/": 1398,
      "%%&&'&'": 1399,
      "!&&&!": 1400,
      "%&&&%&(": 1401,
      "ĀĀ%Ā!": 1402,
      "Ġ&&Ğ": 1403,
      "Ġ&&&!": 1404,
      "ĀĀ&Ā%": 1405,
      "ĀĀ&Ā*": 1406,
      "ĀĀ$Ā'": 1407,
      "ĀĀ'Ā*": 1408,
      "ĀĀ'Ā!": 1409,
      "&&%&&&$&&&&": 1410,
      "ĀĀ(Ā!": 1411,
      "ĀĀ(Ā+": 1412,
      "ĀĀ#Ā\"": 1413,
      "ĀĀ#Ā,": 1414,
      "ĀĀ\"Ā)": 1415,
      "ĀĀ\"Ā\"": 1416,
      "'&&)&'": 1417,
      "ĀĀ)Ā)": 1418,
      "ĀĀ)Ā!": 1419,
      "#'&&$&%": 1420,
      "ĀĀ!Ā*": 1421,
      "&&%&&%%&&&&": 1422,
      "Ā-'": 1423,
      "&&%&&''&&&&": 1424,
      "'&&\"&'": 1425,
      "%&&*&'": 1426,
      "&'&&&&'&'": 1427,
      "!ğ": 1428,
      "!&&&%": 1429,
      "#ĝ": 1430,
      "$ĝ": 1431,
      "$&&%&$": 1432,
      "%&$&&&&": 1433,
      "'&": 1434,
      "'&&'&%": 1435,
      "(Ĝ": 1436,
      "(&&'&%": 1437,
      "+Ě": 1438,
      "+ğ": 1439,
      "-,": 1440,
      "Ā&": 1441,
      "Ę&&": 1442,
      "ęĀĀ": 1443,
      "Ĝ\"": 1444,
      "ĝ%": 1445,
      "&'&&%&%": 1446,
      "&%+": 1447,
      "ĀĀ<": 1448,
      "&('&&&&": 1449,
      "&(&&%&'": 1450,
      "&(&&%&(": 1451,
      "&(&&'&(": 1452,
      "&$,": 1453,
      "&&$&%&&&&": 1454,
      "&#+": 1455,
      "%&&Ĝ": 1456,
      "'&&&'&&&&": 1457,
      "%&&&&#": 1458,
      "'&&&&$": 1459,
      "&\"%": 1460,
      "&&#&&#": 1461,
      "&'&&&&)": 1462,
      "&'&&&&&&%": 1463,
      "&'&&&&&&'": 1464,
      "&&'&-": 1465,
      "#&&Ğ": 1466,
      "&!)": 1467,
      "&&%&%'(": 1468,
      "\"&&Ğ": 1469,
      "'%&&(&'": 1470,
      "'%&&(&$": 1471,
      "%'&&%&(": 1472,
      "&&\"&(": 1473,
      "#&&&&'": 1474,
      "('&&(&%": 1475,
      "$'&&$&": 1476,
      "+&&ğ": 1477,
      "+&&&*": 1478,
      "%(&&%&(": 1479,
      "%(&&%&$": 1480,
      "ĀĀ%Ā\"": 1481,
      "'$&&'&'": 1482,
      "&&%&&&#": 1483,
      "ĀĀ#Ā%": 1484,
      "%'&&&&&": 1485,
      "ĀĀ)Ā%": 1486,
      "ğ&&,": 1487,
      "-&&!": 1488,
      "&&%&&%&&&%": 1489,
      "&#&&&&%": 1490,
      "%&&\"&$": 1491,
      "!&&*": 1492,
      "\"ĝ": 1493,
      "#'&&": 1494,
      "$&'&&&&": 1495,
      "$&&%&%": 1496,
      "%.": 1497,
      "%&&'&%": 1498,
      "%%&&#": 1499,
      "%!&&&&": 1500,
      "'&&(&%": 1501,
      "(&&$&'": 1502,
      ")&": 1503,
      ")/": 1504,
      ",-": 1505,
      "--": 1506,
      "ĘĀĀ": 1507,
      "ě&": 1508,
      "Ĝ,": 1509,
      "Ĝĝ": 1510,
      "Ğ+": 1511,
      "ĞĞ": 1512,
      "ĠĚ": 1513,
      "Ġ&&$&'": 1514,
      "Ġ&ğ": 1515,
      "Ġ&.": 1516,
      "&&&&&'": 1517,
      "&%,": 1518,
      "&%'(": 1519,
      "&%'%&&&&": 1520,
      "&%&&&%&": 1521,
      "&&'&&*": 1522,
      "&&'&&%&&&&&": 1523,
      "&(,": 1524,
      "&$%&&&&": 1525,
      "&$''": 1526,
      "&&((": 1527,
      "&&$&&&&&&&&": 1528,
      "&)&%": 1529,
      "&)&)": 1530,
      "&)&#": 1531,
      "&#)": 1532,
      "%&&ě": 1533,
      "%&&&%&&&&&&&&": 1534,
      "%&&&&&&'": 1535,
      "&*#": 1536,
      "&**": 1537,
      "&'&&&&#": 1538,
      "&'&&&&&&&&&&&&": 1539,
      "(&&Ĝ": 1540,
      "(&&&(&'": 1541,
      ")&&/": 1542,
      "#&&ĝ": 1543,
      "\"&&/": 1544,
      "'%$&&&&": 1545,
      "'%&&%&(": 1546,
      "*&&&(": 1547,
      "''$&&&&": 1548,
      "''&&%&%": 1549,
      "''&&(&": 1550,
      "%%%": 1551,
      "%'&&'&'": 1552,
      "%'&&%&%": 1553,
      "&&*&&&&": 1554,
      "&$&&&&$": 1555,
      ")&&&&$": 1556,
      "%$&&$&'": 1557,
      "('&&(&": 1558,
      "$'&&%&(": 1559,
      "%(&&%&": 1560,
      "%&&&%&#": 1561,
      "&&'&&&&&&": 1562,
      "ĀĀ%Ā+": 1563,
      "(%&&(&%": 1564,
      "ĀĀ$Ā+": 1565,
      "%%&&&&(": 1566,
      "ĀĀ#Ā-": 1567,
      "%'&&&&(": 1568,
      "Ā'\"": 1569,
      "'&&)&(": 1570,
      "'&&#&)": 1571,
      "ĀĀ!Ā(": 1572,
      "ĀĀ!Ā%": 1573,
      "ĀĀ!Ā#": 1574,
      "%&&#&)": 1575,
      "&&%&&%%": 1576,
      ")'&&'&'": 1577,
      ")%&&'&": 1578,
      "ĀĀ*Ā(": 1579,
      "ĀĀ+Ā)": 1580,
      "ĀĀ+Ā$": 1581,
      "&&$&&&#": 1582,
      "%&&&'&'": 1583,
      "&&&&&&&&&&&&&": 1584,
      "%&&&&&&&&&&&": 1585,
      "!'&&": 1586,
      "!$&&\"": 1587,
      "\"(&&": 1588,
      "#ě": 1589,
      "#(&&&&": 1590,
      "$.": 1591,
      "$&&'&$": 1592,
      "'&(": 1593,
      "'%&&*": 1594,
      "(&&%&(": 1595,
      ")&&'&%": 1596,
      "*'&&": 1597,
      "+%&&*": 1598,
      "/,": 1599,
      "/-": 1600,
      "/.": 1601,
      "02": 1602,
      "ě!": 1603,
      "ĝ(": 1604,
      "ĝ&+": 1605,
      "Ġ)&&": 1606,
      "Ġ&&'&$": 1607,
      "Ġ&&%&$": 1608,
      "Ġ,&&": 1609,
      "&&Ĝ": 1610,
      "&%&(": 1611,
      "&%&&&%": 1612,
      "&&%#": 1613,
      "&&%&&\"": 1614,
      "ĀĀď": 1615,
      "ĀĀđ": 1616,
      "&$&*": 1617,
      "&&(&&\"": 1618,
      "&&(&&%&&&%": 1619,
      "&&$'&&&&": 1620,
      "&&$&&%'": 1621,
      "&)#": 1622,
      "&)&$": 1623,
      "%&&&%&&&&": 1624,
      "&*.": 1625,
      "&\"\"": 1626,
      "&\")": 1627,
      "&&)&&&'": 1628,
      "&%&&&&&&%": 1629,
      "(&&&(&%": 1630,
      "#&&&": 1631,
      "&!%": 1632,
      "&!'": 1633,
      "(&&&&)": 1634,
      "%%'": 1635,
      "%'&&%&$": 1636,
      "&&\"&+": 1637,
      "&&*&(": 1638,
      "&-%": 1639,
      "&&'&('%&&&&": 1640,
      "&&(&.": 1641,
      "&$&&&&#": 1642,
      "%$'": 1643,
      "!&&ĝ": 1644,
      "&(&&&&$": 1645,
      "$'&&%&$": 1646,
      "%(&&'&": 1647,
      "$%'&&&&": 1648,
      "ĀĀ%Ā#": 1649,
      "Ġ&&-": 1650,
      "Ġ&&&\"": 1651,
      "(%&&'&$": 1652,
      "ĀĀ&Ā,": 1653,
      "ĀĀ&Āğ": 1654,
      "''&&&&$": 1655,
      "ĀĀ(Ā*": 1656,
      "ĀĀ#Ā*": 1657,
      "$$&&%&'": 1658,
      "%&&)&\"": 1659,
      "'&&)&\"": 1660,
      "ĀĀ)Ā$": 1661,
      "$(&&%&'": 1662,
      "ğ&&ğ": 1663,
      "#'&&%&%": 1664,
      "%)&&%&'": 1665,
      "ĀĀ!Ā)": 1666,
      "ĀĀ!Ā\"": 1667,
      "&&%&&%$": 1668,
      ")'&&'&": 1669,
      "(&&&'&(": 1670,
      ")%&&'&'": 1671,
      "ĀĀ*Ā)": 1672,
      "ĀĀ*Ā$": 1673,
      "#%&&%&'": 1674,
      "ĀĀğĀ$": 1675,
      "ĀĀğĀ'": 1676,
      "%&&\"&'": 1677,
      "ĝ&&ğ": 1678,
      "&&&&&&&&&&&&&&&&&&&&&&&&&&&&&&&&": 1679,
      "!Ĝ": 1680,
      "\"Ě": 1681,
      "\"ě": 1682,
      "##&&": 1683,
      "$%&&": 1684,
      "$$&&": 1685,
      "%ě": 1686,
      "%&$": 1687,
      "'&$&&&&": 1688,
      "('&&": 1689,
      ")&&'&'": 1690,
      ")#&&&&": 1691,
      "*/": 1692,
      "*%&&&&": 1693,
      "*'&&&&": 1694,
      "*&&'&'": 1695,
      "+(&&": 1696,
      "-.": 1697,
      "Ā'%": 1698,
      "Ā%'": 1699,
      "Ė&&": 1700,
      "Ě#": 1701,
      "Ě$": 1702,
      "Ĝ*": 1703,
      "ĝ+": 1704,
      "ĝ.": 1705,
      "ĝĞ": 1706,
      "Ġ&&#": 1707,
      "Ġ&&$&%": 1708,
      "&&&&#": 1709,
      "&'ğ": 1710,
      "&%&$": 1711,
      "&%&&$&": 1712,
      "&&%$": 1713,
      "&&%&'&&&&%": 1714,
      "&&%&%&&&&'": 1715,
      "ĀĀ@": 1716,
      "ĀĀĒ": 1717,
      "&(&&'&'": 1718,
      "&),": 1719,
      "&)&&%&%": 1720,
      "&#&*": 1721,
      "'&&ě": 1722,
      "%&&&&$": 1723,
      "%&&&&&$": 1724,
      "%&&&&&#": 1725,
      "%&&&&&&&'&&&&": 1726,
      "&*+": 1727,
      "&*,": 1728,
      "$&&&(": 1729,
      "&&%&Ğ": 1730,
      "&+'": 1731,
      ")&&Ĝ": 1732,
      "&!#": 1733,
      "$&&&&&&": 1734,
      "(&&&&$": 1735,
      "'%&&'&&'": 1736,
      "*&&&+": 1737,
      "''&&%&'": 1738,
      "%%&&'&$": 1739,
      "%%&&$&": 1740,
      "&,%": 1741,
      "%'&&$&'": 1742,
      "&&'&('%": 1743,
      "&&$&'(": 1744,
      "#&&&&$": 1745,
      "'(&&'&$": 1746,
      "'(&&'&(": 1747,
      "&&(&ĝ": 1748,
      "&$&&&&&&": 1749,
      "%$%": 1750,
      "%$&&'&'": 1751,
      "&(&&&&)": 1752,
      "&(&&&&&&": 1753,
      "$'&&$&%": 1754,
      "+&&.": 1755,
      "&&%&&&&&&'&": 1756,
      "ĀĀ&Ā+": 1757,
      "ĀĀ$Āğ": 1758,
      "ĀĀ'Ā'": 1759,
      "ĀĀ'Ā+": 1760,
      "ĀĀ'Āğ": 1761,
      "''&&&&%": 1762,
      "ĀĀ(Ā)": 1763,
      "ĀĀ#Āğ": 1764,
      "Ā')": 1765,
      "($&&'&": 1766,
      ",&&ğ": 1767,
      "ĀĀ)Ā\"": 1768,
      "ĀĀ)Ā+": 1769,
      "*&&&&(": 1770,
      "$(&&%&%": 1771,
      "ğ&&-": 1772,
      "ĀĀ*Ā,": 1773,
      "ĀĀğĀ)": 1774,
      "ĀĀğĀ%": 1775,
      "%&&\"&(": 1776,
      "'&&&%&$": 1777,
      "&'%$&&&&": 1778,
      "ĀĀ-Ā(": 1779,
      "ĀĀ-Ā#": 1780,
      "'&&*&": 1781,
      "(&&*&": 1782,
      "&&%&&$%": 1783,
      "&&$&&'%": 1784,
      "&&&&%&": 1785,
      "!'&&#": 1786,
      "\"Ĝ": 1787,
      "#.": 1788,
      "#&&%&": 1789,
      "#\"&&&&": 1790,
      "'Ğ": 1791,
      "'%&&": 1792,
      "'$&&": 1793,
      "'(&&": 1794,
      "'+&&&&": 1795,
      "'(&&*": 1796,
      "(ę": 1797,
      "(&&$&%": 1798,
      ")Ĝ": 1799,
      ")&&%&'": 1800,
      "*&'": 1801,
      "-!": 1802,
      "-Ĝ": 1803,
      "/(": 1804,
      "04": 1805,
      "05": 1806,
      "22": 1807,
      "Ęğ": 1808,
      "ę*": 1809,
      "ę&$": 1810,
      "Ěě": 1811,
      "ĚĀĀ": 1812,
      "ěě": 1813,
      "ĜĞ": 1814,
      "Ġė": 1815,
      "Ġ&&)": 1816,
      "Ġ&&$&": 1817,
      "ĠĀ)": 1818,
      "Ġ&&(&$": 1819,
      "&',": 1820,
      "&''&&&&&": 1821,
      "&%&&%&(": 1822,
      "&%#&&&&": 1823,
      "&%%&&&%": 1824,
      "&&%)": 1825,
      "&&'&'&&&&'": 1826,
      "&(%&&&&": 1827,
      "&(&&'&%": 1828,
      "&('$": 1829,
      "&$!": 1830,
      "&$&&!": 1831,
      "&&(#": 1832,
      "&&$$": 1833,
      "&&$&&&%&": 1834,
      "&&$&&%%": 1835,
      "&).": 1836,
      "&)&&%&": 1837,
      "&)&&'&": 1838,
      "&)&&%&'": 1839,
      "'&&&&&(": 1840,
      "'&&&&&&'&&&&": 1841,
      "&*)": 1842,
      "&*&&": 1843,
      "&\",": 1844,
      "&&#&&&%": 1845,
      "&&)%": 1846,
      "$&&&": 1847,
      "(&&Ě": 1848,
      "&&%&/": 1849,
      "&&'&.": 1850,
      "&+#": 1851,
      "&+$": 1852,
      "&+%": 1853,
      "''(&&&&": 1854,
      "''&&'&$": 1855,
      "''&&'&(": 1856,
      "''&&%&$": 1857,
      "%%&&$&%": 1858,
      "&,\"": 1859,
      "&,$": 1860,
      "&,&": 1861,
      "&,+": 1862,
      "&&&'&&": 1863,
      "&&$&''": 1864,
      "'(%": 1865,
      "'((": 1866,
      "'(&&'&%": 1867,
      ")&&&&(": 1868,
      "('&&'&$": 1869,
      "('&&(&(": 1870,
      "&&$&ĝ": 1871,
      "$''&&&&": 1872,
      "&&%&&&&&'": 1873,
      "$%&&$&%": 1874,
      "&ğ&&&&": 1875,
      "ĀĀ%Ā,": 1876,
      "ĀĀ%Ā.": 1877,
      "'$%&&&&": 1878,
      "Ġ&&ğ": 1879,
      "ĀĀ$Ā\"": 1880,
      "ĀĀ$Ā-": 1881,
      "ĀĀ'Ā,": 1882,
      "&&%&&&(&&&&": 1883,
      "&&%&&&#&&&&": 1884,
      "Ā%)": 1885,
      "'%&&&&(": 1886,
      "ĀĀ#Ā+": 1887,
      "$$&&%&%": 1888,
      "$$&&%&)": 1889,
      "\"&&&&%": 1890,
      "%'&&&&$": 1891,
      "($&&'&'": 1892,
      "($&&(&(": 1893,
      "'&&)&#": 1894,
      "ĀĀ)Ā(": 1895,
      "ĀĀ)Ā#": 1896,
      "-&&&+": 1897,
      "%&&#&(": 1898,
      "Ā,*": 1899,
      ")'&&'&$": 1900,
      "&&'&&%&&&%": 1901,
      "ĀĀ*Ā#": 1902,
      ")$&&(&'": 1903,
      "&&!&\"": 1904,
      "&&%&&''": 1905,
      "&&%&&'&&&'&": 1906,
      "&&+&": 1907,
      "ĀĀ+Ā!": 1908,
      "&&(&&&)": 1909,
      "ĀĀğĀ(": 1910,
      "ĀĀğĀ\"": 1911,
      "&)&&&&'": 1912,
      "&)&&&&(": 1913,
      "ĀĀ,Ā(": 1914,
      "ĀĀ,Ā%": 1915,
      "ĀĀ,Ā*": 1916,
      "'&&&%&(": 1917,
      "%(&&&&(": 1918,
      "&%'&&%&": 1919,
      "$&&\"&$": 1920,
      "$'&&&&(": 1921,
      "ĀĀĝĀ(": 1922,
      "#&&\"&": 1923,
      "&*&&&&$": 1924,
      "!ę": 1925,
      "!)&&": 1926,
      "\"Ğ": 1927,
      "\"'&&": 1928,
      "#Ė": 1929,
      "#%&&": 1930,
      "#)&&&&": 1931,
      "#'&&\"": 1932,
      "%&": 1933,
      "%'&&)": 1934,
      "%,&&&&": 1935,
      "'/": 1936,
      "'ě": 1937,
      "'&&'&'": 1938,
      "(Ę": 1939,
      "(*&&&&": 1940,
      "(%&&*": 1941,
      "*%&&": 1942,
      "*%&&)": 1943,
      "**&&&&": 1944,
      "+Ĝ": 1945,
      ",ğ": 1946,
      ".\"": 1947,
      "/#": 1948,
      "01": 1949,
      "13": 1950,
      "34": 1951,
      "Āė": 1952,
      "Āę": 1953,
      "ė&&": 1954,
      "ę\"": 1955,
      "ě+": 1956,
      "ěĜ": 1957,
      "ěĞ": 1958,
      "Ĝ/": 1959,
      "ĝ)": 1960,
      "ğ+": 1961,
      "ğ-": 1962,
      "ğĞ": 1963,
      "ğ'&&": 1964,
      "Ġ2": 1965,
      "Ġ4": 1966,
      "Ġ5": 1967,
      "Ġ+&&": 1968,
      "ĠĀ$": 1969,
      "ĠĀ\"": 1970,
      "Ġ&&%&#": 1971,
      "Ġ&&)&'": 1972,
      "Ġ'&&\"": 1973,
      "Ġ)&&\"": 1974,
      "&&&&)": 1975,
      "&&&&&%": 1976,
      "&&&&&&&%": 1977,
      "&'-": 1978,
      "&'.": 1979,
      "&'Ğ": 1980,
      "&'&&'&$": 1981,
      "&'&&(&'": 1982,
      "&'$'": 1983,
      "&'''&&&&": 1984,
      "&%&&$&'": 1985,
      "&&%&%&&&&%": 1986,
      "&&'&&%&": 1987,
      "&&'$&&&&": 1988,
      "&&'&&&&&&&&&&&&": 1989,
      "&$(&&&&": 1990,
      "&$&&'&$": 1991,
      "&$%&&&&&": 1992,
      "&&(&%&&&&": 1993,
      "&&(&&%'": 1994,
      "&&$&'&&&&": 1995,
      "&&$&&'&&&'": 1996,
      "&&$&&(%": 1997,
      "&#!": 1998,
      "&#&": 1999,
      "&#,": 2000,
      "&#&(": 2001,
      "&#&&%&": 2002,
      "&#&&%&%": 2003,
      "&#&&'&$": 2004,
      "%&&&!": 2005,
      "'&&&(&$": 2006,
      "&&#&/": 2007,
      "&%&&&&)": 2008,
      "&%&&&&'&&&&": 2009,
      "$&&&)": 2010,
      "&+(": 2011,
      "&+,": 2012,
      ")&&&,": 2013,
      ")&&&(&%": 2014,
      "#&&/": 2015,
      "#&&&ğ": 2016,
      "#&&&%&'": 2017,
      "&&%&'&%&&&&": 2018,
      "&&%&'''&&&&": 2019,
      "&&'&'&'&&&&": 2020,
      "&&%&%%": 2021,
      "&&%&%&%": 2022,
      "\"&&Ĝ": 2023,
      "\"&&&(": 2024,
      "'%(": 2025,
      "'%&&(&(": 2026,
      "*&&ě": 2027,
      "*&&ĝ": 2028,
      "''&&'&#": 2029,
      "%%&&'&(": 2030,
      "&,(": 2031,
      "%'&&'&%": 2032,
      "%'&&$&%": 2033,
      "&&&'&(": 2034,
      "&&\"&&&&": 2035,
      "&&\"&,": 2036,
      "&&%&(&%": 2037,
      "&&'&(%'": 2038,
      "&&(&Ĝ": 2039,
      "!&&&": 2040,
      "!&&.": 2041,
      "&&$&ě": 2042,
      "+&&&+": 2043,
      "%(%": 2044,
      "$%&&'&": 2045,
      "$%&&%&)": 2046,
      "'&&&'&)": 2047,
      "ĀĀ%Āğ": 2048,
      "(%&&'&(": 2049,
      "(%&&(&": 2050,
      "Ā%+": 2051,
      "ĀĀ(Āğ": 2052,
      "ĀĀ#Ā.": 2053,
      "$$&&%&$": 2054,
      "%'&&&&'": 2055,
      "ĀĀ\"Ā+": 2056,
      ",&&&*": 2057,
      "((&&'&": 2058,
      "'&&#&*": 2059,
      "$(&&$&(": 2060,
      "ğ&&/": 2061,
      "#'&&$&'": 2062,
      "%)&&%&%": 2063,
      "-&&-": 2064,
      "-&&.": 2065,
      "&&'&&'(": 2066,
      "ĀĀ!Ā'": 2067,
      "%&&#&": 2068,
      "%#&&%&'": 2069,
      "'#&&'&%": 2070,
      ")%&&(&'": 2071,
      ")(&&'&%": 2072,
      "ĀĀ*Ā%": 2073,
      "ĀĀ*Ā\"": 2074,
      "ĀĀ*Ā'": 2075,
      "&&!&%": 2076,
      "&&%&&'(&&&&": 2077,
      "&&+&%": 2078,
      "ĀĀ+Ā(": 2079,
      "ĀĀ+Ā\"": 2080,
      "$%&&&&&": 2081,
      "(&&\"&": 2082,
      "(&&\"&%": 2083,
      ".&&,": 2084,
      "$&&*&'": 2085,
      "$&&&$&%": 2086,
      "%&&!&": 2087,
      "#&&\"&'": 2088,
      "&&%&&(%": 2089,
      "#&&&%&": 2090,
      "&'&&&&&&&&&&&": 2091,
      "\"&&*&'": 2092,
      "&&$&&$'": 2093,
      "!ě": 2094,
      "\"%&&": 2095,
      "\"#&&&&": 2096,
      "\"$&&\"": 2097,
      "#&&%&(": 2098,
      "#*&&&&": 2099,
      "#$&&\"": 2100,
      "$&": 2101,
      "$!&&&&": 2102,
      "%Ĝ": 2103,
      "%'&&": 2104,
      "%''": 2105,
      "%+&&&&": 2106,
      "'\"&&": 2107,
      "(&&#&%": 2108,
      "(+&&&&": 2109,
      ")&&%&": 2110,
      ")&&%&%": 2111,
      ")*&&&&": 2112,
      "+&": 2113,
      "+(&&&&": 2114,
      ",Ğ": 2115,
      "-/": 2116,
      "-(&&": 2117,
      ".)": 2118,
      "/!": 2119,
      "/$": 2120,
      "30": 2121,
      "51": 2122,
      "Ā&'": 2123,
      "ėĀĀ": 2124,
      "Ę#": 2125,
      "Ě*": 2126,
      "ě%": 2127,
      "ě&&&": 2128,
      "ĜĘ": 2129,
      "ĜĀĀ": 2130,
      "ĝě": 2131,
      "Ğĝ": 2132,
      "ğ/": 2133,
      "ğĝ": 2134,
      "ğ%&&": 2135,
      "ĠĘ": 2136,
      "Ġ&&%&%": 2137,
      "Ġ&&'&%": 2138,
      "Ġ&&'&(": 2139,
      "Ġ%(": 2140,
      "ĠĀ(": 2141,
      "ĠĀ%": 2142,
      "Ġ&&$&(": 2143,
      "ĠĀ+": 2144,
      "Ġ%)": 2145,
      "ĠĀ-": 2146,
      "ĠĀ.": 2147,
      "Ġ(&&\"": 2148,
      "Ġ%&&!": 2149,
      "&&&&&&%": 2150,
      "&'&'&&&&": 2151,
      "&''(": 2152,
      "&''$": 2153,
      "&%&*": 2154,
      "&%&&'&$": 2155,
      "&%%%&&&&": 2156,
      "&%%'&&&&": 2157,
      "&&%&&'&&": 2158,
      "&&%&&(&&&&": 2159,
      "&&%&&%&&&&&": 2160,
      "ĀĀ?": 2161,
      "ĀĀĘ": 2162,
      "&(.": 2163,
      "&(Ğ": 2164,
      "&((&&&&": 2165,
      "&(&&\"": 2166,
      "&(%(": 2167,
      "&(''&&&&": 2168,
      "&$'&&&&": 2169,
      "&$$&&&&": 2170,
      "&$%%": 2171,
      "&$&&%&$": 2172,
      "&$%(": 2173,
      "&$''&&&&": 2174,
      "&&($": 2175,
      "&&(&'&&&&": 2176,
      "&)!": 2177,
      "&)ğ": 2178,
      "&)('": 2179,
      "&)$$": 2180,
      "&#&&'&%": 2181,
      "&#&&'&(": 2182,
      "%&&&*": 2183,
      "'&&&ğ": 2184,
      "'&&&$&'": 2185,
      "'&&&&&&%": 2186,
      "&*-": 2187,
      "&*&&'&'": 2188,
      "&\"*": 2189,
      "&\"&$": 2190,
      "&&#*": 2191,
      "&&#&&\"": 2192,
      "&&#&Ĝ": 2193,
      "&&)&&%": 2194,
      "&%&&&&&&'": 2195,
      "$&&&'&'": 2196,
      "$&&&#&'": 2197,
      "&&%&Ĝ": 2198,
      "&&'&ě": 2199,
      "&+!": 2200,
      ")&&&(&'": 2201,
      "&!\"": 2202,
      "&!-": 2203,
      "$&&&&&'": 2204,
      "(&&&&&(": 2205,
      "(&&&&&&'&&&&": 2206,
      "&&&&&&&&&": 2207,
      "\"&&ě": 2208,
      "\"&&&%&'": 2209,
      "'%$": 2210,
      "'%&&%&": 2211,
      "'%&&'&)": 2212,
      "*&&Ě": 2213,
      "*&&Ĝ": 2214,
      "*&&&'&%": 2215,
      "%%(&&&&": 2216,
      "&,*": 2217,
      "&,,": 2218,
      "%'$&&&&": 2219,
      "%'(&&&&": 2220,
      "&&\"&&%": 2221,
      "&&%&(%": 2222,
      "&-#": 2223,
      "#&&&&(": 2224,
      "'('": 2225,
      "'(%&&&&": 2226,
      "&&(&/": 2227,
      "&$&&&&)": 2228,
      ")&&&&'": 2229,
      "%$&&'&": 2230,
      "&&(&'&'": 2231,
      "&&(&'&%": 2232,
      "!&&/": 2233,
      "!&&ě": 2234,
      "('$": 2235,
      "$'&&'&'": 2236,
      "$'&&$&'": 2237,
      "+&&&": 2238,
      "$%&&%&(": 2239,
      "&&'&&&&&&%&": 2240,
      "&&'&&&&&&'&&&&": 2241,
      "ĀĀ%Ā'": 2242,
      "Ġ&&.": 2243,
      "Ġ&&Ĝ": 2244,
      "ĀĀ'Ā-": 2245,
      "&&%&&&(": 2246,
      "ĀĀ(Ā-": 2247,
      "&.'": 2248,
      "'%&&&&$": 2249,
      "Ā#\"": 2250,
      "$$&&%&": 2251,
      "$$&&$&'": 2252,
      "ĀĀ\"Ā%": 2253,
      "ĀĀ\"Āğ": 2254,
      "($&&'&%": 2255,
      "($&&(&%": 2256,
      "ĀĀ)Ā*": 2257,
      "ĀĀ)Ā.": 2258,
      "ĀĀ)ĀĞ": 2259,
      "'&&#&#": 2260,
      "$(&&$&'": 2261,
      "$(&&%&$": 2262,
      "ğ&&Ğ": 2263,
      "#'&&%&": 2264,
      "-&&&*": 2265,
      "&&'&&'$": 2266,
      "ĀĀ!Ā$": 2267,
      "Ā,)": 2268,
      ")'&&(&'": 2269,
      "&&'&&%'": 2270,
      "&&'&&%$&&&&": 2271,
      "&&'&&%&&&%&": 2272,
      ")%&&'&$": 2273,
      ")%&&'&(": 2274,
      ")(&&'&'": 2275,
      "ĀĀ*ĀĞ": 2276,
      "$&&&%&$": 2277,
      "#%&&$&'": 2278,
      "&#&&&&'": 2279,
      "&#&&&&(": 2280,
      "')&&'&": 2281,
      "ĀĀ,Ā)": 2282,
      "ĀĀ,Ā+": 2283,
      "%&&&'&#": 2284,
      "$#&&%&%": 2285,
      "%&&*&%": 2286,
      "ĀĀ%ĀĜ": 2287,
      "ĀĀ%Āĝ": 2288,
      "ĀĀ-Ā\"": 2289,
      "'&&*&*": 2290,
      "ĀĀ&ĀĞ": 2291,
      ")&&&'&(": 2292,
      "*'&&'&$": 2293,
      "(&&\"&'": 2294,
      "(&&\"&(": 2295,
      "%&&&$&(": 2296,
      "'$&&&&)": 2297,
      "ĀĀĜĀ%": 2298,
      "%&&+&'": 2299,
      "&&(&&'%": 2300,
      "&&'&&('": 2301,
      "&&'&&((": 2302,
      "'&&!&'": 2303,
      ")&&*&": 2304,
      ")&&*&%": 2305,
      "'&&&&%&": 2306,
      "!)&&\"": 2307,
      "\"(&&&&": 2308,
      "\"&&%&%": 2309,
      "\"&&'&%": 2310,
      "#&&'&": 2311,
      "#&&%&'": 2312,
      "#)&&\"": 2313,
      "$*&&&&": 2314,
      "%%&&": 2315,
      "%$&&!": 2316,
      "'&)": 2317,
      "'+&&": 2318,
      "'$&&*": 2319,
      "(%&&": 2320,
      "(!&&&&": 2321,
      "($&&*": 2322,
      "(,&&&&": 2323,
      ")&&(&%": 2324,
      ")'&&)": 2325,
      ")!&&&&": 2326,
      "*#&&": 2327,
      "*&&%&'": 2328,
      "*&&'&(": 2329,
      "+Ğ": 2330,
      "+%&&": 2331,
      ",&": 2332,
      ",.": 2333,
      ",ě": 2334,
      ",ĝ": 2335,
      ",'&&)": 2336,
      "-#&&+": 2337,
      "03": 2338,
      "12": 2339,
      "15": 2340,
      "24": 2341,
      "32": 2342,
      "41": 2343,
      "43": 2344,
      "ĀĚ": 2345,
      "Ā&%": 2346,
      "ĕ&": 2347,
      "ĕ&&": 2348,
      "Ę$": 2349,
      "Ę*": 2350,
      "ę$": 2351,
      "ę&": 2352,
      "ęğ": 2353,
      "Ě&": 2354,
      "Ě(": 2355,
      "Ě.": 2356,
      "Ĝ(": 2357,
      "Ĝ)": 2358,
      "Ĝ+": 2359,
      "Ğ&&&": 2360,
      "ğ.": 2361,
      "ğě": 2362,
      "ğğ": 2363,
      "ğ(&&": 2364,
      "Ġę": 2365,
      "Ġ%&&&&": 2366,
      "Ġ&&(&%": 2367,
      "ĠĀ*": 2368,
      "Ġ&Ğ": 2369,
      "Ġ&&#&%": 2370,
      "Ġ$)": 2371,
      "Ġ&&)&(": 2372,
      "Ġ&&%&!": 2373,
      "&&&+": 2374,
      "&'/": 2375,
      "&'&$": 2376,
      "&%&)": 2377,
      "&%&&(&'": 2378,
      "&&%&&$&&": 2379,
      "&&%&%&&&&&&": 2380,
      "&&'\"": 2381,
      "&&'#": 2382,
      "&&'&&(&&&&": 2383,
      "&&'&&'&&&&&": 2384,
      "ĀĀ;": 2385,
      "&()&&": 2386,
      "&('(": 2387,
      "&$Ĝ": 2388,
      "&$&&(&%": 2389,
      "&$%%&&&&": 2390,
      "&&(&&(%": 2391,
      "&&$(": 2392,
      "&&$&&*": 2393,
      "&&$&&%&&&&": 2394,
      "&&$&&'&&&&": 2395,
      "&&$&&!": 2396,
      "&)'&&&&": 2397,
      "&)&&'&%": 2398,
      "&)(%": 2399,
      "&#&)": 2400,
      "&#&#": 2401,
      "&#&\"": 2402,
      "&#&&'&'": 2403,
      "&#%'": 2404,
      "%&&&(&(": 2405,
      "'&&&+": 2406,
      "'&&&$&(": 2407,
      "'&&&&*": 2408,
      "&*Ğ": 2409,
      "&\".": 2410,
      "&\"&&%&$": 2411,
      "&&#$": 2412,
      "&&#&&*": 2413,
      "&&#&Ğ": 2414,
      "&&#&ĝ": 2415,
      "&&)&ĝ": 2416,
      "&'&&&&*": 2417,
      "&'&&&&&(": 2418,
      "$&&ě": 2419,
      "&+&'": 2420,
      ")&&&": 2421,
      "#&&&(": 2422,
      "&!ğ": 2423,
      "&!&&": 2424,
      "&!&&%&'": 2425,
      "&&&&&&&&&&&": 2426,
      "&&%&'%%&&&&": 2427,
      "&&%&%%(&&&&": 2428,
      "&&'&%%'&&&&": 2429,
      "'%#": 2430,
      "*&&&(&'": 2431,
      "''#": 2432,
      "''&&%&": 2433,
      "''&&(&(": 2434,
      "''&&%&#": 2435,
      "'''&&'&": 2436,
      "%%&&'&%": 2437,
      "%'&&'&": 2438,
      "%'&&'&)": 2439,
      "%'&&%&*": 2440,
      "&&\"&!": 2441,
      "&&\"&-": 2442,
      "&&*&+": 2443,
      "&&*&!": 2444,
      "&-!": 2445,
      "&-&%": 2446,
      "&&'&('$": 2447,
      "&&$&'&$&&&&": 2448,
      "'($&&&&": 2449,
      "'(&&%&'": 2450,
      "'(&&%&$": 2451,
      "%$%&&&&": 2452,
      "%$&&$&%": 2453,
      "!&&Ĝ": 2454,
      "&(&&&&&&%": 2455,
      "&(&&&&&&%&&&&": 2456,
      "('%&&&&": 2457,
      "('&&%&$": 2458,
      "('&&(&'": 2459,
      "('&&(&$": 2460,
      "&&$&Ğ": 2461,
      "$'&&%&*": 2462,
      "+&&/": 2463,
      "&&%&&&&&&": 2464,
      "$%)": 2465,
      "$%%&&&&": 2466,
      "$%&&%&$": 2467,
      "$%&&$&": 2468,
      "&ğ#": 2469,
      "&ğ'": 2470,
      "ĀĀ&Ā-": 2471,
      "''&&&&(": 2472,
      "ĀĀ(Ā.": 2473,
      "&.*": 2474,
      "&.&&&&": 2475,
      "ĀĀ#Ā'": 2476,
      "&&'&#&(": 2477,
      "&&'&#%(": 2478,
      "$$&&$&": 2479,
      "%'&&&&%": 2480,
      ",&&.": 2481,
      "((&&(&'": 2482,
      "ĀĀ)Ā,": 2483,
      "$(&&%&(": 2484,
      "ğ&&&!": 2485,
      "#'&&%&'": 2486,
      "-&&ĝ": 2487,
      "-&&&-": 2488,
      "&&'&&'%": 2489,
      "Ā,$": 2490,
      "&&%&&%(": 2491,
      ")%&&(&$": 2492,
      ")(&&)&'": 2493,
      "ĀĀ*Ā!": 2494,
      "ĀĀ*Ā+": 2495,
      "$&&&%&(": 2496,
      "&&!&#": 2497,
      "&&%&&'&&&'": 2498,
      "#%&&%&%": 2499,
      "#$&&$&'": 2500,
      "(#&&'&'": 2501,
      "(#&&'&%": 2502,
      "ĀĀ+Ā*": 2503,
      "ĀĀğĀ*": 2504,
      "ĀĀğĀ-": 2505,
      "ĀĀğĀĞ": 2506,
      "&)&&&&%": 2507,
      "&&$&&&(": 2508,
      "ĀĀ,Ā$": 2509,
      "ĀĀ,Ā#": 2510,
      "ĀĀ,Ā!": 2511,
      "'&&\"&)": 2512,
      "%&&\"&": 2513,
      "%&&\"&%": 2514,
      "%&&\"&*": 2515,
      "%&&*&(": 2516,
      "&'%&&'&": 2517,
      "&'%(&&&&": 2518,
      "Ğ&&Ğ": 2519,
      "Ġ(*": 2520,
      "Ġ&&&&#": 2521,
      "'&&*&(": 2522,
      "'&&*&$": 2523,
      "ĀĀ/Ā)": 2524,
      "ĀĀ/Ā$": 2525,
      "ĀĀ/Ā#": 2526,
      "ĀĀ/Ā'": 2527,
      "\"'&&$&'": 2528,
      "ĝ&&-": 2529,
      "ĝ&&Ğ": 2530,
      ")&&&'&'": 2531,
      "ĀĀĞĀ#": 2532,
      "&&$&&&&&'": 2533,
      "&&$&&&&&&%&&&&": 2534,
      "ĀĀĜĀ(": 2535,
      "ĀĀĜĀ$": 2536,
      "ĀĀĜĀ!": 2537,
      "&&&'&&&&&": 2538,
      "%&&+&%": 2539,
      "ĀĀ.Ā(": 2540,
      "ĀĀ.Āĝ": 2541,
      "&&(&&'$": 2542,
      "ĀĀěĀ-": 2543,
      "(&&*&'": 2544,
      "(&&*&(": 2545,
      "%&&!&%": 2546,
      "#&&\"&(": 2547,
      ")&&*&$": 2548,
      "$&&!&$": 2549,
      "(&&!&'": 2550,
      "(&&!&%": 2551,
      "#&&&%&%": 2552,
      "(&&+&$": 2553,
      "&&)&&&(": 2554,
      "&&&&'&": 2555,
      "&&&%&&&&&": 2556,
      "&&(&&$'": 2557,
      "%&&&&%&": 2558,
      "'&&&&&&&&&&&": 2559,
      "&&$&&%'&&&&": 2560,
      "&&$&&$%": 2561,
      "&%%'&&%&": 2562,
      "&(&&&&%&": 2563,
      "ĀĀĕĀ": 2564,
      "!#&&": 2565,
      "!&&'&'": 2566,
      "!*&&": 2567,
      "!)&&!": 2568,
      "\"&'": 2569,
      "\"$&&&&": 2570,
      "\"&&%&$": 2571,
      "\")&&\"": 2572,
      "#&(": 2573,
      "#\"&&": 2574,
      "#+&&&&": 2575,
      "$ę": 2576,
      "$%'": 2577,
      "$'(": 2578,
      "$%&&#": 2579,
      "%ę": 2580,
      "%#&&\"": 2581,
      "%ğ&&&&": 2582,
      "''&&": 2583,
      "'&(&&&&": 2584,
      "''&&&'": 2585,
      "((&&": 2586,
      ")%&&": 2587,
      ")&&'&": 2588,
      ")&&'&$": 2589,
      ")&&(&": 2590,
      ")%&&)": 2591,
      ")%&&+": 2592,
      "*Ě": 2593,
      "*ĝ": 2594,
      "*(&&": 2595,
      "*(&&&&": 2596,
      "+&&&'": 2597,
      ",Ĝ": 2598,
      ",'&&": 2599,
      ",$&&": 2600,
      ",&&$&'": 2601,
      "/Ĝ": 2602,
      "/Ğ": 2603,
      "14": 2604,
      "23": 2605,
      "27": 2606,
      "31": 2607,
      "33": 2608,
      "42": 2609,
      "60": 2610,
      ":Ā": 2611,
      ":ĀĀ": 2612,
      "ĀĘ": 2613,
      "Ē&&": 2614,
      "ĖĀ": 2615,
      "ĖĀĀ": 2616,
      "Ę&": 2617,
      "Ę-": 2618,
      "ę&#": 2619,
      "Ě\"": 2620,
      "Ě)": 2621,
      "Ě/": 2622,
      "ě\"": 2623,
      "ě'": 2624,
      "ě(": 2625,
      "ěĘ": 2626,
      "ěĝ": 2627,
      "ěĀĀ": 2628,
      "Ĝ.": 2629,
      "ĜĜ": 2630,
      "Ĝ&)": 2631,
      "ĝ/": 2632,
      "ĝĚ": 2633,
      "Ğ/": 2634,
      "ğ,": 2635,
      "Ġ3": 2636,
      "Ġ&&$": 2637,
      "Ġ&&'&&": 2638,
      "ĠĀ#": 2639,
      "Ġ&&'&#": 2640,
      "Ġ&&$&$": 2641,
      "Ġ'&&#": 2642,
      "Ġ'#": 2643,
      "Ġ&ĝ": 2644,
      "Ġ&&#&'": 2645,
      "Ġ&&'&\"": 2646,
      "Ġ(#": 2647,
      "Ġ&Ĝ": 2648,
      "Ġ&&$&*": 2649,
      "Ġ&&)&#": 2650,
      "Ġ&%$": 2651,
      "&&/": 2652,
      "&&ě": 2653,
      "&&+&&": 2654,
      "&&ğ&&": 2655,
      "&&&&&&'": 2656,
      "&&&&&&&'": 2657,
      "&'&": 2658,
      "&'&#": 2659,
      "&'&&'&'": 2660,
      "&'&&%&$": 2661,
      "&'&&$&$": 2662,
      "&'&&,": 2663,
      "&%&&'": 2664,
      "&%'%": 2665,
      "&%&&'&(": 2666,
      "&%%$": 2667,
      "&%&&$&%": 2668,
      "&%%&&&'": 2669,
      "&%'&&&&&": 2670,
      "&%&&'&&&&&&&&": 2671,
      "&&%!": 2672,
      "&&%$&&&&": 2673,
      "&&'$": 2674,
      "&&'(&&&&": 2675,
      "&&'&%&&&&%": 2676,
      "&&'&'&&&&%&": 2677,
      "&($&&&&": 2678,
      "&('%": 2679,
      "&(&&'&$": 2680,
      "&(#$": 2681,
      "&(&&&'&": 2682,
      "&$&\"": 2683,
      "&$((": 2684,
      "&&(%&&&&": 2685,
      "&&(&&!": 2686,
      "&&$&&\"": 2687,
      "&&$&&%&&&%": 2688,
      "&)-": 2689,
      "&)%%": 2690,
      "&)%(": 2691,
      "&#ĝ": 2692,
      "&#&+": 2693,
      "&#('": 2694,
      "&#'%&&&&": 2695,
      "%&&&(&%": 2696,
      "'&&&!": 2697,
      "%&&&&&)": 2698,
      "'&&&&&#": 2699,
      "'&&&&&&&%": 2700,
      "&*!": 2701,
      "&*\"": 2702,
      "&*ĝ": 2703,
      "&*ğ": 2704,
      "&*&&%&'": 2705,
      "&\"&*": 2706,
      "&&#%": 2707,
      "&&#)": 2708,
      "&&#&&'": 2709,
      "&&#&&$": 2710,
      "&&#&&)": 2711,
      "&&)&&(": 2712,
      "&&)&&$": 2713,
      "&&)&&\"": 2714,
      "&&)&.": 2715,
      "&&)&Ĝ": 2716,
      "&%&&&&&&(": 2717,
      "$&&Ĝ": 2718,
      "$&&\"&&": 2719,
      "(&&ě": 2720,
      "(&&&(&(": 2721,
      "(&&&(&$": 2722,
      "&++": 2723,
      ")&&&(&": 2724,
      "#&&&$&%": 2725,
      "&!+": 2726,
      "$&&&&#": 2727,
      "$&&&&)": 2728,
      "$&&&&&&&&&&&&": 2729,
      "&&%&'%'&&&&": 2730,
      "&&%&%%%&&&&": 2731,
      "\"&&&#&'": 2732,
      "\"&&&%&%": 2733,
      "'%#&&&&": 2734,
      "'%&&'&#": 2735,
      "*&&&(&%": 2736,
      "''&&%&(": 2737,
      "%%&&(&'": 2738,
      "%%&&%&*": 2739,
      "&&&%&&%&": 2740,
      "%'(": 2741,
      "%')&&&&": 2742,
      "&&&'&$": 2743,
      "&&*#": 2744,
      "&&*&,": 2745,
      "&-$": 2746,
      "#&&&&#": 2747,
      "#&&&&%": 2748,
      "#&&&&&": 2749,
      "#&&&&&%": 2750,
      "'(&&(&'": 2751,
      "&$&&&&&&%&&&&": 2752,
      ")&&&&&": 2753,
      "%$(": 2754,
      "%$&&'&%": 2755,
      "%$&&%&$": 2756,
      "&&(&'(%": 2757,
      "('&&%&'": 2758,
      "('&&'&(": 2759,
      "('&&'&#": 2760,
      "$'%&&&&": 2761,
      "$'&&'&%": 2762,
      "$'&&%&)": 2763,
      "$'&&%&#": 2764,
      "$'&&$&$": 2765,
      "&&$&%&(&&&&": 2766,
      "+&&&,": 2767,
      "%((": 2768,
      "%(&&$&'": 2769,
      "%(&&$&%": 2770,
      "%(&&#&(": 2771,
      "$%(&&&&": 2772,
      "$%&&%&#": 2773,
      "$%&&$&$": 2774,
      "&ğ-": 2775,
      "&ğĞ": 2776,
      "ĀĀ%Ā-": 2777,
      "'$&&'&": 2778,
      "'$&&(&'": 2779,
      "'$&&(&%": 2780,
      "'$&&'&)": 2781,
      "Ā$)": 2782,
      "Ġ&&/": 2783,
      "Ġ&&ĝ": 2784,
      "Ġ&&&#": 2785,
      "(%%&&&&": 2786,
      "(%&&'&)": 2787,
      "ĀĀ&Ā.": 2788,
      "%%&&&&%": 2789,
      "%%&&&&'": 2790,
      "&&%&&!": 2791,
      "&&%&&&\"": 2792,
      "&&%&&&)&&&&": 2793,
      "&&%&&&'&&&&'": 2794,
      "&&%&&&$&": 2795,
      "ĀĀ(Ā,": 2796,
      "&&(&$)#": 2797,
      "Ā'#": 2798,
      "Ā'+": 2799,
      "ĀĀ\"Ā-": 2800,
      "ĀĀ\"ĀĞ": 2801,
      "($&&'&(": 2802,
      "($&&(&": 2803,
      ",&&-": 2804,
      ",&&ĝ": 2805,
      ",&&&(": 2806,
      "((&&'&$": 2807,
      "ĀĀ)Āğ": 2808,
      "'&&#&\"": 2809,
      "$(&&$&$": 2810,
      "#'&&%&(": 2811,
      "-&&,": 2812,
      "-&&Ğ": 2813,
      "-&&ğ": 2814,
      "&&'&&'&&&'&": 2815,
      "&&'&&'%&&'&": 2816,
      "ĀĀ!Ā+": 2817,
      "ĀĀ!Ā-": 2818,
      "%#&&%&": 2819,
      "%#&&%&(": 2820,
      "'#%": 2821,
      "'#&&'&'": 2822,
      "'#&&(&%": 2823,
      "&&%&&%(&&&&": 2824,
      "&&%&&%&&&%&": 2825,
      "&&%&&%'&&%&'": 2826,
      ")'&&'&%": 2827,
      "(&&&'&#": 2828,
      "&&&/": 2829,
      "&&'&&%$": 2830,
      ")%&&'&%": 2831,
      ")%&&(&%": 2832,
      ")(&&%&": 2833,
      ")(&&'&$": 2834,
      ")(&&(&%": 2835,
      ")(&&'&#": 2836,
      "ĀĀ*Ā-": 2837,
      ")$&&(&%": 2838,
      ")$&&(&$": 2839,
      "&/.": 2840,
      "&&!&(": 2841,
      "#%&&%&(": 2842,
      "#%&&%&$": 2843,
      "#%&&$&": 2844,
      "&&#&%$": 2845,
      "ĀĀ+Ā#": 2846,
      "ĀĀ+Ā-": 2847,
      "&&(&&&$": 2848,
      "&&(&&&'&&&&": 2849,
      "ĀĀğĀ#": 2850,
      "&&$&&&'&&&&": 2851,
      "&&$&&&%&&&&": 2852,
      "')&&'&'": 2853,
      "ĀĀ,Ā\"": 2854,
      "Ā.%": 2855,
      "$#&&%&(": 2856,
      "%&&\"&#": 2857,
      "%&&*&$": 2858,
      "$)&&%&)": 2859,
      "ĀĀ%Ā/": 2860,
      "ĀĀ-Ā*": 2861,
      "ĀĀ-Ā!": 2862,
      "ĀĀ-Ā-": 2863,
      "&'&&&&%&'": 2864,
      "Ġ&&&&\"": 2865,
      "'&&*&'": 2866,
      "'&&*&#": 2867,
      "*%&&(&$": 2868,
      "ĀĀ/Ā\"": 2869,
      "ĀĀ/Ā*": 2870,
      "ĀĀ/Ā!": 2871,
      "*(&&(&": 2872,
      "ĝ&&Ĝ": 2873,
      "&'%&&&&&&&&&&&&": 2874,
      "\"$&&%&'": 2875,
      "\"$&&$&%": 2876,
      "()&&(&'": 2877,
      "*'&&(&%": 2878,
      "+ĀĀĝ": 2879,
      "+ĀĀĞ": 2880,
      "&%&&&&'&'&&&&": 2881,
      "&''(&&&&": 2882,
      "ĀĀĞĀ$": 2883,
      "%&&&$&%": 2884,
      "'*&&'&%": 2885,
      "'$&&&&$": 2886,
      "$*&&$&%": 2887,
      "ĀĀĜĀ*": 2888,
      "&&(&&'(": 2889,
      "(%&&&&'": 2890,
      "ĀĀěĀ+": 2891,
      "$&&&$&(": 2892,
      "('&&&&\"": 2893,
      "ĀĀĝĀ\"": 2894,
      "ĀĀĝĀ!": 2895,
      "&\"&&&&%": 2896,
      "%&&!&'": 2897,
      "%&&!&(": 2898,
      "#&&\"&*": 2899,
      "&&%&&&&&&&&%": 2900,
      "ĀĀĚĀ#": 2901,
      "'&&+&": 2902,
      "'&&!&%": 2903,
      "&&%'&&%&": 2904,
      "Ġ!,": 2905,
      "&&$&&''&&&&": 2906,
      "$&&+&'": 2907,
      "&&#&&&$": 2908,
      "&&%&&&'&&%&": 2909,
      "'&&&)&%": 2910,
      "%&&&&'&'&&&&": 2911,
      "&&(&&$%": 2912,
      "*&&&'&": 2913,
      "'&&&(&)": 2914,
      "&&''&&'&'": 2915,
      "&&%&'&&&&&&%": 2916,
      "'&&&&'&": 2917,
      "ĀĀĖĀ": 2918,
      "!ė": 2919,
      "!ğ&&": 2920,
      "!%&&#": 2921,
      "!&&)&'": 2922,
      "\"Ę": 2923,
      "\"'&&&&": 2924,
      "\"&&'&": 2925,
      "\"&&'&$": 2926,
      "\"&&(&%": 2927,
      "\"*&&&&": 2928,
      "\"(&&\"": 2929,
      "\"%&&ğ": 2930,
      "#&": 2931,
      "#&&'&$": 2932,
      "#&&'&(": 2933,
      "#!&&&&": 2934,
      "$'&&": 2935,
      "$*&&": 2936,
      "$'&&#": 2937,
      "$(&&\"": 2938,
      "%*&&": 2939,
      "%Ğ&&": 2940,
      "&Ĕ": 2941,
      "&ĕ": 2942,
      "'&\"": 2943,
      "'#&&": 2944,
      "''%": 2945,
      "'&&$&%": 2946,
      "'!&&&&": 2947,
      "'$&&\"": 2948,
      "'%&&+": 2949,
      "',&&&&": 2950,
      "'\"&&*": 2951,
      "(&%": 2952,
      "(&'&&&&": 2953,
      "(\"&&": 2954,
      "('(": 2955,
      "(%&&)": 2956,
      "(&&)&'": 2957,
      "('&&+": 2958,
      ")\"&&&&": 2959,
      ")#&&*": 2960,
      "*&&'&%": 2961,
      "*&&%&(": 2962,
      "*\"&&&&": 2963,
      "*+&&&&": 2964,
      "*#&&*": 2965,
      "*!&&+": 2966,
      "+&&%&(": 2967,
      "+&&%&*": 2968,
      "+ĀĀ$Ā": 2969,
      "+$&&*": 2970,
      "+%&&+": 2971,
      ",ĀĀ%Ā": 2972,
      ",$&&*": 2973,
      "-ğ": 2974,
      "-ĀĀ%Ā": 2975,
      ".!": 2976,
      ".ĝ": 2977,
      ".&&+": 2978,
      "/&'": 2979,
      "/ĀĀ&Ā": 2980,
      "/#&&,": 2981,
      "36": 2982,
      "40": 2983,
      "52": 2984,
      "61": 2985,
      "73": 2986,
      "Ā&#": 2987,
      "Ā'(": 2988,
      "Ā%$": 2989,
      "ė(": 2990,
      "ėğ": 2991,
      "ę!": 2992,
      "ę%": 2993,
      "Ě'": 2994,
      "Ěğ": 2995,
      "Ě&*": 2996,
      "ěĚ": 2997,
      "Ĝ%": 2998,
      "Ĝę": 2999,
      "ĜĚ": 3000,
      "Ĝğ": 3001,
      "Ĝ$&&": 3002,
      "Ĝ*&&": 3003,
      "ĝ*": 3004,
      "ĝĕ": 3005,
      "ĝĜ": 3006,
      "ĝ)&&": 3007,
      "Ğę": 3008,
      "Ğ,&&": 3009,
      "ğĚ": 3010,
      "Ġ&&(": 3011,
      "Ġ'&&&&": 3012,
      "Ġ''": 3013,
      "Ġ&&(&'": 3014,
      "Ġ$(": 3015,
      "Ġ#'": 3016,
      "Ġ&&)&%": 3017,
      "Ġ#(": 3018,
      "Ġ&&%&\"": 3019,
      "Ġ&&(&)": 3020,
      "Ġ&&$&\"": 3021,
      "Ġ$&&\"": 3022,
      "ĠĀĀ(Ā": 3023,
      "Ġ'&&!": 3024,
      "Ġ(&&!": 3025,
      "Ġ&&)&\"": 3026,
      "Ġ\"&&\"": 3027,
      "Ġ%&&ğ": 3028,
      "Ġ'&&ğ": 3029,
      "Ġ+&&!": 3030,
      "Ġ)&&ğ": 3031,
      "&&ė": 3032,
      "&&&#": 3033,
      "&&&*": 3034,
      "&&&.": 3035,
      "&'&&(&": 3036,
      "&')&&&&": 3037,
      "&''%&&&&": 3038,
      "&'&&'&)": 3039,
      "&'#'": 3040,
      "&%.": 3041,
      "&%&&$": 3042,
      "&%&&(&": 3043,
      "&%'&&&'": 3044,
      "&%&&(&(": 3045,
      "&%$$": 3046,
      "&%&&'&)": 3047,
      "&&%&'&&&&'": 3048,
      "&&%&&&'&": 3049,
      "&&%&'&&&&'&": 3050,
      "&&')": 3051,
      "&&'&'&&&&&&&&": 3052,
      "&(&&&&&&&&": 3053,
      "&(&&$&%": 3054,
      "&(&&%&)": 3055,
      "&('%&&&&": 3056,
      "&($$": 3057,
      "&(%*": 3058,
      "&$/": 3059,
      "&$&#": 3060,
      "&$'%": 3061,
      "&$&,": 3062,
      "&$&&%&(": 3063,
      "&$&&'&(": 3064,
      "&$&&(&": 3065,
      "&$&&'&)": 3066,
      "&&(&(&&&&": 3067,
      "&&(&&'&&&&": 3068,
      "&&(&&'&&&'": 3069,
      "&&$&'&&&&%": 3070,
      "&)&&(&'": 3071,
      "&)&&$&%": 3072,
      "&)($": 3073,
      "&)'#": 3074,
      "&)$&&&#": 3075,
      "&#-": 3076,
      "&#/": 3077,
      "&#ğ": 3078,
      "&#%&&&&": 3079,
      "&#&&%&'": 3080,
      "&#&-": 3081,
      "&#%'&&&&": 3082,
      "&#'#": 3083,
      "%&&#&&": 3084,
      "%&&&(&": 3085,
      "'&&&-": 3086,
      "'&&&(&(": 3087,
      "%&&&&\"": 3088,
      "%&&&&&&$": 3089,
      "%&&&&&\"": 3090,
      "%&&&&&&'&&&&": 3091,
      "'&&&&&)": 3092,
      "'&&&&&&%&&&&": 3093,
      "'&&&&%%&&&&": 3094,
      "'&&&&&&&'&&&&": 3095,
      "&*($&&&&": 3096,
      "&\"ĝ": 3097,
      "&\"&\"": 3098,
      "&\"&&'&(": 3099,
      "&&#&&&'": 3100,
      "&&)$": 3101,
      "&&)(": 3102,
      "&&)&&&%": 3103,
      "&'&&&&&&(": 3104,
      "&%&&&&&'": 3105,
      "&%&&&&&''&&&&": 3106,
      "$&&&'&%": 3107,
      "(&&&": 3108,
      "(&&&+": 3109,
      "(&&&!": 3110,
      "&&%&ĝ": 3111,
      "&+\"": 3112,
      "&+&%": 3113,
      "&+&(": 3114,
      "&+&&%&'": 3115,
      ")&&Ě": 3116,
      ")&&&$": 3117,
      ")&&&\"": 3118,
      ")&&&(&(": 3119,
      "#&&ę": 3120,
      "#&&&#&'": 3121,
      "&!!": 3122,
      "(&&&&&&": 3123,
      "&&&&&&&&'": 3124,
      "&&'&'*": 3125,
      "&&'&'%%&&&&": 3126,
      "&&%&%&(": 3127,
      "'%&&%&$": 3128,
      "'%&&%&#": 3129,
      "*&&.": 3130,
      "''$": 3131,
      "''#&&&&": 3132,
      "'')&&&&": 3133,
      "''&&(&$": 3134,
      "%%&&(&": 3135,
      "%%&&(&%": 3136,
      "%%&&'&)": 3137,
      "&,#": 3138,
      "&,'": 3139,
      "&,.": 3140,
      "&,/": 3141,
      "&,Ğ": 3142,
      "&,&&": 3143,
      "&&&%&(": 3144,
      "%'#": 3145,
      "%'&&'&$": 3146,
      "%'&&$&": 3147,
      "%'&&%&)": 3148,
      "%'&&%&#": 3149,
      "%'&&%&&&&&&&&": 3150,
      "&&&'&&'&": 3151,
      "&&\"&&$": 3152,
      "&&\"&/": 3153,
      "&&*&)": 3154,
      "&&*&-": 3155,
      "&&*&ĝ": 3156,
      "&-&": 3157,
      "&-&&&&": 3158,
      "&&'&(%$": 3159,
      "&&$&''%&&&&": 3160,
      "&&$&'')": 3161,
      "#&&&&+": 3162,
      "#&&&&&(": 3163,
      "#&&&&&$": 3164,
      "'(&&%&": 3165,
      "'(&&'&\"": 3166,
      "'(%&&'&": 3167,
      "&$&&&&%&'&&&&": 3168,
      "%$*": 3169,
      "%$'&&&&": 3170,
      "%$(&&&&": 3171,
      "%$&&%&)": 3172,
      "%$&&%&&&%": 3173,
      "&&(&'%%&&&&": 3174,
      "!&&&ĝ": 3175,
      "&(&&&&&": 3176,
      "('&&%&)": 3177,
      "('&&'&)": 3178,
      "('&&'&\"": 3179,
      "&&$&%((&&&&": 3180,
      "+&&Ğ": 3181,
      "+&&&$": 3182,
      "%($": 3183,
      "%(&&'&#": 3184,
      "%(&&%&#": 3185,
      "%(&&%&&'": 3186,
      "&&%&&&&&&%&": 3187,
      "$%&&$": 3188,
      "$%)&&&&": 3189,
      "%&&&%&)": 3190,
      "%&&&%&*": 3191,
      "%&&&%&&&'&&&&": 3192,
      "Ā(#": 3193,
      "Ā(%": 3194,
      "&&'&&&&&&'&": 3195,
      "&ğ(": 3196,
      "&ğ,": 3197,
      "'$)": 3198,
      "'$&&%&": 3199,
      "'$&&'&(": 3200,
      "'$&&(&$": 3201,
      "Ā$+": 3202,
      "Ġ&&&": 3203,
      "(%$&&&&": 3204,
      "(%&&%&'": 3205,
      "&&'&&&#": 3206,
      "&&'&&&#&&&&": 3207,
      "ĀĀ$Ā,": 3208,
      "&&%&&&!": 3209,
      "''&&&&#": 3210,
      "''&&&&'": 3211,
      "&.%": 3212,
      "Ā#ğ": 3213,
      "Ā*%": 3214,
      "&&(&((#": 3215,
      "$$(&&&&": 3216,
      "$$&&%&(": 3217,
      "\"&&&&(": 3218,
      "ĀĀ\"Ā!": 3219,
      "ĀĀ\"Ā,": 3220,
      "ĀĀ\"Ā.": 3221,
      ",&&&": 3222,
      ",&&Ğ": 3223,
      ",&&&,": 3224,
      ",&&&(&%": 3225,
      "((&&%&'": 3226,
      "((&&'&%": 3227,
      "((&&(&": 3228,
      "((&&(&$": 3229,
      "&Ğ&&&&": 3230,
      "'&&)&!": 3231,
      "ĀĀ)Ā'": 3232,
      "ĀĀ)Ā-": 3233,
      "*&&&&%": 3234,
      "*&&&&*": 3235,
      "$((&&&&": 3236,
      "$(&&$&": 3237,
      "$(&&$&%": 3238,
      "ğ&&ĝ": 3239,
      "#'&&$&#": 3240,
      "#'&&$&+": 3241,
      "%)&&%&(": 3242,
      "-&&&": 3243,
      "-&&&)": 3244,
      "&&'&&'$&&&&": 3245,
      "&&'&&'&&&'": 3246,
      "&&'&&'&&&'&'": 3247,
      "%#&&'&'": 3248,
      "%#&&%&)": 3249,
      "%#&&%&#": 3250,
      "'#&&'&": 3251,
      ")'&&'&(": 3252,
      ")'&&(&%": 3253,
      "(&&&'&)": 3254,
      "&&'&&%&&&'": 3255,
      "&&'&&%%&&%&": 3256,
      "&&'&&%'&&%&": 3257,
      ")(&&'&": 3258,
      ")$&&'&%": 3259,
      ")$&&%&$": 3260,
      ")$&&'&#": 3261,
      ")$&&)&$": 3262,
      "&&!&": 3263,
      "&&!&'": 3264,
      "&&+&$": 3265,
      "#$&&%&'": 3266,
      "#$&&%&$": 3267,
      "&#&&&&$": 3268,
      "&#&&&&)": 3269,
      "ĀĀ+Ā'": 3270,
      "ĀĀ+Āğ": 3271,
      "&&(&&&*": 3272,
      "&&(&&&%&&&&": 3273,
      "&&(&&&#&&&&": 3274,
      "ĀĀğĀ,": 3275,
      "#(&&$&'": 3276,
      "ĀĀ,Ā-": 3277,
      "%&&&'&$": 3278,
      "$#&&%&$": 3279,
      "'&&\"&%": 3280,
      "'&&\"&+": 3281,
      "%&&*&)": 3282,
      "%&&*&#": 3283,
      "%&&*&\"": 3284,
      "ĀĀ-Ā)": 3285,
      "ĀĀ-Āĝ": 3286,
      "'\"&&(&'": 3287,
      "&'&&&&'&%&&&&": 3288,
      "$%&&&&'": 3289,
      "$%&&&&)": 3290,
      "*%&&'&$": 3291,
      "*%&&(&": 3292,
      "ĀĀ/Ā+": 3293,
      "ĀĀ/Āğ": 3294,
      "\"'&&%&(": 3295,
      "\"$&&%&$": 3296,
      "&&(&&&&&&%&": 3297,
      ")#&&'&$": 3298,
      "*$&&'&": 3299,
      "*'&&'&%": 3300,
      "%\"&&'&%": 3301,
      "##&&%&%": 3302,
      "ĀĀĞĀ(": 3303,
      "$&&\"&(": 3304,
      "'$&&&&%": 3305,
      "'(&&&&&": 3306,
      "%&&+&(": 3307,
      ")&&\"&*": 3308,
      "ĀĀ.Ā)": 3309,
      "ĀĀ.Ā%": 3310,
      "ĀĀ.Ā\"": 3311,
      "&&(&&''": 3312,
      "\"%&&%&'": 3313,
      "$'&&&&%": 3314,
      "ĀĀěĀğ": 3315,
      "$&&&$&)": 3316,
      "))&&'&%": 3317,
      "ĀĀĝĀ%": 3318,
      "&&'&&($": 3319,
      "(&&*&%": 3320,
      "(&&*&)": 3321,
      "#&&\"&)": 3322,
      "&&%&&&&&&&&&&&": 3323,
      "&&%&&$'": 3324,
      "&&%&&$(": 3325,
      "ĀĀ#Āě": 3326,
      "ĀĀĚĀ+": 3327,
      "'&&+&'": 3328,
      "'&&!&(": 3329,
      "'&&!&$": 3330,
      "&%%&&%&": 3331,
      "&&$&&'%&&&&": 3332,
      "&('&&'&": 3333,
      "%#&&&&$": 3334,
      "ĀĀęĀ": 3335,
      "ĀĀęĀ%": 3336,
      "*&&*&(": 3337,
      "Ĝ&&Ĝ": 3338,
      "&&&&'&\"": 3339,
      "\"&&\"&#": 3340,
      "ĀĀ+ĀĚ": 3341,
      "#*&&$&'": 3342,
      "#&&&$&": 3343,
      "#&&&$&(": 3344,
      "&&Ğ&": 3345,
      "$&&,&\"": 3346,
      "&&(&&%(": 3347,
      "%&&,&": 3348,
      "&&%&&#'": 3349,
      "&&%&&)%": 3350,
      "&%&&&&$&'": 3351,
      "ĀĀ:Ā": 3352,
      "&&%&&&&&&&&&&&&&&&": 3353,
      "ĀĀ>Ā": 3354,
      "&&&&&'&": 3355,
      "!%&&": 3356,
      "!'&&&&": 3357,
      "!&&%&%": 3358,
      "!&&'&$": 3359,
      "!)&&&&": 3360,
      "\"Ė": 3361,
      "\"ė": 3362,
      "\"ę": 3363,
      "\"&&%&": 3364,
      "\"\"&&&&": 3365,
      "\"%&&#": 3366,
      "\"&&)&%": 3367,
      "\"\"'": 3368,
      "\"(&&!": 3369,
      "\"#&&!": 3370,
      "#ē": 3371,
      "#&*": 3372,
      "#&&%&%": 3373,
      "#*&&": 3374,
      "#&(&&&&": 3375,
      "#&&(&$": 3376,
      "#%'&&&&": 3377,
      "#%&&)": 3378,
      "#.&&": 3379,
      "#%&&ğ": 3380,
      "$Ě": 3381,
      "$ě": 3382,
      "$&&(&%": 3383,
      "$+&&&&": 3384,
      "$'&&\"": 3385,
      "$%&&\"": 3386,
      "$'&&+": 3387,
      "$,&&&&": 3388,
      "$)&&*": 3389,
      "%Ě": 3390,
      "%&+": 3391,
      "%'&&#": 3392,
      "%)&&\"": 3393,
      "%*&&\"": 3394,
      "%-&&&&": 3395,
      "%&%&&'&": 3396,
      "&ē": 3397,
      "'Ĝ": 3398,
      "')&&": 3399,
      "'ğ&&&&": 3400,
      "(Ě": 3401,
      "(ě": 3402,
      "(&&'&$": 3403,
      "(&&(&%": 3404,
      "('&&)": 3405,
      "(&&#&'": 3406,
      "(%&&+": 3407,
      "()&&*": 3408,
      "(-&&&&": 3409,
      ")ę": 3410,
      ")$&&": 3411,
      ")*&&": 3412,
      ")&&%&(": 3413,
      ")&&)&$": 3414,
      ")'&&*": 3415,
      "*&": 3416,
      "*%'": 3417,
      "*)&&&&": 3418,
      "*&&%&)": 3419,
      "*&&$&(": 3420,
      "*)$": 3421,
      "*'&&*": 3422,
      "*$&&*": 3423,
      "*)&&+": 3424,
      "+ě": 3425,
      "+ĝ": 3426,
      "+&&%&%": 3427,
      "+&&'&(": 3428,
      "+&&$&'": 3429,
      "+&&%&$": 3430,
      "+%&&)": 3431,
      "+ĀĀ'Ā": 3432,
      ",(&&": 3433,
      ",&&%&": 3434,
      ",&&'&'": 3435,
      ",&&$&(": 3436,
      ",ĀĀ\"Ā": 3437,
      ",ĀĀĚ": 3438,
      ",\"&&+": 3439,
      "-Ě": 3440,
      "-%&&": 3441,
      "-$&&*": 3442,
      "-*&&*": 3443,
      ".ğ": 3444,
      ".(&&&&": 3445,
      "/Ě": 3446,
      "/ğ": 3447,
      "/'&&": 3448,
      "/ĀĀ$Ā": 3449,
      "/(\"": 3450,
      "06": 3451,
      "17": 3452,
      "21": 3453,
      "25": 3454,
      "71": 3455,
      "95": 3456,
      "Āě": 3457,
      "Ā&)": 3458,
      "Ā%%": 3459,
      "Ā('": 3460,
      "Ā%(": 3461,
      "ĐĀ$": 3462,
      "ĒĀĀ": 3463,
      "ĒĀ$": 3464,
      "Ĕ&": 3465,
      "ĔĀĀ": 3466,
      "ĕ#": 3467,
      "ĕĀĀ": 3468,
      "Ė#": 3469,
      "ė&&&": 3470,
      "Ę\"": 3471,
      "Ęę": 3472,
      "Ę(&&": 3473,
      "ę)": 3474,
      "ę/": 3475,
      "ę&*": 3476,
      "ĚĞ": 3477,
      "Ě&,": 3478,
      "ě#": 3479,
      "ě.": 3480,
      "ě&&&&": 3481,
      "ě%&&": 3482,
      "ě$&&": 3483,
      "ě&+": 3484,
      "ě#&&!": 3485,
      "Ĝě": 3486,
      "Ĝ%&&": 3487,
      "Ĝ&/": 3488,
      "ĝ\"": 3489,
      "ĝ-": 3490,
      "ĝē": 3491,
      "Ğ-": 3492,
      "ĞĜ": 3493,
      "ğę": 3494,
      "ğĀĀ": 3495,
      "ğ*&&": 3496,
      "ğ&&(&'": 3497,
      "ĠĔ": 3498,
      "ĠĖ": 3499,
      "Ġ&'&&&&": 3500,
      "Ġ(&&": 3501,
      "Ġ#&&": 3502,
      "Ġ&&(&": 3503,
      "Ġ$%": 3504,
      "ĠĀ!": 3505,
      "Ġ&&'&)": 3506,
      "Ġ%&&#": 3507,
      "ĠĀ,": 3508,
      "Ġ&&%&*": 3509,
      "Ġ&/": 3510,
      "Ġ')": 3511,
      "Ġ&&#&(": 3512,
      "Ġ&&'&*": 3513,
      "Ġ&'%": 3514,
      "Ġ&&)&$": 3515,
      "Ġ&&(&\"": 3516,
      "Ġ.&&": 3517,
      "Ġ))": 3518,
      "Ġ$\"": 3519,
      "Ġ+(": 3520,
      "Ġ$&&!": 3521,
      "Ġ*&&\"": 3522,
      "Ġ&&#&\"": 3523,
      "Ġ*&&!": 3524,
      "Ġ&&*&%": 3525,
      "Ġ$&&Ğ": 3526,
      "Ġ)&&ĝ": 3527,
      "&&Ė": 3528,
      "&&&(": 3529,
      "&&*&&": 3530,
      "&&&,": 3531,
      "&&&&+": 3532,
      "&&&&&&%&": 3533,
      "&'%'": 3534,
      "&'&&%&(": 3535,
      "&'&&*": 3536,
      "&'%$": 3537,
      "&'&&(&%": 3538,
      "&'%(": 3539,
      "&'(%": 3540,
      "&'&&(&(": 3541,
      "&'*&&&&": 3542,
      "&'\"%": 3543,
      "&%ğ": 3544,
      "&%%%": 3545,
      "&%&&(&%": 3546,
      "&%'$": 3547,
      "&%&&'&*": 3548,
      "&%'&&&'&": 3549,
      "&&%&&(&&": 3550,
      "&&%&&#&&": 3551,
      "&&%&%&&&&(": 3552,
      "&&%&'&&&&%&": 3553,
      "&&%&%&&&&%&": 3554,
      "&&'&'&&&&%": 3555,
      "&&'&&$&&&&": 3556,
      "&&'&&&%&": 3557,
      "&&'%&&'&": 3558,
      "ĀĀĘĀ": 3559,
      "&(/": 3560,
      "&(&&$&'": 3561,
      "&(&&(&": 3562,
      "&(&&(&'": 3563,
      "&(&&%&*": 3564,
      "&((#": 3565,
      "&(*%": 3566,
      "&$-": 3567,
      "&$ğ": 3568,
      "&$&+": 3569,
      "&$%$": 3570,
      "&$&&&&&&&&&&&&": 3571,
      "&$&&&%&": 3572,
      "&$+#": 3573,
      "&&(#&&&&": 3574,
      "&&(&&(&&": 3575,
      "&&(&)&&&&": 3576,
      "&&(&%&&&&%": 3577,
      "&&(&$&&&&'": 3578,
      "&&$&$&&&&": 3579,
      "&&$&(&&&&": 3580,
      "&&$&#&&&&": 3581,
      "&)ĝ": 3582,
      "&)&%&&&&": 3583,
      "&)&+": 3584,
      "&)&&&&&&&&": 3585,
      "&)&&'&#": 3586,
      "&)#$": 3587,
      "&)$#": 3588,
      "&)'!": 3589,
      "&#&&(&%": 3590,
      "&#%(": 3591,
      "&#*&&&&": 3592,
      "&#*(": 3593,
      "&##)": 3594,
      "%&&&(&'": 3595,
      "%&&&(&$": 3596,
      "'&&&$&%": 3597,
      "%&&&&&&'&%&&&&": 3598,
      "'&&&&)": 3599,
      "'&&&&&&'": 3600,
      "'&&&&&''&&&&": 3601,
      "&*&$": 3602,
      "&*&&(&": 3603,
      "&*('": 3604,
      "&*($": 3605,
      "&*'&&&%": 3606,
      "&\"!": 3607,
      "&\"-": 3608,
      "&\"&%": 3609,
      "&\"&+": 3610,
      "&&#&&%%": 3611,
      "&&)'": 3612,
      "&&)&&(%": 3613,
      "&'&&&&'&&&&": 3614,
      "&'&&&&%&&&&&&": 3615,
      "&'&&&&&&''&&&&": 3616,
      "&%&&&&&%": 3617,
      "$&&&*": 3618,
      "$&&&%&&&&": 3619,
      "(&&&-": 3620,
      "(&&&$&%": 3621,
      "(&&&%&%": 3622,
      "&+-": 3623,
      "&+ğ": 3624,
      "&+&&%&%": 3625,
      "&+($": 3626,
      ")&&&$&'": 3627,
      "#&&&Ğ": 3628,
      "#&&-&": 3629,
      "&!Ę": 3630,
      "&!Ĝ": 3631,
      "&!&&'&$": 3632,
      "$&&&&&&'&&&&": 3633,
      "(&&&&&$": 3634,
      "&&&&&&&&%": 3635,
      "&&&&&&&&&'&&&&": 3636,
      "&&&&&&&&&&&&&&&&&&&&&": 3637,
      "&&%&'&%": 3638,
      "&&%&'%&&&&": 3639,
      "&&%&''%": 3640,
      "&&%&'%&&&&&": 3641,
      "&&'&'&%&&&&": 3642,
      "&&'&'&$&&&&": 3643,
      "&&'&'%$": 3644,
      "&&'&'''&&&&": 3645,
      "&&%&%%&&&&": 3646,
      "&&%&%%&&&%": 3647,
      "&&%&%$$": 3648,
      "&&%&%%'&&&&": 3649,
      "&&%&%'(&&&&": 3650,
      "\"&&&": 3651,
      "\"&&ĝ": 3652,
      "\"&&&*": 3653,
      "&&'&%%'": 3654,
      "&&'&%'(": 3655,
      "&&'&%'&&&'": 3656,
      "'%&&(&)": 3657,
      "'%%&&%&": 3658,
      "'%&&'&%&'": 3659,
      "'%(&&%&": 3660,
      "*&&&(&(": 3661,
      "''\"": 3662,
      "''(": 3663,
      "''&&(&%": 3664,
      "''&&'&&": 3665,
      "''&&'&)": 3666,
      "%%&&$&(": 3667,
      "%%'&&%&'": 3668,
      "&,ĀĀ": 3669,
      "&&&%&$": 3670,
      "&&\"&Ĝ": 3671,
      "&&%&(#": 3672,
      "&&*&Ğ": 3673,
      "&&*&/": 3674,
      "&&*&%'": 3675,
      "&-+": 3676,
      "&-/": 3677,
      "&-ĝ": 3678,
      "&-&&": 3679,
      "&-&(": 3680,
      "&&'&$,": 3681,
      "&&'&$'%&&&&": 3682,
      "&&'&$%)": 3683,
      "&&'&((#": 3684,
      "&&'&('(&&&&": 3685,
      "&&$&'#": 3686,
      "#&&&&*": 3687,
      "&&%&$'(&&&&": 3688,
      "'('&&&&": 3689,
      "'(&&$&%": 3690,
      "'(&&)&%": 3691,
      "'(&&'&*": 3692,
      ")&&&&&%": 3693,
      "%$&&'&(": 3694,
      "%$&&(&'": 3695,
      "%$&&$&)": 3696,
      "%$&&$&!": 3697,
      "&&(&'$": 3698,
      "!&&ę": 3699,
      "!&&&ğ": 3700,
      "!&&&$&(": 3701,
      "!&&&$&$": 3702,
      "&&(&%%&&&&": 3703,
      "&(&&&&%%": 3704,
      "('!": 3705,
      "('\"": 3706,
      "('&&%&": 3707,
      "('(&&&&": 3708,
      "('&&%&#": 3709,
      "&&$&ę": 3710,
      "&&$&Ĝ": 3711,
      "$'$": 3712,
      "$')": 3713,
      "$'*": 3714,
      "$'(&&&&": 3715,
      "+&&ę": 3716,
      "%($&&&&": 3717,
      "%(&&(&": 3718,
      "&&%&&&&&&&'&&&&": 3719,
      "$%&&%&&&&&&&&": 3720,
      "%&&&%&'&&&&&&": 3721,
      "'&&&'&%&&&&": 3722,
      "Ā((": 3723,
      "&&'&&&&%": 3724,
      "&ğ!": 3725,
      "&ğ/": 3726,
      "&ğĜ": 3727,
      "'$$": 3728,
      "'$'&&&&": 3729,
      "'$$&&&&": 3730,
      "'$&&%&%": 3731,
      "'$&&(&": 3732,
      "Ā$$": 3733,
      "Ġ&&ě": 3734,
      "Ġ&&&ĝ": 3735,
      "(%#": 3736,
      "(%*": 3737,
      "(%&&(&'": 3738,
      "(%&&'&#": 3739,
      "&&'&&+": 3740,
      "&&'&&&+": 3741,
      "&&'&&&'&&&&&&&&": 3742,
      "ĀĀ$Ā.": 3743,
      "&&%&&&%&&&&&&&&": 3744,
      "''&&&&&%": 3745,
      "''&&&&&&%&&&&": 3746,
      "&&%&)')": 3747,
      "Ā%\"": 3748,
      "ĀĀ(ĀĞ": 3749,
      "&.(": 3750,
      "&&$&(%$": 3751,
      "&&$&($(": 3752,
      "&&(&(&#": 3753,
      "&&(&('%&&&&": 3754,
      "$$'&&&&": 3755,
      "$$&&%&\"": 3756,
      "Ā',": 3757,
      "($\"": 3758,
      "($&&'&#": 3759,
      "($\"&&&&": 3760,
      "($&&(&)": 3761,
      "&&$&$&$": 3762,
      ",&&/": 3763,
      "%&&)&+": 3764,
      "(()": 3765,
      "((&&'&(": 3766,
      "((&&%&$": 3767,
      "((&&(&%": 3768,
      "&Ğ(": 3769,
      "*&&&&'": 3770,
      "$(&&(&%": 3771,
      "$(&&#&%": 3772,
      "ğ&&Ě": 3773,
      "ğ&&Ĝ": 3774,
      "Ā+\"": 3775,
      "%)&&%&": 3776,
      "%)&&$&'": 3777,
      "%)&&$&$": 3778,
      "-&&/": 3779,
      "-&&&,": 3780,
      "ĀĀ!Ā,": 3781,
      "ĀĀ!Āğ": 3782,
      "%#%": 3783,
      "%#(": 3784,
      "%#&&'&": 3785,
      "%#&&$&#": 3786,
      "&&%&&%$&&&&": 3787,
      "&&%&&%%&&%&": 3788,
      ")'$&&&&": 3789,
      ")'&&(&$": 3790,
      ")'&&'&+": 3791,
      "(&&&'&&%'": 3792,
      "&&'&&%(": 3793,
      "&&'&&%#&&&&": 3794,
      ")%&&(&": 3795,
      ")%&&'&\"": 3796,
      ")%&&'&*": 3797,
      ")(&&)": 3798,
      ")(&&(&$": 3799,
      "&&$&)\"": 3800,
      "&&)&%&'": 3801,
      "&ĝ$": 3802,
      "&ĝ,": 3803,
      "Ā-Ğ": 3804,
      "&&#&')": 3805,
      "&&#&'&'": 3806,
      "&&!&$": 3807,
      "&&!&+": 3808,
      "&&!&,": 3809,
      "&&%&&'$&&&&": 3810,
      "&&'&\"'": 3811,
      "#%&&%&#": 3812,
      "#$&&%&%": 3813,
      "#$&&%&(": 3814,
      "#$&&$&(": 3815,
      "#$&&%&*": 3816,
      "&#&&&&(&": 3817,
      "&&(&##": 3818,
      "&&(&#(": 3819,
      "(#&&(&$": 3820,
      "ĀĀ+Ā%": 3821,
      "!&&&&)": 3822,
      "ĀĀğĀğ": 3823,
      "&)&&&&)": 3824,
      "#(&&%&(": 3825,
      "#(&&#&(": 3826,
      "&&$&&&$&&&&": 3827,
      "&&$&&&$&": 3828,
      "%&&&'&)": 3829,
      "Ā.ğ": 3830,
      "$#&&%&'": 3831,
      "$#&&#&'": 3832,
      "%&&*&": 3833,
      "$)&&$&'": 3834,
      "&'%!": 3835,
      "ĀĀ%ĀĞ": 3836,
      "ĀĀ-Ā'": 3837,
      "ĀĀ-Ā+": 3838,
      "&'&&&&%&(": 3839,
      "&'&&&&%&'&&&&": 3840,
      "&'&&&&%&%&&&&": 3841,
      "'\"&&'&%": 3842,
      "'\"&&'&\"": 3843,
      "Ğ&&Ę": 3844,
      "'&&*&%": 3845,
      "'&&*&\"": 3846,
      "*%&&%&'": 3847,
      "ĀĀ/Ā,": 3848,
      "ĀĀ&Āě": 3849,
      "ĀĀ&Ā'(": 3850,
      "\"'&&%&%": 3851,
      "ĝ&&.": 3852,
      ")&&&'&$": 3853,
      "ĀĀ$Ā&%": 3854,
      "\"$&&$&'": 3855,
      "\"$&&#&'": 3856,
      "&&%&&&%&'": 3857,
      "()&&'&": 3858,
      "()&&%&%": 3859,
      "()&&'&$": 3860,
      "()&&%&!": 3861,
      "&&(&&&&'": 3862,
      "&&(&&&&&&'&&&&": 3863,
      ")#&&)&'": 3864,
      ")#&&)&%": 3865,
      "&&'&&&'&%": 3866,
      "*$&&'&'": 3867,
      "*$&&(&(": 3868,
      "*'&&(&'": 3869,
      "+ĀĀĎ": 3870,
      "&%&&&&'&'": 3871,
      "&%&&&&'&%": 3872,
      "%\"&&%&$": 3873,
      "ĀĀ'Āĝ": 3874,
      "##&&%&'": 3875,
      "##&&$&)": 3876,
      ".&&-": 3877,
      ".&&&*": 3878,
      "ĀĀĞĀ)": 3879,
      "ĀĀĞĀ+": 3880,
      "\"(&&%&%": 3881,
      "\"(&&$&%": 3882,
      "%&&&$&$": 3883,
      "$&&*&!": 3884,
      "'$&&&&'": 3885,
      "$*&&%&": 3886,
      "$*&&$&)": 3887,
      "(\"&&'&%": 3888,
      "(\"&&(&'": 3889,
      "(\"&&(&#": 3890,
      "ĀĀĜĀ\"": 3891,
      "ĀĀĜĀ-": 3892,
      "ĀĀĜĀğ": 3893,
      "%&&+&!": 3894,
      "#)&&%&(": 3895,
      "ĀĀ.ĀĞ": 3896,
      "\"%&&%&%": 3897,
      "\"%&&$&'": 3898,
      "ĀĀěĀ)": 3899,
      "ĀĀěĀ!": 3900,
      "ĀĀěĀ,": 3901,
      "$&&&$&$": 3902,
      "$&&&$&*": 3903,
      "ĀĀĝĀ*": 3904,
      "&&'&&(&&&'&": 3905,
      "(&&*&+": 3906,
      "&\"&&&&*": 3907,
      "(+&&\"": 3908,
      ")*&&(&'": 3909,
      "&&%&&$&&&%&'": 3910,
      "ĀĀ#Ā/": 3911,
      "ĀĀ#ĀĜ": 3912,
      "ĀĀĚĀ\"": 3913,
      "'&&!&": 3914,
      "'&&!&*": 3915,
      "*#&&(&%": 3916,
      "+(&&)&%": 3917,
      "#&&*&%": 3918,
      "#&&*&(": 3919,
      "Ġ',": 3920,
      "&%%!": 3921,
      "&%%+": 3922,
      "&&%'&&%&%": 3923,
      "Ġ#,": 3924,
      "&&%&&('": 3925,
      ")\"&&)&$": 3926,
      "&&$&&''": 3927,
      "&*&&&&!": 3928,
      "#&&&%&(": 3929,
      "&'&&&&&&&&&&&'": 3930,
      "$&&+&\"": 3931,
      "+'&&(&%": 3932,
      "+'&&(&#": 3933,
      "\"&&*&$": 3934,
      "&&ğ&(": 3935,
      "(&&+&%": 3936,
      "\"#&&%&%": 3937,
      "&&-&": 3938,
      "&$'&&%&": 3939,
      "&$'&&%&'": 3940,
      "ĀĀęĀ!": 3941,
      "Ĝ&&Ğ": 3942,
      "Ĝ&&&ğ": 3943,
      "ĠĀ/": 3944,
      "&&&&%&)": 3945,
      "&&'&&$%": 3946,
      "&&'&&$$&&&&": 3947,
      "#*&&%&(": 3948,
      "&%&%&&'&": 3949,
      "&'$$&&&&": 3950,
      "&&(%&&'&": 3951,
      "(,&&'&'": 3952,
      "ğ)ĀĀ": 3953,
      ")&&!&%": 3954,
      "*&&&'&(": 3955,
      "'&&&&&&&&'&&&&": 3956,
      "&&'&&&%&&'&": 3957,
      "$&&,&#": 3958,
      "#&&,&$": 3959,
      "&&$&&('": 3960,
      "(&&&%&": 3961,
      "(&&&%&$": 3962,
      "'&&ğ&#": 3963,
      "\"&&&%&": 3964,
      ")&&&)&'": 3965,
      ")&&&)&%": 3966,
      "&!&&&&*": 3967,
      "&&(&&('": 3968,
      "%&&Ğ&)": 3969,
      "ĀĀ/Āě": 3970,
      "%&&&#&": 3971,
      "\"&&&#&#": 3972,
      "\"&&!&": 3973,
      "+&&&(&#": 3974,
      "&&'&&&$&&%&": 3975,
      "%&&&)&": 3976,
      "'%%&&%&%": 3977,
      "*&&&*&(": 3978,
      "&%&&&&&&&&&&&&&": 3979,
      "&&(&&)'": 3980,
      "!Ě": 3981,
      "!&&%&": 3982,
      "!(&&&&": 3983,
      "!&&%&'": 3984,
      "!\"&&": 3985,
      "!&&'&#": 3986,
      "!++": 3987,
      "\"&&'&(": 3988,
      "\"!&&": 3989,
      "\"$'": 3990,
      "\"+&&": 3991,
      "\"&&(&$": 3992,
      "\"'&&#": 3993,
      "\"!&&&&": 3994,
      "\"ĀĀ$Ā": 3995,
      "\"))": 3996,
      "\"&&)&#": 3997,
      "\")&&!": 3998,
      "\"*&&!": 3999,
      "\"'&&#&'": 4000,
      "#ę": 4001,
      "#&&)": 4002,
      "#(&&": 4003,
      "#''": 4004,
      "#&&$&'": 4005,
      "#%(": 4006,
      "#&&$&(": 4007,
      "#&&(&(": 4008,
      "#'&&#": 4009,
      "#%)": 4010,
      "#&&(&#": 4011,
      "#&)&&&&": 4012,
      "#%&&\"": 4013,
      "#(&&\"": 4014,
      "##&&!": 4015,
      "#)&&!": 4016,
      "#!&&!": 4017,
      "$Ę": 4018,
      "$&)": 4019,
      "$&*": 4020,
      "$&+": 4021,
      "$)&&": 4022,
      "$#&&": 4023,
      "$&&%&(": 4024,
      "$&&(&": 4025,
      "$&&$&(": 4026,
      "$ğ&&": 4027,
      "$&&)&%": 4028,
      "$&)&&&&": 4029,
      "$#&&\"": 4030,
      "$*&&!": 4031,
      "$(&&ğ": 4032,
      "%ė": 4033,
      "%&)": 4034,
      "%$&&": 4035,
      "%\"&&": 4036,
      "%+&&": 4037,
      "%&&$&(": 4038,
      "%%&&)": 4039,
      "%'&&\"": 4040,
      "%#&&*": 4041,
      "%Ğ&&&&": 4042,
      "%'&&)&": 4043,
      "%'&&#&%": 4044,
      "%'&&#&": 4045,
      "&Ė": 4046,
      "&ĀĀĚ": 4047,
      "'Ė": 4048,
      "'Ě": 4049,
      "'&$": 4050,
      "'&#": 4051,
      "'!&&": 4052,
      "'*(": 4053,
      "''&&+": 4054,
      "'*&&*": 4055,
      "(&%&&&&": 4056,
      "(&&'&(": 4057,
      "(&&(&": 4058,
      "('&&&&&": 4059,
      "(ğ&&&&": 4060,
      "(\"&&*": 4061,
      "(&%&&%&": 4062,
      ")ė": 4063,
      ")Ę": 4064,
      ")Ě": 4065,
      ")&&%&$": 4066,
      ")&&$&%": 4067,
      ")&&$&(": 4068,
      ")($": 4069,
      ")((": 4070,
      ")%)": 4071,
      "))$": 4072,
      ")+&&&&": 4073,
      ")ĀĀ&Ā": 4074,
      ")ĀĀ)Ā": 4075,
      "*ě": 4076,
      "*&$": 4077,
      "*&&'&": 4078,
      "*)&&": 4079,
      "**&&": 4080,
      "*''": 4081,
      "*&&$&'": 4082,
      "*&&(&'": 4083,
      "*&&$&": 4084,
      "*&&%&#": 4085,
      "*($": 4086,
      "*#'": 4087,
      "*)(": 4088,
      "*&&)&'": 4089,
      "*#$": 4090,
      "*\")": 4091,
      "**+": 4092,
      "*\"&&+": 4093,
      "*%&&)&(": 4094,
      "+ę": 4095
    },
    "merges": [
      "& &",
      "&& &&",
      "& '",
      "& %",
      "&& %",
      "&& '",
      "Ā Ā",
      "& (",
      "& $",
      "&& (",
      "&& $",
      "& )",
      "& #",
      "% &&",
      "' &&",
      "% &&&&",
      "' &&&&",
      "& *",
      "& \"",
      "&& #",
      "&& )",
      "&' &&&&",
      "&% &&&&",
      "$ &&",
      "( &&",
      "&&% &",
      "&&' &",
      "& +",
      ") &&",
      "# &&",
      "& !",
      "$ &&&&",
      "( &&&&",
      "&&&& &&&&",
      "&&% &'",
      "&&' &'",
      "&&% &%",
      "\" &&",
      "&&' &%",
      "' %",
      "* &&",
      "' '",
      "% %",
      "& ,",
      "&& &%",
      "% '",
      "&& &'",
      "&& \"",
      "&&% &(",
      "&& *",
      "& -",
      "&&' &$",
      "&&' &(",
      "&&$ &'",
      "# &&&&",
      "&&% &$",
      "' (",
      "&&( &",
      "&$ &&&&",
      ") &&&&",
      "% $",
      "&&( &'",
      "! &&",
      "&&( &%",
      "&( &&&&",
      "( '",
      "&&$ &",
      "$ '",
      "&&$ &%",
      "+ &&",
      "% (",
      "&&% &&&&",
      "$ %",
      "%&& &%",
      "'&& &'",
      "Ā (",
      "&&' &&&&",
      "& ğ",
      "ĀĀ %",
      "Ā )",
      "' $",
      "Ā $",
      "Ġ &&",
      "( %",
      "ĀĀ &",
      "&&' &&",
      "ĀĀ $",
      "ĀĀ '",
      "% %&&&&",
      "&&% &&",
      "' '&&&&",
      "&&% &)",
      "Ā %",
      "ĀĀ (",
      "Ā \"",
      "& .",
      "&&( &$",
      "' %&&&&",
      "ĀĀ #",
      "Ā #",
      "Ā *",
      "&&$ &(",
      "&&' &#",
      "Ā !",
      "&&( &(",
      "$ $",
      "\" &&&&",
      "&&% &#",
      "% '&&&&",
      "Ā '",
      "ĀĀ \"",
      "( $",
      "&&$ &$",
      ", &&",
      "&&' &)",
      "%&& )",
      "( (",
      "& Ğ",
      "'&& )",
      "ĀĀ )",
      "* &&&&",
      "'&& #",
      "$ (",
      "ğ &&",
      "Ā +",
      "# '",
      "% )",
      "- &&",
      "&&' &&'",
      "ĀĀ !",
      "%&& #",
      "% #",
      "Ā ,",
      "' #",
      "&&% &&%",
      ") '",
      "(&& &'",
      "&& &",
      "&&' &&%",
      ") %",
      ") (",
      "ĀĀ *",
      "&&) &'",
      "$&& &%",
      "&&$ &)",
      "&&) &%",
      "& ĝ",
      "Ā -",
      "&&# &'",
      "&&% &*",
      ") $",
      "& /",
      "&& !",
      "&&% &&'",
      "&& +",
      "&&' &\"",
      "# %",
      "# $",
      "&# &&&&",
      "&&# &%",
      "&&( &#",
      "( #",
      "ĀĀ +",
      "! &&&&",
      "&&( &&",
      "Ā ğ",
      "ĀĀ ğ",
      "&) &&&&",
      "# (",
      "&&$ &#",
      "&&$ &&",
      "' )",
      "ĀĀ ,",
      "&&# &(",
      "%&& &'",
      "+ &&&&",
      "Ā .",
      "&&% &\"",
      "&&' &*",
      "$ #",
      "& Ĝ",
      "&&( &)",
      "'&& \"",
      "%&& \"",
      "'&& &%",
      "%&& *",
      "$ )",
      "&' %",
      "&&) &$",
      "ĀĀ% Ā",
      "ĀĀ -",
      "&'&&&& %",
      "' \"",
      "Ğ &&",
      "Ġ (",
      "Ġ &&&&",
      "'&& *",
      "&$ &'",
      "&'&&&& '",
      "$ %&&&&",
      "* %",
      "ĀĀ /",
      "* (",
      "ĀĀ& Ā",
      "\" '",
      "ĝ &&",
      "&' %&&&&",
      ")&& &'",
      "ĀĀ$ Ā",
      "\" $",
      "&&% &&&%",
      "% *",
      "&( &%",
      "% (&&&&",
      "( )",
      "&% '",
      "&&) &(",
      "&&( &&&&",
      ") #",
      "&&' &&&'",
      "* $",
      "* '",
      "+ ĀĀ",
      "&%&&&& '",
      "(&& \"",
      "&&&&&&&& &&&&",
      "% \"",
      "'&&&& &",
      "ĀĀ' Ā",
      "&' '",
      "&&$ &*",
      "&&# &",
      "&&) &",
      "# #",
      "&% %&&&&",
      "&&( &*",
      "&&( &\"",
      ". &&",
      "ĀĀ Ğ",
      "&&$ &\"",
      "\" (",
      "&( &'",
      "&&$ &&&&",
      "%&& &$",
      "$&& \"",
      "$&& *",
      "' *",
      "' $&&&&",
      "$ *",
      "( \"",
      "ĀĀ Ĝ",
      "&& &'&&&&",
      "&&%& !",
      "' (&&&&",
      "&&# &$",
      "%&& +",
      "# )",
      "&&%& +",
      "&&'& +",
      ")&& \"",
      "Ā Ğ",
      "ĀĀ .",
      "&&( &&'",
      "\" %",
      "$ '&&&&",
      "( %&&&&",
      "ĀĀ ě",
      "&&# &)",
      "$&& &$",
      "&&'& !",
      "( *",
      "( '&&&&",
      ") )",
      "&% &'",
      "ĀĀ ĝ",
      "&&' &&(",
      "(&& *",
      "&& ,",
      "&\" &&&&",
      "&%&&&& %",
      "$ \"",
      "Ġ %",
      "ĀĀ( Ā",
      "%&& !",
      "&&) &#",
      "&'&&&& &&",
      "#&& \"",
      "&&% &&&&&&&&",
      "&( &",
      "%&&&% &",
      "ĀĀ\" Ā",
      "% $&&&&",
      "Ġ $",
      "' !",
      "( +",
      "&' &%",
      "&%&&&& &&&&",
      "'&&&' &",
      "ĀĀ) Ā",
      ") *",
      "&% '&&&&",
      "&&% &&$",
      "&&$ &+",
      "ĀĀ# Ā",
      "ĀĀ Ě",
      "'&& +",
      "&' '&&&&",
      "'&& !",
      "* #",
      "+ (",
      ", &&&&",
      "#&& *",
      "Ġ '",
      "&% %",
      "&&% '",
      ")&& *",
      "Ġ !",
      "&% $",
      "# \"",
      "&&( &+",
      "&&# &*",
      "&&) &)",
      "&&' &&&&&&&&",
      "&&&% &",
      "&&&' &",
      "&%&&&& &&",
      "+ $",
      "Ġ #",
      "$&& !",
      "% !",
      "& ě",
      "Ġ &(",
      "&&% &&(",
      ") \"",
      "&' &'",
      "&&$ &&'",
      "&* &&&&",
      "(&& !",
      "#&& &%",
      "( (&&&&",
      "* )",
      "ĀĀ! Ā",
      "! %",
      "! '",
      "Ġ \"",
      "&&( &!",
      "%&&&& &",
      "&'&&&& &&&&",
      "+ #",
      "&$ %",
      "$&& +",
      "+ '",
      "- ĀĀ",
      "ğ &&&&",
      "&$ &%",
      "&&# &#",
      "ĀĀ* Ā",
      ", ĀĀ",
      "\"&& *",
      "$ !",
      "& ĀĀ",
      "&( &(",
      "\" )",
      "Ġ *",
      "&&&&&&&& &&&&&&&&",
      "&&%&&&& &",
      "! $",
      "Ġ &'",
      "&& ğ",
      "(&& +",
      "*&& \"",
      ", )",
      "&( '",
      "#&& !",
      "\" #",
      "&& -",
      "&% (",
      "&&% %",
      "#&& +",
      "Ġ )",
      "&$ '",
      "&&# &&",
      "Ġ &)",
      "&&% &&&'",
      "# +",
      "% +",
      "+ %",
      "&&) &&",
      "&&) &\"",
      "\" \"",
      "' ,",
      "&( &$",
      "&&$ &!",
      "% #&&&&",
      "+ )",
      "ĀĀ ę",
      "'&& &)",
      "*&& *",
      "! #",
      "! (",
      "* +",
      "Ĝ &&",
      "Ġ Ā",
      "&&&& %",
      "&&&& '",
      "&&%& ,",
      "\"&& \"",
      "&&'&&&& &",
      "&&' &&$",
      "ĀĀ+ Ā",
      "* \"",
      "Ġ &%",
      "&# &'",
      "'% &&'&",
      "# !",
      "# *",
      ") +",
      "&% &%",
      "&&# &\"",
      ". ĀĀ",
      "%&&&& '",
      "' )&&&&",
      ") ,",
      "&( $",
      "(&& &(",
      "' +",
      "/ ĀĀ",
      "Ġ &",
      "&& &%&&&&",
      "&' $",
      "&&( %",
      "'&&&& %",
      "\"&& +",
      "! )",
      "( ,",
      "&&# &+",
      "Ā ĝ",
      "ğ )",
      "&&( &&$",
      ")&& !",
      "% ,",
      "( !",
      "/ &&",
      "%&&&& %",
      ")&& +",
      "*&& &'",
      "$ +",
      ") !",
      "* *",
      "Ā /",
      "Ġ +",
      "&( (",
      "%&& ğ",
      "'&& &(",
      "'&&&& &&&&",
      "&&) &*",
      "'' &&'&",
      "&&$ &&%",
      "&&$ &&$",
      "'&& ,",
      "%&&&& &&&&",
      "Ġ &$",
      "Ġ &*",
      "&% &'&&&&",
      "&&' &&)",
      "&&$ &,",
      "%&&&& &&",
      "#&& &$",
      "& Ě",
      ", '",
      "Ġ &#",
      "&& Ğ",
      "&&' '",
      "&$ $",
      "&%&&&& (",
      ")&& &(",
      "&' (",
      "&&% &'&&&&",
      "&&' &&&%",
      "&$ (",
      "$&& ,",
      "$&& &#",
      "*&& !",
      "% &&'&",
      "( ĀĀ",
      "&% %'",
      "'&&&& '",
      "(&& ,",
      "&&%& -",
      "&&'& ğ",
      "#&& ,",
      "%&&&% &'",
      "$&&&% &",
      "ĀĀ, Ā",
      "\" !",
      "\" +",
      "' #&&&&",
      "- &&&&",
      "\" *",
      "* !",
      "- &",
      "Ġ ,",
      "&&( &&%",
      "&&$ &&(",
      "%&& ,",
      "&&* &%",
      "&&%&& &%&&&&",
      "ĀĀĞ Ā",
      "$ ,",
      "$ $&&&&",
      "' ğ",
      "* ĀĀ",
      "+ +",
      "&&% &&#",
      "&( %",
      "&# %",
      "(&& &%",
      "'&&&' &%",
      "ĀĀğ Ā",
      "( $&&&&",
      ") ĀĀ",
      "'&& ğ",
      "&+ &&&&",
      "&(&&&& %",
      "Ġ -",
      "&& .",
      "&&' %",
      "&&' &'&&&&",
      "&( #",
      "&$ &(",
      "&&) &!",
      "\"&& &%",
      "&&\" &%",
      "&$&&&& '",
      "! !",
      "$ ĀĀ",
      "' ĀĀ",
      "+ *",
      ", +",
      "&$ &",
      "%&& -",
      "&&) &+",
      ")&& &)",
      "#&& &#",
      "&! &&&&",
      "&' \"",
      "&&( &&(",
      "&&$ &&&%",
      "'&&&& &&",
      "'&&&& &%",
      "%% &&%&",
      "(&&&' &",
      "ĀĀ- Ā",
      "! \"",
      "% &'&&&&",
      "% )&&&&",
      "' -",
      "Ğ !",
      "ğ $",
      "&&% %&&&&",
      "&&% &%&&&&",
      "%&& Ğ",
      "&* &%",
      "&&'& ,",
      "( -",
      "( ğ",
      "&% #",
      "&$ &$",
      "!&& +",
      "ĀĀ/ Ā",
      "! +",
      "# ğ",
      "% -",
      ") ğ",
      ") %&&&&",
      ", *",
      "ě &&",
      "Ġ ğ",
      "&% &&'&",
      "&&' &%&&&&",
      "&&( &,",
      "'&&&& &'",
      ")&& ,",
      "*&& &)",
      "%' &&%&",
      "# ĀĀ",
      "% &&%&",
      "' &&'&",
      ". &",
      "&& &$",
      "&&% &&)",
      "&&( &&&'",
      "&) $",
      "%&& &#",
      "&\" &'",
      "&'&&&& (",
      "$&& -",
      "(&& -",
      "!&& !",
      "'&&&' &'",
      "&&'&& &'&&&&",
      "%&&) &%",
      "& ę",
      "' &&%&",
      "ğ (",
      "Ġ ĀĀ",
      "Ġ &&\"",
      "&& ĝ",
      "&&&& $",
      "&&' %&&&&",
      "&$ #",
      "'&& -",
      "\"&& &#",
      "'' &&'&%",
      "&&* &'",
      "+&& &)",
      "&&'&& &%&&&&",
      "ĀĀĜ Ā",
      "' &&%&'",
      ") '&&&&",
      "* ,",
      "Ğ \"",
      "Ġ &&*",
      "&%&&&& &",
      "(&& &)",
      "$&&&& %",
      "\"&& -",
      "'% &&'&'",
      "$% &&%&",
      "&&'&& &(",
      "ĀĀĝ Ā",
      "# ,",
      "% ĝ",
      "& Ę",
      ", %",
      "Ġ &+",
      "&&' &&#",
      "&# #",
      "&'&&&& &",
      "#&& ğ",
      "'% %&&&&",
      "'' &&'&'",
      "&&(& ğ",
      "&(&&&& '",
      "&&%&& &$",
      "\" ,",
      "$ #&&&&",
      "( #&&&&",
      "* -",
      "- )",
      "ğ %",
      "&' *",
      "&' (&&&&",
      "&% )",
      "&&' '&&&&",
      "&$ *",
      "&) '",
      "&&# &!",
      "$&& ğ",
      "&&%& .",
      "\"&& ,",
      "&&&' &'",
      "+&& !",
      "&&%&& &'&&&&",
      "+ \"",
      ", #",
      ", $",
      "- $",
      ". $",
      "&% &&%&",
      "&% $&&&&",
      "&( *",
      "&# '",
      "$&& /",
      "\"&& !",
      "&&'&% &'",
      "&&&' &%",
      "+&& &(",
      "( )&&&&",
      "+ !",
      ", (",
      "- *",
      ". .",
      "Ě &&",
      "Ğ &",
      "Ġ &\"",
      "&&% '&&&&",
      "ĀĀ ė",
      "%&& .",
      "&%&&&& $",
      "*&& ğ",
      "&&&% &'",
      "!&& &#",
      "Ġ&& !",
      ",&& !",
      "ĀĀ. Ā",
      "# -",
      "# $&&&&",
      ". (",
      ". /",
      "0 0",
      "ĝ $",
      "Ğ &&&&",
      "&% &&'&'",
      "&( )",
      "&) )",
      "%&&&& (",
      "&&# &,",
      "$&& &'",
      "&&%& ğ",
      ")&& -",
      "#&& -",
      "&&%&% &'",
      "\"&& ğ",
      "'' '&&&&",
      "%% &&%&'",
      "%' &&%&'",
      "&&(& Ğ",
      "+&& +",
      "%&&&% &%",
      "'&&) &",
      "! *",
      "$ (&&&&",
      "% &'",
      ", ,",
      "- %",
      "- '",
      ". &&&&",
      "Ĝ $",
      "Ġ 1",
      "Ġ ě",
      "&' )",
      "&% *",
      "ĀĀ Ė",
      "&( +",
      "&$ )",
      "'&& ĝ",
      "'&& Ğ",
      "(&& .",
      "(&& ğ",
      ")&& ğ",
      "'% &&'&(",
      "'' %&&&&",
      "%% '&&&&",
      "%' %&&&&",
      "&&\" &",
      "(% &&'&%",
      "&&'&& &$",
      "# '&&&&",
      "% \"&&&&",
      "( &&%&'",
      ") -",
      ", \"",
      "- (",
      "/ &&&&",
      "ĝ !",
      "ĝ #",
      "ĝ '",
      "Ğ $",
      "&$ &&",
      "&&( &-",
      "&&$ &-",
      "%&& &(",
      "%&& &)",
      "'% %",
      "*&& &*",
      "%' '&&&&",
      "&&\" &*",
      "'&&&' &$",
      "ĀĀ% Ā$",
      "&&'&&&' &",
      "ĀĀě Ā",
      "# %&&&&",
      "( &&%&%",
      ") )&&&&",
      ". %",
      "ğ \"",
      "Ġ ĝ",
      "Ġ &,",
      "&' &&'&",
      "ĀĀ ĕ",
      "&&$ &&#",
      "&) %",
      "'&& &$",
      "&\" (",
      "&'&&&& $",
      "(&& &*",
      "(&&&& &",
      "'( &&'&",
      "&$&&&& %",
      "&$&&&& (",
      "$' &&%&'",
      "+&& ,",
      "ĀĀ& Ā$",
      "'&&# &'",
      "%&&# &%",
      "%&&&' &",
      "&&%&&&% &",
      "ĀĀĚ Ā",
      "! ĀĀ",
      "\" ğ",
      "$ Ğ",
      "$ &&'&",
      "' &%&&&&",
      "' &&%&%",
      "* .",
      "- #",
      "ğ #",
      "Ġ .",
      "Ġ %&&",
      "&% &%&&&&",
      "&# *",
      "'% &&'&%",
      "*&& +",
      "&&$& ğ",
      "%&&) &",
      "&&$&& &$",
      "$ -",
      "$ &&'&%",
      "% &&'&'",
      "' &'",
      "( ĝ",
      "( Ğ",
      ") Ğ",
      "&' #",
      "&' &%&&&&",
      "&) \"",
      "&) (",
      "&) &&",
      "&# &$",
      "&\" #",
      "&&) &,",
      "$&& Ğ",
      "#&& .",
      "%% %&&&&",
      "!&& ,",
      "(' &&'&'",
      "ĀĀ% Ā(",
      "ĀĀ% Ā)",
      "Ġ&& ,",
      "(% &&'&",
      "ĀĀ( Ā$",
      "(&&&' &%",
      "&'&&&&' &",
      "$&&&$ &",
      "% ĀĀ",
      "% &%&&&&",
      "' *&&&&",
      "* ğ",
      "+ .",
      "/ &",
      "ğ *",
      "Ġ Ğ",
      "&' $&&&&",
      "&' %%&&&&",
      "&% !",
      "&% \"",
      "&% $'",
      "ĀĀ :",
      "&( \"",
      "&) *",
      "%&&&& &'",
      "&* (",
      "&&) &&&&",
      "&&) &&'",
      "&%&&&& &&&&&&&&",
      "$&& .",
      "&&'& Ğ",
      "#&& &'",
      "#&& &\"",
      "\"&& &\"",
      "&&\" &$",
      "&&* &$",
      "&&'&&' '",
      "&'&&&&% &",
      "%&&&$ &",
      "$ &&'&'",
      "' &'&&&&",
      ") (&&&&",
      ". +",
      "Ę Ā",
      "ę &&",
      "ĝ &",
      "ğ '",
      "Ġ /",
      "&% (&&&&",
      "&% ''",
      "&&% &&&&&&&&&&&&",
      "&&( '",
      "&&$ '",
      "'&&&& (",
      "&* '",
      "\"&& &$",
      "&&\" &'",
      "&&* &\"",
      "!&& &\"",
      "(' &&'&",
      "Ġ&& +",
      "ĀĀ& Ā\"",
      "ĀĀ$ Ā#",
      "ĀĀ# Ā(",
      "'&&) &$",
      "'&&# &%",
      "&&'&&% %",
      "&'%&&&& &",
      "&%%&&&& &",
      "! -",
      "$ )&&&&",
      "% ğ",
      "( &&'&'",
      "( \"&&&&",
      ") $&&&&",
      "ĝ &&&&",
      "Ğ (",
      "Ġ Ĝ",
      "&' &&%&",
      "&% &&%&%",
      "&% &&'&%",
      "&&% (",
      "&&% &&*",
      "&( &&%&",
      "&$ &&'&'",
      "&&$ &&)",
      "%&& /",
      "%&& ĝ",
      "'&& /",
      "%&&&& &%",
      "%&&&& &(",
      "%&&&& &&&&&&&&",
      "'&&&& &&&&&&&&",
      "&%&&&& &&%&&&&",
      "(&& Ğ",
      "(&& &(&",
      ")&& ĝ",
      "'% &&'&$",
      "'% &&(&%",
      "&&\" &#",
      "&&* &",
      "&&* &#",
      "'( &&'&'",
      "$% &&%&'",
      "$% &&%&%",
      "ĀĀ% Ā*",
      "ĀĀ$ Ā$",
      "ĀĀ$ Ā!",
      "ĀĀ' Ā(",
      "ĀĀ' Ā\"",
      "ĀĀ# Ā)",
      "&&%&&% '",
      "&&%&&' %",
      "&%&&&&' &",
      "! Ğ",
      "\" ĀĀ",
      "# %&&#",
      ") .",
      "+ -",
      "- \"",
      ". '",
      "/ '",
      "/ *",
      "1 1",
      "Ĝ &",
      "&' !",
      "&( !",
      "&( &#",
      "&) +",
      "%&& &\"",
      "'&& .",
      "'&&&& &$",
      "&* %",
      "&* &'",
      "&'&&&& &&'&&&&",
      "(&& ĝ",
      "(&& &$",
      "&+ )",
      ")&& .",
      ")&& Ğ",
      "#&& Ĝ",
      "&! $",
      "&! (",
      "%% &&'&",
      "%% &&%&$",
      "&&&% &%",
      "&&\" &\"",
      "%$ &&%&'",
      "!&& -",
      "&&$&% &'",
      "Ā( )",
      "ĀĀ$ Ā)",
      "ĀĀ' Ā)",
      "ĀĀ' Ā$",
      "ĀĀ( Ā'",
      "ĀĀ\" Ā'",
      ",&& ,",
      "(&&&' &'",
      "&%&&&&&&&& &&&",
      "! /",
      "\" $&&",
      "$ &&%&'",
      "' .",
      "( .",
      "( &&'&",
      ", /",
      "ĝ ĀĀ",
      "Ğ %",
      "Ġ &&'&'",
      "&% &&%&'",
      "&&% &&%&&&&",
      "&&' &&'&&&&",
      "&( &&",
      "&&( &&#",
      "&# &%",
      "%&& &$&'",
      "'&& Ĝ",
      "'&& &(&%",
      "&* $",
      "&&# &&&&",
      "&&# &-",
      "$&& &\"",
      "$&&&& &",
      "(&&&& %",
      "&&%&% &'&&&&",
      "&&%&% %'",
      "\"&& &'",
      "'% '",
      "'% '&&&&",
      "%% &&$&'",
      "&, &&&&",
      "!&& ğ",
      "&(&&&& (",
      "+&& -",
      "'&&&' &(",
      "ĀĀ% Ā%",
      "(% &&'&'",
      "ĀĀ& Ā)",
      "ĀĀ$ Ā(",
      "ĀĀ$ Ā%",
      "%%&&&& &",
      "ĀĀ( Ā#",
      "ĀĀ\" Ā$",
      "%&&) &(",
      "'&&# &",
      "%&&# &'",
      "&&%&&% '&&&&",
      "'&&&% &",
      ")&&&' &",
      "\" &&%&'",
      "# Ğ",
      "# $&&",
      "# &&'&'",
      "# #&&&&",
      "$ /",
      "% &&%&'",
      "' \"&&&&",
      "( &",
      "( /",
      "( &&%&",
      "/ )",
      "2 0",
      "Ĝ !",
      "Ğ *",
      "Ğ ğ",
      "Ğ ĀĀ",
      "Ġ 0",
      "Ġ &!",
      "&&&& \"",
      "&&&& &&&",
      "&' +",
      "&% &&",
      "&% &&%&$",
      "&&% &&'&&&&",
      "&&% &'&&&&&&",
      "&&' &%&&&&&&",
      "ĀĀ >",
      "&$ +",
      "&$ &&%&",
      "&$ &&'&%",
      "&&( &&)",
      "&&( &&&%",
      "&) &'",
      "&) &(",
      "'&& &#",
      "'&& &(&",
      "%&&&& &&%",
      "&&) &ğ",
      ")&& &%",
      ")&& &+",
      "$&&&& &%",
      "'' &&(&'",
      "&&\" &)",
      "&&* &*",
      "%$ &&%&",
      "(' &&'&%",
      "ĀĀ& Ā#",
      "ĀĀ& Ā!",
      "ĀĀ& Ā'",
      "ĀĀ' Ā%",
      "ĀĀ' Ā#",
      "ĀĀ# Ā$",
      "ĀĀ\" Ā(",
      "%&&) &'",
      "'&&) &%",
      "&&'&&' '&&&&",
      "&&'&&% %&&&&",
      "&&'&&% '&&&&",
      "$&&&% &'",
      "$&&&% &%",
      "'&&\" &(",
      "! .",
      "$ &(",
      "% /",
      "* Ğ",
      ", !",
      "- +",
      ". -",
      "ě $",
      "ě )",
      "Ĝ #",
      "ĝ ,",
      "ğ !",
      "Ġ &&'&",
      "Ġ \"&&",
      "Ġ &&&%",
      "&' &&",
      "&' &&'&%",
      "&' &&&'&",
      "&&' &&%&&&&",
      "ĀĀ ē",
      "&$ \"",
      "&$ &&%&'",
      "&$ %'",
      "&&( )",
      "&&( &&*",
      "&&$ &&&'",
      "&# $",
      "'&& &'&&&&&&&&",
      "&\" $",
      "&&) &&)",
      "&'&&&& &&%&&&&",
      "&%&&&& #",
      "(&& /",
      ")&& &*",
      "(&&&& '",
      "(&&&& (",
      "(&&&& &'",
      "\"&& .",
      "'% &&(&",
      "*&& -",
      "%% $&&&&",
      "!&& Ğ",
      "&&$& /",
      "$' &&%&",
      "$' &&%&%",
      "%( &&%&'",
      "$% &&$&'",
      "%&&&% &$",
      "'$ &&'&%",
      "ĀĀ& Ā(",
      "ĀĀ$ Ā*",
      "''&&&& &",
      "ĀĀ( Ā%",
      "ĀĀ( Ā\"",
      "ĀĀ# Ā#",
      "ĀĀ# Ā!",
      "'&&# &(",
      "ğ&& !",
      "-&& +",
      "&&'&&' %&&&&",
      "ĀĀ! Ā!",
      "(&&&' &$",
      "'&&&% &'",
      "! ,",
      "\" -",
      "# &&'&%",
      "$ ğ",
      "$ &&%&",
      "$ \"&&&&",
      "% Ğ",
      "% *&&&&",
      "& ė",
      "' &%",
      "' '&&)",
      "+ ,",
      "+ $&&&&",
      ". ,",
      "Ğ #",
      "Ğ '",
      "ğ &",
      "Ġ '&&",
      "Ġ $&&",
      "Ġ &-",
      "&' &&&'",
      "&&' (",
      "&&' &%&&&&'",
      "&&' &'&&&&&&",
      "ĀĀ Ĕ",
      "&( -",
      "&( ğ",
      "&( &%&&&&",
      "&( &&'&",
      "&( &&%&%",
      "&$ &&'&",
      "&$ &&%&%",
      "&&( '&&&&",
      "&# \"",
      "&# &&",
      "&\" '",
      "&\" &&",
      "&&# &&%",
      "&&# &.",
      "&&) &Ğ",
      "&+ *",
      "#&& &$&'",
      "$&&&& $",
      "$&&&& (",
      "\"&& &!",
      "'% &&%&%",
      "*&& ,",
      "*&& Ğ",
      "'' '",
      "%% &&%&%",
      "%% &&%&(",
      ")&&&& %",
      "%$ &&%&%",
      "&&$& .",
      "%( &&%&%",
      "&&'&& &$&&&&",
      "&&'&& &(&&&&",
      "ĀĀ( Ā(",
      "'%&&&& &",
      "'%&&&& '",
      "ĀĀ\" Ā#",
      "ĀĀ\" Ā*",
      ",&& +",
      "%&&) &$",
      "'&&# &$",
      "ğ&& +",
      "&&%&&' %&&&&",
      "&&(&& &(",
      "%&&&' &%",
      "&&&&&&&&&&&& &&",
      "&&&&&&&&&&&& &&&",
      "&%&&&&% &",
      "! ĝ",
      "! (&&",
      "\" .",
      "\" /",
      "\" %&&&&",
      "# Ĝ",
      "$ Ĝ",
      "' ĝ",
      ") ě",
      ") ĝ",
      "+ /",
      ". *",
      "/ +",
      "1 0",
      "Ā Ĝ",
      "Ě !",
      "ě ğ",
      "Ğ )",
      "Ğ ,",
      "Ğ &&+",
      "Ġ &&%&",
      "Ġ &&%&'",
      "&&&& (",
      "&&&& &&",
      "&' &&%&'",
      "&% ''&&&&",
      "&&' &&\"",
      "ĀĀ =",
      "&$ &)",
      "&&( &&&&&&&&",
      "&&( &&%%",
      "&&$ %",
      "&) &",
      "&) &&'&'",
      "&# (",
      "&# '(",
      "'&& &*",
      "'&& &(&'",
      "&&# '",
      "&&# &ğ",
      "&&) &-",
      "$&& ĝ",
      "$&& &!",
      "$&& &$&'",
      "#&& &!",
      "$&&&& &(",
      "*&& /",
      "%% &&'&'",
      "!&& &!",
      "%&&&% &(",
      "ĀĀ% Ā!",
      "Ġ&& Ğ",
      "Ġ&& &!",
      "ĀĀ& Ā%",
      "ĀĀ& Ā*",
      "ĀĀ$ Ā'",
      "ĀĀ' Ā*",
      "ĀĀ' Ā!",
      "&&%&& &$&&&&",
      "ĀĀ( Ā!",
      "ĀĀ( Ā+",
      "ĀĀ# Ā\"",
      "ĀĀ# Ā,",
      "ĀĀ\" Ā)",
      "ĀĀ\" Ā\"",
      "'&&) &'",
      "ĀĀ) Ā)",
      "ĀĀ) Ā!",
      "#' &&$&%",
      "ĀĀ! Ā*",
      "&&%&&% %&&&&",
      "Ā- '",
      "&&%&&' '&&&&",
      "'&&\" &'",
      "%&&* &'",
      "&'&&&&' &'",
      "! ğ",
      "! &&&%",
      "# ĝ",
      "$ ĝ",
      "$ &&%&$",
      "% &$&&&&",
      "' &",
      "' &&'&%",
      "( Ĝ",
      "( &&'&%",
      "+ Ě",
      "+ ğ",
      "- ,",
      "Ā &",
      "Ę &&",
      "ę ĀĀ",
      "Ĝ \"",
      "ĝ %",
      "&' &&%&%",
      "&% +",
      "ĀĀ <",
      "&( '&&&&",
      "&( &&%&'",
      "&( &&%&(",
      "&( &&'&(",
      "&$ ,",
      "&&$ &%&&&&",
      "&# +",
      "%&& Ĝ",
      "'&& &'&&&&",
      "%&&&& #",
      "'&&&& $",
      "&\" %",
      "&&# &&#",
      "&'&&&& )",
      "&'&&&& &&%",
      "&'&&&& &&'",
      "&&'& -",
      "#&& Ğ",
      "&! )",
      "&&%&% '(",
      "\"&& Ğ",
      "'% &&(&'",
      "'% &&(&$",
      "%' &&%&(",
      "&&\" &(",
      "#&&&& '",
      "(' &&(&%",
      "$' &&$&",
      "+&& ğ",
      "+&& &*",
      "%( &&%&(",
      "%( &&%&$",
      "ĀĀ% Ā\"",
      "'$ &&'&'",
      "&&%&& &#",
      "ĀĀ# Ā%",
      "%'&&&& &",
      "ĀĀ) Ā%",
      "ğ&& ,",
      "-&& !",
      "&&%&&% &&&%",
      "&#&&&& %",
      "%&&\" &$",
      "! &&*",
      "\" ĝ",
      "# '&&",
      "$ &'&&&&",
      "$ &&%&%",
      "% .",
      "% &&'&%",
      "% %&&#",
      "% !&&&&",
      "' &&(&%",
      "( &&$&'",
      ") &",
      ") /",
      ", -",
      "- -",
      "Ę ĀĀ",
      "ě &",
      "Ĝ ,",
      "Ĝ ĝ",
      "Ğ +",
      "Ğ Ğ",
      "Ġ Ě",
      "Ġ &&$&'",
      "Ġ &ğ",
      "Ġ &.",
      "&&&& &'",
      "&% ,",
      "&% '(",
      "&% '%&&&&",
      "&% &&&%&",
      "&&' &&*",
      "&&' &&%&&&&&",
      "&( ,",
      "&$ %&&&&",
      "&$ ''",
      "&&( (",
      "&&$ &&&&&&&&",
      "&) &%",
      "&) &)",
      "&) &#",
      "&# )",
      "%&& ě",
      "%&& &%&&&&&&&&",
      "%&&&& &&'",
      "&* #",
      "&* *",
      "&'&&&& #",
      "&'&&&& &&&&&&&&",
      "(&& Ĝ",
      "(&& &(&'",
      ")&& /",
      "#&& ĝ",
      "\"&& /",
      "'% $&&&&",
      "'% &&%&(",
      "*&& &(",
      "'' $&&&&",
      "'' &&%&%",
      "'' &&(&",
      "%% %",
      "%' &&'&'",
      "%' &&%&%",
      "&&* &&&&",
      "&$&&&& $",
      ")&&&& $",
      "%$ &&$&'",
      "(' &&(&",
      "$' &&%&(",
      "%( &&%&",
      "%&&&% &#",
      "&&'&&&& &&",
      "ĀĀ% Ā+",
      "(% &&(&%",
      "ĀĀ$ Ā+",
      "%%&&&& (",
      "ĀĀ# Ā-",
      "%'&&&& (",
      "Ā' \"",
      "'&&) &(",
      "'&&# &)",
      "ĀĀ! Ā(",
      "ĀĀ! Ā%",
      "ĀĀ! Ā#",
      "%&&# &)",
      "&&%&&% %",
      ")' &&'&'",
      ")% &&'&",
      "ĀĀ* Ā(",
      "ĀĀ+ Ā)",
      "ĀĀ+ Ā$",
      "&&$&& &#",
      "%&&&' &'",
      "&&&&&&&&&&&& &",
      "%&&&&&&&& &&&",
      "! '&&",
      "! $&&\"",
      "\" (&&",
      "# ě",
      "# (&&&&",
      "$ .",
      "$ &&'&$",
      "' &(",
      "' %&&*",
      "( &&%&(",
      ") &&'&%",
      "* '&&",
      "+ %&&*",
      "/ ,",
      "/ -",
      "/ .",
      "0 2",
      "ě !",
      "ĝ (",
      "ĝ &+",
      "Ġ )&&",
      "Ġ &&'&$",
      "Ġ &&%&$",
      "Ġ ,&&",
      "&& Ĝ",
      "&% &(",
      "&% &&&%",
      "&&% #",
      "&&% &&\"",
      "ĀĀ ď",
      "ĀĀ đ",
      "&$ &*",
      "&&( &&\"",
      "&&( &&%&&&%",
      "&&$ '&&&&",
      "&&$ &&%'",
      "&) #",
      "&) &$",
      "%&& &%&&&&",
      "&* .",
      "&\" \"",
      "&\" )",
      "&&) &&&'",
      "&%&&&& &&%",
      "(&& &(&%",
      "#&& &",
      "&! %",
      "&! '",
      "(&&&& )",
      "%% '",
      "%' &&%&$",
      "&&\" &+",
      "&&* &(",
      "&- %",
      "&&'&( '%&&&&",
      "&&(& .",
      "&$&&&& #",
      "%$ '",
      "!&& ĝ",
      "&(&&&& $",
      "$' &&%&$",
      "%( &&'&",
      "$% '&&&&",
      "ĀĀ% Ā#",
      "Ġ&& -",
      "Ġ&& &\"",
      "(% &&'&$",
      "ĀĀ& Ā,",
      "ĀĀ& Āğ",
      "''&&&& $",
      "ĀĀ( Ā*",
      "ĀĀ# Ā*",
      "$$ &&%&'",
      "%&&) &\"",
      "'&&) &\"",
      "ĀĀ) Ā$",
      "$( &&%&'",
      "ğ&& ğ",
      "#' &&%&%",
      "%) &&%&'",
      "ĀĀ! Ā)",
      "ĀĀ! Ā\"",
      "&&%&&% $",
      ")' &&'&",
      "(&&&' &(",
      ")% &&'&'",
      "ĀĀ* Ā)",
      "ĀĀ* Ā$",
      "#% &&%&'",
      "ĀĀğ Ā$",
      "ĀĀğ Ā'",
      "%&&\" &'",
      "ĝ&& ğ",
      "&&&&&&&&&&&&&&&& &&&&&&&&&&&&&&&&",
      "! Ĝ",
      "\" Ě",
      "\" ě",
      "# #&&",
      "$ %&&",
      "$ $&&",
      "% ě",
      "% &$",
      "' &$&&&&",
      "( '&&",
      ") &&'&'",
      ") #&&&&",
      "* /",
      "* %&&&&",
      "* '&&&&",
      "* &&'&'",
      "+ (&&",
      "- .",
      "Ā '%",
      "Ā %'",
      "Ė &&",
      "Ě #",
      "Ě $",
      "Ĝ *",
      "ĝ +",
      "ĝ .",
      "ĝ Ğ",
      "Ġ &&#",
      "Ġ &&$&%",
      "&&&& #",
      "&' ğ",
      "&% &$",
      "&% &&$&",
      "&&% $",
      "&&% &'&&&&%",
      "&&% &%&&&&'",
      "ĀĀ @",
      "ĀĀ Ē",
      "&( &&'&'",
      "&) ,",
      "&) &&%&%",
      "&# &*",
      "'&& ě",
      "%&&&& $",
      "%&&&& &$",
      "%&&&& &#",
      "%&&&& &&&'&&&&",
      "&* +",
      "&* ,",
      "$&& &(",
      "&&%& Ğ",
      "&+ '",
      ")&& Ĝ",
      "&! #",
      "$&&&& &&",
      "(&&&& $",
      "'% &&'&&'",
      "*&& &+",
      "'' &&%&'",
      "%% &&'&$",
      "%% &&$&",
      "&, %",
      "%' &&$&'",
      "&&'&( '%",
      "&&$&' (",
      "#&&&& $",
      "'( &&'&$",
      "'( &&'&(",
      "&&(& ĝ",
      "&$&&&& &&",
      "%$ %",
      "%$ &&'&'",
      "&(&&&& )",
      "&(&&&& &&",
      "$' &&$&%",
      "+&& .",
      "&&%&&&& &&'&",
      "ĀĀ& Ā+",
      "ĀĀ$ Āğ",
      "ĀĀ' Ā'",
      "ĀĀ' Ā+",
      "ĀĀ' Āğ",
      "''&&&& %",
      "ĀĀ( Ā)",
      "ĀĀ# Āğ",
      "Ā' )",
      "($ &&'&",
      ",&& ğ",
      "ĀĀ) Ā\"",
      "ĀĀ) Ā+",
      "*&&&& (",
      "$( &&%&%",
      "ğ&& -",
      "ĀĀ* Ā,",
      "ĀĀğ Ā)",
      "ĀĀğ Ā%",
      "%&&\" &(",
      "'&&&% &$",
      "&'% $&&&&",
      "ĀĀ- Ā(",
      "ĀĀ- Ā#",
      "'&&* &",
      "(&&* &",
      "&&%&&$ %",
      "&&$&&' %",
      "&&&&% &",
      "! '&&#",
      "\" Ĝ",
      "# .",
      "# &&%&",
      "# \"&&&&",
      "' Ğ",
      "' %&&",
      "' $&&",
      "' (&&",
      "' +&&&&",
      "' (&&*",
      "( ę",
      "( &&$&%",
      ") Ĝ",
      ") &&%&'",
      "* &'",
      "- !",
      "- Ĝ",
      "/ (",
      "0 4",
      "0 5",
      "2 2",
      "Ę ğ",
      "ę *",
      "ę &$",
      "Ě ě",
      "Ě ĀĀ",
      "ě ě",
      "Ĝ Ğ",
      "Ġ ė",
      "Ġ &&)",
      "Ġ &&$&",
      "Ġ Ā)",
      "Ġ &&(&$",
      "&' ,",
      "&' '&&&&&",
      "&% &&%&(",
      "&% #&&&&",
      "&% %&&&%",
      "&&% )",
      "&&' &'&&&&'",
      "&( %&&&&",
      "&( &&'&%",
      "&( '$",
      "&$ !",
      "&$ &&!",
      "&&( #",
      "&&$ $",
      "&&$ &&&%&",
      "&&$ &&%%",
      "&) .",
      "&) &&%&",
      "&) &&'&",
      "&) &&%&'",
      "'&&&& &(",
      "'&&&& &&'&&&&",
      "&* )",
      "&* &&",
      "&\" ,",
      "&&# &&&%",
      "&&) %",
      "$&& &",
      "(&& Ě",
      "&&%& /",
      "&&'& .",
      "&+ #",
      "&+ $",
      "&+ %",
      "'' (&&&&",
      "'' &&'&$",
      "'' &&'&(",
      "'' &&%&$",
      "%% &&$&%",
      "&, \"",
      "&, $",
      "&, &",
      "&, +",
      "&&&' &&",
      "&&$&' '",
      "'( %",
      "'( (",
      "'( &&'&%",
      ")&&&& (",
      "(' &&'&$",
      "(' &&(&(",
      "&&$& ĝ",
      "$' '&&&&",
      "&&%&&&& &'",
      "$% &&$&%",
      "&ğ &&&&",
      "ĀĀ% Ā,",
      "ĀĀ% Ā.",
      "'$ %&&&&",
      "Ġ&& ğ",
      "ĀĀ$ Ā\"",
      "ĀĀ$ Ā-",
      "ĀĀ' Ā,",
      "&&%&& &(&&&&",
      "&&%&& &#&&&&",
      "Ā% )",
      "'%&&&& (",
      "ĀĀ# Ā+",
      "$$ &&%&%",
      "$$ &&%&)",
      "\"&&&& %",
      "%'&&&& $",
      "($ &&'&'",
      "($ &&(&(",
      "'&&) &#",
      "ĀĀ) Ā(",
      "ĀĀ) Ā#",
      "-&& &+",
      "%&&# &(",
      "Ā, *",
      ")' &&'&$",
      "&&'&&% &&&%",
      "ĀĀ* Ā#",
      ")$ &&(&'",
      "&&! &\"",
      "&&%&&' '",
      "&&%&&' &&&'&",
      "&&+ &",
      "ĀĀ+ Ā!",
      "&&(&& &)",
      "ĀĀğ Ā(",
      "ĀĀğ Ā\"",
      "&)&&&& '",
      "&)&&&& (",
      "ĀĀ, Ā(",
      "ĀĀ, Ā%",
      "ĀĀ, Ā*",
      "'&&&% &(",
      "%(&&&& (",
      "&%' &&%&",
      "$&&\" &$",
      "$'&&&& (",
      "ĀĀĝ Ā(",
      "#&&\" &",
      "&*&&&& $",
      "! ę",
      "! )&&",
      "\" Ğ",
      "\" '&&",
      "# Ė",
      "# %&&",
      "# )&&&&",
      "# '&&\"",
      "% &",
      "% '&&)",
      "% ,&&&&",
      "' /",
      "' ě",
      "' &&'&'",
      "( Ę",
      "( *&&&&",
      "( %&&*",
      "* %&&",
      "* %&&)",
      "* *&&&&",
      "+ Ĝ",
      ", ğ",
      ". \"",
      "/ #",
      "0 1",
      "1 3",
      "3 4",
      "Ā ė",
      "Ā ę",
      "ė &&",
      "ę \"",
      "ě +",
      "ě Ĝ",
      "ě Ğ",
      "Ĝ /",
      "ĝ )",
      "ğ +",
      "ğ -",
      "ğ Ğ",
      "ğ '&&",
      "Ġ 2",
      "Ġ 4",
      "Ġ 5",
      "Ġ +&&",
      "Ġ Ā$",
      "Ġ Ā\"",
      "Ġ &&%&#",
      "Ġ &&)&'",
      "Ġ '&&\"",
      "Ġ )&&\"",
      "&&&& )",
      "&&&& &%",
      "&&&& &&&%",
      "&' -",
      "&' .",
      "&' Ğ",
      "&' &&'&$",
      "&' &&(&'",
      "&' $'",
      "&' ''&&&&",
      "&% &&$&'",
      "&&% &%&&&&%",
      "&&' &&%&",
      "&&' $&&&&",
      "&&' &&&&&&&&&&&&",
      "&$ (&&&&",
      "&$ &&'&$",
      "&$ %&&&&&",
      "&&( &%&&&&",
      "&&( &&%'",
      "&&$ &'&&&&",
      "&&$ &&'&&&'",
      "&&$ &&(%",
      "&# !",
      "&# &",
      "&# ,",
      "&# &(",
      "&# &&%&",
      "&# &&%&%",
      "&# &&'&$",
      "%&& &!",
      "'&& &(&$",
      "&&# &/",
      "&%&&&& )",
      "&%&&&& '&&&&",
      "$&& &)",
      "&+ (",
      "&+ ,",
      ")&& &,",
      ")&& &(&%",
      "#&& /",
      "#&& &ğ",
      "#&& &%&'",
      "&&%&' &%&&&&",
      "&&%&' ''&&&&",
      "&&'&' &'&&&&",
      "&&%&% %",
      "&&%&% &%",
      "\"&& Ĝ",
      "\"&& &(",
      "'% (",
      "'% &&(&(",
      "*&& ě",
      "*&& ĝ",
      "'' &&'&#",
      "%% &&'&(",
      "&, (",
      "%' &&'&%",
      "%' &&$&%",
      "&&&' &(",
      "&&\" &&&&",
      "&&\" &,",
      "&&%&( &%",
      "&&'&( %'",
      "&&(& Ĝ",
      "!&& &",
      "!&& .",
      "&&$& ě",
      "+&& &+",
      "%( %",
      "$% &&'&",
      "$% &&%&)",
      "'&&&' &)",
      "ĀĀ% Āğ",
      "(% &&'&(",
      "(% &&(&",
      "Ā% +",
      "ĀĀ( Āğ",
      "ĀĀ# Ā.",
      "$$ &&%&$",
      "%'&&&& '",
      "ĀĀ\" Ā+",
      ",&& &*",
      "(( &&'&",
      "'&&# &*",
      "$( &&$&(",
      "ğ&& /",
      "#' &&$&'",
      "%) &&%&%",
      "-&& -",
      "-&& .",
      "&&'&&' (",
      "ĀĀ! Ā'",
      "%&&# &",
      "%# &&%&'",
      "'# &&'&%",
      ")% &&(&'",
      ")( &&'&%",
      "ĀĀ* Ā%",
      "ĀĀ* Ā\"",
      "ĀĀ* Ā'",
      "&&! &%",
      "&&%&&' (&&&&",
      "&&+ &%",
      "ĀĀ+ Ā(",
      "ĀĀ+ Ā\"",
      "$%&&&& &",
      "(&&\" &",
      "(&&\" &%",
      ".&& ,",
      "$&&* &'",
      "$&&&$ &%",
      "%&&! &",
      "#&&\" &'",
      "&&%&&( %",
      "#&&&% &",
      "&'&&&&&&&& &&&",
      "\"&&* &'",
      "&&$&&$ '",
      "! ě",
      "\" %&&",
      "\" #&&&&",
      "\" $&&\"",
      "# &&%&(",
      "# *&&&&",
      "# $&&\"",
      "$ &",
      "$ !&&&&",
      "% Ĝ",
      "% '&&",
      "% ''",
      "% +&&&&",
      "' \"&&",
      "( &&#&%",
      "( +&&&&",
      ") &&%&",
      ") &&%&%",
      ") *&&&&",
      "+ &",
      "+ (&&&&",
      ", Ğ",
      "- /",
      "- (&&",
      ". )",
      "/ !",
      "/ $",
      "3 0",
      "5 1",
      "Ā &'",
      "ė ĀĀ",
      "Ę #",
      "Ě *",
      "ě %",
      "ě &&&",
      "Ĝ Ę",
      "Ĝ ĀĀ",
      "ĝ ě",
      "Ğ ĝ",
      "ğ /",
      "ğ ĝ",
      "ğ %&&",
      "Ġ Ę",
      "Ġ &&%&%",
      "Ġ &&'&%",
      "Ġ &&'&(",
      "Ġ %(",
      "Ġ Ā(",
      "Ġ Ā%",
      "Ġ &&$&(",
      "Ġ Ā+",
      "Ġ %)",
      "Ġ Ā-",
      "Ġ Ā.",
      "Ġ (&&\"",
      "Ġ %&&!",
      "&&&& &&%",
      "&' &'&&&&",
      "&' '(",
      "&' '$",
      "&% &*",
      "&% &&'&$",
      "&% %%&&&&",
      "&% %'&&&&",
      "&&% &&'&&",
      "&&% &&(&&&&",
      "&&% &&%&&&&&",
      "ĀĀ ?",
      "ĀĀ Ę",
      "&( .",
      "&( Ğ",
      "&( (&&&&",
      "&( &&\"",
      "&( %(",
      "&( ''&&&&",
      "&$ '&&&&",
      "&$ $&&&&",
      "&$ %%",
      "&$ &&%&$",
      "&$ %(",
      "&$ ''&&&&",
      "&&( $",
      "&&( &'&&&&",
      "&) !",
      "&) ğ",
      "&) ('",
      "&) $$",
      "&# &&'&%",
      "&# &&'&(",
      "%&& &*",
      "'&& &ğ",
      "'&& &$&'",
      "'&&&& &&%",
      "&* -",
      "&* &&'&'",
      "&\" *",
      "&\" &$",
      "&&# *",
      "&&# &&\"",
      "&&# &Ĝ",
      "&&) &&%",
      "&%&&&& &&'",
      "$&& &'&'",
      "$&& &#&'",
      "&&%& Ĝ",
      "&&'& ě",
      "&+ !",
      ")&& &(&'",
      "&! \"",
      "&! -",
      "$&&&& &'",
      "(&&&& &(",
      "(&&&& &&'&&&&",
      "&&&&&&&& &",
      "\"&& ě",
      "\"&& &%&'",
      "'% $",
      "'% &&%&",
      "'% &&'&)",
      "*&& Ě",
      "*&& Ĝ",
      "*&& &'&%",
      "%% (&&&&",
      "&, *",
      "&, ,",
      "%' $&&&&",
      "%' (&&&&",
      "&&\" &&%",
      "&&%&( %",
      "&- #",
      "#&&&& (",
      "'( '",
      "'( %&&&&",
      "&&(& /",
      "&$&&&& )",
      ")&&&& '",
      "%$ &&'&",
      "&&(&' &'",
      "&&(&' &%",
      "!&& /",
      "!&& ě",
      "(' $",
      "$' &&'&'",
      "$' &&$&'",
      "+&& &",
      "$% &&%&(",
      "&&'&&&& &&%&",
      "&&'&&&& &&'&&&&",
      "ĀĀ% Ā'",
      "Ġ&& .",
      "Ġ&& Ĝ",
      "ĀĀ' Ā-",
      "&&%&& &(",
      "ĀĀ( Ā-",
      "&. '",
      "'%&&&& $",
      "Ā# \"",
      "$$ &&%&",
      "$$ &&$&'",
      "ĀĀ\" Ā%",
      "ĀĀ\" Āğ",
      "($ &&'&%",
      "($ &&(&%",
      "ĀĀ) Ā*",
      "ĀĀ) Ā.",
      "ĀĀ) ĀĞ",
      "'&&# &#",
      "$( &&$&'",
      "$( &&%&$",
      "ğ&& Ğ",
      "#' &&%&",
      "-&& &*",
      "&&'&&' $",
      "ĀĀ! Ā$",
      "Ā, )",
      ")' &&(&'",
      "&&'&&% '",
      "&&'&&% $&&&&",
      "&&'&&% &&&%&",
      ")% &&'&$",
      ")% &&'&(",
      ")( &&'&'",
      "ĀĀ* ĀĞ",
      "$&&&% &$",
      "#% &&$&'",
      "&#&&&& '",
      "&#&&&& (",
      "') &&'&",
      "ĀĀ, Ā)",
      "ĀĀ, Ā+",
      "%&&&' &#",
      "$# &&%&%",
      "%&&* &%",
      "ĀĀ%Ā Ĝ",
      "ĀĀ%Ā ĝ",
      "ĀĀ- Ā\"",
      "'&&* &*",
      "ĀĀ&Ā Ğ",
      ")&&&' &(",
      "*' &&'&$",
      "(&&\" &'",
      "(&&\" &(",
      "%&&&$ &(",
      "'$&&&& )",
      "ĀĀĜ Ā%",
      "%&&+ &'",
      "&&(&&' %",
      "&&'&&( '",
      "&&'&&( (",
      "'&&! &'",
      ")&&* &",
      ")&&* &%",
      "'&&&&% &",
      "! )&&\"",
      "\" (&&&&",
      "\" &&%&%",
      "\" &&'&%",
      "# &&'&",
      "# &&%&'",
      "# )&&\"",
      "$ *&&&&",
      "% %&&",
      "% $&&!",
      "' &)",
      "' +&&",
      "' $&&*",
      "( %&&",
      "( !&&&&",
      "( $&&*",
      "( ,&&&&",
      ") &&(&%",
      ") '&&)",
      ") !&&&&",
      "* #&&",
      "* &&%&'",
      "* &&'&(",
      "+ Ğ",
      "+ %&&",
      ", &",
      ", .",
      ", ě",
      ", ĝ",
      ", '&&)",
      "- #&&+",
      "0 3",
      "1 2",
      "1 5",
      "2 4",
      "3 2",
      "4 1",
      "4 3",
      "Ā Ě",
      "Ā &%",
      "ĕ &",
      "ĕ &&",
      "Ę $",
      "Ę *",
      "ę $",
      "ę &",
      "ę ğ",
      "Ě &",
      "Ě (",
      "Ě .",
      "Ĝ (",
      "Ĝ )",
      "Ĝ +",
      "Ğ &&&",
      "ğ .",
      "ğ ě",
      "ğ ğ",
      "ğ (&&",
      "Ġ ę",
      "Ġ %&&&&",
      "Ġ &&(&%",
      "Ġ Ā*",
      "Ġ &Ğ",
      "Ġ &&#&%",
      "Ġ $)",
      "Ġ &&)&(",
      "Ġ &&%&!",
      "&& &+",
      "&' /",
      "&' &$",
      "&% &)",
      "&% &&(&'",
      "&&% &&$&&",
      "&&% &%&&&&&&",
      "&&' \"",
      "&&' #",
      "&&' &&(&&&&",
      "&&' &&'&&&&&",
      "ĀĀ ;",
      "&( )&&",
      "&( '(",
      "&$ Ĝ",
      "&$ &&(&%",
      "&$ %%&&&&",
      "&&( &&(%",
      "&&$ (",
      "&&$ &&*",
      "&&$ &&%&&&&",
      "&&$ &&'&&&&",
      "&&$ &&!",
      "&) '&&&&",
      "&) &&'&%",
      "&) (%",
      "&# &)",
      "&# &#",
      "&# &\"",
      "&# &&'&'",
      "&# %'",
      "%&& &(&(",
      "'&& &+",
      "'&& &$&(",
      "'&&&& *",
      "&* Ğ",
      "&\" .",
      "&\" &&%&$",
      "&&# $",
      "&&# &&*",
      "&&# &Ğ",
      "&&# &ĝ",
      "&&) &ĝ",
      "&'&&&& *",
      "&'&&&& &(",
      "$&& ě",
      "&+ &'",
      ")&& &",
      "#&& &(",
      "&! ğ",
      "&! &&",
      "&! &&%&'",
      "&&&&&&&& &&&",
      "&&%&' %%&&&&",
      "&&%&% %(&&&&",
      "&&'&% %'&&&&",
      "'% #",
      "*&& &(&'",
      "'' #",
      "'' &&%&",
      "'' &&(&(",
      "'' &&%&#",
      "'' '&&'&",
      "%% &&'&%",
      "%' &&'&",
      "%' &&'&)",
      "%' &&%&*",
      "&&\" &!",
      "&&\" &-",
      "&&* &+",
      "&&* &!",
      "&- !",
      "&- &%",
      "&&'&( '$",
      "&&$&' &$&&&&",
      "'( $&&&&",
      "'( &&%&'",
      "'( &&%&$",
      "%$ %&&&&",
      "%$ &&$&%",
      "!&& Ĝ",
      "&(&&&& &&%",
      "&(&&&& &&%&&&&",
      "(' %&&&&",
      "(' &&%&$",
      "(' &&(&'",
      "(' &&(&$",
      "&&$& Ğ",
      "$' &&%&*",
      "+&& /",
      "&&%&&&& &&",
      "$% )",
      "$% %&&&&",
      "$% &&%&$",
      "$% &&$&",
      "&ğ #",
      "&ğ '",
      "ĀĀ& Ā-",
      "''&&&& (",
      "ĀĀ( Ā.",
      "&. *",
      "&. &&&&",
      "ĀĀ# Ā'",
      "&&'&# &(",
      "&&'&# %(",
      "$$ &&$&",
      "%'&&&& %",
      ",&& .",
      "(( &&(&'",
      "ĀĀ) Ā,",
      "$( &&%&(",
      "ğ&& &!",
      "#' &&%&'",
      "-&& ĝ",
      "-&& &-",
      "&&'&&' %",
      "Ā, $",
      "&&%&&% (",
      ")% &&(&$",
      ")( &&)&'",
      "ĀĀ* Ā!",
      "ĀĀ* Ā+",
      "$&&&% &(",
      "&&! &#",
      "&&%&&' &&&'",
      "#% &&%&%",
      "#$ &&$&'",
      "(# &&'&'",
      "(# &&'&%",
      "ĀĀ+ Ā*",
      "ĀĀğ Ā*",
      "ĀĀğ Ā-",
      "ĀĀğ ĀĞ",
      "&)&&&& %",
      "&&$&& &(",
      "ĀĀ, Ā$",
      "ĀĀ, Ā#",
      "ĀĀ, Ā!",
      "'&&\" &)",
      "%&&\" &",
      "%&&\" &%",
      "%&&\" &*",
      "%&&* &(",
      "&'% &&'&",
      "&'% (&&&&",
      "Ğ&& Ğ",
      "Ġ( *",
      "Ġ&&&& #",
      "'&&* &(",
      "'&&* &$",
      "ĀĀ/ Ā)",
      "ĀĀ/ Ā$",
      "ĀĀ/ Ā#",
      "ĀĀ/ Ā'",
      "\"' &&$&'",
      "ĝ&& -",
      "ĝ&& Ğ",
      ")&&&' &'",
      "ĀĀĞ Ā#",
      "&&$&&&& &'",
      "&&$&&&& &&%&&&&",
      "ĀĀĜ Ā(",
      "ĀĀĜ Ā$",
      "ĀĀĜ Ā!",
      "&&&'&&&& &",
      "%&&+ &%",
      "ĀĀ. Ā(",
      "ĀĀ. Āĝ",
      "&&(&&' $",
      "ĀĀě Ā-",
      "(&&* &'",
      "(&&* &(",
      "%&&! &%",
      "#&&\" &(",
      ")&&* &$",
      "$&&! &$",
      "(&&! &'",
      "(&&! &%",
      "#&&&% &%",
      "(&&+ &$",
      "&&)&& &(",
      "&&&&' &",
      "&&&%&&&& &",
      "&&(&&$ '",
      "%&&&&% &",
      "'&&&&&&&& &&&",
      "&&$&&% '&&&&",
      "&&$&&$ %",
      "&%%' &&%&",
      "&(&&&&% &",
      "ĀĀĕ Ā",
      "! #&&",
      "! &&'&'",
      "! *&&",
      "! )&&!",
      "\" &'",
      "\" $&&&&",
      "\" &&%&$",
      "\" )&&\"",
      "# &(",
      "# \"&&",
      "# +&&&&",
      "$ ę",
      "$ %'",
      "$ '(",
      "$ %&&#",
      "% ę",
      "% #&&\"",
      "% ğ&&&&",
      "' '&&",
      "' &(&&&&",
      "' '&&&'",
      "( (&&",
      ") %&&",
      ") &&'&",
      ") &&'&$",
      ") &&(&",
      ") %&&)",
      ") %&&+",
      "* Ě",
      "* ĝ",
      "* (&&",
      "* (&&&&",
      "+ &&&'",
      ", Ĝ",
      ", '&&",
      ", $&&",
      ", &&$&'",
      "/ Ĝ",
      "/ Ğ",
      "1 4",
      "2 3",
      "2 7",
      "3 1",
      "3 3",
      "4 2",
      "6 0",
      ": Ā",
      ": ĀĀ",
      "Ā Ę",
      "Ē &&",
      "Ė Ā",
      "Ė ĀĀ",
      "Ę &",
      "Ę -",
      "ę &#",
      "Ě \"",
      "Ě )",
      "Ě /",
      "ě \"",
      "ě '",
      "ě (",
      "ě Ę",
      "ě ĝ",
      "ě ĀĀ",
      "Ĝ .",
      "Ĝ Ĝ",
      "Ĝ &)",
      "ĝ /",
      "ĝ Ě",
      "Ğ /",
      "ğ ,",
      "Ġ 3",
      "Ġ &&$",
      "Ġ &&'&&",
      "Ġ Ā#",
      "Ġ &&'&#",
      "Ġ &&$&$",
      "Ġ '&&#",
      "Ġ '#",
      "Ġ &ĝ",
      "Ġ &&#&'",
      "Ġ &&'&\"",
      "Ġ (#",
      "Ġ &Ĝ",
      "Ġ &&$&*",
      "Ġ &&)&#",
      "Ġ &%$",
      "&& /",
      "&& ě",
      "&& +&&",
      "&& ğ&&",
      "&&&& &&'",
      "&&&& &&&'",
      "&' &",
      "&' &#",
      "&' &&'&'",
      "&' &&%&$",
      "&' &&$&$",
      "&' &&,",
      "&% &&'",
      "&% '%",
      "&% &&'&(",
      "&% %$",
      "&% &&$&%",
      "&% %&&&'",
      "&% '&&&&&",
      "&% &&'&&&&&&&&",
      "&&% !",
      "&&% $&&&&",
      "&&' $",
      "&&' (&&&&",
      "&&' &%&&&&%",
      "&&' &'&&&&%&",
      "&( $&&&&",
      "&( '%",
      "&( &&'&$",
      "&( #$",
      "&( &&&'&",
      "&$ &\"",
      "&$ ((",
      "&&( %&&&&",
      "&&( &&!",
      "&&$ &&\"",
      "&&$ &&%&&&%",
      "&) -",
      "&) %%",
      "&) %(",
      "&# ĝ",
      "&# &+",
      "&# ('",
      "&# '%&&&&",
      "%&& &(&%",
      "'&& &!",
      "%&&&& &)",
      "'&&&& &#",
      "'&&&& &&&%",
      "&* !",
      "&* \"",
      "&* ĝ",
      "&* ğ",
      "&* &&%&'",
      "&\" &*",
      "&&# %",
      "&&# )",
      "&&# &&'",
      "&&# &&$",
      "&&# &&)",
      "&&) &&(",
      "&&) &&$",
      "&&) &&\"",
      "&&) &.",
      "&&) &Ĝ",
      "&%&&&& &&(",
      "$&& Ĝ",
      "$&& \"&&",
      "(&& ě",
      "(&& &(&(",
      "(&& &(&$",
      "&+ +",
      ")&& &(&",
      "#&& &$&%",
      "&! +",
      "$&&&& #",
      "$&&&& )",
      "$&&&& &&&&&&&&",
      "&&%&' %'&&&&",
      "&&%&% %%&&&&",
      "\"&& &#&'",
      "\"&& &%&%",
      "'% #&&&&",
      "'% &&'&#",
      "*&& &(&%",
      "'' &&%&(",
      "%% &&(&'",
      "%% &&%&*",
      "&&&% &&%&",
      "%' (",
      "%' )&&&&",
      "&&&' &$",
      "&&* #",
      "&&* &,",
      "&- $",
      "#&&&& #",
      "#&&&& %",
      "#&&&& &",
      "#&&&& &%",
      "'( &&(&'",
      "&$&&&& &&%&&&&",
      ")&&&& &",
      "%$ (",
      "%$ &&'&%",
      "%$ &&%&$",
      "&&(&' (%",
      "(' &&%&'",
      "(' &&'&(",
      "(' &&'&#",
      "$' %&&&&",
      "$' &&'&%",
      "$' &&%&)",
      "$' &&%&#",
      "$' &&$&$",
      "&&$&% &(&&&&",
      "+&& &,",
      "%( (",
      "%( &&$&'",
      "%( &&$&%",
      "%( &&#&(",
      "$% (&&&&",
      "$% &&%&#",
      "$% &&$&$",
      "&ğ -",
      "&ğ Ğ",
      "ĀĀ% Ā-",
      "'$ &&'&",
      "'$ &&(&'",
      "'$ &&(&%",
      "'$ &&'&)",
      "Ā$ )",
      "Ġ&& /",
      "Ġ&& ĝ",
      "Ġ&& &#",
      "(% %&&&&",
      "(% &&'&)",
      "ĀĀ& Ā.",
      "%%&&&& %",
      "%%&&&& '",
      "&&%&& !",
      "&&%&& &\"",
      "&&%&& &)&&&&",
      "&&%&& &'&&&&'",
      "&&%&& &$&",
      "ĀĀ( Ā,",
      "&&(&$ )#",
      "Ā' #",
      "Ā' +",
      "ĀĀ\" Ā-",
      "ĀĀ\" ĀĞ",
      "($ &&'&(",
      "($ &&(&",
      ",&& -",
      ",&& ĝ",
      ",&& &(",
      "(( &&'&$",
      "ĀĀ) Āğ",
      "'&&# &\"",
      "$( &&$&$",
      "#' &&%&(",
      "-&& ,",
      "-&& Ğ",
      "-&& ğ",
      "&&'&&' &&&'&",
      "&&'&&' %&&'&",
      "ĀĀ! Ā+",
      "ĀĀ! Ā-",
      "%# &&%&",
      "%# &&%&(",
      "'# %",
      "'# &&'&'",
      "'# &&(&%",
      "&&%&&% (&&&&",
      "&&%&&% &&&%&",
      "&&%&&% '&&%&'",
      ")' &&'&%",
      "(&&&' &#",
      "&&& /",
      "&&'&&% $",
      ")% &&'&%",
      ")% &&(&%",
      ")( &&%&",
      ")( &&'&$",
      ")( &&(&%",
      ")( &&'&#",
      "ĀĀ* Ā-",
      ")$ &&(&%",
      ")$ &&(&$",
      "&/ .",
      "&&! &(",
      "#% &&%&(",
      "#% &&%&$",
      "#% &&$&",
      "&&#&% $",
      "ĀĀ+ Ā#",
      "ĀĀ+ Ā-",
      "&&(&& &$",
      "&&(&& &'&&&&",
      "ĀĀğ Ā#",
      "&&$&& &'&&&&",
      "&&$&& &%&&&&",
      "') &&'&'",
      "ĀĀ, Ā\"",
      "Ā. %",
      "$# &&%&(",
      "%&&\" &#",
      "%&&* &$",
      "$) &&%&)",
      "ĀĀ%Ā /",
      "ĀĀ- Ā*",
      "ĀĀ- Ā!",
      "ĀĀ- Ā-",
      "&'&&&&% &'",
      "Ġ&&&& \"",
      "'&&* &'",
      "'&&* &#",
      "*% &&(&$",
      "ĀĀ/ Ā\"",
      "ĀĀ/ Ā*",
      "ĀĀ/ Ā!",
      "*( &&(&",
      "ĝ&& Ĝ",
      "&'%&&&& &&&&&&&&",
      "\"$ &&%&'",
      "\"$ &&$&%",
      "() &&(&'",
      "*' &&(&%",
      "+ĀĀ ĝ",
      "+ĀĀ Ğ",
      "&%&&&&' &'&&&&",
      "&'' (&&&&",
      "ĀĀĞ Ā$",
      "%&&&$ &%",
      "'* &&'&%",
      "'$&&&& $",
      "$* &&$&%",
      "ĀĀĜ Ā*",
      "&&(&&' (",
      "(%&&&& '",
      "ĀĀě Ā+",
      "$&&&$ &(",
      "('&&&& \"",
      "ĀĀĝ Ā\"",
      "ĀĀĝ Ā!",
      "&\"&&&& %",
      "%&&! &'",
      "%&&! &(",
      "#&&\" &*",
      "&&%&&&&&&&& %",
      "ĀĀĚ Ā#",
      "'&&+ &",
      "'&&! &%",
      "&&%' &&%&",
      "Ġ! ,",
      "&&$&&' '&&&&",
      "$&&+ &'",
      "&&#&& &$",
      "&&%&&&' &&%&",
      "'&&&) &%",
      "%&&&&' &'&&&&",
      "&&(&&$ %",
      "*&&&' &",
      "'&&&( &)",
      "&&'' &&'&'",
      "&&%&'&&&& &&%",
      "'&&&&' &",
      "ĀĀĖ Ā",
      "! ė",
      "! ğ&&",
      "! %&&#",
      "! &&)&'",
      "\" Ę",
      "\" '&&&&",
      "\" &&'&",
      "\" &&'&$",
      "\" &&(&%",
      "\" *&&&&",
      "\" (&&\"",
      "\" %&&ğ",
      "# &",
      "# &&'&$",
      "# &&'&(",
      "# !&&&&",
      "$ '&&",
      "$ *&&",
      "$ '&&#",
      "$ (&&\"",
      "% *&&",
      "% Ğ&&",
      "& Ĕ",
      "& ĕ",
      "' &\"",
      "' #&&",
      "' '%",
      "' &&$&%",
      "' !&&&&",
      "' $&&\"",
      "' %&&+",
      "' ,&&&&",
      "' \"&&*",
      "( &%",
      "( &'&&&&",
      "( \"&&",
      "( '(",
      "( %&&)",
      "( &&)&'",
      "( '&&+",
      ") \"&&&&",
      ") #&&*",
      "* &&'&%",
      "* &&%&(",
      "* \"&&&&",
      "* +&&&&",
      "* #&&*",
      "* !&&+",
      "+ &&%&(",
      "+ &&%&*",
      "+ ĀĀ$Ā",
      "+ $&&*",
      "+ %&&+",
      ", ĀĀ%Ā",
      ", $&&*",
      "- ğ",
      "- ĀĀ%Ā",
      ". !",
      ". ĝ",
      ". &&+",
      "/ &'",
      "/ ĀĀ&Ā",
      "/ #&&,",
      "3 6",
      "4 0",
      "5 2",
      "6 1",
      "7 3",
      "Ā &#",
      "Ā '(",
      "Ā %$",
      "ė (",
      "ė ğ",
      "ę !",
      "ę %",
      "Ě '",
      "Ě ğ",
      "Ě &*",
      "ě Ě",
      "Ĝ %",
      "Ĝ ę",
      "Ĝ Ě",
      "Ĝ ğ",
      "Ĝ $&&",
      "Ĝ *&&",
      "ĝ *",
      "ĝ ĕ",
      "ĝ Ĝ",
      "ĝ )&&",
      "Ğ ę",
      "Ğ ,&&",
      "ğ Ě",
      "Ġ &&(",
      "Ġ '&&&&",
      "Ġ ''",
      "Ġ &&(&'",
      "Ġ $(",
      "Ġ #'",
      "Ġ &&)&%",
      "Ġ #(",
      "Ġ &&%&\"",
      "Ġ &&(&)",
      "Ġ &&$&\"",
      "Ġ $&&\"",
      "Ġ ĀĀ(Ā",
      "Ġ '&&!",
      "Ġ (&&!",
      "Ġ &&)&\"",
      "Ġ \"&&\"",
      "Ġ %&&ğ",
      "Ġ '&&ğ",
      "Ġ +&&!",
      "Ġ )&&ğ",
      "&& ė",
      "&& &#",
      "&& &*",
      "&& &.",
      "&' &&(&",
      "&' )&&&&",
      "&' '%&&&&",
      "&' &&'&)",
      "&' #'",
      "&% .",
      "&% &&$",
      "&% &&(&",
      "&% '&&&'",
      "&% &&(&(",
      "&% $$",
      "&% &&'&)",
      "&&% &'&&&&'",
      "&&% &&&'&",
      "&&% &'&&&&'&",
      "&&' )",
      "&&' &'&&&&&&&&",
      "&( &&&&&&&&",
      "&( &&$&%",
      "&( &&%&)",
      "&( '%&&&&",
      "&( $$",
      "&( %*",
      "&$ /",
      "&$ &#",
      "&$ '%",
      "&$ &,",
      "&$ &&%&(",
      "&$ &&'&(",
      "&$ &&(&",
      "&$ &&'&)",
      "&&( &(&&&&",
      "&&( &&'&&&&",
      "&&( &&'&&&'",
      "&&$ &'&&&&%",
      "&) &&(&'",
      "&) &&$&%",
      "&) ($",
      "&) '#",
      "&) $&&&#",
      "&# -",
      "&# /",
      "&# ğ",
      "&# %&&&&",
      "&# &&%&'",
      "&# &-",
      "&# %'&&&&",
      "&# '#",
      "%&& #&&",
      "%&& &(&",
      "'&& &-",
      "'&& &(&(",
      "%&&&& \"",
      "%&&&& &&$",
      "%&&&& &\"",
      "%&&&& &&'&&&&",
      "'&&&& &)",
      "'&&&& &&%&&&&",
      "'&&&& %%&&&&",
      "'&&&& &&&'&&&&",
      "&* ($&&&&",
      "&\" ĝ",
      "&\" &\"",
      "&\" &&'&(",
      "&&# &&&'",
      "&&) $",
      "&&) (",
      "&&) &&&%",
      "&'&&&& &&(",
      "&%&&&& &'",
      "&%&&&& &''&&&&",
      "$&& &'&%",
      "(&& &",
      "(&& &+",
      "(&& &!",
      "&&%& ĝ",
      "&+ \"",
      "&+ &%",
      "&+ &(",
      "&+ &&%&'",
      ")&& Ě",
      ")&& &$",
      ")&& &\"",
      ")&& &(&(",
      "#&& ę",
      "#&& &#&'",
      "&! !",
      "(&&&& &&",
      "&&&&&&&& '",
      "&&'&' *",
      "&&'&' %%&&&&",
      "&&%&% &(",
      "'% &&%&$",
      "'% &&%&#",
      "*&& .",
      "'' $",
      "'' #&&&&",
      "'' )&&&&",
      "'' &&(&$",
      "%% &&(&",
      "%% &&(&%",
      "%% &&'&)",
      "&, #",
      "&, '",
      "&, .",
      "&, /",
      "&, Ğ",
      "&, &&",
      "&&&% &(",
      "%' #",
      "%' &&'&$",
      "%' &&$&",
      "%' &&%&)",
      "%' &&%&#",
      "%' &&%&&&&&&&&",
      "&&&' &&'&",
      "&&\" &&$",
      "&&\" &/",
      "&&* &)",
      "&&* &-",
      "&&* &ĝ",
      "&- &",
      "&- &&&&",
      "&&'&( %$",
      "&&$&' '%&&&&",
      "&&$&' ')",
      "#&&&& +",
      "#&&&& &(",
      "#&&&& &$",
      "'( &&%&",
      "'( &&'&\"",
      "'( %&&'&",
      "&$&&&& %&'&&&&",
      "%$ *",
      "%$ '&&&&",
      "%$ (&&&&",
      "%$ &&%&)",
      "%$ &&%&&&%",
      "&&(&' %%&&&&",
      "!&& &ĝ",
      "&(&&&& &",
      "(' &&%&)",
      "(' &&'&)",
      "(' &&'&\"",
      "&&$&% ((&&&&",
      "+&& Ğ",
      "+&& &$",
      "%( $",
      "%( &&'&#",
      "%( &&%&#",
      "%( &&%&&'",
      "&&%&&&& &&%&",
      "$% &&$",
      "$% )&&&&",
      "%&&&% &)",
      "%&&&% &*",
      "%&&&% &&&'&&&&",
      "Ā( #",
      "Ā( %",
      "&&'&&&& &&'&",
      "&ğ (",
      "&ğ ,",
      "'$ )",
      "'$ &&%&",
      "'$ &&'&(",
      "'$ &&(&$",
      "Ā$ +",
      "Ġ&& &",
      "(% $&&&&",
      "(% &&%&'",
      "&&'&& &#",
      "&&'&& &#&&&&",
      "ĀĀ$ Ā,",
      "&&%&& &!",
      "''&&&& #",
      "''&&&& '",
      "&. %",
      "Ā# ğ",
      "Ā* %",
      "&&(&( (#",
      "$$ (&&&&",
      "$$ &&%&(",
      "\"&&&& (",
      "ĀĀ\" Ā!",
      "ĀĀ\" Ā,",
      "ĀĀ\" Ā.",
      ",&& &",
      ",&& Ğ",
      ",&& &,",
      ",&& &(&%",
      "(( &&%&'",
      "(( &&'&%",
      "(( &&(&",
      "(( &&(&$",
      "&Ğ &&&&",
      "'&&) &!",
      "ĀĀ) Ā'",
      "ĀĀ) Ā-",
      "*&&&& %",
      "*&&&& *",
      "$( (&&&&",
      "$( &&$&",
      "$( &&$&%",
      "ğ&& ĝ",
      "#' &&$&#",
      "#' &&$&+",
      "%) &&%&(",
      "-&& &",
      "-&& &)",
      "&&'&&' $&&&&",
      "&&'&&' &&&'",
      "&&'&&' &&&'&'",
      "%# &&'&'",
      "%# &&%&)",
      "%# &&%&#",
      "'# &&'&",
      ")' &&'&(",
      ")' &&(&%",
      "(&&&' &)",
      "&&'&&% &&&'",
      "&&'&&% %&&%&",
      "&&'&&% '&&%&",
      ")( &&'&",
      ")$ &&'&%",
      ")$ &&%&$",
      ")$ &&'&#",
      ")$ &&)&$",
      "&&! &",
      "&&! &'",
      "&&+ &$",
      "#$ &&%&'",
      "#$ &&%&$",
      "&#&&&& $",
      "&#&&&& )",
      "ĀĀ+ Ā'",
      "ĀĀ+ Āğ",
      "&&(&& &*",
      "&&(&& &%&&&&",
      "&&(&& &#&&&&",
      "ĀĀğ Ā,",
      "#( &&$&'",
      "ĀĀ, Ā-",
      "%&&&' &$",
      "$# &&%&$",
      "'&&\" &%",
      "'&&\" &+",
      "%&&* &)",
      "%&&* &#",
      "%&&* &\"",
      "ĀĀ- Ā)",
      "ĀĀ- Āĝ",
      "'\" &&(&'",
      "&'&&&&' &%&&&&",
      "$%&&&& '",
      "$%&&&& )",
      "*% &&'&$",
      "*% &&(&",
      "ĀĀ/ Ā+",
      "ĀĀ/ Āğ",
      "\"' &&%&(",
      "\"$ &&%&$",
      "&&(&&&& &&%&",
      ")# &&'&$",
      "*$ &&'&",
      "*' &&'&%",
      "%\" &&'&%",
      "## &&%&%",
      "ĀĀĞ Ā(",
      "$&&\" &(",
      "'$&&&& %",
      "'(&&&& &",
      "%&&+ &(",
      ")&&\" &*",
      "ĀĀ. Ā)",
      "ĀĀ. Ā%",
      "ĀĀ. Ā\"",
      "&&(&&' '",
      "\"% &&%&'",
      "$'&&&& %",
      "ĀĀě Āğ",
      "$&&&$ &)",
      ")) &&'&%",
      "ĀĀĝ Ā%",
      "&&'&&( $",
      "(&&* &%",
      "(&&* &)",
      "#&&\" &)",
      "&&%&&&&&&&& &&&",
      "&&%&&$ '",
      "&&%&&$ (",
      "ĀĀ#Ā ě",
      "ĀĀĚ Ā+",
      "'&&+ &'",
      "'&&! &(",
      "'&&! &$",
      "&%% &&%&",
      "&&$&&' %&&&&",
      "&(' &&'&",
      "%#&&&& $",
      "ĀĀę Ā",
      "ĀĀę Ā%",
      "*&&* &(",
      "Ĝ&& Ĝ",
      "&&&&' &\"",
      "\"&&\" &#",
      "ĀĀ+Ā Ě",
      "#* &&$&'",
      "#&&&$ &",
      "#&&&$ &(",
      "&&Ğ &",
      "$&&, &\"",
      "&&(&&% (",
      "%&&, &",
      "&&%&&# '",
      "&&%&&) %",
      "&%&&&&$ &'",
      "ĀĀ: Ā",
      "&&%&&&&&&&&&&&& &&&",
      "ĀĀ> Ā",
      "&&&&&' &",
      "! %&&",
      "! '&&&&",
      "! &&%&%",
      "! &&'&$",
      "! )&&&&",
      "\" Ė",
      "\" ė",
      "\" ę",
      "\" &&%&",
      "\" \"&&&&",
      "\" %&&#",
      "\" &&)&%",
      "\" \"'",
      "\" (&&!",
      "\" #&&!",
      "# ē",
      "# &*",
      "# &&%&%",
      "# *&&",
      "# &(&&&&",
      "# &&(&$",
      "# %'&&&&",
      "# %&&)",
      "# .&&",
      "# %&&ğ",
      "$ Ě",
      "$ ě",
      "$ &&(&%",
      "$ +&&&&",
      "$ '&&\"",
      "$ %&&\"",
      "$ '&&+",
      "$ ,&&&&",
      "$ )&&*",
      "% Ě",
      "% &+",
      "% '&&#",
      "% )&&\"",
      "% *&&\"",
      "% -&&&&",
      "% &%&&'&",
      "& ē",
      "' Ĝ",
      "' )&&",
      "' ğ&&&&",
      "( Ě",
      "( ě",
      "( &&'&$",
      "( &&(&%",
      "( '&&)",
      "( &&#&'",
      "( %&&+",
      "( )&&*",
      "( -&&&&",
      ") ę",
      ") $&&",
      ") *&&",
      ") &&%&(",
      ") &&)&$",
      ") '&&*",
      "* &",
      "* %'",
      "* )&&&&",
      "* &&%&)",
      "* &&$&(",
      "* )$",
      "* '&&*",
      "* $&&*",
      "* )&&+",
      "+ ě",
      "+ ĝ",
      "+ &&%&%",
      "+ &&'&(",
      "+ &&$&'",
      "+ &&%&$",
      "+ %&&)",
      "+ ĀĀ'Ā",
      ", (&&",
      ", &&%&",
      ", &&'&'",
      ", &&$&(",
      ", ĀĀ\"Ā",
      ", ĀĀĚ",
      ", \"&&+",
      "- Ě",
      "- %&&",
      "- $&&*",
      "- *&&*",
      ". ğ",
      ". (&&&&",
      "/ Ě",
      "/ ğ",
      "/ '&&",
      "/ ĀĀ$Ā",
      "/ (\"",
      "0 6",
      "1 7",
      "2 1",
      "2 5",
      "7 1",
      "9 5",
      "Ā ě",
      "Ā &)",
      "Ā %%",
      "Ā ('",
      "Ā %(",
      "Đ Ā$",
      "Ē ĀĀ",
      "Ē Ā$",
      "Ĕ &",
      "Ĕ ĀĀ",
      "ĕ #",
      "ĕ ĀĀ",
      "Ė #",
      "ė &&&",
      "Ę \"",
      "Ę ę",
      "Ę (&&",
      "ę )",
      "ę /",
      "ę &*",
      "Ě Ğ",
      "Ě &,",
      "ě #",
      "ě .",
      "ě &&&&",
      "ě %&&",
      "ě $&&",
      "ě &+",
      "ě #&&!",
      "Ĝ ě",
      "Ĝ %&&",
      "Ĝ &/",
      "ĝ \"",
      "ĝ -",
      "ĝ ē",
      "Ğ -",
      "Ğ Ĝ",
      "ğ ę",
      "ğ ĀĀ",
      "ğ *&&",
      "ğ &&(&'",
      "Ġ Ĕ",
      "Ġ Ė",
      "Ġ &'&&&&",
      "Ġ (&&",
      "Ġ #&&",
      "Ġ &&(&",
      "Ġ $%",
      "Ġ Ā!",
      "Ġ &&'&)",
      "Ġ %&&#",
      "Ġ Ā,",
      "Ġ &&%&*",
      "Ġ &/",
      "Ġ ')",
      "Ġ &&#&(",
      "Ġ &&'&*",
      "Ġ &'%",
      "Ġ &&)&$",
      "Ġ &&(&\"",
      "Ġ .&&",
      "Ġ ))",
      "Ġ $\"",
      "Ġ +(",
      "Ġ $&&!",
      "Ġ *&&\"",
      "Ġ &&#&\"",
      "Ġ *&&!",
      "Ġ &&*&%",
      "Ġ $&&Ğ",
      "Ġ )&&ĝ",
      "&& Ė",
      "&& &(",
      "&& *&&",
      "&& &,",
      "&&&& +",
      "&&&& &&%&",
      "&' %'",
      "&' &&%&(",
      "&' &&*",
      "&' %$",
      "&' &&(&%",
      "&' %(",
      "&' (%",
      "&' &&(&(",
      "&' *&&&&",
      "&' \"%",
      "&% ğ",
      "&% %%",
      "&% &&(&%",
      "&% '$",
      "&% &&'&*",
      "&% '&&&'&",
      "&&% &&(&&",
      "&&% &&#&&",
      "&&% &%&&&&(",
      "&&% &'&&&&%&",
      "&&% &%&&&&%&",
      "&&' &'&&&&%",
      "&&' &&$&&&&",
      "&&' &&&%&",
      "&&' %&&'&",
      "ĀĀ ĘĀ",
      "&( /",
      "&( &&$&'",
      "&( &&(&",
      "&( &&(&'",
      "&( &&%&*",
      "&( (#",
      "&( *%",
      "&$ -",
      "&$ ğ",
      "&$ &+",
      "&$ %$",
      "&$ &&&&&&&&&&&&",
      "&$ &&&%&",
      "&$ +#",
      "&&( #&&&&",
      "&&( &&(&&",
      "&&( &)&&&&",
      "&&( &%&&&&%",
      "&&( &$&&&&'",
      "&&$ &$&&&&",
      "&&$ &(&&&&",
      "&&$ &#&&&&",
      "&) ĝ",
      "&) &%&&&&",
      "&) &+",
      "&) &&&&&&&&",
      "&) &&'&#",
      "&) #$",
      "&) $#",
      "&) '!",
      "&# &&(&%",
      "&# %(",
      "&# *&&&&",
      "&# *(",
      "&# #)",
      "%&& &(&'",
      "%&& &(&$",
      "'&& &$&%",
      "%&&&& &&'&%&&&&",
      "'&&&& )",
      "'&&&& &&'",
      "'&&&& &''&&&&",
      "&* &$",
      "&* &&(&",
      "&* ('",
      "&* ($",
      "&* '&&&%",
      "&\" !",
      "&\" -",
      "&\" &%",
      "&\" &+",
      "&&# &&%%",
      "&&) '",
      "&&) &&(%",
      "&'&&&& '&&&&",
      "&'&&&& %&&&&&&",
      "&'&&&& &&''&&&&",
      "&%&&&& &%",
      "$&& &*",
      "$&& &%&&&&",
      "(&& &-",
      "(&& &$&%",
      "(&& &%&%",
      "&+ -",
      "&+ ğ",
      "&+ &&%&%",
      "&+ ($",
      ")&& &$&'",
      "#&& &Ğ",
      "#&& -&",
      "&! Ę",
      "&! Ĝ",
      "&! &&'&$",
      "$&&&& &&'&&&&",
      "(&&&& &$",
      "&&&&&&&& %",
      "&&&&&&&& &'&&&&",
      "&&&&&&&& &&&&&&&&&&&&&",
      "&&%&' &%",
      "&&%&' %&&&&",
      "&&%&' '%",
      "&&%&' %&&&&&",
      "&&'&' &%&&&&",
      "&&'&' &$&&&&",
      "&&'&' %$",
      "&&'&' ''&&&&",
      "&&%&% %&&&&",
      "&&%&% %&&&%",
      "&&%&% $$",
      "&&%&% %'&&&&",
      "&&%&% '(&&&&",
      "\"&& &",
      "\"&& ĝ",
      "\"&& &*",
      "&&'&% %'",
      "&&'&% '(",
      "&&'&% '&&&'",
      "'% &&(&)",
      "'% %&&%&",
      "'% &&'&%&'",
      "'% (&&%&",
      "*&& &(&(",
      "'' \"",
      "'' (",
      "'' &&(&%",
      "'' &&'&&",
      "'' &&'&)",
      "%% &&$&(",
      "%% '&&%&'",
      "&, ĀĀ",
      "&&&% &$",
      "&&\" &Ĝ",
      "&&%&( #",
      "&&* &Ğ",
      "&&* &/",
      "&&* &%'",
      "&- +",
      "&- /",
      "&- ĝ",
      "&- &&",
      "&- &(",
      "&&'&$ ,",
      "&&'&$ '%&&&&",
      "&&'&$ %)",
      "&&'&( (#",
      "&&'&( '(&&&&",
      "&&$&' #",
      "#&&&& *",
      "&&%&$ '(&&&&",
      "'( '&&&&",
      "'( &&$&%",
      "'( &&)&%",
      "'( &&'&*",
      ")&&&& &%",
      "%$ &&'&(",
      "%$ &&(&'",
      "%$ &&$&)",
      "%$ &&$&!",
      "&&(&' $",
      "!&& ę",
      "!&& &ğ",
      "!&& &$&(",
      "!&& &$&$",
      "&&(&% %&&&&",
      "&(&&&& %%",
      "(' !",
      "(' \"",
      "(' &&%&",
      "(' (&&&&",
      "(' &&%&#",
      "&&$& ę",
      "&&$& Ĝ",
      "$' $",
      "$' )",
      "$' *",
      "$' (&&&&",
      "+&& ę",
      "%( $&&&&",
      "%( &&(&",
      "&&%&&&& &&&'&&&&",
      "$% &&%&&&&&&&&",
      "%&&&% &'&&&&&&",
      "'&&&' &%&&&&",
      "Ā( (",
      "&&'&&&& %",
      "&ğ !",
      "&ğ /",
      "&ğ Ĝ",
      "'$ $",
      "'$ '&&&&",
      "'$ $&&&&",
      "'$ &&%&%",
      "'$ &&(&",
      "Ā$ $",
      "Ġ&& ě",
      "Ġ&& &ĝ",
      "(% #",
      "(% *",
      "(% &&(&'",
      "(% &&'&#",
      "&&'&& +",
      "&&'&& &+",
      "&&'&& &'&&&&&&&&",
      "ĀĀ$ Ā.",
      "&&%&& &%&&&&&&&&",
      "''&&&& &%",
      "''&&&& &&%&&&&",
      "&&%&) ')",
      "Ā% \"",
      "ĀĀ( ĀĞ",
      "&. (",
      "&&$&( %$",
      "&&$&( $(",
      "&&(&( &#",
      "&&(&( '%&&&&",
      "$$ '&&&&",
      "$$ &&%&\"",
      "Ā' ,",
      "($ \"",
      "($ &&'&#",
      "($ \"&&&&",
      "($ &&(&)",
      "&&$&$ &$",
      ",&& /",
      "%&&) &+",
      "(( )",
      "(( &&'&(",
      "(( &&%&$",
      "(( &&(&%",
      "&Ğ (",
      "*&&&& '",
      "$( &&(&%",
      "$( &&#&%",
      "ğ&& Ě",
      "ğ&& Ĝ",
      "Ā+ \"",
      "%) &&%&",
      "%) &&$&'",
      "%) &&$&$",
      "-&& /",
      "-&& &,",
      "ĀĀ! Ā,",
      "ĀĀ! Āğ",
      "%# %",
      "%# (",
      "%# &&'&",
      "%# &&$&#",
      "&&%&&% $&&&&",
      "&&%&&% %&&%&",
      ")' $&&&&",
      ")' &&(&$",
      ")' &&'&+",
      "(&&&' &&%'",
      "&&'&&% (",
      "&&'&&% #&&&&",
      ")% &&(&",
      ")% &&'&\"",
      ")% &&'&*",
      ")( &&)",
      ")( &&(&$",
      "&&$&) \"",
      "&&)&% &'",
      "&ĝ $",
      "&ĝ ,",
      "Ā- Ğ",
      "&&#&' )",
      "&&#&' &'",
      "&&! &$",
      "&&! &+",
      "&&! &,",
      "&&%&&' $&&&&",
      "&&'&\" '",
      "#% &&%&#",
      "#$ &&%&%",
      "#$ &&%&(",
      "#$ &&$&(",
      "#$ &&%&*",
      "&#&&&& (&",
      "&&(&# #",
      "&&(&# (",
      "(# &&(&$",
      "ĀĀ+ Ā%",
      "!&&&& )",
      "ĀĀğ Āğ",
      "&)&&&& )",
      "#( &&%&(",
      "#( &&#&(",
      "&&$&& &$&&&&",
      "&&$&& &$&",
      "%&&&' &)",
      "Ā. ğ",
      "$# &&%&'",
      "$# &&#&'",
      "%&&* &",
      "$) &&$&'",
      "&'% !",
      "ĀĀ%Ā Ğ",
      "ĀĀ- Ā'",
      "ĀĀ- Ā+",
      "&'&&&&% &(",
      "&'&&&&% &'&&&&",
      "&'&&&&% &%&&&&",
      "'\" &&'&%",
      "'\" &&'&\"",
      "Ğ&& Ę",
      "'&&* &%",
      "'&&* &\"",
      "*% &&%&'",
      "ĀĀ/ Ā,",
      "ĀĀ&Ā ě",
      "ĀĀ&Ā '(",
      "\"' &&%&%",
      "ĝ&& .",
      ")&&&' &$",
      "ĀĀ$Ā &%",
      "\"$ &&$&'",
      "\"$ &&#&'",
      "&&%&&&% &'",
      "() &&'&",
      "() &&%&%",
      "() &&'&$",
      "() &&%&!",
      "&&(&&&& '",
      "&&(&&&& &&'&&&&",
      ")# &&)&'",
      ")# &&)&%",
      "&&'&&&' &%",
      "*$ &&'&'",
      "*$ &&(&(",
      "*' &&(&'",
      "+ĀĀ Ď",
      "&%&&&&' &'",
      "&%&&&&' &%",
      "%\" &&%&$",
      "ĀĀ'Ā ĝ",
      "## &&%&'",
      "## &&$&)",
      ".&& -",
      ".&& &*",
      "ĀĀĞ Ā)",
      "ĀĀĞ Ā+",
      "\"( &&%&%",
      "\"( &&$&%",
      "%&&&$ &$",
      "$&&* &!",
      "'$&&&& '",
      "$* &&%&",
      "$* &&$&)",
      "(\" &&'&%",
      "(\" &&(&'",
      "(\" &&(&#",
      "ĀĀĜ Ā\"",
      "ĀĀĜ Ā-",
      "ĀĀĜ Āğ",
      "%&&+ &!",
      "#) &&%&(",
      "ĀĀ. ĀĞ",
      "\"% &&%&%",
      "\"% &&$&'",
      "ĀĀě Ā)",
      "ĀĀě Ā!",
      "ĀĀě Ā,",
      "$&&&$ &$",
      "$&&&$ &*",
      "ĀĀĝ Ā*",
      "&&'&&( &&&'&",
      "(&&* &+",
      "&\"&&&& *",
      "(+ &&\"",
      ")* &&(&'",
      "&&%&&$ &&&%&'",
      "ĀĀ#Ā /",
      "ĀĀ#Ā Ĝ",
      "ĀĀĚ Ā\"",
      "'&&! &",
      "'&&! &*",
      "*# &&(&%",
      "+( &&)&%",
      "#&&* &%",
      "#&&* &(",
      "Ġ' ,",
      "&%% !",
      "&%% +",
      "&&%' &&%&%",
      "Ġ# ,",
      "&&%&&( '",
      ")\" &&)&$",
      "&&$&&' '",
      "&*&&&& !",
      "#&&&% &(",
      "&'&&&&&&&& &&&'",
      "$&&+ &\"",
      "+' &&(&%",
      "+' &&(&#",
      "\"&&* &$",
      "&&ğ &(",
      "(&&+ &%",
      "\"# &&%&%",
      "&&- &",
      "&$' &&%&",
      "&$' &&%&'",
      "ĀĀę Ā!",
      "Ĝ&& Ğ",
      "Ĝ&& &ğ",
      "ĠĀ /",
      "&&&&% &)",
      "&&'&&$ %",
      "&&'&&$ $&&&&",
      "#* &&%&(",
      "&%&% &&'&",
      "&'$ $&&&&",
      "&&(% &&'&",
      "(, &&'&'",
      "ğ) ĀĀ",
      ")&&! &%",
      "*&&&' &(",
      "'&&&&&&&& '&&&&",
      "&&'&&&% &&'&",
      "$&&, &#",
      "#&&, &$",
      "&&$&&( '",
      "(&&&% &",
      "(&&&% &$",
      "'&&ğ &#",
      "\"&&&% &",
      ")&&&) &'",
      ")&&&) &%",
      "&!&&&& *",
      "&&(&&( '",
      "%&&Ğ &)",
      "ĀĀ/Ā ě",
      "%&&&# &",
      "\"&&&# &#",
      "\"&&! &",
      "+&&&( &#",
      "&&'&&&$ &&%&",
      "%&&&) &",
      "'%% &&%&%",
      "*&&&* &(",
      "&%&&&&&&&&&&&& &",
      "&&(&&) '",
      "! Ě",
      "! &&%&",
      "! (&&&&",
      "! &&%&'",
      "! \"&&",
      "! &&'&#",
      "! ++",
      "\" &&'&(",
      "\" !&&",
      "\" $'",
      "\" +&&",
      "\" &&(&$",
      "\" '&&#",
      "\" !&&&&",
      "\" ĀĀ$Ā",
      "\" ))",
      "\" &&)&#",
      "\" )&&!",
      "\" *&&!",
      "\" '&&#&'",
      "# ę",
      "# &&)",
      "# (&&",
      "# ''",
      "# &&$&'",
      "# %(",
      "# &&$&(",
      "# &&(&(",
      "# '&&#",
      "# %)",
      "# &&(&#",
      "# &)&&&&",
      "# %&&\"",
      "# (&&\"",
      "# #&&!",
      "# )&&!",
      "# !&&!",
      "$ Ę",
      "$ &)",
      "$ &*",
      "$ &+",
      "$ )&&",
      "$ #&&",
      "$ &&%&(",
      "$ &&(&",
      "$ &&$&(",
      "$ ğ&&",
      "$ &&)&%",
      "$ &)&&&&",
      "$ #&&\"",
      "$ *&&!",
      "$ (&&ğ",
      "% ė",
      "% &)",
      "% $&&",
      "% \"&&",
      "% +&&",
      "% &&$&(",
      "% %&&)",
      "% '&&\"",
      "% #&&*",
      "% Ğ&&&&",
      "% '&&)&",
      "% '&&#&%",
      "% '&&#&",
      "& Ė",
      "& ĀĀĚ",
      "' Ė",
      "' Ě",
      "' &$",
      "' &#",
      "' !&&",
      "' *(",
      "' '&&+",
      "' *&&*",
      "( &%&&&&",
      "( &&'&(",
      "( &&(&",
      "( '&&&&&",
      "( ğ&&&&",
      "( \"&&*",
      "( &%&&%&",
      ") ė",
      ") Ę",
      ") Ě",
      ") &&%&$",
      ") &&$&%",
      ") &&$&(",
      ") ($",
      ") ((",
      ") %)",
      ") )$",
      ") +&&&&",
      ") ĀĀ&Ā",
      ") ĀĀ)Ā",
      "* ě",
      "* &$",
      "* &&'&",
      "* )&&",
      "* *&&",
      "* ''",
      "* &&$&'",
      "* &&(&'",
      "* &&$&",
      "* &&%&#",
      "* ($",
      "* #'",
      "* )(",
      "* &&)&'",
      "* #$",
      "* \")",
      "* *+",
      "* \"&&+",
      "* %&&)&(",
      "+ ę"
    ]
  }
}