{
  "version": "1.0",
  "truncation": null,
  "padding": null,
  "added_tokens": [],
  "normalizer": null,
  "pre_tokenizer": {
    "type": "ByteLevel",
    "add_prefix_space": false,
    "trim_offsets": true,
    "use_regex": true
  },
  "post_processor": {
    "type": "ByteLevel",
    "add_prefix_space": true,
    "trim_offsets": false,
    "use_regex": true
  },
  "decoder": {
    "type": "ByteLevel",
    "add_prefix_space": true,
    "trim_offsets": true,
    "use_regex": true
  },
  "model": {
    "type": "BPE",
    "dropout": null,
    "unk_token": null,
    "continuing_subword_prefix": null,
    "end_of_word_suffix": null,
    "fuse_unk": false,
    "byte_fallback": false,
    "ignore_merges": false,
    "vocab": {
      "\u0000": 0,
      "\u0001": 1,
      "\u0002": 2,
      "\u0003": 3,
      "\u0004": 4,
      "\u0005": 5,
      "\u0006": 6,
      "\u0007": 7,
      "\b": 8,
      "\t": 9,
      "\n": 10,
      "\u000b": 11,
      "\f": 12,
      "\r": 13,
      "\u000e": 14,
      "\u000f": 15,
      "\u0010": 16,
      "\u0011": 17,
      "\u0012": 18,
      "\u0013": 19,
      "\u0014": 20,
      "\u0015": 21,
      "\u0016": 22,
      "\u0017": 23,
      "\u0018": 24,
      "\u0019": 25,
      "\u001a": 26,
      "\u001b": 27,
      "\u001c": 28,
      "\u001d": 29,
      "\u001e": 30,
      "\u001f": 31,
      " ": 32,
      "!": 33,
      "\"": 34,
      "#": 35,
      "$": 36,
      "%": 37,
      "&": 38,
      "'": 39,
      "(": 40,
      ")": 41,
      "*": 42,
      "+": 43,
      ",": 44,
      "-": 45,
      ".": 46,
      "/": 47,
      "0": 48,
      "1": 49,
      "2": 50,
      "3": 51,
      "4": 52,
      "5": 53,
      "6": 54,
      "7": 55,
      "8": 56,
      "9": 57,
      ":": 58,
      ";": 59,
      "<": 60,
      "=": 61,
      ">": 62,
      "?": 63,
      "@": 64,
      "Ā": 65,
      "ā": 66,
      "Ă": 67,
      "ă": 68,
      "Ą": 69,
      "ą": 70,
      "Ć": 71,
      "ć": 72,
      "Ĉ": 73,
      "ĉ": 74,
      "Ċ": 75,
      "ċ": 76,
      "Č": 77,
      "č": 78,
      "Ď": 79,
      "ď": 80,
      "Đ": 81,
      "đ": 82,
      "Ē": 83,
      "ē": 84,
      "Ĕ": 85,
      "ĕ": 86,
      "Ė": 87,
      "ė": 88,
      "Ę": 89,
      "ę": 90,
      "Ě": 91,
      "ě": 92,
      "Ĝ": 93,
      "ĝ": 94,
      "Ğ": 95,
      "ğ": 96,
      "Ġ": 97,
      "ĠĠ": 98,
      "Ġ!": 99,
      "Ġğ": 100,
      "ĠĠĠĠ": 101,
      "Ġ\"": 102,
      "ĠĞ": 103,
      "ĠĠĠ": 104,
      "ĀĀ": 105,
      "Ġĝ": 106,
      "Ġ#": 107,
      "Ġ$": 108,
      "ĠĠĠĠĠ": 109,
      "ĠĜ": 110,
      "Ġ!!": 111,
      "Ġğğ": 112,
      "Ġě": 113,
      "Ġ%": 114,
      "ĠĠĠĠĠĠĠĠ": 115,
      "Ġğ!": 116,
      "Ġ!ğ": 117,
      "Ġ&": 118,
      "ĠĚ": 119,
      "Ġ\"!": 120,
      "ĠğĞ": 121,
      "ĠĞğ": 122,
      "Ġ!\"": 123,
      "Ġ'": 124,
      "Ġ\"ğ": 125,
      "Ġę": 126,
      "ĠĞ!": 127,
      "Ġğ\"": 128,
      "Ġ!Ğ": 129,
      "ĠĠĠĠĠĠ": 130,
      "Ġ(": 131,
      "ĠĘ": 132,
      "Ġ\"\"": 133,
      "Ā!": 134,
      "ĠĞĞ": 135,
      "Āğ": 136,
      "ĠĞ\"": 137,
      "ĀĀğ": 138,
      "Ā\"": 139,
      "Ġ\"Ğ": 140,
      "Ġ#!": 141,
      "ĀĞ": 142,
      "Āĝ": 143,
      "ĀĀĞ": 144,
      "Ġĝğ": 145,
      "#ğ": 146,
      "Ġğĝ": 147,
      "Ġĝ!": 148,
      "ĀĀ!": 149,
      "Ġ)": 150,
      "Ġ#ğ": 151,
      "Ġ!ĝ": 152,
      "Ġė": 153,
      "#!": 154,
      "ĀĀĝ": 155,
      "ĀĀ\"": 156,
      "ĀĜ": 157,
      "Ġ!!ğ": 158,
      "Ā$": 159,
      "Ā#": 160,
      "Ġğğ!": 161,
      "ĠĠĠĠĠĠĠ": 162,
      "Ġ!#": 163,
      "Ġğ!!": 164,
      "Ġ!ğğ": 165,
      "ĠĞĝ": 166,
      "Ġ#\"": 167,
      "ĠĝĞ": 168,
      "Ġğ#": 169,
      "Ġ*": 170,
      "ĀĀĜ": 171,
      "Ġğ!ğ": 172,
      "ĀĀ#": 173,
      "Ġ!!!": 174,
      "Āě": 175,
      "ĠĖ": 176,
      "Ġğğğ": 177,
      "ĠĠĠĠĠĠĠĠĠĠĠ": 178,
      "Ā%": 179,
      "Ġĝ\"": 180,
      "Ġ#Ğ": 181,
      "Ġ!ğ!": 182,
      "Ġ\"ĝ": 183,
      "$ğ": 184,
      "Ĝ!": 185,
      "$!": 186,
      "ĀĀ$": 187,
      "ĀĀě": 188,
      "ĠĠĠĠĠĠĠĠĠĠĠĠ": 189,
      "Ā&": 190,
      "Ġ\"#": 191,
      "Ĝğ": 192,
      "ĀĚ": 193,
      "ĠĜğ": 194,
      "Ġ$ğ": 195,
      "ĝğ": 196,
      "Ġ$!": 197,
      "Ĝ\"": 198,
      "Ġ+": 199,
      "ĀĀ%": 200,
      "$Ğ": 201,
      "$\"": 202,
      "ĠĜ!": 203,
      "ĝ!": 204,
      "ĀĀĚ": 205,
      "#\"": 206,
      "Ğğ": 207,
      "Ġ$\"": 208,
      "Ġĕ": 209,
      "ĜĞ": 210,
      "Āę": 211,
      "ĠĠĠĠĠĠĠĠĠĠ": 212,
      "Ğ!": 213,
      "ĀĀ&": 214,
      "#Ğ": 215,
      "Ā'": 216,
      "ěğ": 217,
      "Ġ\"!ğ": 218,
      "$ĀĀ": 219,
      "ĝ\"": 220,
      "ĠĜ\"": 221,
      "#ĀĀ": 222,
      "ĝĞ": 223,
      "ĠĞğ!": 224,
      "Ğ\"": 225,
      "ğğ": 226,
      "Ġ!!Ğ": 227,
      "ĠĀĀ": 228,
      "%!": 229,
      "ě!": 230,
      "Ġğğ\"": 231,
      "%ĀĀ": 232,
      "ě\"": 233,
      "%ğ": 234,
      "Ġ!ğĞ": 235,
      "ĀĘ": 236,
      "Ġ!\"ğ": 237,
      "Ġ\"ğğ": 238,
      "!ğ": 239,
      "Ġğ!\"": 240,
      "ĠĞ#": 241,
      "!!": 242,
      "&ĀĀ": 243,
      "'ĀĀ": 244,
      "Ĝ#": 245,
      "ĠğĞ!": 246,
      "$#": 247,
      "Ĝĝ": 248,
      "Ġ,": 249,
      "\"\"": 250,
      "Ġğ\"!": 251,
      "%\"": 252,
      "ĠğĞğ": 253,
      "ĠĔ": 254,
      "ĠĞ!!": 255,
      "ĠĠĠĠĠĠĠĠĠĠĠĠĠĠĠĠ": 256,
      "\"ğ": 257,
      "Ġ!Ğğ": 258,
      "ĝ#": 259,
      "Ġ!\"!": 260,
      "ğ!": 261,
      "ĞĞ": 262,
      "$ĝ": 263,
      "%Ğ": 264,
      "\"!": 265,
      "##": 266,
      "Ā(": 267,
      "ğĞ": 268,
      "Ġ\"!!": 269,
      "Āė": 270,
      "Ěğ": 271,
      "ěĞ": 272,
      "ĝĝ": 273,
      "!Ğ": 274,
      "(ĀĀ": 275,
      "Ġ!Ğ!": 276,
      ")ĀĀ": 277,
      "ĠğğĞ": 278,
      "Ġ!!\"": 279,
      "Ġğ\"ğ": 280,
      "!\"": 281,
      "ĠĞ!ğ": 282,
      "\"Ğ": 283,
      "ĠğĜ": 284,
      "ĠĜĞ": 285,
      "ĠĞğğ": 286,
      "&!": 287,
      "Ġ##": 288,
      "Ě\"": 289,
      "Ġ!Ĝ": 290,
      "ěĝ": 291,
      "Ě!": 292,
      "Ġ\"\"ğ": 293,
      "Ġ\"ğ!": 294,
      "*ĀĀ": 295,
      "Ā)": 296,
      "ğ\"": 297,
      "Ġ-": 298,
      "Ġğ!Ğ": 299,
      "Ġ#ĝ": 300,
      "$$": 301,
      "Ġ!ğ\"": 302,
      "ĠĞğ\"": 303,
      "%#": 304,
      "Ġ\"!Ğ": 305,
      "ĠĞĞ!": 306,
      "Ġĝĝ": 307,
      "&ğ": 308,
      "Ğĝ": 309,
      "ě#": 310,
      "ğ#": 311,
      "!#": 312,
      "ĜĜ": 313,
      "ĀĀ'": 314,
      "%ĝ": 315,
      "ĠĀ": 316,
      "Ġĝ#": 317,
      "!ĝ": 318,
      "\"#": 319,
      "ĀĀę": 320,
      "ĠĞ!\"": 321,
      "ĠĠĠĠĠĠĠĠĠ": 322,
      "Ġ\"ğĞ": 323,
      "Ġ!$": 324,
      "ĀĀğĀ": 325,
      "%$": 326,
      "&\"": 327,
      "ĀĀĘ": 328,
      "ĀĀĞĀ": 329,
      "ĀĀ\"Ā": 330,
      "Ġ\"$": 331,
      "ĠĞ\"!": 332,
      "ęğ": 333,
      "ĀĀ(": 334,
      "ĚĞ": 335,
      "ĠĞĜ": 336,
      "\"ĝ": 337,
      "Ğ#": 338,
      "Ġ#!ğ": 339,
      "Ġĝğ!": 340,
      "ě$": 341,
      "ĠĠĠĠĠĠĠĠĠĠĠĠĠ": 342,
      "Ġğ$": 343,
      "Ġē": 344,
      "Ġ!\"Ğ": 345,
      "Ě#": 346,
      "Ġğ\"\"": 347,
      "Ĝ$": 348,
      "&Ğ": 349,
      "'!": 350,
      "Ěĝ": 351,
      "Ġ!ĞĞ": 352,
      "#ĝ": 353,
      "ĠğĞ\"": 354,
      "ĠĞĞğ": 355,
      "Ġ\"Ğğ": 356,
      "'ğ": 357,
      "Ġ$Ğ": 358,
      "ĀĀĝĀ": 359,
      "Ġ%ğ": 360,
      "Ġ.": 361,
      "#$": 362,
      "ĠĞ$": 363,
      "ěĜ": 364,
      "Ġ!!ĝ": 365,
      "ę!": 366,
      "ĀĀė": 367,
      "Ġĝ!!": 368,
      "Ġ#ğğ": 369,
      "ĀĀ!Ā": 370,
      "ĝĜ": 371,
      "\"$": 372,
      "ęĞ": 373,
      "ěě": 374,
      "ĝ$": 375,
      "Ġě!": 376,
      "ĠĞ\"ğ": 377,
      "ĀĀ)": 378,
      "Ġ\"\"!": 379,
      "Ġğğ#": 380,
      "'\"": 381,
      "Ġ!#ğ": 382,
      "Ġ!ğĝ": 383,
      "&#": 384,
      "Ġğĝ!": 385,
      "ę\"": 386,
      "Ġğ!#": 387,
      "Ġğ\"Ğ": 388,
      "Ġ!\"\"": 389,
      "&$": 390,
      "&ĝ": 391,
      "#Ĝ": 392,
      "Ġěğ": 393,
      "Ġ%!": 394,
      "ĚĜ": 395,
      "Ġ\"Ĝ": 396,
      "ĀĀĖ": 397,
      "ĠğĞĞ": 398,
      "Ġ\"Ğ!": 399,
      "ĠěĞ": 400,
      "Ġ#!!": 401,
      "Ġĝğğ": 402,
      "ĠĒ": 403,
      "%Ĝ": 404,
      "ĀĀ#Ā": 405,
      "ĠĜĝ": 406,
      "\"%": 407,
      "ę#": 408,
      "Ġ!Ğ\"": 409,
      "ĠĝĞ!": 410,
      "'Ğ": 411,
      "ĀĀĕ": 412,
      "Ġ\"!ĝ": 413,
      "ĠĞĞ\"": 414,
      "Ġ#!Ğ": 415,
      "Ġğĝğ": 416,
      "%%": 417,
      "\"Ĝ": 418,
      "ęĝ": 419,
      "ğĝ": 420,
      "Ġ#$": 421,
      "Ġ\"\"Ğ": 422,
      "ĠĞĝ!": 423,
      "ĀĀĜĀ": 424,
      "ğĜ": 425,
      "Ġ#\"ğ": 426,
      "!$": 427,
      "ĠĞ!Ğ": 428,
      "Ġ\"ĞĞ": 429,
      "Ġ!ĝ!": 430,
      "(!": 431,
      "ĘĞ": 432,
      "Ġğě": 433,
      "Ęĝ": 434,
      "Ġĝ$": 435,
      "Ġ$ĝ": 436,
      "ĠĞğĞ": 437,
      "Ġ\"!\"": 438,
      "'#": 439,
      "+ĀĀ": 440,
      "Ę!": 441,
      "Ęğ": 442,
      "Ġ/": 443,
      "Ġ\"#ğ": 444,
      "Ġ$#": 445,
      "ĠğĞ#": 446,
      "Ġ\"ğ\"": 447,
      "Ġĝğ\"": 448,
      "ĀĀěĀ": 449,
      "Ğ$": 450,
      "(ğ": 451,
      "Ġğğĝ": 452,
      "(\"": 453,
      "ĠĝĜ": 454,
      "ĀĀ+": 455,
      "Ġ%Ğ": 456,
      "&&": 457,
      "ğ$": 458,
      "Ġğ#ğ": 459,
      "ĠĞğ#": 460,
      "Ġĝ!ğ": 461,
      "ĠĀ!": 462,
      "Ġ#Ĝ": 463,
      "ĠĠĠĠĠĠĠĠĠĠĠĠĠĠĠ": 464,
      "Ġ!#Ğ": 465,
      "'$": 466,
      "Ę\"": 467,
      "Ġ#ğĞ": 468,
      "Ġ!ĝğ": 469,
      "!Ĝ": 470,
      "ęĜ": 471,
      "ě%": 472,
      "ĠĀĞ": 473,
      "Ġ!#!": 474,
      "ĀĀ*": 475,
      "ĠĞ\"\"": 476,
      "Ġ!%": 477,
      "ĠĞ!#": 478,
      "Ġ!!#": 479,
      "ĀĀğĀğ": 480,
      "Ġĝ!\"": 481,
      "$%": 482,
      "Ě%": 483,
      "ĠĠĠĠĠĠĠĠĠĠĠĠĠĠĠĠĠĠ": 484,
      "Ġğ\"#": 485,
      "Ġ#ğ!": 486,
      "ėĞ": 487,
      "Ğ%": 488,
      "ĠĀğ": 489,
      "Ġ!ğ#": 490,
      "Ġ\"ğĝ": 491,
      "ĀĀğĀĞ": 492,
      "ĞĜ": 493,
      "ĀĀ!Ā!": 494,
      "&Ĝ": 495,
      "Ġğ%": 496,
      "ĀĀ-": 497,
      "(#": 498,
      "ğ%": 499,
      "ĠĜ#": 500,
      "ĀĀğĀ!": 501,
      "!%": 502,
      "ęě": 503,
      "Ġğ!ĝ": 504,
      "Ġğ#!": 505,
      "Ġĝ\"!": 506,
      "ěĚ": 507,
      "ĠĀ\"": 508,
      "ĀĀğĀ\"": 509,
      "Ĝ%": 510,
      "Ġ\"#!": 511,
      "ĠĞ#!": 512,
      "Ġ$$": 513,
      "Ġě\"": 514,
      "ĀĀ%Ā": 515,
      "ė!": 516,
      "ĀĀĞĀ!": 517,
      "Ġğĝ\"": 518,
      "ĀĀ$Ā": 519,
      "&%": 520,
      "ĘĜ": 521,
      "Ě$": 522,
      "ĝ%": 523,
      "ĝě": 524,
      "Ġđ": 525,
      "Ġ!!Ĝ": 526,
      "#%": 527,
      "ę$": 528,
      "Ĝě": 529,
      "ğě": 530,
      "Ġ\"ě": 531,
      "ĀĀĔ": 532,
      "Ġ!\"ĝ": 533,
      "ĀĀ!Āğ": 534,
      ")ğ": 535,
      "ĀĀ.": 536,
      "Ġ!Ğĝ": 537,
      "Ġ\"\"ĝ": 538,
      "ĀĀĝĀ!": 539,
      "ĠĞĝğ": 540,
      "Ġğ#\"": 541,
      ")!": 542,
      "Ġ##ğ": 543,
      "ĀĀ!Ā\"": 544,
      "Ěě": 545,
      "Ġ\"%": 546,
      "ĀĀ,": 547,
      "ĀĀĞĀ\"": 548,
      "ĀĀĝĀğ": 549,
      "Ġ!#\"": 550,
      "Ġ#\"!": 551,
      "ĠĝĞğ": 552,
      "ĀĀĜĀ!": 553,
      "#ě": 554,
      "'&": 555,
      "(Ğ": 556,
      "Ġ!ě": 557,
      "Ġ#!ĝ": 558,
      "ĀĀĞĀğ": 559,
      "ĀĀğĀĝ": 560,
      "ĀĀğĀĜ": 561,
      "($": 562,
      "ĠĀĝ": 563,
      "Ġ!ğĜ": 564,
      "ĠĝĞ\"": 565,
      "Ġ\"#Ğ": 566,
      "(ĝ": 567,
      "ė\"": 568,
      "ĀĀ/": 569,
      "ĠĠĠĠĠĠĠĠĠĠĠĠĠĠĠĠĠĠĠĠ": 570,
      "ĠğĝĞ": 571,
      "ĀĀ&Ā": 572,
      "Ě&": 573,
      "Ġ%\"": 574,
      "Ġ\"\"\"": 575,
      "ĀĀĞĀĝ": 576,
      "Ġğ#Ğ": 577,
      "Ġ\"ĝğ": 578,
      "ĀĀĚĀ": 579,
      "!ě": 580,
      "$Ĝ": 581,
      "&ě": 582,
      "'ĝ": 583,
      ")\"": 584,
      "ėĝ": 585,
      "ę%": 586,
      "Ġ0": 587,
      "ĀĀĒ": 588,
      "ĠĞĞĞ": 589,
      "Ġ!ĝĞ": 590,
      "Ġ$ğğ": 591,
      "ėğ": 592,
      "ĀĀē": 593,
      "Ġěĝ": 594,
      "Ġ#ĞĞ": 595,
      "Ġ#Ğğ": 596,
      "ĠĜ!!": 597,
      "#&": 598,
      "ĠĞ%": 599,
      "ĀĀĝĀ\"": 600,
      "ĀĀĝĀĝ": 601,
      "(%": 602,
      "Ğě": 603,
      "\"&": 604,
      "Ę$": 605,
      "ĠĞě": 606,
      "ĠĠĠĠĠĠĠĠĠĠĠĠĠĠĠĠĠĠĠ": 607,
      "ĀĀ!ĀĞ": 608,
      "Ġ#\"Ğ": 609,
      "Ġ\"ĝ!": 610,
      "Ġ$!ğ": 611,
      "Ę#": 612,
      "Ġĝ#!": 613,
      "Ġĝĝğ": 614,
      "ĠĞ\"Ğ": 615,
      "ĠĜğ!": 616,
      "!&": 617,
      "Ġĝĝ!": 618,
      "ĠğĞĝ": 619,
      "ĀĀ\"Āğ": 620,
      "ĀĀ\"Āĝ": 621,
      "$&": 622,
      "ĠĜĜ": 623,
      "Ġğğ$": 624,
      "ĠĀě": 625,
      "Ġ$Ğğ": 626,
      "Ġ!\"#": 627,
      "Ġ!Ğ#": 628,
      "ĠĞĞ#": 629,
      "ĠĞ\"#": 630,
      "Ġ\"Ğ\"": 631,
      "Ġ!ĝ\"": 632,
      "Ġĝ\"ğ": 633,
      "ĠĜğ\"": 634,
      "'%": 635,
      "'Ĝ": 636,
      "Ġ#%": 637,
      "Ġ\"Ğĝ": 638,
      "ĀĀ!Āĝ": 639,
      "''": 640,
      "*!": 641,
      "Ğ&": 642,
      "ĠĞ!$": 643,
      "\"ě": 644,
      "ĀĖ": 645,
      "ėĜ": 646,
      "Ġğ!$": 647,
      "Ġ#!\"": 648,
      "ĀĀĞĀĞ": 649,
      "\"Ě": 650,
      "Ā,": 651,
      "ĖĞ": 652,
      "ĞĚ": 653,
      "ğĚ": 654,
      "ĠĞ#\"": 655,
      "ĀĀ!ĀĜ": 656,
      "ĠĞĝ\"": 657,
      "Ęě": 658,
      "ĜĚ": 659,
      "Ġ!$ğ": 660,
      "Ġğ$ğ": 661,
      "ĠĞ!ĝ": 662,
      "*\"": 663,
      "ĠĐ": 664,
      "ĠĞ#ğ": 665,
      "ĠĚğ": 666,
      "Ġ\"!Ĝ": 667,
      "Ġ$\"ğ": 668,
      "$ě": 669,
      "ĝ&": 670,
      "Ġĝě": 671,
      "Ġ%#": 672,
      "Ġğ\"ĝ": 673,
      "Ġ#Ğ!": 674,
      "Ā+": 675,
      "Ė!": 676,
      "ęĚ": 677,
      "Ġĝğ#": 678,
      "ĀĀ\"Ā!": 679,
      "Ġ#Ğĝ": 680,
      "Ġ$!!": 681,
      "Ġğ$!": 682,
      "ĀĀĞĀě": 683,
      "ĀĀ!Ā$": 684,
      "ĀĀ\"Ā\"": 685,
      "ĀĀ\"ĀĞ": 686,
      "Ġ\"ĝ\"": 687,
      "Ġ\"ĝĞ": 688,
      ",ĀĀ": 689,
      "Ā*": 690,
      "ğ'": 691,
      "ĠĀ$": 692,
      "Ġ\"$ğ": 693,
      "ĠĞğ$": 694,
      "Ġ\"ğ#": 695,
      "Ġ!#ĝ": 696,
      "Ġĝ\"\"": 697,
      "Ėě": 698,
      "ĠĜĞ!": 699,
      "Ġ&!": 700,
      "Ġ\"!#": 701,
      "ĀĀğĀě": 702,
      "ĀĀĞĀ#": 703,
      "('": 704,
      "Ėĝ": 705,
      "ę&": 706,
      "Ġĝ#\"": 707,
      "Ġ\"ğĜ": 708,
      "Ġ#ğĜ": 709,
      "Ġ!ĝĝ": 710,
      "ĀĀ\"ĀĜ": 711,
      "ĀĀ#Ā\"": 712,
      ")#": 713,
      "ĕĞ": 714,
      "Ġ!Ĝ!": 715,
      "ĀĀđ": 716,
      "Ġĝĝ\"": 717,
      "Ġ#ě": 718,
      "Ġ$Ĝ": 719,
      "ĠĞğĝ": 720,
      "ĀĀĝĀĜ": 721,
      "Ġ\"#ĝ": 722,
      "Ġ$ğĞ": 723,
      "ĠĜ!\"": 724,
      "#Ě": 725,
      "%&": 726,
      ")$": 727,
      "Ėğ": 728,
      "ĠğĜğ": 729,
      "Ġ##!": 730,
      "Ġ!!$": 731,
      "Ġ%ĝ": 732,
      "Ġ!ğ$": 733,
      "ĠĞ\"ĝ": 734,
      "ĠĝğĞ": 735,
      "Ġĝ!$": 736,
      "Ġ!ĝ#": 737,
      "Ġ$!Ğ": 738,
      "ĠĜ!ğ": 739,
      "\"'": 740,
      "ĠĀĜ": 741,
      "Ġ!Ě": 742,
      "Ġ!Ĝğ": 743,
      "ĠğĜ\"": 744,
      "ĀĀğĀ$": 745,
      "ĀĀĝĀĞ": 746,
      "Ġğ##": 747,
      "ĠĜ\"!": 748,
      "%ě": 749,
      ")Ğ": 750,
      "*#": 751,
      "Ġğ$Ğ": 752,
      "Ġ\"Ĝ!": 753,
      "Ġ#$!": 754,
      "ĠğğĜ": 755,
      "ĀĀ#Āĝ": 756,
      "ě&": 757,
      "Ğę": 758,
      "Ġ!&": 759,
      "ĠğĚ": 760,
      "Ġě#": 761,
      "ĀĀğĀ%": 762,
      "ĀĀĞĀ%": 763,
      "Ġĝ!Ğ": 764,
      "Ġĝ\"#": 765,
      "Ġ$\"!": 766,
      ")&": 767,
      "ėĚ": 768,
      "Ĝę": 769,
      "ğ&": 770,
      "ĠĀ#": 771,
      "Ġ!$!": 772,
      "ĠğĜ!": 773,
      "Ġĝ!#": 774,
      "Ġ#ğĝ": 775,
      "ĀĀĜĀĝ": 776,
      "ĠĜğğ": 777,
      "Ġ$\"Ğ": 778,
      "!Ě": 779,
      "*$": 780,
      "+!": 781,
      "ĕĝ": 782,
      "ęę": 783,
      "Ĝ&": 784,
      "Ġğ$\"": 785,
      "Ġ\"Ě": 786,
      "ĀĀğĀ#": 787,
      "Ġ\"Ğ#": 788,
      "Ġğĝ#": 789,
      "ĀĀ!Ā%": 790,
      "Ġ#ğ\"": 791,
      "ĀĀ#Ā!": 792,
      "Ġ\"ĝĝ": 793,
      "Ġ\"#\"": 794,
      "ĠĠĠĠĠĠĠĠĠĠĠĠĠĠĠĠĠĠĠĠĠĠĠĠĠĠĠĠĠĠĠĠ": 795,
      "ĕĜ": 796,
      "Ė\"": 797,
      "ĖĜ": 798,
      "ĝĚ": 799,
      "Ġ!'": 800,
      "Ġ\"$Ğ": 801,
      "ĠĞĜ!": 802,
      "ĠĞ$!": 803,
      "Ġĝ#ğ": 804,
      "Ġ#ĝ!": 805,
      "Ġ&ğ": 806,
      "Ġğ\"$": 807,
      "Ġ\"\"#": 808,
      "ĀĀğĀĚ": 809,
      "ĠĝĞĞ": 810,
      "ĀĀěĀ!": 811,
      "ĠĜ\"ğ": 812,
      "#(": 813,
      "(&": 814,
      ")%": 815,
      "ėě": 816,
      "ěę": 817,
      "ĠĞĜğ": 818,
      "ĠĜ$": 819,
      "Ġğ!Ĝ": 820,
      "ĠğĞ$": 821,
      "ĀĀ!Ā#": 822,
      "ĀĀ!Āě": 823,
      "ĀĀ\"Ā#": 824,
      "ĠĝĞ#": 825,
      "ĀĀĜĀĞ": 826,
      "ĀĀ#Āğ": 827,
      "ĀĀ#ĀĞ": 828,
      "ĀĀĚĀ!": 829,
      "ĠĜ\"\"": 830,
      "'ě": 831,
      ")ĝ": 832,
      "+\"": 833,
      "Ġğ&": 834,
      "ĠĞĜ\"": 835,
      "ĠĞ#Ğ": 836,
      "Ġĝ%": 837,
      "Ġ#ĝğ": 838,
      "Ġ##Ğ": 839,
      "Ġ$%": 840,
      "ĠĚ!": 841,
      "Ġ#!#": 842,
      "Ġ!##": 843,
      "ĠĞĝĞ": 844,
      "Ġ#\"\"": 845,
      "Ġ#\"ĝ": 846,
      "Ġ#Ğ\"": 847,
      "ĀĀěĀğ": 848,
      "Ġ$ğ!": 849,
      "(Ĝ": 850,
      "ė#": 851,
      "Ġ1": 852,
      "Ġ\"&": 853,
      "ĠĜĞğ": 854,
      "ĠĞĞĝ": 855,
      "ĀĀĞĀĜ": 856,
      "ĀĀĝĀ#": 857,
      "ĀĀĜĀğ": 858,
      "ĀĀ#Ā$": 859,
      "ĀĀ$Āĝ": 860,
      "ĠĜğ#": 861,
      "Ġ$!ĝ": 862,
      "ĀĀĚĀğ": 863,
      "!'": 864,
      "))": 865,
      "*Ğ": 866,
      "Ę&": 867,
      "ĘĚ": 868,
      "Ġ%!ğ": 869,
      "ĀĀĞĀ$": 870,
      "ĀĀĝĀ$": 871,
      "Ġğ#ĝ": 872,
      "ĀĀ$Ā\"": 873,
      "ĀĀ%Āğ": 874,
      "ĕ\"": 875,
      "Ğ'": 876,
      "Ġ!Ĝ\"": 877,
      "Ġ!$Ğ": 878,
      "Ġ!$\"": 879,
      "Ġ\"$!": 880,
      "Ġ$#ğ": 881,
      "Ġ$Ğ!": 882,
      "ĠĜĝğ": 883,
      "ĠĜĞ\"": 884,
      "Ġ!!ě": 885,
      "ĠĠĠĠĠĠĠĠĠĠĠĠĠĠ": 886,
      "Ġ\"ğě": 887,
      "Ġ#!Ĝ": 888,
      "Ġ!ĝĜ": 889,
      "ĀĀĝĀě": 890,
      "ĀĀĜĀ\"": 891,
      "ĀĀ$Ā!": 892,
      "ĀĀ$ĀĞ": 893,
      "ĀĀěĀ\"": 894,
      "Ġ##ĝ": 895,
      "'(": 896,
      "'Ā": 897,
      ")(": 898,
      "Ę%": 899,
      "ĠĞ$Ğ": 900,
      "ĀĀĐ": 901,
      "ĠĝĝĞ": 902,
      "Ġ#&": 903,
      "Ġ#$ğ": 904,
      "Ġ##\"": 905,
      "ĠěĜ": 906,
      "Ġ%$": 907,
      "Ġğ!%": 908,
      "Ġ&\"": 909,
      "Ġ\"!ě": 910,
      "Ġ\"ĞĜ": 911,
      "Ġğĝĝ": 912,
      "ĠĞĝ#": 913,
      "Ġĝ\"Ğ": 914,
      "ĔĜ": 915,
      "ĕğ": 916,
      "Ěę": 917,
      "ĝę": 918,
      "Ġ2": 919,
      "Ġ$ě": 920,
      "Ġ$#Ğ": 921,
      "Ġę!": 922,
      "ĀĀ\"Ā$": 923,
      "ĀĀ\"ĀĚ": 924,
      "ĀĀĜĀĜ": 925,
      "Ġĝ\"$": 926,
      "ĀĀěĀĜ": 927,
      "%'": 928,
      ")'": 929,
      "ĕ!": 930,
      "Ęę": 931,
      "ĠĀĚ": 932,
      "Ġ\"Ĝğ": 933,
      "ĀĀď": 934,
      "Ġ#ĝ\"": 935,
      "ĠĜĝ!": 936,
      "Ġěğğ": 937,
      "Ġ!\"Ĝ": 938,
      "Ġ!ĞĜ": 939,
      "ĀĀĜĀ#": 940,
      "ĀĀ$Āğ": 941,
      "ĀĀ%Ā\"": 942,
      "Ġ$\"ĝ": 943,
      "ĀĀ&Āĝ": 944,
      "ĠĞ##": 945,
      "ĀĀ(Ā": 946,
      "#'": 947,
      "%Ě": 948,
      "&(": 949,
      "*ğ": 950,
      "Ě'": 951,
      "ğę": 952,
      "Ġ\"ĜĞ": 953,
      "Ġ#ĝĞ": 954,
      "Ġ$$Ğ": 955,
      "Ġ!ğě": 956,
      "Ġ&$": 957,
      "ĀĀĞĀ&": 958,
      "ĀĀ!ĀĚ": 959,
      "ĀĀ#ĀĜ": 960,
      "+$": 961,
      "Ė#": 962,
      "ęĀĀ": 963,
      "ĚĚ": 964,
      "Ĝ'": 965,
      "Ġď": 966,
      "ĠĀę": 967,
      "Ġĝ$!": 968,
      "Ġ#$Ğ": 969,
      "Ġ$ĞĞ": 970,
      "ĠĜě": 971,
      "ĠěĞğ": 972,
      "ĠĚ\"": 973,
      "ĠğĞĜ": 974,
      "Ġ'!": 975,
      "Ġ!Ğ$": 976,
      "ĀĀ#Ā#": 977,
      "ĀĀ&Āğ": 978,
      "*%": 979,
      "*(": 980,
      "ĔĞ": 981,
      "ĖĚ": 982,
      "ėĘ": 983,
      "ĝĀĀ": 984,
      "ğĘ": 985,
      "ĠĀ&": 986,
      "Ġ!ěğ": 987,
      "ĠğĜĝ": 988,
      "Ġ$&": 989,
      "Ġě$": 990,
      "Ġě!!": 991,
      "Ġ\"ğ$": 992,
      "ĀĀğĀ'": 993,
      "Ġĝ!ĝ": 994,
      "Ġ#\"#": 995,
      "ĀĀĜĀ$": 996,
      "&'": 997,
      "+&": 998,
      "Āĕ": 999,
      "ě(": 1000,
      "ĝ'": 1001,
      "Ġ!%Ğ": 1002,
      "ĠğĜĞ": 1003,
      "ĠĝĜ!": 1004,
      "Ġ#Ĝğ": 1005,
      "Ġ$$ğ": 1006,
      "Ġě!ğ": 1007,
      "Ġ%\"ğ": 1008,
      "Ġ\"!$": 1009,
      "ĠęĞ": 1010,
      "Ġĝğĝ": 1011,
      "ĀĀ\"Ā%": 1012,
      "ĀĀěĀĞ": 1013,
      "Ġ$ğĝ": 1014,
      "$'": 1015,
      "+%": 1016,
      "+ğ": 1017,
      "Ā.": 1018,
      "Ė$": 1019,
      "ėę": 1020,
      "ĘĀĀ": 1021,
      "ĠĀ'": 1022,
      "Ġ!ě\"": 1023,
      "Ġ!$#": 1024,
      "Ġ!Ĝĝ": 1025,
      "Ġ\"Ĝ\"": 1026,
      "ĠĞĚ": 1027,
      "ĠĝĜğ": 1028,
      "ĠĜĜ!": 1029,
      "ĠĜĝ\"": 1030,
      "ĠĚĞ": 1031,
      "Ġ!\"ě": 1032,
      "Ġ'\"": 1033,
      "Ġ\"\"Ĝ": 1034,
      "Ġ#\"Ĝ": 1035,
      "ĀĀěĀ$": 1036,
      "ĀĀěĀ#": 1037,
      "ĠĜ!Ğ": 1038,
      "ĀĀ&Ā!": 1039,
      "ĠĜ\"#": 1040,
      "ĠĞ#ĝ": 1041,
      "\"(": 1042,
      "'ę": 1043,
      "*'": 1044,
      "Ġ$%ğ": 1045,
      "Ġğğě": 1046,
      "ĠĚĜ": 1047,
      "Ġ!\"$": 1048,
      "ĠĞĞ$": 1049,
      "Ġ#ğ#": 1050,
      "ĀĀ\"Āě": 1051,
      "ĠĜğĞ": 1052,
      "Ġ$!\"": 1053,
      "ĀĀ%ĀĞ": 1054,
      "ĀĀ%Āĝ": 1055,
      "$ĀĀę": 1056,
      "!(": 1057,
      "!ĀĀ": 1058,
      "%(": 1059,
      "(ě": 1060,
      "Ā#!": 1061,
      "ė$": 1062,
      "ėė": 1063,
      "ĝĘ": 1064,
      "ĞĀĀ": 1065,
      "Ġğ%!": 1066,
      "Ġğ$#": 1067,
      "Ġ\"$\"": 1068,
      "ĠĞ$ğ": 1069,
      "Ġ#ĝĝ": 1070,
      "Ġ$#!": 1071,
      "ĠĜĚ": 1072,
      "Ġğğ%": 1073,
      "Ġğ\"Ĝ": 1074,
      "ĀĀĞĀę": 1075,
      "ĀĀ!Āę": 1076,
      "Ġĝ\"ĝ": 1077,
      "ĀĀ$ĀĜ": 1078,
      "ĀĀ$Ā#": 1079,
      "Ġ$ğ\"": 1080,
      "ĀĀ%Ā!": 1081,
      "ĀĀĚĀĞ": 1082,
      "ĀĀęĀ": 1083,
      "$Ě": 1084,
      ")Ĝ": 1085,
      "-ĀĀ": 1086,
      "ĕ#": 1087,
      "Ėę": 1088,
      "ė%": 1089,
      "Ę'": 1090,
      "ĜĘ": 1091,
      "ĝ(": 1092,
      "ĠĎ": 1093,
      "Ġ!ĜĞ": 1094,
      "Ġ!$ĝ": 1095,
      "Ġ\"ę": 1096,
      "Ġĝ#Ğ": 1097,
      "Ġĝ##": 1098,
      "Ġ$ĝğ": 1099,
      "Ġěĝ!": 1100,
      "Ġěğ\"": 1101,
      "Ġęğ": 1102,
      "ĠĞ\"Ĝ": 1103,
      "ĀĀğĀę": 1104,
      "ĀĀğĀĘ": 1105,
      "Ġ!#Ĝ": 1106,
      "ĀĀĜĀ&": 1107,
      "Ġ#ĞĜ": 1108,
      "ĀĀ$Āě": 1109,
      "ĀĀ%Āě": 1110,
      "ĀĀĚĀĝ": 1111,
      "ĀĀĚĀ#": 1112,
      "\"ę": 1113,
      "\"ĀĀ": 1114,
      "*&": 1115,
      ".ĀĀ": 1116,
      "Ā#ğ": 1117,
      "ēĝ": 1118,
      "ĕě": 1119,
      "Ě(": 1120,
      "Ğ(": 1121,
      "ĠĀ%": 1122,
      "ĠğĜ#": 1123,
      "Ġ\"%Ğ": 1124,
      "ĠĞ$#": 1125,
      "ĠĜ#ğ": 1126,
      "ĠĜ#!": 1127,
      "Ġ%Ĝ": 1128,
      "Ġ%Ğğ": 1129,
      "Ġ&ĝ": 1130,
      "ĠĞğ%": 1131,
      "ĠĞğĜ": 1132,
      "ĀĀĝĀ&": 1133,
      "ĠĞĝĝ": 1134,
      "ĀĀĜĀě": 1135,
      "ĀĀěĀĝ": 1136,
      "Ġ\"#Ĝ": 1137,
      "ĀĀ%Ā#": 1138,
      "ĀĀ&Ā\"": 1139,
      "ĀĀ'Ā": 1140,
      "Ġ\"$Ĝ": 1141,
      "Ġ%ğĝ": 1142,
      "!ę": 1143,
      "$ę": 1144,
      ",#": 1145,
      "ĀĔ": 1146,
      "Ĕĝ": 1147,
      "ĕĚ": 1148,
      "ĚĀĀ": 1149,
      "Ġ!Ĝ#": 1150,
      "Ġğę": 1151,
      "ĠĞ$\"": 1152,
      "ĀĀĎ": 1153,
      "ĠĝĚ": 1154,
      "Ġ#ĜĞ": 1155,
      "Ġ#$ĝ": 1156,
      "Ġ$#ĝ": 1157,
      "Ġ%Ğ!": 1158,
      "Ġ%ğĞ": 1159,
      "Ġ&Ĝ": 1160,
      "Ġ&Ğ": 1161,
      "ĠĞ!%": 1162,
      "Ġ!Ğě": 1163,
      "ĠĞ\"$": 1164,
      "Ġ\"Ğě": 1165,
      "ĀĀĞĀĘ": 1166,
      "Ġĝğ$": 1167,
      "ĀĀ!Ā'": 1168,
      "Ġ\"ĝ#": 1169,
      "ĠĜğĝ": 1170,
      "ĀĀ%Ā$": 1171,
      "%ę": 1172,
      "+#": 1173,
      "ė&": 1174,
      "ėĀĀ": 1175,
      "ĚĘ": 1176,
      "ěĀĀ": 1177,
      "ĝ)": 1178,
      "ĞĘ": 1179,
      "Ġğ%ğ": 1180,
      "Ġğ%Ğ": 1181,
      "Ġ\"ě!": 1182,
      "Ġ\"%ğ": 1183,
      "ĠĞě!": 1184,
      "Ġ$$!": 1185,
      "Ġ$ĝ!": 1186,
      "ĠĜĜ\"": 1187,
      "Ġěě": 1188,
      "Ġě\"\"": 1189,
      "Ġ%#Ğ": 1190,
      "Ġ%!!": 1191,
      "Ġ%\"Ğ": 1192,
      "Ġ%!ĝ": 1193,
      "ĠĚ#": 1194,
      "ĠĞ!Ĝ": 1195,
      "ĀĀğĀ&": 1196,
      "ĀĀĝĀ%": 1197,
      "ĀĀ\"Āę": 1198,
      "Ġğ#$": 1199,
      "ĀĀ#Āě": 1200,
      "ĀĀ#Āę": 1201,
      "ĀĀ$Ā%": 1202,
      "ĀĀ$Ā&": 1203,
      "ĀĀ$ĀĚ": 1204,
      "ĀĀ%ĀĜ": 1205,
      "ĠĜ!#": 1206,
      "ĀĀ&ĀĞ": 1207,
      "ĠĠĠĠĠĠĠĠĠĠĠĠĠĠĠĠĠĠĠĠĠĠ": 1208,
      "Ġ#ĝĜ": 1209,
      "\"*": 1210,
      "\"Ę": 1211,
      "$(": 1212,
      "(Ě": 1213,
      "ē!": 1214,
      "Ĕě": 1215,
      "Ė%": 1216,
      "ĘĘ": 1217,
      "Ġğě!": 1218,
      "Ġ\"ěğ": 1219,
      "ĠĞě\"": 1220,
      "Ġĝĝĝ": 1221,
      "Ġ#Ĝ!": 1222,
      "Ġ$Ğĝ": 1223,
      "ĠĜ%": 1224,
      "ĠĜĝĞ": 1225,
      "Ġ!!%": 1226,
      "Ġěĝ\"": 1227,
      "Ġěğ!": 1228,
      "Ġ%ğğ": 1229,
      "Ġ%!Ğ": 1230,
      "ĠĞĞĜ": 1231,
      "ĀĀĞĀĚ": 1232,
      "Ġĝ!%": 1233,
      "ĀĀ#Ā&": 1234,
      "ĀĀ$Āę": 1235,
      "ĀĀěĀ%": 1236,
      "ĀĀĚĀ\"": 1237,
      "Ġ$\"\"": 1238,
      "ĀĀ&Ā#": 1239,
      "ĠĜĞ#": 1240,
      "ĠĠĠĠĠĠĠĠĠĠĠĠĠĠĠĠĠĠĠĠĠĠĠĠĠ": 1241,
      "')": 1242,
      "*+": 1243,
      "*ĝ": 1244,
      "Ā-": 1245,
      "Ēĝ": 1246,
      "ĘĖ": 1247,
      "Ġ!%ğ": 1248,
      "Ġğ$ĝ": 1249,
      "ĠĞ&": 1250,
      "ĠĞĜĞ": 1251,
      "ĠĞĚğ": 1252,
      "ĠĝĜĞ": 1253,
      "Ġ#'": 1254,
      "Ġ#ěğ": 1255,
      "Ġ#%!": 1256,
      "ĠĜĝ#": 1257,
      "Ġğğ&": 1258,
      "Ġě!\"": 1259,
      "Ġě!#": 1260,
      "ĠĚĝ": 1261,
      "Ġę#": 1262,
      "ĠĘ!": 1263,
      "ĀĀğĀė": 1264,
      "ĠğĝĜ": 1265,
      "ĀĀĝĀĚ": 1266,
      "ĀĀ\"ĀĘ": 1267,
      "Ġğ#Ĝ": 1268,
      "ĀĀ#ĀĘ": 1269,
      "ĠĠĠĠĠĠĠĠĠĠĠĠĠĠĠĠĠ": 1270,
      "ĀĀĚĀ%": 1271,
      "&ĀĀĘ": 1272,
      "+'": 1273,
      "Ĕ#": 1274,
      "ĕ$": 1275,
      "ęĖ": 1276,
      "ĜĖ": 1277,
      "Ĝė": 1278,
      "ğ(": 1279,
      "Ġğě\"": 1280,
      "Ġ\"'": 1281,
      "Ġ\"Ĝĝ": 1282,
      "Ġ\"$ĝ": 1283,
      "Ġĝ&": 1284,
      "Ġĝ$ğ": 1285,
      "ĠĝĜ\"": 1286,
      "Ġĝ$\"": 1287,
      "Ġĝě\"": 1288,
      "ĠĝĜ#": 1289,
      "ĠĜĞĞ": 1290,
      "Ġě#ğ": 1291,
      "ĠěĞ!": 1292,
      "Ġěĝ#": 1293,
      "Ġ%ğ!": 1294,
      "Ġğ!ě": 1295,
      "ĠĚĞğ": 1296,
      "ĠĚĞ!": 1297,
      "ĠğĞ%": 1298,
      "Ġ'Ğ": 1299,
      "Ġ\"\"$": 1300,
      "Ġğĝ$": 1301,
      "Ġĝ!Ĝ": 1302,
      "ĀĀ!ĀĘ": 1303,
      "ĀĀĝĀ'": 1304,
      "ĀĀĝĀĘ": 1305,
      "ĀĀĜĀ%": 1306,
      "ĀĀĜĀĚ": 1307,
      "ĀĀ%ĀĚ": 1308,
      "ĀĀĚĀ$": 1309,
      "ĀĀ&ĀĜ": 1310,
      "#ĀĀ)": 1311,
      "ĀĀęĀ!": 1312,
      "!ė": 1313,
      ",\"": 1314,
      "Ĕ!": 1315,
      "Ĕ\"": 1316,
      "ĕĘ": 1317,
      "ě'": 1318,
      "ĝĖ": 1319,
      "ĠĀĘ": 1320,
      "ĠĀ(": 1321,
      "Ġ!%\"": 1322,
      "Ġğ'": 1323,
      "Ġğ%\"": 1324,
      "ĠĞ'": 1325,
      "ĠĞěğ": 1326,
      "ĠĞ%ğ": 1327,
      "ĠĜ#\"": 1328,
      "ĠĜĝĝ": 1329,
      "ĠěĜ!": 1330,
      "ĠěĞ\"": 1331,
      "Ġě\"ğ": 1332,
      "Ġ%$ğ": 1333,
      "Ġ%Ĝ!": 1334,
      "Ġ%ĝğ": 1335,
      "Ġ%$Ğ": 1336,
      "Ġ%Ğĝ": 1337,
      "Ġ(\"": 1338,
      "ĠĞĞ%": 1339,
      "ĀĀğĀ(": 1340,
      "Ġ\"Ğ$": 1341,
      "Ġ#!ě": 1342,
      "ĀĀĞĀ'": 1343,
      "ĀĀĞĀė": 1344,
      "ĠĝğĜ": 1345,
      "ĀĀ!Ā&": 1346,
      "Ġ!ĝě": 1347,
      "ĀĀ\"Ā&": 1348,
      "ĀĀ\"Ā'": 1349,
      "Ġ!#$": 1350,
      "ĠĝĞĝ": 1351,
      "ĠĜğ$": 1352,
      "Ġ$\"#": 1353,
      "ĠĜ\"ĝ": 1354,
      "%ĀĀĘ": 1355,
      "ĠĞ#$": 1356,
      "ĠĜĞĝ": 1357,
      "ĀĀĘĀ": 1358,
      "\")": 1359,
      "#ĕ": 1360,
      ",!": 1361,
      ",ğ": 1362,
      "Ĕğ": 1363,
      "Ėė": 1364,
      "ėĖ": 1365,
      "Ęė": 1366,
      "ę'": 1367,
      "Ğ)": 1368,
      "Ġ!ę": 1369,
      "Ġ!ěĝ": 1370,
      "Ġ!$$": 1371,
      "Ġ!&ğ": 1372,
      "Ġ!%ĝ": 1373,
      "Ġğ%$": 1374,
      "ĠĞěĞ": 1375,
      "ĀĀ:": 1376,
      "Ġĝę": 1377,
      "Ġ#Ě!": 1378,
      "ĠěĜ\"": 1379,
      "Ġğ!&": 1380,
      "Ġ!ğĚ": 1381,
      "Ġ!\"%": 1382,
      "Ġ'#": 1383,
      "ĠĞ\"%": 1384,
      "ĀĀĞĀ(": 1385,
      "Ġ#ğě": 1386,
      "ĠĝĞĜ": 1387,
      "ĀĀĜĀ'": 1388,
      "ĀĀ#Ā%": 1389,
      "Ġ\"ĝ$": 1390,
      "ĀĀ$Ā$": 1391,
      "Ġ\"##": 1392,
      "Ġ$ğĜ": 1393,
      "ĀĀ%Ā&": 1394,
      "ĀĀĚĀ&": 1395,
      "ĀĀ&Ā$": 1396,
      "ĠĀĀ)": 1397,
      "ĠĀĀ*": 1398,
      "ĠĜĞ$": 1399,
      "Ġ!ĜĜ": 1400,
      "\"+": 1401,
      "&Ě": 1402,
      "),": 1403,
      "+Ĝ": 1404,
      ",$": 1405,
      ",(": 1406,
      "-\"": 1407,
      "Ę(": 1408,
      "Ğ*": 1409,
      "ğ+": 1410,
      "Ġ!%!": 1411,
      "Ġ!ě!": 1412,
      "Ġ\"(": 1413,
      "Ġ\"ěĞ": 1414,
      "Ġ\"ĜĜ": 1415,
      "ĠĞĜ#": 1416,
      "Ġĝ%ğ": 1417,
      "ĠĝĚğ": 1418,
      "Ġ#Ĝ\"": 1419,
      "Ġ#%Ğ": 1420,
      "Ġ$Ĝ!": 1421,
      "Ġ$%!": 1422,
      "ĠĜ$!": 1423,
      "ĠĜĜğ": 1424,
      "Ġě\"!": 1425,
      "Ġěğ#": 1426,
      "Ġě\"ĝ": 1427,
      "Ġ%#ğ": 1428,
      "Ġ%#!": 1429,
      "Ġ%ĞĞ": 1430,
      "Ġ%#ĝ": 1431,
      "Ġ&ğğ": 1432,
      "ĠĚĞ\"": 1433,
      "Ġęĝ": 1434,
      "Ġğ\"ě": 1435,
      "Ġ(!": 1436,
      "Ġ#!$": 1437,
      "ĀĀ!Āė": 1438,
      "ĀĀĝĀę": 1439,
      "ĀĀ#ĀĚ": 1440,
      "Ġ#Ğě": 1441,
      "Ġ\"ĝĜ": 1442,
      "ĀĀěĀě": 1443,
      "ĀĀěĀ&": 1444,
      "Ġ$ğ#": 1445,
      "Ġ$ğě": 1446,
      "Ġ$!Ĝ": 1447,
      "$ĀĀė": 1448,
      "ĠĜ\"Ğ": 1449,
      "#ĀĀę": 1450,
      "ĠĀĀ-": 1451,
      "%ĀĀę": 1452,
      "(ĀĀ(": 1453,
      "Ġĝĝ$": 1454,
      "ĀĀęĀğ": 1455,
      "Ġě!$": 1456,
      "#ę": 1457,
      "$)": 1458,
      ")*": 1459,
      "*ě": 1460,
      "+Ğ": 1461,
      "-%": 1462,
      "ĔĀĀ": 1463,
      "ĕ'": 1464,
      "ĕĀĀ": 1465,
      "ĖĘ": 1466,
      "ě)": 1467,
      "ěĘ": 1468,
      "Ğė": 1469,
      "Ġ4": 1470,
      "Ġ!Ě!": 1471,
      "Ġğěğ": 1472,
      "ĠğĚĞ": 1473,
      "Ġ\"%\"": 1474,
      "Ġ\"Ěğ": 1475,
      "ĠĞę": 1476,
      "ĠĞĜĝ": 1477,
      "ĠĝĜĝ": 1478,
      "Ġĝĝ#": 1479,
      "Ġ$$\"": 1480,
      "Ġ$ĝĞ": 1481,
      "Ġ$Ğ\"": 1482,
      "Ġ$#Ĝ": 1483,
      "ĠĜ#Ğ": 1484,
      "ĠĜĜ#": 1485,
      "Ġě%": 1486,
      "ĠěğĞ": 1487,
      "Ġě!Ğ": 1488,
      "Ġ%&": 1489,
      "ĠĚğ\"": 1490,
      "ĠĞ!ě": 1491,
      "Ġğ\"%": 1492,
      "Ġ\"\"ě": 1493,
      "Ġ!ĝ$": 1494,
      "ĠĞĝĜ": 1495,
      "ĀĀĜĀĘ": 1496,
      "Ġĝ\"Ĝ": 1497,
      "Ġ#Ğ#": 1498,
      "ĀĀ$ĀĘ": 1499,
      "ĀĀěĀĚ": 1500,
      "ĀĀěĀ'": 1501,
      "ĀĀ%ĀĘ": 1502,
      "ĠĜ!ĝ": 1503,
      "ĀĀĚĀě": 1504,
      "$ĀĀ)": 1505,
      "%ĀĀė": 1506,
      "&ĀĀ(": 1507,
      "ĠĠĠĠĠĠĠĠĠĠĠĠĠĠĠĠĠĠĠĠĠĠĠĠĠĠĠ": 1508,
      "ĠĠĠĠĠĠĠĠĠĠĠĠĠĠĠĠĠĠĠĠĠĠĠĠĠĠ": 1509,
      "ĀĀ'Āğ": 1510,
      "ĀĀ'Ā\"": 1511,
      "ĀĀĘĀğ": 1512,
      "ĀĀ#ĀĖ": 1513,
      "!)": 1514,
      "!+": 1515,
      "\"ė": 1516,
      "#)": 1517,
      "$Ę": 1518,
      "%Ę": 1519,
      "'+": 1520,
      "'Ě": 1521,
      "((": 1522,
      "()": 1523,
      "(ę": 1524,
      ")ě": 1525,
      "-Ğ": 1526,
      ".%": 1527,
      "ēĜ": 1528,
      "ēĞ": 1529,
      "ĖĀĀ": 1530,
      "ěė": 1531,
      "Ġ!ěĞ": 1532,
      "ĠğĚĝ": 1533,
      "ĠĞ%ĝ": 1534,
      "Ġ#Ě": 1535,
      "Ġ#ĀĀ": 1536,
      "Ġ#$\"": 1537,
      "Ġ#$#": 1538,
      "Ġ#%\"": 1539,
      "Ġ#ĝ#": 1540,
      "Ġ$Ě": 1541,
      "Ġ$Ĝ\"": 1542,
      "Ġ$#\"": 1543,
      "Ġ$ĜĞ": 1544,
      "Ġ$ĝ#": 1545,
      "Ġ$ĝĝ": 1546,
      "ĠĜ&": 1547,
      "ĠĜ$ğ": 1548,
      "ĠěĜğ": 1549,
      "Ġě#Ğ": 1550,
      "Ġě\"#": 1551,
      "Ġ%$!": 1552,
      "Ġ%\"\"": 1553,
      "Ġ!ğ%": 1554,
      "Ġ&#": 1555,
      "Ġ&%": 1556,
      "Ġ&#ğ": 1557,
      "Ġ&ĝğ": 1558,
      "Ġ&\"ğ": 1559,
      "Ġ&\"Ğ": 1560,
      "ĠĚ$": 1561,
      "ĠĚĝğ": 1562,
      "Ġ\"!Ě": 1563,
      "Ġ'ğ": 1564,
      "Ġ!Ğ%": 1565,
      "ĠĘğ": 1566,
      "Ġğĝě": 1567,
      "ĀĀĝĀ)": 1568,
      "ĀĀ\"Ā(": 1569,
      "Ġ!#ě": 1570,
      "ĠĞĝě": 1571,
      "ĠĜ!$": 1572,
      "ĀĀĚĀę": 1573,
      "ĠĜ\"$": 1574,
      "ĠĀĀ(": 1575,
      "ĠĀĀę": 1576,
      "'ĀĀę": 1577,
      ")ĀĀ)": 1578,
      ")ĀĀę": 1579,
      "ĠğĜě": 1580,
      "ĀĀ(Ā!": 1581,
      "Ġ%ğĜ": 1582,
      "ĠĞ$Ĝ": 1583,
      "Ġ$#ě": 1584,
      "$,": 1585,
      "$Ė": 1586,
      "*)": 1587,
      "**": 1588,
      "++": 1589,
      ",%": 1590,
      ".ğ": 1591,
      "Ē!": 1592,
      "ĕė": 1593,
      "Ė&": 1594,
      "Ė(": 1595,
      "Ęĕ": 1596,
      "Ěė": 1597,
      "Ĝ(": 1598,
      "ĜĀĀ": 1599,
      "ğė": 1600,
      "Ġ!Ě\"": 1601,
      "Ġğ$$": 1602,
      "Ġğě#": 1603,
      "Ġ\"$#": 1604,
      "Ġ\"&ğ": 1605,
      "Ġ\"%ĝ": 1606,
      "ĠĞ$ĝ": 1607,
      "Ġĝ$Ğ": 1608,
      "Ġĝ%!": 1609,
      "Ġ#ĜĜ": 1610,
      "Ġ$Ĝĝ": 1611,
      "Ġ$$ĝ": 1612,
      "Ġ$ĝĜ": 1613,
      "ĠĜěğ": 1614,
      "ĠĜ##": 1615,
      "ĠĜě#": 1616,
      "ĠěĝĞ": 1617,
      "Ġ%ě": 1618,
      "Ġ%ĝĞ": 1619,
      "Ġ%\"!": 1620,
      "Ġ&&": 1621,
      "Ġ&$ğ": 1622,
      "Ġ&Ğ!": 1623,
      "Ġ&ğ!": 1624,
      "Ġ&\"!": 1625,
      "Ġ&ğĞ": 1626,
      "Ġ&!Ğ": 1627,
      "ĠĚğğ": 1628,
      "ĠğĞě": 1629,
      "Ġ'ĝ": 1630,
      "Ġę\"": 1631,
      "Ġ(ğ": 1632,
      "ĠĘĞ": 1633,
      "ĀĀĞĀ)": 1634,
      "Ġ#ğĚ": 1635,
      "ĀĀĝĀė": 1636,
      "ĠĞĝ$": 1637,
      "ĠĝĞ$": 1638,
      "Ġğ#%": 1639,
      "Ġ$\"Ĝ": 1640,
      "ĀĀ&Ā%": 1641,
      "ĀĀ&Ā&": 1642,
      "#ĀĀ(": 1643,
      "#ĀĀ+": 1644,
      "ĠĀĀ+": 1645,
      "ĠĀĀĘ": 1646,
      "%ĀĀ*": 1647,
      "%ĀĀĖ": 1648,
      "&ĀĀė": 1649,
      "'ĀĀ*": 1650,
      "'ĀĀė": 1651,
      "ĠĜĞĜ": 1652,
      "Ġ##Ĝ": 1653,
      "*ĀĀ'": 1654,
      "*ĀĀĘ": 1655,
      "Ġ#ĝě": 1656,
      "Ġĝĝ%": 1657,
      "Ġ%ğě": 1658,
      "ĠĞ$%": 1659,
      "ĀĀėĀĞ": 1660,
      "ĀĀ)Ā": 1661,
      "ĀĀ)Āğ": 1662,
      "Ġ%!ě": 1663,
      "Ġ%!Ĝ": 1664,
      "#Ę": 1665,
      "&)": 1666,
      "*Ĝ": 1667,
      "+(": 1668,
      ",ĝ": 1669,
      "-*": 1670,
      "Ēğ": 1671,
      "ĔĚ": 1672,
      "Ė'": 1673,
      "ğ)": 1674,
      "Ġ3": 1675,
      "Ġ!ė": 1676,
      "Ġ!%#": 1677,
      "Ġ!ěĜ": 1678,
      "Ġ!&#": 1679,
      "ĠğěĞ": 1680,
      "Ġ\"ě\"": 1681,
      "Ġ\"%#": 1682,
      "ĠĞ%!": 1683,
      "ĠĞ%Ğ": 1684,
      "ĠĞ&!": 1685,
      "ĠĞĚ!": 1686,
      "Ġĝěğ": 1687,
      "Ġĝě!": 1688,
      "Ġĝ$#": 1689,
      "ĠĝĚ\"": 1690,
      "Ġ###": 1691,
      "Ġ$ěğ": 1692,
      "Ġ$ĝ\"": 1693,
      "Ġě$ğ": 1694,
      "ĠěĜ#": 1695,
      "ĠěĞ#": 1696,
      "Ġ%ĝ!": 1697,
      "Ġ&ě": 1698,
      "Ġ&Ğğ": 1699,
      "ĠĚ$ğ": 1700,
      "ĠĚ\"#": 1701,
      "Ġ'!ğ": 1702,
      "ĠĘĜ": 1703,
      "ĠĝĞ%": 1704,
      "ĀĀĜĀė": 1705,
      "ĀĀ#Ā'": 1706,
      "ĀĀ#Āė": 1707,
      "Ġ$!#": 1708,
      "ĀĀĚĀĜ": 1709,
      "ĀĀ&Āę": 1710,
      "$ĀĀ(": 1711,
      "$ĀĀĘ": 1712,
      "#ĀĀė": 1713,
      "&ĀĀ'": 1714,
      "&ĀĀ*": 1715,
      "'ĀĀ(": 1716,
      ")ĀĀ(": 1717,
      "ĀĀ'ĀĞ": 1718,
      "Ġĝ#$": 1719,
      "ĀĀęĀĞ": 1720,
      "ĀĀĘĀĜ": 1721,
      "ĀĀ(Ā#": 1722,
      "ĀĀėĀ": 1723,
      "ĀĀĖĀ!": 1724,
      "ĀĀ-Ā": 1725,
      "$ĕ": 1726,
      "*Ě": 1727,
      ",'": 1728,
      ".!": 1729,
      ".&": 1730,
      "/ĀĀ": 1731,
      "Ēě": 1732,
      "ĒĜ": 1733,
      "ē\"": 1734,
      "ēĘ": 1735,
      "ēĚ": 1736,
      "Ĕ%": 1737,
      "Ĕ&": 1738,
      "ėĕ": 1739,
      "ę(": 1740,
      "ęė": 1741,
      "ĞĖ": 1742,
      "ğĕ": 1743,
      "Ġ5": 1744,
      "ĠĀė": 1745,
      "Ġ!(": 1746,
      "ĠğĚ\"": 1747,
      "Ġğěĝ": 1748,
      "ĠğĚ#": 1749,
      "Ġ\"Ĝ#": 1750,
      "Ġ\"Ě!": 1751,
      "Ġ\"Ĝ$": 1752,
      "Ġ\"&Ğ": 1753,
      "ĠĞĚ\"": 1754,
      "ĠĞěĝ": 1755,
      "ĠĞě#": 1756,
      "ĠĞęğ": 1757,
      "ĠĞ'ğ": 1758,
      "Ġĝ(": 1759,
      "Ġĝě#": 1760,
      "Ġ#(": 1761,
      "Ġ#%ğ": 1762,
      "Ġ#Ĝĝ": 1763,
      "Ġ#&ğ": 1764,
      "Ġ$Ĝğ": 1765,
      "Ġ$##": 1766,
      "ĠĜ$Ğ": 1767,
      "ĠĜ$\"": 1768,
      "ĠĜĜĞ": 1769,
      "ĠĜ#Ĝ": 1770,
      "Ġ!!Ě": 1771,
      "Ġě#\"": 1772,
      "ĠěĞĞ": 1773,
      "Ġě\"Ğ": 1774,
      "Ġ%%": 1775,
      "Ġ%Ě": 1776,
      "Ġ%ĜĞ": 1777,
      "Ġ%\"ĝ": 1778,
      "Ġ&!ğ": 1779,
      "Ġ&!!": 1780,
      "Ġ&Ğĝ": 1781,
      "ĠĚě": 1782,
      "ĠĚĝ!": 1783,
      "Ġ'ğğ": 1784,
      "Ġ'ğĞ": 1785,
      "ĠęĜ": 1786,
      "ĠĘĝ": 1787,
      "Ġ\"Ğ%": 1788,
      "Ġ\"ĞĚ": 1789,
      "#ğ\"": 1790,
      "Ġ)ğ": 1791,
      "Ġ#\"$": 1792,
      "Ġ#\"%": 1793,
      "Ġ#\"ě": 1794,
      "ĀĀ#Ā(": 1795,
      "Ġĝ\"%": 1796,
      "ĀĀ$Ā'": 1797,
      "ĠĜğě": 1798,
      "Ġ$!$": 1799,
      "ĀĀ%Ā%": 1800,
      "Ġ$\"$": 1801,
      "$ĀĀĕ": 1802,
      "#ĀĀ,": 1803,
      "ĠĀĀ'": 1804,
      "ĠĞ#Ĝ": 1805,
      "ĠğĜ$": 1806,
      "Ġ!Ĝ$": 1807,
      "*ĀĀ(": 1808,
      "ĀĀ'Ā!": 1809,
      "Ġĝ#ĝ": 1810,
      "ĀĀĘĀ\"": 1811,
      "ĀĀ)Ā!": 1812,
      "ĀĀĕĀğ": 1813,
      "Ġ#$Ĝ": 1814,
      "Ġ%Ğě": 1815,
      "!*": 1816,
      "%)": 1817,
      "(,": 1818,
      ")-": 1819,
      "+ě": 1820,
      "+ĝ": 1821,
      "-!": 1822,
      "-$": 1823,
      "-'": 1824,
      "ē#": 1825,
      "ēğ": 1826,
      "Ĕė": 1827,
      "ĕ&": 1828,
      "Ě*": 1829,
      "ěĖ": 1830,
      "Ĝ+": 1831,
      "Ĝ.": 1832,
      "Ĝē": 1833,
      "ĜĔ": 1834,
      "ĝė": 1835,
      "Ġ!ĀĀ": 1836,
      "Ġ!&Ğ": 1837,
      "Ġ!'ğ": 1838,
      "Ġ!'Ğ": 1839,
      "Ġğ(": 1840,
      "ĠğĚğ": 1841,
      "ĠğĚ!": 1842,
      "Ġğ%#": 1843,
      "Ġğ%ĝ": 1844,
      "Ġğ&Ğ": 1845,
      "Ġğ'\"": 1846,
      "Ġ\"ĀĀ": 1847,
      "Ġ\"%!": 1848,
      "Ġ\"'!": 1849,
      "ĠĞ%\"": 1850,
      "ĠĞ$$": 1851,
      "ĠĞ&ğ": 1852,
      "Ġĝ'": 1853,
      "ĠĝěĞ": 1854,
      "Ġĝ&!": 1855,
      "Ġ#ę": 1856,
      "Ġ#ě\"": 1857,
      "Ġ#Ěğ": 1858,
      "Ġ#ěĞ": 1859,
      "Ġ#Ě\"": 1860,
      "Ġ#%ĝ": 1861,
      "Ġ$%\"": 1862,
      "Ġ$ěĞ": 1863,
      "Ġ$&!": 1864,
      "Ġ$&ğ": 1865,
      "ĠĜ$#": 1866,
      "ĠĜĜĝ": 1867,
      "ĠĜĚ!": 1868,
      "ĠĜĝ$": 1869,
      "Ġěĝğ": 1870,
      "ĠěĜĞ": 1871,
      "Ġěěğ": 1872,
      "Ġě#$": 1873,
      "Ġ%ĝ\"": 1874,
      "Ġ&#!": 1875,
      "Ġ&Ğ\"": 1876,
      "Ġ&ğě": 1877,
      "ĠĚ&": 1878,
      "ĠĚ!ğ": 1879,
      "ĠĚ!!": 1880,
      "ĠĚ!Ğ": 1881,
      "ĠĚ!\"": 1882,
      "ĠĚ\"Ğ": 1883,
      "Ġ\"!%": 1884,
      "ĠĞğ&": 1885,
      "ĠĞğě": 1886,
      "Ġ!\"Ě": 1887,
      "Ġ'\"!": 1888,
      "Ġ'!Ğ": 1889,
      "Ġę$": 1890,
      "Ġ(#": 1891,
      "Ġ(ĝ": 1892,
      "Ġ\"\"Ě": 1893,
      "Ġĝ!&": 1894,
      "ĀĀ!Ā(": 1895,
      "Ġ)\"": 1896,
      "ĠĞĝ%": 1897,
      "Ġğ#Ě": 1898,
      "ĀĀĜĀ)": 1899,
      "Ġ\"ĝě": 1900,
      "ĀĀěĀ)": 1901,
      "ĠĜğĜ": 1902,
      "ĠĜ!%": 1903,
      "ĀĀĚĀ'": 1904,
      "Ġ$\"ě": 1905,
      "ĀĀ&Āě": 1906,
      "$ĀĀ+": 1907,
      "ĠĀĀĔ": 1908,
      "ĠĀĀĕ": 1909,
      "ĠĀĀĖ": 1910,
      "%ĀĀ'": 1911,
      "%ĀĀ(": 1912,
      "%ĀĀĕ": 1913,
      "'ĀĀ'": 1914,
      "$ĝĀĀ": 1915,
      "(ĀĀĘ": 1916,
      "(ĀĀę": 1917,
      "ĠĜĞ%": 1918,
      "Ġ#ĝ$": 1919,
      "ĀĀ'Ā#": 1920,
      "ĠĀĖ": 1921,
      "ĀĀĞĀ*": 1922,
      "Ġ$ĞĜ": 1923,
      "ĀĀĝĀ*": 1924,
      "ĀĀ!Ā*": 1925,
      "Ġě!%": 1926,
      "ĀĀ)Ā\"": 1927,
      "ĠěĞ%": 1928,
      "\",": 1929,
      "#,": 1930,
      "#Ė": 1931,
      "%.": 1932,
      "&ę": 1933,
      ")ę": 1934,
      "*,": 1935,
      ",)": 1936,
      "-)": 1937,
      "ĀĒ": 1938,
      "Āē": 1939,
      "čĠ": 1940,
      "ĐĜ": 1941,
      "ē$": 1942,
      "ēĀĀ": 1943,
      "ĔĘ": 1944,
      "ĕę": 1945,
      "ė'": 1946,
      "Ě+": 1947,
      "Ĝ)": 1948,
      "ğ,": 1949,
      "ğĀĀ": 1950,
      "ĠĀ)": 1951,
      "ĠĀĀ\"Ā": 1952,
      "Ġ!Ěğ": 1953,
      "Ġ!&ĝ": 1954,
      "Ġğę!": 1955,
      "Ġğ&#": 1956,
      "Ġ\"ě#": 1957,
      "Ġ\"ěĜ": 1958,
      "Ġĝ%\"": 1959,
      "Ġĝ$ĝ": 1960,
      "ĠĝĜĜ": 1961,
      "Ġ#Ę": 1962,
      "Ġ$Ĝ#": 1963,
      "Ġ$Ěğ": 1964,
      "Ġ$ěĝ": 1965,
      "Ġ$ĜĜ": 1966,
      "Ġ$Ğ#": 1967,
      "Ġ$#$": 1968,
      "ĠĜ%ğ": 1969,
      "Ġ!!ę": 1970,
      "ĠěĚ": 1971,
      "Ġě#!": 1972,
      "Ġě&!": 1973,
      "Ġ%ĀĀ": 1974,
      "Ġ%ěğ": 1975,
      "Ġ%ě\"": 1976,
      "Ġ%%ğ": 1977,
      "Ġ%!\"": 1978,
      "Ġ%&!": 1979,
      "Ġ%'ğ": 1980,
      "Ġ%#Ĝ": 1981,
      "Ġ%\"Ĝ": 1982,
      "Ġ&$!": 1983,
      "Ġ&ĝ!": 1984,
      "Ġ&#Ğ": 1985,
      "Ġ&Ĝĝ": 1986,
      "Ġ&\"ĝ": 1987,
      "Ġ&ğĝ": 1988,
      "Ġ&!Ĝ": 1989,
      "ĠĚ%": 1990,
      "ĠĚĜğ": 1991,
      "ĠĚĞ#": 1992,
      "ĠĞğĚ": 1993,
      "Ġ'$": 1994,
      "Ġ'Ğğ": 1995,
      "Ġ\"ğ%": 1996,
      "Ġęğ!": 1997,
      "Ġę\"!": 1998,
      "Ġ((": 1999,
      "Ġ(!ĝ": 2000,
      "ĠĘ\"": 2001,
      "ĠĞ\"'": 2002,
      "ĠĞ\"ě": 2003,
      "ĀĀğĀ)": 2004,
      "Ġĝğ%": 2005,
      "Ġĝğě": 2006,
      "Ġ#ğ$": 2007,
      "Ġė\"": 2008,
      "#!ĀĀ": 2009,
      "ĀĀ\"Āė": 2010,
      "Ġ!#%": 2011,
      "Ġğ#&": 2012,
      "ĀĀ$Ā(": 2013,
      "Ġ\"#$": 2014,
      "ĀĀ%Āę": 2015,
      "ĀĀĚĀ(": 2016,
      "ĀĀ&Ā'": 2017,
      "$ĀĀ'": 2018,
      "$ĀĀ*": 2019,
      "$ĀĀē": 2020,
      "#ĀĀ*": 2021,
      "#ĀĀ'Ā": 2022,
      "ĠĀĀė": 2023,
      "&ĀĀ)": 2024,
      "&ĀĀę": 2025,
      "%\"ĀĀ": 2026,
      ")ĀĀ-": 2027,
      "ĠğĜĜ": 2028,
      "*ĀĀę": 2029,
      "Ġ#ĝ%": 2030,
      "ĀĀ'Āĝ": 2031,
      "ĀĀ'Āě": 2032,
      "ĀĀęĀě": 2033,
      "ĀĀĘĀĞ": 2034,
      "ĀĀĘĀ#": 2035,
      "ĀĀ(Ā\"": 2036,
      "Ġğ$Ĝ": 2037,
      "Ġě!ě": 2038,
      "Ġ\"Ĝě": 2039,
      "ĠěĞ$": 2040,
      "Ġğě%": 2041,
      "ĀĀ+Āğ": 2042,
      "ĀĀ*Ā\"": 2043,
      "!Ę": 2044,
      "*ę": 2045,
      "*'ĀĀ": 2046,
      "-#": 2047
    },
    "merges": [
      "Ġ Ġ",
      "Ġ !",
      "Ġ ğ",
      "ĠĠ ĠĠ",
      "Ġ \"",
      "Ġ Ğ",
      "ĠĠ Ġ",
      "Ā Ā",
      "Ġ ĝ",
      "Ġ #",
      "Ġ $",
      "ĠĠĠĠ Ġ",
      "Ġ Ĝ",
      "Ġ! !",
      "Ġğ ğ",
      "Ġ ě",
      "Ġ %",
      "ĠĠĠĠ ĠĠĠĠ",
      "Ġğ !",
      "Ġ! ğ",
      "Ġ &",
      "Ġ Ě",
      "Ġ\" !",
      "Ġğ Ğ",
      "ĠĞ ğ",
      "Ġ! \"",
      "Ġ '",
      "Ġ\" ğ",
      "Ġ ę",
      "ĠĞ !",
      "Ġğ \"",
      "Ġ! Ğ",
      "ĠĠĠĠ ĠĠ",
      "Ġ (",
      "Ġ Ę",
      "Ġ\" \"",
      "Ā !",
      "ĠĞ Ğ",
      "Ā ğ",
      "ĠĞ \"",
      "ĀĀ ğ",
      "Ā \"",
      "Ġ\" Ğ",
      "Ġ# !",
      "Ā Ğ",
      "Ā ĝ",
      "ĀĀ Ğ",
      "Ġĝ ğ",
      "# ğ",
      "Ġğ ĝ",
      "Ġĝ !",
      "ĀĀ !",
      "Ġ )",
      "Ġ# ğ",
      "Ġ! ĝ",
      "Ġ ė",
      "# !",
      "ĀĀ ĝ",
      "ĀĀ \"",
      "Ā Ĝ",
      "Ġ!! ğ",
      "Ā $",
      "Ā #",
      "Ġğğ !",
      "ĠĠĠĠ ĠĠĠ",
      "Ġ! #",
      "Ġğ! !",
      "Ġ!ğ ğ",
      "ĠĞ ĝ",
      "Ġ# \"",
      "Ġĝ Ğ",
      "Ġğ #",
      "Ġ *",
      "ĀĀ Ĝ",
      "Ġğ! ğ",
      "ĀĀ #",
      "Ġ!! !",
      "Ā ě",
      "Ġ Ė",
      "Ġğğ ğ",
      "ĠĠĠĠĠĠĠĠ ĠĠĠ",
      "Ā %",
      "Ġĝ \"",
      "Ġ# Ğ",
      "Ġ!ğ !",
      "Ġ\" ĝ",
      "$ ğ",
      "Ĝ !",
      "$ !",
      "ĀĀ $",
      "ĀĀ ě",
      "ĠĠĠĠĠĠĠĠ ĠĠĠĠ",
      "Ā &",
      "Ġ\" #",
      "Ĝ ğ",
      "Ā Ě",
      "ĠĜ ğ",
      "Ġ$ ğ",
      "ĝ ğ",
      "Ġ$ !",
      "Ĝ \"",
      "Ġ +",
      "ĀĀ %",
      "$ Ğ",
      "$ \"",
      "ĠĜ !",
      "ĝ !",
      "ĀĀ Ě",
      "# \"",
      "Ğ ğ",
      "Ġ$ \"",
      "Ġ ĕ",
      "Ĝ Ğ",
      "Ā ę",
      "ĠĠĠĠĠĠĠĠ ĠĠ",
      "Ğ !",
      "ĀĀ &",
      "# Ğ",
      "Ā '",
      "ě ğ",
      "Ġ\"! ğ",
      "$ ĀĀ",
      "ĝ \"",
      "ĠĜ \"",
      "# ĀĀ",
      "ĝ Ğ",
      "ĠĞğ !",
      "Ğ \"",
      "ğ ğ",
      "Ġ!! Ğ",
      "Ġ ĀĀ",
      "% !",
      "ě !",
      "Ġğğ \"",
      "% ĀĀ",
      "ě \"",
      "% ğ",
      "Ġ!ğ Ğ",
      "Ā Ę",
      "Ġ!\" ğ",
      "Ġ\"ğ ğ",
      "! ğ",
      "Ġğ! \"",
      "ĠĞ #",
      "! !",
      "& ĀĀ",
      "' ĀĀ",
      "Ĝ #",
      "ĠğĞ !",
      "$ #",
      "Ĝ ĝ",
      "Ġ ,",
      "\" \"",
      "Ġğ\" !",
      "% \"",
      "ĠğĞ ğ",
      "Ġ Ĕ",
      "ĠĞ! !",
      "ĠĠĠĠĠĠĠĠ ĠĠĠĠĠĠĠĠ",
      "\" ğ",
      "Ġ!Ğ ğ",
      "ĝ #",
      "Ġ!\" !",
      "ğ !",
      "Ğ Ğ",
      "$ ĝ",
      "% Ğ",
      "\" !",
      "# #",
      "Ā (",
      "ğ Ğ",
      "Ġ\"! !",
      "Ā ė",
      "Ě ğ",
      "ě Ğ",
      "ĝ ĝ",
      "! Ğ",
      "( ĀĀ",
      "Ġ!Ğ !",
      ") ĀĀ",
      "Ġğğ Ğ",
      "Ġ!! \"",
      "Ġğ\" ğ",
      "! \"",
      "ĠĞ! ğ",
      "\" Ğ",
      "Ġğ Ĝ",
      "ĠĜ Ğ",
      "ĠĞğ ğ",
      "& !",
      "Ġ# #",
      "Ě \"",
      "Ġ! Ĝ",
      "ě ĝ",
      "Ě !",
      "Ġ\"\" ğ",
      "Ġ\"ğ !",
      "* ĀĀ",
      "Ā )",
      "ğ \"",
      "Ġ -",
      "Ġğ! Ğ",
      "Ġ# ĝ",
      "$ $",
      "Ġ!ğ \"",
      "ĠĞğ \"",
      "% #",
      "Ġ\"! Ğ",
      "ĠĞĞ !",
      "Ġĝ ĝ",
      "& ğ",
      "Ğ ĝ",
      "ě #",
      "ğ #",
      "! #",
      "Ĝ Ĝ",
      "ĀĀ '",
      "% ĝ",
      "Ġ Ā",
      "Ġĝ #",
      "! ĝ",
      "\" #",
      "ĀĀ ę",
      "ĠĞ! \"",
      "ĠĠĠĠ ĠĠĠĠĠ",
      "Ġ\"ğ Ğ",
      "Ġ! $",
      "ĀĀğ Ā",
      "% $",
      "& \"",
      "ĀĀ Ę",
      "ĀĀĞ Ā",
      "ĀĀ\" Ā",
      "Ġ\" $",
      "ĠĞ\" !",
      "ę ğ",
      "ĀĀ (",
      "Ě Ğ",
      "ĠĞ Ĝ",
      "\" ĝ",
      "Ğ #",
      "Ġ#! ğ",
      "Ġĝğ !",
      "ě $",
      "ĠĠĠĠĠĠĠĠ ĠĠĠĠĠ",
      "Ġğ $",
      "Ġ ē",
      "Ġ!\" Ğ",
      "Ě #",
      "Ġğ\" \"",
      "Ĝ $",
      "& Ğ",
      "' !",
      "Ě ĝ",
      "Ġ!Ğ Ğ",
      "# ĝ",
      "ĠğĞ \"",
      "ĠĞĞ ğ",
      "Ġ\"Ğ ğ",
      "' ğ",
      "Ġ$ Ğ",
      "ĀĀĝ Ā",
      "Ġ% ğ",
      "Ġ .",
      "# $",
      "ĠĞ $",
      "ě Ĝ",
      "Ġ!! ĝ",
      "ę !",
      "ĀĀ ė",
      "Ġĝ! !",
      "Ġ#ğ ğ",
      "ĀĀ! Ā",
      "ĝ Ĝ",
      "\" $",
      "ę Ğ",
      "ě ě",
      "ĝ $",
      "Ġě !",
      "ĠĞ\" ğ",
      "ĀĀ )",
      "Ġ\"\" !",
      "Ġğğ #",
      "' \"",
      "Ġ! #ğ",
      "Ġ!ğ ĝ",
      "& #",
      "Ġğĝ !",
      "ę \"",
      "Ġğ! #",
      "Ġğ\" Ğ",
      "Ġ!\" \"",
      "& $",
      "& ĝ",
      "# Ĝ",
      "Ġě ğ",
      "Ġ% !",
      "Ě Ĝ",
      "Ġ\" Ĝ",
      "ĀĀ Ė",
      "ĠğĞ Ğ",
      "Ġ\"Ğ !",
      "Ġě Ğ",
      "Ġ#! !",
      "Ġĝğ ğ",
      "Ġ Ē",
      "% Ĝ",
      "ĀĀ# Ā",
      "ĠĜ ĝ",
      "\" %",
      "ę #",
      "Ġ!Ğ \"",
      "ĠĝĞ !",
      "' Ğ",
      "ĀĀ ĕ",
      "Ġ\"! ĝ",
      "ĠĞĞ \"",
      "Ġ#! Ğ",
      "Ġğĝ ğ",
      "% %",
      "\" Ĝ",
      "ę ĝ",
      "ğ ĝ",
      "Ġ# $",
      "Ġ\"\" Ğ",
      "ĠĞĝ !",
      "ĀĀĜ Ā",
      "ğ Ĝ",
      "Ġ#\" ğ",
      "! $",
      "ĠĞ! Ğ",
      "Ġ\"Ğ Ğ",
      "Ġ!ĝ !",
      "( !",
      "Ę Ğ",
      "Ġğ ě",
      "Ę ĝ",
      "Ġĝ $",
      "Ġ$ ĝ",
      "ĠĞğ Ğ",
      "Ġ\"! \"",
      "' #",
      "+ ĀĀ",
      "Ę !",
      "Ę ğ",
      "Ġ /",
      "Ġ\" #ğ",
      "Ġ$ #",
      "ĠğĞ #",
      "Ġ\"ğ \"",
      "Ġĝğ \"",
      "ĀĀě Ā",
      "Ğ $",
      "( ğ",
      "Ġğğ ĝ",
      "( \"",
      "Ġĝ Ĝ",
      "ĀĀ +",
      "Ġ% Ğ",
      "& &",
      "ğ $",
      "Ġğ #ğ",
      "ĠĞğ #",
      "Ġĝ! ğ",
      "Ġ Ā!",
      "Ġ# Ĝ",
      "ĠĠĠĠĠĠĠĠ ĠĠĠĠĠĠĠ",
      "Ġ!# Ğ",
      "' $",
      "Ę \"",
      "Ġ#ğ Ğ",
      "Ġ!ĝ ğ",
      "! Ĝ",
      "ę Ĝ",
      "ě %",
      "Ġ ĀĞ",
      "Ġ! #!",
      "ĀĀ *",
      "ĠĞ\" \"",
      "Ġ! %",
      "ĠĞ! #",
      "Ġ!! #",
      "ĀĀğ Āğ",
      "Ġĝ! \"",
      "$ %",
      "Ě %",
      "ĠĠĠĠĠĠĠĠ ĠĠĠĠĠĠĠĠĠĠ",
      "Ġğ\" #",
      "Ġ#ğ !",
      "ė Ğ",
      "Ğ %",
      "Ġ Āğ",
      "Ġ!ğ #",
      "Ġ\"ğ ĝ",
      "ĀĀğ ĀĞ",
      "Ğ Ĝ",
      "ĀĀ! Ā!",
      "& Ĝ",
      "Ġğ %",
      "ĀĀ -",
      "( #",
      "ğ %",
      "ĠĜ #",
      "ĀĀğ Ā!",
      "! %",
      "ę ě",
      "Ġğ! ĝ",
      "Ġğ #!",
      "Ġĝ\" !",
      "ě Ě",
      "Ġ Ā\"",
      "ĀĀğ Ā\"",
      "Ĝ %",
      "Ġ\" #!",
      "ĠĞ #!",
      "Ġ$ $",
      "Ġě \"",
      "ĀĀ% Ā",
      "ė !",
      "ĀĀĞ Ā!",
      "Ġğĝ \"",
      "ĀĀ$ Ā",
      "& %",
      "Ę Ĝ",
      "Ě $",
      "ĝ %",
      "ĝ ě",
      "Ġ đ",
      "Ġ!! Ĝ",
      "# %",
      "ę $",
      "Ĝ ě",
      "ğ ě",
      "Ġ\" ě",
      "ĀĀ Ĕ",
      "Ġ!\" ĝ",
      "ĀĀ! Āğ",
      ") ğ",
      "ĀĀ .",
      "Ġ!Ğ ĝ",
      "Ġ\"\" ĝ",
      "ĀĀĝ Ā!",
      "ĠĞĝ ğ",
      "Ġğ# \"",
      ") !",
      "Ġ# #ğ",
      "ĀĀ! Ā\"",
      "Ě ě",
      "Ġ\" %",
      "ĀĀ ,",
      "ĀĀĞ Ā\"",
      "ĀĀĝ Āğ",
      "Ġ!# \"",
      "Ġ#\" !",
      "ĠĝĞ ğ",
      "ĀĀĜ Ā!",
      "# ě",
      "' &",
      "( Ğ",
      "Ġ! ě",
      "Ġ#! ĝ",
      "ĀĀĞ Āğ",
      "ĀĀğ Āĝ",
      "ĀĀğ ĀĜ",
      "( $",
      "Ġ Āĝ",
      "Ġ!ğ Ĝ",
      "ĠĝĞ \"",
      "Ġ\"# Ğ",
      "( ĝ",
      "ė \"",
      "ĀĀ /",
      "ĠĠĠĠĠĠĠĠ ĠĠĠĠĠĠĠĠĠĠĠĠ",
      "Ġğĝ Ğ",
      "ĀĀ& Ā",
      "Ě &",
      "Ġ% \"",
      "Ġ\"\" \"",
      "ĀĀĞ Āĝ",
      "Ġğ# Ğ",
      "Ġ\"ĝ ğ",
      "ĀĀĚ Ā",
      "! ě",
      "$ Ĝ",
      "& ě",
      "' ĝ",
      ") \"",
      "ė ĝ",
      "ę %",
      "Ġ 0",
      "ĀĀ Ē",
      "ĠĞĞ Ğ",
      "Ġ!ĝ Ğ",
      "Ġ$ğ ğ",
      "ė ğ",
      "ĀĀ ē",
      "Ġě ĝ",
      "Ġ#Ğ Ğ",
      "Ġ#Ğ ğ",
      "ĠĜ! !",
      "# &",
      "ĠĞ %",
      "ĀĀĝ Ā\"",
      "ĀĀĝ Āĝ",
      "( %",
      "Ğ ě",
      "\" &",
      "Ę $",
      "ĠĞ ě",
      "ĠĠĠĠĠĠĠĠ ĠĠĠĠĠĠĠĠĠĠĠ",
      "ĀĀ! ĀĞ",
      "Ġ#\" Ğ",
      "Ġ\"ĝ !",
      "Ġ$! ğ",
      "Ę #",
      "Ġĝ #!",
      "Ġĝ ĝğ",
      "ĠĞ\" Ğ",
      "ĠĜğ !",
      "! &",
      "Ġĝ ĝ!",
      "ĠğĞ ĝ",
      "ĀĀ\" Āğ",
      "ĀĀ\" Āĝ",
      "$ &",
      "ĠĜ Ĝ",
      "Ġğğ $",
      "Ġ Āě",
      "Ġ$ Ğğ",
      "Ġ!\" #",
      "Ġ!Ğ #",
      "ĠĞĞ #",
      "ĠĞ\" #",
      "Ġ\"Ğ \"",
      "Ġ!ĝ \"",
      "Ġĝ\" ğ",
      "ĠĜğ \"",
      "' %",
      "' Ĝ",
      "Ġ# %",
      "Ġ\"Ğ ĝ",
      "ĀĀ! Āĝ",
      "' '",
      "* !",
      "Ğ &",
      "ĠĞ! $",
      "\" ě",
      "Ā Ė",
      "ė Ĝ",
      "Ġğ! $",
      "Ġ#! \"",
      "ĀĀĞ ĀĞ",
      "\" Ě",
      "Ā ,",
      "Ė Ğ",
      "Ğ Ě",
      "ğ Ě",
      "ĠĞ #\"",
      "ĀĀ! ĀĜ",
      "ĠĞĝ \"",
      "Ę ě",
      "Ĝ Ě",
      "Ġ! $ğ",
      "Ġğ $ğ",
      "ĠĞ! ĝ",
      "* \"",
      "Ġ Đ",
      "ĠĞ #ğ",
      "ĠĚ ğ",
      "Ġ\"! Ĝ",
      "Ġ$\" ğ",
      "$ ě",
      "ĝ &",
      "Ġĝ ě",
      "Ġ% #",
      "Ġğ\" ĝ",
      "Ġ#Ğ !",
      "Ā +",
      "Ė !",
      "ę Ě",
      "Ġĝğ #",
      "ĀĀ\" Ā!",
      "Ġ#Ğ ĝ",
      "Ġ$! !",
      "Ġğ $!",
      "ĀĀĞ Āě",
      "ĀĀ! Ā$",
      "ĀĀ\" Ā\"",
      "ĀĀ\" ĀĞ",
      "Ġ\"ĝ \"",
      "Ġ\"ĝ Ğ",
      ", ĀĀ",
      "Ā *",
      "ğ '",
      "Ġ Ā$",
      "Ġ\" $ğ",
      "ĠĞğ $",
      "Ġ\"ğ #",
      "Ġ!# ĝ",
      "Ġĝ\" \"",
      "Ė ě",
      "ĠĜ Ğ!",
      "Ġ& !",
      "Ġ\"! #",
      "ĀĀğ Āě",
      "ĀĀĞ Ā#",
      "( '",
      "Ė ĝ",
      "ę &",
      "Ġĝ #\"",
      "Ġ\"ğ Ĝ",
      "Ġ#ğ Ĝ",
      "Ġ!ĝ ĝ",
      "ĀĀ\" ĀĜ",
      "ĀĀ# Ā\"",
      ") #",
      "ĕ Ğ",
      "Ġ! Ĝ!",
      "ĀĀ đ",
      "Ġĝ ĝ\"",
      "Ġ# ě",
      "Ġ$ Ĝ",
      "ĠĞğ ĝ",
      "ĀĀĝ ĀĜ",
      "Ġ\"# ĝ",
      "Ġ$ğ Ğ",
      "ĠĜ! \"",
      "# Ě",
      "% &",
      ") $",
      "Ė ğ",
      "Ġğ Ĝğ",
      "Ġ# #!",
      "Ġ!! $",
      "Ġ% ĝ",
      "Ġ!ğ $",
      "ĠĞ\" ĝ",
      "Ġĝğ Ğ",
      "Ġĝ! $",
      "Ġ!ĝ #",
      "Ġ$! Ğ",
      "ĠĜ! ğ",
      "\" '",
      "Ġ ĀĜ",
      "Ġ! Ě",
      "Ġ! Ĝğ",
      "Ġğ Ĝ\"",
      "ĀĀğ Ā$",
      "ĀĀĝ ĀĞ",
      "Ġğ# #",
      "ĠĜ\" !",
      "% ě",
      ") Ğ",
      "* #",
      "Ġğ $Ğ",
      "Ġ\" Ĝ!",
      "Ġ# $!",
      "Ġğğ Ĝ",
      "ĀĀ# Āĝ",
      "ě &",
      "Ğ ę",
      "Ġ! &",
      "Ġğ Ě",
      "Ġě #",
      "ĀĀğ Ā%",
      "ĀĀĞ Ā%",
      "Ġĝ! Ğ",
      "Ġĝ\" #",
      "Ġ$\" !",
      ") &",
      "ė Ě",
      "Ĝ ę",
      "ğ &",
      "Ġ Ā#",
      "Ġ! $!",
      "Ġğ Ĝ!",
      "Ġĝ! #",
      "Ġ#ğ ĝ",
      "ĀĀĜ Āĝ",
      "ĠĜğ ğ",
      "Ġ$\" Ğ",
      "! Ě",
      "* $",
      "+ !",
      "ĕ ĝ",
      "ę ę",
      "Ĝ &",
      "Ġğ $\"",
      "Ġ\" Ě",
      "ĀĀğ Ā#",
      "Ġ\"Ğ #",
      "Ġğĝ #",
      "ĀĀ! Ā%",
      "Ġ#ğ \"",
      "ĀĀ# Ā!",
      "Ġ\"ĝ ĝ",
      "Ġ\"# \"",
      "ĠĠĠĠĠĠĠĠĠĠĠĠĠĠĠĠ ĠĠĠĠĠĠĠĠĠĠĠĠĠĠĠĠ",
      "ĕ Ĝ",
      "Ė \"",
      "Ė Ĝ",
      "ĝ Ě",
      "Ġ! '",
      "Ġ\" $Ğ",
      "ĠĞ Ĝ!",
      "ĠĞ $!",
      "Ġĝ #ğ",
      "Ġ# ĝ!",
      "Ġ& ğ",
      "Ġğ\" $",
      "Ġ\"\" #",
      "ĀĀğ ĀĚ",
      "ĠĝĞ Ğ",
      "ĀĀě Ā!",
      "ĠĜ\" ğ",
      "# (",
      "( &",
      ") %",
      "ė ě",
      "ě ę",
      "ĠĞ Ĝğ",
      "ĠĜ $",
      "Ġğ! Ĝ",
      "ĠğĞ $",
      "ĀĀ! Ā#",
      "ĀĀ! Āě",
      "ĀĀ\" Ā#",
      "ĠĝĞ #",
      "ĀĀĜ ĀĞ",
      "ĀĀ# Āğ",
      "ĀĀ# ĀĞ",
      "ĀĀĚ Ā!",
      "ĠĜ\" \"",
      "' ě",
      ") ĝ",
      "+ \"",
      "Ġğ &",
      "ĠĞ Ĝ\"",
      "ĠĞ #Ğ",
      "Ġĝ %",
      "Ġ# ĝğ",
      "Ġ# #Ğ",
      "Ġ$ %",
      "ĠĚ !",
      "Ġ#! #",
      "Ġ!# #",
      "ĠĞĝ Ğ",
      "Ġ#\" \"",
      "Ġ#\" ĝ",
      "Ġ#Ğ \"",
      "ĀĀě Āğ",
      "Ġ$ğ !",
      "( Ĝ",
      "ė #",
      "Ġ 1",
      "Ġ\" &",
      "ĠĜ Ğğ",
      "ĠĞĞ ĝ",
      "ĀĀĞ ĀĜ",
      "ĀĀĝ Ā#",
      "ĀĀĜ Āğ",
      "ĀĀ# Ā$",
      "ĀĀ$ Āĝ",
      "ĠĜğ #",
      "Ġ$! ĝ",
      "ĀĀĚ Āğ",
      "! '",
      ") )",
      "* Ğ",
      "Ę &",
      "Ę Ě",
      "Ġ% !ğ",
      "ĀĀĞ Ā$",
      "ĀĀĝ Ā$",
      "Ġğ# ĝ",
      "ĀĀ$ Ā\"",
      "ĀĀ% Āğ",
      "ĕ \"",
      "Ğ '",
      "Ġ! Ĝ\"",
      "Ġ! $Ğ",
      "Ġ! $\"",
      "Ġ\" $!",
      "Ġ$ #ğ",
      "Ġ$ Ğ!",
      "ĠĜ ĝğ",
      "ĠĜ Ğ\"",
      "Ġ!! ě",
      "ĠĠĠĠĠĠĠĠ ĠĠĠĠĠĠ",
      "Ġ\"ğ ě",
      "Ġ#! Ĝ",
      "Ġ!ĝ Ĝ",
      "ĀĀĝ Āě",
      "ĀĀĜ Ā\"",
      "ĀĀ$ Ā!",
      "ĀĀ$ ĀĞ",
      "ĀĀě Ā\"",
      "Ġ## ĝ",
      "' (",
      "' Ā",
      ") (",
      "Ę %",
      "ĠĞ $Ğ",
      "ĀĀ Đ",
      "Ġĝ ĝĞ",
      "Ġ# &",
      "Ġ# $ğ",
      "Ġ# #\"",
      "Ġě Ĝ",
      "Ġ% $",
      "Ġğ! %",
      "Ġ& \"",
      "Ġ\"! ě",
      "Ġ\"Ğ Ĝ",
      "Ġğĝ ĝ",
      "ĠĞĝ #",
      "Ġĝ\" Ğ",
      "Ĕ Ĝ",
      "ĕ ğ",
      "Ě ę",
      "ĝ ę",
      "Ġ 2",
      "Ġ$ ě",
      "Ġ$ #Ğ",
      "Ġę !",
      "ĀĀ\" Ā$",
      "ĀĀ\" ĀĚ",
      "ĀĀĜ ĀĜ",
      "Ġĝ\" $",
      "ĀĀě ĀĜ",
      "% '",
      ") '",
      "ĕ !",
      "Ę ę",
      "Ġ ĀĚ",
      "Ġ\" Ĝğ",
      "ĀĀ ď",
      "Ġ# ĝ\"",
      "ĠĜ ĝ!",
      "Ġě ğğ",
      "Ġ!\" Ĝ",
      "Ġ!Ğ Ĝ",
      "ĀĀĜ Ā#",
      "ĀĀ$ Āğ",
      "ĀĀ% Ā\"",
      "Ġ$\" ĝ",
      "ĀĀ& Āĝ",
      "ĠĞ# #",
      "ĀĀ( Ā",
      "# '",
      "% Ě",
      "& (",
      "* ğ",
      "Ě '",
      "ğ ę",
      "Ġ\" ĜĞ",
      "Ġ# ĝĞ",
      "Ġ$ $Ğ",
      "Ġ!ğ ě",
      "Ġ& $",
      "ĀĀĞ Ā&",
      "ĀĀ! ĀĚ",
      "ĀĀ# ĀĜ",
      "+ $",
      "Ė #",
      "ę ĀĀ",
      "Ě Ě",
      "Ĝ '",
      "Ġ ď",
      "Ġ Āę",
      "Ġĝ $!",
      "Ġ# $Ğ",
      "Ġ$ ĞĞ",
      "ĠĜ ě",
      "Ġě Ğğ",
      "ĠĚ \"",
      "ĠğĞ Ĝ",
      "Ġ' !",
      "Ġ!Ğ $",
      "ĀĀ# Ā#",
      "ĀĀ& Āğ",
      "* %",
      "* (",
      "Ĕ Ğ",
      "Ė Ě",
      "ė Ę",
      "ĝ ĀĀ",
      "ğ Ę",
      "Ġ Ā&",
      "Ġ! ěğ",
      "Ġğ Ĝĝ",
      "Ġ$ &",
      "Ġě $",
      "Ġě !!",
      "Ġ\"ğ $",
      "ĀĀğ Ā'",
      "Ġĝ! ĝ",
      "Ġ#\" #",
      "ĀĀĜ Ā$",
      "& '",
      "+ &",
      "Ā ĕ",
      "ě (",
      "ĝ '",
      "Ġ! %Ğ",
      "Ġğ ĜĞ",
      "Ġĝ Ĝ!",
      "Ġ# Ĝğ",
      "Ġ$ $ğ",
      "Ġě !ğ",
      "Ġ% \"ğ",
      "Ġ\"! $",
      "Ġę Ğ",
      "Ġĝğ ĝ",
      "ĀĀ\" Ā%",
      "ĀĀě ĀĞ",
      "Ġ$ğ ĝ",
      "$ '",
      "+ %",
      "+ ğ",
      "Ā .",
      "Ė $",
      "ė ę",
      "Ę ĀĀ",
      "Ġ Ā'",
      "Ġ! ě\"",
      "Ġ! $#",
      "Ġ! Ĝĝ",
      "Ġ\" Ĝ\"",
      "ĠĞ Ě",
      "Ġĝ Ĝğ",
      "ĠĜ Ĝ!",
      "ĠĜ ĝ\"",
      "ĠĚ Ğ",
      "Ġ!\" ě",
      "Ġ' \"",
      "Ġ\"\" Ĝ",
      "Ġ#\" Ĝ",
      "ĀĀě Ā$",
      "ĀĀě Ā#",
      "ĠĜ! Ğ",
      "ĀĀ& Ā!",
      "ĠĜ\" #",
      "ĠĞ# ĝ",
      "\" (",
      "' ę",
      "* '",
      "Ġ$ %ğ",
      "Ġğğ ě",
      "ĠĚ Ĝ",
      "Ġ!\" $",
      "ĠĞĞ $",
      "Ġ#ğ #",
      "ĀĀ\" Āě",
      "ĠĜğ Ğ",
      "Ġ$! \"",
      "ĀĀ% ĀĞ",
      "ĀĀ% Āĝ",
      "$ĀĀ ę",
      "! (",
      "! ĀĀ",
      "% (",
      "( ě",
      "Ā #!",
      "ė $",
      "ė ė",
      "ĝ Ę",
      "Ğ ĀĀ",
      "Ġğ %!",
      "Ġğ $#",
      "Ġ\" $\"",
      "ĠĞ $ğ",
      "Ġ# ĝĝ",
      "Ġ$ #!",
      "ĠĜ Ě",
      "Ġğğ %",
      "Ġğ\" Ĝ",
      "ĀĀĞ Āę",
      "ĀĀ! Āę",
      "Ġĝ\" ĝ",
      "ĀĀ$ ĀĜ",
      "ĀĀ$ Ā#",
      "Ġ$ğ \"",
      "ĀĀ% Ā!",
      "ĀĀĚ ĀĞ",
      "ĀĀę Ā",
      "$ Ě",
      ") Ĝ",
      "- ĀĀ",
      "ĕ #",
      "Ė ę",
      "ė %",
      "Ę '",
      "Ĝ Ę",
      "ĝ (",
      "Ġ Ď",
      "Ġ! ĜĞ",
      "Ġ! $ĝ",
      "Ġ\" ę",
      "Ġĝ #Ğ",
      "Ġĝ ##",
      "Ġ$ ĝğ",
      "Ġě ĝ!",
      "Ġě ğ\"",
      "Ġę ğ",
      "ĠĞ\" Ĝ",
      "ĀĀğ Āę",
      "ĀĀğ ĀĘ",
      "Ġ!# Ĝ",
      "ĀĀĜ Ā&",
      "Ġ#Ğ Ĝ",
      "ĀĀ$ Āě",
      "ĀĀ% Āě",
      "ĀĀĚ Āĝ",
      "ĀĀĚ Ā#",
      "\" ę",
      "\" ĀĀ",
      "* &",
      ". ĀĀ",
      "Ā #ğ",
      "ē ĝ",
      "ĕ ě",
      "Ě (",
      "Ğ (",
      "Ġ Ā%",
      "Ġğ Ĝ#",
      "Ġ\" %Ğ",
      "ĠĞ $#",
      "ĠĜ #ğ",
      "ĠĜ #!",
      "Ġ% Ĝ",
      "Ġ% Ğğ",
      "Ġ& ĝ",
      "ĠĞğ %",
      "ĠĞğ Ĝ",
      "ĀĀĝ Ā&",
      "ĠĞĝ ĝ",
      "ĀĀĜ Āě",
      "ĀĀě Āĝ",
      "Ġ\"# Ĝ",
      "ĀĀ% Ā#",
      "ĀĀ& Ā\"",
      "ĀĀ' Ā",
      "Ġ\"$ Ĝ",
      "Ġ%ğ ĝ",
      "! ę",
      "$ ę",
      ", #",
      "Ā Ĕ",
      "Ĕ ĝ",
      "ĕ Ě",
      "Ě ĀĀ",
      "Ġ! Ĝ#",
      "Ġğ ę",
      "ĠĞ $\"",
      "ĀĀ Ď",
      "Ġĝ Ě",
      "Ġ# ĜĞ",
      "Ġ# $ĝ",
      "Ġ$ #ĝ",
      "Ġ% Ğ!",
      "Ġ% ğĞ",
      "Ġ& Ĝ",
      "Ġ& Ğ",
      "ĠĞ! %",
      "Ġ!Ğ ě",
      "ĠĞ\" $",
      "Ġ\"Ğ ě",
      "ĀĀĞ ĀĘ",
      "Ġĝğ $",
      "ĀĀ! Ā'",
      "Ġ\"ĝ #",
      "ĠĜğ ĝ",
      "ĀĀ% Ā$",
      "% ę",
      "+ #",
      "ė &",
      "ė ĀĀ",
      "Ě Ę",
      "ě ĀĀ",
      "ĝ )",
      "Ğ Ę",
      "Ġğ %ğ",
      "Ġğ %Ğ",
      "Ġ\" ě!",
      "Ġ\" %ğ",
      "ĠĞ ě!",
      "Ġ$ $!",
      "Ġ$ ĝ!",
      "ĠĜ Ĝ\"",
      "Ġě ě",
      "Ġě \"\"",
      "Ġ% #Ğ",
      "Ġ% !!",
      "Ġ% \"Ğ",
      "Ġ% !ĝ",
      "ĠĚ #",
      "ĠĞ! Ĝ",
      "ĀĀğ Ā&",
      "ĀĀĝ Ā%",
      "ĀĀ\" Āę",
      "Ġğ# $",
      "ĀĀ# Āě",
      "ĀĀ# Āę",
      "ĀĀ$ Ā%",
      "ĀĀ$ Ā&",
      "ĀĀ$ ĀĚ",
      "ĀĀ% ĀĜ",
      "ĠĜ! #",
      "ĀĀ& ĀĞ",
      "ĠĠĠĠĠĠĠĠĠĠĠĠĠĠĠĠ ĠĠĠĠĠĠ",
      "Ġ#ĝ Ĝ",
      "\" *",
      "\" Ę",
      "$ (",
      "( Ě",
      "ē !",
      "Ĕ ě",
      "Ė %",
      "Ę Ę",
      "Ġğ ě!",
      "Ġ\" ěğ",
      "ĠĞ ě\"",
      "Ġĝ ĝĝ",
      "Ġ# Ĝ!",
      "Ġ$ Ğĝ",
      "ĠĜ %",
      "ĠĜ ĝĞ",
      "Ġ!! %",
      "Ġě ĝ\"",
      "Ġě ğ!",
      "Ġ% ğğ",
      "Ġ% !Ğ",
      "ĠĞĞ Ĝ",
      "ĀĀĞ ĀĚ",
      "Ġĝ! %",
      "ĀĀ# Ā&",
      "ĀĀ$ Āę",
      "ĀĀě Ā%",
      "ĀĀĚ Ā\"",
      "Ġ$\" \"",
      "ĀĀ& Ā#",
      "ĠĜĞ #",
      "ĠĠĠĠĠĠĠĠĠĠĠĠĠĠĠĠĠĠĠĠ ĠĠĠĠĠ",
      "' )",
      "* +",
      "* ĝ",
      "Ā -",
      "Ē ĝ",
      "Ę Ė",
      "Ġ! %ğ",
      "Ġğ $ĝ",
      "ĠĞ &",
      "ĠĞ ĜĞ",
      "ĠĞ Ěğ",
      "Ġĝ ĜĞ",
      "Ġ# '",
      "Ġ# ěğ",
      "Ġ# %!",
      "ĠĜ ĝ#",
      "Ġğğ &",
      "Ġě !\"",
      "Ġě !#",
      "ĠĚ ĝ",
      "Ġę #",
      "ĠĘ !",
      "ĀĀğ Āė",
      "Ġğĝ Ĝ",
      "ĀĀĝ ĀĚ",
      "ĀĀ\" ĀĘ",
      "Ġğ# Ĝ",
      "ĀĀ# ĀĘ",
      "ĠĠĠĠĠĠĠĠĠĠĠĠ ĠĠĠĠĠ",
      "ĀĀĚ Ā%",
      "&ĀĀ Ę",
      "+ '",
      "Ĕ #",
      "ĕ $",
      "ę Ė",
      "Ĝ Ė",
      "Ĝ ė",
      "ğ (",
      "Ġğ ě\"",
      "Ġ\" '",
      "Ġ\" Ĝĝ",
      "Ġ\" $ĝ",
      "Ġĝ &",
      "Ġĝ $ğ",
      "Ġĝ Ĝ\"",
      "Ġĝ $\"",
      "Ġĝ ě\"",
      "Ġĝ Ĝ#",
      "ĠĜ ĞĞ",
      "Ġě #ğ",
      "Ġě Ğ!",
      "Ġě ĝ#",
      "Ġ% ğ!",
      "Ġğ! ě",
      "ĠĚ Ğğ",
      "ĠĚ Ğ!",
      "ĠğĞ %",
      "Ġ' Ğ",
      "Ġ\"\" $",
      "Ġğĝ $",
      "Ġĝ! Ĝ",
      "ĀĀ! ĀĘ",
      "ĀĀĝ Ā'",
      "ĀĀĝ ĀĘ",
      "ĀĀĜ Ā%",
      "ĀĀĜ ĀĚ",
      "ĀĀ% ĀĚ",
      "ĀĀĚ Ā$",
      "ĀĀ& ĀĜ",
      "#ĀĀ )",
      "ĀĀę Ā!",
      "! ė",
      ", \"",
      "Ĕ !",
      "Ĕ \"",
      "ĕ Ę",
      "ě '",
      "ĝ Ė",
      "Ġ ĀĘ",
      "Ġ Ā(",
      "Ġ! %\"",
      "Ġğ '",
      "Ġğ %\"",
      "ĠĞ '",
      "ĠĞ ěğ",
      "ĠĞ %ğ",
      "ĠĜ #\"",
      "ĠĜ ĝĝ",
      "Ġě Ĝ!",
      "Ġě Ğ\"",
      "Ġě \"ğ",
      "Ġ% $ğ",
      "Ġ% Ĝ!",
      "Ġ% ĝğ",
      "Ġ% $Ğ",
      "Ġ% Ğĝ",
      "Ġ( \"",
      "ĠĞĞ %",
      "ĀĀğ Ā(",
      "Ġ\"Ğ $",
      "Ġ#! ě",
      "ĀĀĞ Ā'",
      "ĀĀĞ Āė",
      "Ġĝğ Ĝ",
      "ĀĀ! Ā&",
      "Ġ!ĝ ě",
      "ĀĀ\" Ā&",
      "ĀĀ\" Ā'",
      "Ġ!# $",
      "ĠĝĞ ĝ",
      "ĠĜğ $",
      "Ġ$\" #",
      "ĠĜ\" ĝ",
      "%ĀĀ Ę",
      "ĠĞ# $",
      "ĠĜĞ ĝ",
      "ĀĀĘ Ā",
      "\" )",
      "# ĕ",
      ", !",
      ", ğ",
      "Ĕ ğ",
      "Ė ė",
      "ė Ė",
      "Ę ė",
      "ę '",
      "Ğ )",
      "Ġ! ę",
      "Ġ! ěĝ",
      "Ġ! $$",
      "Ġ! &ğ",
      "Ġ! %ĝ",
      "Ġğ %$",
      "ĠĞ ěĞ",
      "ĀĀ :",
      "Ġĝ ę",
      "Ġ# Ě!",
      "Ġě Ĝ\"",
      "Ġğ! &",
      "Ġ!ğ Ě",
      "Ġ!\" %",
      "Ġ' #",
      "ĠĞ\" %",
      "ĀĀĞ Ā(",
      "Ġ#ğ ě",
      "ĠĝĞ Ĝ",
      "ĀĀĜ Ā'",
      "ĀĀ# Ā%",
      "Ġ\"ĝ $",
      "ĀĀ$ Ā$",
      "Ġ\"# #",
      "Ġ$ğ Ĝ",
      "ĀĀ% Ā&",
      "ĀĀĚ Ā&",
      "ĀĀ& Ā$",
      "ĠĀĀ )",
      "ĠĀĀ *",
      "ĠĜĞ $",
      "Ġ!Ĝ Ĝ",
      "\" +",
      "& Ě",
      ") ,",
      "+ Ĝ",
      ", $",
      ", (",
      "- \"",
      "Ę (",
      "Ğ *",
      "ğ +",
      "Ġ! %!",
      "Ġ! ě!",
      "Ġ\" (",
      "Ġ\" ěĞ",
      "Ġ\" ĜĜ",
      "ĠĞ Ĝ#",
      "Ġĝ %ğ",
      "Ġĝ Ěğ",
      "Ġ# Ĝ\"",
      "Ġ# %Ğ",
      "Ġ$ Ĝ!",
      "Ġ$ %!",
      "ĠĜ $!",
      "ĠĜ Ĝğ",
      "Ġě \"!",
      "Ġě ğ#",
      "Ġě \"ĝ",
      "Ġ% #ğ",
      "Ġ% #!",
      "Ġ% ĞĞ",
      "Ġ% #ĝ",
      "Ġ& ğğ",
      "ĠĚ Ğ\"",
      "Ġę ĝ",
      "Ġğ\" ě",
      "Ġ( !",
      "Ġ#! $",
      "ĀĀ! Āė",
      "ĀĀĝ Āę",
      "ĀĀ# ĀĚ",
      "Ġ#Ğ ě",
      "Ġ\"ĝ Ĝ",
      "ĀĀě Āě",
      "ĀĀě Ā&",
      "Ġ$ğ #",
      "Ġ$ğ ě",
      "Ġ$! Ĝ",
      "$ĀĀ ė",
      "ĠĜ\" Ğ",
      "#ĀĀ ę",
      "ĠĀĀ -",
      "%ĀĀ ę",
      "(ĀĀ (",
      "Ġĝĝ $",
      "ĀĀę Āğ",
      "Ġě! $",
      "# ę",
      "$ )",
      ") *",
      "* ě",
      "+ Ğ",
      "- %",
      "Ĕ ĀĀ",
      "ĕ '",
      "ĕ ĀĀ",
      "Ė Ę",
      "ě )",
      "ě Ę",
      "Ğ ė",
      "Ġ 4",
      "Ġ! Ě!",
      "Ġğ ěğ",
      "Ġğ ĚĞ",
      "Ġ\" %\"",
      "Ġ\" Ěğ",
      "ĠĞ ę",
      "ĠĞ Ĝĝ",
      "Ġĝ Ĝĝ",
      "Ġĝ ĝ#",
      "Ġ$ $\"",
      "Ġ$ ĝĞ",
      "Ġ$ Ğ\"",
      "Ġ$ #Ĝ",
      "ĠĜ #Ğ",
      "ĠĜ Ĝ#",
      "Ġě %",
      "Ġě ğĞ",
      "Ġě !Ğ",
      "Ġ% &",
      "ĠĚ ğ\"",
      "ĠĞ! ě",
      "Ġğ\" %",
      "Ġ\"\" ě",
      "Ġ!ĝ $",
      "ĠĞĝ Ĝ",
      "ĀĀĜ ĀĘ",
      "Ġĝ\" Ĝ",
      "Ġ#Ğ #",
      "ĀĀ$ ĀĘ",
      "ĀĀě ĀĚ",
      "ĀĀě Ā'",
      "ĀĀ% ĀĘ",
      "ĠĜ! ĝ",
      "ĀĀĚ Āě",
      "$ĀĀ )",
      "%ĀĀ ė",
      "&ĀĀ (",
      "ĠĠĠĠĠĠĠĠĠĠĠĠĠĠĠĠ ĠĠĠĠĠĠĠĠĠĠĠ",
      "ĠĠĠĠĠĠĠĠĠĠĠĠĠĠĠĠ ĠĠĠĠĠĠĠĠĠĠ",
      "ĀĀ' Āğ",
      "ĀĀ' Ā\"",
      "ĀĀĘ Āğ",
      "ĀĀ#Ā Ė",
      "! )",
      "! +",
      "\" ė",
      "# )",
      "$ Ę",
      "% Ę",
      "' +",
      "' Ě",
      "( (",
      "( )",
      "( ę",
      ") ě",
      "- Ğ",
      ". %",
      "ē Ĝ",
      "ē Ğ",
      "Ė ĀĀ",
      "ě ė",
      "Ġ! ěĞ",
      "Ġğ Ěĝ",
      "ĠĞ %ĝ",
      "Ġ# Ě",
      "Ġ# ĀĀ",
      "Ġ# $\"",
      "Ġ# $#",
      "Ġ# %\"",
      "Ġ# ĝ#",
      "Ġ$ Ě",
      "Ġ$ Ĝ\"",
      "Ġ$ #\"",
      "Ġ$ ĜĞ",
      "Ġ$ ĝ#",
      "Ġ$ ĝĝ",
      "ĠĜ &",
      "ĠĜ $ğ",
      "Ġě Ĝğ",
      "Ġě #Ğ",
      "Ġě \"#",
      "Ġ% $!",
      "Ġ% \"\"",
      "Ġ!ğ %",
      "Ġ& #",
      "Ġ& %",
      "Ġ& #ğ",
      "Ġ& ĝğ",
      "Ġ& \"ğ",
      "Ġ& \"Ğ",
      "ĠĚ $",
      "ĠĚ ĝğ",
      "Ġ\"! Ě",
      "Ġ' ğ",
      "Ġ!Ğ %",
      "ĠĘ ğ",
      "Ġğĝ ě",
      "ĀĀĝ Ā)",
      "ĀĀ\" Ā(",
      "Ġ!# ě",
      "ĠĞĝ ě",
      "ĠĜ! $",
      "ĀĀĚ Āę",
      "ĠĜ\" $",
      "ĠĀĀ (",
      "ĠĀĀ ę",
      "'ĀĀ ę",
      ")ĀĀ )",
      ")ĀĀ ę",
      "ĠğĜ ě",
      "ĀĀ( Ā!",
      "Ġ%ğ Ĝ",
      "ĠĞ$ Ĝ",
      "Ġ$# ě",
      "$ ,",
      "$ Ė",
      "* )",
      "* *",
      "+ +",
      ", %",
      ". ğ",
      "Ē !",
      "ĕ ė",
      "Ė &",
      "Ė (",
      "Ę ĕ",
      "Ě ė",
      "Ĝ (",
      "Ĝ ĀĀ",
      "ğ ė",
      "Ġ! Ě\"",
      "Ġğ $$",
      "Ġğ ě#",
      "Ġ\" $#",
      "Ġ\" &ğ",
      "Ġ\" %ĝ",
      "ĠĞ $ĝ",
      "Ġĝ $Ğ",
      "Ġĝ %!",
      "Ġ# ĜĜ",
      "Ġ$ Ĝĝ",
      "Ġ$ $ĝ",
      "Ġ$ ĝĜ",
      "ĠĜ ěğ",
      "ĠĜ ##",
      "ĠĜ ě#",
      "Ġě ĝĞ",
      "Ġ% ě",
      "Ġ% ĝĞ",
      "Ġ% \"!",
      "Ġ& &",
      "Ġ& $ğ",
      "Ġ& Ğ!",
      "Ġ& ğ!",
      "Ġ& \"!",
      "Ġ& ğĞ",
      "Ġ& !Ğ",
      "ĠĚ ğğ",
      "ĠğĞ ě",
      "Ġ' ĝ",
      "Ġę \"",
      "Ġ( ğ",
      "ĠĘ Ğ",
      "ĀĀĞ Ā)",
      "Ġ#ğ Ě",
      "ĀĀĝ Āė",
      "ĠĞĝ $",
      "ĠĝĞ $",
      "Ġğ# %",
      "Ġ$\" Ĝ",
      "ĀĀ& Ā%",
      "ĀĀ& Ā&",
      "#ĀĀ (",
      "#ĀĀ +",
      "ĠĀĀ +",
      "ĠĀĀ Ę",
      "%ĀĀ *",
      "%ĀĀ Ė",
      "&ĀĀ ė",
      "'ĀĀ *",
      "'ĀĀ ė",
      "ĠĜĞ Ĝ",
      "Ġ## Ĝ",
      "*ĀĀ '",
      "*ĀĀ Ę",
      "Ġ#ĝ ě",
      "Ġĝĝ %",
      "Ġ%ğ ě",
      "ĠĞ$ %",
      "ĀĀė ĀĞ",
      "ĀĀ) Ā",
      "ĀĀ) Āğ",
      "Ġ%! ě",
      "Ġ%! Ĝ",
      "# Ę",
      "& )",
      "* Ĝ",
      "+ (",
      ", ĝ",
      "- *",
      "Ē ğ",
      "Ĕ Ě",
      "Ė '",
      "ğ )",
      "Ġ 3",
      "Ġ! ė",
      "Ġ! %#",
      "Ġ! ěĜ",
      "Ġ! &#",
      "Ġğ ěĞ",
      "Ġ\" ě\"",
      "Ġ\" %#",
      "ĠĞ %!",
      "ĠĞ %Ğ",
      "ĠĞ &!",
      "ĠĞ Ě!",
      "Ġĝ ěğ",
      "Ġĝ ě!",
      "Ġĝ $#",
      "Ġĝ Ě\"",
      "Ġ# ##",
      "Ġ$ ěğ",
      "Ġ$ ĝ\"",
      "Ġě $ğ",
      "Ġě Ĝ#",
      "Ġě Ğ#",
      "Ġ% ĝ!",
      "Ġ& ě",
      "Ġ& Ğğ",
      "ĠĚ $ğ",
      "ĠĚ \"#",
      "Ġ' !ğ",
      "ĠĘ Ĝ",
      "ĠĝĞ %",
      "ĀĀĜ Āė",
      "ĀĀ# Ā'",
      "ĀĀ# Āė",
      "Ġ$! #",
      "ĀĀĚ ĀĜ",
      "ĀĀ& Āę",
      "$ĀĀ (",
      "$ĀĀ Ę",
      "#ĀĀ ė",
      "&ĀĀ '",
      "&ĀĀ *",
      "'ĀĀ (",
      ")ĀĀ (",
      "ĀĀ' ĀĞ",
      "Ġĝ# $",
      "ĀĀę ĀĞ",
      "ĀĀĘ ĀĜ",
      "ĀĀ( Ā#",
      "ĀĀė Ā",
      "ĀĀĖ Ā!",
      "ĀĀ- Ā",
      "$ ĕ",
      "* Ě",
      ", '",
      ". !",
      ". &",
      "/ ĀĀ",
      "Ē ě",
      "Ē Ĝ",
      "ē \"",
      "ē Ę",
      "ē Ě",
      "Ĕ %",
      "Ĕ &",
      "ė ĕ",
      "ę (",
      "ę ė",
      "Ğ Ė",
      "ğ ĕ",
      "Ġ 5",
      "Ġ Āė",
      "Ġ! (",
      "Ġğ Ě\"",
      "Ġğ ěĝ",
      "Ġğ Ě#",
      "Ġ\" Ĝ#",
      "Ġ\" Ě!",
      "Ġ\" Ĝ$",
      "Ġ\" &Ğ",
      "ĠĞ Ě\"",
      "ĠĞ ěĝ",
      "ĠĞ ě#",
      "ĠĞ ęğ",
      "ĠĞ 'ğ",
      "Ġĝ (",
      "Ġĝ ě#",
      "Ġ# (",
      "Ġ# %ğ",
      "Ġ# Ĝĝ",
      "Ġ# &ğ",
      "Ġ$ Ĝğ",
      "Ġ$ ##",
      "ĠĜ $Ğ",
      "ĠĜ $\"",
      "ĠĜ ĜĞ",
      "ĠĜ #Ĝ",
      "Ġ!! Ě",
      "Ġě #\"",
      "Ġě ĞĞ",
      "Ġě \"Ğ",
      "Ġ% %",
      "Ġ% Ě",
      "Ġ% ĜĞ",
      "Ġ% \"ĝ",
      "Ġ& !ğ",
      "Ġ& !!",
      "Ġ& Ğĝ",
      "ĠĚ ě",
      "ĠĚ ĝ!",
      "Ġ' ğğ",
      "Ġ' ğĞ",
      "Ġę Ĝ",
      "ĠĘ ĝ",
      "Ġ\"Ğ %",
      "Ġ\"Ğ Ě",
      "#ğ \"",
      "Ġ) ğ",
      "Ġ#\" $",
      "Ġ#\" %",
      "Ġ#\" ě",
      "ĀĀ# Ā(",
      "Ġĝ\" %",
      "ĀĀ$ Ā'",
      "ĠĜğ ě",
      "Ġ$! $",
      "ĀĀ% Ā%",
      "Ġ$\" $",
      "$ĀĀ ĕ",
      "#ĀĀ ,",
      "ĠĀĀ '",
      "ĠĞ# Ĝ",
      "ĠğĜ $",
      "Ġ!Ĝ $",
      "*ĀĀ (",
      "ĀĀ' Ā!",
      "Ġĝ# ĝ",
      "ĀĀĘ Ā\"",
      "ĀĀ) Ā!",
      "ĀĀĕ Āğ",
      "Ġ#$ Ĝ",
      "Ġ%Ğ ě",
      "! *",
      "% )",
      "( ,",
      ") -",
      "+ ě",
      "+ ĝ",
      "- !",
      "- $",
      "- '",
      "ē #",
      "ē ğ",
      "Ĕ ė",
      "ĕ &",
      "Ě *",
      "ě Ė",
      "Ĝ +",
      "Ĝ .",
      "Ĝ ē",
      "Ĝ Ĕ",
      "ĝ ė",
      "Ġ! ĀĀ",
      "Ġ! &Ğ",
      "Ġ! 'ğ",
      "Ġ! 'Ğ",
      "Ġğ (",
      "Ġğ Ěğ",
      "Ġğ Ě!",
      "Ġğ %#",
      "Ġğ %ĝ",
      "Ġğ &Ğ",
      "Ġğ '\"",
      "Ġ\" ĀĀ",
      "Ġ\" %!",
      "Ġ\" '!",
      "ĠĞ %\"",
      "ĠĞ $$",
      "ĠĞ &ğ",
      "Ġĝ '",
      "Ġĝ ěĞ",
      "Ġĝ &!",
      "Ġ# ę",
      "Ġ# ě\"",
      "Ġ# Ěğ",
      "Ġ# ěĞ",
      "Ġ# Ě\"",
      "Ġ# %ĝ",
      "Ġ$ %\"",
      "Ġ$ ěĞ",
      "Ġ$ &!",
      "Ġ$ &ğ",
      "ĠĜ $#",
      "ĠĜ Ĝĝ",
      "ĠĜ Ě!",
      "ĠĜ ĝ$",
      "Ġě ĝğ",
      "Ġě ĜĞ",
      "Ġě ěğ",
      "Ġě #$",
      "Ġ% ĝ\"",
      "Ġ& #!",
      "Ġ& Ğ\"",
      "Ġ& ğě",
      "ĠĚ &",
      "ĠĚ !ğ",
      "ĠĚ !!",
      "ĠĚ !Ğ",
      "ĠĚ !\"",
      "ĠĚ \"Ğ",
      "Ġ\"! %",
      "ĠĞğ &",
      "ĠĞğ ě",
      "Ġ!\" Ě",
      "Ġ' \"!",
      "Ġ' !Ğ",
      "Ġę $",
      "Ġ( #",
      "Ġ( ĝ",
      "Ġ\"\" Ě",
      "Ġĝ! &",
      "ĀĀ! Ā(",
      "Ġ) \"",
      "ĠĞĝ %",
      "Ġğ# Ě",
      "ĀĀĜ Ā)",
      "Ġ\"ĝ ě",
      "ĀĀě Ā)",
      "ĠĜğ Ĝ",
      "ĠĜ! %",
      "ĀĀĚ Ā'",
      "Ġ$\" ě",
      "ĀĀ& Āě",
      "$ĀĀ +",
      "ĠĀĀ Ĕ",
      "ĠĀĀ ĕ",
      "ĠĀĀ Ė",
      "%ĀĀ '",
      "%ĀĀ (",
      "%ĀĀ ĕ",
      "'ĀĀ '",
      "$ĝ ĀĀ",
      "(ĀĀ Ę",
      "(ĀĀ ę",
      "ĠĜĞ %",
      "Ġ#ĝ $",
      "ĀĀ' Ā#",
      "ĠĀ Ė",
      "ĀĀĞĀ *",
      "Ġ$Ğ Ĝ",
      "ĀĀĝĀ *",
      "ĀĀ!Ā *",
      "Ġě! %",
      "ĀĀ) Ā\"",
      "ĠěĞ %",
      "\" ,",
      "# ,",
      "# Ė",
      "% .",
      "& ę",
      ") ę",
      "* ,",
      ", )",
      "- )",
      "Ā Ē",
      "Ā ē",
      "č Ġ",
      "Đ Ĝ",
      "ē $",
      "ē ĀĀ",
      "Ĕ Ę",
      "ĕ ę",
      "ė '",
      "Ě +",
      "Ĝ )",
      "ğ ,",
      "ğ ĀĀ",
      "Ġ Ā)",
      "Ġ ĀĀ\"Ā",
      "Ġ! Ěğ",
      "Ġ! &ĝ",
      "Ġğ ę!",
      "Ġğ &#",
      "Ġ\" ě#",
      "Ġ\" ěĜ",
      "Ġĝ %\"",
      "Ġĝ $ĝ",
      "Ġĝ ĜĜ",
      "Ġ# Ę",
      "Ġ$ Ĝ#",
      "Ġ$ Ěğ",
      "Ġ$ ěĝ",
      "Ġ$ ĜĜ",
      "Ġ$ Ğ#",
      "Ġ$ #$",
      "ĠĜ %ğ",
      "Ġ!! ę",
      "Ġě Ě",
      "Ġě #!",
      "Ġě &!",
      "Ġ% ĀĀ",
      "Ġ% ěğ",
      "Ġ% ě\"",
      "Ġ% %ğ",
      "Ġ% !\"",
      "Ġ% &!",
      "Ġ% 'ğ",
      "Ġ% #Ĝ",
      "Ġ% \"Ĝ",
      "Ġ& $!",
      "Ġ& ĝ!",
      "Ġ& #Ğ",
      "Ġ& Ĝĝ",
      "Ġ& \"ĝ",
      "Ġ& ğĝ",
      "Ġ& !Ĝ",
      "ĠĚ %",
      "ĠĚ Ĝğ",
      "ĠĚ Ğ#",
      "ĠĞğ Ě",
      "Ġ' $",
      "Ġ' Ğğ",
      "Ġ\"ğ %",
      "Ġę ğ!",
      "Ġę \"!",
      "Ġ( (",
      "Ġ( !ĝ",
      "ĠĘ \"",
      "ĠĞ\" '",
      "ĠĞ\" ě",
      "ĀĀğ Ā)",
      "Ġĝğ %",
      "Ġĝğ ě",
      "Ġ#ğ $",
      "Ġė \"",
      "#! ĀĀ",
      "ĀĀ\" Āė",
      "Ġ!# %",
      "Ġğ# &",
      "ĀĀ$ Ā(",
      "Ġ\"# $",
      "ĀĀ% Āę",
      "ĀĀĚ Ā(",
      "ĀĀ& Ā'",
      "$ĀĀ '",
      "$ĀĀ *",
      "$ĀĀ ē",
      "#ĀĀ *",
      "#ĀĀ 'Ā",
      "ĠĀĀ ė",
      "&ĀĀ )",
      "&ĀĀ ę",
      "%\" ĀĀ",
      ")ĀĀ -",
      "ĠğĜ Ĝ",
      "*ĀĀ ę",
      "Ġ#ĝ %",
      "ĀĀ' Āĝ",
      "ĀĀ' Āě",
      "ĀĀę Āě",
      "ĀĀĘ ĀĞ",
      "ĀĀĘ Ā#",
      "ĀĀ( Ā\"",
      "Ġğ$ Ĝ",
      "Ġě! ě",
      "Ġ\"Ĝ ě",
      "ĠěĞ $",
      "Ġğě %",
      "ĀĀ+ Āğ",
      "ĀĀ* Ā\"",
      "! Ę",
      "* ę",
      "* 'ĀĀ",
      "- #"
    ]
  }
}