{
  "version": "1.0",
  "truncation": null,
  "padding": null,
  "added_tokens": [],
  "normalizer": null,
  "pre_tokenizer": {
    "type": "ByteLevel",
    "add_prefix_space": false,
    "trim_offsets": true,
    "use_regex": true
  },
  "post_processor": {
    "type": "ByteLevel",
    "add_prefix_space": true,
    "trim_offsets": false,
    "use_regex": true
  },
  "decoder": {
    "type": "ByteLevel",
    "add_prefix_space": true,
    "trim_offsets": true,
    "use_regex": true
  },
  "model": {
    "type": "BPE",
    "dropout": null,
    "unk_token": null,
    "continuing_subword_prefix": null,
    "end_of_word_suffix": null,
    "fuse_unk": false,
    "byte_fallback": false,
    "ignore_merges": false,
    "vocab": {
      "\u0000": 0,
      "\u0001": 1,
      "\u0002": 2,
      "\u0003": 3,
      "\u0004": 4,
      "\u0005": 5,
      "\u0006": 6,
      "\u0007": 7,
      "\b": 8,
      "\t": 9,
      "\n": 10,
      "\u000b": 11,
      "\f": 12,
      "\r": 13,
      "\u000e": 14,
      "\u000f": 15,
      "\u0010": 16,
      "\u0011": 17,
      "\u0012": 18,
      "\u0013": 19,
      "\u0014": 20,
      "\u0015": 21,
      "\u0016": 22,
      "\u0017": 23,
      "\u0018": 24,
      "\u0019": 25,
      "\u001a": 26,
      "\u001b": 27,
      "\u001c": 28,
      "\u001d": 29,
      "\u001e": 30,
      "\u001f": 31,
      " ": 32,
      "!": 33,
      "\"": 34,
      "#": 35,
      "$": 36,
      "%": 37,
      "&": 38,
      "'": 39,
      "(": 40,
      ")": 41,
      "*": 42,
      "+": 43,
      ",": 44,
      "-": 45,
      ".": 46,
      "/": 47,
      "0": 48,
      "1": 49,
      "2": 50,
      "3": 51,
      "4": 52,
      "5": 53,
      "6": 54,
      "7": 55,
      "8": 56,
      "9": 57,
      ":": 58,
      ";": 59,
      "<": 60,
      "=": 61,
      ">": 62,
      "?": 63,
      "@": 64,
      "A": 65,
      "B": 66,
      "C": 67,
      "D": 68,
      "E": 69,
      "F": 70,
      "G": 71,
      "H": 72,
      "I": 73,
      "J": 74,
      "K": 75,
      "L": 76,
      "M": 77,
      "N": 78,
      "O": 79,
      "P": 80,
      "Q": 81,
      "Ā": 82,
      "ć": 83,
      "ċ": 84,
      "Č": 85,
      "č": 86,
      "Ď": 87,
      "ď": 88,
      "Đ": 89,
      "đ": 90,
      "Ē": 91,
      "ē": 92,
      "Ĕ": 93,
      "ĕ": 94,
      "Ė": 95,
      "ė": 96,
      "Ę": 97,
      "ę": 98,
      "Ě": 99,
      "ě": 100,
      "Ĝ": 101,
      "ĝ": 102,
      "Ğ": 103,
      "ğ": 104,
      "Ġ": 105,
      "--": 106,
      "----": 107,
      "-.": 108,
      "-,": 109,
      "--.": 110,
      "--,": 111,
      "-/": 112,
      "-+": 113,
      "--/": 114,
      "--+": 115,
      "ĀĀ": 116,
      "-*": 117,
      ",--": 118,
      ",----": 119,
      ".----": 120,
      ".--": 121,
      "+--": 122,
      "-.----": 123,
      "-)": 124,
      "-,----": 125,
      "/--": 126,
      "--,-": 127,
      "*--": 128,
      "--.-": 129,
      "+----": 130,
      "--*": 131,
      ".--,": 132,
      "--.-,": 133,
      "/----": 134,
      "--.-.": 135,
      "---.": 136,
      "-(": 137,
      "--------": 138,
      ",--,": 139,
      "---,": 140,
      "---": 141,
      "..": 142,
      "--+-": 143,
      ")--": 144,
      "--/-": 145,
      ".,": 146,
      "--,-.": 147,
      "-,,": 148,
      "--.-/": 149,
      "--)": 150,
      "----,": 151,
      "--.-+": 152,
      "(--": 153,
      "--,-,": 154,
      "-.,": 155,
      "---/": 156,
      ".---.": 157,
      "/,": 158,
      "----.": 159,
      "-..": 160,
      "--.----": 161,
      ",---,": 162,
      "-'": 163,
      "/.": 164,
      "-,.": 165,
      "--,-/": 166,
      ",,": 167,
      ",.": 168,
      "--(": 169,
      "*----": 170,
      "--+-.": 171,
      "--/-,": 172,
      "-&": 173,
      "00": 174,
      "--,----": 175,
      "--,-+": 176,
      "+,": 177,
      "---,----": 178,
      "---+": 179,
      "--/-.": 180,
      "*-": 181,
      "--+-/": 182,
      "--+-,": 183,
      "--/-/": 184,
      "--/-+": 185,
      "+.": 186,
      "--.--.": 187,
      "---.----": 188,
      "--+-+": 189,
      "--'": 190,
      "//": 191,
      "++": 192,
      "-+----": 193,
      ",,----": 194,
      "/+": 195,
      "+---,": 196,
      "--.--,": 197,
      "'--": 198,
      ".+": 199,
      "10": 200,
      "--.-*": 201,
      ",+": 202,
      "-/----": 203,
      ",---.": 204,
      "--*-": 205,
      "01": 206,
      "..----": 207,
      ",/": 208,
      ".,----": 209,
      "/---.": 210,
      ",.----": 211,
      "--&": 212,
      ")----": 213,
      "+/": 214,
      ")-": 215,
      "--,-*": 216,
      "(-": 217,
      ",--*": 218,
      "--/-*": 219,
      ".---,": 220,
      ",*": 221,
      "&--": 222,
      "./": 223,
      "-..----": 224,
      ".--*": 225,
      "--,--.": 226,
      ".*": 227,
      "-,,----": 228,
      "02": 229,
      "/*": 230,
      "--+-*": 231,
      ".Ā": 232,
      "ĀĀ.Ā": 233,
      "-.+": 234,
      "'-": 235,
      "-%": 236,
      "--.-)": 237,
      "--,--,": 238,
      "*+": 239,
      "11": 240,
      ",Ā": 241,
      "--.---.": 242,
      "ĀĀ,Ā": 243,
      "-,----.": 244,
      ".--,-,": 245,
      "20": 246,
      "+*": 247,
      "-./": 248,
      "-/,": 249,
      "-.----,": 250,
      "+Ā": 251,
      "ĀĀ+Ā": 252,
      "-.----.": 253,
      "-$": 254,
      "-.-,": 255,
      "%--": 256,
      "*/": 257,
      ",---+": 258,
      "-Ā": 259,
      "-+,": 260,
      "ĀĀ-Ā": 261,
      ".---/": 262,
      "-,----,": 263,
      "*Ā": 264,
      "--.--/": 265,
      "ĀĀ*Ā": 266,
      "-,/": 267,
      "--)-": 268,
      "-,+": 269,
      "--.--------": 270,
      "--,---,": 271,
      "*,": 272,
      ".----.": 273,
      "*.": 274,
      "21": 275,
      "-/+": 276,
      "-/.": 277,
      "----/": 278,
      "-.,----": 279,
      "/Ā": 280,
      "ĀĀ/Ā": 281,
      "-,.----": 282,
      "--.--": 283,
      ",--)": 284,
      ")Ā": 285,
      "12": 286,
      "ĀĀ)Ā": 287,
      "+--*": 288,
      ",----,": 289,
      "%-": 290,
      "--/-)": 291,
      ",----.": 292,
      "$--": 293,
      "(----": 294,
      "30": 295,
      "*---,": 296,
      ".--,-/": 297,
      "--.--+": 298,
      "(Ā": 299,
      "ĀĀ(Ā": 300,
      "-*-": 301,
      "--(-": 302,
      "--+-)": 303,
      "/--*": 304,
      ",--,-,": 305,
      ".--,-": 306,
      "/.--": 307,
      ".----,": 308,
      ")+": 309,
      "----+": 310,
      ".)": 311,
      "-.*": 312,
      "--,-)": 313,
      "+---+": 314,
      "/---/": 315,
      ",)": 316,
      "-.-.": 317,
      "03": 318,
      "-++": 319,
      "-----,": 320,
      "--.-(": 321,
      "/---": 322,
      ".---.-": 323,
      "$-": 324,
      "&-": 325,
      "--.,": 326,
      ".--)": 327,
      "*--*": 328,
      "./----": 329,
      "--,--------": 330,
      "--,-,,": 331,
      "'Ā": 332,
      "*)": 333,
      ",+----": 334,
      "/)": 335,
      "22": 336,
      "--,--": 337,
      "--/--": 338,
      "ĀĀ'Ā": 339,
      "-,*": 340,
      "-/)": 341,
      "--+--": 342,
      "--,,----": 343,
      "--/-(": 344,
      "---.-": 345,
      "/.----": 346,
      "40": 347,
      "--..": 348,
      "--.---,": 349,
      "-+*": 350,
      ".---": 351,
      ".--,-.": 352,
      "-+-": 353,
      "--'-": 354,
      "-,--": 355,
      "+--)": 356,
      ",--,-.": 357,
      "%Ā": 358,
      "+.----": 359,
      ",--,-": 360,
      "-----": 361,
      "--/--,": 362,
      "ĀĀ%Ā": 363,
      "---,-": 364,
      "#-": 365,
      ").": 366,
      "13": 367,
      "-----.": 368,
      "-+-.": 369,
      "(/": 370,
      "23": 371,
      "-/*": 372,
      "&Ā": 373,
      "+,----": 374,
      ",--.-.": 375,
      "--.-.----": 376,
      "--+--,": 377,
      "ĀĀ&Ā": 378,
      "/,----": 379,
      "/--)": 380,
      "*--)": 381,
      "),": 382,
      "/,--": 383,
      "-,-.": 384,
      "--..----": 385,
      "-*----": 386,
      "-)-": 387,
      ".--,-+": 388,
      ",--.-": 389,
      ".+----": 390,
      "Ā+": 391,
      "--/----": 392,
      "--/-.,": 393,
      "--+-(": 394,
      ",--,-/": 395,
      "/+--": 396,
      ")*": 397,
      "--.,----": 398,
      "--+----": 399,
      "-,--------": 400,
      "(.": 401,
      ",--.-,": 402,
      "31": 403,
      "-,-,": 404,
      "-*,": 405,
      ".-----": 406,
      ",---,-": 407,
      "\"--": 408,
      "'+": 409,
      "-#": 410,
      "/+----": 411,
      "ĀĀ$": 412,
      ".--(": 413,
      "+)": 414,
      "50": 415,
      "-+)": 416,
      ",--*-": 417,
      "--*-/": 418,
      "ĀĀ$Ā": 419,
      "+(": 420,
      "-+.": 421,
      "--/-,,": 422,
      ".--*-": 423,
      "--,-(": 424,
      "--+---,": 425,
      "--+-,,": 426,
      "+--*-": 427,
      "/---,": 428,
      "#--": 429,
      ".--.-.": 430,
      "-.-": 431,
      "-,)": 432,
      "--.-,----": 433,
      "--,--/": 434,
      "-/-,": 435,
      "*---+": 436,
      "/----.": 437,
      "--&-": 438,
      "()": 439,
      "--,.----": 440,
      "**": 441,
      "+--.-,": 442,
      ",(": 443,
      "--%": 444,
      "-.)": 445,
      "--,---+": 446,
      ",--,-+": 447,
      ".,--": 448,
      "--.---.----": 449,
      "--,--+": 450,
      "--/-..": 451,
      ",.--,": 452,
      "/--,-": 453,
      "-.(": 454,
      "-,-,----": 455,
      "--.---,----": 456,
      "--/---.": 457,
      "--+-.,": 458,
      ",-----": 459,
      "+--(": 460,
      "--.-'": 461,
      "'----": 462,
      "(+": 463,
      "32": 464,
      "41": 465,
      "Ā.": 466,
      "Ā/": 467,
      "-,-.----": 468,
      "-*-/": 469,
      ".--------": 470,
      "/--(": 471,
      "-\"": 472,
      ".--+-": 473,
      "/--.-,": 474,
      "33": 475,
      "42": 476,
      "Ā*": 477,
      "-,+----": 478,
      "--.---/": 479,
      "-+--": 480,
      "-),": 481,
      "------------": 482,
      ".,--.-,": 483,
      ".,--.-.": 484,
      "!-": 485,
      "(,": 486,
      "/--.-": 487,
      "/--/-": 488,
      "51": 489,
      "-.--": 490,
      "--,-.----": 491,
      "-+/": 492,
      "--/--/": 493,
      "-**": 494,
      "-*--": 495,
      "..--.-,": 496,
      ")--)": 497,
      "!--": 498,
      "++----": 499,
      "/ĀĀ": 500,
      "/*--": 501,
      "04": 502,
      "--,---.": 503,
      "-/--": 504,
      "-/----,": 505,
      ",--------": 506,
      ".---+": 507,
      "/----,": 508,
      ".,--.-": 509,
      "\"-": 510,
      "(*": 511,
      ")(": 512,
      "52": 513,
      "Ā,": 514,
      "-.-+": 515,
      "-.-,----": 516,
      "--.--.----": 517,
      ",--'": 518,
      ",---": 519,
      ".--'": 520,
      "--,-'": 521,
      "--+-'": 522,
      ",---.-": 523,
      ",--/-": 524,
      "--,---,----": 525,
      "-/-.": 526,
      ",----+": 527,
      "+----.": 528,
      "--*-.": 529,
      "--*-*": 530,
      "+'": 531,
      "//--": 532,
      "14": 533,
      "----*": 534,
      "-,-": 535,
      "-,.---.": 536,
      "--.---": 537,
      "--+--.": 538,
      "--+--/": 539,
      "--+--+": 540,
      "----------------": 541,
      "+---,-": 542,
      "++--": 543,
      "+--,-.": 544,
      ".--.-": 545,
      ".--.-,": 546,
      "Ā%": 547,
      "-..---.": 548,
      "-+----.": 549,
      ",--(-": 550,
      "-.--------": 551,
      "/--*-": 552,
      "&.": 553,
      "))": 554,
      ",.--": 555,
      ",/----": 556,
      ",,--,": 557,
      "35": 558,
      "-.-.----": 559,
      "-,---,": 560,
      "--/-,.": 561,
      "--+-..": 562,
      "ĀĀ:": 563,
      ",--(": 564,
      ",----/": 565,
      "-,------": 566,
      "-,------,": 567,
      "--*-,": 568,
      "-(-": 569,
      "--)-/": 570,
      "/---.-": 571,
      "+--.-": 572,
      "+.--,": 573,
      "+--/-": 574,
      "/(": 575,
      "-,..": 576,
      "--.--*": 577,
      "--+-,.": 578,
      "-*.": 579,
      "-*-,": 580,
      ",---/": 581,
      "-)+": 582,
      "*---": 583,
      "---/-": 584,
      "&)": 585,
      "((": 586,
      "+ĀĀ": 587,
      ",ĀĀ": 588,
      "//----": 589,
      "/--.-.": 590,
      "43": 591,
      "61": 592,
      "Ā)": 593,
      "-.,---,": 594,
      "--/--+": 595,
      ".----+": 596,
      "-).": 597,
      "-)----": 598,
      "+-----": 599,
      "--*-+": 600,
      "---'": 601,
      "')": 602,
      ",'": 603,
      ".'": 604,
      ".ĀĀ": 605,
      "/--+-": 606,
      "/)--": 607,
      "53": 608,
      "70": 609,
      "-.---.": 610,
      "-+-/": 611,
      "--/--.": 612,
      ",------": 613,
      "+--'": 614,
      "-.------": 615,
      "*--(": 616,
      ")--(": 617,
      "-,,.----": 618,
      "'*": 619,
      "*(": 620,
      ".--/-": 621,
      "24": 622,
      "34": 623,
      "ĠĀ": 624,
      "--/---/": 625,
      ",--)-": 626,
      ".-----/": 627,
      ".--&": 628,
      ".--)-": 629,
      "-.----/": 630,
      "-.------------": 631,
      "/--)-": 632,
      "...----": 633,
      "----.-": 634,
      "/.--.-": 635,
      "&ĀĀ": 636,
      "''": 637,
      "'(": 638,
      "+-": 639,
      "+--,-": 640,
      "+/----": 641,
      ",--.-+": 642,
      ",--.--.": 643,
      "/--,-,": 644,
      "05": 645,
      "Ġ-": 646,
      "--#": 647,
      "------": 648,
      "-,--,-": 649,
      "-,--.-,": 650,
      "ĀĀ\"": 651,
      ".------": 652,
      ".------------": 653,
      "/--(-": 654,
      "*--*-": 655,
      "+----,": 656,
      ".--,-*": 657,
      "..--.-": 658,
      "..--.-.": 659,
      "--,-----": 660,
      ".---,-": 661,
      "*'": 662,
      "*ĀĀ": 663,
      ",--/-,": 664,
      ".(": 665,
      "15": 666,
      "63": 667,
      "Ā-": 668,
      "--\"": 669,
      "----)": 670,
      "-.--,-": 671,
      "-.--.-.": 672,
      "-,-+": 673,
      "-,--.-.": 674,
      "-,--,-.": 675,
      "--,-,----": 676,
      "--,---.----": 677,
      "-+(": 678,
      "-)--": 679,
      "-,..----": 680,
      "+,--,-": 681,
      "+.--,-": 682,
      "&,": 683,
      "*--/-": 684,
      "+.--": 685,
      "-!": 686,
      "-ĀĀ": 687,
      ".+--": 688,
      ".--.-/": 689,
      "/--,-.": 690,
      ":-": 691,
      "Ā\"": 692,
      "Ā&": 693,
      "-.'": 694,
      "-,--.-": 695,
      "ĀĀ;": 696,
      "+--)-": 697,
      "-))": 698,
      "-)-/": 699,
      "..,----": 700,
      "--/-'": 701,
      "&'": 702,
      "*+----": 703,
      "+--.-.": 704,
      "+--.-+": 705,
      ",*----": 706,
      "..--,": 707,
      "/--.-/": 708,
      "54": 709,
      ":ĀĀ": 710,
      "Ā'": 711,
      "Ā(": 712,
      "--%-": 713,
      "-----+": 714,
      "-.-/": 715,
      "-./---.": 716,
      "-,'": 717,
      "-/-+": 718,
      "--+--*": 719,
      "ĀĀ!": 720,
      "ĀĀ=": 721,
      ",-----,": 722,
      ",-----/": 723,
      ".-----,": 724,
      "+---": 725,
      "-,----+": 726,
      "/-----": 727,
      "---.-*": 728,
      "----,-": 729,
      "/,--.-": 730,
      "/,--.-,": 731,
      ",,--,-": 732,
      "%(": 733,
      "),--": 734,
      "+,--": 735,
      "+,--,": 736,
      "+--.-/": 737,
      ",,--": 738,
      ",--.-/": 739,
      ",--/-.": 740,
      "./--": 741,
      ".--+-.": 742,
      "/'": 743,
      "16": 744,
      "55": 745,
      "64": 746,
      "ğ--": 747,
      "Ġ--": 748,
      "----..": 749,
      "-.--.-": 750,
      "-.+----": 751,
      "-.--.-,": 752,
      "-,(": 753,
      "--,.--,": 754,
      "ĀĀ#": 755,
      ",-----+": 756,
      ",----,,": 757,
      ".--(-": 758,
      "-.----+": 759,
      "*--'": 760,
      "*--)-": 761,
      "/----/": 762,
      ".,,----": 763,
      "-,,.--,": 764,
      "--)-+": 765,
      "--.-----": 766,
      "---+-": 767,
      "&----": 768,
      ")'": 769,
      ",--/": 770,
      ",--+-": 771,
      "..--": 772,
      ".*----": 773,
      ".--/-,": 774,
      "08": 775,
      "25": 776,
      "ğ-": 777,
      "-./,": 778,
      "-,--,-,": 779,
      "-,--,-/": 780,
      "-,--,-+": 781,
      "-+-+": 782,
      "-*(": 783,
      ".----/": 784,
      ".-----+": 785,
      "+---*": 786,
      "-.-----": 787,
      "-,----/": 788,
      "-()": 789,
      "---/----": 790,
      ".---.-,": 791,
      "--(-/": 792,
      "-,----.-": 793,
      "--.------------": 794,
      "%&": 795,
      "%)": 796,
      "%ĀĀ": 797,
      "*,--": 798,
      ".--+": 799,
      "62": 800,
      "Ğ-": 801,
      "----/,": 802,
      "-.--,-.": 803,
      "-.+---,": 804,
      "-,--.-/": 805,
      "-/-": 806,
      "-/.,": 807,
      ",---*": 808,
      ".------.": 809,
      "+--&": 810,
      "/--'": 811,
      "-,,,----": 812,
      "-,.,----": 813,
      "--,---,-": 814,
      "ĀĀ:Ā": 815,
      "&(": 816,
      "&--,-": 817,
      ")/": 818,
      "*--.-.": 819,
      "*----,": 820,
      "+*----": 821,
      ",+--": 822,
      ",*--": 823,
      ",)--": 824,
      ",--/-+": 825,
      ".*--": 826,
      "/--.-+": 827,
      "--$": 828,
      "---*": 829,
      "----(": 830,
      "-...": 831,
      "-..,": 832,
      "-.--,-,": 833,
      "-,,---.": 834,
      "--,---": 835,
      "--,--.----": 836,
      "-/&": 837,
      "-/----.": 838,
      "--/---,": 839,
      "-*'": 840,
      "-*+": 841,
      "-)(": 842,
      "/--'-": 843,
      "+----*": 844,
      "--*-(": 845,
      "---.-+": 846,
      "--)-.": 847,
      ",.--,-": 848,
      "++--,-": 849,
      "--.---.-": 850,
      "*---,-": 851,
      "ĀĀ;Ā": 852,
      "%*": 853,
      "*,--,": 854,
      "+--+-": 855,
      "+)--": 856,
      "+--,-,": 857,
      "+--/-,": 858,
      "+--/-.": 859,
      "+,--*": 860,
      ",&": 861,
      ".,--,": 862,
      "06": 863,
      "18": 864,
      "26": 865,
      "36": 866,
      "46": 867,
      ";ĀĀ": 868,
      "-----/": 869,
      "-----*": 870,
      "-.--.-+": 871,
      "-,--.-+": 872,
      "-,,---,": 873,
      "--.--)": 874,
      "--.--,----": 875,
      "--,--*": 876,
      "--,,--,": 877,
      "-/'": 878,
      "-+-,": 879,
      "-+--.-": 880,
      "--+---.": 881,
      "ĀĀ<": 882,
      "-*----,": 883,
      ",--&": 884,
      "+---.": 885,
      "-)*": 886,
      "*---+-": 887,
      "+----+": 888,
      "+----/": 889,
      "--.-.+": 890,
      "---.-/": 891,
      ".,.----": 892,
      "+,--+-": 893,
      "---+----": 894,
      "--.--.---.": 895,
      "//--.-,": 896,
      ",,----.": 897,
      "-..-----": 898,
      ",---+-": 899,
      ".---/-": 900,
      "$(": 901,
      ")----,": 902,
      "*--,-": 903,
      ",--+-,": 904,
      ",.--,-,": 905,
      ".&": 906,
      "/--/-,": 907,
      "27": 908,
      "56": 909,
      "93": 910,
      "-------,": 911,
      "-./----": 912,
      "-.--/-": 913,
      "-.--.-/": 914,
      "-./.": 915,
      "-.--,-/": 916,
      "-,.,": 917,
      "--.-.----.": 918,
      "--,----,": 919,
      "-/--,-": 920,
      "-+----,": 921,
      "--/---": 922,
      "-*)": 923,
      "+---/": 924,
      "+--(-": 925,
      "+--'-": 926,
      "-.------,----": 927,
      "/-----+": 928,
      "..--.-/": 929,
      "--)-*": 930,
      "(--(": 931,
      "-..,----": 932,
      ",---,-.": 933,
      ",---,-+": 934,
      "-')": 935,
      ",--*-,": 936,
      ".--*-+": 937,
      "-.----,-": 938,
      "$ĀĀ": 939,
      "&/": 940,
      "(ĀĀ": 941,
      ")&": 942,
      ")--,-": 943,
      ")--.-": 944,
      "*--,-.": 945,
      "+)----": 946,
      ",-": 947,
      ",--/-/": 948,
      ".--.-+": 949,
      ".--+-/": 950,
      ".--/-/": 951,
      "/(--": 952,
      "/--,-/": 953,
      "/*----": 954,
      "/--/-.": 955,
      "44": 956,
      "71": 957,
      "80": 958,
      "82": 959,
      "Ā$": 960,
      "--<": 961,
      "--$-": 962,
      "-.&": 963,
      "-,/,": 964,
      "--./----": 965,
      "--,--)": 966,
      "--,--,----": 967,
      "-/-/": 968,
      "-+--.-.": 969,
      "-+..----": 970,
      "-*&": 971,
      "-*/": 972,
      ",---.----": 973,
      "-.----*": 974,
      "-)'": 975,
      "-,------------": 976,
      "-,----,,": 977,
      "-(+": 978,
      "..--,-": 979,
      "(--'": 980,
      "-.,,----": 981,
      "/,--/-/": 982,
      "-...----": 983,
      "/..----": 984,
      "/.--.-,": 985,
      "--.--..----": 986,
      "/+--.-": 987,
      "--.--,.----": 988,
      ".+--.-,": 989,
      ".+--.-.": 990,
      "+/--,-.": 991,
      "--,------------": 992,
      "ĀĀ=Ā": 993,
      "'.": 994,
      ")--+-": 995,
      "*.--": 996,
      "*--.-": 997,
      "*--+-": 998,
      "*----.": 999,
      "*/--*": 1000,
      "+%": 1001,
      "+&": 1002,
      "+--/-+": 1003,
      "+.--*": 1004,
      ",/--": 1005,
      ",--.--/": 1006,
      "-:": 1007,
      ".%": 1008,
      ".--/-*": 1009,
      "/,--,": 1010,
      "/--+-.": 1011,
      "07": 1012,
      "17": 1013,
      "47": 1014,
      "60": 1015,
      "75": 1016,
      "ĜĀ": 1017,
      "--;": 1018,
      "--*--": 1019,
      "--#-": 1020,
      "-------": 1021,
      "----.,": 1022,
      "-.*--": 1023,
      "-..---,": 1024,
      "-,&": 1025,
      "--.----,": 1026,
      "--,+": 1027,
      "-/.----": 1028,
      "-/--.-,": 1029,
      "-/--,-.": 1030,
      "-+'": 1031,
      "-+--,-": 1032,
      "--+-.----": 1033,
      "--+--------": 1034,
      "--+,--,": 1035,
      "--+---+": 1036,
      "ĀĀğ": 1037,
      "+--%": 1038,
      "-.-----,": 1039,
      "-)/": 1040,
      "--.-,.": 1041,
      "/----*": 1042,
      "---.-,": 1043,
      "...": 1044,
      "..--.-+": 1045,
      "--/-&": 1046,
      "--)-(": 1047,
      "-.,.----": 1048,
      "-.,,--,": 1049,
      "--,-/,": 1050,
      "-&(": 1051,
      "-+------": 1052,
      ",,----/": 1053,
      "/+--.-/": 1054,
      ",.-----": 1055,
      "-,,-----": 1056,
      "$.": 1057,
      "%'": 1058,
      "%.": 1059,
      "'&": 1060,
      "'*--": 1061,
      "))--": 1062,
      "*%": 1063,
      "*--.-/": 1064,
      "*--,-/": 1065,
      "+/--": 1066,
      "+--.-*": 1067,
      ",,--,-,": 1068,
      "-;": 1069,
      ".$": 1070,
      ".--.--,": 1071,
      "/--+-/": 1072,
      "29": 1073,
      "37": 1074,
      "49": 1075,
      "58": 1076,
      "90": 1077,
      "ĞĀ": 1078,
      "----+.": 1079,
      "-.--,-+": 1080,
      "-,,--": 1081,
      "--.---+": 1082,
      "-/(": 1083,
      "-/--.-.": 1084,
      "-+&": 1085,
      "-+--,-.": 1086,
      "--/,----": 1087,
      "--+---": 1088,
      "-*----.": 1089,
      ",-----.": 1090,
      ",------.": 1091,
      ".----..": 1092,
      "-.------,": 1093,
      "-.-----.----": 1094,
      "-.----..": 1095,
      "-)-+": 1096,
      "-)--.-.": 1097,
      "-,----,.": 1098,
      "/--&": 1099,
      "*--&": 1100,
      "*---*": 1101,
      "--*--.": 1102,
      "--*--,": 1103,
      "/-----,": 1104,
      "---.-.": 1105,
      "-((": 1106,
      "-(--": 1107,
      "---,-,": 1108,
      ")--'-": 1109,
      ".,,--,": 1110,
      "--,-,/": 1111,
      "---/-+": 1112,
      "/,--.-+": 1113,
      "--.------": 1114,
      ",---,-/": 1115,
      "*----/": 1116,
      "++--,-.": 1117,
      "-+----+": 1118,
      "-/----+": 1119,
      "./--.-,": 1120,
      "*+--,-": 1121,
      ",---+-/": 1122,
      "*,--,-": 1123,
      "ĀĀ\"Ā": 1124,
      "ĀĀ!Ā": 1125,
      "$$": 1126,
      "$&": 1127,
      "&&": 1128,
      "',": 1129,
      "('": 1130,
      "(--,-": 1131,
      ")---": 1132,
      ")--.-+": 1133,
      "+--,-/": 1134,
      "+--,-+": 1135,
      "+--/-/": 1136,
      "+--/-*": 1137,
      ",-.----": 1138,
      ",--+-+": 1139,
      ".-,----": 1140,
      ".--+-,": 1141,
      "/-": 1142,
      "/--,-+": 1143,
      "/--+-,": 1144,
      "/)----": 1145,
      "/--,-*": 1146,
      "/--/-*": 1147,
      "45": 1148,
      "65": 1149,
      "72": 1150,
      "73": 1151,
      "78": 1152,
      "91": 1153,
      "?Ā": 1154,
      "Ğ--": 1155,
      "--!-": 1156,
      "------,": 1157,
      "-------.": 1158,
      "-.%": 1159,
      "-//": 1160,
      "-/--.-": 1161,
      "-+,----": 1162,
      "-+.----": 1163,
      "-+--.-/": 1164,
      "-+/.": 1165,
      "-+,/": 1166,
      "--/--------": 1167,
      "--/---,----": 1168,
      "--/---+": 1169,
      "--+--)": 1170,
      "ĀĀĜĀ": 1171,
      "-*--.-.": 1172,
      ",------------": 1173,
      ".---.----": 1174,
      ".--'-": 1175,
      "+---.-": 1176,
      "-)%": 1177,
      "-,-----": 1178,
      "/--)--": 1179,
      "+-----.": 1180,
      "+-----,": 1181,
      "+-----/": 1182,
      "--*-..": 1183,
      "/-----.": 1184,
      "/-----*": 1185,
      "-(,": 1186,
      "-(/": 1187,
      "---,--": 1188,
      "---&": 1189,
      "..--+-": 1190,
      "..--.--.": 1191,
      ")--)-": 1192,
      ".,--/-": 1193,
      "--,-.,": 1194,
      "----,,": 1195,
      "--.-++": 1196,
      "---/-,": 1197,
      "/,--.-/": 1198,
      "-'+": 1199,
      "/.--/-+": 1200,
      ",.--.-": 1201,
      ",.--+-": 1202,
      "--(-+": 1203,
      "--,------.----": 1204,
      "+,.----": 1205,
      "//--.-": 1206,
      "+---,-/": 1207,
      ",+--.-,": 1208,
      ",*--,-": 1209,
      "--,--.,----": 1210,
      "--,--.---.": 1211,
      "--.---.-/": 1212,
      "-.----.-": 1213,
      "--.,--.-,": 1214,
      ".--)-+": 1215,
      "/---,-": 1216,
      "ĀĀ#Ā": 1217,
      "ĀĀ<Ā": 1218,
      "\"'": 1219,
      "#.": 1220,
      "$)": 1221,
      "$,": 1222,
      "$/": 1223,
      "$+--": 1224,
      "%/": 1225,
      "%----": 1226,
      "(,--": 1227,
      "((--": 1228,
      ")$": 1229,
      ")%": 1230,
      ")ĀĀ": 1231,
      ")--.-,": 1232,
      "*#": 1233,
      "*,----": 1234,
      "*.----": 1235,
      "*+--": 1236,
      "**--": 1237,
      "*.--,": 1238,
      "*(--": 1239,
      "*--,-+": 1240,
      "+--+-+": 1241,
      "+--.--+": 1242,
      ",.--,-/": 1243,
      ",,--,-.": 1244,
      ",--+--,": 1245,
      "-ğ": 1246,
      ".--/-.": 1247,
      ".--/-+": 1248,
      ".)----": 1249,
      ".(----": 1250,
      "/--/-+": 1251,
      "83": 1252,
      ";-": 1253,
      "@Ā": 1254,
      "ĝ-": 1255,
      "Ġ2": 1256,
      "--!": 1257,
      "--)--": 1258,
      "--(--": 1259,
      "------.": 1260,
      "------.----": 1261,
      "----*-": 1262,
      "-./+": 1263,
      "-./*": 1264,
      "-,--/-": 1265,
      "-,.---,": 1266,
      "--.--(": 1267,
      "-/%": 1268,
      "-/--,-+": 1269,
      "-+--.-,": 1270,
      "-+.---.": 1271,
      "-+,.": 1272,
      "--/--*": 1273,
      "--+---.----": 1274,
      "-*--.-": 1275,
      ",--'-": 1276,
      ",---*-": 1277,
      ",----*": 1278,
      ",------,": 1279,
      ",----/.": 1280,
      ".------+": 1281,
      ".---.--------": 1282,
      "+---*-": 1283,
      "-.-----/": 1284,
      "-.------/": 1285,
      "-.----,.": 1286,
      "-,----*": 1287,
      "-,-------.----": 1288,
      "/--!": 1289,
      "--*--/": 1290,
      "--*-)": 1291,
      "--*-'": 1292,
      ".--,----": 1293,
      ".--,-,,": 1294,
      "/----+": 1295,
      "/----+.": 1296,
      ",--,--": 1297,
      "---,---,": 1298,
      "---'-": 1299,
      "..--/-": 1300,
      ".,--.-+": 1301,
      ".,--.-*": 1302,
      "--,-.-,": 1303,
      "--.-+-/": 1304,
      ".---.-*": 1305,
      ",---,-..": 1306,
      ",,,----": 1307,
      ",,.----": 1308,
      ",.--.-+": 1309,
      "--(-,": 1310,
      "*-----": 1311,
      "-&*": 1312,
      "+,--+-.": 1313,
      "+.--+-.": 1314,
      "/+--.-,": 1315,
      "+---,-+": 1316,
      "--.--,,--,": 1317,
      ",+--,-.": 1318,
      ",+--,-,": 1319,
      "-/----/": 1320,
      "..----.": 1321,
      ".,----,": 1322,
      ".,----.": 1323,
      "/---.-+": 1324,
      ",--*-*": 1325,
      "./--.-": 1326,
      ".--*-.": 1327,
      "--,--,---,": 1328,
      "*.--,-": 1329,
      "----/-": 1330,
      ",--)-/": 1331,
      "+--*-.": 1332,
      ",----.-,----": 1333,
      "/--*-/": 1334,
      ".----,-.----": 1335,
      ".--)-/": 1336,
      "\"&": 1337,
      "\"ĀĀ": 1338,
      "#'": 1339,
      "#,": 1340,
      "%#": 1341,
      "%,--": 1342,
      "%--)": 1343,
      "&+": 1344,
      "&*--": 1345,
      "'%": 1346,
      "'+--": 1347,
      "(.--": 1348,
      ")+--": 1349,
      ")--/-": 1350,
      "*&": 1351,
      "*--.-,": 1352,
      "*--/-/": 1353,
      "*.--*": 1354,
      "*--/-)": 1355,
      "+--+-.": 1356,
      "+--+-/": 1357,
      "+--.--": 1358,
      "+--/-)": 1359,
      "+--/--,": 1360,
      "+*--)": 1361,
      ",--+": 1362,
      ",-,----": 1363,
      ",--.-*": 1364,
      ",--/--": 1365,
      "-Ğ": 1366,
      ".)--": 1367,
      ".--+-+": 1368,
      ".--.-(": 1369,
      "09": 1370,
      "38": 1371,
      "66": 1372,
      "ě-": 1373,
      "--?": 1374,
      "------/": 1375,
      "-..---/": 1376,
      "-,-*": 1377,
      "-,+.": 1378,
      "-,+/": 1379,
      "-,,---+": 1380,
      "-,/---": 1381,
      "-,.---.-": 1382,
      "--./": 1383,
      "--.-.----,": 1384,
      "--,---/": 1385,
      "--,-.----,": 1386,
      "-/-.----": 1387,
      "-/+,": 1388,
      "-+-.----": 1389,
      "-++---+": 1390,
      "--/.----": 1391,
      "--/-.----": 1392,
      "--+--,----": 1393,
      "ĀĀę": 1394,
      "ĀĀĚ": 1395,
      "-*%": 1396,
      "-*-+": 1397,
      "-*+/": 1398,
      ",------+": 1399,
      ",-----..----": 1400,
      ",------.---.": 1401,
      ".---*": 1402,
      "+---)": 1403,
      "-.------.": 1404,
      "-)--.-": 1405,
      "-,------.": 1406,
      "/--%": 1407,
      "/---+": 1408,
      "*---/": 1409,
      "*---)": 1410,
      ".--,---,----": 1411,
      "/----..": 1412,
      "--.-.-,": 1413,
      "--.-.-,----": 1414,
      "--.-..---.": 1415,
      "-(.": 1416,
      "-(----": 1417,
      ",--,---.----": 1418,
      ".,+----": 1419,
      "--)-,": 1420,
      "----,.": 1421,
      "----,-/": 1422,
      "--,-,+": 1423,
      "-.,--.-": 1424,
      "---/-/": 1425,
      "/,--/-": 1426,
      "-...--,": 1427,
      "-'(": 1428,
      "-'/": 1429,
      "/.--,-": 1430,
      "/.--/-": 1431,
      "-,./----": 1432,
      ",.--+-,": 1433,
      "--(-.": 1434,
      "--+-.*": 1435,
      "--/-,-": 1436,
      "-&%": 1437,
      "-&-": 1438,
      "000": 1439,
      "--+-,+": 1440,
      "++--,-/": 1441,
      ",,-----": 1442,
      "--*-%": 1443,
      "..----+": 1444,
      "..-----": 1445,
      "/---.-/": 1446,
      ",.----.": 1447,
      "-.+.--,": 1448,
      "--.-).": 1449,
      "--,--,---+": 1450,
      "ĀĀ,Ā)": 1451,
      "-./.----": 1452,
      "*/--,-.": 1453,
      ",---+-.": 1454,
      "-+,.--,": 1455,
      "-.,-----": 1456,
      "-,.-----": 1457,
      "--..--.-.": 1458,
      "--/--,.----": 1459,
      "-,-----------.": 1460,
      "-,-----------,": 1461,
      "#&": 1462,
      "#ĀĀ": 1463,
      "$--.-": 1464,
      "%,": 1465,
      "&--.-": 1466,
      "(+--": 1467,
      "(*--": 1468,
      "(--.-": 1469,
      "(---": 1470,
      "(--+-": 1471,
      "(--)": 1472,
      ")/--": 1473,
      ")---,": 1474,
      ")--.-/": 1475,
      ")(--": 1476,
      ")+--*": 1477,
      "*/----": 1478,
      "*)--": 1479,
      "*--.-+": 1480,
      "*--/-.": 1481,
      "*--/-+": 1482,
      "+$": 1483,
      "+*--": 1484,
      ",$": 1485,
      ",--+-.": 1486,
      ",--/-*": 1487,
      ".#": 1488,
      ".--.-*": 1489,
      ".--.-)": 1490,
      ".%--": 1491,
      ".--/-,.": 1492,
      "/&": 1493,
      "110": 1494,
      "67": 1495,
      "74": 1496,
      "76": 1497,
      "81": 1498,
      "94": 1499,
      "=ĀĀ": 1500,
      ">Ā": 1501,
      "Ā!": 1502,
      "Ĝ-": 1503,
      "-->": 1504,
      "--Ğ": 1505,
      "--ğ": 1506,
      "--Ğ-": 1507,
      "-.,--,": 1508,
      "-.--+-": 1509,
      "-.)--": 1510,
      "-.+,": 1511,
      "-.--/-.": 1512,
      "-.--+-/": 1513,
      "-,,--,": 1514,
      "-,--+-,": 1515,
      "-,++": 1516,
      "--..--": 1517,
      "--.,--,": 1518,
      "--.-,----.": 1519,
      "--,+----": 1520,
      "--,-,----.": 1521,
      "-/--------": 1522,
      "-/,,----": 1523,
      "-/,*": 1524,
      "-//.----": 1525,
      "--/---.----": 1526,
      "ĀĀĝ": 1527,
      "-*-.": 1528,
      "-*--.-,": 1529,
      ",---)": 1530,
      ".----)": 1531,
      ".----,--,": 1532,
      ".--%": 1533,
      ".--)--": 1534,
      ".---+-": 1535,
      "+---.-,": 1536,
      "-.-----+": 1537,
      "-.-----,----": 1538,
      "-)&": 1539,
      "/---.----": 1540,
      "/--$-": 1541,
      "*---.": 1542,
      "*---(": 1543,
      "*---*-": 1544,
      "--.-%": 1545,
      "+------/": 1546,
      "+----+,": 1547,
      "--*-.,": 1548,
      "--*-,.": 1549,
      "--*-&": 1550,
      "--*-/)": 1551,
      "/-----/": 1552,
      "--.-./": 1553,
      "---.-)": 1554,
      "--------,": 1555,
      "---------": 1556,
      "---%": 1557,
      "..--/-.": 1558,
      "..--/-+": 1559,
      "..--.--,": 1560,
      "--+-&": 1561,
      ")---)": 1562,
      ")---+-": 1563,
      "--/-$": 1564,
      "--/-%": 1565,
      ".,--,-": 1566,
      ".,--.--.": 1567,
      "-,,/": 1568,
      "-,,--,-": 1569,
      "-,,.--,-": 1570,
      "----,)": 1571,
      "----,-,": 1572,
      "--.-+,": 1573,
      "(---+-": 1574,
      "-.,+----": 1575,
      "-.,.--,": 1576,
      "---/-*": 1577,
      "/,--.--,": 1578,
      "----..----": 1579,
      "-../--": 1580,
      "--.------.----": 1581,
      "/.--.-.": 1582,
      ",,--.-": 1583,
      ",,--.-,": 1584,
      ",,--+-": 1585,
      ",..----": 1586,
      "*----+": 1587,
      "-&--": 1588,
      "--,------": 1589,
      "--,-----/": 1590,
      "+,--+-,": 1591,
      "+,--+-+": 1592,
      "---,----,": 1593,
      "---+-/": 1594,
      "--+-/)": 1595,
      "//--.-.": 1596,
      "//--/-": 1597,
      "//--.-+": 1598,
      "//--/-,": 1599,
      "++--,-,": 1600,
      "-+----/": 1601,
      ",,-----.----": 1602,
      "/+--/-": 1603,
      ".+--,-.": 1604,
      ".+--/-,": 1605,
      ",---.-.,": 1606,
      ",/--,-,": 1607,
      ".,-----": 1608,
      "/---.-,": 1609,
      ",.----,": 1610,
      "--&-)": 1611,
      ".---,-/": 1612,
      "./--.-.": 1613,
      "/*--.-": 1614,
      "*+--,-.": 1615,
      "-/,,--,": 1616,
      "-.----,-.----": 1617,
      "-.----,-,----": 1618,
      "-.-,--.-,": 1619,
      "ĀĀ*Ā)": 1620,
      "-,/.----": 1621,
      ".----.-": 1622,
      ".----.-,----": 1623,
      "ĀĀ/Ā)": 1624,
      ",--)-.": 1625,
      ",----,-,----": 1626,
      "--,-).": 1627,
      "+---+-": 1628,
      "/---/-": 1629,
      "-.-.--": 1630,
      "--.,--.-/": 1631,
      "*--*-.": 1632,
      "+--)-.": 1633,
      "-----.-": 1634,
      "-,-----------": 1635,
      "-+..--": 1636,
      "/--(-/": 1637,
      ",--'-/": 1638,
      "!(": 1639,
      "#$": 1640,
      "#%": 1641,
      "#*": 1642,
      "#-+": 1643,
      "#--,-": 1644,
      "$%": 1645,
      "%%": 1646,
      "&%": 1647,
      "&/--": 1648,
      "'!": 1649,
      "'$": 1650,
      "'--/-": 1651,
      "'--'": 1652,
      "(%": 1653,
      "(--.-,": 1654,
      "(---,": 1655,
      ").--": 1656,
      ")*--": 1657,
      ").--,": 1658,
      ")--.-.": 1659,
      ")--,-/": 1660,
      ")--+-/": 1661,
      ")--*-": 1662,
      ").--*": 1663,
      ")/--)": 1664,
      "*--.-*": 1665,
      "*--.-(": 1666,
      "+(--": 1667,
      "+--,--,": 1668,
      "+$--": 1669,
      "+.--,-+": 1670,
      ",--+-/": 1671,
      ",--.--,": 1672,
      ",)----": 1673,
      ",--.--": 1674,
      ",--/-)": 1675,
      ",,--,-/": 1676,
      "-<": 1677,
      "-?": 1678,
      ".'--": 1679,
      "..--,-/": 1680,
      ".--/--": 1681,
      ".--+--": 1682,
      "/--.-)": 1683,
      "/--,--": 1684,
      "48": 1685,
      "59": 1686,
      "68": 1687,
      "87": 1688,
      ":ĀĀ.Ā": 1689,
      "--:": 1690,
      "---(": 1691,
      "--\"-": 1692,
      "----+,": 1693,
      "----/+": 1694,
      "----*.": 1695,
      "-.--+": 1696,
      "-.--.--.": 1697,
      "-.-+----": 1698,
      "-.--.--,": 1699,
      "-.,---.": 1700,
      "-.--,--.": 1701,
      "-..---": 1702,
      "-,%": 1703,
      "-,.--,": 1704,
      "-,---.": 1705,
      "-,--/-+": 1706,
      "-,.---/": 1707,
      "--.----.": 1708,
      "--,.": 1709,
      "--,/----": 1710,
      "-/--.-/": 1711,
      "-/--.-+": 1712,
      "-/--,-,": 1713,
      "-/--,-/": 1714,
      "-/,.": 1715,
      "-/.---,": 1716,
      "-+.,": 1717,
      "-+--,-+": 1718,
      "-++.": 1719,
      "-++---,": 1720,
      "-+--.--,": 1721,
      "-+,---.": 1722,
      "-++/": 1723,
      "-+*+": 1724,
      "--//": 1725,
      "--/--)": 1726,
      "--+---/": 1727,
      "ĀĀĞĀ": 1728,
      "ĀĀ?Ā": 1729,
      "-*$": 1730,
      "-*--,-": 1731,
      "-*--,-.": 1732,
      "-*,.": 1733,
      ",---,----": 1734,
      ",--#-": 1735,
      ",----(": 1736,
      ",-------.": 1737,
      ".----*": 1738,
      ".-----.": 1739,
      ".------,": 1740,
      ".-----,.----": 1741,
      ".--!": 1742,
      "+---(": 1743,
      "-.-------.----": 1744,
      "-.-----..----": 1745,
      "-)#": 1746,
      "-)--,-": 1747,
      "-,----.--,": 1748,
      "-,------.----": 1749,
      "/--%-": 1750,
      "*---.-": 1751,
      "--.-#": 1752,
      "--*--+": 1753,
      "--*-/,": 1754,
      "--*-/+": 1755,
      ".--,--,": 1756,
      ".--,-.,": 1757,
      "--.-,,": 1758,
      "--.-,..----": 1759,
      "/----.,": 1760,
      "--.-.+---,": 1761,
      "---.--.-.": 1762,
      "---.-(": 1763,
      "-(-+": 1764,
      "--------.": 1765,
      ",--,--+": 1766,
      "---,-.": 1767,
      "---$": 1768,
      "---$-": 1769,
      "..--/-*": 1770,
      "..--.--+": 1771,
      ")---+": 1772,
      ")---)-": 1773,
      ".,+": 1774,
      "-,,,--,": 1775,
      "--.-//": 1776,
      "--.-/-,----": 1777,
      "----,/": 1778,
      "(---)": 1779,
      "(---*-": 1780,
      "--,-,.----": 1781,
      "/,,--,": 1782,
      "/,--/-+": 1783,
      "----.-+----": 1784,
      "-...--": 1785,
      ",---,-,": 1786,
      "-'-": 1787,
      "-'.": 1788,
      "/.--.-/": 1789,
      "/.--.-+": 1790,
      ",,/": 1791,
      ",.--.-.": 1792,
      "--+-./": 1793,
      "--/-,+": 1794,
      "-&/": 1795,
      "--,-+.": 1796,
      "+,--.-/": 1797,
      "---,----.": 1798,
      "--/-./": 1799,
      "--+-,/": 1800,
      "--+-,-.": 1801,
      "+.--+-": 1802,
      "--.--.,----": 1803,
      "--+-+*": 1804,
      "--+-+-": 1805,
      "--'-/": 1806,
      "--'-+": 1807,
      "++--+-+": 1808,
      ",,----,": 1809,
      "/+--/-+": 1810,
      "+---,-,": 1811,
      ".+--/-+": 1812,
      ",+--,-": 1813,
      ",+--.-": 1814,
      ",+--,-+": 1815,
      ",/--+-": 1816,
      ",/--,-.": 1817,
      ",/--,-/": 1818,
      ".,----/": 1819,
      ".,----,,": 1820,
      "--&-.": 1821,
      ")----+": 1822,
      "+/--,-": 1823,
      "--,-*+": 1824,
      ",--*-.": 1825,
      ",--*-+": 1826,
      ".---,-+": 1827,
      ",*--.-/": 1828,
      ",*--,-/": 1829,
      "./--.-+": 1830,
      ".--*-,": 1831,
      ".*--.-,": 1832,
      "ĀĀ.Ā(": 1833,
      "-/,.--,": 1834,
      "-.-,--": 1835,
      "*/--,-": 1836,
      "-,----,-": 1837,
      "-,----,-/": 1838,
      "-,----,-,----": 1839,
      "--.--/---.": 1840,
      "ĀĀ*Ā+": 1841,
      "-,//--": 1842,
      "--.--------.": 1843,
      "ĀĀ)Ā+": 1844,
      "ĀĀ)Ā,": 1845,
      "+---+-.": 1846,
      "-.-.--,-.": 1847,
      "--.-(.": 1848,
      "*--*-/": 1849,
      "./----,": 1850,
      "--,---)": 1851,
      "--..--.-": 1852,
      "-+-.--": 1853,
      "-+-.--.-/": 1854,
      "(/--,-": 1855,
      "(/--+-": 1856,
      "-,-.--": 1857,
      ".+----/": 1858,
      "--.---.----,": 1859,
      "-,+-----": 1860,
      "--------------": 1861,
      "+----,-": 1862,
      "ĀĀğĀ": 1863,
      "!.": 1864,
      "!Ā": 1865,
      "!--)-": 1866,
      "\",": 1867,
      "\"+--": 1868,
      "#/": 1869,
      "#Ā": 1870,
      "$:": 1871,
      "$-/": 1872,
      "$*--": 1873,
      "%-+": 1874,
      "%+--": 1875,
      "&.--": 1876,
      "&+--": 1877,
      "&.--*-": 1878,
      "',--": 1879,
      "'.--": 1880,
      "'--,-": 1881,
      "'--)": 1882,
      "'*--)": 1883,
      "(:": 1884,
      "(--/-": 1885,
      "(--.-/": 1886,
      "(--,-,": 1887,
      "(--/-*": 1888,
      "(+--*": 1889,
      ")--*": 1890,
      ")--,-.": 1891,
      ")----.": 1892,
      ")--/-+": 1893,
      ")/--*": 1894,
      "*$": 1895,
      "*--,-,": 1896,
      "**----": 1897,
      "*--,--,": 1898,
      "+--/": 1899,
      "+--.--.": 1900,
      "+--.--,": 1901,
      "+--.-)": 1902,
      "+ĀĀ,Ā": 1903,
      "+%--": 1904,
      "+(----": 1905,
      "+.--,-/": 1906,
      "+/--*": 1907,
      "+,--,-,": 1908,
      "+--/--": 1909,
      ",'--": 1910,
      ",,--*": 1911,
      ",--+--": 1912,
      ",--.---,": 1913,
      ",,--*-": 1914,
      ",--.--.----": 1915,
      "-=": 1916,
      "-ĝ": 1917,
      ".!": 1918,
      ".--/": 1919,
      ".ĀĀ,Ā": 1920,
      ".,--,-,": 1921,
      "/$": 1922,
      "/.--,-/": 1923,
      "/-ĀĀ": 1924,
      "39": 1925,
      "69": 1926,
      "77": 1927,
      "85": 1928,
      "92": 1929,
      "96": 1930,
      "97": 1931,
      ":--": 1932,
      ";-,": 1933,
      "<ĀĀ(Ā": 1934,
      "Ā//": 1935,
      "Ā.*": 1936,
      "Ā.)": 1937,
      "Ā,)": 1938,
      "Ā),": 1939,
      "Ě-": 1940,
      "Ĝ--": 1941,
      "ĝ--": 1942,
      "ğ(": 1943,
      "Ġ\"": 1944,
      "Ġ&": 1945,
      "--ĝ": 1946,
      "--:-": 1947,
      "------*": 1948,
      "------.-,": 1949,
      "-----,,": 1950,
      "----/.": 1951,
      "----//": 1952,
      "----/*": 1953,
      "-.#": 1954,
      "-.--.----": 1955,
      "-.--+-.": 1956,
      "-.--*-": 1957,
      "-.--,-*": 1958,
      "-.-.----.": 1959,
      "-.,---+": 1960,
      "-./---/": 1961,
      "-./---": 1962,
      "-.--,-,,": 1963,
      "-.--,--": 1964,
      "-..,--.-.": 1965,
      "-,$": 1966,
      "-,--,": 1967,
      "-,-(": 1968,
      "-,/.": 1969,
      "-,+---,": 1970,
      "-,--,-*": 1971,
      "-,--,--.": 1972,
      "-,*---,": 1973,
      "--./--": 1974,
      "--.+----": 1975,
      "--,--(": 1976,
      "--,-.----.": 1977,
      "-/$": 1978,
      "-/,----": 1979,
      "-//--": 1980,
      "-//----": 1981,
      "-/--*-": 1982,
      "-/-,--": 1983,
      "-+---,": 1984,
      "-+--.-+": 1985,
      "-+--,-/": 1986,
      "-+//": 1987,
      "-+--,-*": 1988,
      "-+/*": 1989,
      "-+*,": 1990,
      "--/,--": 1991,
      "--/.--": 1992,
      "--/-,----": 1993,
      "--/-,----,": 1994,
      "--/,--.-": 1995,
      "--+,----": 1996,
      "--+.----": 1997,
      "--+----,": 1998,
      "--+,--,-,": 1999,
      "ĀĀ@": 2000,
      "ĀĀė": 2001,
      "ĀĀě": 2002,
      "ĀĀ>Ā": 2003,
      "-*---,": 2004,
      "-*,,": 2005,
      "-*--/-/": 2006,
      "-*,.----": 2007,
      "-*.---": 2008,
      "-*-,--": 2009,
      ",--$": 2010,
      ",---/-,": 2011,
      ",---*-/": 2012,
      ",-----*": 2013,
      ",-----)": 2014,
      ".------.----": 2015,
      ".-------.----": 2016,
      ".-----+----": 2017,
      "+--\"": 2018,
      "-.--------,": 2019,
      "-.-------/": 2020,
      "-.----/.": 2021,
      "-.-----,,----": 2022,
      "-.------.------": 2023,
      "-)-.--": 2024,
      "-,----.----": 2025,
      "-,----..": 2026,
      "-,------,----": 2027,
      "-,----+.": 2028,
      "/---*": 2029,
      "/--&-": 2030,
      "--,-$": 2031,
      "--,-&": 2032,
      "*--&-": 2033,
      "*---)-": 2034,
      "+-----+": 2035,
      "+----.,": 2036,
      "+----/.": 2037,
      "+----,.": 2038,
      "--*----": 2039,
      "--*-))": 2040,
      ".--,-..": 2041,
      "/------": 2042,
      "/------*": 2043,
      "--.-.,": 2044,
      "--.-.,----": 2045,
      "--.-.,,----": 2046,
      "---.-.,": 2047,
      "---------.": 2048,
      ",--,-*": 2049,
      ",--,---,----": 2050,
      "..--+-.": 2051,
      "..--.--------": 2052,
      "--+-%": 2053,
      ")--\"": 2054,
      ")--'": 2055,
      ")---*": 2056,
      ".,--+-,": 2057,
      ".,--/-/": 2058,
      ".,--.--,": 2059,
      "--,-.+,----": 2060,
      "-,,+----": 2061,
      "--)-,,": 2062,
      "--)-%": 2063,
      "--.-+)": 2064,
      "--.-+*": 2065,
      "--.-+-": 2066,
      "(---*": 2067,
      "(--'-": 2068,
      "--,-,-": 2069,
      "--,-,,----": 2070,
      "--,-,-.----": 2071,
      "--,-,,---,": 2072,
      "---/----,": 2073,
      "---/-,.": 2074,
      ".---.-.": 2075,
      ".---.-,.": 2076,
      "/,,----": 2077,
      "/,--.-*": 2078,
      "----.-,": 2079,
      "----.-+": 2080,
      "----.-,----": 2081,
      "-..+": 2082,
      "-..,--": 2083,
      "-..--.-": 2084,
      "-../----": 2085,
      "--.------,-": 2086,
      ",---,---.": 2087,
      "-',": 2088,
      "/.--/-/": 2089,
      "-,..--": 2090,
      "-,./--": 2091,
      "-,..--,": 2092,
      "-,.,----.": 2093,
      ",,--+-,": 2094,
      ",,--+-*": 2095,
      ",.,----": 2096,
      ",.--+-.": 2097,
      "*----.,": 2098,
      "*----++": 2099,
      "-&,": 2100,
      "--,-+(": 2101,
      "+,--/-": 2102,
      "+,--+-*": 2103,
      "---,--------": 2104,
      "---,------.----": 2105,
      "--+-/*": 2106,
      "--+-/,": 2107,
      "--+-,)": 2108,
      "+.--.-,": 2109,
      "--.--..": 2110,
      "--.--.---/": 2111,
      "--+-+,": 2112,
      "//--.-/": 2113,
      "//--,-+": 2114,
      "++--.-": 2115,
      "++--,-+": 2116,
      "-+-----+": 2117,
      "/+--.-.": 2118,
      "--.--,---,": 2119,
      "'---(": 2120,
      ".+--.-": 2121,
      ".+--/-": 2122,
      ".+--.-/": 2123,
      ".+--.-*": 2124,
      ",+--+-": 2125,
      "-/------/": 2126,
      "..----*": 2127,
      "..----,": 2128,
      ",/--.-": 2129,
      ",.----+": 2130,
      "+/--+-": 2131,
      ",*--+-": 2132,
      "&--%-": 2133,
      "-..------.----": 2134,
      "--,--..----": 2135,
      "--,--.,--,": 2136,
      ".*--.-": 2137,
      ".*----.": 2138,
      ".*--/-+": 2139,
      "-%(": 2140,
      "--.-)/": 2141,
      "--,--,,----": 2142,
      "--,--,,--,": 2143,
      "*+--+-": 2144,
      "ĀĀ,Ā,": 2145,
      "-,----.-,": 2146,
      "-,----.-,----": 2147,
      ".--,-,-.": 2148,
      ".--,-,,---,": 2149,
      "-./,--": 2150,
      "-./.--": 2151,
      "ĀĀ+Ā)": 2152,
      "%--%": 2153,
      "*/--+-.": 2154,
      "*/--,-+": 2155,
      "-,/+--": 2156,
      "-,+--,-.": 2157,
      "*,--+-/": 2158,
      ".----.-.": 2159,
      ".----.-,": 2160,
      "*.--.-": 2161,
      "*.--+-": 2162,
      "122": 2163,
      "ĀĀ)Ā.": 2164,
      "+--*-/": 2165,
      "ĀĀ(Ā(": 2166,
      "--+-)+": 2167,
      ")+--,-": 2168,
      "----+-": 2169,
      ",)----,": 2170,
      "-.-.--,-": 2171,
      "-++,----": 2172,
      "--.,--.-": 2173,
      "--,-,,.----": 2174,
      "--/-(,": 2175,
      "/.----/": 2176,
      "-+*.----": 2177,
      "+.-----": 2178,
      "-----./----": 2179,
      "(/--,-,": 2180,
      "231": 2181,
      "),--+-": 2182,
      "(.--+-": 2183,
      "\"--$-": 2184,
      ".-----------,": 2185,
      "--,-.------": 2186,
      ",-----------.": 2187,
      ",---/-": 2188,
      "--<-": 2189,
      "!%": 2190,
      "!'": 2191,
      "!*--": 2192,
      "!)--": 2193,
      "\"%": 2194,
      "\"(": 2195,
      "\"/": 2196,
      "\".--": 2197,
      "##": 2198,
      "#)": 2199,
      "#--)": 2200,
      "$----": 2201,
      "$-.": 2202,
      "$--)": 2203,
      "$(--": 2204,
      "$-'": 2205,
      "%+": 2206,
      "%-*": 2207,
      "%-)": 2208,
      "%-,,": 2209,
      "%/--(-": 2210,
      "&!": 2211,
      "&ğ": 2212,
      "&---": 2213,
      "&--)-": 2214,
      "&,--'": 2215,
      "'/": 2216,
      "':": 2217,
      "'ĀĀ": 2218,
      "'/--": 2219,
      "'--.-": 2220,
      "'---,": 2221,
      "'--+-": 2222,
      "'---+": 2223,
      "'ĀĀ/Ā": 2224,
      "'+--*": 2225,
      "(--/-+": 2226,
      "('--": 2227,
      "(--.-*": 2228,
      "(--*-": 2229,
      "(ĀĀ-Ā": 2230,
      "(---,-": 2231,
      "(+--'": 2232,
      ")--/-,": 2233,
      ")--/-.": 2234,
      ")--+-,": 2235,
      ")--/-*": 2236,
      ").--)": 2237,
      "),--*-": 2238,
      "*--/-,": 2239,
      "*--+-/": 2240,
      "*--.--.": 2241,
      "*,--*": 2242,
      "*--.-)": 2243,
      "*.--,-,": 2244,
      "*ĀĀ-Ā": 2245,
      "*.--,-/": 2246,
      "**--*": 2247,
      "*.--,-.": 2248,
      "*/--)": 2249,
      "*.--(": 2250,
      "*/--(": 2251,
      "+ğ": 2252,
      "+-,----": 2253,
      "++--*": 2254,
      "+--.-(": 2255,
      "+.--,-.": 2256,
      "+,--,-.": 2257,
      "+--,-(": 2258,
      ",\"": 2259,
      ",-,": 2260,
      ",--.--------": 2261,
      ",--.--+": 2262,
      ",--+-)": 2263,
      ",ĀĀ&Ā": 2264,
      ",.--,-+": 2265,
      ",#--": 2266,
      ",--.-,----": 2267,
      ",/----.": 2268,
      ",--.---,----": 2269,
      ",--/--/": 2270,
      "->": 2271,
      "-@": 2272,
      "-ĀĀ+Ā": 2273,
      ".ĀĀ.Ā": 2274,
      ".ĀĀ+Ā": 2275,
      ".ĀĀ-Ā": 2276,
      ".--/-)": 2277,
      ".--/-(": 2278,
      ".--/--,": 2279,
      "..--,-+": 2280,
      ".--/-,,": 2281,
      "/%": 2282,
      "/--/": 2283,
      "/--.--.": 2284,
      "/--,--.": 2285,
      "/ĀĀ,Ā": 2286,
      "/ĀĀ*Ā": 2287,
      "/,----,": 2288,
      "/,--,-/": 2289,
      "/--/-..": 2290,
      "/--+-.,": 2291,
      "010": 2292,
      "19": 2293,
      "28": 2294,
      "200": 2295,
      "201": 2296,
      "321": 2297,
      "84": 2298,
      "86": 2299,
      "89": 2300,
      "98": 2301,
      ":.--": 2302,
      ":/--": 2303,
      ":---": 2304,
      ";/--": 2305,
      "<Ā": 2306,
      "<ĀĀ": 2307,
      ">-": 2308,
      "@-": 2309,
      "Ā#": 2310,
      "Ā<": 2311,
      "Ā/,": 2312,
      "Ā+/": 2313,
      "ĕĀ": 2314,
      "ė-": 2315,
      "ĘĀ": 2316,
      "Ě--": 2317,
      "Ğ(--": 2318,
      "Ġ+": 2319,
      "Ġ0": 2320,
      "Ġ1": 2321,
      "Ġ5": 2322,
      "Ġ-/": 2323,
      "ĠĀĀ": 2324,
      "--=": 2325,
      "--*---": 2326,
      "----'": 2327,
      "----,----": 2328,
      "-------+": 2329,
      "----++": 2330,
      "-----.-.": 2331,
      "-..--": 2332,
      "-.--/-,": 2333,
      "-.+/": 2334,
      "-.-*----": 2335,
      "-..---+": 2336,
      "-.,---.-": 2337,
      "-,*----": 2338,
      "-,--+-+": 2339,
      "-,/+": 2340,
      "-,--.-*": 2341,
      "-,&--": 2342,
      "-,*/": 2343,
      "-,.---": 2344,
      "-,-,--": 2345,
      "-,--,---,----": 2346,
      "-,.---,-": 2347,
      "--.+": 2348,
      "--.*--": 2349,
      "--.-,----,": 2350,
      "--,/--,-.": 2351,
      "-/+----": 2352,
      "-//,": 2353,
      "-/--+-.": 2354,
      "-/--+-,": 2355,
      "-//.--": 2356,
      "-+$": 2357,
      "-+%": 2358,
      "-+--/-": 2359,
      "-+--,-,": 2360,
      "-+--(": 2361,
      "-+--+-+": 2362,
      "-+/.--": 2363,
      "--/.": 2364,
      "--/+--": 2365,
      "--/.--,": 2366,
      "--/----,": 2367,
      "--/-,----.": 2368,
      "--++": 2369,
      "--+.--,": 2370,
      "--+--.-,": 2371,
      "--+-,----.": 2372,
      "--+--,,----": 2373,
      "--+--.,----": 2374,
      "-*--+-": 2375,
      "-*--/-": 2376,
      "-*--,-/": 2377,
      "-*--+-,": 2378,
      "-*&--": 2379,
      "-*--(-": 2380,
      "-*--,-,,": 2381,
      ",---(": 2382,
      ",---'": 2383,
      ",---&": 2384,
      ",---+----": 2385,
      ",--%-": 2386,
      ",----)": 2387,
      ",------/": 2388,
      ",----,----": 2389,
      ",----.,": 2390,
      ",-------,----": 2391,
      ",-------.----": 2392,
      ",---------.": 2393,
      ",-----,+----": 2394,
      ".----&": 2395,
      ".-------,": 2396,
      ".----.,": 2397,
      ".-----/----": 2398,
      ".-----..----": 2399,
      ".--\"": 2400,
      ".--*--": 2401,
      ".--%-": 2402,
      ".---*-": 2403,
      "+--$": 2404,
      "+--;": 2405,
      "+---$": 2406,
      "+--&-": 2407,
      "+---.-/": 2408,
      "-.-----.": 2409,
      "-.----.----": 2410,
      "-.----,--,": 2411,
      "-.------.----": 2412,
      "-.-------+": 2413,
      "-)$": 2414,
      "-)----,": 2415,
      "-),,----": 2416,
      "-,-----.": 2417,
      "-,-------,": 2418,
      "-,----.,": 2419,
      "-,------,-,": 2420,
      "-,-----,,----": 2421,
      "-,------..----": 2422,
      "*--*--": 2423,
      "*--(-": 2424,
      "*--'-": 2425,
      "*---*-/": 2426,
      "+-----)": 2427,
      "+----,,": 2428,
      "+----.+": 2429,
      "+-----,,----": 2430,
      "--*-,/": 2431,
      ".--,--.----": 2432,
      ".--,--,----": 2433,
      ".--,-..----": 2434,
      "--.-,-": 2435,
      "--.-,-/": 2436,
      "--.-,,---,": 2437,
      "--.-,,,----": 2438,
      "/------,": 2439,
      "/------------": 2440,
      "/----/,": 2441,
      "/----/.": 2442,
      "/----,.": 2443,
      "--.-.)": 2444,
      "--.-..----": 2445,
      "---.--": 2446,
      "---.--.": 2447,
      "---.--,": 2448,
      "---.---.": 2449,
      "---.--.---,": 2450,
      "---.-,-,----": 2451,
      "-($": 2452,
      "-('": 2453,
      "-(--,-": 2454,
      "-(----,": 2455,
      ",--,-.+": 2456,
      "---,-/": 2457,
      "---,-*": 2458,
      "---,--/---.": 2459,
      "---\"": 2460,
      "---%-": 2461,
      "---&-": 2462,
      "..--/": 2463,
      "..--.--/": 2464,
      ")--ğ": 2465,
      ")---(": 2466,
      ")---+-.": 2467,
      "--/-#": 2468,
      ".,--.-/": 2469,
      ".,--+-.": 2470,
      ".,--/-,": 2471,
      "--,-.-.----": 2472,
      "--,-.-,----": 2473,
      "--,-.,---,": 2474,
      "--,-.,.----": 2475,
      "--,-.,+----": 2476,
      "-,,,--.-.": 2477,
      "--.-/----,": 2478,
      "----,-+": 2479,
      "----,.---.": 2480,
      "--.-+.": 2481,
      "--.-+/---/": 2482,
      "(--&": 2483,
      "-.,,--": 2484,
      "-.,*--": 2485,
      "---/-)": 2486,
      ".---.-/": 2487,
      ".---.--.----": 2488,
      ".---.--,----": 2489,
      ".---.---,----": 2490,
      ".---.--.---.": 2491,
      "/,--/-..": 2492,
      "----./": 2493,
      "----..-----": 2494,
      "-..*": 2495,
      "-..+--": 2496,
      "-..+----": 2497,
      "-..--.-.": 2498,
      "-''": 2499,
      "-'*": 2500,
      "/.--+-": 2501,
      "/.--/-*": 2502,
      "-,.(": 2503,
      "-,.+--": 2504,
      "-,.--,-": 2505,
      "-,.+----": 2506,
      "-,..----,": 2507,
      "--,-/-+----": 2508,
      ",,--/-,": 2509,
      ",,--+-/": 2510,
      ",,--+-+": 2511,
      ",.--.-,": 2512,
      ",.--/-": 2513,
      ",.--+-,.": 2514,
      "*----(": 2515,
      "*----*": 2516,
      "*----..": 2517,
      "--+-.%": 2518,
      "--+-.-": 2519,
      "--/-,/": 2520,
      "-&)": 2521,
      "--,------/": 2522,
      "--,-+,": 2523,
      "--,-+/": 2524,
      "+,,----": 2525,
      "+,--.-,": 2526,
      "+,/----": 2527,
      "---+-.": 2528,
      "---+----,": 2529,
      "--/-..---.": 2530,
      "--/-..---/": 2531,
      "*-ĀĀ": 2532,
      "--+-,-": 2533,
      "+.--.-": 2534,
      "+.--+-/": 2535,
      "---.--------------------": 2536,
      "--+-+/": 2537,
      "--'-.": 2538,
      "--'-*": 2539,
      "--'-+,": 2540,
      "//--,-": 2541,
      "//--+-": 2542,
      "++--+-": 2543,
      "-+----)": 2544,
      "-+------.": 2545,
      "-+------,----": 2546,
      "/+--+-": 2547,
      "/+--.-+": 2548,
      "/+--.-*": 2549,
      "+---,--": 2550,
      "+---,-.": 2551,
      "--.--,---+": 2552,
      "'--&": 2553,
      "'---*-": 2554,
      ".+--,-": 2555,
      "--.-*+": 2556,
      "--.-*,": 2557,
      "--.-*-": 2558,
      ",---.-/": 2559,
      ",/--,-": 2560,
      ",/--.-,": 2561,
      ",/--/-.": 2562,
      ".,----+": 2563,
      "/---.-)": 2564,
      "--&--": 2565,
      "--&-/": 2566,
      "--&-'": 2567,
      "--&-&": 2568,
      "--&-%": 2569,
      "+/--+": 2570,
      "+/ĀĀ": 2571,
      "+/--.-": 2572,
      "--,-**": 2573,
      "--,-*-": 2574,
      ".---,-.": 2575,
      "./,----": 2576,
      "./.----": 2577,
      "./--+-": 2578,
      "./--/-,": 2579,
      "-..-----..----": 2580,
      ".--*--,": 2581,
      ".--*-*": 2582,
      "--,--.---/": 2583,
      ".*--,-": 2584,
      ".*--.-.": 2585,
      ".*--,-+": 2586,
      ".*--/-/": 2587,
      "-,,-----..----": 2588,
      "021": 2589,
      "/*--,-": 2590,
      "/*--.-,": 2591,
      "/*--.-.": 2592,
      "/*--.-/": 2593,
      "--+-*,": 2594,
      "--+-*.": 2595,
      "ĀĀ.Ā'": 2596,
      "ĀĀ.Ā)": 2597,
      "ĀĀ.Ā*": 2598,
      "ĀĀ.Ā+": 2599,
      "-.+*": 2600,
      "-%*": 2601,
      "--,--,---,----": 2602,
      "--,--,,--,-": 2603,
      "*+ĀĀ": 2604,
      "*+--,-/": 2605,
      "*+--+-/": 2606,
      "ĀĀ,Āğ": 2607,
      "+*--,-": 2608,
      "+*--.-": 2609,
      "+*--.-/": 2610,
      "+*--+-+": 2611,
      "-./+--": 2612,
      "-/,,--": 2613,
      "-/,.--": 2614,
      "-/,+--": 2615,
      "-/,,--)": 2616,
      "ĀĀ+Ā'": 2617,
      "ĀĀ+Ā(": 2618,
      "ĀĀ+Ā,": 2619,
      "ĀĀ+Ā/": 2620,
      "%--#": 2621,
      "*/--+-": 2622,
      "*/--,-/": 2623,
      "--.--/.": 2624,
      "--.--/---/": 2625,
      "ĀĀ*Ā(": 2626,
      "-,/.--": 2627,
      "-,+,----": 2628,
      "*,--+-.": 2629,
      "-/.,--": 2630,
      "-/.+--": 2631,
      "----/-+": 2632,
      "-.,----,": 2633,
      "-.,------------": 2634,
      "-,.-----+": 2635,
      "ĀĀ)Ā/": 2636,
      ",----.-": 2637,
      "$--#": 2638,
      "*---,-*": 2639,
      "--+-)*": 2640,
      "----+-/": 2641,
      "/---/--": 2642,
      ",)--,-,": 2643,
      "-++.--": 2644,
      "-----,-": 2645,
      "--.-(,": 2646,
      "--.,--.-.": 2647,
      ".--)-*": 2648,
      "*--*-,": 2649,
      "*--*-)": 2650,
      "--,----------------": 2651,
      "--,-----------": 2652,
      "/)--.-,": 2653,
      "--,---*": 2654,
      "--..--/-": 2655,
      ".--,-.,---,": 2656,
      ".--,-.+---,": 2657,
      "-,---*": 2658,
      "+--)-+": 2659,
      "+--)-.*": 2660,
      "ĀĀ%Ā'": 2661,
      ").--.-": 2662,
      ").--+-.": 2663,
      "--.-.------": 2664,
      "--.-.------,": 2665,
      "--.-.----,--,": 2666,
      "-,-.--.-": 2667,
      ".+----.": 2668,
      "Ā+-": 2669,
      "--/------,-": 2670,
      ")*--,-": 2671,
      ")*--+-": 2672,
      "(.--+-+": 2673,
      "-,-,--.-": 2674,
      "-,-,--.-.": 2675,
      ".--(-+": 2676,
      "--,--/.": 2677,
      "*---+--": 2678,
      "**--,-": 2679,
      "--%-)": 2680,
      "--,---+-": 2681,
      "--.-''": 2682,
      "(+--+-": 2683,
      "Ā*$": 2684,
      "---------------": 2685,
      "/ĀĀĞĀ": 2686,
      "-,..--/-+": 2687,
      "//-----": 2688,
      "-.,---,-+": 2689,
      "---'-.": 2690,
      "+--'-/": 2691,
      "--/---/----,": 2692,
      ".--&-/": 2693,
      "-.----/-": 2694,
      ",----,,.----": 2695,
      "-,-------------": 2696,
      "-,-------.-----": 2697,
      "--?-": 2698,
      "!$": 2699,
      "!&": 2700,
      "!)": 2701,
      "!--.-.": 2702,
      "!--*-": 2703,
      "\"#": 2704,
      "\")": 2705,
      "\"+": 2706,
      "\".": 2707,
      "\"---": 2708,
      "\")--": 2709,
      "#\"": 2710,
      "#(": 2711,
      "#+": 2712,
      "#Ğ": 2713,
      "#-,": 2714,
      "#-*": 2715,
      "#+--": 2716,
      "#-)": 2717,
      "#,--(": 2718,
      "$!": 2719,
      "$'": 2720,
      "$+": 2721,
      "$-,": 2722,
      "$-)": 2723,
      "$-&": 2724,
      "$--)-": 2725,
      "$--'-": 2726,
      "$.--&": 2727,
      "%!": 2728,
      "%\"": 2729,
      "%$": 2730,
      "%--,-": 2731,
      "%*--": 2732,
      "%--.-.": 2733,
      "%--(": 2734,
      "%%--": 2735,
      "%--)-": 2736,
      "%----/": 2737,
      "%,(": 2738,
      "%+--(": 2739,
      "%,--+-": 2740,
      "&Ğ": 2741,
      "&,--": 2742,
      "&,----": 2743,
      "&)--": 2744,
      "&--(": 2745,
      "&'--": 2746,
      "&--*-": 2747,
      "&,--(": 2748,
      "&/--(-": 2749,
      "&--/-%": 2750,
      "'Ě": 2751,
      "'ğ": 2752,
      "'--.-,": 2753,
      "'--.-.": 2754,
      "'(--": 2755,
      "'--/-/": 2756,
      "'--+-+": 2757,
      "''--": 2758,
      "'.--,-": 2759,
      "'--'-": 2760,
      "'/--)": 2761,
      "'.--(": 2762,
      "'.--*-": 2763,
      "'.--)-": 2764,
      "'+--)-": 2765,
      "(#": 2766,
      "($": 2767,
      "(&": 2768,
      "(Ğ": 2769,
      "(-.": 2770,
      "(/--": 2771,
      "(--.-.": 2772,
      "()--": 2773,
      "(--,-.": 2774,
      "(--,-*": 2775,
      "(&--": 2776,
      "(,--)": 2777,
      "(.--,-": 2778,
      "(--,-)": 2779,
      "(,--,-": 2780,
      "(/--*-": 2781,
      "(--.-.+": 2782,
      ")\"": 2783,
      ")Ğ": 2784,
      ").----": 2785,
      ")+----": 2786,
      ")/----": 2787,
      ")'--": 2788,
      "),--*": 2789,
      ")--+-)": 2790,
      ")*--*": 2791,
      ")--/--": 2792,
      ")---,-": 2793,
      "),--,-/": 2794,
      ")/--*-": 2795,
      "*:": 2796,
      "*-.----": 2797,
      "*/--": 2798,
      "*--+-,": 2799,
      "*)----": 2800,
      "*--.--": 2801,
      "*ĀĀ)Ā": 2802,
      "*+--*": 2803,
      "*(----": 2804,
      "*--,-)": 2805,
      "*--/--": 2806,
      "*--/-(": 2807,
      "*--/--,": 2808,
      "*,--,-/": 2809,
      "*+--(": 2810,
      "*,--)-": 2811,
      "*.--)-": 2812,
      "+\"": 2813,
      "+'--": 2814,
      "+--,--.": 2815,
      "+.--,-,": 2816,
      "+,----,": 2817,
      "+,----.": 2818,
      "+.----,": 2819,
      "+--.---,": 2820,
      "+,--*-": 2821,
      "++--*-": 2822,
      "+/--(": 2823,
      "+,--(-": 2824,
      "+*--*-": 2825,
      ",%": 2826,
      ",Ğ": 2827,
      ",(--": 2828,
      ",&--": 2829,
      ",--+-*": 2830,
      ",ĀĀ+Ā": 2831,
      ",,--)": 2832,
      ",+--*": 2833,
      ",/--*": 2834,
      ",--.-(": 2835,
      ",--/-(": 2836,
      ",+--)": 2837,
      ",ĀĀ%Ā": 2838,
      ",--/-.,": 2839,
      ",--+----": 2840,
      ",--+-,,": 2841,
      ",--+--.": 2842,
      ",&ĀĀ": 2843,
      "-ě": 2844,
      "-ĀĀ*Ā": 2845,
      ".ğ": 2846,
      ".--+-*": 2847,
      "..--,-,": 2848,
      ".*--*": 2849,
      ".--/-.,": 2850,
      ".--.-'": 2851,
      ".'----": 2852,
      ".--.--*": 2853,
      ".*--*-": 2854,
      "/\"": 2855,
      "/--/-/": 2856,
      "/--+-+": 2857,
      "/'--": 2858,
      "/&--": 2859,
      "/--+-*": 2860,
      "/.--,-,": 2861,
      "/%--": 2862,
      "/ĀĀ-Ā": 2863,
      "/.----.": 2864,
      "/+--*": 2865,
      "/--,-)": 2866,
      "/--/--": 2867,
      "/ĀĀ'Ā": 2868,
      "/--+--,": 2869,
      "/--/-.,": 2870,
      "/#--": 2871,
      "/--,--/": 2872,
      "/'----": 2873,
      "/--/-,.": 2874,
      "040": 2875,
      "120": 2876,
      "121": 2877,
      "230": 2878,
      "300": 2879,
      "410": 2880,
      "57": 2881,
      "95": 2882,
      "99": 2883,
      ":*": 2884,
      ":*--": 2885,
      ":-&": 2886,
      ";*": 2887,
      ";ĀĀ.Ā": 2888,
      ";ĀĀ'Ā": 2889,
      "<.": 2890,
      "<--": 2891,
      "<ĀĀ.Ā": 2892,
      ">ĀĀ": 2893,
      ">-&": 2894,
      "?(--": 2895,
      "Ā:": 2896,
      "ĀĞ": 2897,
      "Ā-/": 2898,
      "Ā,,": 2899,
      "Ā./": 2900,
      "Ā*)": 2901,
      "Ā/)": 2902,
      "Ā).": 2903,
      "Ā'+": 2904,
      "ĔĀ": 2905,
      "ėĀ": 2906,
      "ęĀ": 2907,
      "Ěğ": 2908,
      "ĝ$": 2909,
      "ĝĀ": 2910,
      "Ğ#": 2911,
      "Ğ+": 2912,
      "ğ*": 2913,
      "Ġ*": 2914,
      "Ġ--.": 2915,
      "Ġ--(-": 2916,
      "--Ė": 2917,
      "--ě": 2918,
      "---)": 2919,
      "--*---,": 2920,
      "---)-": 2921,
      "---(-": 2922,
      "--ě-": 2923,
      "------+": 2924,
      "----.----": 2925,
      "------,-": 2926,
      "----.--,": 2927,
      "------)": 2928,
      "-------/": 2929,
      "------/-.": 2930,
      "------,--.": 2931,
      "-----.+": 2932,
      "----*+": 2933,
      "----+*": 2934,
      "-----,/": 2935,
      "----*,": 2936,
      "-----/+": 2937,
      "----).": 2938,
      "----),": 2939,
      "------.-,----": 2940,
      "----.------": 2941,
      "-----,+--,-.": 2942,
      "-.$": 2943,
      "-.--*": 2944,
      "-..--,": 2945,
      "-.---,": 2946,
      "-.---": 2947,
      "-.--)": 2948,
      "-.--,----": 2949,
      "-.--/-+": 2950,
      "-.--+-+": 2951,
      "-.--.-)": 2952,
      "-.*/": 2953,
      "-..---.-": 2954,
      "-.--,--------": 2955,
      "-.--+--,": 2956,
      "-.--+----": 2957,
      "-.,---,-": 2958,
      "-.'+": 2959,
      "-.()": 2960,
      "-.--*-*": 2961,
      "-.+---*": 2962,
      "-.+---.": 2963,
      "-,-)": 2964,
      "-,--)": 2965,
      "-,--+-.": 2966,
      "-,--/-,": 2967,
      "-,--,----": 2968,
      "-,--/-.": 2969,
      "-,--.--.": 2970,
      "-,--/-*": 2971,
      "-,*,": 2972,
      "-,--.--": 2973,
      "-,+---+": 2974,
      "-,--*-/": 2975,
      "-,.,--.-.": 2976,
      "-,-/----,": 2977,
      "-,,---": 2978,
      "-,+---,-": 2979,
      "-,((": 2980,
      "--.,--": 2981,
      "--.--,-": 2982,
      "--.--'": 2983,
      "--.,----,": 2984,
      "--.--,-----": 2985,
      "--.-,----.-": 2986,
      "--.---+----": 2987,
      "--,+--": 2988,
      "--,--.-": 2989,
      "--,--.-,": 2990,
      "--,--,-,": 2991,
      "--,--.--,": 2992,
      "--,,--,-,": 2993,
      "--,,--,-": 2994,
      "--,.--.-.": 2995,
      "--,+--,-": 2996,
      "--,---/----": 2997,
      "--,-,----,-": 2998,
      "-/#": 2999,
      "-/---.": 3000,
      "-/..": 3001,
      "-/--/-": 3002,
      "-/,---,": 3003,
      "-/--/-+": 3004,
      "-/--+-+": 3005,
      "-/.+": 3006,
      "-/-/----": 3007,
      "-/,---.": 3008,
      "-/..----": 3009,
      "-/,.----": 3010,
      "-/--,-*": 3011,
      "-/--,--.": 3012,
      "-//*": 3013,
      "-/--+-*": 3014,
      "-/+---+": 3015,
      "-/.---": 3016,
      "-//+----": 3017,
      "-/--&-": 3018,
      "-/-)--": 3019,
      "-+\"": 3020,
      "-+ĀĀ": 3021,
      "-+/----": 3022,
      "-+--------": 3023,
      "-+,--,": 3024,
      "-+--+-": 3025,
      "-+--)": 3026,
      "-+*----": 3027,
      "-+--/-+": 3028,
      "-+,+": 3029,
      "-+--*-": 3030,
      "-+,.----": 3031,
      "-+--,--,": 3032,
      "-+--.--------": 3033,
      "-+./----": 3034,
      "-+---,-": 3035,
      "-+/---,": 3036,
      "-+,-----": 3037,
      "-++---*": 3038,
      "--//--": 3039,
      "--/*--": 3040,
      "--/+----": 3041,
      "--//----": 3042,
      "--/--,----": 3043,
      "--/--'": 3044,
      "--/--.---.": 3045,
      "--/-----,": 3046,
      "--/--,,----": 3047,
      "--/,--.-,": 3048,
      "--/.--/-,": 3049,
      "--/,--/-+": 3050,
      "--++--": 3051,
      "--+)--": 3052,
      "--+--(": 3053,
      "--+--&": 3054,
      "--+--.---.": 3055,
      "--+.--,-,": 3056,
      "--+-,----,": 3057,
      "--+.--,-": 3058,
      "--+-----,": 3059,
      "--+--+--": 3060,
      "--+--..": 3061,
      "--+--..----": 3062,
      "ĀĀĖ": 3063,
      "ĀĀ@Ā": 3064,
      "-*#": 3065,
      "-*+--": 3066,
      "-*-.----": 3067,
      "-*-)": 3068,
      "-*--*": 3069,
      "-*..": 3070,
      "-*--.-/": 3071,
      "-*--,-,": 3072,
      "-*--+-/": 3073,
      "-*,,----": 3074,
      "-*--.-*": 3075,
      "-*--*-": 3076,
      "-*./": 3077,
      "-*----/": 3078,
      "-*/.--": 3079,
      "-*----+": 3080,
      "-*+,----": 3081,
      "-**---+": 3082,
      "-*-.--.-/": 3083,
      ",--\"": 3084,
      ",--*----": 3085,
      ",--$-": 3086,
      ",---)-/": 3087,
      ",------*": 3088,
      ",----.--,": 3089,
      ",-----,,": 3090,
      ",-----.,": 3091,
      ",----/,": 3092,
      ",-----..": 3093,
      ",----+,": 3094,
      ",-----+----": 3095,
      ",----.,----": 3096,
      ",----,*": 3097,
      ",------,,----": 3098,
      ",------,-,----": 3099,
      ",----.,,--,": 3100,
      ".-----*": 3101,
      ".----,.": 3102,
      ".-----.,----": 3103,
      ".------.,": 3104,
      ".----.,,----": 3105,
      ".--$": 3106,
      ".---)": 3107,
      ".---,----": 3108,
      ".--$-": 3109,
      ".--&-": 3110,
      "+--:": 3111,
      "+---,----": 3112,
      "+--#-": 3113,
      "+---*-/": 3114,
      "+---(-": 3115,
      "-.----,----": 3116,
      "-.----/----": 3117,
      "-.-------.": 3118,
      "-.-------,": 3119,
      "-.----.,": 3120,
      "-.-------,----": 3121,
      "-.------..----": 3122,
      "-.------,.----": 3123,
      "-.----.,,----": 3124,
      "-.------,------------": 3125,
      "-)--.-/": 3126,
      "-)--)": 3127,
      "-)--,-,": 3128,
      "-)/---": 3129,
      "-,------/": 3130,
      "-,----,----": 3131,
      "-,----.,----": 3132,
      "-,----.*": 3133,
      "-,------.--------": 3134,
      "-,------.,----": 3135,
      "/--;": 3136,
      "/---(": 3137,
      "/--#-": 3138,
      "/---,-.": 3139,
      "/---*-,": 3140,
      "*---'": 3141,
      "*---&": 3142,
      "*--:-": 3143,
      "+----)": 3144,
      "+------": 3145,
      "+------,": 3146,
      "+----..": 3147,
      "+----+.": 3148,
      "+----++": 3149,
      "+----,+": 3150,
      "+----*.": 3151,
      "+------..----": 3152,
      "--*--------": 3153,
      "--*-,,": 3154,
      "--*-.+": 3155,
      "--*-+*": 3156,
      "--*-,)": 3157,
      ".--,--------": 3158,
      ".--,--.,----": 3159,
      "--.-,/,": 3160,
      "/----(": 3161,
      "/------.": 3162,
      "/-----..": 3163,
      "/----+,": 3164,
      "/----.+": 3165,
      "--.-.*": 3166,
      "--.-.(--": 3167,
      "--.-..+": 3168,
      "--.-.,---.": 3169,
      "--.-...----": 3170,
      "--.-./---/": 3171,
      "--.-.,.--,-,": 3172,
      "---.--.-/": 3173,
      "---.--.-+": 3174,
      "---.-,----,": 3175,
      "---.-/+": 3176,
      "-(&": 3177,
      "-(+.----": 3178,
      "-(/+--": 3179,
      "-(.,--.-": 3180,
      "--------+": 3181,
      "--------,.----": 3182,
      "-------------": 3183,
      "---------,-": 3184,
      "--------.------------": 3185,
      ",--,-)": 3186,
      ",--,-.,": 3187,
      ",--,-+-.": 3188,
      "---,--.": 3189,
      "---,-+": 3190,
      "---,--.-": 3191,
      "---,-(": 3192,
      "---,--,-.": 3193,
      "---,--,-,": 3194,
      "---,--+-.": 3195,
      "..+": 3196,
      "..--/-,": 3197,
      "..--/-/": 3198,
      "..,--.-": 3199,
      "..--/-..": 3200,
      "..--+-.,": 3201,
      "..,--.--.": 3202,
      "--+-<": 3203,
      ")--;": 3204,
      ")--(-": 3205,
      ")---*-": 3206,
      ")--!-": 3207,
      ".,/": 3208,
      ".,--/-.": 3209,
      ".,--.--------": 3210,
      ".,,----,": 3211,
      ".,--/-(": 3212,
      ".,,--.-.": 3213,
      ".,--.-,----.": 3214,
      "--,-.-": 3215,
      "--,-.+---,": 3216,
      "--,-..---,": 3217,
      "--,-../----": 3218,
      "-,,+": 3219,
      "-,,.": 3220,
      "-,,,--*": 3221,
      "-,,.--,-,": 3222,
      "--.-/'": 3223,
      "--.-/----": 3224,
      "--.-/,,----": 3225,
      "--)---": 3226,
      "--)-.,": 3227,
      "--)-&": 3228,
      "--)-/+": 3229,
      "----,-)": 3230,
      "----,.*": 3231,
      "----,-.----,": 3232,
      "----,,+----": 3233,
      "----,,/--,-.": 3234,
      "(--$": 3235,
      "(--$-": 3236,
      "(--&-": 3237,
      "(--*--)": 3238,
      "(---)-/": 3239,
      "--,-,-.": 3240,
      "--,-,/.": 3241,
      "--,-,++": 3242,
      "--,-,/.--": 3243,
      "--,-,./----": 3244,
      "-.,/": 3245,
      "-.,.--": 3246,
      "-.,/----": 3247,
      "-.,*----": 3248,
      "-.,.--------": 3249,
      "---/--": 3250,
      "---/-(": 3251,
      "---/--------": 3252,
      "---/---,": 3253,
      "---/--,-,": 3254,
      "---/-'": 3255,
      "---/-%": 3256,
      ".---.-..---.": 3257,
      "/,--.-.": 3258,
      "/,--/-,": 3259,
      "/,--/-.": 3260,
      "/,--.-)": 3261,
      "/,--/-)": 3262,
      "----.+": 3263,
      "----.-/": 3264,
      "----.-.,----": 3265,
      "-..(--": 3266,
      "-...--*": 3267,
      "-...----.": 3268,
      "--.-----,": 3269,
      "--.-----/": 3270,
      "--.-------.----": 3271,
      "--.------,.----": 3272,
      ",---,--.---.": 3273,
      ",---,-,------": 3274,
      "-'&": 3275,
      "-'--": 3276,
      "-'-.": 3277,
      "/.$": 3278,
      "/.--/": 3279,
      "/.ĀĀ": 3280,
      "/.--.--.": 3281,
      "/.--.-*": 3282,
      "/.--.-,----": 3283,
      "-,.,--": 3284,
      "-,.)--": 3285,
      "-,.+--*": 3286,
      "-,./----.": 3287,
      "-,.,----+": 3288,
      "--,-/&": 3289,
      "--,-/-": 3290,
      "--,-//": 3291,
      "--,-/----.": 3292,
      "--,-/.+----": 3293,
      ",,/----": 3294,
      ",,,--,": 3295,
      ",,--+-.": 3296,
      ",,--/-.": 3297,
      ",,,----,": 3298,
      ",.--/-/": 3299,
      ",.--+-+": 3300,
      ",.--.-*": 3301,
      ",.--.-)": 3302,
      ",..----.": 3303,
      ",.--+-(": 3304,
      ",.--+-,,": 3305,
      "--(--*": 3306,
      "--(-(": 3307,
      "--(-'": 3308,
      "--(-.+": 3309,
      "--(-%": 3310,
      "--(-/.": 3311,
      "*----)": 3312,
      "*------": 3313,
      "*----/.": 3314,
      "--+-.++": 3315,
      "-&'": 3316,
      "-&,,": 3317,
      "002": 3318,
      "--,-----,": 3319,
      "--,-----,,----": 3320,
      "--,------.------------": 3321,
      "--,-++": 3322,
      "--,-+-": 3323,
      "--,-+,.----": 3324,
      "+,--.-": 3325,
      "+,--.-+": 3326,
      "+,--+-/": 3327,
      "+,--+--/": 3328,
      "---,----+": 3329,
      "---,------------": 3330,
      "---,-------,----": 3331,
      "---+--": 3332,
      "---+--.-.": 3333,
      "---+-$": 3334,
      "--/-.(": 3335,
      "--+-/(": 3336,
      "--+-,+,----": 3337,
      "+.--.-/": 3338,
      "+.--.-+": 3339,
      "+.--/-.": 3340,
      "+.--+-,": 3341,
      "+.--+-,,": 3342,
      "+.--+--+": 3343,
      "--.--.,--.-.": 3344,
      "---.------": 3345,
      "---.--------": 3346,
      "--+-++,": 3347,
      "--'-,": 3348,
      "--'--+": 3349,
      "--'-(": 3350,
      "--'-/,": 3351,
      "--'-.)": 3352,
      "//--/-.": 3353,
      "//--/-/": 3354,
      "//--/-*": 3355,
      "//--.---,": 3356,
      "++ĀĀ": 3357,
      "++.----": 3358,
      "++--.-/": 3359,
      "++--+-.": 3360,
      "++--/-/": 3361,
      "++--/-+": 3362,
      "-+------/": 3363,
      ",,----,,": 3364,
      ",,----+,": 3365,
      "/+--,-/": 3366,
      "/+--/-.": 3367,
      "/+--/--": 3368,
      "+---,-)": 3369,
      "--.--,/----": 3370,
      "'--:": 3371,
      "'---*": 3372,
      "'--&-": 3373,
      "101": 3374,
      "102": 3375,
      ",+*": 3376,
      ",+,--,": 3377,
      ",+--.-+": 3378,
      ",+--+-*": 3379,
      "-/-----": 3380,
      "-/------": 3381,
      "-/------.": 3382,
      ",---.--.": 3383,
      ",---.-)": 3384,
      ",---.-/,": 3385,
      "..----+/": 3386,
      ",/ĀĀ": 3387,
      ",//----": 3388,
      ",/--/-": 3389,
      ",/--+-/": 3390,
      ",/--.--.": 3391,
      ",/--/-*": 3392,
      ".,----,.": 3393,
      "/---.-(": 3394,
      ",.----/": 3395,
      ",.----..": 3396,
      ",.----,.": 3397,
      ",.-----,,----": 3398,
      "--&-,": 3399,
      "--&-*": 3400,
      "--&-(": 3401,
      "--&-()": 3402,
      ")-----": 3403,
      "+/--,-,": 3404,
      "+/--,-/": 3405,
      "+/--,-+": 3406,
      ",--*-,+----": 3407,
      ",--*-/.,": 3408,
      "--/-*+": 3409,
      "--/-*,": 3410,
      "--/-*/": 3411,
      ".---,--": 3412,
      ",*--.-": 3413,
      ",*--,-.": 3414,
      ",*--,-,,": 3415,
      "&--%": 3416,
      "./--,-": 3417,
      "./--,-.": 3418,
      "./--,--.": 3419,
      ".--*-/": 3420,
      ".--*-,..": 3421,
      "--,--.*----": 3422,
      ".*--.-+": 3423,
      ".*--/-.": 3424,
      ".*--.-*": 3425,
      "-,,----.": 3426,
      "-,,-----,-.----": 3427,
      "/*--,-+": 3428,
      "--+-*+": 3429,
      "ĀĀ.Ā&": 3430,
      "ĀĀ.Ā/": 3431,
      "-.+.--": 3432,
      "-.+,--,": 3433,
      "-.+.--*": 3434,
      "-.+,--,-,": 3435,
      "'-ĀĀ'Ā": 3436,
      "-%-": 3437,
      "--.-)(": 3438,
      "--.-)+": 3439,
      "--.-),": 3440,
      "--,--,/----": 3441,
      "--,--,---,-": 3442,
      "*+--.-,": 3443,
      "*+--,-+": 3444,
      "*+--+-,": 3445,
      "ĀĀ,Ā'": 3446,
      "ĀĀ,Ā+": 3447,
      ".--,-,+---,": 3448,
      "+*ĀĀ": 3449,
      "+*--+-": 3450,
      "+*--,-.": 3451,
      "+*--,-/": 3452,
      "+*--,-+": 3453,
      "-.//--": 3454,
      "-./*--": 3455,
      "-.----,-+": 3456,
      "-.----.-.": 3457,
      "-.----.-.----": 3458,
      "-$%": 3459,
      "-$'": 3460,
      "-$--": 3461,
      "-.-,--,-,": 3462,
      "-.-,--,----": 3463,
      "-.-,--,--,": 3464,
      "-.-,--,-,,": 3465,
      "*/--.-": 3466,
      "*/--+-/": 3467,
      ",---+-+": 3468,
      "-+,/--": 3469,
      "-+,+----.": 3470,
      "ĀĀ-Ā$": 3471,
      "ĀĀ-Ā&": 3472,
      "ĀĀ-Ā'": 3473,
      "ĀĀ-Ā(": 3474,
      ".---/-)": 3475,
      "--.--/,": 3476,
      "--.--/.----": 3477,
      "--.--/,--,": 3478,
      "ĀĀ*Ā$": 3479,
      "ĀĀ*Ā%": 3480,
      "ĀĀ*Ā&": 3481,
      "ĀĀ*Ā,": 3482,
      "ĀĀ*Ā/": 3483,
      "-,/,--": 3484,
      "-,/*--": 3485,
      "-,+,--,": 3486,
      "-,+.----,": 3487,
      "-,+.--)": 3488,
      "--,---,-/": 3489,
      "--,---,-+": 3490,
      "--,---,--/": 3491,
      "--,---,--,-.": 3492,
      "*,--.-": 3493,
      "*,--.-+": 3494,
      ".----.-.----": 3495,
      "*.--.-.": 3496,
      "*.--.-+": 3497,
      "*.--/-,": 3498,
      "*.--+-/": 3499,
      "-/+,----": 3500,
      "-/./--": 3501,
      "-/..--,": 3502,
      "-/.,--,": 3503,
      "-/.)----": 3504,
      "-.,-----/": 3505,
      "-.,------,----": 3506,
      "-.,-----..----": 3507,
      "ĀĀ/Ā(": 3508,
      "-,.-----.": 3509,
      "-,.-----,": 3510,
      "-,.-----,----": 3511,
      "--.--(--": 3512,
      ",--)-*": 3513,
      ",--)-(": 3514,
      ",--)-.*": 3515,
      "+--*-,": 3516,
      "+--*-.(": 3517,
      ",----,-": 3518,
      ",----,-.----": 3519,
      "--/-),": 3520,
      "--/-).": 3521,
      "$---(": 3522,
      "$--ğ-": 3523,
      "$--ė-": 3524,
      "(-----/": 3525,
      "303": 3526,
      "*---,-.": 3527,
      "*---,-+": 3528,
      "ĀĀ(Ā*": 3529,
      "ĀĀ(Ā,": 3530,
      "--+-))": 3531,
      "--+-),": 3532,
      "/--*-.": 3533,
      "/--*-*": 3534,
      "/.--*-": 3535,
      ".----,-": 3536,
      ".----,-.--.-.": 3537,
      ")+--+-": 3538,
      "----+-+": 3539,
      ".)--.-": 3540,
      ".)--.-+": 3541,
      ".)--/-/": 3542,
      "-.*+--": 3543,
      "-.*)----": 3544,
      "-.*,--)": 3545,
      "/---/-/": 3546,
      ",)--.-": 3547,
      ",)--.-/": 3548,
      ",)--,-)": 3549,
      "-.-.--.-": 3550,
      "-.-.--.-/": 3551,
      "-.-.--,-/": 3552,
      "031": 3553,
      "--.,--,-": 3554,
      ".--)-)": 3555,
      ".--)-(": 3556,
      "./-----/.": 3557,
      "--,-,,,--,": 3558,
      "*)--.-": 3559,
      "*)--,-,": 3560,
      ",+----+": 3561,
      ",+----+.": 3562,
      ",+-----,---,": 3563,
      "/)--,-": 3564,
      "/)--/-.": 3565,
      "ĀĀ'Ā&": 3566,
      "ĀĀ'Ā*": 3567,
      "-,*.--(": 3568,
      "-/),--": 3569,
      "--/-(-": 3570,
      "--/-(/": 3571,
      "/.----,.": 3572,
      "--..--.-,": 3573,
      "--..--/-+": 3574,
      "--..--.--.": 3575,
      "--..--.--,": 3576,
      ").--+-": 3577,
      ").--+-/": 3578,
      ").--+-,": 3579,
      "+,-----": 3580,
      "--+--,.--,": 3581,
      "ĀĀ&Ā)": 3582,
      "ĀĀ&Ā-": 3583,
      "/,----+": 3584,
      "*--)-,": 3585,
      "*--)-+": 3586,
      "--..----/,": 3587,
      "-*------+": 3588,
      ".--,-+,.----": 3589,
      ",--.-'": 3590,
      "Ā+%": 3591,
      "Ā+)": 3592,
      "--/-.,,--,": 3593,
      ")*--.-": 3594,
      "--.,-----,,--,": 3595,
      "-,-----------.----": 3596,
      "(.ĀĀ": 3597,
      "-,-,--.-+": 3598,
      "-*,/--": 3599,
      ",--*-$": 3600,
      "-+..--,-,": 3601,
      "--+---,--,-": 3602,
      "--+-,,,--,": 3603,
      "#--\"": 3604,
      "--.-,----+": 3605,
      "--.-,-------,": 3606,
      "-/-,--.-/": 3607,
      "*---+-/": 3608,
      "()ĀĀ": 3609,
      "--,.----*": 3610,
      "**--,-,": 3611,
      "--%-.": 3612,
      "--,---+----": 3613,
      ".,--(": 3614,
      "--,--+.--,": 3615,
      ",.--,--,": 3616,
      ",.--,-.,": 3617,
      "+--(-.": 3618,
      "(+--,-,": 3619,
      "Ā.&": 3620,
      "Ā.-": 3621,
      ".-----------.": 3622,
      "/--(-+": 3623,
      "Ā*#": 3624,
      "-+/'": 3625,
      "-+/)--": 3626,
      "/ĀĀ#Ā": 3627,
      "--,---.--.-,": 3628,
      ",--------,----": 3629,
      ",-----------,": 3630,
      ",-----------": 3631,
      ".---+-+": 3632,
      "(*--+-": 3633,
      ",--'-+": 3634,
      ",--'-(": 3635,
      ".--'-,": 3636,
      ".--'-)": 3637,
      "----*-/----": 3638,
      "--+--/---/": 3639,
      "--+--+---+": 3640,
      "-..---.-.": 3641,
      "-.-----------,": 3642,
      "))--,-": 3643,
      "ĀĀ:Ā+": 3644,
      "--*-,,---.-": 3645,
      "/(--/-,": 3646,
      "-,..--.-": 3647,
      "-*..--": 3648,
      "((ĀĀ": 3649,
      "')--.-": 3650,
      ")--(-/": 3651,
      ")--(-(": 3652,
      "-.--------------.----": 3653,
      "'(--+-": 3654,
      ",--.--.,----": 3655,
      "*'.ĀĀ": 3656,
      ".(--/-": 3657,
      "-,-+----,": 3658,
      "+.--'-": 3659,
      "Ā\"'": 3660,
      "-))---,": 3661,
      "..,------,----": 3662,
      "--/-'/": 3663,
      "Ā'/": 3664,
      "-/-+--,-,": 3665,
      "ĀĀ=Ā+": 3666,
      "---.-*/": 3667,
      "),--&": 3668,
      "+,--,-.,": 3669,
      ".----/-+": 3670,
      "-,.,----,----": 3671,
      ",*--&-": 3672,
      "/--.-+-": 3673,
      "-...--,-": 3674,
      "-..,--.-+": 3675,
      "+)--)-": 3676,
      "367": 3677,
      "-./.--.-.": 3678,
      "-.------,------": 3679,
      ")&--+-": 3680,
      "*/--*-/": 3681,
      "...--.---,": 3682,
      "'*--(-": 3683,
      "ĀĀ!Ā/,": 3684,
      "((--$": 3685,
      ")%--,-": 3686,
      "--+---.----.": 3687,
      "ĀĀĚĀ": 3688,
      ",,-----.-------,----": 3689,
      "/---.-,/----": 3690,
      "--:-+": 3691,
      "!*": 3692,
      "!+": 3693,
      "!----": 3694,
      "!-+": 3695,
      "!,--": 3696,
      "!--.-": 3697,
      "!(--": 3698,
      "!'--": 3699,
      "!-.+": 3700,
      "!--*-*": 3701,
      "\"\"": 3702,
      "\"Ğ": 3703,
      "\"-.": 3704,
      "\"--,-": 3705,
      "\"*--": 3706,
      "\"ğ--": 3707,
      "\"$ĀĀ": 3708,
      "\".--%": 3709,
      "#ğ": 3710,
      "#----": 3711,
      "#-/": 3712,
      "#.--": 3713,
      "#/--": 3714,
      "#*--": 3715,
      "#--.-": 3716,
      "#-.,": 3717,
      "#-&": 3718,
      "#'--": 3719,
      "#--&": 3720,
      "#*/": 3721,
      "#-,/": 3722,
      "#Ā+": 3723,
      "#---'": 3724,
      "#&ĀĀ": 3725,
      "#*--*-": 3726,
      "#,,--": 3727,
      "#)--'-": 3728,
      "$*": 3729,
      "$Ğ": 3730,
      "$/--": 3731,
      "$---,": 3732,
      "$--+-": 3733,
      "$-,.": 3734,
      "$--*-": 3735,
      "$--(-": 3736,
      "$(/": 3737,
      "$.--(": 3738,
      "$+--,-.": 3739,
      "$/--(-": 3740,
      "$,--+-": 3741,
      "$ĀĀ:Ā": 3742,
      "$,--$": 3743,
      "%:": 3744,
      "%?": 3745,
      "%-,": 3746,
      "%/--": 3747,
      "%---": 3748,
      "%)--": 3749,
      "%(--": 3750,
      "%--,-,": 3751,
      "%*----": 3752,
      "%---+": 3753,
      "%--/-+": 3754,
      "%'--": 3755,
      "%--*-": 3756,
      "%-,+": 3757,
      "%ĀĀ)Ā": 3758,
      "%--/-(": 3759,
      "%-----": 3760,
      "%*--)": 3761,
      "%.--(": 3762,
      "%-.)": 3763,
      "%(+": 3764,
      "%/*--": 3765,
      "%--)-/": 3766,
      "%---'": 3767,
      "%.ĀĀ": 3768,
      "%&ĀĀ": 3769,
      "%+--)-": 3770,
      "%*--)-": 3771,
      "%%)": 3772,
      "%-*+": 3773,
      "%+--'-": 3774,
      "%,--+-+": 3775,
      "%---&": 3776,
      "%.--)-(": 3777,
      "&#": 3778,
      "&<": 3779,
      "&@": 3780,
      "&-,": 3781,
      "&-)": 3782,
      "&--.-,": 3783,
      "&-(": 3784,
      "&,--,": 3785,
      "&--+-": 3786,
      "&--/-": 3787,
      "&--.-/": 3788,
      "&--/-,": 3789,
      "&---+": 3790,
      "&--/-.": 3791,
      "&--/-+": 3792,
      "&--&": 3793,
      "&,--*": 3794,
      "&ĀĀ-Ā": 3795,
      "&--.--/": 3796,
      "&--(-": 3797,
      "&*--*": 3798,
      "&.--(": 3799,
      "&--&-": 3800,
      "&.,--": 3801,
      "&.--+-": 3802,
      "&)--)": 3803,
      "&.--'": 3804,
      "&+--+-": 3805,
      "&+--(-": 3806,
      "'@": 3807,
      "'ě": 3808,
      "'--/": 3809,
      "'-*": 3810,
      "'---": 3811,
      "'--+-.": 3812,
      "'--+-,": 3813,
      "'--.--.": 3814,
      "'--,-*": 3815,
      "',--*": 3816,
      "'--/-*": 3817,
      "'%--": 3818,
      "'--)-": 3819,
      "'--.--+": 3820,
      "'/--*": 3821,
      "'.--)": 3822,
      "'+--)": 3823,
      "'---,-": 3824,
      "',--*-": 3825,
      "'#--": 3826,
      "'--.-'": 3827,
      "'--*-.": 3828,
      "'/--*-": 3829,
      "',--(": 3830,
      "'--*-+": 3831,
      "'--/--.": 3832,
      "'+--'": 3833,
      "'*--)-": 3834,
      "'+--&": 3835,
      "'/--+-.": 3836,
      "'/--+-,": 3837,
      "'---&": 3838,
      "',--*-*": 3839,
      "',--)-/": 3840,
      "(\"": 3841,
      "(-/": 3842,
      "(+----": 3843,
      "(---.": 3844,
      "(--.--.": 3845,
      "(,--*": 3846,
      "(ĀĀ.Ā": 3847,
      "(--,--,": 3848,
      "(.--,-,": 3849,
      "(--.--": 3850,
      "(/--*": 3851,
      "(,--.-.": 3852,
      "(/--)": 3853,
      "(.--(": 3854,
      "(,--*-": 3855,
      "(--/-,,": 3856,
      "(.--*-": 3857,
      "(+--*-": 3858,
      "(--.-'": 3859,
      "(/--(": 3860,
      "(!--": 3861,
      "(,--'": 3862,
      "(,--(": 3863,
      "(*--(": 3864,
      "(--)-+": 3865,
      "(--)-.": 3866,
      "(,--&": 3867,
      "(+--(-": 3868,
      "(---,--": 3869,
      "(.--)-/": 3870,
      "(+--)-.": 3871,
      ")#": 3872,
      "):": 3873,
      ")--/": 3874,
      "),----": 3875,
      "),--,": 3876,
      ")--+-.": 3877,
      ")--,-+": 3878,
      ")--+-+": 3879,
      ")--.-*": 3880,
      "))----": 3881,
      ")--,-*": 3882,
      ")ĀĀ,Ā": 3883,
      ").----.": 3884,
      ")ĀĀ)Ā": 3885,
      ")--/-)": 3886,
      ").--,-": 3887,
      ")---.-": 3888,
      ")+--)": 3889,
      ").--,-+": 3890,
      ")--/-,,": 3891,
      ")+--*-": 3892,
      ")--,--/": 3893,
      ")--/--/": 3894,
      ").--'": 3895,
      ")--+-'": 3896,
      ")--*-.": 3897,
      ")/--)-": 3898,
      ")--+--*": 3899,
      ")+--(-": 3900,
      ")+--%": 3901,
      ")--.-,.": 3902,
      ")---.-,": 3903,
      ")\"ĀĀ": 3904,
      ")#ĀĀ": 3905,
      ")--/--)": 3906,
      ")--/-(,": 3907,
      ")---'-.": 3908,
      "*!": 3909,
      "*=": 3910,
      "*-,----": 3911,
      "*--.--,": 3912,
      "*,/": 3913,
      "*,.----": 3914,
      "*--,-*": 3915,
      "*--/-*": 3916,
      "*--,--.": 3917,
      "*--+-*": 3918,
      "*%--": 3919,
      "*,----.": 3920,
      "*ĀĀ(Ā": 3921,
      "*.--)": 3922,
      "*--,-,,": 3923,
      "*+--)": 3924,
      "*.--,-+": 3925,
      "*,--*-": 3926,
      "*--/-,,": 3927,
      "*--,-(": 3928,
      "*#--": 3929,
      "*--.---.----": 3930,
      "*--.-'": 3931,
      "*--+--+": 3932,
      "*/---.-": 3933,
      "*--.--*": 3934,
      "*.----+": 3935,
      "*--/--.": 3936,
      "*.--,-*": 3937,
      "*/-----": 3938,
      "*.--(-": 3939,
      "*%ĀĀ": 3940,
      "*,--*-,": 3941,
      "*--.-,.": 3942,
      "*Ğ--": 3943,
      "*/--)--": 3944,
      "*--.--(": 3945,
      "+<": 3946,
      "+>": 3947,
      "+Ğ": 3948,
      "+--+-,": 3949,
      "+--+-*": 3950,
      "+--.---.": 3951,
      "+ĀĀ+Ā": 3952,
      "+--.--/": 3953,
      "+--.--------": 3954,
      "+ĀĀ/Ā": 3955,
      "+*--*": 3956,
      "+--/-(": 3957,
      "+--+--,": 3958,
      "+--/-.,": 3959,
      "+ĀĀ$Ā": 3960,
      "+--/-,,": 3961,
      "+--+-,,": 3962,
      "+/----.": 3963,
      "+,--,-+": 3964,
      "+--,--+": 3965,
      "+--+-.,": 3966,
      "+)--)": 3967,
      "+--.---": 3968,
      "+,--(": 3969,
      "+/--)-": 3970,
      "+--+--*": 3971,
      "+*--'": 3972,
      "+*--)-": 3973,
      "+&--,-": 3974,
      "+--/---,": 3975,
      "+.--)-/": 3976,
      "+/--(-/": 3977,
      "++---+-.": 3978,
      "+.--)-*": 3979,
      ",ě": 3980,
      ",--.----": 3981,
      ",,---,": 3982,
      ",-/----": 3983,
      ",,---.": 3984,
      ",.--*": 3985,
      ",ĀĀ,Ā": 3986,
      ",%--": 3987,
      ",$--": 3988,
      ",(----": 3989,
      ",ĀĀ'Ā": 3990,
      ",--/--,": 3991,
      ",--.-.----": 3992,
      ",*--)": 3993,
      ",\"--": 3994,
      ",.--*-": 3995,
      ",--+---,": 3996,
      ",--/---.": 3997,
      ",'----": 3998,
      ",)--)": 3999,
      ",--+-'": 4000,
      ",/--*-": 4001,
      ",--/--+": 4002,
      ",+--'": 4003,
      ",/--)-": 4004,
      ",--+--------": 4005,
      ",.--)-+": 4006,
      ",#--,-": 4007,
      "-ę": 4008,
      "-Ě": 4009,
      "-Ĝ": 4010,
      "-ĀĀ-Ā": 4011,
      "-\"--": 4012,
      ".ĝ": 4013,
      ".-+": 4014,
      "./,": 4015,
      ".+---,": 4016,
      ".-/----": 4017,
      ".,---.": 4018,
      ".(-": 4019,
      "..--*": 4020,
      ".ĀĀ*Ā": 4021,
      ".,--)": 4022,
      ".+--*": 4023,
      ".--.--+": 4024,
      ".--+-)": 4025,
      ".&-": 4026,
      "..--,-.": 4027,
      ".+--)": 4028,
      ".,--,-.": 4029,
      ".--+--,": 4030,
      ".+--'": 4031,
      "..--)-": 4032,
      "..--,-*": 4033,
      ".-.--.-.": 4034,
      ".--.--)": 4035,
      "..--*-+": 4036,
      ".(--'": 4037,
      "/;": 4038,
      "/Ğ": 4039,
      "/-/": 4040,
      "/--+": 4041,
      "/..": 4042,
      "/.---.": 4043,
      "/+,": 4044,
      "/--.-*": 4045,
      "/-/----": 4046,
      "/ĀĀ.Ā": 4047,
      "/--.--/": 4048,
      "/--,---,": 4049,
      "/ĀĀ)Ā": 4050,
      "/$--": 4051,
      "/(----": 4052,
      "/ĀĀ(Ā": 4053,
      "/--,-,,": 4054,
      "/--/-(": 4055,
      "/--.-.----": 4056,
      "/ĀĀ&Ā": 4057,
      "/.--,-+": 4058,
      "/--+-(": 4059,
      "/\"--": 4060,
      "/ĀĀ$Ā": 4061,
      "/,--,-+": 4062,
      "/!--": 4063,
      "/--.---": 4064,
      "/--,---.----": 4065,
      "/ğ--": 4066,
      "/&--,-": 4067,
      "/--.--)": 4068,
      "/--,--)": 4069,
      "/--,---/": 4070,
      "050": 4071,
      "041": 4072,
      "100": 4073,
      "130": 4074,
      "150": 4075,
      "210": 4076,
      "211": 4077,
      "220": 4078,
      "221": 4079,
      "241": 4080,
      "310": 4081,
      "301": 4082,
      "320": 4083,
      "341": 4084,
      "351": 4085,
      "352": 4086,
      "370": 4087,
      "411": 4088,
      "431": 4089,
      "450": 4090,
      "433": 4091,
      "451": 4092,
      "522": 4093,
      "532": 4094,
      "79": 4095
    },
    "merges": [
      "- -",
      "-- --",
      "- .",
      "- ,",
      "-- .",
      "-- ,",
      "- /",
      "- +",
      "-- /",
      "-- +",
      "Ā Ā",
      "- *",
      ", --",
      ", ----",
      ". ----",
      ". --",
      "+ --",
      "-. ----",
      "- )",
      "-, ----",
      "/ --",
      "--, -",
      "* --",
      "--. -",
      "+ ----",
      "-- *",
      ". --,",
      "--. -,",
      "/ ----",
      "--. -.",
      "-- -.",
      "- (",
      "---- ----",
      ", --,",
      "-- -,",
      "-- -",
      ". .",
      "--+ -",
      ") --",
      "--/ -",
      ". ,",
      "--, -.",
      "-, ,",
      "--. -/",
      "-- )",
      "---- ,",
      "--. -+",
      "( --",
      "--, -,",
      "-. ,",
      "-- -/",
      ".-- -.",
      "/ ,",
      "---- .",
      "-. .",
      "--. ----",
      ",-- -,",
      "- '",
      "/ .",
      "-, .",
      "--, -/",
      ", ,",
      ", .",
      "-- (",
      "* ----",
      "--+ -.",
      "--/ -,",
      "- &",
      "0 0",
      "--, ----",
      "--, -+",
      "+ ,",
      "-- -,----",
      "-- -+",
      "--/ -.",
      "* -",
      "--+ -/",
      "--+ -,",
      "--/ -/",
      "--/ -+",
      "+ .",
      "--. --.",
      "-- -.----",
      "--+ -+",
      "-- '",
      "/ /",
      "+ +",
      "-+ ----",
      ", ,----",
      "/ +",
      "+-- -,",
      "--. --,",
      "' --",
      ". +",
      "1 0",
      "--. -*",
      ", +",
      "-/ ----",
      ",-- -.",
      "--* -",
      "0 1",
      ". .----",
      ", /",
      ". ,----",
      "/-- -.",
      ", .----",
      "-- &",
      ") ----",
      "+ /",
      ") -",
      "--, -*",
      "( -",
      ",-- *",
      "--/ -*",
      ".-- -,",
      ", *",
      "& --",
      ". /",
      "-. .----",
      ".-- *",
      "--, --.",
      ". *",
      "-, ,----",
      "0 2",
      "/ *",
      "--+ -*",
      ". Ā",
      "ĀĀ .Ā",
      "-. +",
      "' -",
      "- %",
      "--. -)",
      "--, --,",
      "* +",
      "1 1",
      ", Ā",
      "--. ---.",
      "ĀĀ ,Ā",
      "-,---- .",
      ".--, -,",
      "2 0",
      "+ *",
      "-. /",
      "-/ ,",
      "-.---- ,",
      "+ Ā",
      "ĀĀ +Ā",
      "-.---- .",
      "- $",
      "-. -,",
      "% --",
      "* /",
      ",-- -+",
      "- Ā",
      "-+ ,",
      "ĀĀ -Ā",
      ".-- -/",
      "-,---- ,",
      "* Ā",
      "--. --/",
      "ĀĀ *Ā",
      "-, /",
      "--) -",
      "-, +",
      "--. --------",
      "--, ---,",
      "* ,",
      ".---- .",
      "* .",
      "2 1",
      "-/ +",
      "-/ .",
      "---- /",
      "-. ,----",
      "/ Ā",
      "ĀĀ /Ā",
      "-, .----",
      "--. --",
      ",-- )",
      ") Ā",
      "1 2",
      "ĀĀ )Ā",
      "+-- *",
      ",---- ,",
      "% -",
      "--/ -)",
      ",---- .",
      "$ --",
      "( ----",
      "3 0",
      "*-- -,",
      ".--, -/",
      "--. --+",
      "( Ā",
      "ĀĀ (Ā",
      "-* -",
      "--( -",
      "--+ -)",
      "/-- *",
      ",--, -,",
      ". --,-",
      "/ .--",
      ".---- ,",
      ") +",
      "---- +",
      ". )",
      "-. *",
      "--, -)",
      "+-- -+",
      "/-- -/",
      ", )",
      "-. -.",
      "0 3",
      "-+ +",
      "---- -,",
      "--.- (",
      "/-- -",
      ".---. -",
      "$ -",
      "& -",
      "--. ,",
      ".-- )",
      "*-- *",
      ". /----",
      "--, --------",
      "--, -,,",
      "' Ā",
      "* )",
      ", +----",
      "/ )",
      "2 2",
      "--, --",
      "--/ --",
      "ĀĀ 'Ā",
      "-, *",
      "-/ )",
      "--+ --",
      "--, ,----",
      "--/ -(",
      "---. -",
      "/ .----",
      "4 0",
      "--. .",
      "--. ---,",
      "-+ *",
      ".-- -",
      ".--, -.",
      "-+ -",
      "--' -",
      "-, --",
      "+-- )",
      ",--, -.",
      "% Ā",
      "+ .----",
      ", --,-",
      "---- -",
      "--/ --,",
      "ĀĀ %Ā",
      "---, -",
      "# -",
      ") .",
      "1 3",
      "---- -.",
      "-+ -.",
      "( /",
      "2 3",
      "-/ *",
      "& Ā",
      "+ ,----",
      ", --.-.",
      "--. -.----",
      "--+ --,",
      "ĀĀ &Ā",
      "/ ,----",
      "/-- )",
      "*-- )",
      ") ,",
      "/ ,--",
      "-, -.",
      "--. .----",
      "-* ----",
      "-) -",
      ".--, -+",
      ", --.-",
      ". +----",
      "Ā +",
      "--/ ----",
      "--/ -.,",
      "--+ -(",
      ",--, -/",
      "/ +--",
      ") *",
      "--. ,----",
      "--+ ----",
      "-,---- ----",
      "( .",
      ", --.-,",
      "3 1",
      "-, -,",
      "-* ,",
      ".---- -",
      ",---, -",
      "\" --",
      "' +",
      "- #",
      "/ +----",
      "ĀĀ $",
      ".-- (",
      "+ )",
      "5 0",
      "-+ )",
      ",-- *-",
      "--* -/",
      "ĀĀ$ Ā",
      "+ (",
      "-+ .",
      "--/ -,,",
      ".-- *-",
      "--,- (",
      "--+ ---,",
      "--+ -,,",
      "+-- *-",
      "/-- -,",
      "# --",
      ". --.-.",
      "-. -",
      "-, )",
      "--. -,----",
      "--, --/",
      "-/ -,",
      "*-- -+",
      "/---- .",
      "--& -",
      "( )",
      "--, .----",
      "* *",
      "+ --.-,",
      ", (",
      "-- %",
      "-. )",
      "--, ---+",
      ",--, -+",
      ". ,--",
      "--. ---.----",
      "--, --+",
      "--/ -..",
      ", .--,",
      "/ --,-",
      "-. (",
      "-, -,----",
      "--. ---,----",
      "--/ ---.",
      "--+ -.,",
      ",---- -",
      "+-- (",
      "--.- '",
      "' ----",
      "( +",
      "3 2",
      "4 1",
      "Ā .",
      "Ā /",
      "-, -.----",
      "-* -/",
      ".---- ----",
      "/-- (",
      "- \"",
      ". --+-",
      "/ --.-,",
      "3 3",
      "4 2",
      "Ā *",
      "-, +----",
      "--. ---/",
      "-+ --",
      "-) ,",
      "-------- ----",
      "., --.-,",
      "., --.-.",
      "! -",
      "( ,",
      "/ --.-",
      "/ --/-",
      "5 1",
      "-. --",
      "--, -.----",
      "-+ /",
      "--/ --/",
      "-* *",
      "-* --",
      ".. --.-,",
      ")-- )",
      "! --",
      "+ +----",
      "/ ĀĀ",
      "/ *--",
      "0 4",
      "--, ---.",
      "-/ --",
      "-/ ----,",
      ",---- ----",
      ".-- -+",
      "/---- ,",
      "., --.-",
      "\" -",
      "( *",
      ") (",
      "5 2",
      "Ā ,",
      "-. -+",
      "-. -,----",
      "--. --.----",
      ",-- '",
      ",-- -",
      ".-- '",
      "--,- '",
      "--+- '",
      ",---. -",
      ", --/-",
      "--, ---,----",
      "-/ -.",
      ",---- +",
      "+---- .",
      "--* -.",
      "--* -*",
      "+ '",
      "/ /--",
      "1 4",
      "---- *",
      "-, -",
      "-, .---.",
      "--. ---",
      "--+ --.",
      "--+ --/",
      "--+ --+",
      "-------- --------",
      "+---, -",
      "+ +--",
      "+ --,-.",
      ". --.-",
      ". --.-,",
      "Ā %",
      "-. .---.",
      "-+ ----.",
      ",-- (-",
      "-.---- ----",
      "/-- *-",
      "& .",
      ") )",
      ", .--",
      ", /----",
      ", ,--,",
      "3 5",
      "-. -.----",
      "-, ---,",
      "--/ -,.",
      "--+ -..",
      "ĀĀ :",
      ",-- (",
      ",---- /",
      "-,---- --",
      "-,---- --,",
      "--* -,",
      "-( -",
      "--) -/",
      "/---. -",
      "+ --.-",
      "+ .--,",
      "+ --/-",
      "/ (",
      "-, ..",
      "--. --*",
      "--+ -,.",
      "-* .",
      "-* -,",
      ",-- -/",
      "-) +",
      "*-- -",
      "---/ -",
      "& )",
      "( (",
      "+ ĀĀ",
      ", ĀĀ",
      "/ /----",
      "/ --.-.",
      "4 3",
      "6 1",
      "Ā )",
      "-. ,---,",
      "--/ --+",
      ".---- +",
      "-) .",
      "-) ----",
      "+---- -",
      "--* -+",
      "--- '",
      "' )",
      ", '",
      ". '",
      ". ĀĀ",
      "/ --+-",
      "/ )--",
      "5 3",
      "7 0",
      "-. ---.",
      "-+ -/",
      "--/ --.",
      ",---- --",
      "+-- '",
      "-.---- --",
      "*-- (",
      ")-- (",
      "-,, .----",
      "' *",
      "* (",
      ". --/-",
      "2 4",
      "3 4",
      "Ġ Ā",
      "--/ ---/",
      ",-- )-",
      ".---- -/",
      ".-- &",
      ".-- )-",
      "-.---- /",
      "-.---- --------",
      "/-- )-",
      ".. .----",
      "----. -",
      "/. --.-",
      "& ĀĀ",
      "' '",
      "' (",
      "+ -",
      "+ --,-",
      "+ /----",
      ", --.-+",
      ", --.--.",
      "/ --,-,",
      "0 5",
      "Ġ -",
      "-- #",
      "---- --",
      "-, --,-",
      "-, --.-,",
      "ĀĀ \"",
      ".---- --",
      ".---- --------",
      "/-- (-",
      "*-- *-",
      "+---- ,",
      ".--, -*",
      ".. --.-",
      ".. --.-.",
      "--,---- -",
      ".---, -",
      "* '",
      "* ĀĀ",
      ", --/-,",
      ". (",
      "1 5",
      "6 3",
      "Ā -",
      "-- \"",
      "---- )",
      "-. --,-",
      "-. --.-.",
      "-, -+",
      "-, --.-.",
      "-, --,-.",
      "--, -,----",
      "--, ---.----",
      "-+ (",
      "-) --",
      "-,. .----",
      "+, --,-",
      "+. --,-",
      "& ,",
      "* --/-",
      "+ .--",
      "- !",
      "- ĀĀ",
      ". +--",
      ". --.-/",
      "/ --,-.",
      ": -",
      "Ā \"",
      "Ā &",
      "-. '",
      "-, --.-",
      "ĀĀ ;",
      "+-- )-",
      "-) )",
      "-) -/",
      ".. ,----",
      "--/- '",
      "& '",
      "* +----",
      "+ --.-.",
      "+ --.-+",
      ", *----",
      ". .--,",
      "/ --.-/",
      "5 4",
      ": ĀĀ",
      "Ā '",
      "Ā (",
      "-- %-",
      "---- -+",
      "-. -/",
      "-. /---.",
      "-, '",
      "-/ -+",
      "--+ --*",
      "ĀĀ !",
      "ĀĀ =",
      ",---- -,",
      ",---- -/",
      ".---- -,",
      "+-- -",
      "-,---- +",
      "/---- -",
      "---. -*",
      "----, -",
      "/, --.-",
      "/, --.-,",
      ",, --,-",
      "% (",
      ") ,--",
      "+ ,--",
      "+ ,--,",
      "+ --.-/",
      ", ,--",
      ", --.-/",
      ", --/-.",
      ". /--",
      ". --+-.",
      "/ '",
      "1 6",
      "5 5",
      "6 4",
      "ğ --",
      "Ġ --",
      "---- ..",
      "-. --.-",
      "-. +----",
      "-. --.-,",
      "-, (",
      "--, .--,",
      "ĀĀ #",
      ",---- -+",
      ",---- ,,",
      ".-- (-",
      "-.---- +",
      "*-- '",
      "*-- )-",
      "/---- /",
      "., ,----",
      "-,, .--,",
      "--) -+",
      "--.---- -",
      "---+ -",
      "& ----",
      ") '",
      ", --/",
      ", --+-",
      ". .--",
      ". *----",
      ". --/-,",
      "0 8",
      "2 5",
      "ğ -",
      "-. /,",
      "-, --,-,",
      "-, --,-/",
      "-, --,-+",
      "-+ -+",
      "-* (",
      ".---- /",
      ".---- -+",
      "+-- -*",
      "-.---- -",
      "-,---- /",
      "-( )",
      "---/ ----",
      ".---. -,",
      "--( -/",
      "-,----. -",
      "--.-------- ----",
      "% &",
      "% )",
      "% ĀĀ",
      "* ,--",
      ". --+",
      "6 2",
      "Ğ -",
      "---- /,",
      "-. --,-.",
      "-. +---,",
      "-, --.-/",
      "-/ -",
      "-/ .,",
      ",-- -*",
      ".---- --.",
      "+-- &",
      "/-- '",
      "-,, ,----",
      "-,. ,----",
      "--,---, -",
      "ĀĀ: Ā",
      "& (",
      "& --,-",
      ") /",
      "* --.-.",
      "* ----,",
      "+ *----",
      ", +--",
      ", *--",
      ", )--",
      ", --/-+",
      ". *--",
      "/ --.-+",
      "-- $",
      "-- -*",
      "---- (",
      "-. ..",
      "-. .,",
      "-. --,-,",
      "-, ,---.",
      "--, ---",
      "--, --.----",
      "-/ &",
      "-/ ----.",
      "--/ ---,",
      "-* '",
      "-* +",
      "-) (",
      "/-- '-",
      "+---- *",
      "--* -(",
      "---. -+",
      "--) -.",
      ",. --,-",
      "++ --,-",
      "--.---. -",
      "*---, -",
      "ĀĀ; Ā",
      "% *",
      "* ,--,",
      "+ --+-",
      "+ )--",
      "+ --,-,",
      "+ --/-,",
      "+ --/-.",
      "+ ,--*",
      ", &",
      ". ,--,",
      "0 6",
      "1 8",
      "2 6",
      "3 6",
      "4 6",
      "; ĀĀ",
      "---- -/",
      "---- -*",
      "-. --.-+",
      "-, --.-+",
      "-, ,---,",
      "--. --)",
      "--. --,----",
      "--, --*",
      "--, ,--,",
      "-/ '",
      "-+ -,",
      "-+ --.-",
      "--+ ---.",
      "ĀĀ <",
      "-* ----,",
      ",-- &",
      "+-- -.",
      "-) *",
      "*-- -+-",
      "+---- +",
      "+---- /",
      "--.-. +",
      "---. -/",
      "., .----",
      "+, --+-",
      "---+ ----",
      "--.--. ---.",
      "// --.-,",
      ",,---- .",
      "-..---- -",
      ",---+ -",
      ".---/ -",
      "$ (",
      ") ----,",
      "* --,-",
      ", --+-,",
      ", .--,-,",
      ". &",
      "/ --/-,",
      "2 7",
      "5 6",
      "9 3",
      "---- ---,",
      "-. /----",
      "-. --/-",
      "-. --.-/",
      "-. /.",
      "-. --,-/",
      "-, .,",
      "--. -.----.",
      "--, ----,",
      "-/ --,-",
      "-+ ----,",
      "--/ ---",
      "-* )",
      "+-- -/",
      "+-- (-",
      "+-- '-",
      "-.---- --,----",
      "/---- -+",
      ".. --.-/",
      "--) -*",
      "(-- (",
      "-.. ,----",
      ",---, -.",
      ",---, -+",
      "-' )",
      ",--* -,",
      ".--* -+",
      "-.----, -",
      "$ ĀĀ",
      "& /",
      "( ĀĀ",
      ") &",
      ") --,-",
      ") --.-",
      "* --,-.",
      "+ )----",
      ", -",
      ", --/-/",
      ". --.-+",
      ". --+-/",
      ". --/-/",
      "/ (--",
      "/ --,-/",
      "/ *----",
      "/ --/-.",
      "4 4",
      "7 1",
      "8 0",
      "8 2",
      "Ā $",
      "-- <",
      "-- $-",
      "-. &",
      "-, /,",
      "--. /----",
      "--, --)",
      "--, --,----",
      "-/ -/",
      "-+ --.-.",
      "-+ ..----",
      "-* &",
      "-* /",
      ",-- -.----",
      "-.---- *",
      "-) '",
      "-,---- --------",
      "-,---- ,,",
      "-( +",
      ".. --,-",
      "(-- '",
      "-., ,----",
      "/, --/-/",
      "-.. .----",
      "/. .----",
      "/. --.-,",
      "--.--. .----",
      "/+ --.-",
      "--.--, .----",
      ".+ --.-,",
      ".+ --.-.",
      "+/ --,-.",
      "--,-------- ----",
      "ĀĀ= Ā",
      "' .",
      ") --+-",
      "* .--",
      "* --.-",
      "* --+-",
      "* ----.",
      "* /--*",
      "+ %",
      "+ &",
      "+ --/-+",
      "+ .--*",
      ", /--",
      ", --.--/",
      "- :",
      ". %",
      ". --/-*",
      "/ ,--,",
      "/ --+-.",
      "0 7",
      "1 7",
      "4 7",
      "6 0",
      "7 5",
      "Ĝ Ā",
      "-- ;",
      "-- *--",
      "-- #-",
      "---- ---",
      "---- .,",
      "-. *--",
      "-. .---,",
      "-, &",
      "--. ----,",
      "--, +",
      "-/ .----",
      "-/ --.-,",
      "-/ --,-.",
      "-+ '",
      "-+ --,-",
      "--+ -.----",
      "--+ --------",
      "--+ ,--,",
      "--+ ---+",
      "ĀĀ ğ",
      "+-- %",
      "-.---- -,",
      "-) /",
      "--.-, .",
      "/---- *",
      "---. -,",
      ".. .",
      ".. --.-+",
      "--/- &",
      "--) -(",
      "-., .----",
      "-., ,--,",
      "--,-/ ,",
      "-& (",
      "-+---- --",
      ",,---- /",
      "/+ --.-/",
      ",.---- -",
      "-,,---- -",
      "$ .",
      "% '",
      "% .",
      "' &",
      "' *--",
      ") )--",
      "* %",
      "* --.-/",
      "* --,-/",
      "+ /--",
      "+ --.-*",
      ", ,--,-,",
      "- ;",
      ". $",
      ". --.--,",
      "/ --+-/",
      "2 9",
      "3 7",
      "4 9",
      "5 8",
      "9 0",
      "Ğ Ā",
      "---- +.",
      "-. --,-+",
      "-, ,--",
      "--. ---+",
      "-/ (",
      "-/ --.-.",
      "-+ &",
      "-+ --,-.",
      "--/ ,----",
      "--+ ---",
      "-* ----.",
      ",---- -.",
      ",---- --.",
      ".---- ..",
      "-.---- --,",
      "-.---- -.----",
      "-.---- ..",
      "-) -+",
      "-) --.-.",
      "-,---- ,.",
      "/-- &",
      "*-- &",
      "*-- -*",
      "--* --.",
      "--* --,",
      "/---- -,",
      "---. -.",
      "-( (",
      "-( --",
      "---, -,",
      ")-- '-",
      "., ,--,",
      "--,-, /",
      "---/ -+",
      "/, --.-+",
      "--.---- --",
      ",---, -/",
      "*---- /",
      "++ --,-.",
      "-+---- +",
      "-/---- +",
      "./ --.-,",
      "*+ --,-",
      ",---+ -/",
      "*, --,-",
      "ĀĀ\" Ā",
      "ĀĀ! Ā",
      "$ $",
      "$ &",
      "& &",
      "' ,",
      "( '",
      "( --,-",
      ") ---",
      ") --.-+",
      "+ --,-/",
      "+ --,-+",
      "+ --/-/",
      "+ --/-*",
      ", -.----",
      ", --+-+",
      ". -,----",
      ". --+-,",
      "/ -",
      "/ --,-+",
      "/ --+-,",
      "/ )----",
      "/ --,-*",
      "/ --/-*",
      "4 5",
      "6 5",
      "7 2",
      "7 3",
      "7 8",
      "9 1",
      "? Ā",
      "Ğ --",
      "-- !-",
      "---- --,",
      "---- ---.",
      "-. %",
      "-/ /",
      "-/ --.-",
      "-+ ,----",
      "-+ .----",
      "-+ --.-/",
      "-+ /.",
      "-+ ,/",
      "--/ --------",
      "--/ ---,----",
      "--/ ---+",
      "--+ --)",
      "ĀĀ ĜĀ",
      "-* --.-.",
      ",---- --------",
      ".-- -.----",
      ".-- '-",
      "+-- -.-",
      "-) %",
      "-,---- -",
      "/-- )--",
      "+---- -.",
      "+---- -,",
      "+---- -/",
      "--* -..",
      "/---- -.",
      "/---- -*",
      "-( ,",
      "-( /",
      "---, --",
      "--- &",
      ".. --+-",
      ".. --.--.",
      ")-- )-",
      "., --/-",
      "--,-. ,",
      "----, ,",
      "--.-+ +",
      "---/ -,",
      "/, --.-/",
      "-' +",
      "/. --/-+",
      ",. --.-",
      ",. --+-",
      "--( -+",
      "--,---- --.----",
      "+, .----",
      "// --.-",
      "+---, -/",
      ",+ --.-,",
      ",* --,-",
      "--,--. ,----",
      "--,--. ---.",
      "--.---. -/",
      "-.----. -",
      "--., --.-,",
      ".--) -+",
      "/---, -",
      "ĀĀ# Ā",
      "ĀĀ< Ā",
      "\" '",
      "# .",
      "$ )",
      "$ ,",
      "$ /",
      "$ +--",
      "% /",
      "% ----",
      "( ,--",
      "( (--",
      ") $",
      ") %",
      ") ĀĀ",
      ") --.-,",
      "* #",
      "* ,----",
      "* .----",
      "* +--",
      "* *--",
      "* .--,",
      "* (--",
      "* --,-+",
      "+ --+-+",
      "+ --.--+",
      ", .--,-/",
      ", ,--,-.",
      ", --+--,",
      "- ğ",
      ". --/-.",
      ". --/-+",
      ". )----",
      ". (----",
      "/ --/-+",
      "8 3",
      "; -",
      "@ Ā",
      "ĝ -",
      "Ġ 2",
      "-- !",
      "-- )--",
      "-- (--",
      "---- --.",
      "---- --.----",
      "---- *-",
      "-. /+",
      "-. /*",
      "-, --/-",
      "-, .---,",
      "--. --(",
      "-/ %",
      "-/ --,-+",
      "-+ --.-,",
      "-+ .---.",
      "-+ ,.",
      "--/ --*",
      "--+ ---.----",
      "-* --.-",
      ",-- '-",
      ",-- -*-",
      ",---- *",
      ",---- --,",
      ",---- /.",
      ".---- --+",
      ".-- -.--------",
      "+-- -*-",
      "-.---- -/",
      "-.---- --/",
      "-.---- ,.",
      "-,---- *",
      "-,---- ---.----",
      "/-- !",
      "--* --/",
      "--* -)",
      "--* -'",
      ".--, ----",
      ".--, -,,",
      "/---- +",
      "/---- +.",
      ",--, --",
      "---, ---,",
      "--- '-",
      ".. --/-",
      "., --.-+",
      "., --.-*",
      "--,-. -,",
      "--.-+ -/",
      ".---. -*",
      ",---, -..",
      ",, ,----",
      ",, .----",
      ",. --.-+",
      "--( -,",
      "*---- -",
      "-& *",
      "+, --+-.",
      "+. --+-.",
      "/+ --.-,",
      "+---, -+",
      "--.--, ,--,",
      ",+ --,-.",
      ",+ --,-,",
      "-/---- /",
      "..---- .",
      ".,---- ,",
      ".,---- .",
      "/---. -+",
      ",--* -*",
      "./ --.-",
      ".--* -.",
      "--,--, ---,",
      "*. --,-",
      "----/ -",
      ",--) -/",
      "+--* -.",
      ",----. -,----",
      "/--* -/",
      ".----, -.----",
      ".--) -/",
      "\" &",
      "\" ĀĀ",
      "# '",
      "# ,",
      "% #",
      "% ,--",
      "% --)",
      "& +",
      "& *--",
      "' %",
      "' +--",
      "( .--",
      ") +--",
      ") --/-",
      "* &",
      "* --.-,",
      "* --/-/",
      "* .--*",
      "* --/-)",
      "+ --+-.",
      "+ --+-/",
      "+ --.--",
      "+ --/-)",
      "+ --/--,",
      "+ *--)",
      ", --+",
      ", -,----",
      ", --.-*",
      ", --/--",
      "- Ğ",
      ". )--",
      ". --+-+",
      ". --.-(",
      "0 9",
      "3 8",
      "6 6",
      "ě -",
      "-- ?",
      "---- --/",
      "-. .---/",
      "-, -*",
      "-, +.",
      "-, +/",
      "-, ,---+",
      "-, /---",
      "-, .---.-",
      "--. /",
      "--. -.----,",
      "--, ---/",
      "--, -.----,",
      "-/ -.----",
      "-/ +,",
      "-+ -.----",
      "-+ +---+",
      "--/ .----",
      "--/ -.----",
      "--+ --,----",
      "ĀĀ ę",
      "ĀĀ Ě",
      "-* %",
      "-* -+",
      "-* +/",
      ",---- --+",
      ",---- -..----",
      ",---- --.---.",
      ".-- -*",
      "+-- -)",
      "-.---- --.",
      "-) --.-",
      "-,---- --.",
      "/-- %",
      "/-- -+",
      "*-- -/",
      "*-- -)",
      ".--, ---,----",
      "/---- ..",
      "--.-. -,",
      "--.-. -,----",
      "--.-. .---.",
      "-( .",
      "-( ----",
      ",--, ---.----",
      "., +----",
      "--) -,",
      "----, .",
      "----, -/",
      "--,-, +",
      "-., --.-",
      "---/ -/",
      "/, --/-",
      "-.. .--,",
      "-' (",
      "-' /",
      "/. --,-",
      "/. --/-",
      "-,. /----",
      ",. --+-,",
      "--( -.",
      "--+-. *",
      "--/-, -",
      "-& %",
      "-& -",
      "00 0",
      "--+-, +",
      "++ --,-/",
      ",,---- -",
      "--*- %",
      "..---- +",
      "..---- -",
      "/---. -/",
      ",.---- .",
      "-.+ .--,",
      "--.-) .",
      "--,--, ---+",
      "ĀĀ,Ā )",
      "-./ .----",
      "*/ --,-.",
      ",---+ -.",
      "-+, .--,",
      "-.,---- -",
      "-,.---- -",
      "--.. --.-.",
      "--/--, .----",
      "-,-------- ---.",
      "-,-------- ---,",
      "# &",
      "# ĀĀ",
      "$ --.-",
      "% ,",
      "& --.-",
      "( +--",
      "( *--",
      "( --.-",
      "( ---",
      "( --+-",
      "( --)",
      ") /--",
      ") ---,",
      ") --.-/",
      ") (--",
      ") +--*",
      "* /----",
      "* )--",
      "* --.-+",
      "* --/-.",
      "* --/-+",
      "+ $",
      "+ *--",
      ", $",
      ", --+-.",
      ", --/-*",
      ". #",
      ". --.-*",
      ". --.-)",
      ". %--",
      ". --/-,.",
      "/ &",
      "1 10",
      "6 7",
      "7 4",
      "7 6",
      "8 1",
      "9 4",
      "= ĀĀ",
      "> Ā",
      "Ā !",
      "Ĝ -",
      "-- >",
      "-- Ğ",
      "-- ğ",
      "-- Ğ-",
      "-. ,--,",
      "-. --+-",
      "-. )--",
      "-. +,",
      "-. --/-.",
      "-. --+-/",
      "-, ,--,",
      "-, --+-,",
      "-, ++",
      "--. .--",
      "--. ,--,",
      "--. -,----.",
      "--, +----",
      "--, -,----.",
      "-/ --------",
      "-/ ,,----",
      "-/ ,*",
      "-/ /.----",
      "--/ ---.----",
      "ĀĀ ĝ",
      "-* -.",
      "-* --.-,",
      ",-- -)",
      ".---- )",
      ".---- ,--,",
      ".-- %",
      ".-- )--",
      ".-- -+-",
      "+-- -.-,",
      "-.---- -+",
      "-.---- -,----",
      "-) &",
      "/-- -.----",
      "/-- $-",
      "*-- -.",
      "*-- -(",
      "*-- -*-",
      "--.- %",
      "+---- --/",
      "+---- +,",
      "--* -.,",
      "--* -,.",
      "--* -&",
      "--* -/)",
      "/---- -/",
      "--.-. /",
      "---. -)",
      "-------- ,",
      "-------- -",
      "--- %",
      ".. --/-.",
      ".. --/-+",
      ".. --.--,",
      "--+- &",
      ")-- -)",
      ")-- -+-",
      "--/- $",
      "--/- %",
      "., --,-",
      "., --.--.",
      "-,, /",
      "-,, --,-",
      "-,, .--,-",
      "----, )",
      "----, -,",
      "--.-+ ,",
      "(-- -+-",
      "-., +----",
      "-., .--,",
      "---/ -*",
      "/, --.--,",
      "----. .----",
      "-.. /--",
      "--.---- --.----",
      "/. --.-.",
      ",, --.-",
      ",, --.-,",
      ",, --+-",
      ",. .----",
      "*---- +",
      "-& --",
      "--,---- --",
      "--,---- -/",
      "+, --+-,",
      "+, --+-+",
      "---,---- ,",
      "---+ -/",
      "--+-/ )",
      "// --.-.",
      "// --/-",
      "// --.-+",
      "// --/-,",
      "++ --,-,",
      "-+---- /",
      ",,---- -.----",
      "/+ --/-",
      ".+ --,-.",
      ".+ --/-,",
      ",---. -.,",
      ",/ --,-,",
      ".,---- -",
      "/---. -,",
      ",.---- ,",
      "--& -)",
      ".---, -/",
      "./ --.-.",
      "/* --.-",
      "*+ --,-.",
      "-/, ,--,",
      "-.----, -.----",
      "-.----, -,----",
      "-.-, --.-,",
      "ĀĀ*Ā )",
      "-,/ .----",
      ".----. -",
      ".----. -,----",
      "ĀĀ/Ā )",
      ",--) -.",
      ",----, -,----",
      "--,-) .",
      "+---+ -",
      "/---/ -",
      "-.-. --",
      "--., --.-/",
      "*--* -.",
      "+--) -.",
      "-----. -",
      "-,-------- ---",
      "-+. .--",
      "/--( -/",
      ",--' -/",
      "! (",
      "# $",
      "# %",
      "# *",
      "# -+",
      "# --,-",
      "$ %",
      "% %",
      "& %",
      "& /--",
      "' !",
      "' $",
      "' --/-",
      "' --'",
      "( %",
      "( --.-,",
      "( ---,",
      ") .--",
      ") *--",
      ") .--,",
      ") --.-.",
      ") --,-/",
      ") --+-/",
      ") --*-",
      ") .--*",
      ") /--)",
      "* --.-*",
      "* --.-(",
      "+ (--",
      "+ --,--,",
      "+ $--",
      "+ .--,-+",
      ", --+-/",
      ", --.--,",
      ", )----",
      ", --.--",
      ", --/-)",
      ", ,--,-/",
      "- <",
      "- ?",
      ". '--",
      ". .--,-/",
      ". --/--",
      ". --+--",
      "/ --.-)",
      "/ --,--",
      "4 8",
      "5 9",
      "6 8",
      "8 7",
      ": ĀĀ.Ā",
      "-- :",
      "-- -(",
      "-- \"-",
      "---- +,",
      "---- /+",
      "---- *.",
      "-. --+",
      "-. --.--.",
      "-. -+----",
      "-. --.--,",
      "-. ,---.",
      "-. --,--.",
      "-. .---",
      "-, %",
      "-, .--,",
      "-, ---.",
      "-, --/-+",
      "-, .---/",
      "--. ----.",
      "--, .",
      "--, /----",
      "-/ --.-/",
      "-/ --.-+",
      "-/ --,-,",
      "-/ --,-/",
      "-/ ,.",
      "-/ .---,",
      "-+ .,",
      "-+ --,-+",
      "-+ +.",
      "-+ +---,",
      "-+ --.--,",
      "-+ ,---.",
      "-+ +/",
      "-+ *+",
      "--/ /",
      "--/ --)",
      "--+ ---/",
      "ĀĀ ĞĀ",
      "ĀĀ ?Ā",
      "-* $",
      "-* --,-",
      "-* --,-.",
      "-* ,.",
      ",-- -,----",
      ",-- #-",
      ",---- (",
      ",---- ---.",
      ".---- *",
      ".---- -.",
      ".---- --,",
      ".---- -,.----",
      ".-- !",
      "+-- -(",
      "-.---- ---.----",
      "-.---- -..----",
      "-) #",
      "-) --,-",
      "-,---- .--,",
      "-,---- --.----",
      "/-- %-",
      "*-- -.-",
      "--.- #",
      "--* --+",
      "--* -/,",
      "--* -/+",
      ".--, --,",
      ".--, -.,",
      "--.-, ,",
      "--.-, ..----",
      "/---- .,",
      "--.-. +---,",
      "---. --.-.",
      "---. -(",
      "-( -+",
      "-------- .",
      ",--, --+",
      "---, -.",
      "--- $",
      "--- $-",
      ".. --/-*",
      ".. --.--+",
      ")-- -+",
      ")-- -)-",
      "., +",
      "-,, ,--,",
      "--.-/ /",
      "--.-/ -,----",
      "----, /",
      "(-- -)",
      "(-- -*-",
      "--,-, .----",
      "/, ,--,",
      "/, --/-+",
      "----. -+----",
      "-.. .--",
      ",---, -,",
      "-' -",
      "-' .",
      "/. --.-/",
      "/. --.-+",
      ",, /",
      ",. --.-.",
      "--+-. /",
      "--/-, +",
      "-& /",
      "--,-+ .",
      "+, --.-/",
      "---,---- .",
      "--/-. /",
      "--+-, /",
      "--+-, -.",
      "+. --+-",
      "--.--. ,----",
      "--+-+ *",
      "--+-+ -",
      "--' -/",
      "--' -+",
      "++ --+-+",
      ",,---- ,",
      "/+ --/-+",
      "+---, -,",
      ".+ --/-+",
      ",+ --,-",
      ",+ --.-",
      ",+ --,-+",
      ",/ --+-",
      ",/ --,-.",
      ",/ --,-/",
      ".,---- /",
      ".,---- ,,",
      "--& -.",
      ")---- +",
      "+/ --,-",
      "--,-* +",
      ",--* -.",
      ",--* -+",
      ".---, -+",
      ",* --.-/",
      ",* --,-/",
      "./ --.-+",
      ".--* -,",
      ".* --.-,",
      "ĀĀ.Ā (",
      "-/, .--,",
      "-.-, --",
      "*/ --,-",
      "-,----, -",
      "-,----, -/",
      "-,----, -,----",
      "--.--/ ---.",
      "ĀĀ*Ā +",
      "-,/ /--",
      "--.-------- .",
      "ĀĀ)Ā +",
      "ĀĀ)Ā ,",
      "+---+ -.",
      "-.-. --,-.",
      "--.-( .",
      "*--* -/",
      "./---- ,",
      "--,-- -)",
      "--.. --.-",
      "-+-. --",
      "-+-. --.-/",
      "(/ --,-",
      "(/ --+-",
      "-,-. --",
      ".+---- /",
      "--.---.---- ,",
      "-,+---- -",
      "------------ --",
      "+----, -",
      "ĀĀğ Ā",
      "! .",
      "! Ā",
      "! --)-",
      "\" ,",
      "\" +--",
      "# /",
      "# Ā",
      "$ :",
      "$ -/",
      "$ *--",
      "% -+",
      "% +--",
      "& .--",
      "& +--",
      "& .--*-",
      "' ,--",
      "' .--",
      "' --,-",
      "' --)",
      "' *--)",
      "( :",
      "( --/-",
      "( --.-/",
      "( --,-,",
      "( --/-*",
      "( +--*",
      ") --*",
      ") --,-.",
      ") ----.",
      ") --/-+",
      ") /--*",
      "* $",
      "* --,-,",
      "* *----",
      "* --,--,",
      "+ --/",
      "+ --.--.",
      "+ --.--,",
      "+ --.-)",
      "+ ĀĀ,Ā",
      "+ %--",
      "+ (----",
      "+ .--,-/",
      "+ /--*",
      "+ ,--,-,",
      "+ --/--",
      ", '--",
      ", ,--*",
      ", --+--",
      ", --.---,",
      ", ,--*-",
      ", --.--.----",
      "- =",
      "- ĝ",
      ". !",
      ". --/",
      ". ĀĀ,Ā",
      ". ,--,-,",
      "/ $",
      "/ .--,-/",
      "/ -ĀĀ",
      "3 9",
      "6 9",
      "7 7",
      "8 5",
      "9 2",
      "9 6",
      "9 7",
      ": --",
      "; -,",
      "< ĀĀ(Ā",
      "Ā //",
      "Ā .*",
      "Ā .)",
      "Ā ,)",
      "Ā ),",
      "Ě -",
      "Ĝ --",
      "ĝ --",
      "ğ (",
      "Ġ \"",
      "Ġ &",
      "-- ĝ",
      "-- :-",
      "---- --*",
      "---- --.-,",
      "---- -,,",
      "---- /.",
      "---- //",
      "---- /*",
      "-. #",
      "-. --.----",
      "-. --+-.",
      "-. --*-",
      "-. --,-*",
      "-. -.----.",
      "-. ,---+",
      "-. /---/",
      "-. /---",
      "-. --,-,,",
      "-. --,--",
      "-. .,--.-.",
      "-, $",
      "-, --,",
      "-, -(",
      "-, /.",
      "-, +---,",
      "-, --,-*",
      "-, --,--.",
      "-, *---,",
      "--. /--",
      "--. +----",
      "--, --(",
      "--, -.----.",
      "-/ $",
      "-/ ,----",
      "-/ /--",
      "-/ /----",
      "-/ --*-",
      "-/ -,--",
      "-+ ---,",
      "-+ --.-+",
      "-+ --,-/",
      "-+ //",
      "-+ --,-*",
      "-+ /*",
      "-+ *,",
      "--/ ,--",
      "--/ .--",
      "--/ -,----",
      "--/ -,----,",
      "--/ ,--.-",
      "--+ ,----",
      "--+ .----",
      "--+ ----,",
      "--+ ,--,-,",
      "ĀĀ @",
      "ĀĀ ė",
      "ĀĀ ě",
      "ĀĀ >Ā",
      "-* ---,",
      "-* ,,",
      "-* --/-/",
      "-* ,.----",
      "-* .---",
      "-* -,--",
      ",-- $",
      ",-- -/-,",
      ",-- -*-/",
      ",---- -*",
      ",---- -)",
      ".---- --.----",
      ".---- ---.----",
      ".---- -+----",
      "+-- \"",
      "-.---- ----,",
      "-.---- ---/",
      "-.---- /.",
      "-.---- -,,----",
      "-.---- --.------",
      "-) -.--",
      "-,---- .----",
      "-,---- ..",
      "-,---- --,----",
      "-,---- +.",
      "/-- -*",
      "/-- &-",
      "--,- $",
      "--,- &",
      "*-- &-",
      "*-- -)-",
      "+---- -+",
      "+---- .,",
      "+---- /.",
      "+---- ,.",
      "--* ----",
      "--* -))",
      ".--, -..",
      "/---- --",
      "/---- --*",
      "--.-. ,",
      "--.-. ,----",
      "--.-. ,,----",
      "---. -.,",
      "-------- -.",
      ",--, -*",
      ",--, ---,----",
      ".. --+-.",
      ".. --.--------",
      "--+- %",
      ")-- \"",
      ")-- '",
      ")-- -*",
      "., --+-,",
      "., --/-/",
      "., --.--,",
      "--,-. +,----",
      "-,, +----",
      "--) -,,",
      "--) -%",
      "--.-+ )",
      "--.-+ *",
      "--.-+ -",
      "(-- -*",
      "(-- '-",
      "--,-, -",
      "--,-, ,----",
      "--,-, -.----",
      "--,-, ,---,",
      "---/ ----,",
      "---/ -,.",
      ".---. -.",
      ".---. -,.",
      "/, ,----",
      "/, --.-*",
      "----. -,",
      "----. -+",
      "----. -,----",
      "-.. +",
      "-.. ,--",
      "-.. --.-",
      "-.. /----",
      "--.---- --,-",
      ",---, ---.",
      "-' ,",
      "/. --/-/",
      "-,. .--",
      "-,. /--",
      "-,. .--,",
      "-,. ,----.",
      ",, --+-,",
      ",, --+-*",
      ",. ,----",
      ",. --+-.",
      "*---- .,",
      "*---- ++",
      "-& ,",
      "--,-+ (",
      "+, --/-",
      "+, --+-*",
      "---,---- ----",
      "---,---- --.----",
      "--+-/ *",
      "--+-/ ,",
      "--+-, )",
      "+. --.-,",
      "--.--. .",
      "--.--. ---/",
      "--+-+ ,",
      "// --.-/",
      "// --,-+",
      "++ --.-",
      "++ --,-+",
      "-+---- -+",
      "/+ --.-.",
      "--.--, ---,",
      "'-- -(",
      ".+ --.-",
      ".+ --/-",
      ".+ --.-/",
      ".+ --.-*",
      ",+ --+-",
      "-/---- --/",
      "..---- *",
      "..---- ,",
      ",/ --.-",
      ",.---- +",
      "+/ --+-",
      ",* --+-",
      "&-- %-",
      "-..---- --.----",
      "--,--. .----",
      "--,--. ,--,",
      ".* --.-",
      ".* ----.",
      ".* --/-+",
      "-% (",
      "--.-) /",
      "--,--, ,----",
      "--,--, ,--,",
      "*+ --+-",
      "ĀĀ,Ā ,",
      "-,----. -,",
      "-,----. -,----",
      ".--,-, -.",
      ".--,-, ,---,",
      "-./ ,--",
      "-./ .--",
      "ĀĀ+Ā )",
      "%-- %",
      "*/ --+-.",
      "*/ --,-+",
      "-,/ +--",
      "-,+ --,-.",
      "*, --+-/",
      ".----. -.",
      ".----. -,",
      "*. --.-",
      "*. --+-",
      "12 2",
      "ĀĀ)Ā .",
      "+--* -/",
      "ĀĀ(Ā (",
      "--+-) +",
      ")+ --,-",
      "----+ -",
      ",) ----,",
      "-.-. --,-",
      "-++ ,----",
      "--., --.-",
      "--,-,, .----",
      "--/-( ,",
      "/.---- /",
      "-+* .----",
      "+.---- -",
      "-----. /----",
      "(/ --,-,",
      "23 1",
      "), --+-",
      "(. --+-",
      "\"-- $-",
      ".-------- ---,",
      "--,-.---- --",
      ",-------- ---.",
      ",---/ -",
      "--< -",
      "! %",
      "! '",
      "! *--",
      "! )--",
      "\" %",
      "\" (",
      "\" /",
      "\" .--",
      "# #",
      "# )",
      "# --)",
      "$ ----",
      "$ -.",
      "$ --)",
      "$ (--",
      "$ -'",
      "% +",
      "% -*",
      "% -)",
      "% -,,",
      "% /--(-",
      "& !",
      "& ğ",
      "& ---",
      "& --)-",
      "& ,--'",
      "' /",
      "' :",
      "' ĀĀ",
      "' /--",
      "' --.-",
      "' ---,",
      "' --+-",
      "' ---+",
      "' ĀĀ/Ā",
      "' +--*",
      "( --/-+",
      "( '--",
      "( --.-*",
      "( --*-",
      "( ĀĀ-Ā",
      "( ---,-",
      "( +--'",
      ") --/-,",
      ") --/-.",
      ") --+-,",
      ") --/-*",
      ") .--)",
      ") ,--*-",
      "* --/-,",
      "* --+-/",
      "* --.--.",
      "* ,--*",
      "* --.-)",
      "* .--,-,",
      "* ĀĀ-Ā",
      "* .--,-/",
      "* *--*",
      "* .--,-.",
      "* /--)",
      "* .--(",
      "* /--(",
      "+ ğ",
      "+ -,----",
      "+ +--*",
      "+ --.-(",
      "+ .--,-.",
      "+ ,--,-.",
      "+ --,-(",
      ", \"",
      ", -,",
      ", --.--------",
      ", --.--+",
      ", --+-)",
      ", ĀĀ&Ā",
      ", .--,-+",
      ", #--",
      ", --.-,----",
      ", /----.",
      ", --.---,----",
      ", --/--/",
      "- >",
      "- @",
      "- ĀĀ+Ā",
      ". ĀĀ.Ā",
      ". ĀĀ+Ā",
      ". ĀĀ-Ā",
      ". --/-)",
      ". --/-(",
      ". --/--,",
      ". .--,-+",
      ". --/-,,",
      "/ %",
      "/ --/",
      "/ --.--.",
      "/ --,--.",
      "/ ĀĀ,Ā",
      "/ ĀĀ*Ā",
      "/ ,----,",
      "/ ,--,-/",
      "/ --/-..",
      "/ --+-.,",
      "0 10",
      "1 9",
      "2 8",
      "2 00",
      "2 01",
      "3 21",
      "8 4",
      "8 6",
      "8 9",
      "9 8",
      ": .--",
      ": /--",
      ": ---",
      "; /--",
      "< Ā",
      "< ĀĀ",
      "> -",
      "@ -",
      "Ā #",
      "Ā <",
      "Ā /,",
      "Ā +/",
      "ĕ Ā",
      "ė -",
      "Ę Ā",
      "Ě --",
      "Ğ (--",
      "Ġ +",
      "Ġ 0",
      "Ġ 1",
      "Ġ 5",
      "Ġ -/",
      "Ġ ĀĀ",
      "-- =",
      "-- *---",
      "---- '",
      "---- ,----",
      "---- ---+",
      "---- ++",
      "---- -.-.",
      "-. .--",
      "-. --/-,",
      "-. +/",
      "-. -*----",
      "-. .---+",
      "-. ,---.-",
      "-, *----",
      "-, --+-+",
      "-, /+",
      "-, --.-*",
      "-, &--",
      "-, */",
      "-, .---",
      "-, -,--",
      "-, --,---,----",
      "-, .---,-",
      "--. +",
      "--. *--",
      "--. -,----,",
      "--, /--,-.",
      "-/ +----",
      "-/ /,",
      "-/ --+-.",
      "-/ --+-,",
      "-/ /.--",
      "-+ $",
      "-+ %",
      "-+ --/-",
      "-+ --,-,",
      "-+ --(",
      "-+ --+-+",
      "-+ /.--",
      "--/ .",
      "--/ +--",
      "--/ .--,",
      "--/ ----,",
      "--/ -,----.",
      "--+ +",
      "--+ .--,",
      "--+ --.-,",
      "--+ -,----.",
      "--+ --,,----",
      "--+ --.,----",
      "-* --+-",
      "-* --/-",
      "-* --,-/",
      "-* --+-,",
      "-* &--",
      "-* --(-",
      "-* --,-,,",
      ",-- -(",
      ",-- -'",
      ",-- -&",
      ",-- -+----",
      ",-- %-",
      ",---- )",
      ",---- --/",
      ",---- ,----",
      ",---- .,",
      ",---- ---,----",
      ",---- ---.----",
      ",---- -----.",
      ",---- -,+----",
      ".---- &",
      ".---- ---,",
      ".---- .,",
      ".---- -/----",
      ".---- -..----",
      ".-- \"",
      ".-- *--",
      ".-- %-",
      ".-- -*-",
      "+-- $",
      "+-- ;",
      "+-- -$",
      "+-- &-",
      "+-- -.-/",
      "-.---- -.",
      "-.---- .----",
      "-.---- ,--,",
      "-.---- --.----",
      "-.---- ---+",
      "-) $",
      "-) ----,",
      "-) ,,----",
      "-,---- -.",
      "-,---- ---,",
      "-,---- .,",
      "-,---- --,-,",
      "-,---- -,,----",
      "-,---- --..----",
      "*-- *--",
      "*-- (-",
      "*-- '-",
      "*-- -*-/",
      "+---- -)",
      "+---- ,,",
      "+---- .+",
      "+---- -,,----",
      "--* -,/",
      ".--, --.----",
      ".--, --,----",
      ".--, -..----",
      "--.-, -",
      "--.-, -/",
      "--.-, ,---,",
      "--.-, ,,----",
      "/---- --,",
      "/---- --------",
      "/---- /,",
      "/---- /.",
      "/---- ,.",
      "--.-. )",
      "--.-. .----",
      "---. --",
      "---. --.",
      "---. --,",
      "---. ---.",
      "---. --.---,",
      "---. -,-,----",
      "-( $",
      "-( '",
      "-( --,-",
      "-( ----,",
      ",--, -.+",
      "---, -/",
      "---, -*",
      "---, --/---.",
      "--- \"",
      "--- %-",
      "--- &-",
      ".. --/",
      ".. --.--/",
      ")-- ğ",
      ")-- -(",
      ")-- -+-.",
      "--/- #",
      "., --.-/",
      "., --+-.",
      "., --/-,",
      "--,-. -.----",
      "--,-. -,----",
      "--,-. ,---,",
      "--,-. ,.----",
      "--,-. ,+----",
      "-,, ,--.-.",
      "--.-/ ----,",
      "----, -+",
      "----, .---.",
      "--.-+ .",
      "--.-+ /---/",
      "(-- &",
      "-., ,--",
      "-., *--",
      "---/ -)",
      ".---. -/",
      ".---. --.----",
      ".---. --,----",
      ".---. ---,----",
      ".---. --.---.",
      "/, --/-..",
      "----. /",
      "----. .-----",
      "-.. *",
      "-.. +--",
      "-.. +----",
      "-.. --.-.",
      "-' '",
      "-' *",
      "/. --+-",
      "/. --/-*",
      "-,. (",
      "-,. +--",
      "-,. --,-",
      "-,. +----",
      "-,. .----,",
      "--,-/ -+----",
      ",, --/-,",
      ",, --+-/",
      ",, --+-+",
      ",. --.-,",
      ",. --/-",
      ",. --+-,.",
      "*---- (",
      "*---- *",
      "*---- ..",
      "--+-. %",
      "--+-. -",
      "--/-, /",
      "-& )",
      "--,---- --/",
      "--,-+ ,",
      "--,-+ /",
      "+, ,----",
      "+, --.-,",
      "+, /----",
      "---+ -.",
      "---+ ----,",
      "--/-. .---.",
      "--/-. .---/",
      "*- ĀĀ",
      "--+-, -",
      "+. --.-",
      "+. --+-/",
      "---.---- ----------------",
      "--+-+ /",
      "--' -.",
      "--' -*",
      "--' -+,",
      "// --,-",
      "// --+-",
      "++ --+-",
      "-+---- )",
      "-+---- --.",
      "-+---- --,----",
      "/+ --+-",
      "/+ --.-+",
      "/+ --.-*",
      "+---, --",
      "+---, -.",
      "--.--, ---+",
      "'-- &",
      "'-- -*-",
      ".+ --,-",
      "--.-* +",
      "--.-* ,",
      "--.-* -",
      ",---. -/",
      ",/ --,-",
      ",/ --.-,",
      ",/ --/-.",
      ".,---- +",
      "/---. -)",
      "--& --",
      "--& -/",
      "--& -'",
      "--& -&",
      "--& -%",
      "+/ --+",
      "+/ ĀĀ",
      "+/ --.-",
      "--,-* *",
      "--,-* -",
      ".---, -.",
      "./ ,----",
      "./ .----",
      "./ --+-",
      "./ --/-,",
      "-..---- -..----",
      ".--* --,",
      ".--* -*",
      "--,--. ---/",
      ".* --,-",
      ".* --.-.",
      ".* --,-+",
      ".* --/-/",
      "-,,---- -..----",
      "02 1",
      "/* --,-",
      "/* --.-,",
      "/* --.-.",
      "/* --.-/",
      "--+-* ,",
      "--+-* .",
      "ĀĀ.Ā '",
      "ĀĀ.Ā )",
      "ĀĀ.Ā *",
      "ĀĀ.Ā +",
      "-.+ *",
      "-% *",
      "--,--, ---,----",
      "--,--, ,--,-",
      "*+ ĀĀ",
      "*+ --,-/",
      "*+ --+-/",
      "ĀĀ,Ā ğ",
      "+* --,-",
      "+* --.-",
      "+* --.-/",
      "+* --+-+",
      "-./ +--",
      "-/, ,--",
      "-/, .--",
      "-/, +--",
      "-/, ,--)",
      "ĀĀ+Ā '",
      "ĀĀ+Ā (",
      "ĀĀ+Ā ,",
      "ĀĀ+Ā /",
      "%-- #",
      "*/ --+-",
      "*/ --,-/",
      "--.--/ .",
      "--.--/ ---/",
      "ĀĀ*Ā (",
      "-,/ .--",
      "-,+ ,----",
      "*, --+-.",
      "-/. ,--",
      "-/. +--",
      "----/ -+",
      "-.,---- ,",
      "-.,---- --------",
      "-,.---- -+",
      "ĀĀ)Ā /",
      ",----. -",
      "$-- #",
      "*---, -*",
      "--+-) *",
      "----+ -/",
      "/---/ --",
      ",) --,-,",
      "-++ .--",
      "-----, -",
      "--.-( ,",
      "--., --.-.",
      ".--) -*",
      "*--* -,",
      "*--* -)",
      "--,-------- --------",
      "--,-------- ---",
      "/) --.-,",
      "--,-- -*",
      "--.. --/-",
      ".--,-. ,---,",
      ".--,-. +---,",
      "-,-- -*",
      "+--) -+",
      "+--) -.*",
      "ĀĀ%Ā '",
      "). --.-",
      "). --+-.",
      "--.-.---- --",
      "--.-.---- --,",
      "--.-.---- ,--,",
      "-,-. --.-",
      ".+---- .",
      "Ā+ -",
      "--/---- --,-",
      ")* --,-",
      ")* --+-",
      "(. --+-+",
      "-,-, --.-",
      "-,-, --.-.",
      ".--( -+",
      "--,--/ .",
      "*---+ --",
      "** --,-",
      "--% -)",
      "--,---+ -",
      "--.-' '",
      "(+ --+-",
      "Ā* $",
      "------------ ---",
      "/ĀĀ ĞĀ",
      "-,.. --/-+",
      "//---- -",
      "-.,---, -+",
      "---' -.",
      "+--' -/",
      "--/---/ ----,",
      ".--& -/",
      "-.----/ -",
      ",----,, .----",
      "-,------------ -",
      "-,-------.---- -",
      "--? -",
      "! $",
      "! &",
      "! )",
      "! --.-.",
      "! --*-",
      "\" #",
      "\" )",
      "\" +",
      "\" .",
      "\" ---",
      "\" )--",
      "# \"",
      "# (",
      "# +",
      "# Ğ",
      "# -,",
      "# -*",
      "# +--",
      "# -)",
      "# ,--(",
      "$ !",
      "$ '",
      "$ +",
      "$ -,",
      "$ -)",
      "$ -&",
      "$ --)-",
      "$ --'-",
      "$ .--&",
      "% !",
      "% \"",
      "% $",
      "% --,-",
      "% *--",
      "% --.-.",
      "% --(",
      "% %--",
      "% --)-",
      "% ----/",
      "% ,(",
      "% +--(",
      "% ,--+-",
      "& Ğ",
      "& ,--",
      "& ,----",
      "& )--",
      "& --(",
      "& '--",
      "& --*-",
      "& ,--(",
      "& /--(-",
      "& --/-%",
      "' Ě",
      "' ğ",
      "' --.-,",
      "' --.-.",
      "' (--",
      "' --/-/",
      "' --+-+",
      "' '--",
      "' .--,-",
      "' --'-",
      "' /--)",
      "' .--(",
      "' .--*-",
      "' .--)-",
      "' +--)-",
      "( #",
      "( $",
      "( &",
      "( Ğ",
      "( -.",
      "( /--",
      "( --.-.",
      "( )--",
      "( --,-.",
      "( --,-*",
      "( &--",
      "( ,--)",
      "( .--,-",
      "( --,-)",
      "( ,--,-",
      "( /--*-",
      "( --.-.+",
      ") \"",
      ") Ğ",
      ") .----",
      ") +----",
      ") /----",
      ") '--",
      ") ,--*",
      ") --+-)",
      ") *--*",
      ") --/--",
      ") ---,-",
      ") ,--,-/",
      ") /--*-",
      "* :",
      "* -.----",
      "* /--",
      "* --+-,",
      "* )----",
      "* --.--",
      "* ĀĀ)Ā",
      "* +--*",
      "* (----",
      "* --,-)",
      "* --/--",
      "* --/-(",
      "* --/--,",
      "* ,--,-/",
      "* +--(",
      "* ,--)-",
      "* .--)-",
      "+ \"",
      "+ '--",
      "+ --,--.",
      "+ .--,-,",
      "+ ,----,",
      "+ ,----.",
      "+ .----,",
      "+ --.---,",
      "+ ,--*-",
      "+ +--*-",
      "+ /--(",
      "+ ,--(-",
      "+ *--*-",
      ", %",
      ", Ğ",
      ", (--",
      ", &--",
      ", --+-*",
      ", ĀĀ+Ā",
      ", ,--)",
      ", +--*",
      ", /--*",
      ", --.-(",
      ", --/-(",
      ", +--)",
      ", ĀĀ%Ā",
      ", --/-.,",
      ", --+----",
      ", --+-,,",
      ", --+--.",
      ", &ĀĀ",
      "- ě",
      "- ĀĀ*Ā",
      ". ğ",
      ". --+-*",
      ". .--,-,",
      ". *--*",
      ". --/-.,",
      ". --.-'",
      ". '----",
      ". --.--*",
      ". *--*-",
      "/ \"",
      "/ --/-/",
      "/ --+-+",
      "/ '--",
      "/ &--",
      "/ --+-*",
      "/ .--,-,",
      "/ %--",
      "/ ĀĀ-Ā",
      "/ .----.",
      "/ +--*",
      "/ --,-)",
      "/ --/--",
      "/ ĀĀ'Ā",
      "/ --+--,",
      "/ --/-.,",
      "/ #--",
      "/ --,--/",
      "/ '----",
      "/ --/-,.",
      "0 40",
      "1 20",
      "1 21",
      "2 30",
      "3 00",
      "4 10",
      "5 7",
      "9 5",
      "9 9",
      ": *",
      ": *--",
      ": -&",
      "; *",
      "; ĀĀ.Ā",
      "; ĀĀ'Ā",
      "< .",
      "< --",
      "< ĀĀ.Ā",
      "> ĀĀ",
      "> -&",
      "? (--",
      "Ā :",
      "Ā Ğ",
      "Ā -/",
      "Ā ,,",
      "Ā ./",
      "Ā *)",
      "Ā /)",
      "Ā ).",
      "Ā '+",
      "Ĕ Ā",
      "ė Ā",
      "ę Ā",
      "Ě ğ",
      "ĝ $",
      "ĝ Ā",
      "Ğ #",
      "Ğ +",
      "ğ *",
      "Ġ *",
      "Ġ --.",
      "Ġ --(-",
      "-- Ė",
      "-- ě",
      "-- -)",
      "-- *---,",
      "-- -)-",
      "-- -(-",
      "-- ě-",
      "---- --+",
      "---- .----",
      "---- --,-",
      "---- .--,",
      "---- --)",
      "---- ---/",
      "---- --/-.",
      "---- --,--.",
      "---- -.+",
      "---- *+",
      "---- +*",
      "---- -,/",
      "---- *,",
      "---- -/+",
      "---- ).",
      "---- ),",
      "---- --.-,----",
      "---- .------",
      "---- -,+--,-.",
      "-. $",
      "-. --*",
      "-. .--,",
      "-. ---,",
      "-. ---",
      "-. --)",
      "-. --,----",
      "-. --/-+",
      "-. --+-+",
      "-. --.-)",
      "-. */",
      "-. .---.-",
      "-. --,--------",
      "-. --+--,",
      "-. --+----",
      "-. ,---,-",
      "-. '+",
      "-. ()",
      "-. --*-*",
      "-. +---*",
      "-. +---.",
      "-, -)",
      "-, --)",
      "-, --+-.",
      "-, --/-,",
      "-, --,----",
      "-, --/-.",
      "-, --.--.",
      "-, --/-*",
      "-, *,",
      "-, --.--",
      "-, +---+",
      "-, --*-/",
      "-, .,--.-.",
      "-, -/----,",
      "-, ,---",
      "-, +---,-",
      "-, ((",
      "--. ,--",
      "--. --,-",
      "--. --'",
      "--. ,----,",
      "--. --,-----",
      "--. -,----.-",
      "--. ---+----",
      "--, +--",
      "--, --.-",
      "--, --.-,",
      "--, --,-,",
      "--, --.--,",
      "--, ,--,-,",
      "--, ,--,-",
      "--, .--.-.",
      "--, +--,-",
      "--, ---/----",
      "--, -,----,-",
      "-/ #",
      "-/ ---.",
      "-/ ..",
      "-/ --/-",
      "-/ ,---,",
      "-/ --/-+",
      "-/ --+-+",
      "-/ .+",
      "-/ -/----",
      "-/ ,---.",
      "-/ ..----",
      "-/ ,.----",
      "-/ --,-*",
      "-/ --,--.",
      "-/ /*",
      "-/ --+-*",
      "-/ +---+",
      "-/ .---",
      "-/ /+----",
      "-/ --&-",
      "-/ -)--",
      "-+ \"",
      "-+ ĀĀ",
      "-+ /----",
      "-+ --------",
      "-+ ,--,",
      "-+ --+-",
      "-+ --)",
      "-+ *----",
      "-+ --/-+",
      "-+ ,+",
      "-+ --*-",
      "-+ ,.----",
      "-+ --,--,",
      "-+ --.--------",
      "-+ ./----",
      "-+ ---,-",
      "-+ /---,",
      "-+ ,-----",
      "-+ +---*",
      "--/ /--",
      "--/ *--",
      "--/ +----",
      "--/ /----",
      "--/ --,----",
      "--/ --'",
      "--/ --.---.",
      "--/ -----,",
      "--/ --,,----",
      "--/ ,--.-,",
      "--/ .--/-,",
      "--/ ,--/-+",
      "--+ +--",
      "--+ )--",
      "--+ --(",
      "--+ --&",
      "--+ --.---.",
      "--+ .--,-,",
      "--+ -,----,",
      "--+ .--,-",
      "--+ -----,",
      "--+ --+--",
      "--+ --..",
      "--+ --..----",
      "ĀĀ Ė",
      "ĀĀ @Ā",
      "-* #",
      "-* +--",
      "-* -.----",
      "-* -)",
      "-* --*",
      "-* ..",
      "-* --.-/",
      "-* --,-,",
      "-* --+-/",
      "-* ,,----",
      "-* --.-*",
      "-* --*-",
      "-* ./",
      "-* ----/",
      "-* /.--",
      "-* ----+",
      "-* +,----",
      "-* *---+",
      "-* -.--.-/",
      ",-- \"",
      ",-- *----",
      ",-- $-",
      ",-- -)-/",
      ",---- --*",
      ",---- .--,",
      ",---- -,,",
      ",---- -.,",
      ",---- /,",
      ",---- -..",
      ",---- +,",
      ",---- -+----",
      ",---- .,----",
      ",---- ,*",
      ",---- --,,----",
      ",---- --,-,----",
      ",---- .,,--,",
      ".---- -*",
      ".---- ,.",
      ".---- -.,----",
      ".---- --.,",
      ".---- .,,----",
      ".-- $",
      ".-- -)",
      ".-- -,----",
      ".-- $-",
      ".-- &-",
      "+-- :",
      "+-- -,----",
      "+-- #-",
      "+-- -*-/",
      "+-- -(-",
      "-.---- ,----",
      "-.---- /----",
      "-.---- ---.",
      "-.---- ---,",
      "-.---- .,",
      "-.---- ---,----",
      "-.---- --..----",
      "-.---- --,.----",
      "-.---- .,,----",
      "-.---- --,------------",
      "-) --.-/",
      "-) --)",
      "-) --,-,",
      "-) /---",
      "-,---- --/",
      "-,---- ,----",
      "-,---- .,----",
      "-,---- .*",
      "-,---- --.--------",
      "-,---- --.,----",
      "/-- ;",
      "/-- -(",
      "/-- #-",
      "/-- -,-.",
      "/-- -*-,",
      "*-- -'",
      "*-- -&",
      "*-- :-",
      "+---- )",
      "+---- --",
      "+---- --,",
      "+---- ..",
      "+---- +.",
      "+---- ++",
      "+---- ,+",
      "+---- *.",
      "+---- --..----",
      "--* --------",
      "--* -,,",
      "--* -.+",
      "--* -+*",
      "--* -,)",
      ".--, --------",
      ".--, --.,----",
      "--.-, /,",
      "/---- (",
      "/---- --.",
      "/---- -..",
      "/---- +,",
      "/---- .+",
      "--.-. *",
      "--.-. (--",
      "--.-. .+",
      "--.-. ,---.",
      "--.-. ..----",
      "--.-. /---/",
      "--.-. ,.--,-,",
      "---. --.-/",
      "---. --.-+",
      "---. -,----,",
      "---. -/+",
      "-( &",
      "-( +.----",
      "-( /+--",
      "-( .,--.-",
      "-------- +",
      "-------- ,.----",
      "-------- -----",
      "-------- -,-",
      "-------- .------------",
      ",--, -)",
      ",--, -.,",
      ",--, -+-.",
      "---, --.",
      "---, -+",
      "---, --.-",
      "---, -(",
      "---, --,-.",
      "---, --,-,",
      "---, --+-.",
      ".. +",
      ".. --/-,",
      ".. --/-/",
      ".. ,--.-",
      ".. --/-..",
      ".. --+-.,",
      ".. ,--.--.",
      "--+- <",
      ")-- ;",
      ")-- (-",
      ")-- -*-",
      ")-- !-",
      "., /",
      "., --/-.",
      "., --.--------",
      "., ,----,",
      "., --/-(",
      "., ,--.-.",
      "., --.-,----.",
      "--,-. -",
      "--,-. +---,",
      "--,-. .---,",
      "--,-. ./----",
      "-,, +",
      "-,, .",
      "-,, ,--*",
      "-,, .--,-,",
      "--.-/ '",
      "--.-/ ----",
      "--.-/ ,,----",
      "--) ---",
      "--) -.,",
      "--) -&",
      "--) -/+",
      "----, -)",
      "----, .*",
      "----, -.----,",
      "----, ,+----",
      "----, ,/--,-.",
      "(-- $",
      "(-- $-",
      "(-- &-",
      "(-- *--)",
      "(-- -)-/",
      "--,-, -.",
      "--,-, /.",
      "--,-, ++",
      "--,-, /.--",
      "--,-, ./----",
      "-., /",
      "-., .--",
      "-., /----",
      "-., *----",
      "-., .--------",
      "---/ --",
      "---/ -(",
      "---/ --------",
      "---/ ---,",
      "---/ --,-,",
      "---/ -'",
      "---/ -%",
      ".---. -..---.",
      "/, --.-.",
      "/, --/-,",
      "/, --/-.",
      "/, --.-)",
      "/, --/-)",
      "----. +",
      "----. -/",
      "----. -.,----",
      "-.. (--",
      "-.. .--*",
      "-.. .----.",
      "--.---- -,",
      "--.---- -/",
      "--.---- ---.----",
      "--.---- --,.----",
      ",---, --.---.",
      ",---, -,------",
      "-' &",
      "-' --",
      "-' -.",
      "/. $",
      "/. --/",
      "/. ĀĀ",
      "/. --.--.",
      "/. --.-*",
      "/. --.-,----",
      "-,. ,--",
      "-,. )--",
      "-,. +--*",
      "-,. /----.",
      "-,. ,----+",
      "--,-/ &",
      "--,-/ -",
      "--,-/ /",
      "--,-/ ----.",
      "--,-/ .+----",
      ",, /----",
      ",, ,--,",
      ",, --+-.",
      ",, --/-.",
      ",, ,----,",
      ",. --/-/",
      ",. --+-+",
      ",. --.-*",
      ",. --.-)",
      ",. .----.",
      ",. --+-(",
      ",. --+-,,",
      "--( --*",
      "--( -(",
      "--( -'",
      "--( -.+",
      "--( -%",
      "--( -/.",
      "*---- )",
      "*---- --",
      "*---- /.",
      "--+-. ++",
      "-& '",
      "-& ,,",
      "00 2",
      "--,---- -,",
      "--,---- -,,----",
      "--,---- --.------------",
      "--,-+ +",
      "--,-+ -",
      "--,-+ ,.----",
      "+, --.-",
      "+, --.-+",
      "+, --+-/",
      "+, --+--/",
      "---,---- +",
      "---,---- --------",
      "---,---- ---,----",
      "---+ --",
      "---+ --.-.",
      "---+ -$",
      "--/-. (",
      "--+-/ (",
      "--+-, +,----",
      "+. --.-/",
      "+. --.-+",
      "+. --/-.",
      "+. --+-,",
      "+. --+-,,",
      "+. --+--+",
      "--.--. ,--.-.",
      "---.---- --",
      "---.---- ----",
      "--+-+ +,",
      "--' -,",
      "--' --+",
      "--' -(",
      "--' -/,",
      "--' -.)",
      "// --/-.",
      "// --/-/",
      "// --/-*",
      "// --.---,",
      "++ ĀĀ",
      "++ .----",
      "++ --.-/",
      "++ --+-.",
      "++ --/-/",
      "++ --/-+",
      "-+---- --/",
      ",,---- ,,",
      ",,---- +,",
      "/+ --,-/",
      "/+ --/-.",
      "/+ --/--",
      "+---, -)",
      "--.--, /----",
      "'-- :",
      "'-- -*",
      "'-- &-",
      "10 1",
      "10 2",
      ",+ *",
      ",+ ,--,",
      ",+ --.-+",
      ",+ --+-*",
      "-/---- -",
      "-/---- --",
      "-/---- --.",
      ",---. --.",
      ",---. -)",
      ",---. -/,",
      "..---- +/",
      ",/ ĀĀ",
      ",/ /----",
      ",/ --/-",
      ",/ --+-/",
      ",/ --.--.",
      ",/ --/-*",
      ".,---- ,.",
      "/---. -(",
      ",.---- /",
      ",.---- ..",
      ",.---- ,.",
      ",.---- -,,----",
      "--& -,",
      "--& -*",
      "--& -(",
      "--& -()",
      ")---- -",
      "+/ --,-,",
      "+/ --,-/",
      "+/ --,-+",
      ",--* -,+----",
      ",--* -/.,",
      "--/-* +",
      "--/-* ,",
      "--/-* /",
      ".---, --",
      ",* --.-",
      ",* --,-.",
      ",* --,-,,",
      "&-- %",
      "./ --,-",
      "./ --,-.",
      "./ --,--.",
      ".--* -/",
      ".--* -,..",
      "--,--. *----",
      ".* --.-+",
      ".* --/-.",
      ".* --.-*",
      "-,,---- .",
      "-,,---- -,-.----",
      "/* --,-+",
      "--+-* +",
      "ĀĀ.Ā &",
      "ĀĀ.Ā /",
      "-.+ .--",
      "-.+ ,--,",
      "-.+ .--*",
      "-.+ ,--,-,",
      "'- ĀĀ'Ā",
      "-% -",
      "--.-) (",
      "--.-) +",
      "--.-) ,",
      "--,--, /----",
      "--,--, ---,-",
      "*+ --.-,",
      "*+ --,-+",
      "*+ --+-,",
      "ĀĀ,Ā '",
      "ĀĀ,Ā +",
      ".--,-, +---,",
      "+* ĀĀ",
      "+* --+-",
      "+* --,-.",
      "+* --,-/",
      "+* --,-+",
      "-./ /--",
      "-./ *--",
      "-.----, -+",
      "-.----. -.",
      "-.----. -.----",
      "-$ %",
      "-$ '",
      "-$ --",
      "-.-, --,-,",
      "-.-, --,----",
      "-.-, --,--,",
      "-.-, --,-,,",
      "*/ --.-",
      "*/ --+-/",
      ",---+ -+",
      "-+, /--",
      "-+, +----.",
      "ĀĀ-Ā $",
      "ĀĀ-Ā &",
      "ĀĀ-Ā '",
      "ĀĀ-Ā (",
      ".---/ -)",
      "--.--/ ,",
      "--.--/ .----",
      "--.--/ ,--,",
      "ĀĀ*Ā $",
      "ĀĀ*Ā %",
      "ĀĀ*Ā &",
      "ĀĀ*Ā ,",
      "ĀĀ*Ā /",
      "-,/ ,--",
      "-,/ *--",
      "-,+ ,--,",
      "-,+ .----,",
      "-,+ .--)",
      "--,---, -/",
      "--,---, -+",
      "--,---, --/",
      "--,---, --,-.",
      "*, --.-",
      "*, --.-+",
      ".----. -.----",
      "*. --.-.",
      "*. --.-+",
      "*. --/-,",
      "*. --+-/",
      "-/+ ,----",
      "-/. /--",
      "-/. .--,",
      "-/. ,--,",
      "-/. )----",
      "-.,---- -/",
      "-.,---- --,----",
      "-.,---- -..----",
      "ĀĀ/Ā (",
      "-,.---- -.",
      "-,.---- -,",
      "-,.---- -,----",
      "--.-- (--",
      ",--) -*",
      ",--) -(",
      ",--) -.*",
      "+--* -,",
      "+--* -.(",
      ",----, -",
      ",----, -.----",
      "--/-) ,",
      "--/-) .",
      "$-- -(",
      "$-- ğ-",
      "$-- ė-",
      "(---- -/",
      "30 3",
      "*---, -.",
      "*---, -+",
      "ĀĀ(Ā *",
      "ĀĀ(Ā ,",
      "--+-) )",
      "--+-) ,",
      "/--* -.",
      "/--* -*",
      "/.-- *-",
      ".----, -",
      ".----, -.--.-.",
      ")+ --+-",
      "----+ -+",
      ".) --.-",
      ".) --.-+",
      ".) --/-/",
      "-.* +--",
      "-.* )----",
      "-.* ,--)",
      "/---/ -/",
      ",) --.-",
      ",) --.-/",
      ",) --,-)",
      "-.-. --.-",
      "-.-. --.-/",
      "-.-. --,-/",
      "03 1",
      "--., --,-",
      ".--) -)",
      ".--) -(",
      "./---- -/.",
      "--,-,, ,--,",
      "*) --.-",
      "*) --,-,",
      ",+---- +",
      ",+---- +.",
      ",+---- -,---,",
      "/) --,-",
      "/) --/-.",
      "ĀĀ'Ā &",
      "ĀĀ'Ā *",
      "-,* .--(",
      "-/) ,--",
      "--/-( -",
      "--/-( /",
      "/.---- ,.",
      "--.. --.-,",
      "--.. --/-+",
      "--.. --.--.",
      "--.. --.--,",
      "). --+-",
      "). --+-/",
      "). --+-,",
      "+,---- -",
      "--+--, .--,",
      "ĀĀ&Ā )",
      "ĀĀ&Ā -",
      "/,---- +",
      "*--) -,",
      "*--) -+",
      "--..---- /,",
      "-*---- --+",
      ".--,-+ ,.----",
      ",--.- '",
      "Ā+ %",
      "Ā+ )",
      "--/-., ,--,",
      ")* --.-",
      "--.,---- -,,--,",
      "-,-------- ---.----",
      "(. ĀĀ",
      "-,-, --.-+",
      "-*, /--",
      ",--*- $",
      "-+. .--,-,",
      "--+---, --,-",
      "--+-,, ,--,",
      "#-- \"",
      "--.-,---- +",
      "--.-,---- ---,",
      "-/-, --.-/",
      "*---+ -/",
      "() ĀĀ",
      "--,.---- *",
      "** --,-,",
      "--% -.",
      "--,---+ ----",
      ".,-- (",
      "--,--+ .--,",
      ",.--, --,",
      ",.--, -.,",
      "+--( -.",
      "(+ --,-,",
      "Ā. &",
      "Ā. -",
      ".-------- ---.",
      "/--( -+",
      "Ā* #",
      "-+/ '",
      "-+/ )--",
      "/ĀĀ #Ā",
      "--,---. --.-,",
      ",-------- ,----",
      ",-------- ---,",
      ",-------- ---",
      ".---+ -+",
      "(* --+-",
      ",--' -+",
      ",--' -(",
      ".--' -,",
      ".--' -)",
      "----* -/----",
      "--+--/ ---/",
      "--+--+ ---+",
      "-..---. -.",
      "-.-------- ---,",
      ")) --,-",
      "ĀĀ: Ā+",
      "--*-, ,---.-",
      "/( --/-,",
      "-,.. --.-",
      "-*. .--",
      "(( ĀĀ",
      "') --.-",
      ")--( -/",
      ")--( -(",
      "-.------------ --.----",
      "'( --+-",
      ",--.--. ,----",
      "*' .ĀĀ",
      ".( --/-",
      "-,-+ ----,",
      "+.-- '-",
      "Ā\" '",
      "-)) ---,",
      "..,---- --,----",
      "--/-' /",
      "Ā' /",
      "-/-+ --,-,",
      "ĀĀ= Ā+",
      "---.-* /",
      "),-- &",
      "+,--, -.,",
      ".----/ -+",
      "-,.,---- ,----",
      ",*-- &-",
      "/--.-+ -",
      "-... --,-",
      "-.., --.-+",
      "+)-- )-",
      "36 7",
      "-./. --.-.",
      "-.------,---- --",
      ")& --+-",
      "*/--* -/",
      "... --.---,",
      "'*-- (-",
      "ĀĀ!Ā /,",
      "((-- $",
      ")% --,-",
      "--+---.---- .",
      "ĀĀĚ Ā",
      ",,-----.---- ---,----",
      "/---.-, /----",
      "--: -+",
      "! *",
      "! +",
      "! ----",
      "! -+",
      "! ,--",
      "! --.-",
      "! (--",
      "! '--",
      "! -.+",
      "! --*-*",
      "\" \"",
      "\" Ğ",
      "\" -.",
      "\" --,-",
      "\" *--",
      "\" ğ--",
      "\" $ĀĀ",
      "\" .--%",
      "# ğ",
      "# ----",
      "# -/",
      "# .--",
      "# /--",
      "# *--",
      "# --.-",
      "# -.,",
      "# -&",
      "# '--",
      "# --&",
      "# */",
      "# -,/",
      "# Ā+",
      "# ---'",
      "# &ĀĀ",
      "# *--*-",
      "# ,,--",
      "# )--'-",
      "$ *",
      "$ Ğ",
      "$ /--",
      "$ ---,",
      "$ --+-",
      "$ -,.",
      "$ --*-",
      "$ --(-",
      "$ (/",
      "$ .--(",
      "$ +--,-.",
      "$ /--(-",
      "$ ,--+-",
      "$ ĀĀ:Ā",
      "$ ,--$",
      "% :",
      "% ?",
      "% -,",
      "% /--",
      "% ---",
      "% )--",
      "% (--",
      "% --,-,",
      "% *----",
      "% ---+",
      "% --/-+",
      "% '--",
      "% --*-",
      "% -,+",
      "% ĀĀ)Ā",
      "% --/-(",
      "% -----",
      "% *--)",
      "% .--(",
      "% -.)",
      "% (+",
      "% /*--",
      "% --)-/",
      "% ---'",
      "% .ĀĀ",
      "% &ĀĀ",
      "% +--)-",
      "% *--)-",
      "% %)",
      "% -*+",
      "% +--'-",
      "% ,--+-+",
      "% ---&",
      "% .--)-(",
      "& #",
      "& <",
      "& @",
      "& -,",
      "& -)",
      "& --.-,",
      "& -(",
      "& ,--,",
      "& --+-",
      "& --/-",
      "& --.-/",
      "& --/-,",
      "& ---+",
      "& --/-.",
      "& --/-+",
      "& --&",
      "& ,--*",
      "& ĀĀ-Ā",
      "& --.--/",
      "& --(-",
      "& *--*",
      "& .--(",
      "& --&-",
      "& .,--",
      "& .--+-",
      "& )--)",
      "& .--'",
      "& +--+-",
      "& +--(-",
      "' @",
      "' ě",
      "' --/",
      "' -*",
      "' ---",
      "' --+-.",
      "' --+-,",
      "' --.--.",
      "' --,-*",
      "' ,--*",
      "' --/-*",
      "' %--",
      "' --)-",
      "' --.--+",
      "' /--*",
      "' .--)",
      "' +--)",
      "' ---,-",
      "' ,--*-",
      "' #--",
      "' --.-'",
      "' --*-.",
      "' /--*-",
      "' ,--(",
      "' --*-+",
      "' --/--.",
      "' +--'",
      "' *--)-",
      "' +--&",
      "' /--+-.",
      "' /--+-,",
      "' ---&",
      "' ,--*-*",
      "' ,--)-/",
      "( \"",
      "( -/",
      "( +----",
      "( ---.",
      "( --.--.",
      "( ,--*",
      "( ĀĀ.Ā",
      "( --,--,",
      "( .--,-,",
      "( --.--",
      "( /--*",
      "( ,--.-.",
      "( /--)",
      "( .--(",
      "( ,--*-",
      "( --/-,,",
      "( .--*-",
      "( +--*-",
      "( --.-'",
      "( /--(",
      "( !--",
      "( ,--'",
      "( ,--(",
      "( *--(",
      "( --)-+",
      "( --)-.",
      "( ,--&",
      "( +--(-",
      "( ---,--",
      "( .--)-/",
      "( +--)-.",
      ") #",
      ") :",
      ") --/",
      ") ,----",
      ") ,--,",
      ") --+-.",
      ") --,-+",
      ") --+-+",
      ") --.-*",
      ") )----",
      ") --,-*",
      ") ĀĀ,Ā",
      ") .----.",
      ") ĀĀ)Ā",
      ") --/-)",
      ") .--,-",
      ") ---.-",
      ") +--)",
      ") .--,-+",
      ") --/-,,",
      ") +--*-",
      ") --,--/",
      ") --/--/",
      ") .--'",
      ") --+-'",
      ") --*-.",
      ") /--)-",
      ") --+--*",
      ") +--(-",
      ") +--%",
      ") --.-,.",
      ") ---.-,",
      ") \"ĀĀ",
      ") #ĀĀ",
      ") --/--)",
      ") --/-(,",
      ") ---'-.",
      "* !",
      "* =",
      "* -,----",
      "* --.--,",
      "* ,/",
      "* ,.----",
      "* --,-*",
      "* --/-*",
      "* --,--.",
      "* --+-*",
      "* %--",
      "* ,----.",
      "* ĀĀ(Ā",
      "* .--)",
      "* --,-,,",
      "* +--)",
      "* .--,-+",
      "* ,--*-",
      "* --/-,,",
      "* --,-(",
      "* #--",
      "* --.---.----",
      "* --.-'",
      "* --+--+",
      "* /---.-",
      "* --.--*",
      "* .----+",
      "* --/--.",
      "* .--,-*",
      "* /-----",
      "* .--(-",
      "* %ĀĀ",
      "* ,--*-,",
      "* --.-,.",
      "* Ğ--",
      "* /--)--",
      "* --.--(",
      "+ <",
      "+ >",
      "+ Ğ",
      "+ --+-,",
      "+ --+-*",
      "+ --.---.",
      "+ ĀĀ+Ā",
      "+ --.--/",
      "+ --.--------",
      "+ ĀĀ/Ā",
      "+ *--*",
      "+ --/-(",
      "+ --+--,",
      "+ --/-.,",
      "+ ĀĀ$Ā",
      "+ --/-,,",
      "+ --+-,,",
      "+ /----.",
      "+ ,--,-+",
      "+ --,--+",
      "+ --+-.,",
      "+ )--)",
      "+ --.---",
      "+ ,--(",
      "+ /--)-",
      "+ --+--*",
      "+ *--'",
      "+ *--)-",
      "+ &--,-",
      "+ --/---,",
      "+ .--)-/",
      "+ /--(-/",
      "+ +---+-.",
      "+ .--)-*",
      ", ě",
      ", --.----",
      ", ,---,",
      ", -/----",
      ", ,---.",
      ", .--*",
      ", ĀĀ,Ā",
      ", %--",
      ", $--",
      ", (----",
      ", ĀĀ'Ā",
      ", --/--,",
      ", --.-.----",
      ", *--)",
      ", \"--",
      ", .--*-",
      ", --+---,",
      ", --/---.",
      ", '----",
      ", )--)",
      ", --+-'",
      ", /--*-",
      ", --/--+",
      ", +--'",
      ", /--)-",
      ", --+--------",
      ", .--)-+",
      ", #--,-",
      "- ę",
      "- Ě",
      "- Ĝ",
      "- ĀĀ-Ā",
      "- \"--",
      ". ĝ",
      ". -+",
      ". /,",
      ". +---,",
      ". -/----",
      ". ,---.",
      ". (-",
      ". .--*",
      ". ĀĀ*Ā",
      ". ,--)",
      ". +--*",
      ". --.--+",
      ". --+-)",
      ". &-",
      ". .--,-.",
      ". +--)",
      ". ,--,-.",
      ". --+--,",
      ". +--'",
      ". .--)-",
      ". .--,-*",
      ". -.--.-.",
      ". --.--)",
      ". .--*-+",
      ". (--'",
      "/ ;",
      "/ Ğ",
      "/ -/",
      "/ --+",
      "/ ..",
      "/ .---.",
      "/ +,",
      "/ --.-*",
      "/ -/----",
      "/ ĀĀ.Ā",
      "/ --.--/",
      "/ --,---,",
      "/ ĀĀ)Ā",
      "/ $--",
      "/ (----",
      "/ ĀĀ(Ā",
      "/ --,-,,",
      "/ --/-(",
      "/ --.-.----",
      "/ ĀĀ&Ā",
      "/ .--,-+",
      "/ --+-(",
      "/ \"--",
      "/ ĀĀ$Ā",
      "/ ,--,-+",
      "/ !--",
      "/ --.---",
      "/ --,---.----",
      "/ ğ--",
      "/ &--,-",
      "/ --.--)",
      "/ --,--)",
      "/ --,---/",
      "0 50",
      "0 41",
      "1 00",
      "1 30",
      "1 50",
      "2 10",
      "2 11",
      "2 20",
      "2 21",
      "2 41",
      "3 10",
      "3 01",
      "3 20",
      "3 41",
      "3 51",
      "3 52",
      "3 70",
      "4 11",
      "4 31",
      "4 50",
      "4 33",
      "4 51",
      "5 22",
      "5 32",
      "7 9"
    ]
  }
}