{
  "version": "1.0",
  "truncation": null,
  "padding": null,
  "added_tokens": [],
  "normalizer": null,
  "pre_tokenizer": {
    "type": "ByteLevel",
    "add_prefix_space": false,
    "trim_offsets": true,
    "use_regex": true
  },
  "post_processor": {
    "type": "ByteLevel",
    "add_prefix_space": true,
    "trim_offsets": false,
    "use_regex": true
  },
  "decoder": {
    "type": "ByteLevel",
    "add_prefix_space": true,
    "trim_offsets": true,
    "use_regex": true
  },
  "model": {
    "type": "BPE",
    "dropout": null,
    "unk_token": null,
    "continuing_subword_prefix": null,
    "end_of_word_suffix": null,
    "fuse_unk": false,
    "byte_fallback": false,
    "ignore_merges": false,
    "vocab": {
      "\u0000": 0,
      "\u0001": 1,
      "\u0002": 2,
      "\u0003": 3,
      "\u0004": 4,
      "\u0005": 5,
      "\u0006": 6,
      "\u0007": 7,
      "\b": 8,
      "\t": 9,
      "\n": 10,
      "\u000b": 11,
      "\f": 12,
      "\r": 13,
      "\u000e": 14,
      "\u000f": 15,
      "\u0010": 16,
      "\u0011": 17,
      "\u0012": 18,
      "\u0013": 19,
      "\u0014": 20,
      "\u0015": 21,
      "\u0016": 22,
      "\u0017": 23,
      "\u0018": 24,
      "\u0019": 25,
      "\u001a": 26,
      "\u001b": 27,
      "\u001c": 28,
      "\u001d": 29,
      "\u001e": 30,
      "\u001f": 31,
      " ": 32,
      "!": 33,
      "\"": 34,
      "#": 35,
      "$": 36,
      "%": 37,
      "&": 38,
      "'": 39,
      "(": 40,
      ")": 41,
      "*": 42,
      "+": 43,
      ",": 44,
      "-": 45,
      ".": 46,
      "/": 47,
      "0": 48,
      "1": 49,
      "2": 50,
      "3": 51,
      "4": 52,
      "5": 53,
      "6": 54,
      "7": 55,
      "8": 56,
      "9": 57,
      ":": 58,
      ";": 59,
      "<": 60,
      "=": 61,
      ">": 62,
      "?": 63,
      "@": 64,
      "A": 65,
      "B": 66,
      "C": 67,
      "D": 68,
      "E": 69,
      "F": 70,
      "G": 71,
      "H": 72,
      "I": 73,
      "J": 74,
      "K": 75,
      "L": 76,
      "M": 77,
      "N": 78,
      "O": 79,
      "P": 80,
      "Q": 81,
      "R": 82,
      "Ā": 83,
      "ą": 84,
      "ć": 85,
      "Ċ": 86,
      "ċ": 87,
      "Č": 88,
      "č": 89,
      "Ď": 90,
      "ď": 91,
      "Đ": 92,
      "đ": 93,
      "Ē": 94,
      "ē": 95,
      "Ĕ": 96,
      "ĕ": 97,
      "Ė": 98,
      "ė": 99,
      "Ę": 100,
      "ę": 101,
      "Ě": 102,
      "ě": 103,
      "Ĝ": 104,
      "ĝ": 105,
      "Ğ": 106,
      "ğ": 107,
      "Ġ": 108,
      "--": 109,
      "----": 110,
      "-.": 111,
      "-,": 112,
      "--,": 113,
      "--.": 114,
      "-/": 115,
      "-+": 116,
      "--/": 117,
      "--+": 118,
      "ĀĀ": 119,
      "-*": 120,
      ",----": 121,
      ",--": 122,
      ".----": 123,
      ".--": 124,
      "+--": 125,
      "-)": 126,
      "-.----": 127,
      "-,----": 128,
      "/--": 129,
      "*--": 130,
      "--,-": 131,
      "--.-": 132,
      "--*": 133,
      ".--,": 134,
      "+----": 135,
      "/----": 136,
      ",--.": 137,
      "---": 138,
      "--------": 139,
      "---.": 140,
      ".--.": 141,
      ",--,": 142,
      "---,": 143,
      "--+-": 144,
      "--/-": 145,
      "-..": 146,
      "-,,": 147,
      "-,.": 148,
      "-(": 149,
      "--)": 150,
      "-.,": 151,
      "----,": 152,
      "----.": 153,
      ")--": 154,
      "+--.": 155,
      "---/": 156,
      "/--,": 157,
      "-./": 158,
      ".---.": 159,
      "-'": 160,
      "-+,": 161,
      "-/.": 162,
      ",---,": 163,
      "-/,": 164,
      "+--,": 165,
      "(--": 166,
      ",--/": 167,
      "--.----": 168,
      ".--+": 169,
      "-,+": 170,
      ".--/": 171,
      ",--+": 172,
      "-,/": 173,
      "-.+": 174,
      "/--.": 175,
      "-+.": 176,
      "--(": 177,
      "00": 178,
      "-+----": 179,
      "--,----": 180,
      "*----": 181,
      "-&": 182,
      "---,----": 183,
      "*-": 184,
      "---.----": 185,
      "-//": 186,
      "-/+": 187,
      "---+": 188,
      "-/----": 189,
      ",----,": 190,
      ",----.": 191,
      "--'": 192,
      ".----.": 193,
      "-,--,": 194,
      "-.--,": 195,
      "-++": 196,
      "*--.": 197,
      ".----,": 198,
      "-,--.": 199,
      "10": 200,
      "+--/": 201,
      "-+/": 202,
      "/--+": 203,
      "-*,": 204,
      "*--,": 205,
      "'--": 206,
      "+--+": 207,
      ".--,-": 208,
      "-.--.": 209,
      "01": 210,
      "+---,": 211,
      "-..----": 212,
      "--*-": 213,
      "-,,----": 214,
      "(-": 215,
      "/---.": 216,
      "/--/": 217,
      "/.": 218,
      "-,----.": 219,
      "--&": 220,
      "-*.": 221,
      "-,*": 222,
      "-.*": 223,
      ")-": 224,
      "Ā+": 225,
      "-+*": 226,
      ")----": 227,
      ",--*": 228,
      ",--.-": 229,
      "-%": 230,
      ",--,-": 231,
      ",---.": 232,
      "*--/": 233,
      "-.----,": 234,
      "Ā,": 235,
      "-,.----": 236,
      "Ā.": 237,
      "ĀĀ,": 238,
      ".---,": 239,
      "-.----.": 240,
      "02": 241,
      "ĀĀ.": 242,
      "-,----,": 243,
      "-+-": 244,
      ".--*": 245,
      "11": 246,
      "-*+": 247,
      ".--.-": 248,
      "-.,----": 249,
      "----/": 250,
      "&--": 251,
      "ĀĀ+": 252,
      "Ā)": 253,
      "--,---,": 254,
      "--.-.": 255,
      "--)-": 256,
      "-/*": 257,
      "ĀĀ*": 258,
      "--.---.": 259,
      "Ā*": 260,
      "Ā/": 261,
      "-$": 262,
      "ĀĀ-": 263,
      ".---/": 264,
      "+,": 265,
      "20": 266,
      "--.-,": 267,
      "Ā(": 268,
      "-),": 269,
      "--,-,": 270,
      "*--+": 271,
      "--,-.": 272,
      "/----,": 273,
      "+----.": 274,
      "'-": 275,
      "-/)": 276,
      "ĀĀ/": 277,
      "/----.": 278,
      "21": 279,
      "--%": 280,
      "----+": 281,
      "-*-": 282,
      "-*/": 283,
      ".--+-": 284,
      ",--)": 285,
      "..----": 286,
      "-,-": 287,
      "-.)": 288,
      "-,)": 289,
      "-**": 290,
      "------------": 291,
      "+--.-": 292,
      ".,----": 293,
      "12": 294,
      "ĀĀ)": 295,
      ")--,": 296,
      ",--/-": 297,
      "/--,-": 298,
      "-+--.": 299,
      "+--*": 300,
      "30": 301,
      "+--,-": 302,
      "+----,": 303,
      "/---/": 304,
      "Ā'": 305,
      "%--": 306,
      ",,----": 307,
      "-+)": 308,
      "-).": 309,
      "/--*": 310,
      ".--,-,": 311,
      "/--.-": 312,
      ")--.": 313,
      "--(-": 314,
      "03": 315,
      "-+--,": 316,
      "/,": 317,
      "-)+": 318,
      "--+-.": 319,
      "ĀĀ(": 320,
      "/---": 321,
      "ĀĀ'": 322,
      "-*----": 323,
      ".--)": 324,
      ".---": 325,
      "22": 326,
      ",---+": 327,
      "-)/": 328,
      "ĀĀ,Ā": 329,
      ".--/-": 330,
      "(----": 331,
      ")--/": 332,
      "-,.---.": 333,
      "$--": 334,
      "/--+-": 335,
      "-,-/": 336,
      "-,--------": 337,
      "--,-/": 338,
      ".--,-.": 339,
      "$-": 340,
      "---*": 341,
      "-,-.----": 342,
      "---.-": 343,
      ",--+-": 344,
      "Ā%": 345,
      "-.-": 346,
      "--,,----": 347,
      "31": 348,
      "&-": 349,
      "+--+-": 350,
      "-*)": 351,
      "-)-": 352,
      "40": 353,
      "-..---.": 354,
      "--,--.": 355,
      "-+-/": 356,
      "---,-": 357,
      ")--+": 358,
      "+.": 359,
      ",.----": 360,
      "Ā&": 361,
      "--,.----": 362,
      "+ĀĀ": 363,
      "/ĀĀ": 364,
      "----*": 365,
      "-.-.----": 366,
      "-,--": 367,
      "*--*": 368,
      "+--/-": 369,
      "-,-.": 370,
      "-.(": 371,
      "--.,----": 372,
      "--'-": 373,
      ".,--.": 374,
      "-----": 375,
      "-.,---,": 376,
      "--..----": 377,
      "13": 378,
      "/--/-": 379,
      "-,-,----": 380,
      "-+(": 381,
      "+---+": 382,
      "-)*": 383,
      "*--,-": 384,
      "ĀĀ&": 385,
      ",-----": 386,
      ".-----": 387,
      "*--.-": 388,
      "--*--": 389,
      "ĀĀ.Ā": 390,
      "-.-,----": 391,
      ".--,-/": 392,
      "------.": 393,
      ",--*-": 394,
      "/--)": 395,
      "#-": 396,
      "--.-/": 397,
      ".--(": 398,
      "ĀĀ+Ā": 399,
      "ĀĀ-Ā": 400,
      ",,--,": 401,
      "23": 402,
      "ĀĀ%": 403,
      "..--.": 404,
      "-.--": 405,
      "-,(": 406,
      "-,,---,": 407,
      ".----/": 408,
      "ĀĀ*Ā": 409,
      "50": 410,
      "-+----.": 411,
      ".--*-": 412,
      "+--)": 413,
      "-#": 414,
      "/--(": 415,
      "-\"": 416,
      "-----.": 417,
      "--,--,": 418,
      "--.,--.": 419,
      "*--+-": 420,
      "-,--+": 421,
      "-,+----": 422,
      "--.-+": 423,
      "--/-.": 424,
      "++": 425,
      ".ĀĀ": 426,
      "32": 427,
      "--.--,": 428,
      "--/---.": 429,
      ",----/": 430,
      "-..,--.": 431,
      "-))": 432,
      "---.--,": 433,
      "--&-": 434,
      "--/-,": 435,
      "-.--------": 436,
      "(,": 437,
      "*ĀĀ": 438,
      "--.--.": 439,
      ",---/": 440,
      "+--*-": 441,
      "%-": 442,
      ")--*": 443,
      "*--/-": 444,
      "41": 445,
      "--+----": 446,
      "-,,,--,": 447,
      "-,..--.": 448,
      "#--": 449,
      "(+": 450,
      "--,-+": 451,
      "-/(": 452,
      "-/----.": 453,
      "/--*-": 454,
      "----------------": 455,
      "-,,.----": 456,
      "--,.--,": 457,
      "--/----": 458,
      "-,,.--,": 459,
      "----,,": 460,
      "*----.": 461,
      "04": 462,
      "14": 463,
      "--,,--,": 464,
      "*--)": 465,
      "ĀĀ/Ā": 466,
      "52": 467,
      ",----+": 468,
      ",---": 469,
      "*---,": 470,
      "ĀĀ(Ā": 471,
      "----)": 472,
      "--/-/": 473,
      "(--,": 474,
      "/.--": 475,
      "-.--+": 476,
      "--..--.": 477,
      "-*(": 478,
      "*,": 479,
      "-.-,--,": 480,
      "-/.----": 481,
      "-+,----": 482,
      "+--(": 483,
      "-,..----": 484,
      "42": 485,
      "--+---,": 486,
      "+---.": 487,
      "-.------": 488,
      ".---.-": 489,
      "\"-": 490,
      "(.": 491,
      "(--.": 492,
      "-----,": 493,
      "-/----,": 494,
      "-+--": 495,
      ",---,-": 496,
      "!-": 497,
      "(--/": 498,
      ",--(": 499,
      "+----/": 500,
      "/----/": 501,
      "(*": 502,
      ")ĀĀ": 503,
      "/,--.": 504,
      "33": 505,
      "-+----,": 506,
      "-*-/": 507,
      "-,------,": 508,
      "--------.": 509,
      "-,.,--.": 510,
      "-,--/": 511,
      ",--------": 512,
      ".--------": 513,
      ".--)-": 514,
      "+----+": 515,
      "---.--.": 516,
      ",ĀĀ": 517,
      "--+-,": 518,
      ".----+": 519,
      "-.,,--,": 520,
      ")--,-": 521,
      "-.-/": 522,
      "-.--/": 523,
      "ĀĀ$": 524,
      "-*'": 525,
      ",-----,": 526,
      "-.------.": 527,
      "-,------": 528,
      "*---+": 529,
      "ĀĀ)Ā": 530,
      "ĀĀ'Ā": 531,
      "--$": 532,
      "---)": 533,
      "--,---.": 534,
      "--/---/": 535,
      ",--'": 536,
      "-)(": 537,
      "---(": 538,
      "---,----,": 539,
      ")--.-": 540,
      "05": 541,
      "--#": 542,
      "-,'": 543,
      "-,+---,": 544,
      "-/-": 545,
      "-/-/": 546,
      "--/,--.": 547,
      ".---+": 548,
      ".--.-.": 549,
      ")--+-": 550,
      "*.": 551,
      "*----,": 552,
      "/,----": 553,
      "--,-*": 554,
      "--,---+": 555,
      "---,--.": 556,
      "/---.-": 557,
      "ĀĀ&Ā": 558,
      ")--)": 559,
      ",.--,": 560,
      ".+--.": 561,
      ".--'": 562,
      "+---*": 563,
      "*+": 564,
      "51": 565,
      "-,,---.": 566,
      "-+.----": 567,
      "-.------,": 568,
      ".--.-/": 569,
      "-(+": 570,
      "---,----.": 571,
      "(--+": 572,
      "/,--": 573,
      "------,": 574,
      "-.-,--.": 575,
      "-.+---,": 576,
      "-+--+": 577,
      ",--)-": 578,
      "+-----": 579,
      "--------,": 580,
      "-(,": 581,
      "-.,.--,": 582,
      "--%-": 583,
      ".,--": 584,
      "/.--.": 585,
      "24": 586,
      "-.'": 587,
      "-.--.-": 588,
      "-,--.-": 589,
      "-+'": 590,
      "+--'": 591,
      "-,,,----": 592,
      "----.,": 593,
      "---/-": 594,
      "\"--": 595,
      "-.,--": 596,
      "-./----": 597,
      "-,--,-": 598,
      "-,-,--.": 599,
      "--.--": 600,
      ".--&": 601,
      "-)'": 602,
      "-,------.": 603,
      "--*-/": 604,
      "---'": 605,
      "-.,,----": 606,
      "''": 607,
      ")'": 608,
      ")--/-": 609,
      "61": 610,
      "-,-.--,": 611,
      "--.---,": 612,
      "-/,----": 613,
      "-*--": 614,
      "/----+": 615,
      "-...--.": 616,
      "--,-----": 617,
      ",+--,": 618,
      "34": 619,
      "-.-.--,": 620,
      "-,&": 621,
      ",------": 622,
      "+---": 623,
      "-.----/": 624,
      "/-----": 625,
      "-/.,--.": 626,
      "*/": 627,
      "15": 628,
      "-,---,": 629,
      "-,-.--.": 630,
      "-/'": 631,
      "/--)-": 632,
      "-(.": 633,
      "',": 634,
      "+,--,": 635,
      "-ĀĀ": 636,
      ".'": 637,
      "35": 638,
      "Ā-": 639,
      "-.+----": 640,
      ",--(-": 641,
      "/---,": 642,
      "*--(": 643,
      "-./,--.": 644,
      "(ĀĀ": 645,
      "43": 646,
      "ĀĀ#": 647,
      ".--(-": 648,
      "-.------------": 649,
      "-,----/": 650,
      "*---": 651,
      ".--,-+": 652,
      "----,.": 653,
      "----..": 654,
      "!--": 655,
      "'*": 656,
      "(--*": 657,
      "++--": 658,
      "/+--": 659,
      "25": 660,
      "--\"": 661,
      "-/,---,": 662,
      "--+-+": 663,
      "ĀĀ:": 664,
      "-)----": 665,
      "-,----+": 666,
      "/--(-": 667,
      "---+-": 668,
      ".---,-": 669,
      "(--.-": 670,
      "/*--": 671,
      "/,--/": 672,
      "53": 673,
      "-.--,-": 674,
      "-,-,--,": 675,
      "--,-..": 676,
      "--.---/": 677,
      "-+&": 678,
      "ĀĀ\"": 679,
      "-,------------": 680,
      "-,,,--.": 681,
      "-',": 682,
      "--.-----": 683,
      "-,,-----": 684,
      "'/": 685,
      "()": 686,
      "+.--,": 687,
      ".+--": 688,
      "26": 689,
      "--,,--.": 690,
      "-/&": 691,
      "---,--,": 692,
      "&)": 693,
      "'+": 694,
      "'.": 695,
      "(--+-": 696,
      "Ā\"": 697,
      "-./---.": 698,
      "-,-+": 699,
      "-,,--": 700,
      "--.---": 701,
      "--+-/": 702,
      ",------,": 703,
      ".------": 704,
      "-...----": 705,
      "-,.,----": 706,
      "-.,.----": 707,
      "(--,-": 708,
      "*)": 709,
      "+-": 710,
      "16": 711,
      "70": 712,
      "Ā$": 713,
      "-.&": 714,
      "-.-*": 715,
      "-.---.": 716,
      "-()": 717,
      ")--(": 718,
      "/--,-/": 719,
      "-/,,--,": 720,
      "---.----.": 721,
      "--,---,-": 722,
      "++--,": 723,
      ",.--": 724,
      "-!": 725,
      "/.----": 726,
      "//--": 727,
      "/+--.": 728,
      "-+.---.": 729,
      "--+.--,": 730,
      "-)-/": 731,
      "-..,----": 732,
      "--.------.": 733,
      "-+..--.": 734,
      "*----/": 735,
      "---.----,": 736,
      ")----,": 737,
      "+'": 738,
      "06": 739,
      "Ġ-": 740,
      "---+----": 741,
      "-.-+": 742,
      "-,/----": 743,
      "-,.---/": 744,
      "--.--/": 745,
      "--/--.": 746,
      "-*&": 747,
      ",--&": 748,
      "+--)-": 749,
      "-)%": 750,
      "*--*-": 751,
      "-..,--,": 752,
      "----,-": 753,
      ".----,,": 754,
      "/.--.-": 755,
      "'&": 756,
      "(/": 757,
      "(--)": 758,
      "36": 759,
      "54": 760,
      "55": 761,
      ":-": 762,
      "-..---,": 763,
      "--,/--,": 764,
      "-+-.----": 765,
      "--/.--.": 766,
      ".------.": 767,
      "+--&": 768,
      "/--'": 769,
      "-(-": 770,
      "-(/": 771,
      "-.+,--,": 772,
      "-..-----": 773,
      "-,----.-": 774,
      ",---.-": 775,
      "')": 776,
      "'----": 777,
      "('": 778,
      "*'": 779,
      ",&": 780,
      ".,----.": 781,
      "-.%": 782,
      "-.-.--.": 783,
      "--,-.,": 784,
      "--.--------": 785,
      "--.-.,": 786,
      "--+,--,": 787,
      "-*----.": 788,
      "-)--": 789,
      "*---*": 790,
      "-..+--.": 791,
      "-,/,--.": 792,
      "-+.,--.": 793,
      ",----,,": 794,
      "ĀĀ%Ā": 795,
      "+.----": 796,
      "//--.": 797,
      "44": 798,
      "--,-,,": 799,
      "--/-+": 800,
      "--/.--/": 801,
      "ĀĀ;": 802,
      "*--)-": 803,
      "-')": 804,
      "-+,,----": 805,
      "-,+,--,": 806,
      "%,": 807,
      "%ĀĀ": 808,
      "&,": 809,
      "(---": 810,
      "),": 811,
      "**--": 812,
      "+*": 813,
      "+,----": 814,
      "./--.": 815,
      "63": 816,
      "ğ-": 817,
      "-,--*": 818,
      "-,-,----.": 819,
      "--.-*": 820,
      "-+,---,": 821,
      ",------.": 822,
      ".------------": 823,
      "+---/": 824,
      "-((": 825,
      "-'+": 826,
      "--,------,": 827,
      "+---,-": 828,
      "&'": 829,
      "(--/-": 830,
      "+.--+": 831,
      "..--": 832,
      ".+----": 833,
      "71": 834,
      "Ğ-": 835,
      "-.+--": 836,
      "-,-,----,": 837,
      "-/--,": 838,
      "-+-.--.": 839,
      "--+--.": 840,
      "-.----+": 841,
      "-./.--.": 842,
      "./----": 843,
      ".,--,": 844,
      ":ĀĀ": 845,
      "ĠĀ": 846,
      "-----+": 847,
      "-------": 848,
      "-,%": 849,
      "-,.--,": 850,
      "--,--": 851,
      "-/-.--,": 852,
      "-/-,--.": 853,
      "--/-*": 854,
      ".------,": 855,
      "/---+": 856,
      "-,,/--,": 857,
      "-,.+--.": 858,
      "-,..--/": 859,
      "----.-": 860,
      ")---+": 861,
      "-+,.--,": 862,
      "-.+.--,": 863,
      "-+----+": 864,
      "-//,--.": 865,
      "-/----+": 866,
      ",----.,": 867,
      "--.---.-": 868,
      "'(": 869,
      "'--/": 870,
      ")---": 871,
      ",+----": 872,
      "./--": 873,
      "/+----": 874,
      "/.--/": 875,
      "46": 876,
      "60": 877,
      "--$-": 878,
      "-..---/": 879,
      "-,.---,": 880,
      "--.-./": 881,
      "-+,--": 882,
      "-++----": 883,
      "-+,---.": 884,
      "--+--": 885,
      "-)&": 886,
      "-.------/": 887,
      "-,-----": 888,
      "*--(-": 889,
      "--*-(": 890,
      "-,.,--/": 891,
      "----/,": 892,
      "&--,-": 893,
      "*,--": 894,
      "*.--": 895,
      "+(": 896,
      "+/--,": 897,
      ",+--": 898,
      "..--,": 899,
      "08": 900,
      "62": 901,
      "64": 902,
      "Ā#": 903,
      "-..--": 904,
      "-.,--.": 905,
      "-..--.": 906,
      "-,.--": 907,
      "--,-+,": 908,
      "-//----": 909,
      "-/---.": 910,
      "--/--": 911,
      "--/---": 912,
      "--+---+": 913,
      "ĀĀ=": 914,
      "-.------,----": 915,
      "*--'": 916,
      "---(-": 917,
      "-/,.--,": 918,
      "--.------,": 919,
      ",--+-.": 920,
      "-&*": 921,
      "-/----/": 922,
      ".----.,": 923,
      "%)": 924,
      "&&": 925,
      "&ĀĀ": 926,
      "((": 927,
      "*,--+": 928,
      "+,--": 929,
      "ğ--": 930,
      "Ġ--": 931,
      "--!": 932,
      "------": 933,
      "-.--*": 934,
      "-.--/-": 935,
      "-,*--": 936,
      "-,--/-": 937,
      "-,/---.": 938,
      "--.--+": 939,
      "--..--,": 940,
      "--.,--/": 941,
      "-/-.----": 942,
      "-/-,--,": 943,
      "-+-,--.": 944,
      ".-----,": 945,
      "-.-----": 946,
      "*--&": 947,
      "/----*": 948,
      "-...--,": 949,
      "--)-.": 950,
      "-'.": 951,
      "-,+.--+": 952,
      ".--/-.": 953,
      "-,/.--.": 954,
      "-+------": 955,
      "-&,": 956,
      "-.,-----": 957,
      "-,.---.-": 958,
      "ĀĀ$Ā": 959,
      "#,": 960,
      "&----": 961,
      "'%": 962,
      "(%": 963,
      "),--": 964,
      "*/--": 965,
      ",/--,": 966,
      "17": 967,
      "37": 968,
      "72": 969,
      "<-": 970,
      "------+": 971,
      "-.-.----.": 972,
      "--./--.": 973,
      "-/--": 974,
      "-/.---.": 975,
      "-+%": 976,
      "-+-+": 977,
      "-+-.--,": 978,
      "--/--,": 979,
      "--+-*": 980,
      "ĀĀ!": 981,
      "ĀĀ<": 982,
      "--*-,": 983,
      ",--,-/": 984,
      "--+-(": 985,
      "-..+--,": 986,
      "-,,,--+": 987,
      "-(*": 988,
      "--)-/": 989,
      "-.,+--,": 990,
      "-,+,----": 991,
      "-+..----": 992,
      "-+----/": 993,
      "-,.-----": 994,
      "$.": 995,
      "(*--": 996,
      ")(": 997,
      "+.--": 998,
      ",*--": 999,
      ",.--+": 1000,
      ",*--,": 1001,
      ".&": 1002,
      ".,----,": 1003,
      "18": 1004,
      "56": 1005,
      "80": 1006,
      "-----/": 1007,
      "-------.": 1008,
      "-./---/": 1009,
      "-,-*": 1010,
      "-,+--": 1011,
      "--,--/": 1012,
      "--,--+": 1013,
      "--,,--+": 1014,
      "--./----": 1015,
      "--.+--.": 1016,
      "-/-*": 1017,
      "-/-,----": 1018,
      "-/--,-": 1019,
      "/--&": 1020,
      "--*-.": 1021,
      ",--.-.": 1022,
      ",--,--,": 1023
    },
    "merges": [
      "- -",
      "-- --",
      "- .",
      "- ,",
      "-- ,",
      "-- .",
      "- /",
      "- +",
      "-- /",
      "-- +",
      "Ā Ā",
      "- *",
      ", ----",
      ", --",
      ". ----",
      ". --",
      "+ --",
      "- )",
      "-. ----",
      "-, ----",
      "/ --",
      "* --",
      "--, -",
      "--. -",
      "-- *",
      ". --,",
      "+ ----",
      "/ ----",
      ", --.",
      "-- -",
      "---- ----",
      "-- -.",
      ". --.",
      ", --,",
      "-- -,",
      "--+ -",
      "--/ -",
      "-. .",
      "-, ,",
      "-, .",
      "- (",
      "-- )",
      "-. ,",
      "---- ,",
      "---- .",
      ") --",
      "+ --.",
      "-- -/",
      "/ --,",
      "-. /",
      ".-- -.",
      "- '",
      "-+ ,",
      "-/ .",
      ",-- -,",
      "-/ ,",
      "+ --,",
      "( --",
      ", --/",
      "--. ----",
      ". --+",
      "-, +",
      ". --/",
      ", --+",
      "-, /",
      "-. +",
      "/ --.",
      "-+ .",
      "-- (",
      "0 0",
      "-+ ----",
      "--, ----",
      "* ----",
      "- &",
      "-- -,----",
      "* -",
      "-- -.----",
      "-/ /",
      "-/ +",
      "-- -+",
      "-/ ----",
      ",---- ,",
      ",---- .",
      "-- '",
      ".---- .",
      "-, --,",
      "-. --,",
      "-+ +",
      "* --.",
      ".---- ,",
      "-, --.",
      "1 0",
      "+ --/",
      "-+ /",
      "/ --+",
      "-* ,",
      "* --,",
      "' --",
      "+ --+",
      ". --,-",
      "-. --.",
      "0 1",
      "+-- -,",
      "-. .----",
      "--* -",
      "-, ,----",
      "( -",
      "/-- -.",
      "/ --/",
      "/ .",
      "-,---- .",
      "-- &",
      "-* .",
      "-, *",
      "-. *",
      ") -",
      "Ā +",
      "-+ *",
      ") ----",
      ",-- *",
      ", --.-",
      "- %",
      ", --,-",
      ",-- -.",
      "* --/",
      "-.---- ,",
      "Ā ,",
      "-, .----",
      "Ā .",
      "ĀĀ ,",
      ".-- -,",
      "-.---- .",
      "0 2",
      "ĀĀ .",
      "-,---- ,",
      "-+ -",
      ".-- *",
      "1 1",
      "-* +",
      ". --.-",
      "-. ,----",
      "---- /",
      "& --",
      "ĀĀ +",
      "Ā )",
      "--, ---,",
      "--. -.",
      "--) -",
      "-/ *",
      "ĀĀ *",
      "--. ---.",
      "Ā *",
      "Ā /",
      "- $",
      "ĀĀ -",
      ".-- -/",
      "+ ,",
      "2 0",
      "--. -,",
      "Ā (",
      "-) ,",
      "--, -,",
      "* --+",
      "--, -.",
      "/---- ,",
      "+---- .",
      "' -",
      "-/ )",
      "ĀĀ /",
      "/---- .",
      "2 1",
      "-- %",
      "---- +",
      "-* -",
      "-* /",
      ". --+-",
      ",-- )",
      ". .----",
      "-, -",
      "-. )",
      "-, )",
      "-* *",
      "-------- ----",
      "+ --.-",
      ". ,----",
      "1 2",
      "ĀĀ )",
      ") --,",
      ", --/-",
      "/ --,-",
      "-+ --.",
      "+-- *",
      "3 0",
      "+ --,-",
      "+---- ,",
      "/-- -/",
      "Ā '",
      "% --",
      ", ,----",
      "-+ )",
      "-) .",
      "/-- *",
      ".--, -,",
      "/ --.-",
      ") --.",
      "--( -",
      "0 3",
      "-+ --,",
      "/ ,",
      "-) +",
      "--+ -.",
      "ĀĀ (",
      "/-- -",
      "ĀĀ '",
      "-* ----",
      ".-- )",
      ".-- -",
      "2 2",
      ",-- -+",
      "-) /",
      "ĀĀ, Ā",
      ". --/-",
      "( ----",
      ") --/",
      "-, .---.",
      "$ --",
      "/ --+-",
      "-, -/",
      "-,---- ----",
      "--, -/",
      ".--, -.",
      "$ -",
      "-- -*",
      "-, -.----",
      "---. -",
      ", --+-",
      "Ā %",
      "-. -",
      "--, ,----",
      "3 1",
      "& -",
      "+ --+-",
      "-* )",
      "-) -",
      "4 0",
      "-. .---.",
      "--, --.",
      "-+ -/",
      "---, -",
      ") --+",
      "+ .",
      ", .----",
      "Ā &",
      "--, .----",
      "+ ĀĀ",
      "/ ĀĀ",
      "---- *",
      "-. -.----",
      "-, --",
      "*-- *",
      "+ --/-",
      "-, -.",
      "-. (",
      "--. ,----",
      "--' -",
      ". ,--.",
      "---- -",
      "-. ,---,",
      "--. .----",
      "1 3",
      "/ --/-",
      "-, -,----",
      "-+ (",
      "+-- -+",
      "-) *",
      "* --,-",
      "ĀĀ &",
      ",---- -",
      ".---- -",
      "* --.-",
      "-- *--",
      "ĀĀ. Ā",
      "-. -,----",
      ".--, -/",
      "---- --.",
      ",-- *-",
      "/-- )",
      "# -",
      "--. -/",
      ".-- (",
      "ĀĀ+ Ā",
      "ĀĀ- Ā",
      ", ,--,",
      "2 3",
      "ĀĀ %",
      ". .--.",
      "-. --",
      "-, (",
      "-, ,---,",
      ".---- /",
      "ĀĀ* Ā",
      "5 0",
      "-+ ----.",
      ".-- *-",
      "+-- )",
      "- #",
      "/-- (",
      "- \"",
      "---- -.",
      "--, --,",
      "--. ,--.",
      "* --+-",
      "-, --+",
      "-, +----",
      "--. -+",
      "--/ -.",
      "+ +",
      ". ĀĀ",
      "3 2",
      "--. --,",
      "--/ ---.",
      ",---- /",
      "-.. ,--.",
      "-) )",
      "---. --,",
      "--& -",
      "--/ -,",
      "-.---- ----",
      "( ,",
      "* ĀĀ",
      "--. --.",
      ",-- -/",
      "+-- *-",
      "% -",
      ") --*",
      "* --/-",
      "4 1",
      "--+ ----",
      "-,, ,--,",
      "-,. .--.",
      "# --",
      "( +",
      "--, -+",
      "-/ (",
      "-/ ----.",
      "/-- *-",
      "-------- --------",
      "-,, .----",
      "--, .--,",
      "--/ ----",
      "-,, .--,",
      "----, ,",
      "* ----.",
      "0 4",
      "1 4",
      "--, ,--,",
      "*-- )",
      "ĀĀ/ Ā",
      "5 2",
      ",---- +",
      ",-- -",
      "*-- -,",
      "ĀĀ( Ā",
      "---- )",
      "--/ -/",
      "( --,",
      "/ .--",
      "-. --+",
      "--. .--.",
      "-* (",
      "* ,",
      "-. -,--,",
      "-/ .----",
      "-+ ,----",
      "+-- (",
      "-,. .----",
      "4 2",
      "--+ ---,",
      "+-- -.",
      "-.---- --",
      ".---. -",
      "\" -",
      "( .",
      "( --.",
      "---- -,",
      "-/ ----,",
      "-+ --",
      ",---, -",
      "! -",
      "( --/",
      ",-- (",
      "+---- /",
      "/---- /",
      "( *",
      ") ĀĀ",
      "/ ,--.",
      "3 3",
      "-+ ----,",
      "-* -/",
      "-,---- --,",
      "-------- .",
      "-,. ,--.",
      "-, --/",
      ",---- ----",
      ".---- ----",
      ".-- )-",
      "+---- +",
      "---. --.",
      ", ĀĀ",
      "--+ -,",
      ".---- +",
      "-., ,--,",
      ") --,-",
      "-. -/",
      "-. --/",
      "ĀĀ $",
      "-* '",
      ",---- -,",
      "-.---- --.",
      "-,---- --",
      "*-- -+",
      "ĀĀ) Ā",
      "ĀĀ' Ā",
      "-- $",
      "-- -)",
      "--, ---.",
      "--/ ---/",
      ",-- '",
      "-) (",
      "--- (",
      "---,---- ,",
      ") --.-",
      "0 5",
      "-- #",
      "-, '",
      "-, +---,",
      "-/ -",
      "-/ -/",
      "--/ ,--.",
      ".-- -+",
      ".--. -.",
      ") --+-",
      "* .",
      "* ----,",
      "/ ,----",
      "--, -*",
      "--, ---+",
      "---, --.",
      "/---. -",
      "ĀĀ& Ā",
      ") --)",
      ", .--,",
      ". +--.",
      ".-- '",
      "+-- -*",
      "* +",
      "5 1",
      "-, ,---.",
      "-+ .----",
      "-.---- --,",
      ".--. -/",
      "-( +",
      "---,---- .",
      "( --+",
      "/ ,--",
      "---- --,",
      "-. -,--.",
      "-. +---,",
      "-+ --+",
      ",-- )-",
      "+---- -",
      "-------- ,",
      "-( ,",
      "-., .--,",
      "--% -",
      ". ,--",
      "/ .--.",
      "2 4",
      "-. '",
      "-. --.-",
      "-, --.-",
      "-+ '",
      "+-- '",
      "-,, ,----",
      "----. ,",
      "---/ -",
      "\" --",
      "-. ,--",
      "-. /----",
      "-, --,-",
      "-, -,--.",
      "--. --",
      ".-- &",
      "-) '",
      "-,---- --.",
      "--* -/",
      "--- '",
      "-., ,----",
      "' '",
      ") '",
      ") --/-",
      "6 1",
      "-, -.--,",
      "--. ---,",
      "-/ ,----",
      "-* --",
      "/---- +",
      "-.. .--.",
      "--,---- -",
      ", +--,",
      "3 4",
      "-. -.--,",
      "-, &",
      ",---- --",
      "+-- -",
      "-.---- /",
      "/---- -",
      "-/. ,--.",
      "* /",
      "1 5",
      "-, ---,",
      "-, -.--.",
      "-/ '",
      "/-- )-",
      "-( .",
      "' ,",
      "+ ,--,",
      "- ĀĀ",
      ". '",
      "3 5",
      "Ā -",
      "-. +----",
      ",-- (-",
      "/-- -,",
      "*-- (",
      "-./ ,--.",
      "( ĀĀ",
      "4 3",
      "ĀĀ #",
      ".-- (-",
      "-.---- --------",
      "-,---- /",
      "*-- -",
      ".--, -+",
      "----, .",
      "----. .",
      "! --",
      "' *",
      "( --*",
      "+ +--",
      "/ +--",
      "2 5",
      "-- \"",
      "-/ ,---,",
      "--+ -+",
      "ĀĀ :",
      "-) ----",
      "-,---- +",
      "/-- (-",
      "---+ -",
      ".---, -",
      "( --.-",
      "/ *--",
      "/ ,--/",
      "5 3",
      "-. --,-",
      "-, -,--,",
      "--, -..",
      "--. ---/",
      "-+ &",
      "ĀĀ \"",
      "-,---- --------",
      "-,, ,--.",
      "-' ,",
      "--.---- -",
      "-,,---- -",
      "' /",
      "( )",
      "+ .--,",
      ". +--",
      "2 6",
      "--, ,--.",
      "-/ &",
      "---, --,",
      "& )",
      "' +",
      "' .",
      "( --+-",
      "Ā \"",
      "-. /---.",
      "-, -+",
      "-, ,--",
      "--. ---",
      "--+ -/",
      ",---- --,",
      ".---- --",
      "-.. .----",
      "-,. ,----",
      "-., .----",
      "( --,-",
      "* )",
      "+ -",
      "1 6",
      "7 0",
      "Ā $",
      "-. &",
      "-. -*",
      "-. ---.",
      "-( )",
      ")-- (",
      "/--, -/",
      "-/, ,--,",
      "---.---- .",
      "--,---, -",
      "+ +--,",
      ", .--",
      "- !",
      "/ .----",
      "/ /--",
      "/ +--.",
      "-+ .---.",
      "--+ .--,",
      "-) -/",
      "-.. ,----",
      "--.---- --.",
      "-+. .--.",
      "*---- /",
      "---.---- ,",
      ") ----,",
      "+ '",
      "0 6",
      "Ġ -",
      "-- -+----",
      "-. -+",
      "-, /----",
      "-, .---/",
      "--. --/",
      "--/ --.",
      "-* &",
      ",-- &",
      "+-- )-",
      "-) %",
      "*-- *-",
      "-.. ,--,",
      "----, -",
      ".----, ,",
      "/. --.-",
      "' &",
      "( /",
      "( --)",
      "3 6",
      "5 4",
      "5 5",
      ": -",
      "-. .---,",
      "--, /--,",
      "-+ -.----",
      "--/ .--.",
      ".---- --.",
      "+-- &",
      "/-- '",
      "-( -",
      "-( /",
      "-.+ ,--,",
      "-..---- -",
      "-,----. -",
      ",---. -",
      "' )",
      "' ----",
      "( '",
      "* '",
      ", &",
      ". ,----.",
      "-. %",
      "-. -.--.",
      "--, -.,",
      "--. --------",
      "--. -.,",
      "--+ ,--,",
      "-* ----.",
      "-) --",
      "*-- -*",
      "-.. +--.",
      "-,/ ,--.",
      "-+. ,--.",
      ",----, ,",
      "ĀĀ% Ā",
      "+ .----",
      "/ /--.",
      "4 4",
      "--, -,,",
      "--/ -+",
      "--/ .--/",
      "ĀĀ ;",
      "*-- )-",
      "-' )",
      "-+, ,----",
      "-,+ ,--,",
      "% ,",
      "% ĀĀ",
      "& ,",
      "( ---",
      ") ,",
      "* *--",
      "+ *",
      "+ ,----",
      ". /--.",
      "6 3",
      "ğ -",
      "-, --*",
      "-, -,----.",
      "--. -*",
      "-+ ,---,",
      ",---- --.",
      ".---- --------",
      "+-- -/",
      "-( (",
      "-' +",
      "--,---- --,",
      "+---, -",
      "& '",
      "( --/-",
      "+ .--+",
      ". .--",
      ". +----",
      "7 1",
      "Ğ -",
      "-. +--",
      "-, -,----,",
      "-/ --,",
      "-+ -.--.",
      "--+ --.",
      "-.---- +",
      "-./ .--.",
      ". /----",
      ". ,--,",
      ": ĀĀ",
      "Ġ Ā",
      "---- -+",
      "---- ---",
      "-, %",
      "-, .--,",
      "--, --",
      "-/ -.--,",
      "-/ -,--.",
      "--/ -*",
      ".---- --,",
      "/-- -+",
      "-,, /--,",
      "-,. +--.",
      "-,. .--/",
      "----. -",
      ")-- -+",
      "-+, .--,",
      "-.+ .--,",
      "-+---- +",
      "-// ,--.",
      "-/---- +",
      ",----. ,",
      "--.---. -",
      "' (",
      "' --/",
      ") ---",
      ", +----",
      ". /--",
      "/ +----",
      "/ .--/",
      "4 6",
      "6 0",
      "-- $-",
      "-. .---/",
      "-, .---,",
      "--. -./",
      "-+ ,--",
      "-+ +----",
      "-+ ,---.",
      "--+ --",
      "-) &",
      "-.---- --/",
      "-,---- -",
      "*-- (-",
      "--* -(",
      "-,. ,--/",
      "----/ ,",
      "& --,-",
      "* ,--",
      "* .--",
      "+ (",
      "+ /--,",
      ", +--",
      ". .--,",
      "0 8",
      "6 2",
      "6 4",
      "Ā #",
      "-. .--",
      "-. ,--.",
      "-. .--.",
      "-, .--",
      "--, -+,",
      "-/ /----",
      "-/ ---.",
      "--/ --",
      "--/ ---",
      "--+ ---+",
      "ĀĀ =",
      "-.---- --,----",
      "*-- '",
      "--- (-",
      "-/, .--,",
      "--.---- --,",
      ",--+ -.",
      "-& *",
      "-/---- /",
      ".----. ,",
      "% )",
      "& &",
      "& ĀĀ",
      "( (",
      "* ,--+",
      "+ ,--",
      "ğ --",
      "Ġ --",
      "-- !",
      "---- --",
      "-. --*",
      "-. --/-",
      "-, *--",
      "-, --/-",
      "-, /---.",
      "--. --+",
      "--. .--,",
      "--. ,--/",
      "-/ -.----",
      "-/ -,--,",
      "-+ -,--.",
      ".---- -,",
      "-.---- -",
      "*-- &",
      "/---- *",
      "-.. .--,",
      "--) -.",
      "-' .",
      "-,+ .--+",
      ".--/ -.",
      "-,/ .--.",
      "-+---- --",
      "-& ,",
      "-.,---- -",
      "-,.---. -",
      "ĀĀ$ Ā",
      "# ,",
      "& ----",
      "' %",
      "( %",
      ") ,--",
      "* /--",
      ", /--,",
      "1 7",
      "3 7",
      "7 2",
      "< -",
      "---- --+",
      "-. -.----.",
      "--. /--.",
      "-/ --",
      "-/ .---.",
      "-+ %",
      "-+ -+",
      "-+ -.--,",
      "--/ --,",
      "--+ -*",
      "ĀĀ !",
      "ĀĀ <",
      "--* -,",
      ",--, -/",
      "--+- (",
      "-.. +--,",
      "-,, ,--+",
      "-( *",
      "--) -/",
      "-., +--,",
      "-,+ ,----",
      "-+. .----",
      "-+---- /",
      "-,.---- -",
      "$ .",
      "( *--",
      ") (",
      "+ .--",
      ", *--",
      ", .--+",
      ", *--,",
      ". &",
      ". ,----,",
      "1 8",
      "5 6",
      "8 0",
      "---- -/",
      "---- ---.",
      "-. /---/",
      "-, -*",
      "-, +--",
      "--, --/",
      "--, --+",
      "--, ,--+",
      "--. /----",
      "--. +--.",
      "-/ -*",
      "-/ -,----",
      "-/ --,-",
      "/-- &",
      "--* -.",
      ",--. -.",
      ",--, --,"
    ]
  }
}