{
  "version": "1.0",
  "truncation": null,
  "padding": null,
  "added_tokens": [],
  "normalizer": null,
  "pre_tokenizer": {
    "type": "ByteLevel",
    "add_prefix_space": false,
    "trim_offsets": true,
    "use_regex": true
  },
  "post_processor": {
    "type": "ByteLevel",
    "add_prefix_space": true,
    "trim_offsets": false,
    "use_regex": true
  },
  "decoder": {
    "type": "ByteLevel",
    "add_prefix_space": true,
    "trim_offsets": true,
    "use_regex": true
  },
  "model": {
    "type": "BPE",
    "dropout": null,
    "unk_token": null,
    "continuing_subword_prefix": null,
    "end_of_word_suffix": null,
    "fuse_unk": false,
    "byte_fallback": false,
    "ignore_merges": false,
    "vocab": {
      "\u0000": 0,
      "\u0001": 1,
      "\u0002": 2,
      "\u0003": 3,
      "\u0004": 4,
      "\u0005": 5,
      "\u0006": 6,
      "\u0007": 7,
      "\b": 8,
      "\t": 9,
      "\n": 10,
      "\u000b": 11,
      "\f": 12,
      "\r": 13,
      "\u000e": 14,
      "\u000f": 15,
      "\u0010": 16,
      "\u0011": 17,
      "\u0012": 18,
      "\u0013": 19,
      "\u0014": 20,
      "\u0015": 21,
      "\u0016": 22,
      "\u0017": 23,
      "\u0018": 24,
      "\u0019": 25,
      "\u001a": 26,
      "\u001b": 27,
      "\u001c": 28,
      "\u001d": 29,
      "\u001e": 30,
      "\u001f": 31,
      " ": 32,
      "!": 33,
      "\"": 34,
      "#": 35,
      "$": 36,
      "%": 37,
      "&": 38,
      "'": 39,
      "(": 40,
      ")": 41,
      "*": 42,
      "+": 43,
      ",": 44,
      "-": 45,
      ".": 46,
      "/": 47,
      "0": 48,
      "1": 49,
      "2": 50,
      "3": 51,
      "4": 52,
      "5": 53,
      "6": 54,
      "7": 55,
      "8": 56,
      "9": 57,
      ":": 58,
      ";": 59,
      "<": 60,
      "=": 61,
      ">": 62,
      "?": 63,
      "@": 64,
      "Ā": 65,
      "Ć": 66,
      "ĉ": 67,
      "Ċ": 68,
      "ċ": 69,
      "Č": 70,
      "č": 71,
      "Ď": 72,
      "ď": 73,
      "Đ": 74,
      "đ": 75,
      "Ē": 76,
      "ē": 77,
      "Ĕ": 78,
      "ĕ": 79,
      "Ė": 80,
      "ė": 81,
      "Ę": 82,
      "ę": 83,
      "Ě": 84,
      "ě": 85,
      "Ĝ": 86,
      "ĝ": 87,
      "Ğ": 88,
      "ğ": 89,
      "Ġ": 90,
      "$$": 91,
      "$$$$": 92,
      "$%": 93,
      "$#": 94,
      "$$%": 95,
      "$$#": 96,
      "$&": 97,
      "$\"": 98,
      "$$&": 99,
      "$$\"": 100,
      "$$$$$$$$": 101,
      "ĀĀ": 102,
      "#$$$$": 103,
      "%$$$$": 104,
      "$$$#": 105,
      "$$$%": 106,
      "$'": 107,
      "$!": 108,
      "$$!": 109,
      "$$'": 110,
      "$%$$$$": 111,
      "$#$$$$": 112,
      "$(": 113,
      "#$$%": 114,
      "%$$#": 115,
      "%$$%": 116,
      "#$$#": 117,
      "#$$": 118,
      "$%%": 119,
      "\"$$$$": 120,
      "$#%": 121,
      "$%#": 122,
      "$##": 123,
      "\"$$": 124,
      "&$$$$": 125,
      "%$$": 126,
      "$)": 127,
      "$ğ": 128,
      "$$$$#": 129,
      "&$$": 130,
      "$$$$%": 131,
      "\"$$%": 132,
      "!$$": 133,
      "'$$": 134,
      "$*": 135,
      "#$$&": 136,
      "&$$%": 137,
      "$&%": 138,
      "\"$$#": 139,
      "&$$#": 140,
      "Ġ$$": 141,
      "$$%$$$$": 142,
      "$%&": 143,
      "%$$\"": 144,
      "$Ğ": 145,
      "$$#$$$$": 146,
      "$$$$$$$$$$$$": 147,
      "%$$&": 148,
      "#$$\"": 149,
      "$$$&": 150,
      "$&#": 151,
      "$\"#": 152,
      "$%\"": 153,
      "$#&": 154,
      "$#\"": 155,
      "($$": 156,
      "$\"%": 157,
      "$+": 158,
      "$\"$$$$": 159,
      "#$$$$%": 160,
      "#$$$$#": 161,
      "$$(": 162,
      "$%$$#": 163,
      "$ĝ": 164,
      "$#$$%": 165,
      "$#$$#": 166,
      "\"$$&": 167,
      "$$$\"": 168,
      "!$$%": 169,
      "$%$$%": 170,
      "%$$$$%": 171,
      "!$$$$": 172,
      "$$$%$$$$": 173,
      "$$$": 174,
      "%$$$$#": 175,
      "!$$#": 176,
      "$\"\"": 177,
      "$&\"": 178,
      "$&$$$$": 179,
      "#$$!": 180,
      "&$$\"": 181,
      "\"$$\"": 182,
      "$&&": 183,
      "$$$#$$$$": 184,
      "'$$%": 185,
      "'$$#": 186,
      "'$$$$": 187,
      "#$$'": 188,
      "ğ$$": 189,
      "$!#": 190,
      "$%%$$$$": 191,
      "&$$&": 192,
      "$%$$$$%": 193,
      "%$$!": 194,
      "$'%": 195,
      "$#$$$$%": 196,
      "$%$$$$#": 197,
      "$#$$$$#": 198,
      "$##$$$$": 199,
      "&%": 200,
      "$'#": 201,
      "Ġ$$$$": 202,
      "Ā%": 203,
      "Ā#": 204,
      "$%'": 205,
      "$$#$$$#": 206,
      ")$$": 207,
      "$#!": 208,
      "$$$%$$%": 209,
      "Ā\"": 210,
      "$$$$$$$$$$$$$$$$": 211,
      "$\"&": 212,
      "$#%$$$$": 213,
      "$$$%$": 214,
      "ĀĀ#": 215,
      "!$$&": 216,
      "%$$'": 217,
      "ĀĀ%": 218,
      "$%!": 219,
      "$,": 220,
      "$%#$$$$": 221,
      "$!%": 222,
      "Ġ\"": 223,
      "!$$\"": 224,
      "Ā!": 225,
      "Ġ$$#": 226,
      "Ġ#": 227,
      "$$ğ": 228,
      "$Ĝ": 229,
      "Ā&": 230,
      "\"$$'": 231,
      "$$$#$$%": 232,
      "Ġ$$%": 233,
      "$#'": 234,
      "ĀĀ!": 235,
      "$$)": 236,
      "Ā'": 237,
      "'$$\"": 238,
      "ĀĀ$": 239,
      "'$$&": 240,
      "$'\"": 241,
      "Ġ%": 242,
      "$&'": 243,
      "$&!": 244,
      "$\"'": 245,
      "\"$$!": 246,
      "$$$%$$#": 247,
      "#$$$#": 248,
      "$&$$#": 249,
      "ĀĀ\"": 250,
      "ĀĀ&": 251,
      "$\"$$%": 252,
      "&$$!": 253,
      "$$$'": 254,
      "$\"!": 255,
      "($$#": 256,
      "Ġ$$\"": 257,
      "$%(": 258,
      "$$Ğ": 259,
      "$!\"": 260,
      "&$$'": 261,
      "#$$$\"": 262,
      "\"$$$$%": 263,
      "$$$#$": 264,
      "$(%": 265,
      "$!&": 266,
      "Ā(": 267,
      "$$$!": 268,
      "ĀĀ'": 269,
      "Ġ!": 270,
      "Ġ&": 271,
      "&#": 272,
      "Ġ$$&": 273,
      "\"#": 274,
      "\"%": 275,
      "$'&": 276,
      "$%#$$$#": 277,
      "$$$#$$#": 278,
      "$-": 279,
      "&$$$$%": 280,
      "$#$$$$$$$$": 281,
      "$ě": 282,
      "$\"$$#": 283,
      "\"$$$$#": 284,
      "!$$'": 285,
      "Ā)": 286,
      "ĀĀğ": 287,
      "#$$(": 288,
      "$%$$$$$$$$": 289,
      "$&(": 290,
      "ĀĀ)": 291,
      "$(#": 292,
      "$''": 293,
      "ĀĞ": 294,
      "$$%$$$%": 295,
      "$&$$%": 296,
      "\"$$$\"": 297,
      "Āğ": 298,
      "$$*": 299,
      "$$$$#%": 300,
      "\"$$(": 301,
      "&$$$$#": 302,
      "!$$!": 303,
      "$!!": 304,
      "($$$$": 305,
      "($$%": 306,
      "Ġ$$!": 307,
      "$%$$$$$$%": 308,
      "$(&": 309,
      "$#%$$$%": 310,
      "#$$$$&": 311,
      "Ġ$$'": 312,
      "$!$$$$": 313,
      "($$\"": 314,
      "$%$#$$$$": 315,
      "$(\"": 316,
      "$##$$$#": 317,
      "%$$(": 318,
      "$$$$##": 319,
      "ğ$$#": 320,
      "Ġ'": 321,
      "$#$%$$$$": 322,
      "$$#%$$#": 323,
      "$'(": 324,
      "$$$$%%": 325,
      "#$$ğ": 326,
      "$%%$$$%": 327,
      "&$$$&": 328,
      "Ġ$&": 329,
      "#$$%$": 330,
      "%$$ğ": 331,
      "Ğ$$": 332,
      "$#$$&": 333,
      "$#$%$$#": 334,
      "ĝ$$": 335,
      "$$$$$$%": 336,
      "$#(": 337,
      "$#$%$$%": 338,
      "ĀĀ(": 339,
      "$!'": 340,
      "$#$$$$$$#": 341,
      "$('": 342,
      "#$$$$$$%": 343,
      "ğ$$%": 344,
      "ĀĀĝ": 345,
      "%$$$$$$%": 346,
      "#%$$#": 347,
      "$.": 348,
      "%$$$$$$$$": 349,
      "Ā*": 350,
      "#$$$$$$$$": 351,
      "Ā+": 352,
      "$%$$&": 353,
      "$\"(": 354,
      "$%%#$$%": 355,
      "\"\"": 356,
      "ğ$$&": 357,
      "$#$#$$%": 358,
      "ĀĀĞ": 359,
      "$'!": 360,
      "#$$)": 361,
      "$$$$$$#": 362,
      "$%ğ": 363,
      "$%$%$$$$": 364,
      "$%$#$$#": 365,
      "'$$'": 366,
      "($$&": 367,
      "%$$$$&": 368,
      "$%##$$#": 369,
      "$##%$$#": 370,
      "Ġ$": 371,
      "$#$#$$$$": 372,
      "%$$$$$$#": 373,
      "%$$%$": 374,
      "$'$$$$": 375,
      "Ġ(": 376,
      "$#$$\"": 377,
      "$#%#$$%": 378,
      "%$$$%": 379,
      "*$$": 380,
      "Āĝ": 381,
      "$%$$\"": 382,
      "$$%#$$%": 383,
      "$&)": 384,
      "$Ě": 385,
      "Ġğ": 386,
      "$$$$$$$$%": 387,
      "#$$$$\"": 388,
      "$%$#$$%": 389,
      "%$$$$$": 390,
      "$!$$%": 391,
      "%#$$%": 392,
      "$%)": 393,
      "$$##$$#": 394,
      "$&$$$$%": 395,
      "#$$$$$#": 396,
      "#$$$$$$#": 397,
      "$#$$$$$$%": 398,
      "$((": 399,
      "$ğ#": 400,
      "&&": 401,
      "$#ğ": 402,
      "$$%%$$%": 403,
      "$\"$$$$%": 404,
      "$$$$$$$$#": 405,
      "%$$$$$%": 406,
      "$!(": 407,
      "%$$)": 408,
      "%$$$&": 409,
      "##$$#": 410,
      "Ġ)": 411,
      "$#%%$$%": 412,
      "$)\"": 413,
      "&$$(": 414,
      "'$$!": 415,
      "$&$$$$#": 416,
      "$$&$$$$": 417,
      "ĀĀ,": 418,
      "%$$$$$#": 419,
      "$)%": 420,
      "Ġ$$(": 421,
      "ĀĀ#Ā": 422,
      "$$\"$$$$": 423,
      "$#$$$$$$": 424,
      "+$$": 425,
      "$'$$#": 426,
      "$%$$$$$$#": 427,
      "\"$$ğ": 428,
      "&\"": 429,
      "ğ$$\"": 430,
      "ĠĞ": 431,
      "$%$%$$#": 432,
      "$#\"$$$$": 433,
      "ĀĀ+": 434,
      "ĀĀ%Ā": 435,
      "!%": 436,
      ")$$%": 437,
      "ĀĀ*": 438,
      "ĀĀĜ": 439,
      "$%#%$$#": 440,
      "$###$$#": 441,
      "!$$(": 442,
      "Ġ#$$": 443,
      "$$#$": 444,
      "$\"ğ": 445,
      "#$$$$$%": 446,
      "%$$$$\"": 447,
      "$')": 448,
      "$(!": 449,
      "$)#": 450,
      "$)&": 451,
      "'%": 452,
      "ğ$$'": 453,
      "$#$$$$$$$$$$$$": 454,
      "$\"$$&": 455,
      "$$$#$$$$$$$$": 456,
      "$ğ\"": 457,
      "'$$$&": 458,
      "%$$$$%%": 459,
      "Ġ*": 460,
      "$$ĝ": 461,
      "$$$%$%": 462,
      "\"$$)": 463,
      "'$$(": 464,
      "ĀĀ&Ā": 465,
      "($$'": 466,
      "$#)": 467,
      "$$$%$$$$$$$$": 468,
      "&$$ğ": 469,
      "$#$#$$#": 470,
      "$$%$": 471,
      "#$$$$$": 472,
      "$!$$#": 473,
      "\"$$$$\"": 474,
      "!$$$\"": 475,
      "!#": 476,
      "$/": 477,
      "Ġ$$$#": 478,
      "$$$(": 479,
      "$%Ğ": 480,
      "$&ğ": 481,
      "$$\"$$$#": 482,
      "ĀĀĚ": 483,
      "$'ğ": 484,
      "$ğ%": 485,
      "\"$$$#": 486,
      ")$$\"": 487,
      "ĀĀ.": 488,
      "$'$$%": 489,
      "%$$#$": 490,
      "$%%%$$%": 491,
      "!$$)": 492,
      "$$%$$$$$$%": 493,
      "$$#$$$$$$#": 494,
      "#$$$$%%": 495,
      "#$$$$##": 496,
      "ĀĀ$Ā": 497,
      "'#": 498,
      "Ġ$)": 499,
      "$#Ğ": 500,
      "$\"$$\"": 501,
      "$$$%$$&": 502,
      "%$$*": 503,
      "&$$$'": 504,
      "ĀĀ\"Ā": 505,
      "($$!": 506,
      ")$$#": 507,
      "$&%$$$$": 508,
      "$%$$$$$$": 509,
      "#$$$!": 510,
      "$%%$$$#": 511,
      "%$$Ğ": 512,
      "&$$)": 513,
      "$$$$%#": 514,
      "$$#$$$$$$%": 515,
      "$ę": 516,
      ")$$$$": 517,
      ",ĀĀ": 518,
      "ğ$$$$": 519,
      "$&Ğ": 520,
      "Ġ$$ğ": 521,
      "$#\"$$$#": 522,
      "\"!": 523,
      "%%$$%": 524,
      "Ğ$$#": 525,
      "Ġ%$$#": 526,
      "$$+": 527,
      "$$$$$$$$$#": 528,
      "$##%$$$$": 529,
      "$ğ&": 530,
      "$$%$$$$$": 531,
      "$$#$$$$$": 532,
      "$$$\"$$%": 533,
      "ĀĀ!Ā": 534,
      "!\"": 535,
      "Ğ$$%": 536,
      "ğ$$!": 537,
      "ĠĀ": 538,
      "Ġ$%": 539,
      "Ġ\"$$": 540,
      "$\")": 541,
      "$\"$$$$#": 542,
      "$$$$$$$$$%": 543,
      "ĀĀ/": 544,
      "#$$*": 545,
      "$##$$$%": 546,
      "\"$$$!": 547,
      "&$$$$\"": 548,
      "$ğ!": 549,
      "$&%$$$%": 550,
      "!&": 551,
      "'&": 552,
      "$$Ĝ": 553,
      "$%$%$$%": 554,
      "$#$&": 555,
      "$$%$$$&": 556,
      "$\"$%$$$$": 557,
      "$'*": 558,
      "#$$#$": 559,
      "#$$$&": 560,
      "$#%%$$$$": 561,
      "\"$$*": 562,
      "$*%": 563,
      "$%&#$$%": 564,
      "$%\"$$$#": 565,
      "$#&$$$%": 566,
      "!$$$$#": 567,
      "&'": 568,
      "'\"": 569,
      "'(": 570,
      "$#&$$$$": 571,
      "$#$#$$$$#": 572,
      "$$%$$#": 573,
      "$\"*": 574,
      "#$$Ğ": 575,
      "%$$ĝ": 576,
      "\"$$%$": 577,
      "'$$ğ": 578,
      "$%&$$$%": 579,
      "$$$&$$#": 580,
      "&#$$%": 581,
      "Ğ$$!": 582,
      "Ġĝ": 583,
      "Ġ&$$": 584,
      "Ġ%$$\"": 585,
      "Ġ#$$!": 586,
      "$%$\"$$$$": 587,
      "$$%$$$#": 588,
      "$\"Ğ": 589,
      "$$\"%$$#": 590,
      "$$$$$$$$$$$%": 591,
      "ĀĀ-": 592,
      "#$$$$!": 593,
      "#$$$$$$": 594,
      "$!)": 595,
      "$%$$$$&": 596,
      "#$$+": 597,
      "$)!": 598,
      "$&##$$#": 599,
      "$$$#$$$$$$%": 600,
      "$$$#$$$$$$#": 601,
      "ĀĀ(Ā": 602,
      "&(": 603,
      ")$$&": 604,
      "Ġ#$$#": 605,
      "Ġ$*": 606,
      "$$,": 607,
      "$\"$%$$#": 608,
      "$\"$%$$%": 609,
      "$$\"#$$#": 610,
      "ĀĀě": 611,
      "$$$%$$$$#": 612,
      "$!ğ": 613,
      "$#$$$$&": 614,
      "$%%#$$#": 615,
      "\"$$#$": 616,
      "#$$$$#%": 617,
      "!'": 618,
      "'$$$$#": 619,
      "'$$$$%": 620,
      "$#*": 621,
      "$&$#$$#": 622,
      "$()": 623,
      "$%%$$$&": 624,
      "!$$*": 625,
      "'$$*": 626,
      "'$$Ğ": 627,
      "$$%$$$$$$#": 628,
      "$$$&$$$$": 629,
      "#$$$$%#": 630,
      "ĀĀ)Ā": 631,
      "!$$$$%": 632,
      "\"#$$#": 633,
      "&$$$%": 634,
      "Ğ$$$$": 635,
      "Ğ$$&": 636,
      "Ġ$\"": 637,
      "Ġ$'": 638,
      "$$$)": 639,
      "$%$$$%": 640,
      "$%\"$$$$": 641,
      "$$%%$$#": 642,
      "$$##$$$$": 643,
      "$&$#$$%": 644,
      "$$\"$$$\"": 645,
      "%$$$$$&": 646,
      "$#$$$$\"": 647,
      "$ğ'": 648,
      "'$$$'": 649,
      "#$$&$": 650,
      "Ġ$$$!": 651,
      "$Ğ%": 652,
      "%$$$$#%": 653,
      "$$$$$$$$$$$$$$$$$$$$$$$$": 654,
      "ĀĀğĀ": 655,
      "##": 656,
      "(%": 657,
      ")&": 658,
      "Ġ%$$": 659,
      "Ġ#$$\"": 660,
      "Ġ\"$$\"": 661,
      "Ġ%$$!": 662,
      "$%$": 663,
      "$%*": 664,
      "$%$$$$$$$$$$$$": 665,
      "$#$$!": 666,
      "$\"#$$$$": 667,
      "$$&$$$%": 668,
      "$$$$$$$$$$$$#": 669,
      "#$$$$'": 670,
      "%$$$$$$": 671,
      "$'$$$$#": 672,
      "$!$$&": 673,
      "$%%\"$$%": 674,
      "$)'": 675,
      "!$$$!": 676,
      "Ġ$$)": 677,
      "$\"#%$$#": 678,
      "$%\"%$$#": 679,
      "$$$%$$$$$$%": 680,
      "$&\"$$$#": 681,
      "&%$$'": 682,
      "$ĀĀ": 683,
      "'*": 684,
      "Ě$$": 685,
      "ĝ$$%": 686,
      "Ğ%": 687,
      "Ġ$(": 688,
      "$%&$$$$": 689,
      "$%$#$$$$#": 690,
      "$#$": 691,
      "$$%#$$$$": 692,
      "$$%%$$$$": 693,
      "$&#$$$$": 694,
      "$$&#$$%": 695,
      "$$$$$$$$$$#": 696,
      "$$$#$$\"": 697,
      "$$$#$$$$#": 698,
      "$!$$$$#": 699,
      "$%%%$$$$": 700,
      "$&%#$$%": 701,
      "$$$%$$$$$$#": 702,
      "%$$$$##": 703,
      "$Ę": 704,
      "&%$$$$": 705,
      "ğ#": 706,
      "ğ%": 707,
      "Ġ$#": 708,
      "Ġ$!": 709,
      "$%+": 710,
      "$%#$$$\"": 711,
      "$#$%$$$$%": 712,
      "$&*": 713,
      "$&$$\"": 714,
      "$$&%$$%": 715,
      "$!Ğ": 716,
      "$%%%$$#": 717,
      "$##&$$$$": 718,
      "\"$$Ğ": 719,
      "%$$+": 720,
      "$)ğ": 721,
      "!$$ğ": 722,
      "$*&": 723,
      "&$$%$": 724,
      "%$$&$": 725,
      "$#&#$$%": 726,
      "$##$$$$$": 727,
      "%#": 728,
      "'!": 729,
      "*)": 730,
      "+ĀĀ": 731,
      "ĝ$$&": 732,
      "Ġ&$$#": 733,
      "$%Ĝ": 734,
      "$%$&$$#": 735,
      "$%$\"$$#": 736,
      "$##$$$\"": 737,
      "$$%&$$$$": 738,
      "$$$$$$$$$$$$$$$$$$$$": 739,
      "#$$$$$$#$$$$": 740,
      "$$$#$$$$%": 741,
      "$$$%$\"": 742,
      "$'Ğ": 743,
      "$ğ$$$$": 744,
      "&$$ĝ": 745,
      "'$$)": 746,
      "Ġ$$$\"": 747,
      "$%&%$$%": 748,
      "$Ğ\"": 749,
      "$\"#&$$#": 750,
      "($$(": 751,
      "($$)": 752,
      "%$$$$%#": 753,
      "ĀĀ'Ā": 754,
      "ĀĀĝĀ": 755,
      "\"(": 756,
      "&ĀĀ": 757,
      "*$$$$": 758,
      "*ĀĀ": 759,
      "Ġ$%#": 760,
      "$%ĝ": 761,
      "$%\"$$$\"": 762,
      "$$#&$$#": 763,
      "$$#$$$\"": 764,
      "$&$$&": 765,
      "$&$#$$$$": 766,
      "$\"%$$$$": 767,
      "#$$$$$%$$$$": 768,
      "$$$%$$$$%": 769,
      "$(ğ": 770,
      "$%%#$$&": 771,
      "$#%#$$&": 772,
      "$%#\"$$#": 773,
      "$###$$%": 774,
      "$##%$$%": 775,
      "$))": 776,
      "$&%%$$%": 777,
      "$Ğ#": 778,
      "$Ğ'": 779,
      "$$$$$$$$$$$$$": 780,
      "$\"#$$$#": 781,
      "$#&%$$%": 782,
      "$#\"%$$#": 783,
      "$\"%%$$%": 784,
      "\")": 785,
      "&)": 786,
      "()": 787,
      "*$$#": 788,
      "Ĝ$$": 789,
      "Ġ,": 790,
      "Ġ$$$$%": 791,
      "$$$\"$$$$": 792,
      "$$$$$$\"": 793,
      "$%$%$$$$%": 794,
      "$#$$'": 795,
      "$&$%$$$$": 796,
      "$&&$$$$": 797,
      "$&$%$$#": 798,
      "$#%$$$%$": 799,
      "$%##$$\"": 800,
      "%$$$\"": 801,
      "$*\"": 802,
      "$+!": 803,
      ")$$$'": 804,
      "!!": 805,
      "&%$$%": 806,
      "((": 807,
      ")%": 808,
      "Ā,": 809,
      "ĝ$$#": 810,
      "Ğ$$\"": 811,
      "ğ(": 812,
      "Ġ$$$$#": 813,
      "Ġ&$$\"": 814,
      "$%#$$%": 815,
      "$#+": 816,
      "$#,": 817,
      "$#$#$$$$%": 818,
      "$#$&$$#": 819,
      "$$%#$$#": 820,
      "$$#$$$%": 821,
      "$\"$$": 822,
      "$$&$$$&": 823,
      "$$$$$$$$$$$$%": 824,
      "#$$$$$$\"": 825,
      "$!*": 826,
      "$%$$$$\"": 827,
      "$#$$$$$$%$$$$": 828,
      "$($$$$": 829,
      "$%#%$$$$": 830,
      "\"$$+": 831,
      "\"$$ĝ": 832,
      "$ğğ": 833,
      "$*!": 834,
      "$*(": 835,
      "$*ğ": 836,
      "Ġ$$+": 837,
      "$&#$$$#": 838,
      "$#&&$$%": 839,
      "($$$(": 840,
      "$%%$$$$$": 841,
      "ĀĀ#Ā!": 842,
      "ĀĀ%Ā!": 843,
      "&$$$$%%": 844,
      "\"+": 845,
      "(*": 846,
      "Ġ+": 847,
      "Ġ.": 848,
      "ĠĀĀ": 849,
      "Ġ'$$#": 850,
      "$%$$!": 851,
      "$%$$'": 852,
      "$%%$$%": 853,
      "$#$$": 854,
      "$#$'$$#": 855,
      "$$#%$$%": 856,
      "$$#\"$$#": 857,
      "$&$": 858,
      "$&ĝ": 859,
      "$$$$$$$$$$$#": 860,
      "#$$$$$\"": 861,
      "$$$#$$&": 862,
      "$'ĝ": 863,
      "$!$$$$%": 864,
      "$%$$$$$": 865,
      "$#$$$$$$&": 866,
      "$#$$$$$$$#": 867,
      "$#$$$$$$$%": 868,
      "\"$$$$&": 869,
      "$#%$$$#": 870,
      "$#%%$$&": 871,
      "$%##$$$$": 872,
      "$)(": 873,
      "$ğ)": 874,
      "$ğĞ": 875,
      "&$$Ğ": 876,
      "$Ğ!": 877,
      "$%\"#$$#": 878,
      "$#\"#$$#": 879,
      "$#\"&$$#": 880,
      "($$ğ": 881,
      "$$$\"$$#": 882,
      "&$$\"$": 883,
      "ğ$$*": 884,
      "ğ$$$!": 885,
      "\"$$$$%#": 886,
      "\"&": 887,
      "\"ĀĀ": 888,
      "#&": 889,
      "%%": 890,
      "%)": 891,
      "''": 892,
      "+$$&": 893,
      "ę$$": 894,
      "ĠĜ": 895,
      "Ġ$%%": 896,
      "Ġ$%&": 897,
      "Ġ!$$\"": 898,
      "$%$#$$$$%": 899,
      "$#%$$#": 900,
      "$#$&$$$$": 901,
      "$#$%$$$$#": 902,
      "$$%\"$$$$": 903,
      "$$#%$$$$": 904,
      "$&$%$$%": 905,
      "$$$$$$$$$$%": 906,
      "%$$$$$$#$$$$": 907,
      "$!ĝ": 908,
      "$!$%$$%": 909,
      "$%#$$$%": 910,
      "$%#\"$$$$": 911,
      "\"$$$": 912,
      "\"$$Ĝ": 913,
      "\"$$$&": 914,
      "'$$+": 915,
      "Ġ$$ĝ": 916,
      "$$%$$$$$$%$$$$": 917,
      "$Ğ&": 918,
      "($$$'": 919,
      "$\"%$$$#": 920,
      "$\"$$$$&": 921,
      "#$$'$": 922,
      "ğ$$Ğ": 923,
      "ğ$$ğ": 924,
      "Ā%!": 925,
      "$$#$$$#$": 926,
      ")$$$(": 927,
      "ĀĀ#Ā#": 928,
      "ĀĀ\"Ā#": 929,
      "\"$$$$%%": 930,
      "ĀĀ,Ā": 931,
      "!ĀĀ": 932,
      "\"'": 933,
      "\"%$$#": 934,
      "($$$$%": 935,
      ")ĀĀ": 936,
      ")$$!": 937,
      "*$$%": 938,
      "+$$#": 939,
      "ě$$": 940,
      "Ĝ$$%": 941,
      "Ğ$$'": 942,
      "ğ$$(": 943,
      "Ġ$&#": 944,
      "Ġ!$$#": 945,
      "$%$&$$%": 946,
      "$%&$$$&": 947,
      "$#$$$#": 948,
      "$##$$#": 949,
      "$#$&$$%": 950,
      "$$%\"$$%": 951,
      "$$%#$$&": 952,
      "$&#$$$\"": 953,
      "$\"ě": 954,
      "$\"ĝ": 955,
      "$\"\"$$$$": 956,
      "$\"$#$$%": 957,
      "$$&#$$&": 958,
      "#$$$$$&": 959,
      "#$$$$$#$$$$": 960,
      "$$$%$$$$$$$$$$$$": 961,
      "$!$$\"": 962,
      "$%$$$$$$&": 963,
      "$%$$$$$$$#": 964,
      "$($$#": 965,
      "#$$,": 966,
      "#$$Ĝ": 967,
      "$#%&$$$$": 968,
      "$%##$$%": 969,
      "$##&$$#": 970,
      "\"$$,": 971,
      "&$$$$&": 972,
      "%$$,": 973,
      "%$$$'": 974,
      "$ğ(": 975,
      "&$$+": 976,
      "!$$$": 977,
      "$&%\"$$%": 978,
      "Ġ$$*": 979,
      "%$$\"$": 980,
      "#$$\"$": 981,
      "$\"#$$$%": 982,
      "$\"%$$$%": 983,
      "$+&": 984,
      "$\"$$$$$$%": 985,
      "'$$%$": 986,
      "Ā%#": 987,
      "ĀĀ!Ā#": 988,
      "&$$$$%#": 989,
      "ĀĀĞĀ": 990,
      "ĀĀĚĀ": 991,
      "%*": 992,
      "%%$$$$": 993,
      "(#": 994,
      "(&": 995,
      ")$$(": 996,
      "*$$&": 997,
      "*$$\"": 998,
      "+)": 999,
      "+$$$$": 1000,
      "-$$": 1001,
      "ĝ#": 1002,
      "ğ'": 1003,
      "Ġě": 1004,
      "Ġ\"$$#": 1005,
      "Ġ$+": 1006,
      "$%$$": 1007,
      "$%$$(": 1008,
      "$%$&$$$$": 1009,
      "$%$#$$$$$$$$": 1010,
      "$%$%$$\"": 1011,
      "$#$\"$$%": 1012,
      "$#&$$$&": 1013,
      "$#$%$$&": 1014,
      "$$%%$$&": 1015,
      "$$##$$%": 1016,
      "$$#%$$\"": 1017,
      "$&$\"$$%": 1018,
      "$\"+": 1019,
      "$\"$&$$#": 1020,
      "$$$$$$$$$$$": 1021,
      "#$$$$&%": 1022,
      "%$$$$'": 1023,
      "$'Ĝ": 1024,
      "$'$$&": 1025,
      "$'&$$": 1026,
      "$$!%$$#": 1027,
      "$$'%$$&": 1028,
      "$#$$$$$": 1029,
      "$#$$$$$$\"": 1030,
      "#$$ĝ": 1031,
      "$%%%$$&": 1032,
      "\"$$$$!": 1033,
      "$#%%$$#": 1034,
      "$#%\"$$$$": 1035,
      "$#%$$$&": 1036,
      "$%#%$$%": 1037,
      "$%#&$$#": 1038,
      "$%#%$$\"": 1039,
      "%$$Ĝ": 1040,
      "$)*": 1041,
      "&$$*": 1042,
      "&$$,": 1043,
      "!$$+": 1044,
      "$*#": 1045,
      "$*'": 1046,
      "$&%%$$#": 1047,
      "Ġ$$,": 1048,
      "$$$$$$$$$$$$$%$$$$": 1049,
      "$#&#$$&": 1050,
      "($$Ğ": 1051,
      "$+#": 1052,
      "$ĝ!": 1053,
      "$ĝ\"": 1054,
      "%$$$$#\"": 1055,
      "$\"\"%$$#": 1056,
      "$&$$$$$$%": 1057,
      "$&&$$$%": 1058,
      "ĀĀ%Ā\"": 1059,
      "Ġ\"$$!": 1060,
      "Ġ!$$!": 1061,
      "ĀĀ/Ā": 1062,
      "!%$$#": 1063,
      "\"*": 1064,
      "%$$$%$": 1065,
      "('": 1066,
      "+$$'": 1067,
      "ě$": 1068,
      "ěğ": 1069,
      "Ĝ#": 1070,
      "ĝ$$\"": 1071,
      "Ğ)": 1072,
      "Ġ$'%": 1073,
      "Ġ&$$!": 1074,
      "$%$#": 1075,
      "$%$$$$$$$$$$$$$$$$": 1076,
      "$%$#$$\"": 1077,
      "$#&$$": 1078,
      "$#$%$$$$$$$$": 1079,
      "$#\"$$$\"": 1080,
      "$\"$$'": 1081,
      "$\"$#$$&": 1082,
      "$$&&$$%": 1083,
      "ĀĀę": 1084,
      "$($$%": 1085,
      "#$$$": 1086,
      "#$$$'": 1087,
      "$%%#$$$$": 1088,
      "$%%&$$$$": 1089,
      "$%%#$$$$%": 1090,
      "$###$$$$": 1091,
      "$##%$$\"": 1092,
      "$###$$\"": 1093,
      "$)+": 1094,
      "$*)": 1095,
      "$&%$$$#": 1096,
      "$&%\"$$$$": 1097,
      "&$$#$": 1098,
      "Ġ$$$": 1099,
      "$%&\"$$&": 1100,
      "$&#\"$$#": 1101,
      "$\"##$$#": 1102,
      "$%\"%$$\"": 1103,
      "$\"%#$$%": 1104,
      "$\"%%$$&": 1105,
      "$+\"": 1106,
      "$+ğ": 1107,
      "!$$%$": 1108,
      "$&\"%$$#": 1109,
      "#$$!$": 1110,
      "$!#%$$#": 1111,
      "$%$$$$#$": 1112,
      "Ā%%": 1113,
      "$#!%$$#": 1114,
      "$$$$$$$$$$$$$$$$$$$": 1115,
      "$\"&%$$%": 1116,
      "ĀĀ#Ā'": 1117,
      "Ā&&": 1118,
      "ĀĀ$Ā#": 1119,
      "$$$'$$$$": 1120,
      "ĀĀ*Ā": 1121,
      "!)": 1122,
      "#%$$\"": 1123,
      "%$$$$$$$$$$$$": 1124,
      "&&$$%": 1125,
      "'#$$%": 1126,
      ")$$'": 1127,
      "*'": 1128,
      "+#": 1129,
      "+,": 1130,
      "-$": 1131,
      "ĝ$$'": 1132,
      "Ğ#": 1133,
      "ğğ": 1134,
      "Ġ%$$$$": 1135,
      "Ġ!$$": 1136,
      "Ġ'$$": 1137,
      "Ġ$%\"": 1138,
      "$%&$$": 1139,
      "$%$#$$&": 1140,
      "$#!$$$$": 1141,
      "$#$!$$%": 1142,
      "$$%$$$%$$%": 1143,
      "$$#\"$$$$": 1144,
      "$&$\"$$#": 1145,
      "$\"$$!": 1146,
      "$\"$#$$$$": 1147,
      "$$\"$$%": 1148,
      "ĀĀĔ": 1149,
      "%$$$$$\"": 1150,
      "%$$$$$#%$$$$": 1151,
      "$$$#$$$$##": 1152,
      "$'$$\"": 1153,
      "$%$$$$'": 1154,
      "$%$$$$$$$%": 1155,
      "$#$$$$%$$%": 1156,
      "$(+": 1157,
      "$(Ğ": 1158,
      "%$$%$!": 1159,
      "\"$$$$'": 1160,
      "$#%&$$%": 1161,
      "$#%&$$#": 1162,
      "$#%%$$\"": 1163,
      "$##\"$$#": 1164,
      "\"$$%$$#": 1165,
      "!$$ĝ": 1166,
      "$**": 1167,
      "$%&\"$$%": 1168,
      "$Ğğ": 1169,
      "$$#$$$$$$%$$$$": 1170,
      "$$$&$$$$#": 1171,
      "$&#%$$#": 1172,
      "$#&%$$&": 1173,
      "($$*": 1174,
      "$+%": 1175,
      "$+'": 1176,
      "$\"$$$$$$#": 1177,
      "$$$,": 1178,
      "$&\"#$$#": 1179,
      "$&&#$$%": 1180,
      "$#$$$$%$": 1181,
      "$%'#$$%": 1182,
      ")$$ğ": 1183,
      "$,%": 1184,
      "Ā!#": 1185,
      "Ā&\"": 1186,
      "ĀĀ!Ā\"": 1187,
      "Ā'&": 1188,
      "#$$$#$": 1189,
      "ĀĀ\"Ā\"": 1190,
      "$$$!$$%": 1191,
      "&$$$$#%": 1192,
      "!(": 1193,
      "!*": 1194,
      "!$$$#": 1195,
      "\"$": 1196,
      "\"Ĝ": 1197,
      "\"ğ": 1198,
      "\"\"$$#": 1199,
      "#$$$$$$$$$$$$": 1200,
      "&#$$&": 1201,
      "&'$$%": 1202,
      "'$$$%": 1203,
      "'%$$%": 1204,
      "(ĀĀ": 1205,
      ")\"": 1206,
      "*#": 1207,
      "*$$'": 1208,
      ",$$": 1209,
      "Ā.": 1210,
      "ě$$$$": 1211,
      "Ĝ%": 1212,
      "ĝ$$$$": 1213,
      "Ğ$$(": 1214,
      "ğĞ": 1215,
      "Ġ/": 1216,
      "Ġ$#!": 1217,
      "$$$$$$&": 1218,
      "$%$\"$$%": 1219,
      "$#ĝ": 1220,
      "$#$'$$$$": 1221,
      "$#'$$$&": 1222,
      "$&$!": 1223,
      "$&\"$$$$": 1224,
      "$\"#$$$\"": 1225,
      "$\"\"$$$\"": 1226,
      "$\"&$$$&": 1227,
      "$\"%$$$&": 1228,
      "$$\"\"$$#": 1229,
      "$$\"#$$\"": 1230,
      "#$$$$#$$$$": 1231,
      "%$$$$\"%": 1232,
      "$$$%$$\"": 1233,
      "$'%$$$$": 1234,
      "$'$#$$#": 1235,
      "$!$&": 1236,
      "$$!$$$\"": 1237,
      "$#$$$$$$#$$$$": 1238,
      "$(*": 1239,
      "$(,": 1240,
      "#$$.": 1241,
      "$%%&$$%": 1242,
      "$%%$$$%$": 1243,
      "$#%\"$$%": 1244,
      "$#%'$$%": 1245,
      "$##\"$$$$": 1246,
      "$##%$$$$%": 1247,
      "%$$ě": 1248,
      "'$$ĝ": 1249,
      "$&%$$&": 1250,
      "$&%#$$#": 1251,
      "Ġ$$Ğ": 1252,
      "$%&%$$&": 1253,
      "$$$$$$$$$$$$$$$": 1254,
      "#$$\"$&": 1255,
      "$&#$$$%": 1256,
      "$%\"!$$#": 1257,
      "($$+": 1258,
      "($$ĝ": 1259,
      "$\"%%$$#": 1260,
      "$\"$$$$\"": 1261,
      "#$$$$#$%$$$$": 1262,
      "$ĝ#": 1263,
      "$ĝ'": 1264,
      "!$$$$$%": 1265,
      "!$$#$": 1266,
      "$\"\"#$$#": 1267,
      "$&\"\"$$#": 1268,
      "$&$$$$'": 1269,
      "$&$$$$$$&": 1270,
      "'$$$$&": 1271,
      "ğ$$)": 1272,
      "&$$&$": 1273,
      "$#$$$$%#": 1274,
      "&%#$$%": 1275,
      "$'#$$$#": 1276,
      "Ġ$$$$&": 1277,
      "Ā%)": 1278,
      "Ā%*": 1279,
      "$$#$$$#$$#": 1280,
      ")$$Ğ": 1281,
      "Ā\"+": 1282,
      "$#'$$$%": 1283,
      "ĀĀ$ĀĞ": 1284,
      "ĀĀ&Ā!": 1285,
      "ĀĀ'Ā\"": 1286,
      "$#$$$$$$$$$$$": 1287,
      "\"$$$$#%": 1288,
      "%$$$$$$$$$#": 1289,
      "#$$$$$##$$#": 1290,
      "ĀĀ.Ā": 1291,
      "!ĝ": 1292,
      "\"%$$\"": 1293,
      "%ĝ": 1294,
      "%#$$$$": 1295,
      "&,": 1296,
      "')": 1297,
      "',": 1298,
      "))": 1299,
      "*$$!": 1300,
      "-ĀĀ": 1301,
      "Ě$$$$": 1302,
      "ě%": 1303,
      "ěĝ": 1304,
      "Ĝ$$$$": 1305,
      "Ĝ$$#": 1306,
      "ĜĀĀ": 1307,
      "ĝ&": 1308,
      "ğ&": 1309,
      "Ġ#$$$$": 1310,
      "Ġ$&\"": 1311,
      "Ġ$'#": 1312,
      "$%\"$$": 1313,
      "$%'$$$$": 1314,
      "$%$%$$$$#": 1315,
      "$%#$$$&": 1316,
      "$#$\"": 1317,
      "$#\"$$": 1318,
      "$#$$(": 1319,
      "$#$#$$&": 1320,
      "$$%$$%": 1321,
      "$$%&$$%": 1322,
      "$$%$$$%$": 1323,
      "$$#&$$$$": 1324,
      "$$#!$$#": 1325,
      "$&$$$%": 1326,
      "$&#$$%": 1327,
      "$\"\"$$": 1328,
      "$\"$%$$$$#": 1329,
      "$\"$&$$%": 1330,
      "$$&%$$&": 1331,
      "%$$$$$'": 1332,
      "$$$#$$$$%%": 1333,
      "$$$%$$$$%%": 1334,
      "$'$$$$%": 1335,
      "$!$%$$&": 1336,
      "$$!#$$#": 1337,
      "$$'$$$&": 1338,
      "$%$$$$#$$#": 1339,
      "$#$$$$%$$#": 1340,
      "$($$\"": 1341,
      "#$$%$$$$": 1342,
      "%$$%$(": 1343,
      "$#%#$$#": 1344,
      "$#%$$$'": 1345,
      "$%##$$$$%": 1346,
      "$%#$$$#$": 1347,
      "$##\"$$%": 1348,
      "$##&$$%": 1349,
      "$###$$$$%": 1350,
      "$###$$$$#": 1351,
      "$##$$$#$": 1352,
      "$)$$$$": 1353,
      "$ğ*": 1354,
      "&$$Ě": 1355,
      "&$$ě": 1356,
      "!$$-": 1357,
      "!$$Ğ": 1358,
      "$%&#$$&": 1359,
      "$%&&$$%": 1360,
      "$Ğ$$#": 1361,
      "$$$&$$$$%": 1362,
      "$&#&$$\"": 1363,
      "$\"##$$$$": 1364,
      "$\"#%$$\"": 1365,
      "$%\"#$$\"": 1366,
      "$%\"&$$\"": 1367,
      "$\"%&$$%": 1368,
      "$+Ğ": 1369,
      "$\"$$$$!": 1370,
      "$$$%$$$$&": 1371,
      "$&\"%$$\"": 1372,
      "$&&#$$&": 1373,
      "ğ$$Ĝ": 1374,
      "$%$$$$%#": 1375,
      "$#$$$$#$": 1376,
      "Ā%\"": 1377,
      "Ā%&": 1378,
      "Ā#&": 1379,
      "$#%$$$$$": 1380,
      "ĀĀ#Ā&": 1381,
      "ĀĀ%Ā#": 1382,
      "ĀĀ%Āğ": 1383,
      "$,'": 1384,
      "$,(": 1385,
      "$Ĝ!": 1386,
      "ĀĀ!ĀĞ": 1387,
      "Ā'%": 1388,
      "ĀĀ$Ā'": 1389,
      "$&!#$$#": 1390,
      "ĀĀ&Ā)": 1391,
      "$\"!%$$#": 1392,
      "Ā(#": 1393,
      "$%$$$$$$$$$$$": 1394,
      "&$$$$##": 1395,
      "$!$$$$&": 1396,
      "\"\"$$\"": 1397,
      "#%": 1398,
      "#)": 1399,
      "#ĝ": 1400,
      "&%$$&": 1401,
      "'ĀĀ": 1402,
      "'$$$$#%": 1403,
      ")Ğ": 1404,
      "*!": 1405,
      "*%": 1406,
      "*,": 1407,
      "*$$ğ": 1408,
      "+(": 1409,
      "+$$\"": 1410,
      ",$$#": 1411,
      "-,": 1412,
      "-$$#": 1413,
      ".ĀĀ": 1414,
      "/#": 1415,
      "Ę$$": 1416,
      "Ěĝ": 1417,
      "Ĝğ": 1418,
      "ĝ%": 1419,
      "ĝĝ": 1420,
      "ĝ$$)": 1421,
      "Ğ$$)": 1422,
      "ğ*": 1423,
      "ğ$$$$%": 1424,
      "Ġ$Ğ": 1425,
      "Ġ($$": 1426,
      "Ġ$'!": 1427,
      "Ġ*$$": 1428,
      "$%$!": 1429,
      "$%$\"$$&": 1430,
      "$#$(": 1431,
      "$##$$%": 1432,
      "$#$$$$$$$$$$$$$$$$": 1433,
      "$#$#$$\"": 1434,
      "$$%&$$&": 1435,
      "$$%%$$'": 1436,
      "$$#$$$$%": 1437,
      "$$##$$\"": 1438,
      "$$#%$$$$%": 1439,
      "$&+": 1440,
      "$&$\"$$$$": 1441,
      "$&\"$$$\"": 1442,
      "$&$#$$&": 1443,
      "$\",": 1444,
      "$\"Ĝ": 1445,
      "$\"#$$#": 1446,
      "$\"$#$$#": 1447,
      "$$\"&$$#": 1448,
      "$$$$$$$$#$$$$": 1449,
      "$$$$$$$$%$$$$": 1450,
      "ĀĀĘ": 1451,
      "#$$$$$$&": 1452,
      "%$$$$$$%$$$$": 1453,
      "%$$$$&%": 1454,
      "$$$#$$$$%#": 1455,
      "$$$%$\"#": 1456,
      "$',": 1457,
      "$'$$": 1458,
      "$'$\"$$%": 1459,
      "$!+": 1460,
      "$!Ĝ": 1461,
      "$$'$$$$": 1462,
      "$$'%$$%": 1463,
      "#$$ě": 1464,
      "\"$$$$$$#": 1465,
      "$#%#$$$$%": 1466,
      "$#%!$$%": 1467,
      "$%##$$$$#": 1468,
      "$%#\"$$\"": 1469,
      "\"$$.": 1470,
      "&$$$$$%": 1471,
      "&$$$$$$%": 1472,
      "%$$$": 1473,
      "!$$$ğ": 1474,
      "#$$&$!": 1475,
      "$&%#$$&": 1476,
      "\"$$#$%": 1477,
      "$%&$$$#": 1478,
      "$%&!$$%": 1479,
      "%$$&$!": 1480,
      "$$$&$$%": 1481,
      "$&#\"$$%": 1482,
      "$&##$$\"": 1483,
      "$\"#&$$%": 1484,
      "$%\"$$$%": 1485,
      "$%\"&$$#": 1486,
      "$#&%$$$$": 1487,
      "$\"%\"$$%": 1488,
      "$\"$$$$$$&": 1489,
      "$ĝ%": 1490,
      "$ĝ&": 1491,
      "$ĝĝ": 1492,
      "$ĝğ": 1493,
      "$$$%$$$$$$": 1494,
      "$\"\"$$$#": 1495,
      "$\"\"%$$\"": 1496,
      "$&$$$$\"": 1497,
      "$&$$$$&": 1498,
      "$&$$$$$$#": 1499,
      "\"$$\"$": 1500,
      "$!#$$$%": 1501,
      "$!#&$$#": 1502,
      "%$$!$": 1503,
      "$'##$$#": 1504,
      "Ā#!": 1505,
      ")$$*": 1506,
      "Ā\"%": 1507,
      "Ā\"Ğ": 1508,
      "$\"&#$$%": 1509,
      "$%!$$$#": 1510,
      "$%!#$$#": 1511,
      "$%#$$$$$": 1512,
      "$Ĝ(": 1513,
      "Ā&#": 1514,
      "$#'&$$%": 1515,
      "ĀĀ!Ā!": 1516,
      "$'\"%$$#": 1517,
      "Ġ%$$$%": 1518,
      "$&'#$$&": 1519,
      "$$$'$$#": 1520,
      "$$Ğ$": 1521,
      "ĀĀ'Ā'": 1522,
      "\"$$$$##": 1523,
      "$$$$#%$$$%": 1524,
      "$$$$#%%$$%": 1525,
      "$!!$$$#": 1526,
      "%$$($": 1527,
      "%$$$$$$%$$#": 1528,
      "%$$$$$$$$$$$": 1529,
      "#$$$$$$$$$$$": 1530,
      "%$$$$$%$$$%": 1531,
      "$#$$$$$$$$$$$$$": 1532,
      "$$$$$$$$$$$$$$$$$$$$$$$$$": 1533,
      "!$": 1534,
      "!+": 1535,
      "!,": 1536,
      "!Ğ": 1537,
      "#'": 1538,
      "#,": 1539,
      "$ė": 1540,
      "%&": 1541,
      "&#$$$$": 1542,
      "&\"$$%": 1543,
      "&\"$$&": 1544,
      "&($$$$": 1545,
      "($$$$#": 1546,
      "(#$$&": 1547,
      ")#": 1548,
      "+!": 1549,
      "+%": 1550,
      "+$$%": 1551,
      "--": 1552,
      ".,": 1553,
      ".-": 1554,
      ".$$": 1555,
      "ę$$%": 1556,
      "Ě$$%": 1557,
      "Ě$$'": 1558,
      "ě$$%": 1559,
      "Ĝ\"": 1560,
      "Ĝ*": 1561,
      "ĜĞ": 1562,
      "Ĝ$$'": 1563,
      "ğ!": 1564,
      "ğ\"": 1565,
      "Ġ%$$%": 1566,
      "Ġ\"$$$$": 1567,
      "Ġ!$$%": 1568,
      "ĠĀ&": 1569,
      "Ġ#$$ğ": 1570,
      "$$$ğ": 1571,
      "$%,": 1572,
      "$%\"$$%": 1573,
      "$%$$$%$$#": 1574,
      "$%&$$$'": 1575,
      "$%$!$$&": 1576,
      "$%$&$$&": 1577,
      "$#'$$$$": 1578,
      "$#$$)": 1579,
      "$##$$$&": 1580,
      "$$%&$$#": 1581,
      "$$#$$#": 1582,
      "$&-": 1583,
      "$&Ĝ": 1584,
      "$&$$'": 1585,
      "$&$#$$\"": 1586,
      "$&&$$$'": 1587,
      "$\"-": 1588,
      "$\"$\"": 1589,
      "$\"$$$#": 1590,
      "$\"%$$#": 1591,
      "$$&#$$$$": 1592,
      "$$\"$": 1593,
      "$$\"#$$%": 1594,
      "$$\"%$$\"": 1595,
      "#$$$$$$$#": 1596,
      "#$$$$$$$%": 1597,
      "#$$$$$%#": 1598,
      "#$$$$$##$$$$": 1599,
      "#$$$$\"#": 1600,
      "#$$$$\"%": 1601,
      "$'$": 1602,
      "$'+": 1603,
      "$'#$$$$": 1604,
      "$'$$!": 1605,
      "$''$$": 1606,
      "$'$&$$#": 1607,
      "$'%$$$&": 1608,
      "$!\"$$$\"": 1609,
      "$$!#$$!": 1610,
      "$$'$$$%": 1611,
      "$$'#$$%": 1612,
      "$$'#$$&": 1613,
      "$%$$$$%$$%": 1614,
      "$%$$$$$$#$$$$": 1615,
      "$%$$$$$$$&": 1616,
      "$#$$$$'": 1617,
      "$#$$$$$%$$$$": 1618,
      "$#$$$$&%": 1619,
      "$($": 1620,
      "$(ĝ": 1621,
      "%$$#$$#": 1622,
      "%$$%$#": 1623,
      "%$$%$$%": 1624,
      "%$$%$\"": 1625,
      "%$$%$\"#": 1626,
      "#$$$ğ": 1627,
      "$%%\"$$#": 1628,
      "$%%&$$#": 1629,
      "$%%%$$\"": 1630,
      "$%%$$$$$$$$$$$$": 1631,
      "$%%\"$$&": 1632,
      "$%%!$$$$": 1633,
      "$%%$$$'": 1634,
      "\"$$$$$$%": 1635,
      "\"$$$$&%": 1636,
      "\"$$$$\"#": 1637,
      "$#%\"$$&": 1638,
      "$#%%$$$$#": 1639,
      "$#%#$$%$": 1640,
      "$%##$$&": 1641,
      "$%#!$$$$": 1642,
      "$%#'$$#": 1643,
      "$###$$&": 1644,
      "$##%$$$$#": 1645,
      "$##'$$#": 1646,
      "&$$$$\"#": 1647,
      "&$$Ĝ": 1648,
      "!$$ě": 1649,
      "$*$": 1650,
      "$&%\"$$#": 1651,
      "$&%!$$%": 1652,
      "Ġ$$ě": 1653,
      "Ġ$$$ğ": 1654,
      "Ġ$$$Ğ": 1655,
      "$$%$$$$$$\"": 1656,
      "$Ğ(": 1657,
      "$ĞĞ": 1658,
      "$$#$$$$$$#$$$$": 1659,
      "#$$\"$$#": 1660,
      "$$$&$": 1661,
      "$$$&$$\"": 1662,
      "$&##$$%": 1663,
      "$&#%$$\"": 1664,
      "$\"#%$$$$": 1665,
      "$\"##$$\"": 1666,
      "$%\"\"$$#": 1667,
      "$%\"#$$!": 1668,
      "$#&\"$$%": 1669,
      "$#&'$$%": 1670,
      "$#\"&$$$$": 1671,
      "$#\"%$$\"": 1672,
      "($$$\"": 1673,
      "$\"%'$$%": 1674,
      "$+)": 1675,
      "#$$$$#\"": 1676,
      "$%$$#$": 1677,
      "$ĝ)": 1678,
      "$#$$%$": 1679,
      "$#$$#$": 1680,
      "\"$$&$": 1681,
      "\"$$&$!": 1682,
      "%$$$$%$%$$$$": 1683,
      "%$$$$%#$$$#": 1684,
      "$$$ě": 1685,
      "$\"\"&$$#": 1686,
      "'$$#$": 1687,
      "ğ$$+": 1688,
      "ğ$$-": 1689,
      "$!#\"$$%": 1690,
      "$!#&$$%": 1691,
      "$%$$$$%$": 1692,
      "$%$$$$%$%$$$$": 1693,
      "$'%$$$#": 1694,
      "$%'$$$%": 1695,
      ")$$+": 1696,
      "$#!#$$#": 1697,
      "$#!%$$\"": 1698,
      "$$$%$$%$": 1699,
      "ĀĀ#Ā%": 1700,
      "ĀĀ#Ā)": 1701,
      "ĀĀ%Ā&": 1702,
      "ĀĀ%Ā+": 1703,
      "$%!%$$\"": 1704,
      "$,\"": 1705,
      "$,ğ": 1706,
      "$!%&$$%": 1707,
      "!$$\"$&": 1708,
      "$#'#$$%": 1709,
      "ĀĀ!Āĝ": 1710,
      "'$$&$": 1711,
      "$'\"$$$#": 1712,
      "Ġ%&$$%": 1713,
      "$&'$$$%": 1714,
      "$&'#$$%": 1715,
      "$&'%$$%": 1716,
      "$\"'#$$&": 1717,
      "$\"!$$$#": 1718,
      "Ġ$$\"$": 1719,
      "$!\"$$$%": 1720,
      "$!&$$$%": 1721,
      "ĀĀ'Ā%": 1722,
      "ĀĀ'Ā&": 1723,
      "ĀĀ'Ā(": 1724,
      "$'&$$$%": 1725,
      "$'&\"$$%": 1726,
      "$-#": 1727,
      "ĀĀğĀ!": 1728,
      "Ġ'$$!": 1729,
      "$#$%$$#$": 1730,
      "$#$%$$%$": 1731,
      "#%$$#$": 1732,
      "%$$$$$$$$$$$#": 1733,
      "%$$$$$$$$$$$$%": 1734,
      "#$$$$\"&": 1735,
      "$$##$$#$": 1736,
      "#$$$$$#$$$#": 1737,
      "$#$$$$$$%$$$$#": 1738,
      "ĀĀĜĀ": 1739,
      "Ġ#$$ĝ": 1740,
      "$#$&$$&": 1741,
      "ĀĀěĀ": 1742,
      "!$%$$$$": 1743,
      "!#$$#": 1744,
      "!#$$!": 1745,
      "!$$$$%%": 1746,
      "#ě": 1747,
      "#Ğ": 1748,
      "#%$$$$": 1749,
      "%&$$%": 1750,
      "&ğ": 1751,
      "'ğ": 1752,
      "(!": 1753,
      "(Ğ": 1754,
      "($$$$#%": 1755,
      ")'": 1756,
      "*(": 1757,
      "*Ğ": 1758,
      "*$$*": 1759,
      "+$$(": 1760,
      "-%": 1761,
      "ėĀ": 1762,
      "ěě": 1763,
      "ěĜ": 1764,
      "ěĞ": 1765,
      "ě$$&": 1766,
      "ě$$\"": 1767,
      "ěĀĀ": 1768,
      "ě!$$": 1769,
      "Ĝ+": 1770,
      "Ĝ$$!": 1771,
      "Ĝ$$(": 1772,
      "ĝ$$!": 1773,
      "Ğ*": 1774,
      "Ğ$$Ğ": 1775,
      "Ğ$$#$": 1776,
      "ğĀĀ": 1777,
      "Ġ$$$%": 1778,
      "Ġ#$$%": 1779,
      "Ġ$#\"": 1780,
      "Ġ!$$$$": 1781,
      "Ġ$%!": 1782,
      "Ġ$&$$#": 1783,
      "ĠĀğ": 1784,
      "Ġ$$$$#%": 1785,
      "Ġğ$$#": 1786,
      "Ġ$$$$%%": 1787,
      "Ġ$\"(": 1788,
      "Ġ$%ğ": 1789,
      "Ġ\"$$ğ": 1790,
      "Ġ$(!": 1791,
      "$$ě": 1792,
      "$$$$\"": 1793,
      "$%$!$$$$": 1794,
      "$%$%$$&": 1795,
      "$%$!$$%": 1796,
      "$#ě": 1797,
      "$#Ĝ": 1798,
      "$#$$$#$": 1799,
      "$#$\"$$#": 1800,
      "$#$&$$$$%": 1801,
      "$##$$$!": 1802,
      "$$%\"$$&": 1803,
      "$$%%$$$$%": 1804,
      "$$%!$$$$": 1805,
      "$$#$$%": 1806,
      "$$#\"$$%": 1807,
      "$$#&$$%": 1808,
      "$$##$$$$%": 1809,
      "$$#($$#": 1810,
      "$$#$$$!": 1811,
      "$&,": 1812,
      "$&$$": 1813,
      "$&$$!": 1814,
      "$&$!$$%": 1815,
      "$&%$$$&": 1816,
      "$&$#$$!": 1817,
      "$\"&$$$$": 1818,
      "$\"&$$#": 1819,
      "$\"$\"$$%": 1820,
      "$\"$%$$\"": 1821,
      "$\"!$$$\"": 1822,
      "$\"&%$$'": 1823,
      "$$&$": 1824,
      "$$&&$$&": 1825,
      "$$\"$$$$%": 1826,
      "$$\"'$$#": 1827,
      "$$\"'$$\"": 1828,
      "$$$$$$$$$$$$##": 1829,
      "ĀĀĖ": 1830,
      "#$$$$$%%$$$$": 1831,
      "#$$$$$%#$$$$": 1832,
      "#$$$$&#": 1833,
      "%$$$$$$&": 1834,
      "%$$$$$$\"": 1835,
      "%$$$$$$$#$$$$": 1836,
      "$'!$$": 1837,
      "$'#$$$\"": 1838,
      "$'$%$$\"": 1839,
      "$!$": 1840,
      "$!$!": 1841,
      "$!\"$$$$": 1842,
      "$$!$$$$": 1843,
      "$$'$": 1844,
      "$$'!$$&": 1845,
      "$$'&$$'": 1846,
      "$%$$$$$$$%$$$$": 1847,
      "$#$$$$#$$#": 1848,
      "$($$!": 1849,
      "%$$#$&%": 1850,
      "%$$%$##": 1851,
      "%$$%$&#": 1852,
      "#$$/": 1853,
      "#$$ę": 1854,
      "#$$Ě": 1855,
      "$%%!$$%": 1856,
      "$%%%$$$$#": 1857,
      "$%%#$$'": 1858,
      "$%%$$$%$$%": 1859,
      "$%%#$$$$##": 1860,
      "\"$$$$$&": 1861,
      "\"$$$$$$&": 1862,
      "\"$$$$$'": 1863,
      "\"$$$$&#": 1864,
      "$#%\"$$#": 1865,
      "$#%$$$$$$$$$$$$": 1866,
      "$#%%$$$$%": 1867,
      "$#%%$$%$": 1868,
      "$%#\"$$%": 1869,
      "$%#!$$%": 1870,
      "$%#!$$#": 1871,
      "$%#'$$$$": 1872,
      "$##&$$\"": 1873,
      "$##%$$!": 1874,
      "$##($$#": 1875,
      "\"$$-": 1876,
      "\"$$$'": 1877,
      "\"$$$Ğ": 1878,
      "&$$$$'": 1879,
      "&$$$$$$%$$$$": 1880,
      "&$$$$&%": 1881,
      "%$$Ě": 1882,
      "%$$$(": 1883,
      "$)$": 1884,
      "$)ę": 1885,
      "$$$$#$#$$$$": 1886,
      "&$$$": 1887,
      "&$$.": 1888,
      "&$$$\"": 1889,
      "!$$Ĝ": 1890,
      "'$$,": 1891,
      "'$$Ĝ": 1892,
      "$*ĝ": 1893,
      "$*$$$$": 1894,
      "$&%%$$&": 1895,
      "Ġ$$Ĝ": 1896,
      "%$$&$#&": 1897,
      "$&#%$$$$": 1898,
      "$&##$$$$%": 1899,
      "$&#\"$$\"": 1900,
      "$#&\"$$&": 1901,
      "$#&&$$&": 1902,
      "($$/": 1903,
      "($$ě": 1904,
      "$\"%#$$&": 1905,
      "$++": 1906,
      "$\"$$$$'": 1907,
      "#$$$$#%$$$$": 1908,
      "$$(%$$&": 1909,
      "$ĝ$$%": 1910,
      "$$$\"$": 1911,
      "!$$%$%": 1912,
      "%$$$$%\"": 1913,
      "!$$$$&%": 1914,
      "$$$%$$$$$": 1915,
      "$$$-": 1916,
      "$\"\"\"$$%": 1917,
      "$\"\"\"$$#": 1918,
      "$\"\"%$$&": 1919,
      "$&\"&$$\"": 1920,
      "$&\"!$$\"": 1921,
      "$&&&$$%": 1922,
      "#$$'$$%": 1923,
      "ğ$$$ğ": 1924,
      "$!#%$$$$": 1925,
      "$!#%$$\"": 1926,
      "$%%$$$$$%%$$$$": 1927,
      "$'%$$$%": 1928,
      "$'%#$$&": 1929,
      "$#$$$$#$%$$$$": 1930,
      "&%\"$$%": 1931,
      "$'#&$$#": 1932,
      "Ā%ğ": 1933,
      "Ā##": 1934,
      "Ā#%": 1935,
      "Ā#(": 1936,
      "$#!$$$#": 1937,
      "Ā\"&": 1938,
      "Ā\"ĝ": 1939,
      "$$$$$$$$$$$$$$$$$$": 1940,
      "$\"&%$$#": 1941,
      "%$$'$": 1942,
      "ĀĀ%Ā)": 1943,
      "$,!": 1944,
      "$,#": 1945,
      "$Ĝ#": 1946,
      "\"$$'$": 1947,
      "\"$$'$%": 1948,
      "ĀĀ!Ā&": 1949,
      "Ā'!": 1950,
      "Ā''": 1951,
      "ĀĀ$Ā!": 1952,
      "ĀĀ$Āğ": 1953,
      "$&'&$$%": 1954,
      "$&!%$$#": 1955,
      "$&!\"$$#": 1956,
      "ĀĀ\"Ā!": 1957,
      "ĀĀ\"Ā'": 1958,
      "ĀĀ\"ĀĞ": 1959,
      "$$$'$$%": 1960,
      "Ā(%": 1961,
      "Ā(&": 1962,
      "Ā()": 1963,
      "Ġ&%$$%": 1964,
      "Ġ$$&$#!": 1965,
      "\"%%$$%": 1966,
      "$'&#$$%": 1967,
      "$'&#$$&": 1968,
      "$$$#$$#$": 1969,
      "$-(": 1970,
      "$-)": 1971,
      "$ě(": 1972,
      "ĀĀğĀ#": 1973,
      "#$$($": 1974,
      "ĀĀ)ĀĞ": 1975,
      "ĀĀ)Āğ": 1976,
      "$(#\"$$#": 1977,
      "$''%$$&": 1978,
      "($$\"$": 1979,
      "$(\"#$$#": 1980,
      "%$$ğ$": 1981,
      "Ğ$$+": 1982,
      "Ğ$$ĝ": 1983,
      "Ğ$$$ğ": 1984,
      "ĝ$$Ĝ": 1985,
      "ĝ$$ĝ": 1986,
      "ĝ$$$ğ": 1987,
      "ĀĀĝĀ&": 1988,
      "ĀĀĝĀ'": 1989,
      "ĀĀĝĀğ": 1990,
      "$.&": 1991,
      "%$$$$$$$$$$$%": 1992,
      "#$$$$$$$$$$$#": 1993,
      "Ā+#": 1994,
      "Ā+)": 1995,
      "\"\"$$$#": 1996,
      "\"\"%$$#": 1997,
      "$$$$$$#$": 1998,
      "$%$%$$$$$#": 1999,
      "%$$$$&!": 2000,
      "$#$#$$$$&": 2001,
      "*$$,": 2002,
      "$#$&$$'": 2003,
      "!-": 2004,
      "!$$$$#%": 2005,
      "\"%$$$$": 2006,
      "\"&$$#": 2007,
      "\"#$$\"": 2008,
      "#$": 2009,
      "#(": 2010,
      "##$$$$": 2011,
      "#$$$%": 2012,
      "##$$\"": 2013,
      "#%$$$$#": 2014,
      "%$$$#": 2015,
      "%#$$%$": 2016,
      "&-": 2017,
      "&!$$%": 2018,
      "'Ğ": 2019,
      "'%$$#": 2020,
      "'&$$$$": 2021,
      "'&$$%": 2022,
      "'#$$'": 2023,
      "(/": 2024,
      ")!": 2025,
      ")*": 2026,
      ")-": 2027,
      "*\"": 2028,
      "*$$(": 2029,
      "+$$!": 2030,
      "+$$)": 2031,
      ",&": 2032,
      ",Ě": 2033,
      "-\"": 2034,
      "/ĀĀ": 2035,
      "ĀĚ": 2036,
      "Ę!": 2037,
      "ęĚ": 2038,
      "ęĞ": 2039,
      "ę$$\"": 2040,
      "Ě.": 2041,
      "ĚĞ": 2042,
      "Ě$$\"": 2043,
      "ě$$'": 2044,
      "ě&$$": 2045,
      "Ĝ&": 2046,
      "Ĝ$$&": 2047
    },
    "merges": [
      "$ $",
      "$$ $$",
      "$ %",
      "$ #",
      "$$ %",
      "$$ #",
      "$ &",
      "$ \"",
      "$$ &",
      "$$ \"",
      "$$$$ $$$$",
      "Ā Ā",
      "# $$$$",
      "% $$$$",
      "$$ $#",
      "$$ $%",
      "$ '",
      "$ !",
      "$$ !",
      "$$ '",
      "$% $$$$",
      "$# $$$$",
      "$ (",
      "# $$%",
      "% $$#",
      "% $$%",
      "# $$#",
      "# $$",
      "$% %",
      "\" $$$$",
      "$# %",
      "$% #",
      "$# #",
      "\" $$",
      "& $$$$",
      "% $$",
      "$ )",
      "$ ğ",
      "$$$$ #",
      "& $$",
      "$$$$ %",
      "\" $$%",
      "! $$",
      "' $$",
      "$ *",
      "# $$&",
      "& $$%",
      "$& %",
      "\" $$#",
      "& $$#",
      "Ġ $$",
      "$$% $$$$",
      "$% &",
      "% $$\"",
      "$ Ğ",
      "$$# $$$$",
      "$$$$$$$$ $$$$",
      "% $$&",
      "# $$\"",
      "$$ $&",
      "$& #",
      "$\" #",
      "$% \"",
      "$# &",
      "$# \"",
      "( $$",
      "$\" %",
      "$ +",
      "$\" $$$$",
      "#$$$$ %",
      "#$$$$ #",
      "$$ (",
      "$% $$#",
      "$ ĝ",
      "$# $$%",
      "$# $$#",
      "\" $$&",
      "$$ $\"",
      "! $$%",
      "$% $$%",
      "%$$$$ %",
      "! $$$$",
      "$$$% $$$$",
      "$$ $",
      "%$$$$ #",
      "! $$#",
      "$\" \"",
      "$& \"",
      "$& $$$$",
      "# $$!",
      "& $$\"",
      "\" $$\"",
      "$& &",
      "$$$# $$$$",
      "' $$%",
      "' $$#",
      "' $$$$",
      "# $$'",
      "ğ $$",
      "$! #",
      "$% %$$$$",
      "& $$&",
      "$%$$$$ %",
      "% $$!",
      "$' %",
      "$#$$$$ %",
      "$%$$$$ #",
      "$#$$$$ #",
      "$# #$$$$",
      "& %",
      "$' #",
      "Ġ $$$$",
      "Ā %",
      "Ā #",
      "$% '",
      "$$# $$$#",
      ") $$",
      "$# !",
      "$$$% $$%",
      "Ā \"",
      "$$$$$$$$ $$$$$$$$",
      "$\" &",
      "$# %$$$$",
      "$$$% $",
      "ĀĀ #",
      "! $$&",
      "% $$'",
      "ĀĀ %",
      "$% !",
      "$ ,",
      "$% #$$$$",
      "$! %",
      "Ġ \"",
      "! $$\"",
      "Ā !",
      "Ġ $$#",
      "Ġ #",
      "$$ ğ",
      "$ Ĝ",
      "Ā &",
      "\" $$'",
      "$$$# $$%",
      "Ġ $$%",
      "$# '",
      "ĀĀ !",
      "$$ )",
      "Ā '",
      "' $$\"",
      "ĀĀ $",
      "' $$&",
      "$' \"",
      "Ġ %",
      "$& '",
      "$& !",
      "$\" '",
      "\" $$!",
      "$$$% $$#",
      "# $$$#",
      "$& $$#",
      "ĀĀ \"",
      "ĀĀ &",
      "$\" $$%",
      "& $$!",
      "$$ $'",
      "$\" !",
      "( $$#",
      "Ġ $$\"",
      "$% (",
      "$$ Ğ",
      "$! \"",
      "& $$'",
      "#$$ $\"",
      "\"$$$$ %",
      "$$$# $",
      "$( %",
      "$! &",
      "Ā (",
      "$$ $!",
      "ĀĀ '",
      "Ġ !",
      "Ġ &",
      "& #",
      "Ġ $$&",
      "\" #",
      "\" %",
      "$' &",
      "$%# $$$#",
      "$$$# $$#",
      "$ -",
      "&$$$$ %",
      "$# $$$$$$$$",
      "$ ě",
      "$\" $$#",
      "\"$$$$ #",
      "! $$'",
      "Ā )",
      "ĀĀ ğ",
      "#$$ (",
      "$% $$$$$$$$",
      "$& (",
      "ĀĀ )",
      "$( #",
      "$' '",
      "Ā Ğ",
      "$$% $$$%",
      "$& $$%",
      "\"$$ $\"",
      "Ā ğ",
      "$$ *",
      "$$$$# %",
      "\"$$ (",
      "&$$$$ #",
      "! $$!",
      "$! !",
      "( $$$$",
      "( $$%",
      "Ġ $$!",
      "$%$$$$ $$%",
      "$( &",
      "$#% $$$%",
      "#$$$$ &",
      "Ġ $$'",
      "$! $$$$",
      "( $$\"",
      "$% $#$$$$",
      "$( \"",
      "$## $$$#",
      "%$$ (",
      "$$$$# #",
      "ğ $$#",
      "Ġ '",
      "$# $%$$$$",
      "$$# %$$#",
      "$' (",
      "$$$$% %",
      "#$$ ğ",
      "$%% $$$%",
      "&$$ $&",
      "Ġ $&",
      "#$$% $",
      "%$$ ğ",
      "Ğ $$",
      "$# $$&",
      "$# $%$$#",
      "ĝ $$",
      "$$$$ $$%",
      "$# (",
      "$# $%$$%",
      "ĀĀ (",
      "$! '",
      "$#$$$$ $$#",
      "$( '",
      "#$$$$ $$%",
      "ğ $$%",
      "ĀĀ ĝ",
      "%$$$$ $$%",
      "# %$$#",
      "$ .",
      "% $$$$$$$$",
      "Ā *",
      "# $$$$$$$$",
      "Ā +",
      "$% $$&",
      "$\" (",
      "$%% #$$%",
      "\" \"",
      "ğ $$&",
      "$# $#$$%",
      "ĀĀ Ğ",
      "$' !",
      "#$$ )",
      "$$$$ $$#",
      "$% ğ",
      "$% $%$$$$",
      "$% $#$$#",
      "' $$'",
      "( $$&",
      "%$$$$ &",
      "$%# #$$#",
      "$## %$$#",
      "Ġ $",
      "$# $#$$$$",
      "%$$$$ $$#",
      "%$$% $",
      "$' $$$$",
      "Ġ (",
      "$# $$\"",
      "$#% #$$%",
      "% $$$%",
      "* $$",
      "Ā ĝ",
      "$% $$\"",
      "$$% #$$%",
      "$& )",
      "$ Ě",
      "Ġ ğ",
      "$$$$$$$$ %",
      "#$$$$ \"",
      "$% $#$$%",
      "%$$$$ $",
      "$! $$%",
      "% #$$%",
      "$% )",
      "$$# #$$#",
      "$& $$$$%",
      "#$$$$ $#",
      "#$$$$ $$#",
      "$#$$$$ $$%",
      "$( (",
      "$ğ #",
      "& &",
      "$# ğ",
      "$$% %$$%",
      "$\" $$$$%",
      "$$$$$$$$ #",
      "%$$$$ $%",
      "$! (",
      "%$$ )",
      "%$$ $&",
      "# #$$#",
      "Ġ )",
      "$#% %$$%",
      "$) \"",
      "&$$ (",
      "' $$!",
      "$& $$$$#",
      "$$& $$$$",
      "ĀĀ ,",
      "%$$$$ $#",
      "$) %",
      "Ġ$$ (",
      "ĀĀ# Ā",
      "$$\" $$$$",
      "$#$$$$ $$",
      "+ $$",
      "$' $$#",
      "$%$$$$ $$#",
      "\"$$ ğ",
      "& \"",
      "ğ $$\"",
      "Ġ Ğ",
      "$% $%$$#",
      "$# \"$$$$",
      "ĀĀ +",
      "ĀĀ% Ā",
      "! %",
      ") $$%",
      "ĀĀ *",
      "ĀĀ Ĝ",
      "$%# %$$#",
      "$## #$$#",
      "!$$ (",
      "Ġ #$$",
      "$$# $",
      "$\" ğ",
      "#$$$$ $%",
      "%$$$$ \"",
      "$' )",
      "$( !",
      "$) #",
      "$) &",
      "' %",
      "ğ $$'",
      "$# $$$$$$$$$$$$",
      "$\" $$&",
      "$$$# $$$$$$$$",
      "$ğ \"",
      "'$$ $&",
      "%$$$$% %",
      "Ġ *",
      "$$ ĝ",
      "$$$% $%",
      "\"$$ )",
      "'$$ (",
      "ĀĀ& Ā",
      "( $$'",
      "$# )",
      "$$$% $$$$$$$$",
      "&$$ ğ",
      "$# $#$$#",
      "$$% $",
      "#$$$$ $",
      "$! $$#",
      "\"$$$$ \"",
      "!$$ $\"",
      "! #",
      "$ /",
      "Ġ $$$#",
      "$$ $(",
      "$% Ğ",
      "$& ğ",
      "$$\" $$$#",
      "ĀĀ Ě",
      "$' ğ",
      "$ğ %",
      "\" $$$#",
      ") $$\"",
      "ĀĀ .",
      "$' $$%",
      "%$$# $",
      "$%% %$$%",
      "!$$ )",
      "$$%$$$$ $$%",
      "$$#$$$$ $$#",
      "#$$$$% %",
      "#$$$$# #",
      "ĀĀ$ Ā",
      "' #",
      "Ġ $)",
      "$# Ğ",
      "$\" $$\"",
      "$$$% $$&",
      "%$$ *",
      "&$$ $'",
      "ĀĀ\" Ā",
      "( $$!",
      ") $$#",
      "$& %$$$$",
      "$%$$$$ $$",
      "#$$ $!",
      "$%% $$$#",
      "%$$ Ğ",
      "&$$ )",
      "$$$$% #",
      "$$#$$$$ $$%",
      "$ ę",
      ") $$$$",
      ", ĀĀ",
      "ğ $$$$",
      "$& Ğ",
      "Ġ$$ ğ",
      "$#\" $$$#",
      "\" !",
      "% %$$%",
      "Ğ $$#",
      "Ġ %$$#",
      "$$ +",
      "$$$$$$$$ $#",
      "$## %$$$$",
      "$ğ &",
      "$$%$$$$ $",
      "$$#$$$$ $",
      "$$$\" $$%",
      "ĀĀ! Ā",
      "! \"",
      "Ğ $$%",
      "ğ $$!",
      "Ġ Ā",
      "Ġ $%",
      "Ġ \"$$",
      "$\" )",
      "$\" $$$$#",
      "$$$$$$$$ $%",
      "ĀĀ /",
      "#$$ *",
      "$## $$$%",
      "\"$$ $!",
      "&$$$$ \"",
      "$ğ !",
      "$&% $$$%",
      "! &",
      "' &",
      "$$ Ĝ",
      "$% $%$$%",
      "$# $&",
      "$$% $$$&",
      "$\" $%$$$$",
      "$' *",
      "#$$# $",
      "#$$ $&",
      "$#% %$$$$",
      "\"$$ *",
      "$* %",
      "$%& #$$%",
      "$%\" $$$#",
      "$#& $$$%",
      "! $$$$#",
      "& '",
      "' \"",
      "' (",
      "$# &$$$$",
      "$# $#$$$$#",
      "$$% $$#",
      "$\" *",
      "#$$ Ğ",
      "%$$ ĝ",
      "\"$$% $",
      "'$$ ğ",
      "$%& $$$%",
      "$$$& $$#",
      "& #$$%",
      "Ğ $$!",
      "Ġ ĝ",
      "Ġ &$$",
      "Ġ %$$\"",
      "Ġ #$$!",
      "$% $\"$$$$",
      "$$% $$$#",
      "$\" Ğ",
      "$$\" %$$#",
      "$$$$$$$$ $$$%",
      "ĀĀ -",
      "#$$$$ !",
      "#$$$$ $$",
      "$! )",
      "$%$$$$ &",
      "#$$ +",
      "$) !",
      "$&# #$$#",
      "$$$#$$$$ $$%",
      "$$$#$$$$ $$#",
      "ĀĀ( Ā",
      "& (",
      ") $$&",
      "Ġ #$$#",
      "Ġ $*",
      "$$ ,",
      "$\" $%$$#",
      "$\" $%$$%",
      "$$\" #$$#",
      "ĀĀ ě",
      "$$$% $$$$#",
      "$! ğ",
      "$#$$$$ &",
      "$%% #$$#",
      "\"$$# $",
      "#$$$$# %",
      "! '",
      "' $$$$#",
      "' $$$$%",
      "$# *",
      "$& $#$$#",
      "$( )",
      "$%% $$$&",
      "!$$ *",
      "'$$ *",
      "'$$ Ğ",
      "$$%$$$$ $$#",
      "$$$& $$$$",
      "#$$$$% #",
      "ĀĀ) Ā",
      "! $$$$%",
      "\" #$$#",
      "& $$$%",
      "Ğ $$$$",
      "Ğ $$&",
      "Ġ $\"",
      "Ġ $'",
      "$$ $)",
      "$% $$$%",
      "$% \"$$$$",
      "$$% %$$#",
      "$$# #$$$$",
      "$& $#$$%",
      "$$\" $$$\"",
      "%$$$$ $&",
      "$#$$$$ \"",
      "$ğ '",
      "'$$ $'",
      "#$$& $",
      "Ġ$$ $!",
      "$Ğ %",
      "%$$$$# %",
      "$$$$$$$$$$$$$$$$ $$$$$$$$",
      "ĀĀğ Ā",
      "# #",
      "( %",
      ") &",
      "Ġ %$$",
      "Ġ #$$\"",
      "Ġ \"$$\"",
      "Ġ %$$!",
      "$% $",
      "$% *",
      "$% $$$$$$$$$$$$",
      "$# $$!",
      "$\" #$$$$",
      "$$& $$$%",
      "$$$$$$$$ $$$$#",
      "#$$$$ '",
      "%$$$$ $$",
      "$' $$$$#",
      "$! $$&",
      "$%% \"$$%",
      "$) '",
      "!$$ $!",
      "Ġ$$ )",
      "$\"# %$$#",
      "$%\" %$$#",
      "$$$%$$$$ $$%",
      "$&\" $$$#",
      "&% $$'",
      "$ ĀĀ",
      "' *",
      "Ě $$",
      "ĝ $$%",
      "Ğ %",
      "Ġ $(",
      "$% &$$$$",
      "$% $#$$$$#",
      "$# $",
      "$$% #$$$$",
      "$$% %$$$$",
      "$& #$$$$",
      "$$& #$$%",
      "$$$$$$$$ $$#",
      "$$$# $$\"",
      "$$$# $$$$#",
      "$! $$$$#",
      "$%% %$$$$",
      "$&% #$$%",
      "$$$%$$$$ $$#",
      "%$$$$# #",
      "$ Ę",
      "& %$$$$",
      "ğ #",
      "ğ %",
      "Ġ $#",
      "Ġ $!",
      "$% +",
      "$% #$$$\"",
      "$# $%$$$$%",
      "$& *",
      "$& $$\"",
      "$$& %$$%",
      "$! Ğ",
      "$%% %$$#",
      "$## &$$$$",
      "\"$$ Ğ",
      "%$$ +",
      "$) ğ",
      "!$$ ğ",
      "$* &",
      "&$$% $",
      "%$$& $",
      "$#& #$$%",
      "$##$$$$ $",
      "% #",
      "' !",
      "* )",
      "+ ĀĀ",
      "ĝ $$&",
      "Ġ &$$#",
      "$% Ĝ",
      "$% $&$$#",
      "$% $\"$$#",
      "$# #$$$\"",
      "$$% &$$$$",
      "$$$$$$$$ $$$$$$$$$$$$",
      "#$$$$ $$#$$$$",
      "$$$# $$$$%",
      "$$$% $\"",
      "$' Ğ",
      "$ğ $$$$",
      "&$$ ĝ",
      "'$$ )",
      "Ġ$$ $\"",
      "$%& %$$%",
      "$Ğ \"",
      "$\"# &$$#",
      "($$ (",
      "($$ )",
      "%$$$$% #",
      "ĀĀ' Ā",
      "ĀĀĝ Ā",
      "\" (",
      "& ĀĀ",
      "* $$$$",
      "* ĀĀ",
      "Ġ $%#",
      "$% ĝ",
      "$% \"$$$\"",
      "$$# &$$#",
      "$$# $$$\"",
      "$& $$&",
      "$& $#$$$$",
      "$\" %$$$$",
      "#$$$$ $%$$$$",
      "$$$% $$$$%",
      "$( ğ",
      "$%% #$$&",
      "$#% #$$&",
      "$%# \"$$#",
      "$## #$$%",
      "$## %$$%",
      "$) )",
      "$&% %$$%",
      "$Ğ #",
      "$Ğ '",
      "$$$$$$$$$$$$ $",
      "$\"# $$$#",
      "$#& %$$%",
      "$#\" %$$#",
      "$\"% %$$%",
      "\" )",
      "& )",
      "( )",
      "* $$#",
      "Ĝ $$",
      "Ġ ,",
      "Ġ $$$$%",
      "$$ $\"$$$$",
      "$$$$ $$\"",
      "$% $%$$$$%",
      "$# $$'",
      "$& $%$$$$",
      "$& &$$$$",
      "$& $%$$#",
      "$#% $$$%$",
      "$%# #$$\"",
      "%$$ $\"",
      "$* \"",
      "$+ !",
      ")$$ $'",
      "! !",
      "& %$$%",
      "( (",
      ") %",
      "Ā ,",
      "ĝ $$#",
      "Ğ $$\"",
      "ğ (",
      "Ġ $$$$#",
      "Ġ &$$\"",
      "$% #$$%",
      "$# +",
      "$# ,",
      "$# $#$$$$%",
      "$# $&$$#",
      "$$% #$$#",
      "$$# $$$%",
      "$\" $$",
      "$$& $$$&",
      "$$$$$$$$ $$$$%",
      "#$$$$ $$\"",
      "$! *",
      "$%$$$$ \"",
      "$#$$$$ $$%$$$$",
      "$( $$$$",
      "$%# %$$$$",
      "\"$$ +",
      "\"$$ ĝ",
      "$ğ ğ",
      "$* !",
      "$* (",
      "$* ğ",
      "Ġ$$ +",
      "$&# $$$#",
      "$#& &$$%",
      "($$ $(",
      "$%%$$$$ $",
      "ĀĀ# Ā!",
      "ĀĀ% Ā!",
      "&$$$$% %",
      "\" +",
      "( *",
      "Ġ +",
      "Ġ .",
      "Ġ ĀĀ",
      "Ġ '$$#",
      "$% $$!",
      "$% $$'",
      "$% %$$%",
      "$# $$",
      "$# $'$$#",
      "$$# %$$%",
      "$$# \"$$#",
      "$& $",
      "$& ĝ",
      "$$$$$$$$ $$$#",
      "#$$$$ $\"",
      "$$$# $$&",
      "$' ĝ",
      "$! $$$$%",
      "$%$$$$ $",
      "$#$$$$ $$&",
      "$#$$$$ $$$#",
      "$#$$$$ $$$%",
      "\"$$$$ &",
      "$#% $$$#",
      "$#% %$$&",
      "$%# #$$$$",
      "$) (",
      "$ğ )",
      "$ğ Ğ",
      "&$$ Ğ",
      "$Ğ !",
      "$%\" #$$#",
      "$#\" #$$#",
      "$#\" &$$#",
      "($$ ğ",
      "$$$\" $$#",
      "&$$\" $",
      "ğ$$ *",
      "ğ$$ $!",
      "\"$$$$% #",
      "\" &",
      "\" ĀĀ",
      "# &",
      "% %",
      "% )",
      "' '",
      "+ $$&",
      "ę $$",
      "Ġ Ĝ",
      "Ġ $%%",
      "Ġ $%&",
      "Ġ !$$\"",
      "$% $#$$$$%",
      "$# %$$#",
      "$# $&$$$$",
      "$# $%$$$$#",
      "$$% \"$$$$",
      "$$# %$$$$",
      "$& $%$$%",
      "$$$$$$$$ $$%",
      "%$$$$ $$#$$$$",
      "$! ĝ",
      "$! $%$$%",
      "$%# $$$%",
      "$%# \"$$$$",
      "\"$$ $",
      "\"$$ Ĝ",
      "\"$$ $&",
      "'$$ +",
      "Ġ$$ ĝ",
      "$$%$$$$ $$%$$$$",
      "$Ğ &",
      "($$ $'",
      "$\"% $$$#",
      "$\"$$$$ &",
      "#$$' $",
      "ğ$$ Ğ",
      "ğ$$ ğ",
      "Ā% !",
      "$$#$$$# $",
      ")$$ $(",
      "ĀĀ# Ā#",
      "ĀĀ\" Ā#",
      "\"$$$$% %",
      "ĀĀ, Ā",
      "! ĀĀ",
      "\" '",
      "\" %$$#",
      "( $$$$%",
      ") ĀĀ",
      ") $$!",
      "* $$%",
      "+ $$#",
      "ě $$",
      "Ĝ $$%",
      "Ğ $$'",
      "ğ $$(",
      "Ġ $&#",
      "Ġ !$$#",
      "$% $&$$%",
      "$% &$$$&",
      "$# $$$#",
      "$# #$$#",
      "$# $&$$%",
      "$$% \"$$%",
      "$$% #$$&",
      "$& #$$$\"",
      "$\" ě",
      "$\" ĝ",
      "$\" \"$$$$",
      "$\" $#$$%",
      "$$& #$$&",
      "#$$$$ $&",
      "#$$$$ $#$$$$",
      "$$$% $$$$$$$$$$$$",
      "$! $$\"",
      "$%$$$$ $$&",
      "$%$$$$ $$$#",
      "$( $$#",
      "#$$ ,",
      "#$$ Ĝ",
      "$#% &$$$$",
      "$%# #$$%",
      "$## &$$#",
      "\"$$ ,",
      "&$$$$ &",
      "%$$ ,",
      "%$$ $'",
      "$ğ (",
      "&$$ +",
      "!$$ $",
      "$&% \"$$%",
      "Ġ$$ *",
      "%$$\" $",
      "#$$\" $",
      "$\"# $$$%",
      "$\"% $$$%",
      "$+ &",
      "$\"$$$$ $$%",
      "'$$% $",
      "Ā% #",
      "ĀĀ! Ā#",
      "&$$$$% #",
      "ĀĀĞ Ā",
      "ĀĀĚ Ā",
      "% *",
      "% %$$$$",
      "( #",
      "( &",
      ") $$(",
      "* $$&",
      "* $$\"",
      "+ )",
      "+ $$$$",
      "- $$",
      "ĝ #",
      "ğ '",
      "Ġ ě",
      "Ġ \"$$#",
      "Ġ $+",
      "$% $$",
      "$% $$(",
      "$% $&$$$$",
      "$% $#$$$$$$$$",
      "$% $%$$\"",
      "$# $\"$$%",
      "$# &$$$&",
      "$# $%$$&",
      "$$% %$$&",
      "$$# #$$%",
      "$$# %$$\"",
      "$& $\"$$%",
      "$\" +",
      "$\" $&$$#",
      "$$$$$$$$ $$$",
      "#$$$$ &%",
      "%$$$$ '",
      "$' Ĝ",
      "$' $$&",
      "$' &$$",
      "$$! %$$#",
      "$$' %$$&",
      "$#$$$$ $",
      "$#$$$$ $$\"",
      "#$$ ĝ",
      "$%% %$$&",
      "\"$$$$ !",
      "$#% %$$#",
      "$#% \"$$$$",
      "$#% $$$&",
      "$%# %$$%",
      "$%# &$$#",
      "$%# %$$\"",
      "%$$ Ĝ",
      "$) *",
      "&$$ *",
      "&$$ ,",
      "!$$ +",
      "$* #",
      "$* '",
      "$&% %$$#",
      "Ġ$$ ,",
      "$$$$$$$$$$$$ $%$$$$",
      "$#& #$$&",
      "($$ Ğ",
      "$+ #",
      "$ĝ !",
      "$ĝ \"",
      "%$$$$# \"",
      "$\"\" %$$#",
      "$&$$$$ $$%",
      "$&& $$$%",
      "ĀĀ% Ā\"",
      "Ġ\" $$!",
      "Ġ! $$!",
      "ĀĀ/ Ā",
      "! %$$#",
      "\" *",
      "% $$$%$",
      "( '",
      "+ $$'",
      "ě $",
      "ě ğ",
      "Ĝ #",
      "ĝ $$\"",
      "Ğ )",
      "Ġ $'%",
      "Ġ &$$!",
      "$% $#",
      "$% $$$$$$$$$$$$$$$$",
      "$% $#$$\"",
      "$# &$$",
      "$# $%$$$$$$$$",
      "$# \"$$$\"",
      "$\" $$'",
      "$\" $#$$&",
      "$$& &$$%",
      "ĀĀ ę",
      "$( $$%",
      "#$$ $",
      "#$$ $'",
      "$%% #$$$$",
      "$%% &$$$$",
      "$%% #$$$$%",
      "$## #$$$$",
      "$## %$$\"",
      "$## #$$\"",
      "$) +",
      "$* )",
      "$&% $$$#",
      "$&% \"$$$$",
      "&$$# $",
      "Ġ$$ $",
      "$%& \"$$&",
      "$&# \"$$#",
      "$\"# #$$#",
      "$%\" %$$\"",
      "$\"% #$$%",
      "$\"% %$$&",
      "$+ \"",
      "$+ ğ",
      "!$$% $",
      "$&\" %$$#",
      "#$$! $",
      "$!# %$$#",
      "$%$$$$# $",
      "Ā% %",
      "$#! %$$#",
      "$$$$$$$$$$$$$$$$ $$$",
      "$\"& %$$%",
      "ĀĀ# Ā'",
      "Ā& &",
      "ĀĀ$ Ā#",
      "$$$' $$$$",
      "ĀĀ* Ā",
      "! )",
      "# %$$\"",
      "% $$$$$$$$$$$$",
      "& &$$%",
      "' #$$%",
      ") $$'",
      "* '",
      "+ #",
      "+ ,",
      "- $",
      "ĝ $$'",
      "Ğ #",
      "ğ ğ",
      "Ġ %$$$$",
      "Ġ !$$",
      "Ġ '$$",
      "Ġ $%\"",
      "$% &$$",
      "$% $#$$&",
      "$# !$$$$",
      "$# $!$$%",
      "$$% $$$%$$%",
      "$$# \"$$$$",
      "$& $\"$$#",
      "$\" $$!",
      "$\" $#$$$$",
      "$$\" $$%",
      "ĀĀ Ĕ",
      "%$$$$ $\"",
      "%$$$$ $#%$$$$",
      "$$$# $$$$##",
      "$' $$\"",
      "$%$$$$ '",
      "$%$$$$ $$$%",
      "$#$$$$ %$$%",
      "$( +",
      "$( Ğ",
      "%$$% $!",
      "\"$$$$ '",
      "$#% &$$%",
      "$#% &$$#",
      "$#% %$$\"",
      "$## \"$$#",
      "\"$$% $$#",
      "!$$ ĝ",
      "$* *",
      "$%& \"$$%",
      "$Ğ ğ",
      "$$#$$$$ $$%$$$$",
      "$$$& $$$$#",
      "$&# %$$#",
      "$#& %$$&",
      "($$ *",
      "$+ %",
      "$+ '",
      "$\"$$$$ $$#",
      "$$$ ,",
      "$&\" #$$#",
      "$&& #$$%",
      "$#$$$$% $",
      "$%' #$$%",
      ")$$ ğ",
      "$, %",
      "Ā! #",
      "Ā& \"",
      "ĀĀ! Ā\"",
      "Ā' &",
      "#$$$# $",
      "ĀĀ\" Ā\"",
      "$$$! $$%",
      "&$$$$# %",
      "! (",
      "! *",
      "! $$$#",
      "\" $",
      "\" Ĝ",
      "\" ğ",
      "\" \"$$#",
      "# $$$$$$$$$$$$",
      "& #$$&",
      "& '$$%",
      "' $$$%",
      "' %$$%",
      "( ĀĀ",
      ") \"",
      "* #",
      "* $$'",
      ", $$",
      "Ā .",
      "ě $$$$",
      "Ĝ %",
      "ĝ $$$$",
      "Ğ $$(",
      "ğ Ğ",
      "Ġ /",
      "Ġ $#!",
      "$$$$ $$&",
      "$% $\"$$%",
      "$# ĝ",
      "$# $'$$$$",
      "$# '$$$&",
      "$& $!",
      "$& \"$$$$",
      "$\" #$$$\"",
      "$\" \"$$$\"",
      "$\" &$$$&",
      "$\" %$$$&",
      "$$\" \"$$#",
      "$$\" #$$\"",
      "#$$$$ #$$$$",
      "%$$$$ \"%",
      "$$$% $$\"",
      "$' %$$$$",
      "$' $#$$#",
      "$! $&",
      "$$! $$$\"",
      "$#$$$$ $$#$$$$",
      "$( *",
      "$( ,",
      "#$$ .",
      "$%% &$$%",
      "$%% $$$%$",
      "$#% \"$$%",
      "$#% '$$%",
      "$## \"$$$$",
      "$## %$$$$%",
      "%$$ ě",
      "'$$ ĝ",
      "$&% $$&",
      "$&% #$$#",
      "Ġ$$ Ğ",
      "$%& %$$&",
      "$$$$$$$$$$$$ $$$",
      "#$$\" $&",
      "$&# $$$%",
      "$%\" !$$#",
      "($$ +",
      "($$ ĝ",
      "$\"% %$$#",
      "$\"$$$$ \"",
      "#$$$$# $%$$$$",
      "$ĝ #",
      "$ĝ '",
      "!$$$$ $%",
      "!$$# $",
      "$\"\" #$$#",
      "$&\" \"$$#",
      "$&$$$$ '",
      "$&$$$$ $$&",
      "'$$$$ &",
      "ğ$$ )",
      "&$$& $",
      "$#$$$$% #",
      "&% #$$%",
      "$'# $$$#",
      "Ġ$$$$ &",
      "Ā% )",
      "Ā% *",
      "$$#$$$# $$#",
      ")$$ Ğ",
      "Ā\" +",
      "$#' $$$%",
      "ĀĀ$ ĀĞ",
      "ĀĀ& Ā!",
      "ĀĀ' Ā\"",
      "$#$$$$$$$$ $$$",
      "\"$$$$# %",
      "%$$$$$$$$ $#",
      "#$$$$$# #$$#",
      "ĀĀ. Ā",
      "! ĝ",
      "\" %$$\"",
      "% ĝ",
      "% #$$$$",
      "& ,",
      "' )",
      "' ,",
      ") )",
      "* $$!",
      "- ĀĀ",
      "Ě $$$$",
      "ě %",
      "ě ĝ",
      "Ĝ $$$$",
      "Ĝ $$#",
      "Ĝ ĀĀ",
      "ĝ &",
      "ğ &",
      "Ġ #$$$$",
      "Ġ $&\"",
      "Ġ $'#",
      "$% \"$$",
      "$% '$$$$",
      "$% $%$$$$#",
      "$% #$$$&",
      "$# $\"",
      "$# \"$$",
      "$# $$(",
      "$# $#$$&",
      "$$% $$%",
      "$$% &$$%",
      "$$% $$$%$",
      "$$# &$$$$",
      "$$# !$$#",
      "$& $$$%",
      "$& #$$%",
      "$\" \"$$",
      "$\" $%$$$$#",
      "$\" $&$$%",
      "$$& %$$&",
      "%$$$$ $'",
      "$$$# $$$$%%",
      "$$$% $$$$%%",
      "$' $$$$%",
      "$! $%$$&",
      "$$! #$$#",
      "$$' $$$&",
      "$%$$$$ #$$#",
      "$#$$$$ %$$#",
      "$( $$\"",
      "#$$% $$$$",
      "%$$% $(",
      "$#% #$$#",
      "$#% $$$'",
      "$%# #$$$$%",
      "$%# $$$#$",
      "$## \"$$%",
      "$## &$$%",
      "$## #$$$$%",
      "$## #$$$$#",
      "$## $$$#$",
      "$) $$$$",
      "$ğ *",
      "&$$ Ě",
      "&$$ ě",
      "!$$ -",
      "!$$ Ğ",
      "$%& #$$&",
      "$%& &$$%",
      "$Ğ $$#",
      "$$$& $$$$%",
      "$&# &$$\"",
      "$\"# #$$$$",
      "$\"# %$$\"",
      "$%\" #$$\"",
      "$%\" &$$\"",
      "$\"% &$$%",
      "$+ Ğ",
      "$\"$$$$ !",
      "$$$%$$$$ &",
      "$&\" %$$\"",
      "$&& #$$&",
      "ğ$$ Ĝ",
      "$%$$$$% #",
      "$#$$$$# $",
      "Ā% \"",
      "Ā% &",
      "Ā# &",
      "$#%$$$$ $",
      "ĀĀ# Ā&",
      "ĀĀ% Ā#",
      "ĀĀ% Āğ",
      "$, '",
      "$, (",
      "$Ĝ !",
      "ĀĀ! ĀĞ",
      "Ā' %",
      "ĀĀ$ Ā'",
      "$&! #$$#",
      "ĀĀ& Ā)",
      "$\"! %$$#",
      "Ā( #",
      "$%$$$$$$$$ $$$",
      "&$$$$# #",
      "$!$$$$ &",
      "\" \"$$\"",
      "# %",
      "# )",
      "# ĝ",
      "& %$$&",
      "' ĀĀ",
      "' $$$$#%",
      ") Ğ",
      "* !",
      "* %",
      "* ,",
      "* $$ğ",
      "+ (",
      "+ $$\"",
      ", $$#",
      "- ,",
      "- $$#",
      ". ĀĀ",
      "/ #",
      "Ę $$",
      "Ě ĝ",
      "Ĝ ğ",
      "ĝ %",
      "ĝ ĝ",
      "ĝ $$)",
      "Ğ $$)",
      "ğ *",
      "ğ $$$$%",
      "Ġ $Ğ",
      "Ġ ($$",
      "Ġ $'!",
      "Ġ *$$",
      "$% $!",
      "$% $\"$$&",
      "$# $(",
      "$# #$$%",
      "$# $$$$$$$$$$$$$$$$",
      "$# $#$$\"",
      "$$% &$$&",
      "$$% %$$'",
      "$$# $$$$%",
      "$$# #$$\"",
      "$$# %$$$$%",
      "$& +",
      "$& $\"$$$$",
      "$& \"$$$\"",
      "$& $#$$&",
      "$\" ,",
      "$\" Ĝ",
      "$\" #$$#",
      "$\" $#$$#",
      "$$\" &$$#",
      "$$$$$$$$ #$$$$",
      "$$$$$$$$ %$$$$",
      "ĀĀ Ę",
      "#$$$$ $$&",
      "%$$$$ $$%$$$$",
      "%$$$$ &%",
      "$$$# $$$$%#",
      "$$$% $\"#",
      "$' ,",
      "$' $$",
      "$' $\"$$%",
      "$! +",
      "$! Ĝ",
      "$$' $$$$",
      "$$' %$$%",
      "#$$ ě",
      "\"$$$$ $$#",
      "$#% #$$$$%",
      "$#% !$$%",
      "$%# #$$$$#",
      "$%# \"$$\"",
      "\"$$ .",
      "&$$$$ $%",
      "&$$$$ $$%",
      "%$$ $",
      "!$$ $ğ",
      "#$$& $!",
      "$&% #$$&",
      "\"$$# $%",
      "$%& $$$#",
      "$%& !$$%",
      "%$$& $!",
      "$$$& $$%",
      "$&# \"$$%",
      "$&# #$$\"",
      "$\"# &$$%",
      "$%\" $$$%",
      "$%\" &$$#",
      "$#& %$$$$",
      "$\"% \"$$%",
      "$\"$$$$ $$&",
      "$ĝ %",
      "$ĝ &",
      "$ĝ ĝ",
      "$ĝ ğ",
      "$$$%$$$$ $$",
      "$\"\" $$$#",
      "$\"\" %$$\"",
      "$&$$$$ \"",
      "$&$$$$ &",
      "$&$$$$ $$#",
      "\"$$\" $",
      "$!# $$$%",
      "$!# &$$#",
      "%$$! $",
      "$'# #$$#",
      "Ā# !",
      ")$$ *",
      "Ā\" %",
      "Ā\" Ğ",
      "$\"& #$$%",
      "$%! $$$#",
      "$%! #$$#",
      "$%#$$$$ $",
      "$Ĝ (",
      "Ā& #",
      "$#' &$$%",
      "ĀĀ! Ā!",
      "$'\" %$$#",
      "Ġ% $$$%",
      "$&' #$$&",
      "$$$' $$#",
      "$$Ğ $",
      "ĀĀ' Ā'",
      "\"$$$$# #",
      "$$$$#% $$$%",
      "$$$$#% %$$%",
      "$!! $$$#",
      "%$$( $",
      "%$$$$$$% $$#",
      "%$$$$$$$$ $$$",
      "#$$$$$$$$ $$$",
      "%$$$$$% $$$%",
      "$#$$$$$$$$$$$$ $",
      "$$$$$$$$$$$$$$$$$$$$$$$$ $",
      "! $",
      "! +",
      "! ,",
      "! Ğ",
      "# '",
      "# ,",
      "$ ė",
      "% &",
      "& #$$$$",
      "& \"$$%",
      "& \"$$&",
      "& ($$$$",
      "( $$$$#",
      "( #$$&",
      ") #",
      "+ !",
      "+ %",
      "+ $$%",
      "- -",
      ". ,",
      ". -",
      ". $$",
      "ę $$%",
      "Ě $$%",
      "Ě $$'",
      "ě $$%",
      "Ĝ \"",
      "Ĝ *",
      "Ĝ Ğ",
      "Ĝ $$'",
      "ğ !",
      "ğ \"",
      "Ġ %$$%",
      "Ġ \"$$$$",
      "Ġ !$$%",
      "Ġ Ā&",
      "Ġ #$$ğ",
      "$$ $ğ",
      "$% ,",
      "$% \"$$%",
      "$% $$$%$$#",
      "$% &$$$'",
      "$% $!$$&",
      "$% $&$$&",
      "$# '$$$$",
      "$# $$)",
      "$# #$$$&",
      "$$% &$$#",
      "$$# $$#",
      "$& -",
      "$& Ĝ",
      "$& $$'",
      "$& $#$$\"",
      "$& &$$$'",
      "$\" -",
      "$\" $\"",
      "$\" $$$#",
      "$\" %$$#",
      "$$& #$$$$",
      "$$\" $",
      "$$\" #$$%",
      "$$\" %$$\"",
      "#$$$$ $$$#",
      "#$$$$ $$$%",
      "#$$$$ $%#",
      "#$$$$ $##$$$$",
      "#$$$$ \"#",
      "#$$$$ \"%",
      "$' $",
      "$' +",
      "$' #$$$$",
      "$' $$!",
      "$' '$$",
      "$' $&$$#",
      "$' %$$$&",
      "$! \"$$$\"",
      "$$! #$$!",
      "$$' $$$%",
      "$$' #$$%",
      "$$' #$$&",
      "$%$$$$ %$$%",
      "$%$$$$ $$#$$$$",
      "$%$$$$ $$$&",
      "$#$$$$ '",
      "$#$$$$ $%$$$$",
      "$#$$$$ &%",
      "$( $",
      "$( ĝ",
      "%$$# $$#",
      "%$$% $#",
      "%$$% $$%",
      "%$$% $\"",
      "%$$% $\"#",
      "#$$ $ğ",
      "$%% \"$$#",
      "$%% &$$#",
      "$%% %$$\"",
      "$%% $$$$$$$$$$$$",
      "$%% \"$$&",
      "$%% !$$$$",
      "$%% $$$'",
      "\"$$$$ $$%",
      "\"$$$$ &%",
      "\"$$$$ \"#",
      "$#% \"$$&",
      "$#% %$$$$#",
      "$#% #$$%$",
      "$%# #$$&",
      "$%# !$$$$",
      "$%# '$$#",
      "$## #$$&",
      "$## %$$$$#",
      "$## '$$#",
      "&$$$$ \"#",
      "&$$ Ĝ",
      "!$$ ě",
      "$* $",
      "$&% \"$$#",
      "$&% !$$%",
      "Ġ$$ ě",
      "Ġ$$ $ğ",
      "Ġ$$ $Ğ",
      "$$%$$$$ $$\"",
      "$Ğ (",
      "$Ğ Ğ",
      "$$#$$$$ $$#$$$$",
      "#$$\" $$#",
      "$$$& $",
      "$$$& $$\"",
      "$&# #$$%",
      "$&# %$$\"",
      "$\"# %$$$$",
      "$\"# #$$\"",
      "$%\" \"$$#",
      "$%\" #$$!",
      "$#& \"$$%",
      "$#& '$$%",
      "$#\" &$$$$",
      "$#\" %$$\"",
      "($$ $\"",
      "$\"% '$$%",
      "$+ )",
      "#$$$$# \"",
      "$%$$# $",
      "$ĝ )",
      "$#$$% $",
      "$#$$# $",
      "\"$$& $",
      "\"$$& $!",
      "%$$$$% $%$$$$",
      "%$$$$% #$$$#",
      "$$$ ě",
      "$\"\" &$$#",
      "'$$# $",
      "ğ$$ +",
      "ğ$$ -",
      "$!# \"$$%",
      "$!# &$$%",
      "$%$$$$% $",
      "$%$$$$% $%$$$$",
      "$'% $$$#",
      "$%' $$$%",
      ")$$ +",
      "$#! #$$#",
      "$#! %$$\"",
      "$$$%$$% $",
      "ĀĀ# Ā%",
      "ĀĀ# Ā)",
      "ĀĀ% Ā&",
      "ĀĀ% Ā+",
      "$%! %$$\"",
      "$, \"",
      "$, ğ",
      "$!% &$$%",
      "!$$\" $&",
      "$#' #$$%",
      "ĀĀ! Āĝ",
      "'$$& $",
      "$'\" $$$#",
      "Ġ% &$$%",
      "$&' $$$%",
      "$&' #$$%",
      "$&' %$$%",
      "$\"' #$$&",
      "$\"! $$$#",
      "Ġ$$\" $",
      "$!\" $$$%",
      "$!& $$$%",
      "ĀĀ' Ā%",
      "ĀĀ' Ā&",
      "ĀĀ' Ā(",
      "$'& $$$%",
      "$'& \"$$%",
      "$- #",
      "ĀĀğ Ā!",
      "Ġ' $$!",
      "$#$%$$# $",
      "$#$%$$% $",
      "#%$$# $",
      "%$$$$$$$$ $$$#",
      "%$$$$$$$$ $$$$%",
      "#$$$$\" &",
      "$$##$$# $",
      "#$$$$$# $$$#",
      "$#$$$$$$% $$$$#",
      "ĀĀĜ Ā",
      "Ġ#$$ ĝ",
      "$#$& $$&",
      "ĀĀě Ā",
      "! $%$$$$",
      "! #$$#",
      "! #$$!",
      "! $$$$%%",
      "# ě",
      "# Ğ",
      "# %$$$$",
      "% &$$%",
      "& ğ",
      "' ğ",
      "( !",
      "( Ğ",
      "( $$$$#%",
      ") '",
      "* (",
      "* Ğ",
      "* $$*",
      "+ $$(",
      "- %",
      "ė Ā",
      "ě ě",
      "ě Ĝ",
      "ě Ğ",
      "ě $$&",
      "ě $$\"",
      "ě ĀĀ",
      "ě !$$",
      "Ĝ +",
      "Ĝ $$!",
      "Ĝ $$(",
      "ĝ $$!",
      "Ğ *",
      "Ğ $$Ğ",
      "Ğ $$#$",
      "ğ ĀĀ",
      "Ġ $$$%",
      "Ġ #$$%",
      "Ġ $#\"",
      "Ġ !$$$$",
      "Ġ $%!",
      "Ġ $&$$#",
      "Ġ Āğ",
      "Ġ $$$$#%",
      "Ġ ğ$$#",
      "Ġ $$$$%%",
      "Ġ $\"(",
      "Ġ $%ğ",
      "Ġ \"$$ğ",
      "Ġ $(!",
      "$$ ě",
      "$$$$ \"",
      "$% $!$$$$",
      "$% $%$$&",
      "$% $!$$%",
      "$# ě",
      "$# Ĝ",
      "$# $$$#$",
      "$# $\"$$#",
      "$# $&$$$$%",
      "$# #$$$!",
      "$$% \"$$&",
      "$$% %$$$$%",
      "$$% !$$$$",
      "$$# $$%",
      "$$# \"$$%",
      "$$# &$$%",
      "$$# #$$$$%",
      "$$# ($$#",
      "$$# $$$!",
      "$& ,",
      "$& $$",
      "$& $$!",
      "$& $!$$%",
      "$& %$$$&",
      "$& $#$$!",
      "$\" &$$$$",
      "$\" &$$#",
      "$\" $\"$$%",
      "$\" $%$$\"",
      "$\" !$$$\"",
      "$\" &%$$'",
      "$$& $",
      "$$& &$$&",
      "$$\" $$$$%",
      "$$\" '$$#",
      "$$\" '$$\"",
      "$$$$$$$$ $$$$##",
      "ĀĀ Ė",
      "#$$$$ $%%$$$$",
      "#$$$$ $%#$$$$",
      "#$$$$ &#",
      "%$$$$ $$&",
      "%$$$$ $$\"",
      "%$$$$ $$$#$$$$",
      "$' !$$",
      "$' #$$$\"",
      "$' $%$$\"",
      "$! $",
      "$! $!",
      "$! \"$$$$",
      "$$! $$$$",
      "$$' $",
      "$$' !$$&",
      "$$' &$$'",
      "$%$$$$ $$$%$$$$",
      "$#$$$$ #$$#",
      "$( $$!",
      "%$$# $&%",
      "%$$% $##",
      "%$$% $&#",
      "#$$ /",
      "#$$ ę",
      "#$$ Ě",
      "$%% !$$%",
      "$%% %$$$$#",
      "$%% #$$'",
      "$%% $$$%$$%",
      "$%% #$$$$##",
      "\"$$$$ $&",
      "\"$$$$ $$&",
      "\"$$$$ $'",
      "\"$$$$ &#",
      "$#% \"$$#",
      "$#% $$$$$$$$$$$$",
      "$#% %$$$$%",
      "$#% %$$%$",
      "$%# \"$$%",
      "$%# !$$%",
      "$%# !$$#",
      "$%# '$$$$",
      "$## &$$\"",
      "$## %$$!",
      "$## ($$#",
      "\"$$ -",
      "\"$$ $'",
      "\"$$ $Ğ",
      "&$$$$ '",
      "&$$$$ $$%$$$$",
      "&$$$$ &%",
      "%$$ Ě",
      "%$$ $(",
      "$) $",
      "$) ę",
      "$$$$# $#$$$$",
      "&$$ $",
      "&$$ .",
      "&$$ $\"",
      "!$$ Ĝ",
      "'$$ ,",
      "'$$ Ĝ",
      "$* ĝ",
      "$* $$$$",
      "$&% %$$&",
      "Ġ$$ Ĝ",
      "%$$& $#&",
      "$&# %$$$$",
      "$&# #$$$$%",
      "$&# \"$$\"",
      "$#& \"$$&",
      "$#& &$$&",
      "($$ /",
      "($$ ě",
      "$\"% #$$&",
      "$+ +",
      "$\"$$$$ '",
      "#$$$$# %$$$$",
      "$$( %$$&",
      "$ĝ $$%",
      "$$$\" $",
      "!$$% $%",
      "%$$$$% \"",
      "!$$$$ &%",
      "$$$%$$$$ $",
      "$$$ -",
      "$\"\" \"$$%",
      "$\"\" \"$$#",
      "$\"\" %$$&",
      "$&\" &$$\"",
      "$&\" !$$\"",
      "$&& &$$%",
      "#$$' $$%",
      "ğ$$ $ğ",
      "$!# %$$$$",
      "$!# %$$\"",
      "$%%$$$$ $%%$$$$",
      "$'% $$$%",
      "$'% #$$&",
      "$#$$$$# $%$$$$",
      "&% \"$$%",
      "$'# &$$#",
      "Ā% ğ",
      "Ā# #",
      "Ā# %",
      "Ā# (",
      "$#! $$$#",
      "Ā\" &",
      "Ā\" ĝ",
      "$$$$$$$$$$$$$$$$ $$",
      "$\"& %$$#",
      "%$$' $",
      "ĀĀ% Ā)",
      "$, !",
      "$, #",
      "$Ĝ #",
      "\"$$' $",
      "\"$$' $%",
      "ĀĀ! Ā&",
      "Ā' !",
      "Ā' '",
      "ĀĀ$ Ā!",
      "ĀĀ$ Āğ",
      "$&' &$$%",
      "$&! %$$#",
      "$&! \"$$#",
      "ĀĀ\" Ā!",
      "ĀĀ\" Ā'",
      "ĀĀ\" ĀĞ",
      "$$$' $$%",
      "Ā( %",
      "Ā( &",
      "Ā( )",
      "Ġ& %$$%",
      "Ġ$$& $#!",
      "\"% %$$%",
      "$'& #$$%",
      "$'& #$$&",
      "$$$#$$# $",
      "$- (",
      "$- )",
      "$ě (",
      "ĀĀğ Ā#",
      "#$$( $",
      "ĀĀ) ĀĞ",
      "ĀĀ) Āğ",
      "$(# \"$$#",
      "$'' %$$&",
      "($$\" $",
      "$(\" #$$#",
      "%$$ğ $",
      "Ğ$$ +",
      "Ğ$$ ĝ",
      "Ğ$$ $ğ",
      "ĝ$$ Ĝ",
      "ĝ$$ ĝ",
      "ĝ$$ $ğ",
      "ĀĀĝ Ā&",
      "ĀĀĝ Ā'",
      "ĀĀĝ Āğ",
      "$. &",
      "%$$$$$$$$ $$$%",
      "#$$$$$$$$ $$$#",
      "Ā+ #",
      "Ā+ )",
      "\"\" $$$#",
      "\"\" %$$#",
      "$$$$$$# $",
      "$%$%$$$$ $#",
      "%$$$$& !",
      "$#$#$$$$ &",
      "*$$ ,",
      "$#$& $$'",
      "! -",
      "! $$$$#%",
      "\" %$$$$",
      "\" &$$#",
      "\" #$$\"",
      "# $",
      "# (",
      "# #$$$$",
      "# $$$%",
      "# #$$\"",
      "# %$$$$#",
      "% $$$#",
      "% #$$%$",
      "& -",
      "& !$$%",
      "' Ğ",
      "' %$$#",
      "' &$$$$",
      "' &$$%",
      "' #$$'",
      "( /",
      ") !",
      ") *",
      ") -",
      "* \"",
      "* $$(",
      "+ $$!",
      "+ $$)",
      ", &",
      ", Ě",
      "- \"",
      "/ ĀĀ",
      "Ā Ě",
      "Ę !",
      "ę Ě",
      "ę Ğ",
      "ę $$\"",
      "Ě .",
      "Ě Ğ",
      "Ě $$\"",
      "ě $$'",
      "ě &$$",
      "Ĝ &",
      "Ĝ $$&"
    ]
  }
}