{
  "version": "1.0",
  "truncation": null,
  "padding": null,
  "added_tokens": [],
  "normalizer": null,
  "pre_tokenizer": {
    "type": "ByteLevel",
    "add_prefix_space": false,
    "trim_offsets": true,
    "use_regex": true
  },
  "post_processor": {
    "type": "ByteLevel",
    "add_prefix_space": true,
    "trim_offsets": false,
    "use_regex": true
  },
  "decoder": {
    "type": "ByteLevel",
    "add_prefix_space": true,
    "trim_offsets": true,
    "use_regex": true
  },
  "model": {
    "type": "BPE",
    "dropout": null,
    "unk_token": null,
    "continuing_subword_prefix": null,
    "end_of_word_suffix": null,
    "fuse_unk": false,
    "byte_fallback": false,
    "ignore_merges": false,
    "vocab": {
      "\u0000": 0,
      "\u0001": 1,
      "\u0002": 2,
      "\u0003": 3,
      "\u0004": 4,
      "\u0005": 5,
      "\u0006": 6,
      "\u0007": 7,
      "\b": 8,
      "\t": 9,
      "\n": 10,
      "\u000b": 11,
      "\f": 12,
      "\r": 13,
      "\u000e": 14,
      "\u000f": 15,
      "\u0010": 16,
      "\u0011": 17,
      "\u0012": 18,
      "\u0013": 19,
      "\u0014": 20,
      "\u0015": 21,
      "\u0016": 22,
      "\u0017": 23,
      "\u0018": 24,
      "\u0019": 25,
      "\u001a": 26,
      "\u001b": 27,
      "\u001c": 28,
      "\u001d": 29,
      "\u001e": 30,
      "\u001f": 31,
      " ": 32,
      "!": 33,
      "\"": 34,
      "#": 35,
      "$": 36,
      "%": 37,
      "&": 38,
      "'": 39,
      "(": 40,
      ")": 41,
      "*": 42,
      "+": 43,
      ",": 44,
      "-": 45,
      ".": 46,
      "/": 47,
      "0": 48,
      "1": 49,
      "2": 50,
      "3": 51,
      "4": 52,
      "5": 53,
      "6": 54,
      "7": 55,
      "8": 56,
      "9": 57,
      ":": 58,
      ";": 59,
      "<": 60,
      "=": 61,
      ">": 62,
      "?": 63,
      "@": 64,
      "A": 65,
      "B": 66,
      "C": 67,
      "D": 68,
      "E": 69,
      "F": 70,
      "G": 71,
      "H": 72,
      "I": 73,
      "J": 74,
      "K": 75,
      "L": 76,
      "Ā": 77,
      "ă": 78,
      "Ą": 79,
      "ą": 80,
      "Ć": 81,
      "ć": 82,
      "Ĉ": 83,
      "ĉ": 84,
      "Ċ": 85,
      "ċ": 86,
      "Č": 87,
      "č": 88,
      "Ď": 89,
      "ď": 90,
      "Đ": 91,
      "đ": 92,
      "Ē": 93,
      "ē": 94,
      "Ĕ": 95,
      "ĕ": 96,
      "Ė": 97,
      "ė": 98,
      "Ę": 99,
      "ę": 100,
      "Ě": 101,
      "ě": 102,
      "Ĝ": 103,
      "ĝ": 104,
      "Ğ": 105,
      "ğ": 106,
      "Ġ": 107,
      "&&": 108,
      "&&&&": 109,
      "&'": 110,
      "&%": 111,
      "&&%": 112,
      "&&'": 113,
      "ĀĀ": 114,
      "&(": 115,
      "&$": 116,
      "&&(": 117,
      "&&$": 118,
      "&#": 119,
      "&)": 120,
      "&&#": 121,
      "&&)": 122,
      "%&&&&": 123,
      "'&&&&": 124,
      "&&&'": 125,
      "&*": 126,
      "&&&%": 127,
      "&\"": 128,
      "&&\"": 129,
      "&&*": 130,
      "&+": 131,
      "&!": 132,
      "&&&&'": 133,
      "&&&&%": 134,
      "&&'&": 135,
      "&&%&": 136,
      "&&'&'": 137,
      "%&&": 138,
      "&&%&'": 139,
      "&&&&&&&&": 140,
      "'&&": 141,
      "&&%&%": 142,
      "&&'&%": 143,
      "$&&": 144,
      "(&&": 145,
      "$&&&&": 146,
      "&,": 147,
      "''": 148,
      "#&&": 149,
      "%'": 150,
      "%%": 151,
      "&%&&&&": 152,
      "'%": 153,
      "&'&&&&": 154,
      "(&&&&": 155,
      ")&&": 156,
      "\"&&": 157,
      "&&%&(": 158,
      "&-": 159,
      "('": 160,
      "&&$&'": 161,
      "&&'&(": 162,
      "$'": 163,
      "&&'&$": 164,
      "(%": 165,
      "&&(&": 166,
      "!&&": 167,
      "$%": 168,
      "&&(&%": 169,
      "&&%&$": 170,
      "&&$&%": 171,
      "&&(&'": 172,
      "%$": 173,
      "'(": 174,
      "&&$&": 175,
      "'$": 176,
      "%(": 177,
      "*&&": 178,
      "#&&&&": 179,
      "Ġ&&": 180,
      "+&&": 181,
      "%&&&%": 182,
      "'&&&'": 183,
      "&ğ": 184,
      "&&%&&&&": 185,
      "&$&&&&": 186,
      "%Ā": 187,
      "ĀĀ%Ā": 188,
      "$$": 189,
      "&Ā": 190,
      "ĀĀ&Ā": 191,
      "((": 192,
      "&&'&&&&": 193,
      "''&&&&": 194,
      ")&&&&": 195,
      "&&&(": 196,
      "($": 197,
      "'%&&&&": 198,
      "%%&&&&": 199,
      "&&(&$": 200,
      "Ā)": 201,
      "&&%&)": 202,
      "ĀĀ$": 203,
      "&.": 204,
      "ĀĀ'": 205,
      "&&$&(": 206,
      "#'": 207,
      "$(": 208,
      "ĀĀ(": 209,
      "&&(&(": 210,
      "Ā*": 211,
      "&&&$": 212,
      "&&+": 213,
      "&&)&%": 214,
      "&&%&#": 215,
      "&&#&'": 216,
      "%)": 217,
      "%'&&&&": 218,
      "ĀĀ#": 219,
      "Ā(": 220,
      "&&!": 221,
      "&&$&$": 222,
      "%#": 223,
      "&&'&#": 224,
      "&&'&)": 225,
      ")'": 226,
      "ĀĀ)": 227,
      "&&)&'": 228,
      "&&&": 229,
      "#%": 230,
      "ĀĀ\"": 231,
      "&&&'&": 232,
      "&(&&&&": 233,
      "ĀĀ'Ā": 234,
      ")%": 235,
      "ĀĀ$Ā": 236,
      "'#": 237,
      "&&&%&": 238,
      "&&#&%": 239,
      "ĀĀ(Ā": 240,
      "'\"": 241,
      "ĀĀ)Ā": 242,
      "#$": 243,
      "ĀĀ!": 244,
      "')": 245,
      "&&'&&%": 246,
      "ĀĀ#Ā": 247,
      ")(": 248,
      "%\"": 249,
      "&&%&&%": 250,
      "&Ğ": 251,
      "&&%&&'": 252,
      "&&'&&'": 253,
      "&&)&$": 254,
      "ĀĀ*": 255,
      "&&#&(": 256,
      ")$": 257,
      "ĀĀ\"Ā": 258,
      "ğ&&": 259,
      "%*": 260,
      "&&$&)": 261,
      "$#": 262,
      "&&#&": 263,
      "&&%&*": 264,
      "&&)&": 265,
      "&&'&\"": 266,
      "ĀĀ!Ā": 267,
      "&&,": 268,
      "ĀĀ+": 269,
      "ĀĀğ": 270,
      "&&(&#": 271,
      "ĀĀ*Ā": 272,
      "#(": 273,
      "$)": 274,
      "-&&": 275,
      "'*": 276,
      "(\"": 277,
      "*%": 278,
      "&&&%&'": 279,
      "(#": 280,
      "&&&'&&&&": 281,
      "&ĝ": 282,
      "&&&#": 283,
      "ĀĀ,": 284,
      "&&)&(": 285,
      "\"$": 286,
      "'&&&&&": 287,
      "&/": 288,
      "##": 289,
      "(&&&'": 290,
      "&&\"&'": 291,
      "\"%": 292,
      "\"'": 293,
      "*'": 294,
      "&&&)": 295,
      "ĀĀ-": 296,
      "ĀĀğĀ": 297,
      "&&#&$": 298,
      "&&&&&&&&&&&&": 299,
      "&&%&&&%": 300,
      "&&%&\"": 301,
      "&&*&%": 302,
      "ĀĀ+Ā": 303,
      "%&&&&&": 304,
      "*$": 305,
      "&&\"&%": 306,
      ",&&": 307,
      "&&'&*": 308,
      "&&#&)": 309,
      "&&)&#": 310,
      "ĀĀ,Ā": 311,
      "$\"": 312,
      "%!": 313,
      "ĠĀ": 314,
      "ĀĀ/": 315,
      "&&*&'": 316,
      "(*": 317,
      "&&(&)": 318,
      "()": 319,
      "&&$&#": 320,
      "$*": 321,
      "#)": 322,
      "$%&&&&": 323,
      "'!": 324,
      ")#": 325,
      "&&#&*": 326,
      "&&\"&(": 327,
      "'&&&(": 328,
      "&&ğ": 329,
      "$&&&%": 330,
      "&Ĝ": 331,
      "ĀĀ-Ā": 332,
      "!%": 333,
      "&&&&(": 334,
      "ĀĀĞ": 335,
      "&&*&$": 336,
      "#\"": 337,
      "%&&&$": 338,
      "(&&&(": 339,
      "ĀĀ/Ā": 340,
      "\"(": 341,
      "%&&&'": 342,
      "ĀĀĜ": 343,
      "&&(&\"": 344,
      "))": 345,
      "&&-": 346,
      "&&%&&$": 347,
      "&&(&&'": 348,
      "&&(&*": 349,
      "&&(&&&&": 350,
      "&&*&(": 351,
      "Ġ(": 352,
      "&&&&$": 353,
      "ĀĀĝ": 354,
      "*(": 355,
      "&'&&&&'": 356,
      "'+": 357,
      "&&Ğ": 358,
      "&'&&&&%": 359,
      "&&$&*": 360,
      "Ā,": 361,
      "&'%&&&&": 362,
      "&&$&\"": 363,
      "$&&&$": 364,
      "&&%&+": 365,
      "&&'&+": 366,
      "(+": 367,
      "+#": 368,
      "ĀĀě": 369,
      "%$&&&&": 370,
      "*\"": 371,
      "&&$&&'": 372,
      "&&)&)": 373,
      "'&&&&&%": 374,
      "&&'&&(": 375,
      "&&\"&$": 376,
      "(%&&&&": 377,
      ")*": 378,
      "*#": 379,
      "+'": 380,
      "&&%&!": 381,
      "&&$&&&&": 382,
      "Ġ$": 383,
      "Ġ&&&&": 384,
      "&&&%&&&&": 385,
      "ĀĀĜĀ": 386,
      "$'&&&&": 387,
      "$!": 388,
      "$+": 389,
      "+&'": 390,
      "&&%&&&'": 391,
      "&&\"&": 392,
      "&&*&": 393,
      "ĀĀĞĀ": 394,
      "!$": 395,
      "('&&&&": 396,
      "Ġ'": 397,
      "&&'&!": 398,
      "&&#&#": 399,
      "%&&!": 400,
      "%(&&&&": 401,
      "&&%&&(": 402,
      "&&&%&%": 403,
      "!#": 404,
      "\"\"": 405,
      "'$&&&&": 406,
      "+(": 407,
      "Ġ#": 408,
      "&%&&&&'": 409,
      "&&%'": 410,
      "ĀĀ.": 411,
      "&&)&\"": 412,
      "Ğ&&": 413,
      "ĀĀĝĀ": 414,
      "ĀĀěĀ": 415,
      "!'": 416,
      ")\"": 417,
      "Ġ%": 418,
      "ĀĀĚ": 419,
      "&&\"&)": 420,
      "'&&!": 421,
      "!(": 422,
      "&&'&&&'": 423,
      "&&#&+": 424,
      "&&*&#": 425,
      "!)": 426,
      "\"#": 427,
      "&&&&#": 428,
      "&&&&&%": 429,
      "\")": 430,
      "'(&&&&": 431,
      "+ĀĀ": 432,
      "-'": 433,
      "Ġ&'": 434,
      "&&&&)": 435,
      "&&$&+": 436,
      "&&\"&*": 437,
      "$&&!": 438,
      "*)": 439,
      "+$": 440,
      "&&(&!": 441,
      "&&\"&\"": 442,
      "#&&&$": 443,
      "'&&&'&": 444,
      "ĀĀ.Ā": 445,
      "&%%&&&&": 446,
      "ĀĀę": 447,
      "#+": 448,
      "ĝ&&": 449,
      "&&&&&&": 450,
      "&'%": 451,
      "%&&+": 452,
      "#&&!": 453,
      "',": 454,
      "'&&&%": 455,
      "**": 456,
      "+%": 457,
      "+)": 458,
      "&&\"&#": 459,
      "&&&&&&&&&&&&&&&&": 460,
      "%&&&%&": 461,
      "!\"": 462,
      "$,": 463,
      "Ġ&(": 464,
      "Ġ&)": 465,
      "&&'&&": 466,
      "&&#&\"": 467,
      "'&&&&&'": 468,
      "'&&+": 469,
      "#*": 470,
      ")&&&'": 471,
      ",)": 472,
      "&%&&&&%": 473,
      "&&%%": 474,
      "&&(&+": 475,
      "-ĀĀ": 476,
      "&&*&\"": 477,
      "(&&!": 478,
      "&&%&&&&&": 479,
      "%+": 480,
      "&ĀĀ": 481,
      "'ğ": 482,
      ",*": 483,
      ".&&": 484,
      "Ġ\"": 485,
      "&&$%": 486,
      "&&&'&%": 487,
      "!*": 488,
      "!&&&&": 489,
      "&ě": 490,
      "+\"": 491,
      "&)&&&&": 492,
      "ĀĀĚĀ": 493,
      "%ğ": 494,
      ",'": 495,
      "ğ'": 496,
      "ğ)": 497,
      "&&%&&": 498,
      "&&''": 499,
      "&&$&!": 500,
      "&#&'": 501,
      "&&)&*": 502,
      "&&)&+": 503,
      "$&&+": 504,
      "%#&&&&": 505,
      "+*": 506,
      "Ġ*": 507,
      "Ġ&%": 508,
      "&&(%": 509,
      "&&*&)": 510,
      ")&&&(": 511,
      ",(": 512,
      "Ā.": 513,
      "&&.": 514,
      "&''": 515,
      "%&&&(": 516,
      "(&&+": 517,
      "!+": 518,
      "&'$": 519,
      "&((": 520,
      "&&&'&'": 521,
      "%&&ğ": 522,
      "!!": 523,
      "\"*": 524,
      "),": 525,
      "Ġ+": 526,
      "&%'": 527,
      "&&%&&&&&&&&": 528,
      "&&&&'&": 529,
      "&&&&%&": 530,
      ")&&!": 531,
      "%,": 532,
      "(,": 533,
      ".ĀĀ": 534,
      "ğ%": 535,
      "Ġ)": 536,
      "&&$'": 537,
      "&#&&&&": 538,
      "&&)&!": 539,
      "&&*&!": 540,
      "%&&-": 541,
      "%%&&%&": 542,
      "'%&&'&": 543,
      "ĀĀęĀ": 544,
      "-(": 545,
      "Ġ&": 546,
      "Ġ&$": 547,
      "&%'&&&&": 548,
      "&&%'&&&&": 549,
      "&&(&&(": 550,
      "%&&&&&'": 551,
      "&*&&&&": 552,
      "&&'&ğ": 553,
      "'&&&)": 554,
      "#&&+": 555,
      "%-": 556,
      ")+": 557,
      ",ĀĀ": 558,
      "&%(": 559,
      "&&'&&&(": 560,
      "&&&&%&%": 561,
      "''&&'&": 562,
      "\"&&+": 563,
      "'&&&'&%": 564,
      "#!": 565,
      "'#&&&&": 566,
      "*+": 567,
      ",$": 568,
      "-&": 569,
      ".%": 570,
      "&&Ĝ": 571,
      "&&ĝ": 572,
      "&$&&&&'": 573,
      "%&&&&&&&&": 574,
      "&&%&,": 575,
      "%'&&%&": 576,
      "\"!": 577,
      "#%&&&&": 578,
      ",%": 579,
      "/ĀĀ": 580,
      "ĘĀ": 581,
      "Ġ&#": 582,
      "&&/": 583,
      "&&)&&'": 584,
      "&&&%&$": 585,
      "&&\"&+": 586,
      "&&&&'&'": 587,
      "%&&&%&'": 588,
      "&&'&&&&&": 589,
      "\"&&&&": 590,
      "$&&&&%": 591,
      "(-": 592,
      "++": 593,
      "&&%&&#": 594,
      "&&'&&&%": 595,
      "&#&$": 596,
      "&&&&&&&&&&&": 597,
      "\"+": 598,
      "%Ğ": 599,
      ")!": 600,
      "*&&&&": 601,
      "ğ$": 602,
      "Ġ&*": 603,
      "&'(": 604,
      "&%$": 605,
      "&&%%&&&&": 606,
      "&&(&&&'": 607,
      "'&&&&&&&&": 608,
      "&&'&,": 609,
      "&'&&&&&&": 610,
      "%&&'&": 611,
      "'-": 612,
      "-$": 613,
      "./": 614,
      "ğ&": 615,
      "&&&&\"": 616,
      "&%&&'&": 617,
      "&&'&&$": 618,
      "&&'&&&&&&&&": 619,
      "ĀĀĖ": 620,
      "&&$&,": 621,
      "&&#&!": 622,
      "%&&&&&%": 623,
      "&&&%&(": 624,
      "'&&,": 625,
      "'&&&$": 626,
      "$&&&#": 627,
      "#-": 628,
      "%&&'&'": 629,
      "((&&&&": 630,
      ")ğ": 631,
      "--": 632,
      ".(": 633,
      "ğ(": 634,
      "Ġ!": 635,
      "Ġ-": 636,
      "&''&&&&": 637,
      "&&%&&&$": 638,
      "&&'&&&$": 639,
      "%&&&&'": 640,
      "$&&,": 641,
      "%'&&%&'": 642,
      "%%&&%&'": 643,
      "&%&&&&&&": 644,
      "'%&&'&'": 645,
      ")&&+": 646,
      "!&&+": 647,
      "*&&!": 648,
      "#ğ": 649,
      "#'&&&&": 650,
      "$ğ": 651,
      "')&&&&": 652,
      ",\"": 653,
      "-*": 654,
      "Ā+": 655,
      "ĠĀĀ": 656,
      "&&&&&(": 657,
      "&%&&%&": 658,
      "%&&&&&&": 659,
      "&&*&*": 660,
      "&&&&%&'": 661,
      "#&&,": 662,
      "%ĝ": 663,
      "'ĝ": 664,
      "*,": 665,
      "00": 666,
      "Ğ!": 667,
      "&%&&'&'": 668,
      "&&%(": 669,
      "&&'&&)": 670,
      "&&(&,": 671,
      "&&#&,": 672,
      "&\"&&&&": 673,
      "&&&&'&%": 674,
      "%&&,": 675,
      "(&&,": 676,
      "''&&'&'": 677,
      "#&&&#": 678,
      "#$&&&&": 679,
      "%&&%&": 680,
      "*ĀĀ": 681,
      "-&'": 682,
      ".$": 683,
      "ĀĞ": 684,
      "&'&&'&": 685,
      "&&'%&&&&": 686,
      "ĀĀĕ": 687,
      "&$'": 688,
      "&&$&&(": 689,
      "'&&&&%": 690,
      "$&&&&&%": 691,
      "''&&'&%": 692,
      "&%&&&&(": 693,
      "'%&&'&%": 694,
      "+&&&(": 695,
      "&$&&&&(": 696,
      "#,": 697,
      "'&&'&": 698,
      ")%&&&&": 699,
      "+!": 700,
      ".'": 701,
      "..": 702,
      "Ā$": 703,
      "&&&*": 704,
      "&'&&'&'": 705,
      "&'&&'&%": 706,
      "&&%&&&#": 707,
      "ĀĀ:": 708,
      "ĀĀė": 709,
      "&&(&&$": 710,
      "'&&&&'": 711,
      "'&&&&&&": 712,
      "&&%&-": 713,
      "$&&-": 714,
      "'%&&'&(": 715,
      "\"&&&$": 716,
      "&&(&ğ": 717,
      "!&&!": 718,
      "$%&&%&%": 719,
      "&&%&&%'": 720,
      "&Ě": 721,
      "(!": 722,
      "($&&&&": 723,
      "+&&&&": 724,
      ",#": 725,
      "-%": 726,
      ".&": 727,
      "Ā%": 728,
      "&&%&&)": 729,
      "&&%&&&(": 730,
      "&&$&&&%": 731,
      "%&&&&%": 732,
      "&&&&'&$": 733,
      "%&&Ğ": 734,
      "#&&ğ": 735,
      "\"&&ğ": 736,
      "Ġ&&!": 737,
      "+&&!": 738,
      "'&&&'&'": 739,
      "'&&&'&$": 740,
      "$&&&%&": 741,
      "'Ğ": 742,
      ")'&&&&": 743,
      "*!": 744,
      "*Ğ": 745,
      ",+": 746,
      ",-": 747,
      ",Ğ": 748,
      "ě&&": 749,
      "ĝ$": 750,
      "&&'&&#": 751,
      "&&'&&&'&": 752,
      "&&$&&%": 753,
      "&&$&&#": 754,
      "&&#&-": 755,
      "%&&&#": 756,
      "'&&-": 757,
      "$&&ğ": 758,
      "(&&&*": 759,
      "(&&&&&": 760,
      ")&&&)": 761,
      "(%&&'&": 762,
      "(%&&'&%": 763,
      "&&(&Ğ": 764,
      "#ĀĀ": 765,
      "(ğ": 766,
      ")-": 767,
      "*&&&'": 768,
      ",,": 769,
      "/,": 770,
      "Ā!": 771,
      "Ā-": 772,
      "ğ\"": 773,
      "Ġě": 774,
      "Ġĝ": 775,
      "ĠĞ": 776,
      "Ġ&+": 777,
      "Ġ&!": 778,
      "&&&&&&%": 779,
      "&'&&%&": 780,
      "&'&&%&%": 781,
      "&(#": 782,
      "&($": 783,
      "&('": 784,
      "&(&&&&%": 785,
      "&&$&&": 786,
      "&&\"&!": 787,
      "&&\"&,": 788,
      "&&*&+": 789,
      "&&%&ğ": 790,
      "$&&/": 791,
      "&%&&&&$": 792,
      ")&&,": 793,
      ")&&-": 794,
      "\"&&&\"": 795,
      "!&&&$": 796,
      "$%&&%&": 797,
      "+&&&)": 798,
      "%&&&%&%": 799,
      "&&'&&''": 800,
      "$Ğ": 801,
      "%&&%&'": 802,
      "%)&&&&": 803,
      "&Ę": 804,
      "(&&%&%": 805,
      "(&&&'&": 806,
      ")Ğ": 807,
      ")ĀĀ": 808,
      ".&%": 809,
      "/'": 810,
      "/*": 811,
      "Ĝ$": 812,
      "ĝ#": 813,
      "ĝ'": 814,
      "ğ*": 815,
      "Ġ1": 816,
      "Ġ&,": 817,
      "&&&&*": 818,
      "&%&&%&%": 819,
      "&(&%": 820,
      "&&('": 821,
      "%&&&&(": 822,
      "%&&&&&$": 823,
      "%&&&\"": 824,
      "&&%&%&&&&": 825,
      "(&&&$": 826,
      "&%&&&&&": 827,
      "(&&&&&'": 828,
      "\"&&!": 829,
      "\"&&-": 830,
      "\"&&&#": 831,
      "('&&'&": 832,
      "('&&'&'": 833,
      "!&&&#": 834,
      "%$&&%&'": 835,
      "Ġ&&,": 836,
      "&&+&%": 837,
      "!ĀĀ": 838,
      "\",": 839,
      "\"Ğ": 840,
      "\"ğ": 841,
      "#.": 842,
      "$ĝ": 843,
      "$&&'&%": 844,
      "$$&&&&": 845,
      "$#&&&&": 846,
      "%/": 847,
      "(ĝ": 848,
      "(&&'&'": 849,
      "))&&&&": 850,
      "+.": 851,
      ",&&&&": 852,
      "-)": 853,
      ".*": 854,
      ".&)": 855,
      "/&&": 856,
      "Ā\"": 857,
      "Ā'": 858,
      "Ğ\"": 859,
      "Ġ,": 860,
      "Ġ.": 861,
      "Ġ&\"": 862,
      "Ġ%&&": 863,
      "Ġ'&&": 864,
      "&%&&%&'": 865,
      "&%%'": 866,
      "&&%&&&'&&&&": 867,
      "&$&&&&%": 868,
      "&&$&&$": 869,
      "&&)'": 870,
      "&&)&,": 871,
      "&&)&-": 872,
      "%&&/": 873,
      "&&%&%&'": 874,
      ")&&ğ": 875,
      ")&&&*": 876,
      "'(&&'&": 877,
      "'(&&'&'": 878,
      "*&&&)": 879,
      "*&&&*": 880,
      "'%&&&&'": 881,
      "&&'&&%%": 882,
      "&&&&&&&&&&&&&": 883,
      "!-": 884,
      "$ĀĀ": 885,
      "$&&'&": 886,
      "()&&&&": 887,
      ".&$": 888,
      "/%": 889,
      "/-": 890,
      "Āğ": 891,
      "Ě&&": 892,
      "Ĝ&&": 893,
      "ĝ*": 894,
      "ĝ&%": 895,
      "Ġğ": 896,
      "&'#": 897,
      "&'&&%&'": 898,
      "&&'%": 899,
      "&&''&&&&": 900,
      "&&'&&&'&&&&": 901,
      "&&'&&&%&&&&": 902,
      "ĀĀĔ": 903,
      "&(&&&&'": 904,
      "&(&&%&": 905,
      "&&(&&": 906,
      "&&(&-": 907,
      "&&(&&&(": 908,
      "'&&&&&$": 909,
      "&&\"&-": 910,
      "&&%&'&'&&&&": 911,
      "'&&/": 912,
      "'&&ğ": 913,
      "&&'&%&&&&": 914,
      "(&&Ğ": 915,
      "''&&(&'": 916,
      "%%&&%&%": 917,
      "&'&&&&&": 918,
      "\"&&Ğ": 919,
      "$'&&%&": 920,
      "!&&,": 921,
      "&&+&$": 922,
      "'&&&(&": 923,
      "$&&&$&": 924,
      "!Ğ": 925,
      "#Ğ": 926,
      "$&&'&'": 927,
      "&ę": 928,
      "(&&'&": 929,
      ")&&&'&": 930,
      "-\"": 931,
      "ĝ!": 932,
      "ĝ%": 933,
      "Ġ&-": 934,
      "&&&&&$": 935,
      "&&%$": 936,
      "ĀĀ=": 937,
      "&$&&'&'": 938,
      "&#%": 939,
      "&)*": 940,
      "&&#'": 941,
      "&&#&&%": 942,
      "&&&'&(": 943,
      "&&*'": 944,
      "&&'&Ğ": 945,
      "'&&Ğ": 946,
      "$&&ĝ": 947,
      "(&&-": 948,
      "(&&&)": 949,
      "$&&&&&(": 950,
      "#&&-": 951,
      "%%&&%&$": 952,
      "&'&&&&(": 953,
      "(&&&&&%": 954,
      "('&&(&%": 955,
      "(%&&'&'": 956,
      "!&&-": 957,
      "%$&&%&%": 958,
      "&&$&ğ": 959,
      "*&&ğ": 960,
      "Ġ&&+": 961,
      "&&%&&&&&%": 962,
      "&&'&&%'": 963,
      "&&%&&'%": 964,
      "(&&&'&'": 965,
      "(&&&'&%": 966,
      "&&&&&&&&&&&&&&&": 967,
      "%&&&$&'": 968,
      "(&&&(&": 969,
      "!.": 970,
      "!Ĝ": 971,
      "!ĝ": 972,
      "#Ĝ": 973,
      "(Ğ": 974,
      ".\"": 975,
      ".&&&&": 976,
      ".&(": 977,
      "<Ā": 978,
      "Ā#": 979,
      "ę&&": 980,
      "ęĀĀ": 981,
      "ěĜ": 982,
      "ěĀĀ": 983,
      "Ğ%": 984,
      "ĞĞ": 985,
      "ğ#": 986,
      "ğ-": 987,
      "&&&&&&&": 988,
      "&'*": 989,
      "&%$'": 990,
      "&&%&&&%&": 991,
      "&&'(": 992,
      "&(&&%&%": 993,
      "&&$&-": 994,
      "&&#&&": 995,
      "&&#&&'": 996,
      "&&)&&)": 997,
      "%&&&&&(": 998,
      "&&&'&$": 999,
      "&+&'": 1000,
      "&&&&'&%&&&&": 1001,
      "&&&&%&$": 1002,
      "&&'&-": 1003,
      "&&%&.": 1004,
      "$&&&\"": 1005,
      "(&&ğ": 1006,
      "#&&Ĝ": 1007,
      "#&&&\"": 1008,
      "%'&&'&'": 1009,
      "%'&&$&'": 1010,
      "%%&&'&": 1011,
      "'%&&'&$": 1012,
      "'%&&(&%": 1013,
      "'%&&(&$": 1014,
      "\"&&/": 1015,
      "$'&&$&": 1016,
      "$%&&$&'": 1017,
      "%$&&&&'": 1018,
      "&&$&/": 1019,
      "'$&&'&'": 1020,
      "%(&&&&%": 1021,
      "%(&&%&'": 1022,
      "Ġ&&Ğ": 1023,
      "+&&,": 1024,
      "&&'&&&&&%": 1025,
      "ĀĀ$Ā)": 1026,
      "ĀĀ$Ā*": 1027,
      "ĀĀ'Ā)": 1028,
      "ĀĀ#Ā)": 1029,
      "&&%&&''&&&&": 1030,
      "&&%&&&%&&&&": 1031,
      "$&&&%&%": 1032,
      "\"ě": 1033,
      "$Ĝ": 1034,
      "(&&'&%": 1035,
      "(&'&&&&": 1036,
      "(#&&&&": 1037,
      ")ĝ": 1038,
      ")&&%&%": 1039,
      "+,": 1040,
      "+ğ": 1041,
      "-#": 1042,
      "-+": 1043,
      "-Ĝ": 1044,
      "-ĀĀ%Ā": 1045,
      "/(": 1046,
      ">Ā": 1047,
      "ĘĀĀ": 1048,
      "Ĝ#": 1049,
      "Ĝ*": 1050,
      "Ğ'": 1051,
      "Ġ&&'&'": 1052,
      "&&&&&&'": 1053,
      "&&&&&&(": 1054,
      "&'&&&'&": 1055,
      "&%#": 1056,
      "&%&&'&%": 1057,
      "ĀĀ;": 1058,
      "&(&(": 1059,
      "&('$": 1060,
      "&$#": 1061,
      "&&(#": 1062,
      "&&(&&#": 1063,
      "&&(&&%&&&%": 1064,
      "&&(&&%%": 1065,
      "&&$&&)": 1066,
      "&&$&&&'": 1067,
      "&#'": 1068,
      "&&)%": 1069,
      "&&)&&": 1070,
      "&&)&&&&": 1071,
      "%&&&&$": 1072,
      "&&&'&)": 1073,
      "&*$": 1074,
      "&*%": 1075,
      "&&&%&)": 1076,
      "&\"'": 1077,
      "&&\"$": 1078,
      "&!&%": 1079,
      "&&&&'''&&&&": 1080,
      "&&&&%%'&&&&": 1081,
      "&&'&.": 1082,
      "%&&&)": 1083,
      "&&%&'&&&&": 1084,
      "'&&&*": 1085,
      "(&&ĝ": 1086,
      "''&&%&'": 1087,
      "''&&(&": 1088,
      "%'&&%&%": 1089,
      "%'&&%&(": 1090,
      "%%&&$&'": 1091,
      "'%&&(&": 1092,
      "$'&&%&'": 1093,
      "!&&ğ": 1094,
      "%(&&'&": 1095,
      "%&&&%&(": 1096,
      "%&&&%&$": 1097,
      "&&&(&'": 1098,
      "($&&'&'": 1099,
      "%%&&&&'": 1100,
      "ĀĀ(Ā)": 1101,
      "ĀĀ(Ā(": 1102,
      "&&!&'": 1103,
      "&&%&&&$&&&&": 1104,
      "ĀĀĖĀ": 1105,
      "ĀĀ:Ā": 1106,
      "!,": 1107,
      "!ğ": 1108,
      "\"ĝ": 1109,
      "\"&&%&'": 1110,
      "$Ě": 1111,
      "$&&%&%": 1112,
      "$&&&%&'": 1113,
      "%Ĝ": 1114,
      "'.": 1115,
      ").": 1116,
      "*'&&&&": 1117,
      "+-": 1118,
      ",!": 1119,
      "-,": 1120,
      ".ğ": 1121,
      ".&'": 1122,
      "/#": 1123,
      "/+": 1124,
      "02": 1125,
      "11": 1126,
      "20": 1127,
      "Ĝ&": 1128,
      "Ĝ&*": 1129,
      "ĝ\"": 1130,
      "ĝ&": 1131,
      "Ğ*": 1132,
      "ĞĀĀ": 1133,
      "ĠĜ": 1134,
      "&'(%": 1135,
      "&%&%": 1136,
      "&&%&&&&%": 1137,
      "&&'&&'&&&&": 1138,
      "&&'&&&#": 1139,
      "ĀĀĘĀ": 1140,
      "&(&'": 1141,
      "&(&&'&": 1142,
      "&&((": 1143,
      "&&('&&&&": 1144,
      "&&(&&&%": 1145,
      "&&$&&$%": 1146,
      "&)%": 1147,
      "&&#&.": 1148,
      "&&)&Ğ": 1149,
      "&&&%&#": 1150,
      "&\"&'": 1151,
      "&+&%": 1152,
      "&&%&Ğ": 1153,
      "$&&Ğ": 1154,
      "$&&&)": 1155,
      "$&&&&&": 1156,
      "$&&&&&'": 1157,
      "''&&%&%": 1158,
      "#&&Ğ": 1159,
      "'%&&%&%": 1160,
      "\"&&,": 1161,
      "('&&'&%": 1162,
      "!&&Ğ": 1163,
      "$%&&%&'": 1164,
      "%$&&'&'": 1165,
      "'(&&'&%": 1166,
      "*&&/": 1167,
      "+&&+": 1168,
      "%&&&%&#": 1169,
      "&$&&&&$": 1170,
      "&&&(&$": 1171,
      "#'&&$&%": 1172,
      "&&+&#": 1173,
      "%)&&&&%": 1174,
      "%'&&&&'": 1175,
      "&&!&)": 1176,
      "ĀĀ\"Ā)": 1177,
      "ĀĀ\"Ā*": 1178,
      "&&'&&'%&&&&": 1179,
      "'&&&(&'": 1180,
      "\"-": 1181,
      "$(&&&&": 1182,
      "%.": 1183,
      "%&&&'&": 1184,
      "&ė": 1185,
      "'&&&%&'": 1186,
      "(/": 1187,
      "(&&%&'": 1188,
      ")&&&&%": 1189,
      ")$&&&&": 1190,
      "*ğ": 1191,
      ".)": 1192,
      "Ě!": 1193,
      "Ĝ,": 1194,
      "Ĝĝ": 1195,
      "Ĝ&(": 1196,
      "ĝ)": 1197,
      "Ġ&&#": 1198,
      "&&&&+": 1199,
      "&&&&&'": 1200,
      "&%)": 1201,
      "&%(&&&&": 1202,
      "&&%#": 1203,
      "&&'&&%&&&&&": 1204,
      "ĀĀē": 1205,
      "&(&&%&'": 1206,
      "&$$": 1207,
      "&$&&'&%": 1208,
      "&&()": 1209,
      "&&(&&&$": 1210,
      "&&$&%&&&&": 1211,
      "&&$&&&$": 1212,
      "&&$&&%'": 1213,
      "&&#&&#": 1214,
      "&&)&&&'": 1215,
      "&&)&ğ": 1216,
      "&&)&&&(": 1217,
      "'&&&&&(": 1218,
      "'&&&&&)": 1219,
      "'&&&&&&'&&&&": 1220,
      "&&\"&/": 1221,
      "&&*&,": 1222,
      "&&*&ğ": 1223,
      "&!&#": 1224,
      "&&&&'&#": 1225,
      "&&&&'&\"": 1226,
      "&&&&%&$&&&&": 1227,
      "%&&.": 1228,
      "&&&&&&&&&%": 1229,
      "&&&&&&&&&&&'": 1230,
      "&&&&&&&&&&&%": 1231,
      "$&&Ĝ": 1232,
      "%%&&'&'": 1233,
      "%%&&%&(": 1234,
      "&%&&&&&%": 1235,
      "&'&&&&$": 1236,
      ")&&/": 1237,
      ")&&ĝ": 1238,
      ")&&Ğ": 1239,
      "$'&&%&(": 1240,
      "(%$": 1241,
      "!&&&\"": 1242,
      "'(&&'&$": 1243,
      "&&$&.": 1244,
      "&&$&Ğ": 1245,
      "*&&+": 1246,
      "+&&-": 1247,
      "'&&&'&(": 1248,
      "((&&'&": 1249,
      "''&&&&%": 1250,
      "%%&&&&%": 1251,
      "&&+&(": 1252,
      ")'&&'&'": 1253,
      "&(&&&&$": 1254,
      "'\"&&&&": 1255,
      "&&'&&%%&&&&": 1256,
      "&&%&&%$": 1257,
      "%&&&$&": 1258,
      "!/": 1259,
      "!ę": 1260,
      "!'&&": 1261,
      "!(&&": 1262,
      "#&&&%": 1263,
      "#&&'&'": 1264,
      "#'&&": 1265,
      "##&&&&": 1266,
      "$-": 1267,
      "$.": 1268,
      "$/": 1269,
      "&ĀĀ$Ā": 1270,
      "(.": 1271,
      "(Ę": 1272,
      ")ě": 1273,
      ")&&'&%": 1274,
      ",ğ": 1275,
      ",ĀĀ$Ā": 1276,
      ".ĝ": 1277,
      ".ĀĀ'Ā": 1278,
      "/ĀĀ%Ā": 1279,
      "05": 1280,
      "?Ā": 1281,
      "ďĀ": 1282,
      "ĒĀ": 1283,
      "Ę&&": 1284,
      "ĚĀĀ": 1285,
      "ě#": 1286,
      "ě&": 1287,
      "ě&+": 1288,
      "Ĝ\"": 1289,
      "ĝ&'": 1290,
      "ĝĀĀ": 1291,
      "Ğ(": 1292,
      "Ġ/": 1293,
      "Ġ0": 1294,
      "Ġ5": 1295,
      "Ġė": 1296,
      "ĠĚ": 1297,
      "Ġ&&%&": 1298,
      "Ġ&&$&%": 1299,
      "Ġ,&&": 1300,
      "&'&%": 1301,
      "&%\"": 1302,
      "&%*": 1303,
      "&%+": 1304,
      "&%&'": 1305,
      "&%&&%&(": 1306,
      "&&%&&&)": 1307,
      "&&'&&&)": 1308,
      "&(%": 1309,
      "&()": 1310,
      "&(*": 1311,
      "&(&&'&(": 1312,
      "&$\"": 1313,
      "&$%": 1314,
      "&$+": 1315,
      "&$&&%&": 1316,
      "&$&&%&'": 1317,
      "&$&&%&%": 1318,
      "&$%(": 1319,
      "&&(&&\"": 1320,
      "&&(&&*": 1321,
      "&&$$": 1322,
      "&&$&&&(": 1323,
      "&)'": 1324,
      "&&)&&%": 1325,
      "%&&&&&#": 1326,
      "'&&&&&&&&&&&&": 1327,
      "&&\"(": 1328,
      "&&\"&&#": 1329,
      "&&*#": 1330,
      "&!&'": 1331,
      "&!&)": 1332,
      "&&&&'%%&&&&": 1333,
      "&&&&''&&&&&": 1334,
      "&&&&%&)": 1335,
      "&&&&%''&&&&": 1336,
      "%&&ĝ": 1337,
      "$&&+&'": 1338,
      "$&&&#&'": 1339,
      "(&&/": 1340,
      "$&&&&(": 1341,
      "&,&": 1342,
      "''%": 1343,
      "#&&&": 1344,
      "#&&/": 1345,
      "%'&&$&": 1346,
      "%%&&'&$": 1347,
      "&%&&&&#": 1348,
      "\"&&.": 1349,
      "\"&&Ĝ": 1350,
      "\"&&+&'": 1351,
      "('&&'&$": 1352,
      "$'&&%&%": 1353,
      "'$&&&&%": 1354,
      "'$&&'&%": 1355,
      "%(&&%&%": 1356,
      "%(&&%&$": 1357,
      "*&&,": 1358,
      "Ġ&&&$": 1359,
      "+&&/": 1360,
      "&&%&&&&&&'&": 1361,
      "$$&&%&": 1362,
      "$$&&$&'": 1363,
      "$(&&%&%": 1364,
      "ĀĀ(Ā*": 1365,
      "ĀĀ#Ā(": 1366,
      "&&!&$": 1367,
      "%#&&%&'": 1368,
      "&&&ĝ": 1369,
      "ĀĀ\"Ā(": 1370,
      ")%&&'&'": 1371,
      ")%&&'&(": 1372,
      "ĀĀ!Ā*": 1373,
      "&&'&&%$": 1374,
      "&&'&&%'&&&&": 1375,
      "&&%&&%'&&&&": 1376,
      "&&%&&''": 1377,
      "&&%&&'%&&&&": 1378,
      "&&'&&'%": 1379,
      "&&'&&'(": 1380,
      ")$&&(&'": 1381,
      "ğ&&,": 1382,
      "ğ&&ğ": 1383,
      "&&,&%": 1384,
      "ĀĀ+Ā)": 1385,
      "ĀĀ+Ā(": 1386,
      "(&&&'&$": 1387,
      "%&&&'&'": 1388,
      "&&%&&$%": 1389,
      "&&(&&''": 1390,
      "ĀĀĕĀ": 1391,
      "\".": 1392,
      "\"Ě": 1393,
      "\"%&&!": 1394,
      "#Ė": 1395,
      "#&&'&%": 1396,
      "$)&&&&": 1397,
      "%'&&": 1398,
      "'Ĝ": 1399,
      "(ě": 1400,
      "(Ĝ": 1401,
      "(&&&&%": 1402,
      "('&&": 1403,
      "(&&%&(": 1404,
      ")Ĝ": 1405,
      "+/": 1406,
      "+Ě": 1407,
      "+ĝ": 1408,
      ",.": 1409,
      ",ě": 1410,
      ",Ĝ": 1411,
      "-ĀĀ&Ā": 1412,
      ".ĀĀ%Ā": 1413,
      "/$": 1414,
      "/)": 1415,
      "/&&&&": 1416,
      "01": 1417,
      "10": 1418,
      "22": 1419,
      "Ā&": 1420,
      "Ě*": 1421,
      "Ĝ)": 1422,
      "Ĝ+": 1423,
      "Ğ#": 1424,
      "Ğ$": 1425,
      "Ğ&": 1426,
      "ğ,": 1427,
      "ğě": 1428,
      "ğğ": 1429,
      "ğ&&&&": 1430,
      "Ġ4": 1431,
      "Ġ&&%&'": 1432,
      "Ġ&&%&%": 1433,
      "Ġ&&$&'": 1434,
      "Ġ&.": 1435,
      "&&Ě": 1436,
      "&&&&!": 1437,
      "&'!": 1438,
      "&'\"": 1439,
      "&'''": 1440,
      "&'&&(&'": 1441,
      "&%&&'&(": 1442,
      "&%&&%&$": 1443,
      "&&%&&'&&&&": 1444,
      "&&'\"": 1445,
      "&&'$": 1446,
      "&&'&&+": 1447,
      "&(%'": 1448,
      "&(&&'&$": 1449,
      "&$%'": 1450,
      "&$&'&&&&": 1451,
      "&)&&'&'": 1452,
      "&&#&&&&": 1453,
      "&&#&&&$": 1454,
      "&&)&.": 1455,
      "'&&&&$": 1456,
      "&*,": 1457,
      "&*&(": 1458,
      "&\"$": 1459,
      "&\"&&%&$": 1460,
      "&&\"&&&&": 1461,
      "&&\"&Ğ": 1462,
      "&&*&-": 1463,
      "&&*&.": 1464,
      "&&*&Ğ": 1465,
      "&&*&ĝ": 1466,
      "&+*": 1467,
      "&!$": 1468,
      "&!&&&&": 1469,
      "&&%&/": 1470,
      "&&'&'&&&&": 1471,
      "%&&ě": 1472,
      "%&&Ĝ": 1473,
      "&&&&&&&&&'": 1474,
      "&&'&%&&&&&&": 1475,
      "$&&.": 1476,
      "$&&&&&&": 1477,
      "&,\"": 1478,
      "''&&'&(": 1479,
      "%'&&$&%": 1480,
      "&%&&&&&'": 1481,
      "&%&&&&&&%&&&&": 1482,
      "'%&&(&(": 1483,
      "&'&&&&&&'": 1484,
      "&'&&&&&(": 1485,
      "&'&&&&&&%&&&&": 1486,
      "('&&(&": 1487,
      "&&$&''%": 1488,
      "$'(": 1489,
      "$'&&$&%": 1490,
      "&&(&ĝ": 1491,
      "&&$&ĝ": 1492,
      "'$&&'&": 1493,
      "%(&&%&": 1494,
      "$$&&%&'": 1495,
      "$$&&%&%": 1496,
      "((&&'&%": 1497,
      "''&&&&'": 1498,
      ")&&&&$": 1499,
      "'%&&&&''": 1500,
      "&&+&": 1501,
      "%)&&%&'": 1502,
      "ĀĀ#Ā*": 1503,
      "%#&&&&%": 1504,
      ")'&&'&$": 1505,
      "ĀĀ)Ā)": 1506,
      "&&&Ğ": 1507,
      "#%&&%&'": 1508,
      "ĀĀ!Ā(": 1509,
      "&&%&&%%": 1510,
      "ĀĀ*Ā)": 1511,
      "ğ&&-": 1512,
      "ğ&&&#": 1513,
      "ĀĀğĀ)": 1514,
      "&&%&&&%&%": 1515,
      "'&&&(&%": 1516,
      "&&(&&'%": 1517,
      "ĀĀĝĀ(": 1518,
      "$&&&$&%": 1519,
      "&&$&&'%": 1520,
      "&&%&&(%": 1521,
      "&&'&&&$&&&&": 1522,
      ")&&!&%": 1523,
      "ĀĀ=Ā": 1524,
      "!ė": 1525,
      "!ě": 1526,
      "#ě": 1527,
      "#ĝ": 1528,
      "#&&&'": 1529,
      "##&&": 1530,
      "#&&&%&%": 1531,
      "$&%": 1532,
      "%ě": 1533,
      "%ĀĀ": 1534,
      "&ĕ": 1535,
      "'&&%&%": 1536,
      "'#&&": 1537,
      "'&&&%&": 1538,
      "(ĀĀ": 1539,
      "(&&&%": 1540,
      "(&&$&'": 1541,
      ")&&'&'": 1542,
      ")&&(&%": 1543,
      "+ĀĀ$Ā": 1544,
      "-ğ": 1545,
      "-&&&&": 1546,
      "/.": 1547,
      "/ĀĀ&Ā": 1548,
      "/ĀĀ'Ā": 1549,
      "13": 1550,
      "@Ā": 1551,
      "đĀ": 1552,
      "ėĀĀ": 1553,
      "Ęę": 1554,
      "Ęğ": 1555,
      "ę\"": 1556,
      "ę*": 1557,
      "ę&$": 1558,
      "Ě)": 1559,
      "ĚĜ": 1560,
      "Ě&*": 1561,
      "ě!": 1562,
      "ě%": 1563,
      "ě'": 1564,
      "ě)": 1565,
      "Ĝ%": 1566,
      "Ĝ&/": 1567,
      "ĝ(": 1568,
      "ĝ,": 1569,
      "ĝ.": 1570,
      "ĝ&-": 1571,
      "Ğ)": 1572,
      "ğ'&&": 1573,
      "ğ&&&$": 1574,
      "Ġ2": 1575,
      "Ġ&&'": 1576,
      "Ġ&&&&%": 1577,
      "Ġ&&'&": 1578,
      "Ġ\"&&": 1579,
      "Ġ&&'&$": 1580,
      "Ġ&&%&$": 1581,
      "Ġ&&(&$": 1582,
      "Ġ&&)&'": 1583,
      "&&ė": 1584,
      "&&&+": 1585,
      "&&&&('": 1586,
      "&'&$": 1587,
      "&'&#": 1588,
      "&'&&'&$": 1589,
      "&'&&(&%": 1590,
      "&'&&$&$": 1591,
      "&%&&(&": 1592,
      "&%&&$&%": 1593,
      "&%&&'&)": 1594,
      "&&%)": 1595,
      "&&'&&%&": 1596,
      "&(+": 1597,
      "&(&$": 1598,
      "&(&#": 1599,
      "&(&&'&%": 1600,
      "&(&&%&(": 1601,
      "&(#'": 1602,
      "&$(": 1603,
      "&$*": 1604,
      "&$%%": 1605,
      "&&(&&%": 1606,
      "&&(&&)": 1607,
      "&&(&&&)": 1608,
      "&&$(": 1609,
      "&&$&&&%&": 1610,
      "&&$&&&#": 1611,
      "&&$&&&)": 1612,
      "&#&&&&%": 1613,
      "&)(": 1614,
      "&)&(": 1615,
      "&)&&&&'": 1616,
      "&&#&ğ": 1617,
      "%&&&&&)": 1618,
      "%&&&&&&&&&&&&": 1619,
      "'&&&&''": 1620,
      "&&&'&#": 1621,
      "&**": 1622,
      "&*+": 1623,
      "&\"(": 1624,
      "&\"&(": 1625,
      "&\"&&&&'": 1626,
      "&\"#%": 1627,
      "&&*&&#": 1628,
      "&+#": 1629,
      "&+&&&&": 1630,
      "&!%": 1631,
      "&!'": 1632,
      "&!&$": 1633,
      "&&&&'&(": 1634,
      "&&&&%&'&&&&": 1635,
      "&&&&%&%&&&&'": 1636,
      "'&&&ğ": 1637,
      "'&&+&'": 1638,
      "&&%&%'(": 1639,
      "&&'&%$%": 1640,
      "$&&&&)": 1641,
      "''&&%&$": 1642,
      "#&&&ğ": 1643,
      "%'&&'&": 1644,
      "%'&&'&%": 1645,
      "&%&&&&)": 1646,
      "&%&&&&&&%": 1647,
      "&%&&&&'&&&&": 1648,
      "(&&&&(": 1649,
      ")&&.": 1650,
      ")&&&+": 1651,
      ")&&&,": 1652,
      "\"&&&!": 1653,
      "&-&%": 1654,
      "&&$&'(%": 1655,
      "&&(&.": 1656,
      "&&(&/": 1657,
      "&&(&Ĝ": 1658,
      "!&&ĝ": 1659,
      "%$&&%&": 1660,
      "'$&&&&'": 1661,
      "%(&&&&'": 1662,
      "%(&&%&(": 1663,
      "%(&&%&&'": 1664,
      "*&&-": 1665,
      "*&&Ğ": 1666,
      "#&&&&$": 1667,
      "#&&&&*": 1668,
      "#&&&&&%": 1669,
      "+&&&*": 1670,
      "'&&&'&&&&&&&&": 1671,
      "&ğ#": 1672,
      "&$&&&&#": 1673,
      "ĀĀ%Ā*": 1674,
      "((&&&&'": 1675,
      "((&&%&'": 1676,
      "&&&(&(": 1677,
      "($&&&&%": 1678,
      "ĀĀ'Ā*": 1679,
      "$(&&%&'": 1680,
      "$(&&$&'": 1681,
      "&&+&'": 1682,
      "&&+&\"": 1683,
      "%)&&%&%": 1684,
      "%'&&&&&": 1685,
      "&&!&(": 1686,
      "&&!&\"": 1687,
      "#%&&%&(": 1688,
      ")%&&'&": 1689,
      "')&&&&%": 1690,
      "ĀĀ#Ā#": 1691,
      "ĀĀ#Ā-": 1692,
      ")(&&'&%": 1693,
      "&&%&&%%&&&&": 1694,
      "&&%&&'&&&'&": 1695,
      "ĀĀ*Ā(": 1696,
      "$#&&&&'": 1697,
      "$#&&%&%": 1698,
      "ĀĀ!Ā\"": 1699,
      "&&,&": 1700,
      "&&,&(": 1701,
      "ĀĀğĀ(": 1702,
      "-&&-": 1703,
      "-&&ğ": 1704,
      "(\"&&&&": 1705,
      "(&&&'&#": 1706,
      "&&&)&": 1707,
      "ĀĀ-Ā(": 1708,
      "'&&&(&$": 1709,
      "$&&&%&(": 1710,
      "ĀĀ-Ā#": 1711,
      "ĀĀ-Ā-": 1712,
      "(&&&(&%": 1713,
      "%&&&'&$": 1714,
      "&&(&&'$": 1715,
      "&'&&&&'&": 1716,
      "&&Ğ&": 1717,
      "(%&&&&'": 1718,
      "&&%&&('": 1719,
      "'&&!&%": 1720,
      "'&&!&(": 1721,
      "%&&&&&&&&&&&": 1722,
      "!'&&&&": 1723,
      "\"&": 1724,
      "\"&'": 1725,
      "\"&&&%": 1726,
      "#&&%&": 1727,
      "#$&&": 1728,
      "#!&&": 1729,
      "$&'": 1730,
      "$&&&'": 1731,
      "$&&'&$": 1732,
      "$&&%&$": 1733,
      "'%&&": 1734,
      "('&&+": 1735,
      ")ę": 1736,
      ")&&&%": 1737,
      ")\"&&+": 1738,
      "+&": 1739,
      "+Ğ": 1740,
      "+&#": 1741,
      "+%&&&&": 1742,
      "+ĀĀ%Ā": 1743,
      "+ĀĀ'Ā": 1744,
      ",ĀĀ&Ā": 1745,
      "-ĀĀ$Ā": 1746,
      "-ĀĀ)Ā": 1747,
      "-ĀĀ\"Ā": 1748,
      ".+": 1749,
      ".&*": 1750,
      ".ĀĀ&Ā": 1751,
      ".ĀĀ)Ā": 1752,
      "/:": 1753,
      "/Ĝ": 1754,
      "/ĀĀ(Ā": 1755,
      "/&&,": 1756,
      "12": 1757,
      "15": 1758,
      "24": 1759,
      "33": 1760,
      "Ā/": 1761,
      "ĖĀ": 1762,
      "Ę#": 1763,
      "Ę&": 1764,
      "ę%": 1765,
      "ę&#": 1766,
      "Ě\"": 1767,
      "Ě$": 1768,
      "Ěě": 1769,
      "Ě&,": 1770,
      "ě\"": 1771,
      "ě&%": 1772,
      "ě&)": 1773,
      "ě&,": 1774,
      "Ĝ!": 1775,
      "ĜĘ": 1776,
      "ĝĕ": 1777,
      "ĝĚ": 1778,
      "ĝě": 1779,
      "ĝĞ": 1780,
      "ĝğ": 1781,
      "ĝ&+": 1782,
      "Ğ,": 1783,
      "Ğğ": 1784,
      "ğ!": 1785,
      "ğę": 1786,
      "ğĜ": 1787,
      "ğĝ": 1788,
      "ğĞ": 1789,
      "ĠĘ": 1790,
      "Ġ%&&&&": 1791,
      "Ġ&&&&'": 1792,
      "Ġ)&&": 1793,
      "Ġ&&'&(": 1794,
      "Ġ&&(&": 1795,
      "Ġ$%": 1796,
      "Ġ+&&": 1797,
      "Ġ&ğ": 1798,
      "ĠĀ*": 1799,
      "Ġ&&$&$": 1800,
      "&&&.": 1801,
      "&'(&&&&": 1802,
      "&'&&(&": 1803,
      "&'&&$&%": 1804,
      "&''%&&&&": 1805,
      "&'%%&&&&": 1806,
      "&%%": 1807,
      "&%,": 1808,
      "&%&$": 1809,
      "&%$&&&&": 1810,
      "&%''": 1811,
      "&%&&$&'": 1812,
      "&%&&(&%": 1813,
      "&%&&(&'": 1814,
      "&%&&$&": 1815,
      "&%&&&%&": 1816,
      "&%&&&&&&&&&&&": 1817,
      "&&%&&*": 1818,
      "&&%&&&&'": 1819,
      "&&%&&%&&&&": 1820,
      "&&%&&&%&'": 1821,
      "&&%&&(&&&&": 1822,
      "&&'&&*": 1823,
      "&&'&&!": 1824,
      "ĀĀ<Ā": 1825,
      "ĀĀ?Ā": 1826,
      "&(%#": 1827,
      "&$&&'&": 1828,
      "&$&&'&$": 1829,
      "&&(&'&&&&": 1830,
      "&&(&&&#": 1831,
      "&&(&&$%": 1832,
      "&&(&&%(": 1833,
      "&&(&&&*": 1834,
      "&&$\"": 1835,
      "&&$&'&&&&": 1836,
      "&&$&&%&&&&": 1837,
      "&&$&&!": 1838,
      "&&$&&%%": 1839,
      "&&$&&(%": 1840,
      "&#&": 1841,
      "&#*": 1842,
      "&#&&'&'": 1843,
      "&#&&'&$": 1844,
      "&)\"": 1845,
      "&)&&&&%": 1846,
      "&)&&'&": 1847,
      "&)&&%&": 1848,
      "&&#*": 1849,
      "&&#&&$": 1850,
      "&&#&&&'": 1851,
      "&&#&&\"": 1852,
      "&&#&&&#": 1853,
      "&&#&&&)": 1854,
      "%&&&&&&'&&&&": 1855,
      "'&&&&)": 1856,
      "'&&&&&#": 1857,
      "'&&&&&&&%": 1858,
      "'&&&&%'": 1859,
      "&&&'&&&&&&&&": 1860,
      "&*'": 1861,
      "&&&%&&&&&&&&": 1862,
      "&\"#": 1863,
      "&\"%": 1864,
      "&\"&&": 1865,
      "&&\"&&)": 1866,
      "&&\"&.": 1867,
      "&&\"&Ĝ": 1868,
      "&&\"&&$'": 1869,
      "&&*&&&&": 1870,
      "&+)": 1871,
      "&++": 1872,
      "&!!": 1873,
      "&!&*": 1874,
      "&!&&%&'": 1875,
      "&&&&'%'&&&&": 1876,
      "&&&&%&%&&&&": 1877,
      "&&&&%'%&&&&": 1878,
      "&&&&%$(": 1879,
      "&&'&'$%": 1880,
      "&&'&'%$": 1881,
      "%&&&*": 1882,
      "&&%&'%$": 1883,
      "&&&&&&&&%&&&&": 1884,
      "&&&&&&&&&&&&&&&&&&&&": 1885,
      "&&'&%''&&&&": 1886,
      "(&&Ĝ": 1887,
      "(&&+&'": 1888,
      "$&&&&&$": 1889,
      "&,#": 1890,
      "''&&'&#": 1891,
      "#&&ĝ": 1892,
      "#&&+&'": 1893,
      "%''&&&&": 1894,
      "%'&&%&$": 1895,
      "%%%&&&&": 1896,
      "%%&&'&(": 1897,
      "%%&&$&%": 1898,
      "%%&&$&(": 1899,
      "&%&&&&&&'": 1900,
      "'%%&&&&": 1901,
      "&'&&&&\"": 1902,
      "&'&&&&#": 1903,
      "&'&&&&*": 1904,
      ")&&&": 1905,
      "&-%": 1906,
      "&-&'": 1907,
      "('&&'&(": 1908,
      "('&&%&$": 1909,
      "('&&(&'": 1910,
      "('&&(&$": 1911,
      "('&&'&#": 1912,
      "('&&)&$": 1913,
      "$''&&&&": 1914,
      "$'&&$&'": 1915,
      "$'&&%&#": 1916,
      "(%&&%&'": 1917,
      "(%&&'&$": 1918,
      "(%&&(&%": 1919,
      "!&&/": 1920,
      "$%)": 1921,
      "$%&&%&(": 1922,
      "&&$&%&(&&&&": 1923,
      "%$&&$&'": 1924,
      "'((": 1925,
      "'(&&'&(": 1926,
      "'(&&(&'": 1927,
      "&&$&ě": 1928,
      "'$%&&&&": 1929,
      "'$&&%&'": 1930,
      "'$&&'&(": 1931,
      "'$&&'&)": 1932,
      "%(&&$&'": 1933,
      "*&&&(": 1934,
      "Ġ&&/": 1935,
      "Ġ&&ğ": 1936,
      "Ġ&&&\"": 1937,
      "&&%&&&&&&&&%": 1938,
      "&$&&&&)": 1939,
      "ĀĀ%Ā)": 1940,
      "ĀĀ&Ā'": 1941,
      "&&'&&&&&'": 1942,
      "''&&&&(": 1943,
      "&&&(&%": 1944,
      "($&&(&": 1945,
      "($&&(&%": 1946,
      "%%&&&&&": 1947,
      "ĀĀ$Ā(": 1948,
      "ĀĀ'Ā(": 1949,
      "&&&$&%": 1950,
      "&&+'": 1951,
      "&&)&%&'": 1952,
      "%'&&&&%": 1953,
      "&&!&%": 1954,
      "&&!&,": 1955,
      ")'&&'&": 1956,
      "ĀĀ'Ā!": 1957,
      "ĀĀ'Ā+": 1958,
      ")%&&'&$": 1959,
      "ĀĀ$Ā!": 1960,
      "'#&&'&%": 1961,
      "#$&&%&'": 1962,
      "')&&&&'": 1963,
      ")(&&'&'": 1964,
      "%\"&&&&": 1965,
      "%\"&&%&'": 1966,
      "&&%&&%&&&$": 1967,
      "&&%&&%&&&%&": 1968,
      "&&'&&''&&&&": 1969,
      "&&'&&'%&&'&": 1970,
      "%*&&&&": 1971,
      "$#(": 1972,
      "&&#&ĝ": 1973,
      "ĀĀğĀ*": 1974,
      "-&&&)": 1975,
      "(#&&'&'": 1976,
      "&&&'&&&&&": 1977,
      "ĀĀ,Ā*": 1978,
      "*'&&'&$": 1979,
      "ĀĀğĀ-": 1980,
      "&&&&(&": 1981,
      "%&&&$&%": 1982,
      "%&&&$&(": 1983,
      "(&&&(&'": 1984,
      "(&&&(&(": 1985,
      "&&%&&$(": 1986,
      "$&&&$&(": 1987,
      "&&'&&('": 1988,
      "&&'&&((": 1989,
      "&&&%&&&&&": 1990,
      "ĀĀĚĀ(": 1991,
      "$&&!&$": 1992,
      "'&&&%&(": 1993,
      ")&&&'&(": 1994,
      "(&&+&$": 1995,
      "%&&ğ&'": 1996,
      "#&&+&$": 1997,
      "&&'&&&(&&&&": 1998,
      "ĀĀėĀ": 1999,
      "!Ė": 2000,
      "!(&&&&": 2001,
      "\"&$": 2002,
      "\"%&&&&": 2003,
      "\"&&&&%": 2004,
      "\"&&'&(": 2005,
      "\"&&&&&%": 2006,
      "#ę": 2007,
      "#&&&&'": 2008,
      "#&&'&": 2009,
      "#&&%&(": 2010,
      "#&&&%&": 2011,
      "#&&&%&'": 2012,
      "##&&!": 2013,
      "$%&&": 2014,
      "$&&'&(": 2015,
      "$ĀĀ,Ā": 2016,
      "$#&&!": 2017,
      "%ę": 2018,
      "%&$": 2019,
      "%$&&!": 2020,
      "'Ě": 2021,
      "'ĀĀ": 2022,
      "'%&&+": 2023,
      "(&": 2024,
      "(&&%&": 2025,
      ")&%&&&&": 2026,
      ")*&&": 2027,
      ")#&&&&": 2028,
      ")ĀĀ)Ā": 2029,
      "*-": 2030,
      "*.": 2031,
      "*&'": 2032,
      "*ĀĀ&Ā": 2033,
      "+Ĝ": 2034,
      "+(&&": 2035,
      "+'&&+": 2036,
      ",ĝ": 2037,
      ",!&&": 2038,
      ",&&&": 2039,
      ",ĀĀ#Ā": 2040,
      ",ĀĀ\"Ā": 2041,
      "-ĀĀ(Ā": 2042,
      "-ĀĀ-Ā": 2043,
      ".#": 2044,
      ".-": 2045,
      ".ĀĀ*Ā": 2046,
      "/Ğ": 2047,
      "27": 2048,
      "34": 2049,
      "41": 2050,
      "42": 2051,
      "51": 2052,
      "60": 2053,
      "61": 2054,
      "73": 2055,
      "95": 2056,
      "Āę": 2057,
      "Āĝ": 2058,
      "Ā&*": 2059,
      "Ā%'": 2060,
      "Ā(%": 2061,
      "Ā%\"": 2062,
      "ēĀ": 2063,
      "ĕ&&": 2064,
      "Ė&&": 2065,
      "ėĜ": 2066,
      "ė&&": 2067,
      "ĘĜ": 2068,
      "ę!": 2069,
      "ę&": 2070,
      "ę&'": 2071,
      "ę&!": 2072,
      "Ě&": 2073,
      "Ěĝ": 2074,
      "Ěğ": 2075,
      "ěĘ": 2076,
      "ěě": 2077,
      "ěğ": 2078,
      "ě&'": 2079,
      "ě&&&": 2080,
      "Ĝ(": 2081,
      "Ĝ-": 2082,
      "Ĝę": 2083,
      "ĜĚ": 2084,
      "ĜĀĀ": 2085,
      "ĝ/": 2086,
      "Ğ'&&": 2087,
      "Ğ(&&": 2088,
      "ğĘ": 2089,
      "ğĚ": 2090,
      "ğ&&'&$": 2091,
      "Ġę": 2092,
      "Ġ&&*": 2093,
      "Ġ&&'&%": 2094,
      "Ġ$&&": 2095,
      "Ġ(&&": 2096,
      "Ġ''": 2097,
      "Ġ#&&": 2098,
      "Ġ&&$&": 2099,
      "Ġ%(": 2100,
      "Ġ#'": 2101,
      "Ġ%)": 2102,
      "Ġ&&'&)": 2103,
      "Ġ'#": 2104,
      "ĠĀĀ(Ā": 2105,
      "Ġ(#": 2106,
      "Ġ&/": 2107,
      "Ġ&&*&%": 2108,
      "Ġ&&)&#": 2109,
      "Ġ(*": 2110,
      "Ġ&&$&*": 2111,
      "Ġ&&\"&*": 2112,
      "&&&&-": 2113,
      "&&&&&&&'": 2114,
      "&&&&&&&&'": 2115,
      "&&&&&&%&'": 2116,
      "&')": 2117,
      "&'&'": 2118,
      "&''%": 2119,
      "&'&&'&&&&": 2120,
      "&'#%": 2121,
      "&'&&'&&'": 2122,
      "&'&&'&\"": 2123,
      "&%!": 2124,
      "&%&&": 2125,
      "&%&(": 2126,
      "&%&&'&$": 2127,
      "&%&&%&&'": 2128,
      "&%%&&%&": 2129,
      "&&%&&!": 2130,
      "&&%&&%&&&&&": 2131,
      "&&'&&\"": 2132,
      "&&'&&%&&&&": 2133,
      "&&'&&&%&": 2134,
      "&&'&&(&&&&": 2135,
      "&&'&&$%": 2136,
      "ĀĀďĀ": 2137,
      "&(!": 2138,
      "&(\"": 2139,
      "&(-": 2140,
      "&(/": 2141,
      "&(Ğ": 2142,
      "&(&)": 2143,
      "&(($": 2144,
      "&$$'": 2145,
      "&$&&'&)": 2146,
      "&&(%&&&&": 2147,
      "&&(&$&&&&": 2148,
      "&&$&&\"": 2149,
      "&&$&&%'&&&&": 2150,
      "&#!": 2151,
      "&#&%": 2152,
      "&#'(": 2153,
      "&)&&%&%": 2154,
      "&)($": 2155,
      "&)&&&&(": 2156,
      "&&#$": 2157,
      "&&#%": 2158,
      "&&#&&&%": 2159,
      "&&#&&%%": 2160,
      "&&)\"": 2161,
      "&&)&&%'": 2162,
      "&&)&&''": 2163,
      "&&)&&(#": 2164,
      "'&&&&(": 2165,
      "'&&&&&\"": 2166,
      "'&&&&&&%&&&&&": 2167,
      "&&&'&+": 2168,
      "&*#": 2169,
      "&*ĝ": 2170,
      "&*&'": 2171,
      "&*&%": 2172,
      "&*&&&&%": 2173,
      "&*&&&&$": 2174,
      "&&&%&&&&'": 2175,
      "&&&%&&&&%": 2176,
      "&\"%'": 2177,
      "&\"&&'&(": 2178,
      "&&\"%": 2179,
      "&&\"&&": 2180,
      "&&\"&&(": 2181,
      "&&\"&ğ": 2182,
      "&&*&&$": 2183,
      "&&*&&&'": 2184,
      "&+!": 2185,
      "&+,": 2186,
      "&!(": 2187,
      "&!)": 2188,
      "&!&&": 2189,
      "&!&&'&%": 2190,
      "&&&&'((": 2191,
      "&&&&'&(&&&&": 2192,
      "&&&&%%&&&&": 2193,
      "&&&&%%&&&%": 2194,
      "&&%&Ĝ": 2195,
      "%&&+&'": 2196,
      "&&%&'%'&&&&": 2197,
      "&&%&'&&&&&&": 2198,
      "&&&&&&&&&'&&&&": 2199,
      "'&&Ĝ": 2200,
      "&&%&%%%&&&&": 2201,
      "&&'&%%'&&&&": 2202,
      "$&&&(": 2203,
      "(&&Ě": 2204,
      "$&&&&&)": 2205,
      "$&&&&&'%&&&&": 2206,
      "&,$": 2207,
      "&,*": 2208,
      "'''": 2209,
      "''&&(&%": 2210,
      "''&&$&%": 2211,
      "''&&(&(": 2212,
      "''&&%&#": 2213,
      "#&&&#&'": 2214,
      "%'&&'&(": 2215,
      "%%&&(&'": 2216,
      "%%&&$&": 2217,
      "%%&&#&%": 2218,
      "%%&&)&$": 2219,
      "%%&&%&&$": 2220,
      "&%&&&&&(": 2221,
      "&%&&&&&&(": 2222,
      "&%&&&&%&&&&": 2223,
      "'%&&%&": 2224,
      "'%&&)&%": 2225,
      "&'&&&&%&&&&&&": 2226,
      "(&&&&#": 2227,
      "(&&&&&$": 2228,
      "\"&&&#&'": 2229,
      "&&%&(&#": 2230,
      "('&&%&'": 2231,
      "('&&(&(": 2232,
      "&&$&'''": 2233,
      "&&'&('%&&&&": 2234,
      "&&'&('(&&&&": 2235,
      "$'%&&&&": 2236,
      "$'&&%&$": 2237,
      "$'&&%&)": 2238,
      "$'&&#&%": 2239,
      "$'&&%&*": 2240,
      "(%&&(&": 2241,
      "(%&&'&)": 2242,
      "!&&&": 2243,
      "!&&&!": 2244,
      "$%&&%&$": 2245,
      "$%&&%&)": 2246,
      "$%&&$&$": 2247,
      "&&$&%$(": 2248,
      "&&(&'&%": 2249,
      "%$&&%&$": 2250,
      "%$&&$&%": 2251,
      "%$&&%&&&%": 2252,
      "'(&&&&'": 2253,
      "'(&&%&$": 2254,
      "&&$&ę": 2255,
      "'$&&%&": 2256,
      "'$&&(&'": 2257,
      "%(&&'&)": 2258,
      "Ġ&&-": 2259,
      "+&&.": 2260,
      "+&&Ğ": 2261,
      "+&&ğ": 2262,
      "+&&&,": 2263,
      "%&&&%&)": 2264,
      "'&&&'&#": 2265,
      "&$&&&&&&": 2266,
      "ĀĀ%Ā$": 2267,
      "$$&&%&(": 2268,
      "$$&&%&$": 2269,
      "$$&&$&": 2270,
      "$$&&%&)": 2271,
      "ĀĀ&Ā$": 2272,
      "ĀĀ&Ā)": 2273,
      "(()": 2274,
      "((&&(&$": 2275,
      "&&'&&&&&&'&&&&": 2276,
      "''&&&&$": 2277,
      "''&&&&&'": 2278,
      ")&&&&(": 2279,
      "&&&(&": 2280,
      "&&&(&#": 2281,
      "($&&'&%": 2282,
      "($&&'&(": 2283,
      "'%&&&&$": 2284,
      "'%&&&&&": 2285,
      "'%&&&&(": 2286,
      "%%&&&&(": 2287,
      "%%&&&&'%": 2288,
      "Ā)#": 2289,
      "&.&&&&": 2290,
      "#'&&%&": 2291,
      "#'&&$&'": 2292,
      "$(&&%&(": 2293,
      "$(&&(&%": 2294,
      "&&(&((#": 2295,
      "&&+#": 2296,
      "&&+&)": 2297,
      "&&+&*": 2298,
      "&&+&,": 2299,
      "%'&&&&''": 2300,
      "&&$&$&$": 2301,
      "%#&&'&'": 2302,
      "%#&&%&(": 2303,
      "%#&&%&)": 2304,
      "%#&&%&#": 2305,
      "%#&&'&)": 2306,
      ")'&&'&%": 2307,
      ")'$&&&&": 2308,
      ")'&&(&%": 2309,
      "ĀĀ)Ā(": 2310,
      "#%&&%&%": 2311,
      "&(&&&&&&": 2312,
      "ĀĀ'Ā#": 2313,
      "ĀĀ'Ā%": 2314,
      ")%&&(&'": 2315,
      "'#&&(&%": 2316,
      "ĀĀ(Ā$": 2317,
      "'\"'": 2318,
      "'\"&&'&\"": 2319,
      "ĀĀ)Ā!": 2320,
      "ĀĀ)Ā$": 2321,
      "#$&&%&%": 2322,
      "#$&&$&'": 2323,
      "#$&&$&%": 2324,
      "ĀĀ!Ā)": 2325,
      "')&&'&": 2326,
      "')&&(&(": 2327,
      "')&&)&%": 2328,
      "ĀĀ#Ā,": 2329,
      ")(&&&&%": 2330,
      ")(&&'&#": 2331,
      "%\"&&&&'": 2332,
      "&&%&&'\"": 2333,
      "&&)&$&%": 2334,
      "&&)&$'(": 2335,
      ")$&&(&%": 2336,
      ")$&&%&$": 2337,
      ")$&&(&$": 2338,
      "ĀĀ\"Ā'": 2339,
      "ğ&&/": 2340,
      "%*&&&&'": 2341,
      "$#&&%&(": 2342,
      "ĀĀ!Ā#": 2343,
      "ĀĀ!Ā-": 2344,
      "&&,&'": 2345,
      "&&,&#": 2346,
      "ĀĀ+Ā*": 2347,
      "ĀĀ*Ā\"": 2348,
      "$)&&%&)": 2349,
      "-&&.": 2350,
      "'*&&&&": 2351,
      "'*&&'&%": 2352,
      "(#&&'&%": 2353,
      "\"$&&%&'": 2354,
      "(&&&'&(": 2355,
      "\"'&&%&*": 2356,
      "&&&)&'": 2357,
      "ĀĀ-Ā*": 2358,
      "&&&&&&&&&&&&&'": 2359,
      ",&&Ğ": 2360,
      "$\"&&'&%": 2361,
      "(*&&&&": 2362,
      "&&ğ&$": 2363,
      "ĀĀĞĀ,": 2364,
      "%&&&$&)": 2365,
      "(&&&(&$": 2366,
      "%&&&'&%": 2367,
      "%&&&'&#": 2368,
      "%&&&'&)": 2369,
      "ĀĀĜĀ(": 2370,
      "&&%&&$&&&%&'": 2371,
      "'+&&&&": 2372,
      "Ā,)": 2373,
      "Ā,*": 2374,
      "$&&&$&'": 2375,
      "&&$&&'%&&&&": 2376,
      "'&&&&&%'&&&&&": 2377,
      "&&'&&(%": 2378,
      "+'&&'&'": 2379,
      "&&$&&&&&'": 2380,
      "Ġ&&&&\"": 2381,
      "Ġ&&&&#": 2382,
      "&&%&&&'&&%&": 2383,
      "%&&!&)": 2384,
      "'$&&&&$": 2385,
      "'$&&&&)": 2386,
      "&%&&&&'&": 2387,
      "#&&&$&'": 2388,
      "#&&&$&(": 2389,
      "#&&&$&$": 2390,
      "&%%&&&&&%": 2391,
      "%&&+&\"": 2392,
      "&&&&&&&&&&&&&&&&&&&&&&&&": 2393,
      ")&&&'&$": 2394,
      "(&&!&%": 2395,
      "&&''&&'&'": 2396,
      "&&(%&&'&": 2397,
      "(&&+&,": 2398,
      "ĀĀęĀ%": 2399,
      "&%(&&&'&": 2400,
      "&&%&&#'": 2401,
      "'&&&$&(": 2402,
      "!&&+&\"": 2403,
      "%&&,&'": 2404,
      "\"&&&$&$": 2405,
      "&&%&&%'&&%&'": 2406,
      "&&)'&&(&%": 2407,
      "ĀĀ;Ā": 2408,
      "!&&%&%": 2409,
      "!&&'&(": 2410,
      "!*&&": 2411,
      "!ĀĀ!Ā": 2412,
      "!\"&&Ğ": 2413,
      "\"/": 2414,
      "\"Ė": 2415,
      "\"&%": 2416,
      "\"ĀĀ": 2417,
      "\"%&&": 2418,
      "\")&&": 2419,
      "\"\"&&": 2420,
      "\"+&&": 2421,
      "\"((": 2422,
      "\"#'": 2423,
      "\"&&&%&'": 2424,
      "\"#&&!": 2425,
      "\"$&&Ĝ": 2426,
      "#&": 2427,
      "#Ě": 2428,
      "#&(": 2429,
      "#&&&&%": 2430,
      "#&&%&'": 2431,
      "#(&&": 2432,
      "#&&'&(": 2433,
      "#ĀĀ&Ā": 2434,
      "#&&$&(": 2435,
      "#*&&!": 2436,
      "$&\"": 2437,
      "$&&&&'": 2438,
      "$&&%&": 2439,
      "$#&&": 2440,
      "$&&%&(": 2441,
      "$!&&": 2442,
      "$&&'&#": 2443,
      "$&&)&(": 2444,
      "$$&&!": 2445,
      "%Ě": 2446,
      "%)&&": 2447,
      "%&&$&'": 2448,
      "%*&&": 2449,
      "&Ĕ": 2450,
      "&ĀĀ%Ā": 2451,
      "&ĀĀ#Ā": 2452,
      "'/": 2453,
      "'ě": 2454,
      "'&*": 2455,
      "'&&'&(": 2456,
      "'&&(&'": 2457,
      "'ĀĀ\"Ā": 2458,
      "(ę": 2459,
      "(&&(&": 2460,
      "(&&)&": 2461,
      "(!&&&&": 2462,
      "(&&&%&(": 2463,
      ")&": 2464,
      ")&&'&": 2465,
      ")&&%&": 2466,
      ")#&&": 2467,
      ")(&&&&": 2468,
      ")\"&&": 2469,
      ")&&%&(": 2470,
      ")'$": 2471,
      ")ĀĀ&Ā": 2472,
      ")ĀĀ(Ā": 2473,
      ")%&&+": 2474,
      ")$&&+": 2475,
      "*&": 2476,
      "*Ĝ": 2477,
      "*ĝ": 2478,
      "*%&&&&": 2479,
      "*&&%&'": 2480,
      "*(&&": 2481,
      "*&&%&(": 2482,
      "*ĀĀ%Ā": 2483,
      "*ĀĀ$Ā": 2484,
      "*ĀĀ(Ā": 2485,
      "*ĀĀ+Ā": 2486,
      "+ę": 2487,
      "+&&&&'": 2488,
      "+%&&": 2489,
      "+$&&&&": 2490,
      "+%%": 2491,
      "+&&'&(": 2492,
      "+)&&&&": 2493,
      "+&&#&'": 2494,
      "+ĀĀ#Ā": 2495,
      "+ğ&&": 2496,
      "+Ğ&&": 2497,
      ",&&'&'": 2498,
      ",%&&": 2499,
      ",&&%&%": 2500,
      ",(&&": 2501,
      ",ĀĀ%Ā": 2502,
      ",ĀĀ'Ā": 2503,
      ",ĀĀ*Ā": 2504,
      "-.": 2505,
      "-'&&": 2506,
      "-#&&": 2507,
      "-ĀĀ+Ā": 2508,
      ".,": 2509,
      ".&#": 2510,
      ".&&%&": 2511,
      ".'&&": 2512,
      ".(&&": 2513,
      ".ĀĀ$Ā": 2514,
      ".ĀĀ#Ā": 2515,
      ".ĀĀ+Ā": 2516,
      ".ĀĀ/Ā": 2517,
      "//": 2518,
      "/ğ": 2519,
      "/'&&": 2520,
      "/ĀĀ,Ā": 2521,
      "/ĀĀ/Ā": 2522,
      "03": 2523,
      "04": 2524,
      "16": 2525,
      "23": 2526,
      "30": 2527,
      "31": 2528,
      "32": 2529,
      "43": 2530,
      "71": 2531,
      "80": 2532,
      ":ĀĀ": 2533,
      "Ā&#": 2534,
      "ĈĀ": 2535,
      "ĎĀ": 2536,
      "Ē&&": 2537,
      "ĒĀĀ": 2538,
      "Ē&(": 2539,
      "Ĕ&": 2540,
      "Ĕ.": 2541,
      "ĔĀĀ": 2542,
      "ĕ&": 2543,
      "ĖĀĀ": 2544,
      "ė(": 2545,
      "ė&&&": 2546,
      "Ę$": 2547,
      "Ę*": 2548,
      "Ę.": 2549,
      "Ę!&&": 2550,
      "ęğ": 2551,
      "Ě,": 2552,
      "Ěę": 2553,
      "ĚĚ": 2554,
      "Ě&%": 2555,
      "ě$": 2556,
      "ě&*": 2557,
      "ě%&&": 2558,
      "ěĝ&&": 2559,
      "Ĝ/": 2560,
      "Ĝě": 2561,
      "ĜĜ": 2562,
      "Ĝ%&&": 2563,
      "ĜĀĀ#Ā": 2564,
      "ĝĝ": 2565,
      "ĝ&&&#": 2566,
      "Ğ+": 2567,
      "Ğ/": 2568,
      "Ğė": 2569,
      "Ğę": 2570,
      "ĞĚ": 2571,
      "Ğĝ": 2572,
      "Ğ#&&": 2573,
      "Ğ&&&#": 2574,
      "ğ.": 2575,
      "ğ&&&&%": 2576,
      "ğ$&&": 2577,
      "ğ#&&": 2578,
      "ğ%&&!": 2579,
      "Ġ&&%&(": 2580,
      "Ġ&&(&%": 2581,
      "Ġ#&&&&": 2582,
      "Ġ&&%&#": 2583,
      "ĠĀĀ$Ā": 2584,
      "ĠĀĀ)Ā": 2585,
      "Ġ)(": 2586,
      "Ġ&&#&(": 2587,
      "Ġğ&&": 2588,
      "Ġ&&'&\"": 2589,
      "Ġ&&)&(": 2590,
      "Ġ\"'": 2591,
      "Ġ&&%&\"": 2592,
      "Ġ$\"": 2593,
      "Ġ&&#&*": 2594,
      "Ġ&&*&$": 2595,
      "Ġ))": 2596,
      "Ġ&&&&$": 2597,
      "Ġ&&%&!": 2598,
      "Ġ+&&!": 2599,
      "Ġ)&&ğ": 2600,
      "&&&&&": 2601,
      "&&&&,": 2602,
      "&&&&&\"": 2603,
      "&&&&&&\"": 2604,
      "&&&&$%": 2605,
      "&&&&((": 2606,
      "&&&&&$'": 2607,
      "&'ğ": 2608,
      "&'&&": 2609,
      "&'%'": 2610,
      "&'&%&&&&": 2611,
      "&'&&$&'": 2612,
      "&'&&%&$": 2613,
      "&'&(&&&&": 2614,
      "&'*%": 2615,
      "&%$%": 2616,
      "&%%(": 2617,
      "&%&&'&&&&": 2618,
      "&%&&%&#": 2619,
      "&%(\"": 2620,
      "&%&&'&*": 2621,
      "&%&&%&&&&&&&&": 2622,
      "&&%&&\"": 2623,
      "&&%&&&'&": 2624,
      "&&'(&&&&": 2625,
      "ĀĀ<": 2626,
      "ĀĀ>": 2627,
      "ĀĀą": 2628,
      "ĀĀđ": 2629,
      "ĀĀĒ": 2630,
      "ĀĀ>Ā": 2631,
      "ĀĀ@Ā": 2632,
      "&(,": 2633,
      "&(&&\"": 2634,
      "&(&&'&'": 2635,
      "&(&&$&%": 2636,
      "&('(": 2637,
      "&('%&&&&": 2638,
      "&(&&%&)": 2639,
      "&(%*": 2640,
      "&(%&&&&&'": 2641,
      "&$)": 2642,
      "&$Ě": 2643,
      "&$Ĝ": 2644,
      "&$'&&": 2645,
      "&$(&&&&": 2646,
      "&$&&(&": 2647,
      "&$&&(&'": 2648,
      "&$&&)&'": 2649,
      "&$%&&&&&": 2650,
      "&$&&\"&%": 2651,
      "&&(*": 2652,
      "&&(&&&&%": 2653,
      "&&(&&&&&&&&": 2654,
      "&&(&&,": 2655,
      "&&(&&&'&&&&": 2656,
      "&&(&&%%&&&&": 2657,
      "&&(&&%$": 2658,
      "&&$&&*": 2659,
      "&&$&&&&&&&&": 2660,
      "&&$&&$'": 2661,
      "&#ĝ": 2662,
      "&#&#": 2663,
      "&#&&&&'": 2664,
      "&#&&%&%": 2665,
      "&#&&'&%": 2666,
      "&))": 2667,
      "&)&&": 2668,
      "&)&$": 2669,
      "&)&&'&%": 2670,
      "&)&&'&(": 2671,
      "&)&&$&%": 2672,
      "&)&&(&'": 2673,
      "&)&&'&#": 2674,
      "&))$": 2675,
      "&)$#": 2676,
      "&&#!": 2677,
      "&&#(": 2678,
      "&&#&&*": 2679,
      "&&#&&&(": 2680,
      "&&)(": 2681,
      "&&)&&&%": 2682,
      "&&)&(&&&&": 2683,
      "%&&&&#": 2684,
      "%&&&&&&(": 2685,
      "%&&&&&&$": 2686,
      "%&&&&&&%&": 2687,
      "'&&&&&&'": 2688,
      "'&&&&&&&'": 2689,
      "'&&&&$%": 2690,
      "'&&&&&'%&&&&": 2691,
      "&&&'&\"": 2692,
      "&&&'&&&&&&&&&&&&&&&&": 2693,
      "&*(": 2694,
      "&*$'": 2695,
      "&*#$": 2696,
      "&&&%&&%&": 2697,
      "&\"\"": 2698,
      "&\"&": 2699,
      "&\"&&%&'": 2700,
      "&&\"&&%": 2701,
      "&&\"&&&'": 2702,
      "&&\"&&&(": 2703,
      "&&\"&&&$": 2704,
      "&&*&&%": 2705,
      "&&*&&'": 2706,
      "&&*&&*": 2707,
      "&&*&/": 2708,
      "&+\"": 2709,
      "&+&": 2710,
      "&+(": 2711,
      "&+&(": 2712,
      "&+&$": 2713,
      "&+&)": 2714,
      "&+&&%&%": 2715,
      "&!&!": 2716,
      "&!&&%&": 2717,
      "&!&&$&": 2718,
      "&!&&-": 2719,
      "&&&&'&)": 2720,
      "&&&&'&&&'": 2721,
      "&&&&'&!": 2722,
      "&&&&'%%": 2723,
      "&&&&'%$": 2724,
      "&&&&'&'&&&&'": 2725,
      "&&&&%&(": 2726,
      "&&'&ĝ": 2727,
      "&&%&ĝ": 2728,
      "&&'&'&&&&%": 2729,
      "&&'&'''": 2730,
      "&&'&'&&&&&&": 2731,
      "%&&Ě": 2732,
      "&&%&'&$&&&&": 2733,
      "&&%&'$$": 2734,
      "&&%&%&'&&&&": 2735,
      "&&%&%$$": 2736,
      "&&'&%''": 2737,
      "&&'&%%%": 2738,
      "&&'&%'&&&'": 2739,
      "$&&&": 2740,
      "(&&.&$": 2741,
      "$&&&&$": 2742,
      "$&&&&*": 2743,
      "$&&&&&&'&&&&": 2744,
      "&,(": 2745,
      "''&&'&$": 2746,
      "'''&&'&": 2747,
      "#&&&!": 2748,
      "%'%&&&&": 2749,
      "%'&&(&$": 2750,
      "%'&&%&)": 2751,
      "%'&&#&(": 2752,
      "%'&&%&*": 2753,
      "%'&&%&&&&&&&&": 2754,
      "%%&&'&%": 2755,
      "&%&&&&&&'&&&&": 2756,
      "'%&&%&(": 2757,
      "'%&&%&)": 2758,
      "'%&&%&#": 2759,
      "'%&&'&)": 2760,
      "&'&&&&)": 2761,
      "&'&&&&&&%": 2762,
      "&'&&&&'&&&&": 2763,
      "(&&&&$": 2764,
      "(&&&&&'%&&&&": 2765,
      ")&&&$": 2766,
      "&&%&('$": 2767,
      "&&%&('%&&&&": 2768,
      "&-!": 2769,
      "&-$": 2770,
      "('!": 2771,
      "('\"": 2772,
      "('&&%&)": 2773,
      "('&&'&)": 2774,
      "('&&'&\"": 2775,
      "$'&&$&(": 2776,
      "&&'&$'%&&&&": 2777,
      "(%*": 2778,
      "(%&&'&(": 2779,
      "(%&&(&'": 2780,
      "(%&&)&": 2781,
      "!&&&#&$": 2782,
      "$%&&$&%": 2783,
      "$%&&#&'": 2784,
      "&&(&%%'": 2785,
      "&&%&$'(&&&&": 2786,
      "&&(&'&'": 2787,
      "%$&&(&'": 2788,
      "%$&&$&(": 2789,
      "%$&&'&#": 2790,
      "'(%&&&&": 2791,
      "'(&&$&%": 2792,
      "'(&&'&)": 2793,
      "'$&&%&%": 2794,
      "'$&&'&&%": 2795,
      "%(&&%&#": 2796,
      "*&&ĝ": 2797,
      "*&&&$": 2798,
      "*&&&(&%": 2799,
      "*&&&(&'": 2800,
      "#&&&&&)": 2801,
      "Ġ&&Ė": 2802,
      "Ġ&&&#": 2803,
      "Ġ&&&!": 2804,
      "+&&&": 2805,
      "%&&&%&&&'": 2806,
      "%&&&%&&%%&&&&": 2807,
      "'&&&'&)": 2808,
      "'&&&'&%&&&&": 2809,
      "&ğ'": 2810,
      "&$&&&&\"": 2811,
      "&$&&&&&&'": 2812,
      "&$&&&&&&%&&&&": 2813,
      "ĀĀ%Ā(": 2814,
      "ĀĀ%Ā+": 2815,
      "ĀĀ%Ā,": 2816,
      "ĀĀ%Ā.": 2817,
      "ĀĀ%Ā/": 2818,
      "ĀĀ&Ā!": 2819,
      "ĀĀ&Ā,": 2820,
      "ĀĀ&Ā-": 2821,
      "ĀĀ&Āğ": 2822,
      "((&&%&": 2823,
      "((&&'&(": 2824,
      "((&&'&$": 2825,
      "((&&(&": 2826,
      "((&&(&%": 2827,
      "((&&(&'": 2828,
      "((&&%&)": 2829,
      "''&&&&&%": 2830,
      ")&&&&*": 2831,
      ")&&&&,": 2832,
      ")&&&&&%": 2833,
      "($\"": 2834,
      "($&&'&": 2835,
      "($&&(&'": 2836,
      "($&&(&)": 2837,
      "%%&&&&$": 2838,
      "Ā)*": 2839,
      "#'&&%&'": 2840,
      "#'&&%&%": 2841,
      "#'&&%&(": 2842,
      "#'&&%&&(": 2843,
      "#'&&$&+": 2844,
      "$(&&%&$": 2845,
      "$(&&$&%": 2846,
      "&&(&(&#": 2847,
      "&&&$&": 2848,
      "%)&&%&(": 2849,
      "%)&&$&'": 2850,
      "%'&&&&(": 2851,
      "&&!&": 2852,
      "&&!&#": 2853,
      "&&$&$&(": 2854,
      "&&$&$$'": 2855,
      "%#&&'&": 2856,
      "%#&&%&": 2857,
      ")'&&)&'": 2858,
      ")'&&'&\"": 2859,
      ")'&&(&#": 2860,
      "ĀĀ)Ā*": 2861,
      "&&&/": 2862,
      "#%&&%&": 2863,
      "#%&&$&'": 2864,
      "#%&&$&%": 2865,
      "#%&&%&*": 2866,
      ")%&&)&$": 2867,
      "ĀĀ$Ā#": 2868,
      "'#&&'&": 2869,
      "'#&&%&%": 2870,
      "'#&&'&(": 2871,
      "ĀĀ(Ā\"": 2872,
      "ĀĀ(Ā-": 2873,
      "'\"&&'&%": 2874,
      "'\"&&(&%": 2875,
      "'\"&&(&'": 2876,
      "ĀĀ)Ā+": 2877,
      "ĀĀ)Ā-": 2878,
      "ĀĀ)Ā.": 2879,
      "ĀĀ)ĀĚ": 2880,
      "#$&&%&(": 2881,
      "#$&&%&$": 2882,
      "')&&%&": 2883,
      "')&&%&%": 2884,
      "&&'&&%(": 2885,
      "&&'&&%&&&%&": 2886,
      "ĀĀ#Ā!": 2887,
      "ĀĀ#Ā%": 2888,
      "ĀĀ#Āğ": 2889,
      ")(&&%&": 2890,
      ")(&&'&$": 2891,
      ")(&&)&$": 2892,
      "&&%&&%(": 2893,
      "&&%&&%%&&%&": 2894,
      "&&%&&'(&&&&": 2895,
      "&&'&&'&&&'&": 2896,
      "ĀĀ*Ā*": 2897,
      "&&#&(%'": 2898,
      ")$&&'&(": 2899,
      ")$&&)&(": 2900,
      "ĀĀ\"Ā+": 2901,
      "ğ&&ę": 2902,
      "ğ&&Ě": 2903,
      "ğ&&Ğ": 2904,
      "&&$&)'\"": 2905,
      "&&$&)(\"": 2906,
      "&&#&/": 2907,
      "&&#&Ĝ": 2908,
      "&&)&Ě": 2909,
      "&&,&\"": 2910,
      "ĀĀ*Ā+": 2911,
      "ĀĀ*Ā,": 2912,
      "#(&&&&'": 2913,
      "$)&&%&%": 2914,
      "-&&/": 2915,
      "-&&Ğ": 2916,
      "-&&&,": 2917,
      "(\"&&'&)": 2918,
      "(\"&&(&#": 2919,
      "&&&#&'": 2920,
      "ĀĀ,Ā(": 2921,
      "##&&%&)": 2922,
      "\"%&&%&'": 2923,
      "\"%&&$&'": 2924,
      "\"'&&$&'": 2925,
      "&&&)&(": 2926,
      "&&&&&&&&&&&&&&": 2927,
      "&&*&%''": 2928,
      "*$&&(&(": 2929,
      ",&&-": 2930,
      ",&&ğ": 2931,
      ",&&&.": 2932,
      "ĀĀ,Ā+": 2933,
      "%!&&&&)": 2934,
      "ĠĀ-": 2935,
      "ĠĀ.": 2936,
      "ĀĀ/Ā*": 2937,
      "&&*&'%'": 2938,
      "()&&'&$": 2939,
      "()&&(&'": 2940,
      "$*&&&&%": 2941,
      "#)&&$&(": 2942,
      "'&&&(&)": 2943,
      "&&ğ&": 2944,
      "&&ğ&%": 2945,
      "&&ğ&+": 2946,
      "ĀĀ-Ā!": 2947,
      "ĀĀĞĀ)": 2948,
      "(&&&(&)": 2949,
      "ĀĀĜĀ*": 2950,
      "))&&'&%": 2951,
      "&&-&$": 2952,
      "&&-&)": 2953,
      "&&%&&$'": 2954,
      "&&%&&$)": 2955,
      "&&(&&'(": 2956,
      "*(&&'&'": 2957,
      "*(&&(&": 2958,
      "&'&&&&'&%": 2959,
      "&&Ğ&,": 2960,
      "&'&&&&%&": 2961,
      "&'&&&&%&(": 2962,
      "Ā,$": 2963,
      "$&&&$&)": 2964,
      "&&$&&''&&&&": 2965,
      "&&$&&'&&&'": 2966,
      ")*&&(&'": 2967,
      "+'&&(&#": 2968,
      "ĀĀĜĀ-": 2969,
      "$'&&&&(": 2970,
      "%&&!&%": 2971,
      "%(&&&&(": 2972,
      "+(&&)&%": 2973,
      "Ġ%.": 2974,
      "!(&&$&'": 2975,
      "$&&!&\"": 2976,
      "ĀĀęĀ)": 2977,
      "&'%&&'&": 2978,
      "%&&+&#": 2979,
      "%&&+&!": 2980,
      "#&&!&(": 2981,
      "'&&&%&$": 2982,
      "'&&+&#": 2983,
      "#*&&$&'": 2984,
      "(&&!&)": 2985,
      "!&&&&(%": 2986,
      "ĀĀĚĀ+": 2987,
      "$&&+&$": 2988,
      ")&&&(&": 2989,
      "%&&&(&\"": 2990,
      "&'$&&&%&'": 2991,
      "%&&ğ&#": 2992,
      "&%'&&%&": 2993,
      "&%'&&%&'": 2994,
      "&#&&&&&&'": 2995,
      "&&(&&($": 2996,
      "'&&&)&%": 2997,
      "&&&&%&%&&'&%": 2998,
      "&&'&&$&&&$": 2999,
      "ĀĀĖĀ(": 3000,
      "$&&&#&%": 3001,
      "ğ(ĀĀ": 3002,
      "$&&,&\"": 3003,
      ")&&+&(": 3004,
      "!&&+&%": 3005,
      "(&&,&#": 3006,
      "ĀĀĕĀ(": 3007,
      "&&$&&($": 3008,
      "'&&&&%&": 3009,
      "!&&!&": 3010,
      "%&&&&%&": 3011,
      "%&&Ğ&)": 3012,
      "#&&ğ&*": 3013,
      "Ġ&&!&": 3014,
      ")&&&*&#": 3015,
      "*&&&*&(": 3016,
      "ĀĀĔĀ": 3017,
      "&&#'&&$&%": 3018,
      "''&&&&%&%&&&&": 3019,
      "!Ę": 3020,
      "!&&&'": 3021,
      "!&*": 3022,
      "!&+": 3023,
      "!&&%&(": 3024,
      "!&&$&(": 3025,
      "!ĀĀ'Ā": 3026,
      "!&&*&'": 3027,
      "!&&&&#": 3028,
      "!*)": 3029,
      "!#&&!": 3030,
      "\"ę": 3031,
      "\"&)": 3032,
      "\"'&&&&": 3033,
      "\"&&%&": 3034,
      "\"'&&": 3035,
      "\"&&'&%": 3036,
      "\"(&&": 3037,
      "\"''": 3038,
      "\"&&'&$": 3039,
      "\"!&&": 3040,
      "\"%#": 3041,
      "\"&&&%&": 3042,
      "\"&&'&\"": 3043,
      "\"\"%": 3044,
      "\"\"'": 3045,
      "\"ĀĀĚĀ": 3046,
      "\"*&&Ğ": 3047,
      "#/": 3048,
      "#ē": 3049,
      "#ĕ": 3050,
      "#ė": 3051,
      "#&+": 3052,
      "#&&%&%": 3053,
      "#&%&&&&": 3054,
      "#)&&": 3055,
      "#&&$&'": 3056,
      "#$(": 3057,
      "#&&(&(": 3058,
      "#&&)&%": 3059,
      "#&&%&#": 3060,
      "#&&'&&%": 3061,
      "#-&&": 3062,
      "#*)": 3063,
      "##&&+": 3064,
      "#&&&%&$": 3065,
      "#!&&!": 3066,
      "#ěĀĀ": 3067,
      "#&&*&&#": 3068,
      "$;": 3069,
      "$Ę": 3070,
      "$ě": 3071,
      "$'&&": 3072,
      "$$&&": 3073,
      "$&&)&'": 3074,
      "$&&&'&": 3075,
      "$ĀĀ(Ā": 3076,
      "$&&%&&%": 3077,
      "$'&&!": 3078,
      "$&&&'&'": 3079,
      "$)&&!&%": 3080,
      "%Ę": 3081,
      "%''": 3082,
      "%%'": 3083,
      "%&&(&'": 3084,
      "%ĀĀ&Ā": 3085,
      "%&&$&$": 3086,
      "%&&'&)": 3087,
      "%ĀĀ\"Ā": 3088,
      "%&&*&%": 3089,
      "%)&&!": 3090,
      "&ē": 3091,
      "&ĀĀ&Ā": 3092,
      "'ē": 3093,
      "'$&&": 3094,
      "')&&": 3095,
      "'&&$&'": 3096,
      "'!&&": 3097,
      "'+&&": 3098,
      "'&&#&%": 3099,
      "'%&&!": 3100,
      "'&&*&#": 3101,
      "(&&&&'": 3102,
      "(%&&": 3103,
      "(''": 3104,
      "(ĀĀ\"Ā": 3105,
      "(ĀĀ!Ā": 3106,
      "(&&)&#": 3107,
      "(&&&%&%": 3108,
      "(%&&+": 3109,
      "(&&&%&$": 3110,
      "('&&/": 3111,
      "(!&&,": 3112,
      "($&&.": 3113,
      ")/": 3114,
      ")&&&&'": 3115,
      ")%&&": 3116,
      "))&&": 3117,
      ")&&'&(": 3118,
      ")&&(&'": 3119,
      ")&&(&(": 3120,
      ")ĀĀ#Ā": 3121,
      "))(": 3122,
      ")##": 3123,
      ")&&*&'": 3124,
      ")(&&,": 3125,
      "*/": 3126,
      "*&&*": 3127,
      "*&&'&": 3128,
      "*#&&": 3129,
      "*%'": 3130,
      "*(&&&&": 3131,
      "*&&$&'": 3132,
      "*$$": 3133,
      "*%\"": 3134,
      "*ĀĀğĀ": 3135,
      "*ĀĀ,Ā": 3136,
      "*&&&&&%": 3137,
      "*&&)&+": 3138,
      "*!&&,": 3139,
      "+ě": 3140,
      "+'&&&&": 3141,
      "+&&&&%": 3142,
      "+&&%&%": 3143,
      "+&&'&%": 3144,
      "+$&&": 3145,
      "+&,": 3146,
      "+#&&": 3147,
      "+&&%&$": 3148,
      "+#&&&&": 3149,
      "+ĀĀ&Ā": 3150,
      "+&&&'&": 3151,
      "+'\"": 3152,
      "+ĀĀ)Ā": 3153,
      "+ĀĀ\"Ā": 3154,
      "+ĀĀ-Ā": 3155,
      "+ĀĀĝĀ": 3156,
      "+*)": 3157,
      "+%&&+": 3158,
      "+(&&+": 3159,
      ",/": 3160,
      ",&(": 3161,
      ",%&&&&": 3162,
      ",'&&&&": 3163,
      ",&&%&": 3164,
      ",)(": 3165,
      ",-'": 3166,
      ",'&&-": 3167,
      ",&&&(&'": 3168,
      ",&&!&'": 3169,
      "-Ě": 3170,
      "-%&&&&": 3171,
      "-(&&": 3172,
      "-&&%&(": 3173,
      "-ĀĀ'Ā": 3174,
      "-ĀĀ!Ā": 3175,
      "--&&": 3176,
      "-&&$&*": 3177,
      "-#&&+": 3178,
      ".ě": 3179,
      ".Ğ": 3180,
      ".&\"": 3181,
      ".&+": 3182,
      ".$&&": 3183,
      ".&&+": 3184,
      ".ĀĀ(Ā": 3185,
      ".&&,": 3186,
      ".,&&": 3187,
      ".%&&-": 3188,
      ".$&&-": 3189,
      "/ĀĀ)Ā": 3190,
      "/ĀĀ!Ā": 3191,
      "25": 3192,
      "36": 3193,
      "39": 3194,
      "40": 3195,
      "45": 3196,
      "46": 3197,
      "58": 3198,
      "62": 3199,
      "64": 3200,
      "75": 3201,
      ":Ā": 3202,
      ";ĀĀ%Ā": 3203,
      "ĀĖ": 3204,
      "Āė": 3205,
      "Ā&'": 3206,
      "Ā%%": 3207,
      "Ā\"%": 3208,
      "Ā%+": 3209,
      "ćĀ": 3210,
      "ĐĀ": 3211,
      "ē.": 3212,
      "ē&*": 3213,
      "ĔĀ": 3214,
      "ĕĘ": 3215,
      "ĕ&&&&": 3216,
      "Ė*": 3217,
      "Ė+": 3218,
      "ĖĀĀ&Ā": 3219,
      "ė&": 3220,
      "ė*": 3221,
      "ėĖ": 3222,
      "ėğ": 3223,
      "ė!&&": 3224,
      "Ę+": 3225,
      "Ę-": 3226,
      "Ę&'": 3227,
      "Ę&&'&": 3228,
      "ĘĀ.": 3229,
      "ę)": 3230,
      "ę-": 3231,
      "ę/": 3232,
      "ęę": 3233,
      "ęě": 3234,
      "ęĜ": 3235,
      "ę&)": 3236,
      "ę&*": 3237,
      "Ě'": 3238,
      "Ě&\"": 3239,
      "Ě&&,": 3240,
      "ĚĚ&&": 3241,
      "ěĚ": 3242,
      "ěĞ": 3243,
      "ě&$": 3244,
      "ě&#": 3245,
      "Ĝ.": 3246,
      "ĜĖ": 3247,
      "Ĝ&%": 3248,
      "Ĝ*&&": 3249,
      "ĜĀĀ)Ā": 3250,
      "Ĝ#(": 3251,
      "Ĝ.&&": 3252,
      "ĝ+": 3253,
      "ĝ-": 3254,
      "ĝ&$": 3255,
      "ĝ&!": 3256,
      "ĝĀĀ%Ā": 3257,
      "ĝ\"+": 3258,
      "ĞĜ": 3259,
      "Ğ&&&&%": 3260,
      "Ğ$&&": 3261,
      "Ğ!&&": 3262,
      "Ğ&&$&(": 3263,
      "Ğ&&\"&%": 3264,
      "ĞĀĀĚĀ": 3265,
      "Ğ-$": 3266,
      "ğ/": 3267,
      "ğė": 3268,
      "ğ%&&": 3269,
      "ğ(&&": 3270,
      "ğ*&&": 3271,
      "ğ&&&": 3272,
      "ğĀĀ*Ā": 3273,
      "ğ'&&!": 3274,
      "ğ./": 3275,
      "Ġ3": 3276,
      "ĠĔ": 3277,
      "Ġ'&&&&": 3278,
      "Ġ&&&%": 3279,
      "Ġ!&&": 3280,
      "Ġ'$": 3281,
      "Ġ$$": 3282,
      "Ġ'%&&&&": 3283,
      "ĠĀ)": 3284,
      "Ġ&&$&(": 3285,
      "Ġ$(": 3286,
      "Ġ&&#&'": 3287,
      "ĠĀ(": 3288,
      "Ġ&&'&#": 3289,
      "Ġ)'": 3290,
      "Ġ')": 3291,
      "ĠĀĀ#Ā": 3292,
      "Ġ%\"": 3293,
      "Ġ&&)&$": 3294,
      "Ġ&&%&*": 3295,
      "Ġ&&)&": 3296,
      "ĠĀĀ*Ā": 3297,
      "Ġ$)": 3298,
      "Ġ'*": 3299,
      "Ġ(\"": 3300,
      "Ġ&ĝ": 3301,
      "Ġ\"$": 3302,
      "Ġ&&\"&'": 3303,
      "Ġ&&#&$": 3304,
      "Ġ&&'&*": 3305,
      "Ġ()": 3306,
      "Ġ$*": 3307,
      "ĠĀĀ-Ā": 3308,
      "Ġ&&&&(": 3309,
      "Ġ&&(&\"": 3310,
      "Ġ&&*&(": 3311,
      "Ġ'+": 3312,
      "Ġ&&$&\"": 3313,
      "Ġ&&'&+": 3314,
      "Ġ!$": 3315,
      "Ġ&&%'": 3316,
      "ĠĞ&&": 3317,
      "Ġ!(": 3318,
      "Ġ*)": 3319,
      "Ġ&&'&&": 3320,
      "Ġ&&#&\"": 3321,
      "Ġ,)": 3322,
      "Ġ(&&!": 3323,
      "Ġ.&&": 3324,
      "Ġ!*": 3325,
      "Ġğ)": 3326,
      "Ġ&&'&ğ": 3327,
      "Ġ&&&%&$": 3328,
      "Ġ$&&Ğ": 3329,
      "&&&,": 3330,
      "&&&-": 3331,
      "&&&&&&$": 3332,
      "&&&&&&&%": 3333,
      "&&&&&&%&": 3334,
      "&'Ĝ": 3335,
      "&'&&&'": 3336,
      "&'&&&&&&&&": 3337,
      "&'%%": 3338,
      "&'%$": 3339,
      "&''(": 3340,
      "&''&&&'": 3341,
      "&'''&&&&": 3342,
      "&'&&)&%": 3343,
      "&'&&#&'": 3344,
      "&''&&&&&": 3345,
      "&'&&#&$": 3346,
      "&'%&&&&&": 3347,
      "&'%!": 3348,
      "&'&&%&+": 3349,
      "&''&&&&&%": 3350,
      "&'&&#&#": 3351,
      "&'%&&&%&": 3352,
      "&%-": 3353,
      "&%&&'": 3354,
      "&%&*": 3355,
      "&%%%": 3356,
      "&%%$": 3357,
      "&%&&%&&&&": 3358,
      "&%((": 3359,
      "&%%%&&&&": 3360,
      "&%&&$&(": 3361,
      "&%')": 3362,
      "&%&&#&(": 3363,
      "&%$)": 3364,
      "&%\"'": 3365,
      "&%&&%&\"": 3366,
      "&%%&&&'": 3367,
      "&%$'&&&&": 3368,
      "&%$!": 3369,
      "&&%*": 3370,
      "&&%&&%&": 3371,
      "&&%&&&&&&&&&&&&": 3372,
      "&&%&&*'": 3373,
      "&&%&&%&&&&&%": 3374,
      "&&')": 3375,
      "&&'''&&&&": 3376,
      "&&'&&&&&&&&&&&&": 3377,
      "&&'&&-": 3378,
      "&&'&&$'": 3379,
      "&&'%&&'&": 3380,
      "ĀĀď": 3381,
      "ĀĀĒĀ": 3382,
      "ĀĀđĀ": 3383,
      "&('&&&&": 3384,
      "&(&&$&'": 3385,
      "&(&&%&$": 3386,
      "&(&&(&'": 3387,
      "&(%$": 3388,
      "&(&&&'&": 3389,
      "&($#": 3390,
      "&((#": 3391,
      "&(\"'": 3392,
      "&(&&'&+": 3393,
      "&(&&&&%&": 3394,
      "&$&": 3395,
      "&$%&&&&": 3396,
      "&$'&&&&": 3397,
      "&$&&%&(": 3398,
      "&$&&'&(": 3399,
      "&$&&(&%": 3400,
      "&$&&%&$": 3401,
      "&$((": 3402,
      "&$&&(&(": 3403,
      "&$&&&%&": 3404,
      "&$#$": 3405,
      "&$')": 3406,
      "&$#(": 3407,
      "&$$)": 3408,
      "&$&&&%&'": 3409,
      "&$+#": 3410,
      "&$%&&&(": 3411,
      "&$&&/": 3412,
      "&$%&&&&&%": 3413,
      "&$)ğ": 3414,
      "&$(&&&*": 3415,
      "&$&&%&&&$&&&&": 3416,
      "&&(&%&&&&": 3417,
      "&&(#&&&&": 3418,
      "&&(&&'&&&&": 3419,
      "&&(&&&'&": 3420,
      "&&(&&&%&&&&": 3421,
      "&&(&&%&&&'": 3422,
      "&&(&&%'": 3423,
      "&&(&&$'": 3424,
      "&&(&&/": 3425,
      "&&(&&%&&&$": 3426,
      "&&$+": 3427,
      "&&$'&&&&": 3428,
      "&&$&&'&": 3429,
      "&&$(&&&&": 3430,
      "&&$)&&&&": 3431,
      "&&$&&&'&&&&": 3432,
      "&&$&&%&&&%": 3433,
      "&&$&&-": 3434,
      "&&$&&&%&%": 3435,
      "&&$&&%&&&&&": 3436,
      "&&$&&%(": 3437,
      "&#(": 3438,
      "&#-": 3439,
      "&#'&&&&": 3440,
      "&#&&%&(": 3441,
      "&#&&'&(": 3442,
      "&#'$": 3443,
      "&#'&&&'": 3444,
      "&#&&(&(": 3445,
      "&#&&%&#": 3446,
      "&#%)": 3447,
      "&#&&%&*": 3448,
      "&#&ĝ": 3449,
      "&#&&&&#": 3450,
      "&#,'": 3451,
      "&)&": 3452,
      "&)&+": 3453,
      "&)&&$&'": 3454,
      "&)&&(&": 3455,
      "&)'(": 3456,
      "&))&&&&": 3457,
      "&)&&(&(": 3458,
      "&)%\"": 3459,
      "&)*%": 3460,
      "&)*#": 3461,
      "&&#\"": 3462,
      "&&#&&(": 3463,
      "&&#&Ğ": 3464,
      "&&#&&%'&&&&": 3465,
      "&&#&&*'": 3466,
      "&&)&&#": 3467,
      "&&)&&\"": 3468,
      "&&)&&*": 3469,
      "&&)&&&'&&&&": 3470,
      "&&)&&%%": 3471,
      "&&)&&%(": 3472,
      "%&&&&*": 3473,
      "%&&&&&&%": 3474,
      "%&&&&&&&$": 3475,
      "%&&&&''%": 3476,
      "%&&&&'%%&&&&": 3477,
      "'&&&&*": 3478,
      "'&&&&&ğ": 3479,
      "'&&&&&&%&&&&": 3480,
      "'&&&&%%&&&&": 3481,
      "'&&&&&&&'&&&&": 3482,
      "&&&'&*": 3483,
      "&&&'&&'&": 3484,
      "&&&'&&%&%": 3485,
      "&&&'&&%&&&&&": 3486,
      "&*-": 3487,
      "&*&$": 3488,
      "&*&#": 3489,
      "&*&+": 3490,
      "&*&&'&'": 3491,
      "&*&&%&'": 3492,
      "&*&&%&%": 3493,
      "&*'%": 3494,
      "&*&&%&(": 3495,
      "&*&&'&$": 3496,
      "&*($": 3497,
      "&*&&%&)": 3498,
      "&*&&#&'": 3499,
      "&*('&&&&": 3500,
      "&*'&&&%": 3501,
      "&&&%&&&%": 3502,
      "&&&%&+": 3503,
      "&&&%&&'&%": 3504,
      "&&&%&%&&&&": 3505,
      "&&&%&&&%&": 3506,
      "&\"*": 3507,
      "&\",": 3508,
      "&\"&$": 3509,
      "&\"&\"": 3510,
      "&\"&&&&%": 3511,
      "&\"&&'&'": 3512,
      "&\"'&&": 3513,
      "&\"%%": 3514,
      "&\"\"&&": 3515,
      "&\"&&$&'": 3516,
      "&\"&&&&&%": 3517,
      "&\"&&&&)": 3518,
      "&&\"'": 3519,
      "&&\"&&$": 3520,
      "&&\"&&&%": 3521,
      "&&\"&ĝ": 3522,
      "&&\"&&-": 3523,
      "&&*%": 3524,
      "&&*&&\"": 3525,
      "&&*&&&$": 3526,
      "&&*&&$%": 3527,
      "&+%": 3528,
      "&+/": 3529,
      "&+&+": 3530,
      "&+&&&&'": 3531,
      "&+$'": 3532,
      "&+($": 3533,
      "&+&&(&(": 3534,
      "&+)#": 3535,
      "&!#": 3536,
      "&!-": 3537,
      "&!Ę": 3538,
      "&!ĝ": 3539,
      "&!ğ": 3540,
      "&!&&&&%": 3541,
      "&!&,": 3542,
      "&!('": 3543,
      "&!%(": 3544,
      "&!#&&&&": 3545,
      "&!$)": 3546,
      "&&&&'&&'": 3547,
      "&&&&'&'&&&&": 3548,
      "&&&&'&$&&&&": 3549,
      "&&&&'(#": 3550,
      "&&&&'&&&'&&&&": 3551,
      "&&&&'\"'": 3552,
      "&&&&'%&&&&&": 3553,
      "&&&&''(&&&&": 3554,
      "&&&&%\"": 3555,
      "&&&&%&#": 3556,
      "&&&&%((": 3557,
      "&&&&%%)": 3558,
      "&&&&%$)": 3559,
      "&&&&%'&&&&&": 3560,
      "&&&&%%$&&&&": 3561,
      "&&&&%$%&&%&%": 3562,
      "&&'&'%'": 3563,
      "&&'&'&%&&&&": 3564,
      "&&'&'&'&&&&": 3565,
      "%&&&+": 3566,
      "%&&&ğ": 3567,
      "%&&&.": 3568,
      "&&%&'\"": 3569,
      "&&%&'&%&&&&": 3570,
      "&&%&''$": 3571,
      "&&%&''%&&&&": 3572,
      "&&%&'#%": 3573,
      "&&&&&&&&$": 3574,
      "&&&&&&&&&&'&": 3575,
      "'&&ĝ": 3576,
      "'&&&#": 3577,
      "'&&&+": 3578,
      "'&&&ĝ": 3579,
      "'&&&\"&'": 3580,
      "&&%&%&(": 3581,
      "&&%&%'#": 3582,
      "&&%&%$*": 3583,
      "&&%&%$&&&%": 3584,
      "&&'&%'%": 3585,
      "&&'&%&'&&&&": 3586,
      "&&'&%'%&&&&": 3587,
      "$&&&*": 3588,
      "$&&&+": 3589,
      "$&&&!": 3590,
      "(&&&-": 3591,
      "(&&&.": 3592,
      "(&&&#&'": 3593,
      "$&&&&\"": 3594,
      "$&&&&&#": 3595,
      "$&&&&(%": 3596,
      "&,%": 3597,
      "&,+": 3598,
      "&,&\"": 3599,
      "&,('": 3600,
      "''%&&&&": 3601,
      "''&&%&": 3602,
      "''&&%&(": 3603,
      "''&&(&$": 3604,
      "''&&)&%": 3605,
      "''&&'&&%": 3606,
      "''&&(&#": 3607,
      "''&&)&#": 3608,
      "''&&'&&&'": 3609,
      "#&&&(": 3610,
      "#&&-&": 3611,
      "#&&&#&$": 3612,
      "#&&.&%": 3613,
      "%'&&(&": 3614,
      "%'&&#&%": 3615,
      "%'&&%&&'": 3616,
      "%'&&'&*": 3617,
      "%'&&%&!": 3618,
      "%%%": 3619,
      "%%&&(&": 3620,
      "%%&&%&&&&": 3621,
      "%%&&#&'": 3622,
      "%%&&'&)": 3623,
      "%%&&#&(": 3624,
      "%%&&%&*": 3625,
      "%%&&'&\"": 3626,
      "%%&&#&*": 3627,
      "%%&&%&&''": 3628,
      "&%&&&&+": 3629,
      "&%&&&&('": 3630,
      "&%&&&&(%": 3631,
      "&%&&&&&%%&&&&": 3632,
      "'%&&(&'": 3633,
      "'%&&'&&&&": 3634,
      "'%&&$&$": 3635,
      "'%&&'&&%": 3636,
      "'%&&)&": 3637,
      "'%&&%&\"": 3638,
      "'%&&*&(": 3639,
      "'%&&%&+": 3640,
      "'%&&(&-": 3641,
      "&'&&&&&&&'": 3642,
      "&'&&&&$&&&&": 3643,
      "&'&&&&$%": 3644,
      "&'&&&&&''": 3645,
      "(&&&&)": 3646,
      "(&&&&&&": 3647,
      "(&&&&&)": 3648,
      "(&&&&&&'&&&&": 3649,
      ")&&&\"": 3650,
      ")&&&+&'": 3651,
      "\"&&ě": 3652,
      "\"&&-&'": 3653,
      "&&%&(%": 3654,
      "&&%&(%'&&&&": 3655,
      "&-+": 3656,
      "&-/": 3657,
      "&-&(": 3658,
      "&-&$": 3659,
      "('(": 3660,
      "('%&&&&": 3661,
      "('&&&'": 3662,
      "('&&%&": 3663,
      "('&&$&%": 3664,
      "('&&*&(": 3665,
      "('&&&'&%": 3666,
      "&&$&'%%": 3667,
      "&&$&'')": 3668,
      "&&'&(('&&&&": 3669,
      "&&'&('%&&'&(": 3670,
      "$'&&'&%": 3671,
      "$'(&&&&": 3672,
      "$'&&#&'": 3673,
      "$'&&#&(": 3674,
      "&&'&$'$": 3675,
      "&&'&$')": 3676,
      "(%&&*": 3677,
      "(%(&&&&": 3678,
      "(%&&)&%": 3679,
      "&&(&ě": 3680,
      "!&&ę": 3681,
      "!&&&ğ": 3682,
      "!&&&ĝ": 3683,
      "!&&ğ&": 3684,
      "$%%&&&&": 3685,
      "$%&&'&": 3686,
      "$%(&&&&": 3687,
      "$%&&$&": 3688,
      "$%)&&&&": 3689,
      "$%&&%&#": 3690,
      "$%&&#&$": 3691,
      "&&(&%(%": 3692,
      "&&(&%&&&&'&": 3693,
      "&&$&%%'&&&&": 3694,
      "&&$&%&'&&'&'": 3695,
      "&&(&'%'": 3696,
      "&&(&'*'": 3697,
      "%$&&'&": 3698,
      "%$&&%&(": 3699,
      "%$&&#&'": 3700,
      "%$&&'&*": 3701,
      "%$&&$&#": 3702,
      "%$&&$&\"": 3703,
      "%$&&$&!": 3704,
      "%$&&%&&#": 3705,
      "'(&&&&%": 3706,
      "'(&&%&)": 3707,
      "'(&&)&%": 3708,
      "'(&&'&\"": 3709,
      "'(&&'&*": 3710,
      "&&$&Ę": 3711,
      "'$&&(&%": 3712,
      "'$&&'&#": 3713,
      "'$&&'&\"": 3714,
      "'$&&#&)": 3715,
      "%(&&$&%": 3716,
      "%(&&#&'": 3717,
      "%(&&%&*": 3718,
      "*&&&+": 3719,
      "*&&&,": 3720,
      "#&&&&#": 3721,
      "Ġ&&ĕ": 3722,
      "Ġ&&ę": 3723,
      "Ġ&&&ĝ": 3724,
      "Ġ&&&#&$": 3725,
      "Ġ&&ğ&": 3726,
      "Ġ&&&!&%": 3727,
      "+&&ę": 3728,
      "+&&&$": 3729,
      "%&&&%&*": 3730,
      "'&&&'&%&&&&&&": 3731,
      "&ğĜ": 3732,
      "&ğ&*": 3733,
      "&ğ&&&&%": 3734,
      "&&%&&&&&&'&$": 3735,
      "&&%&&&&&&(&&&&": 3736,
      "&$&&&&&&&'": 3737,
      "ĀĀ%Āğ": 3738,
      "ĀĀ%Ā%%": 3739,
      "$$'&&&&": 3740,
      "$$&&&&'": 3741,
      "$$&&$&(": 3742,
      "$$&&%&\"": 3743,
      "$$&&#&*": 3744,
      "ĀĀ&Ā#": 3745,
      "ĀĀ&Ā%": 3746,
      "ĀĀ&Āę": 3747,
      "ĀĀ&ĀĜ": 3748,
      "ĀĀ&Ā,ğ": 3749,
      "((&&&&%": 3750,
      "&&'&&&&&&": 3751,
      "&&'&&&&&&'&": 3752,
      "&&'&&&&&&%&": 3753,
      "''&&&&\"": 3754,
      "''&&&&''": 3755,
      "''&&&&%'": 3756,
      "''&&&&%%": 3757,
      ")&&&&\"": 3758,
      ")&&&&-": 3759,
      ")&&&&&&%": 3760,
      ")&&&&&$": 3761,
      "&&&(&&&&": 3762,
      "($&&$&": 3763,
      "($&&(&(": 3764,
      "'%&&&&+": 3765,
      "'%&&&&&%": 3766,
      "'%&&&&&(": 3767,
      "'%&&&&%(": 3768,
      "'%&&&&&%'&&&&": 3769,
      "%%&&&&&%": 3770,
      "%%&&&&''": 3771,
      "%%&&&&&&&&&&&'": 3772,
      "Ā)/": 3773,
      "&&%&)%*": 3774,
      "&.'": 3775,
      "&&$&(&!": 3776,
      "#'&&$&": 3777,
      "#'&&$&$": 3778,
      "#'&&%&+": 3779,
      "$(&&'&": 3780,
      "$((&&&&": 3781,
      "$(&&$&": 3782,
      "$(&&$&(": 3783,
      "$(&&$&$": 3784,
      "$(&&#&%": 3785,
      "Ā**": 3786,
      "&&+&&&'": 3787,
      "&&+&+": 3788,
      "&&)&%'(": 3789,
      "&&)&%$#": 3790,
      "&&#&'*$": 3791,
      "%)&&'&%": 3792,
      "%)&&'&$": 3793,
      "%)&&%&$": 3794,
      "%)&&%&)": 3795,
      "%)&&#&$": 3796,
      "%)&&#&*": 3797,
      "%'&&&&$": 3798,
      "%'&&&&*": 3799,
      "&&!'": 3800,
      "&&!)": 3801,
      "&&!&+": 3802,
      "&&!&-": 3803,
      "&&$&$%'&&&&": 3804,
      "&&$&$$%&&&&": 3805,
      "%#&&(&(": 3806,
      "%#&&%&&(": 3807,
      ")'&&(&'": 3808,
      ")'&&(&$": 3809,
      ")'&&(&(": 3810,
      ")'&&*&#": 3811,
      "&&)&'&%": 3812,
      "&&)&'%%&&&&": 3813,
      "#%&&%&$": 3814,
      "#%&&$&": 3815,
      "#%&&%&#": 3816,
      "#%&&%&+": 3817,
      "&(&&&&&": 3818,
      "&(&&&&(": 3819,
      "&(&&&&*": 3820,
      "ĀĀ'Ā$": 3821,
      "ĀĀ'Ā/": 3822,
      "ĀĀ'Āĝ": 3823,
      "ĀĀ'Āğ": 3824,
      ")%&&(&%": 3825,
      ")%&&(&$": 3826,
      ")%&&'&\"": 3827,
      "ĀĀ$Ā%": 3828,
      "ĀĀ$Āğ": 3829,
      "ĀĀ$Ā$'": 3830,
      "'#(": 3831,
      "'#&&'&'": 3832,
      "'#&&(&$": 3833,
      "'#&&(&#": 3834,
      "ĀĀ(Ā+": 3835,
      "ĀĀ(Ā/": 3836,
      "ĀĀ(ĀĞ": 3837,
      "ĀĀ(Ā+\"": 3838,
      "'\"#": 3839,
      "#$&&%&": 3840,
      "#$&&#&#": 3841,
      "')&&%&'": 3842,
      "&&'&&%\"": 3843,
      "&&'&&%&&&%": 3844,
      "ĀĀ#Ā\"": 3845,
      "ĀĀ#Ā$": 3846,
      "ĀĀ#Ā+": 3847,
      "ĀĀ#Āě": 3848,
      ")(&&(&%": 3849,
      ")(&&(&$": 3850,
      ")(&&)&'": 3851,
      ")(&&)&#": 3852,
      "%\"&&'&%": 3853,
      "%\"&&$&)": 3854,
      "%\"&&&&)": 3855,
      "&&%&&'&&&'": 3856,
      "&&%&&'$&&&&": 3857,
      "&&'&&'&&&'": 3858,
      "&&)&$$$": 3859,
      "&&#&((": 3860,
      "&&#&(\"%": 3861,
      "&&#&(!#": 3862,
      ")$&&'&": 3863,
      ")$&&'&$": 3864,
      ")$&&)&$": 3865,
      "ĀĀ\"Āğ": 3866,
      "ğ&&Ĝ": 3867,
      "ğ&&ĝ": 3868,
      "ğ&&&#&'": 3869,
      "%*&&$&'": 3870,
      "%*&&%&*": 3871,
      "&&$&)$)": 3872,
      "&&$&)()": 3873,
      "$#&&%&": 3874,
      "$#&&%&'": 3875,
      "$#&&%&#": 3876,
      "$#&&\"&": 3877,
      "&&)&Ĝ": 3878,
      "&&'&\"'": 3879,
      "ĀĀ!Ā!": 3880,
      "ĀĀ!Ā%": 3881,
      "ĀĀ!Ā'": 3882,
      "#(&&%&": 3883,
      "#(&&%&'": 3884,
      "#(&&%&(": 3885,
      "#(&&%&$": 3886,
      "#(&&$&%": 3887,
      "#(&&$&": 3888,
      "#(&&#&(": 3889,
      "#(&&$&)": 3890,
      "#(&&%&*": 3891,
      "$)&&%&+": 3892,
      "-&&ĝ": 3893,
      "-&&&*": 3894,
      "'*&&'&'": 3895,
      "'*&&$&": 3896,
      "(\"'": 3897,
      "(\"&&'&%": 3898,
      "*%!": 3899,
      "*%ĀĀ": 3900,
      "*%&&'&(": 3901,
      "*%&&(&$": 3902,
      "(#&&&&'": 3903,
      "&ĝ$": 3904,
      "&ĝ,": 3905,
      "&&)&($%": 3906,
      "\"$&&%&$": 3907,
      "\"$&&$&%": 3908,
      "\"$&&#&%": 3909,
      "##&&%&%": 3910,
      "##&&'&$": 3911,
      "##&&$&(": 3912,
      "\"%&&%&(": 3913,
      "\"%&&$&)": 3914,
      "\"%&&#&)": 3915,
      "\"',": 3916,
      "\"'&&#&'": 3917,
      "*'&&'&#": 3918,
      "*'&&(&)": 3919,
      "*'&&(&\"": 3920,
      "&&&)&%": 3921,
      "&&&)&,": 3922,
      "ĀĀ-Ā)": 3923,
      "ĀĀğĀ!": 3924,
      "ĀĀğĀ#": 3925,
      "ĀĀğĀ%": 3926,
      "ĀĀğĀ,": 3927,
      "&&&&&&&&&&&&&%&&&&": 3928,
      "&&&&&&&&&&&&&'&&&&": 3929,
      "&&&&&&&&&&&&&&'&&&&": 3930,
      "&&%&&&%&&'&": 3931,
      "&&%&&&%&&&&&&&&": 3932,
      "&&*&%&'": 3933,
      "&&*&%$'": 3934,
      "ĀĀ+Ā-": 3935,
      "ĀĀ+Āğ": 3936,
      "*$&&'&'": 3937,
      "*$&&$&(": 3938,
      "*$&&(&*": 3939,
      "ĀĀ,Ā#": 3940,
      "$\")": 3941,
      "$\"&&$&%": 3942,
      "%!&&$&%": 3943,
      "ĠĀ/": 3944,
      "ĠĀ$+": 3945,
      "ĀĀ/Ā)": 3946,
      "&&*&'$)": 3947,
      "(*&&'&%": 3948,
      "(*&&'&$": 3949,
      "(*&&(&": 3950,
      "()&&'&#": 3951,
      "&&$&#$'": 3952,
      "$*(": 3953,
      "$*&&%&": 3954,
      "$*&&$&%": 3955,
      "#)&&%&'": 3956,
      "#)&&$&%": 3957,
      "'!&&&&": 3958,
      "'!&&)&%": 3959,
      ")#&&)&'": 3960,
      "&&\"&($(": 3961,
      "'&&&(&(": 3962,
      "'&&&(&*": 3963,
      "&&ğ&#": 3964,
      "&&ğ&)": 3965,
      "&&ğ&*": 3966,
      "&Ĝ&%": 3967,
      "!%&&$&$": 3968,
      "ĀĀĞĀ*": 3969,
      "ĀĀĞĀ(": 3970,
      "#\"&&$&\"": 3971,
      "%&&&$&#": 3972,
      "%&&&$&&%'": 3973,
      "ĀĀ/Ā/": 3974,
      "ĀĀ/Ā,%": 3975,
      "\"(&&#": 3976,
      "\"(&&$&)": 3977,
      "ĀĀĜĀ)": 3978,
      "&&(&\"'": 3979,
      "))&&'&$": 3980,
      "))&&(&%": 3981,
      "&&-&'": 3982,
      "&&-&ĝ": 3983,
      "&&%&&$&&&%&": 3984,
      "&&(&*#'": 3985,
      "&&(&&&&&&%&": 3986,
      "Ġ(!": 3987,
      "Ġ(&&#&": 3988,
      "&&&&$&)": 3989,
      "&&&&$&*": 3990,
      "ĀĀĝĀ*": 3991,
      "ĀĀĝĀ,": 3992,
      "*(&&'&": 3993,
      "*(&&'&)": 3994,
      "*(&&)&'": 3995,
      "*(&&)&#": 3996,
      "'+&&%&%": 3997,
      "&&Ğ&'": 3998,
      "&&Ğ&$": 3999,
      "&&Ğ&*": 4000,
      "&&Ğ&!": 4001,
      "&'&&&&%&'&&&&": 4002,
      "&&$&\"((": 4003,
      "+#&&(&": 4004,
      "+#&&(&$": 4005,
      "+#&&*&!": 4006,
      "ĀĀěĀ,": 4007,
      "%$&&&&\"": 4008,
      "%$&&&&&''": 4009,
      "*\"&&)&%": 4010,
      "'&&&&&%%&&&&": 4011,
      "'&&&&&%'&&&&": 4012,
      "'&&&&&%&%&&&&": 4013,
      "'&&&&&%&'&&&&": 4014,
      "'&&&&&%%&&&&&": 4015,
      "&&'&&($": 4016,
      "&&'&&(&&&'&": 4017,
      "&&'&&(%&&'&": 4018,
      "(%&&&&%": 4019,
      ")*&&(&(": 4020,
      "*#&&'&$": 4021,
      "*#&&(&'": 4022,
      "*#&&(&#": 4023,
      "*#&&(&\"": 4024,
      "&&$&&&&&&%&&&&": 4025,
      "Ġ$ĀĀ.Ā": 4026,
      "&&&%&&&&&&": 4027,
      "&&&%&&&&&%%&&&&": 4028,
      "ĀĀĜĀ!": 4029,
      "ĀĀĜĀ\"": 4030,
      "$!&&%&(": 4031,
      "('&&&&\"": 4032,
      "('&&&&*": 4033,
      "Ġ',": 4034,
      "Ġ'&&#&$": 4035,
      "&&#&#%'": 4036,
      "%&&!&": 4037,
      "%&&!&(": 4038,
      "%(&&&&)": 4039,
      "%(&&&&$'": 4040,
      "&&%&&()": 4041,
      "&&%&&($&&&&": 4042,
      "&&&%&%(&&&'&": 4043,
      "\"\"&&&&": 4044,
      "\"\"&&&&'": 4045,
      "'$&&&&#": 4046,
      "+(!": 4047,
      "Ġ#,": 4048,
      "&%&&&&'&'&&&&": 4049,
      "&%&&&&''&&&'&": 4050,
      "ĀĀěĀ+": 4051,
      "ĀĀěĀ-": 4052,
      "!'&&'&$": 4053,
      ")\"&&&&": 4054,
      "ĀĀĚĀ*": 4055,
      "&&'&&&'&%": 4056,
      "&&*&#!%": 4057,
      "\")&&#&'": 4058,
      "+$&&(&'": 4059,
      "+$&&'&!": 4060,
      "#&&&$&": 4061,
      "&%%&&&&&&&&&&&": 4062,
      "ĀĀęĀ,": 4063,
      "#+&&&&": 4064,
      "#+&&$&%": 4065,
      "#+&&#&'": 4066,
      "#&&!&'": 4067,
      "**&&'&%": 4068,
      "+%&&)&%": 4069,
      "+%&&*&%": 4070,
      "&&&&&&&&&&&&&&&&&&&&&&&&&&&&&&&&&&&&&&&&": 4071,
      "Ġ&(%%": 4072,
      "Ġ&)%": 4073,
      "&&#&\"(": 4074,
      "'&&&&&''&&&&&": 4075,
      "'&&+&%": 4076,
      "&&(&+%\"": 4077,
      "(&&!&'": 4078,
      "%+&&%&#": 4079,
      "&ĀĀĘĀ": 4080,
      "'ğĜ": 4081,
      "'ğ&&&&": 4082,
      "Ġ\"&&\"&(": 4083,
      "&&%&&&\"": 4084,
      "&&%&&&!": 4085,
      "&#&'&&%&": 4086,
      "&&)&*-": 4087,
      "$&&+&+": 4088,
      "$&&+&,": 4089,
      "+*!": 4090,
      ")&&&(&(": 4091,
      "Ā.Ğ": 4092,
      "(&&+&%": 4093,
      "(&&+&(": 4094,
      "(&&+&\"": 4095
    },
    "merges": [
      "& &",
      "&& &&",
      "& '",
      "& %",
      "&& %",
      "&& '",
      "Ā Ā",
      "& (",
      "& $",
      "&& (",
      "&& $",
      "& #",
      "& )",
      "&& #",
      "&& )",
      "% &&&&",
      "' &&&&",
      "&& &'",
      "& *",
      "&& &%",
      "& \"",
      "&& \"",
      "&& *",
      "& +",
      "& !",
      "&&&& '",
      "&&&& %",
      "&&' &",
      "&&% &",
      "&&' &'",
      "% &&",
      "&&% &'",
      "&&&& &&&&",
      "' &&",
      "&&% &%",
      "&&' &%",
      "$ &&",
      "( &&",
      "$ &&&&",
      "& ,",
      "' '",
      "# &&",
      "% '",
      "% %",
      "&% &&&&",
      "' %",
      "&' &&&&",
      "( &&&&",
      ") &&",
      "\" &&",
      "&&% &(",
      "& -",
      "( '",
      "&&$ &'",
      "&&' &(",
      "$ '",
      "&&' &$",
      "( %",
      "&&( &",
      "! &&",
      "$ %",
      "&&( &%",
      "&&% &$",
      "&&$ &%",
      "&&( &'",
      "% $",
      "' (",
      "&&$ &",
      "' $",
      "% (",
      "* &&",
      "# &&&&",
      "Ġ &&",
      "+ &&",
      "% &&&%",
      "' &&&'",
      "& ğ",
      "&&% &&&&",
      "&$ &&&&",
      "% Ā",
      "ĀĀ %Ā",
      "$ $",
      "& Ā",
      "ĀĀ &Ā",
      "( (",
      "&&' &&&&",
      "' '&&&&",
      ") &&&&",
      "&& &(",
      "( $",
      "' %&&&&",
      "% %&&&&",
      "&&( &$",
      "Ā )",
      "&&% &)",
      "ĀĀ $",
      "& .",
      "ĀĀ '",
      "&&$ &(",
      "# '",
      "$ (",
      "ĀĀ (",
      "&&( &(",
      "Ā *",
      "&& &$",
      "&& +",
      "&&) &%",
      "&&% &#",
      "&&# &'",
      "% )",
      "% '&&&&",
      "ĀĀ #",
      "Ā (",
      "&& !",
      "&&$ &$",
      "% #",
      "&&' &#",
      "&&' &)",
      ") '",
      "ĀĀ )",
      "&&) &'",
      "&& &",
      "# %",
      "ĀĀ \"",
      "&&&' &",
      "&( &&&&",
      "ĀĀ' Ā",
      ") %",
      "ĀĀ$ Ā",
      "' #",
      "&&&% &",
      "&&# &%",
      "ĀĀ( Ā",
      "' \"",
      "ĀĀ) Ā",
      "# $",
      "ĀĀ !",
      "' )",
      "&&' &&%",
      "ĀĀ# Ā",
      ") (",
      "% \"",
      "&&% &&%",
      "& Ğ",
      "&&% &&'",
      "&&' &&'",
      "&&) &$",
      "ĀĀ *",
      "&&# &(",
      ") $",
      "ĀĀ\" Ā",
      "ğ &&",
      "% *",
      "&&$ &)",
      "$ #",
      "&&# &",
      "&&% &*",
      "&&) &",
      "&&' &\"",
      "ĀĀ! Ā",
      "&& ,",
      "ĀĀ +",
      "ĀĀ ğ",
      "&&( &#",
      "ĀĀ* Ā",
      "# (",
      "$ )",
      "- &&",
      "' *",
      "( \"",
      "* %",
      "&&&% &'",
      "( #",
      "&&&' &&&&",
      "& ĝ",
      "&& &#",
      "ĀĀ ,",
      "&&) &(",
      "\" $",
      "'&&&& &",
      "& /",
      "# #",
      "( &&&'",
      "&&\" &'",
      "\" %",
      "\" '",
      "* '",
      "&& &)",
      "ĀĀ -",
      "ĀĀğ Ā",
      "&&# &$",
      "&&&&&&&& &&&&",
      "&&% &&&%",
      "&&% &\"",
      "&&* &%",
      "ĀĀ+ Ā",
      "%&&&& &",
      "* $",
      "&&\" &%",
      ", &&",
      "&&' &*",
      "&&# &)",
      "&&) &#",
      "ĀĀ, Ā",
      "$ \"",
      "% !",
      "Ġ Ā",
      "ĀĀ /",
      "&&* &'",
      "( *",
      "&&( &)",
      "( )",
      "&&$ &#",
      "$ *",
      "# )",
      "$ %&&&&",
      "' !",
      ") #",
      "&&# &*",
      "&&\" &(",
      "'&& &(",
      "&& ğ",
      "$ &&&%",
      "& Ĝ",
      "ĀĀ- Ā",
      "! %",
      "&&&& (",
      "ĀĀ Ğ",
      "&&* &$",
      "# \"",
      "%&& &$",
      "(&& &(",
      "ĀĀ/ Ā",
      "\" (",
      "% &&&'",
      "ĀĀ Ĝ",
      "&&( &\"",
      ") )",
      "&& -",
      "&&% &&$",
      "&&( &&'",
      "&&( &*",
      "&&( &&&&",
      "&&* &(",
      "Ġ (",
      "&&&& $",
      "ĀĀ ĝ",
      "* (",
      "&' &&&&'",
      "' +",
      "&& Ğ",
      "&' &&&&%",
      "&&$ &*",
      "Ā ,",
      "&' %&&&&",
      "&&$ &\"",
      "$&& &$",
      "&&% &+",
      "&&' &+",
      "( +",
      "+ #",
      "ĀĀ ě",
      "% $&&&&",
      "* \"",
      "&&$ &&'",
      "&&) &)",
      "'&&&& &%",
      "&&' &&(",
      "&&\" &$",
      "( %&&&&",
      ") *",
      "* #",
      "+ '",
      "&&% &!",
      "&&$ &&&&",
      "Ġ $",
      "Ġ &&&&",
      "&&&% &&&&",
      "ĀĀĜ Ā",
      "$ '&&&&",
      "$ !",
      "$ +",
      "+ &'",
      "&&% &&&'",
      "&&\" &",
      "&&* &",
      "ĀĀĞ Ā",
      "! $",
      "( '&&&&",
      "Ġ '",
      "&&' &!",
      "&&# &#",
      "%&& !",
      "% (&&&&",
      "&&% &&(",
      "&&&% &%",
      "! #",
      "\" \"",
      "' $&&&&",
      "+ (",
      "Ġ #",
      "&% &&&&'",
      "&&% '",
      "ĀĀ .",
      "&&) &\"",
      "Ğ &&",
      "ĀĀĝ Ā",
      "ĀĀě Ā",
      "! '",
      ") \"",
      "Ġ %",
      "ĀĀ Ě",
      "&&\" &)",
      "'&& !",
      "! (",
      "&&' &&&'",
      "&&# &+",
      "&&* &#",
      "! )",
      "\" #",
      "&&&& #",
      "&&&& &%",
      "\" )",
      "' (&&&&",
      "+ ĀĀ",
      "- '",
      "Ġ &'",
      "&&&& )",
      "&&$ &+",
      "&&\" &*",
      "$&& !",
      "* )",
      "+ $",
      "&&( &!",
      "&&\" &\"",
      "#&& &$",
      "'&&&' &",
      "ĀĀ. Ā",
      "&% %&&&&",
      "ĀĀ ę",
      "# +",
      "ĝ &&",
      "&&&& &&",
      "&' %",
      "%&& +",
      "#&& !",
      "' ,",
      "' &&&%",
      "* *",
      "+ %",
      "+ )",
      "&&\" &#",
      "&&&&&&&& &&&&&&&&",
      "%&&&% &",
      "! \"",
      "$ ,",
      "Ġ &(",
      "Ġ &)",
      "&&' &&",
      "&&# &\"",
      "'&&&& &'",
      "'&& +",
      "# *",
      ") &&&'",
      ", )",
      "&% &&&&%",
      "&&% %",
      "&&( &+",
      "- ĀĀ",
      "&&* &\"",
      "(&& !",
      "&&%&&&& &",
      "% +",
      "& ĀĀ",
      "' ğ",
      ", *",
      ". &&",
      "Ġ \"",
      "&&$ %",
      "&&&' &%",
      "! *",
      "! &&&&",
      "& ě",
      "+ \"",
      "&) &&&&",
      "ĀĀĚ Ā",
      "% ğ",
      ", '",
      "ğ '",
      "ğ )",
      "&&% &&",
      "&&' '",
      "&&$ &!",
      "&# &'",
      "&&) &*",
      "&&) &+",
      "$&& +",
      "% #&&&&",
      "+ *",
      "Ġ *",
      "Ġ &%",
      "&&( %",
      "&&* &)",
      ")&& &(",
      ", (",
      "Ā .",
      "&& .",
      "&' '",
      "%&& &(",
      "(&& +",
      "! +",
      "&' $",
      "&( (",
      "&&&' &'",
      "%&& ğ",
      "! !",
      "\" *",
      ") ,",
      "Ġ +",
      "&% '",
      "&&% &&&&&&&&",
      "&&&&' &",
      "&&&&% &",
      ")&& !",
      "% ,",
      "( ,",
      ". ĀĀ",
      "ğ %",
      "Ġ )",
      "&&$ '",
      "&# &&&&",
      "&&) &!",
      "&&* &!",
      "%&& -",
      "%% &&%&",
      "'% &&'&",
      "ĀĀę Ā",
      "- (",
      "Ġ &",
      "Ġ &$",
      "&% '&&&&",
      "&&% '&&&&",
      "&&( &&(",
      "%&&&& &'",
      "&* &&&&",
      "&&'& ğ",
      "'&& &)",
      "#&& +",
      "% -",
      ") +",
      ", ĀĀ",
      "&% (",
      "&&' &&&(",
      "&&&&% &%",
      "'' &&'&",
      "\"&& +",
      "'&&&' &%",
      "# !",
      "' #&&&&",
      "* +",
      ", $",
      "- &",
      ". %",
      "&& Ĝ",
      "&& ĝ",
      "&$ &&&&'",
      "%&&&& &&&&",
      "&&%& ,",
      "%' &&%&",
      "\" !",
      "# %&&&&",
      ", %",
      "/ ĀĀ",
      "Ę Ā",
      "Ġ &#",
      "&& /",
      "&&) &&'",
      "&&&% &$",
      "&&\" &+",
      "&&&&' &'",
      "%&&&% &'",
      "&&'&&&& &",
      "\" &&&&",
      "$ &&&&%",
      "( -",
      "+ +",
      "&&% &&#",
      "&&' &&&%",
      "&# &$",
      "&&&&&&&& &&&",
      "\" +",
      "% Ğ",
      ") !",
      "* &&&&",
      "ğ $",
      "Ġ &*",
      "&' (",
      "&% $",
      "&&% %&&&&",
      "&&( &&&'",
      "'&&&& &&&&",
      "&&'& ,",
      "&'&&&& &&",
      "% &&'&",
      "' -",
      "- $",
      ". /",
      "ğ &",
      "&&&& \"",
      "&% &&'&",
      "&&' &&$",
      "&&' &&&&&&&&",
      "ĀĀ Ė",
      "&&$ &,",
      "&&# &!",
      "%&&&& &%",
      "&&&% &(",
      "'&& ,",
      "'&& &$",
      "$&& &#",
      "# -",
      "% &&'&'",
      "( (&&&&",
      ") ğ",
      "- -",
      ". (",
      "ğ (",
      "Ġ !",
      "Ġ -",
      "&' '&&&&",
      "&&% &&&$",
      "&&' &&&$",
      "%&&&& '",
      "$&& ,",
      "%' &&%&'",
      "%% &&%&'",
      "&%&&&& &&",
      "'% &&'&'",
      ")&& +",
      "!&& +",
      "*&& !",
      "# ğ",
      "# '&&&&",
      "$ ğ",
      "' )&&&&",
      ", \"",
      "- *",
      "Ā +",
      "Ġ ĀĀ",
      "&&&& &(",
      "&% &&%&",
      "%&&&& &&",
      "&&* &*",
      "&&&&% &'",
      "#&& ,",
      "% ĝ",
      "' ĝ",
      "* ,",
      "0 0",
      "Ğ !",
      "&% &&'&'",
      "&&% (",
      "&&' &&)",
      "&&( &,",
      "&&# &,",
      "&\" &&&&",
      "&&&&' &%",
      "%&& ,",
      "(&& ,",
      "'' &&'&'",
      "#&& &#",
      "# $&&&&",
      "% &&%&",
      "* ĀĀ",
      "- &'",
      ". $",
      "Ā Ğ",
      "&' &&'&",
      "&&' %&&&&",
      "ĀĀ ĕ",
      "&$ '",
      "&&$ &&(",
      "'&&&& %",
      "$&&&& &%",
      "'' &&'&%",
      "&%&&&& (",
      "'% &&'&%",
      "+&& &(",
      "&$&&&& (",
      "# ,",
      "' &&'&",
      ") %&&&&",
      "+ !",
      ". '",
      ". .",
      "Ā $",
      "&& &*",
      "&' &&'&'",
      "&' &&'&%",
      "&&% &&&#",
      "ĀĀ :",
      "ĀĀ ė",
      "&&( &&$",
      "'&&&& '",
      "'&&&& &&",
      "&&%& -",
      "$&& -",
      "'% &&'&(",
      "\"&& &$",
      "&&(& ğ",
      "!&& !",
      "$% &&%&%",
      "&&%&&% '",
      "& Ě",
      "( !",
      "( $&&&&",
      "+ &&&&",
      ", #",
      "- %",
      ". &",
      "Ā %",
      "&&% &&)",
      "&&% &&&(",
      "&&$ &&&%",
      "%&&&& %",
      "&&&&' &$",
      "%&& Ğ",
      "#&& ğ",
      "\"&& ğ",
      "Ġ&& !",
      "+&& !",
      "'&&&' &'",
      "'&&&' &$",
      "$ &&&%&",
      "' Ğ",
      ") '&&&&",
      "* !",
      "* Ğ",
      ", +",
      ", -",
      ", Ğ",
      "ě &&",
      "ĝ $",
      "&&' &&#",
      "&&' &&&'&",
      "&&$ &&%",
      "&&$ &&#",
      "&&# &-",
      "%&& &#",
      "'&& -",
      "$&& ğ",
      "(&& &*",
      "(&&&& &",
      ")&& &)",
      "(% &&'&",
      "(% &&'&%",
      "&&(& Ğ",
      "# ĀĀ",
      "( ğ",
      ") -",
      "* &&&'",
      ", ,",
      "/ ,",
      "Ā !",
      "Ā -",
      "ğ \"",
      "Ġ ě",
      "Ġ ĝ",
      "Ġ Ğ",
      "Ġ &+",
      "Ġ &!",
      "&&&& &&%",
      "&' &&%&",
      "&' &&%&%",
      "&( #",
      "&( $",
      "&( '",
      "&( &&&&%",
      "&&$ &&",
      "&&\" &!",
      "&&\" &,",
      "&&* &+",
      "&&%& ğ",
      "$&& /",
      "&%&&&& $",
      ")&& ,",
      ")&& -",
      "\"&& &\"",
      "!&& &$",
      "$% &&%&",
      "+&& &)",
      "%&&&% &%",
      "&&'&&' '",
      "$ Ğ",
      "% &&%&'",
      "% )&&&&",
      "& Ę",
      "( &&%&%",
      "( &&&'&",
      ") Ğ",
      ") ĀĀ",
      ". &%",
      "/ '",
      "/ *",
      "Ĝ $",
      "ĝ #",
      "ĝ '",
      "ğ *",
      "Ġ 1",
      "Ġ &,",
      "&&&& *",
      "&% &&%&%",
      "&( &%",
      "&&( '",
      "%&&&& (",
      "%&&&& &$",
      "%&& &\"",
      "&&%&% &&&&",
      "(&& &$",
      "&%&&&& &",
      "(&&&& &'",
      "\"&& !",
      "\"&& -",
      "\"&& &#",
      "(' &&'&",
      "(' &&'&'",
      "!&& &#",
      "%$ &&%&'",
      "Ġ&& ,",
      "&&+ &%",
      "! ĀĀ",
      "\" ,",
      "\" Ğ",
      "\" ğ",
      "# .",
      "$ ĝ",
      "$ &&'&%",
      "$ $&&&&",
      "$ #&&&&",
      "% /",
      "( ĝ",
      "( &&'&'",
      ") )&&&&",
      "+ .",
      ", &&&&",
      "- )",
      ". *",
      ". &)",
      "/ &&",
      "Ā \"",
      "Ā '",
      "Ğ \"",
      "Ġ ,",
      "Ġ .",
      "Ġ &\"",
      "Ġ %&&",
      "Ġ '&&",
      "&% &&%&'",
      "&% %'",
      "&&% &&&'&&&&",
      "&$ &&&&%",
      "&&$ &&$",
      "&&) '",
      "&&) &,",
      "&&) &-",
      "%&& /",
      "&&%&% &'",
      ")&& ğ",
      ")&& &*",
      "'( &&'&",
      "'( &&'&'",
      "*&& &)",
      "*&& &*",
      "'%&&&& '",
      "&&'&&% %",
      "&&&&&&&&&&&& &",
      "! -",
      "$ ĀĀ",
      "$ &&'&",
      "( )&&&&",
      ". &$",
      "/ %",
      "/ -",
      "Ā ğ",
      "Ě &&",
      "Ĝ &&",
      "ĝ *",
      "ĝ &%",
      "Ġ ğ",
      "&' #",
      "&' &&%&'",
      "&&' %",
      "&&' '&&&&",
      "&&' &&&'&&&&",
      "&&' &&&%&&&&",
      "ĀĀ Ĕ",
      "&( &&&&'",
      "&( &&%&",
      "&&( &&",
      "&&( &-",
      "&&( &&&(",
      "'&&&& &$",
      "&&\" &-",
      "&&%&' &'&&&&",
      "'&& /",
      "'&& ğ",
      "&&'&% &&&&",
      "(&& Ğ",
      "'' &&(&'",
      "%% &&%&%",
      "&'&&&& &",
      "\"&& Ğ",
      "$' &&%&",
      "!&& ,",
      "&&+ &$",
      "'&&&( &",
      "$&&&$ &",
      "! Ğ",
      "# Ğ",
      "$ &&'&'",
      "& ę",
      "( &&'&",
      ") &&&'&",
      "- \"",
      "ĝ !",
      "ĝ %",
      "Ġ &-",
      "&&&& &$",
      "&&% $",
      "ĀĀ =",
      "&$ &&'&'",
      "&# %",
      "&) *",
      "&&# '",
      "&&# &&%",
      "&&&' &(",
      "&&* '",
      "&&'& Ğ",
      "'&& Ğ",
      "$&& ĝ",
      "(&& -",
      "(&& &)",
      "$&&&& &(",
      "#&& -",
      "%% &&%&$",
      "&'&&&& (",
      "(&&&& &%",
      "(' &&(&%",
      "(% &&'&'",
      "!&& -",
      "%$ &&%&%",
      "&&$& ğ",
      "*&& ğ",
      "Ġ&& +",
      "&&%&&&& &%",
      "&&'&&% '",
      "&&%&&' %",
      "(&&&' &'",
      "(&&&' &%",
      "&&&&&&&&&&&& &&&",
      "%&&&$ &'",
      "(&&&( &",
      "! .",
      "! Ĝ",
      "! ĝ",
      "# Ĝ",
      "( Ğ",
      ". \"",
      ". &&&&",
      ". &(",
      "< Ā",
      "Ā #",
      "ę &&",
      "ę ĀĀ",
      "ě Ĝ",
      "ě ĀĀ",
      "Ğ %",
      "Ğ Ğ",
      "ğ #",
      "ğ -",
      "&&&& &&&",
      "&' *",
      "&% $'",
      "&&% &&&%&",
      "&&' (",
      "&( &&%&%",
      "&&$ &-",
      "&&# &&",
      "&&# &&'",
      "&&) &&)",
      "%&&&& &(",
      "&&&' &$",
      "&+ &'",
      "&&&&' &%&&&&",
      "&&&&% &$",
      "&&'& -",
      "&&%& .",
      "$&& &\"",
      "(&& ğ",
      "#&& Ĝ",
      "#&& &\"",
      "%' &&'&'",
      "%' &&$&'",
      "%% &&'&",
      "'% &&'&$",
      "'% &&(&%",
      "'% &&(&$",
      "\"&& /",
      "$' &&$&",
      "$% &&$&'",
      "%$ &&&&'",
      "&&$& /",
      "'$ &&'&'",
      "%( &&&&%",
      "%( &&%&'",
      "Ġ&& Ğ",
      "+&& ,",
      "&&'&&&& &%",
      "ĀĀ$ Ā)",
      "ĀĀ$ Ā*",
      "ĀĀ' Ā)",
      "ĀĀ# Ā)",
      "&&%&&' '&&&&",
      "&&%&&&% &&&&",
      "$&&&% &%",
      "\" ě",
      "$ Ĝ",
      "( &&'&%",
      "( &'&&&&",
      "( #&&&&",
      ") ĝ",
      ") &&%&%",
      "+ ,",
      "+ ğ",
      "- #",
      "- +",
      "- Ĝ",
      "- ĀĀ%Ā",
      "/ (",
      "> Ā",
      "Ę ĀĀ",
      "Ĝ #",
      "Ĝ *",
      "Ğ '",
      "Ġ &&'&'",
      "&&&& &&'",
      "&&&& &&(",
      "&' &&&'&",
      "&% #",
      "&% &&'&%",
      "ĀĀ ;",
      "&( &(",
      "&( '$",
      "&$ #",
      "&&( #",
      "&&( &&#",
      "&&( &&%&&&%",
      "&&( &&%%",
      "&&$ &&)",
      "&&$ &&&'",
      "&# '",
      "&&) %",
      "&&) &&",
      "&&) &&&&",
      "%&&&& $",
      "&&&' &)",
      "&* $",
      "&* %",
      "&&&% &)",
      "&\" '",
      "&&\" $",
      "&! &%",
      "&&&&' ''&&&&",
      "&&&&% %'&&&&",
      "&&'& .",
      "%&& &)",
      "&&%&' &&&&",
      "'&& &*",
      "(&& ĝ",
      "'' &&%&'",
      "'' &&(&",
      "%' &&%&%",
      "%' &&%&(",
      "%% &&$&'",
      "'% &&(&",
      "$' &&%&'",
      "!&& ğ",
      "%( &&'&",
      "%&&&% &(",
      "%&&&% &$",
      "&&&( &'",
      "($ &&'&'",
      "%%&&&& '",
      "ĀĀ( Ā)",
      "ĀĀ( Ā(",
      "&&! &'",
      "&&%&& &$&&&&",
      "ĀĀĖ Ā",
      "ĀĀ: Ā",
      "! ,",
      "! ğ",
      "\" ĝ",
      "\" &&%&'",
      "$ Ě",
      "$ &&%&%",
      "$ &&&%&'",
      "% Ĝ",
      "' .",
      ") .",
      "* '&&&&",
      "+ -",
      ", !",
      "- ,",
      ". ğ",
      ". &'",
      "/ #",
      "/ +",
      "0 2",
      "1 1",
      "2 0",
      "Ĝ &",
      "Ĝ &*",
      "ĝ \"",
      "ĝ &",
      "Ğ *",
      "Ğ ĀĀ",
      "Ġ Ĝ",
      "&' (%",
      "&% &%",
      "&&% &&&&%",
      "&&' &&'&&&&",
      "&&' &&&#",
      "ĀĀ ĘĀ",
      "&( &'",
      "&( &&'&",
      "&&( (",
      "&&( '&&&&",
      "&&( &&&%",
      "&&$ &&$%",
      "&) %",
      "&&# &.",
      "&&) &Ğ",
      "&&&% &#",
      "&\" &'",
      "&+ &%",
      "&&%& Ğ",
      "$&& Ğ",
      "$&& &)",
      "$&&&& &",
      "$&&&& &'",
      "'' &&%&%",
      "#&& Ğ",
      "'% &&%&%",
      "\"&& ,",
      "(' &&'&%",
      "!&& Ğ",
      "$% &&%&'",
      "%$ &&'&'",
      "'( &&'&%",
      "*&& /",
      "+&& +",
      "%&&&% &#",
      "&$&&&& $",
      "&&&( &$",
      "#' &&$&%",
      "&&+ &#",
      "%) &&&&%",
      "%'&&&& '",
      "&&! &)",
      "ĀĀ\" Ā)",
      "ĀĀ\" Ā*",
      "&&'&&' %&&&&",
      "'&&&( &'",
      "\" -",
      "$ (&&&&",
      "% .",
      "% &&&'&",
      "& ė",
      "' &&&%&'",
      "( /",
      "( &&%&'",
      ") &&&&%",
      ") $&&&&",
      "* ğ",
      ". )",
      "Ě !",
      "Ĝ ,",
      "Ĝ ĝ",
      "Ĝ &(",
      "ĝ )",
      "Ġ &&#",
      "&&&& +",
      "&&&& &'",
      "&% )",
      "&% (&&&&",
      "&&% #",
      "&&' &&%&&&&&",
      "ĀĀ ē",
      "&( &&%&'",
      "&$ $",
      "&$ &&'&%",
      "&&( )",
      "&&( &&&$",
      "&&$ &%&&&&",
      "&&$ &&&$",
      "&&$ &&%'",
      "&&# &&#",
      "&&) &&&'",
      "&&) &ğ",
      "&&) &&&(",
      "'&&&& &(",
      "'&&&& &)",
      "'&&&& &&'&&&&",
      "&&\" &/",
      "&&* &,",
      "&&* &ğ",
      "&! &#",
      "&&&&' &#",
      "&&&&' &\"",
      "&&&&% &$&&&&",
      "%&& .",
      "&&&&&&&& &%",
      "&&&&&&&& &&&'",
      "&&&&&&&& &&&%",
      "$&& Ĝ",
      "%% &&'&'",
      "%% &&%&(",
      "&%&&&& &%",
      "&'&&&& $",
      ")&& /",
      ")&& ĝ",
      ")&& Ğ",
      "$' &&%&(",
      "(% $",
      "!&& &\"",
      "'( &&'&$",
      "&&$& .",
      "&&$& Ğ",
      "*&& +",
      "+&& -",
      "'&&&' &(",
      "(( &&'&",
      "''&&&& %",
      "%%&&&& %",
      "&&+ &(",
      ")' &&'&'",
      "&(&&&& $",
      "'\" &&&&",
      "&&'&&% %&&&&",
      "&&%&&% $",
      "%&&&$ &",
      "! /",
      "! ę",
      "! '&&",
      "! (&&",
      "# &&&%",
      "# &&'&'",
      "# '&&",
      "# #&&&&",
      "$ -",
      "$ .",
      "$ /",
      "& ĀĀ$Ā",
      "( .",
      "( Ę",
      ") ě",
      ") &&'&%",
      ", ğ",
      ", ĀĀ$Ā",
      ". ĝ",
      ". ĀĀ'Ā",
      "/ ĀĀ%Ā",
      "0 5",
      "? Ā",
      "ď Ā",
      "Ē Ā",
      "Ę &&",
      "Ě ĀĀ",
      "ě #",
      "ě &",
      "ě &+",
      "Ĝ \"",
      "ĝ &'",
      "ĝ ĀĀ",
      "Ğ (",
      "Ġ /",
      "Ġ 0",
      "Ġ 5",
      "Ġ ė",
      "Ġ Ě",
      "Ġ &&%&",
      "Ġ &&$&%",
      "Ġ ,&&",
      "&' &%",
      "&% \"",
      "&% *",
      "&% +",
      "&% &'",
      "&% &&%&(",
      "&&% &&&)",
      "&&' &&&)",
      "&( %",
      "&( )",
      "&( *",
      "&( &&'&(",
      "&$ \"",
      "&$ %",
      "&$ +",
      "&$ &&%&",
      "&$ &&%&'",
      "&$ &&%&%",
      "&$ %(",
      "&&( &&\"",
      "&&( &&*",
      "&&$ $",
      "&&$ &&&(",
      "&) '",
      "&&) &&%",
      "%&&&& &#",
      "'&&&& &&&&&&&&",
      "&&\" (",
      "&&\" &&#",
      "&&* #",
      "&! &'",
      "&! &)",
      "&&&&' %%&&&&",
      "&&&&' '&&&&&",
      "&&&&% &)",
      "&&&&% ''&&&&",
      "%&& ĝ",
      "$&& +&'",
      "$&& &#&'",
      "(&& /",
      "$&&&& (",
      "&, &",
      "'' %",
      "#&& &",
      "#&& /",
      "%' &&$&",
      "%% &&'&$",
      "&%&&&& #",
      "\"&& .",
      "\"&& Ĝ",
      "\"&& +&'",
      "(' &&'&$",
      "$' &&%&%",
      "'$ &&&&%",
      "'$ &&'&%",
      "%( &&%&%",
      "%( &&%&$",
      "*&& ,",
      "Ġ&& &$",
      "+&& /",
      "&&%&&&& &&'&",
      "$$ &&%&",
      "$$ &&$&'",
      "$( &&%&%",
      "ĀĀ( Ā*",
      "ĀĀ# Ā(",
      "&&! &$",
      "%# &&%&'",
      "&&& ĝ",
      "ĀĀ\" Ā(",
      ")% &&'&'",
      ")% &&'&(",
      "ĀĀ! Ā*",
      "&&'&&% $",
      "&&'&&% '&&&&",
      "&&%&&% '&&&&",
      "&&%&&' '",
      "&&%&&' %&&&&",
      "&&'&&' %",
      "&&'&&' (",
      ")$ &&(&'",
      "ğ&& ,",
      "ğ&& ğ",
      "&&, &%",
      "ĀĀ+ Ā)",
      "ĀĀ+ Ā(",
      "(&&&' &$",
      "%&&&' &'",
      "&&%&&$ %",
      "&&(&&' '",
      "ĀĀĕ Ā",
      "\" .",
      "\" Ě",
      "\" %&&!",
      "# Ė",
      "# &&'&%",
      "$ )&&&&",
      "% '&&",
      "' Ĝ",
      "( ě",
      "( Ĝ",
      "( &&&&%",
      "( '&&",
      "( &&%&(",
      ") Ĝ",
      "+ /",
      "+ Ě",
      "+ ĝ",
      ", .",
      ", ě",
      ", Ĝ",
      "- ĀĀ&Ā",
      ". ĀĀ%Ā",
      "/ $",
      "/ )",
      "/ &&&&",
      "0 1",
      "1 0",
      "2 2",
      "Ā &",
      "Ě *",
      "Ĝ )",
      "Ĝ +",
      "Ğ #",
      "Ğ $",
      "Ğ &",
      "ğ ,",
      "ğ ě",
      "ğ ğ",
      "ğ &&&&",
      "Ġ 4",
      "Ġ &&%&'",
      "Ġ &&%&%",
      "Ġ &&$&'",
      "Ġ &.",
      "&& Ě",
      "&&&& !",
      "&' !",
      "&' \"",
      "&' ''",
      "&' &&(&'",
      "&% &&'&(",
      "&% &&%&$",
      "&&% &&'&&&&",
      "&&' \"",
      "&&' $",
      "&&' &&+",
      "&( %'",
      "&( &&'&$",
      "&$ %'",
      "&$ &'&&&&",
      "&) &&'&'",
      "&&# &&&&",
      "&&# &&&$",
      "&&) &.",
      "'&&&& $",
      "&* ,",
      "&* &(",
      "&\" $",
      "&\" &&%&$",
      "&&\" &&&&",
      "&&\" &Ğ",
      "&&* &-",
      "&&* &.",
      "&&* &Ğ",
      "&&* &ĝ",
      "&+ *",
      "&! $",
      "&! &&&&",
      "&&%& /",
      "&&'&' &&&&",
      "%&& ě",
      "%&& Ĝ",
      "&&&&&&&& &'",
      "&&'&% &&&&&&",
      "$&& .",
      "$&&&& &&",
      "&, \"",
      "'' &&'&(",
      "%' &&$&%",
      "&%&&&& &'",
      "&%&&&& &&%&&&&",
      "'% &&(&(",
      "&'&&&& &&'",
      "&'&&&& &(",
      "&'&&&& &&%&&&&",
      "(' &&(&",
      "&&$&' '%",
      "$' (",
      "$' &&$&%",
      "&&(& ĝ",
      "&&$& ĝ",
      "'$ &&'&",
      "%( &&%&",
      "$$ &&%&'",
      "$$ &&%&%",
      "(( &&'&%",
      "''&&&& '",
      ")&&&& $",
      "'%&&&& ''",
      "&&+ &",
      "%) &&%&'",
      "ĀĀ# Ā*",
      "%# &&&&%",
      ")' &&'&$",
      "ĀĀ) Ā)",
      "&&& Ğ",
      "#% &&%&'",
      "ĀĀ! Ā(",
      "&&%&&% %",
      "ĀĀ* Ā)",
      "ğ&& -",
      "ğ&& &#",
      "ĀĀğ Ā)",
      "&&%&&&% &%",
      "'&&&( &%",
      "&&(&&' %",
      "ĀĀĝ Ā(",
      "$&&&$ &%",
      "&&$&&' %",
      "&&%&&( %",
      "&&'&& &$&&&&",
      ")&&! &%",
      "ĀĀ= Ā",
      "! ė",
      "! ě",
      "# ě",
      "# ĝ",
      "# &&&'",
      "# #&&",
      "# &&&%&%",
      "$ &%",
      "% ě",
      "% ĀĀ",
      "& ĕ",
      "' &&%&%",
      "' #&&",
      "' &&&%&",
      "( ĀĀ",
      "( &&&%",
      "( &&$&'",
      ") &&'&'",
      ") &&(&%",
      "+ ĀĀ$Ā",
      "- ğ",
      "- &&&&",
      "/ .",
      "/ ĀĀ&Ā",
      "/ ĀĀ'Ā",
      "1 3",
      "@ Ā",
      "đ Ā",
      "ė ĀĀ",
      "Ę ę",
      "Ę ğ",
      "ę \"",
      "ę *",
      "ę &$",
      "Ě )",
      "Ě Ĝ",
      "Ě &*",
      "ě !",
      "ě %",
      "ě '",
      "ě )",
      "Ĝ %",
      "Ĝ &/",
      "ĝ (",
      "ĝ ,",
      "ĝ .",
      "ĝ &-",
      "Ğ )",
      "ğ '&&",
      "ğ &&&$",
      "Ġ 2",
      "Ġ &&'",
      "Ġ &&&&%",
      "Ġ &&'&",
      "Ġ \"&&",
      "Ġ &&'&$",
      "Ġ &&%&$",
      "Ġ &&(&$",
      "Ġ &&)&'",
      "&& ė",
      "&& &+",
      "&&&& ('",
      "&' &$",
      "&' &#",
      "&' &&'&$",
      "&' &&(&%",
      "&' &&$&$",
      "&% &&(&",
      "&% &&$&%",
      "&% &&'&)",
      "&&% )",
      "&&' &&%&",
      "&( +",
      "&( &$",
      "&( &#",
      "&( &&'&%",
      "&( &&%&(",
      "&( #'",
      "&$ (",
      "&$ *",
      "&$ %%",
      "&&( &&%",
      "&&( &&)",
      "&&( &&&)",
      "&&$ (",
      "&&$ &&&%&",
      "&&$ &&&#",
      "&&$ &&&)",
      "&# &&&&%",
      "&) (",
      "&) &(",
      "&) &&&&'",
      "&&# &ğ",
      "%&&&& &)",
      "%&&&& &&&&&&&&",
      "'&&&& ''",
      "&&&' &#",
      "&* *",
      "&* +",
      "&\" (",
      "&\" &(",
      "&\" &&&&'",
      "&\" #%",
      "&&* &&#",
      "&+ #",
      "&+ &&&&",
      "&! %",
      "&! '",
      "&! &$",
      "&&&&' &(",
      "&&&&% &'&&&&",
      "&&&&% &%&&&&'",
      "'&& &ğ",
      "'&& +&'",
      "&&%&% '(",
      "&&'&% $%",
      "$&&&& )",
      "'' &&%&$",
      "#&& &ğ",
      "%' &&'&",
      "%' &&'&%",
      "&%&&&& )",
      "&%&&&& &&%",
      "&%&&&& '&&&&",
      "(&&&& (",
      ")&& .",
      ")&& &+",
      ")&& &,",
      "\"&& &!",
      "&- &%",
      "&&$&' (%",
      "&&(& .",
      "&&(& /",
      "&&(& Ĝ",
      "!&& ĝ",
      "%$ &&%&",
      "'$ &&&&'",
      "%( &&&&'",
      "%( &&%&(",
      "%( &&%&&'",
      "*&& -",
      "*&& Ğ",
      "#&&&& $",
      "#&&&& *",
      "#&&&& &%",
      "+&& &*",
      "'&&&' &&&&&&&&",
      "&ğ #",
      "&$&&&& #",
      "ĀĀ%Ā *",
      "(( &&&&'",
      "(( &&%&'",
      "&&&( &(",
      "($ &&&&%",
      "ĀĀ' Ā*",
      "$( &&%&'",
      "$( &&$&'",
      "&&+ &'",
      "&&+ &\"",
      "%) &&%&%",
      "%'&&&& &",
      "&&! &(",
      "&&! &\"",
      "#% &&%&(",
      ")% &&'&",
      "') &&&&%",
      "ĀĀ#Ā #",
      "ĀĀ#Ā -",
      ")( &&'&%",
      "&&%&&% %&&&&",
      "&&%&&' &&&'&",
      "ĀĀ* Ā(",
      "$# &&&&'",
      "$# &&%&%",
      "ĀĀ!Ā \"",
      "&&, &",
      "&&, &(",
      "ĀĀğ Ā(",
      "-&& -",
      "-&& ğ",
      "(\" &&&&",
      "(&&&' &#",
      "&&&) &",
      "ĀĀ- Ā(",
      "'&&&( &$",
      "$&&&% &(",
      "ĀĀ-Ā #",
      "ĀĀ-Ā -",
      "(&&&( &%",
      "%&&&' &$",
      "&&(&&' $",
      "&'&&&&' &",
      "&&Ğ &",
      "(%&&&& '",
      "&&%&&( '",
      "'&&! &%",
      "'&&! &(",
      "%&&&&&&&& &&&",
      "! '&&&&",
      "\" &",
      "\" &'",
      "\" &&&%",
      "# &&%&",
      "# $&&",
      "# !&&",
      "$ &'",
      "$ &&&'",
      "$ &&'&$",
      "$ &&%&$",
      "' %&&",
      "( '&&+",
      ") ę",
      ") &&&%",
      ") \"&&+",
      "+ &",
      "+ Ğ",
      "+ &#",
      "+ %&&&&",
      "+ ĀĀ%Ā",
      "+ ĀĀ'Ā",
      ", ĀĀ&Ā",
      "- ĀĀ$Ā",
      "- ĀĀ)Ā",
      "- ĀĀ\"Ā",
      ". +",
      ". &*",
      ". ĀĀ&Ā",
      ". ĀĀ)Ā",
      "/ :",
      "/ Ĝ",
      "/ ĀĀ(Ā",
      "/ &&,",
      "1 2",
      "1 5",
      "2 4",
      "3 3",
      "Ā /",
      "Ė Ā",
      "Ę #",
      "Ę &",
      "ę %",
      "ę &#",
      "Ě \"",
      "Ě $",
      "Ě ě",
      "Ě &,",
      "ě \"",
      "ě &%",
      "ě &)",
      "ě &,",
      "Ĝ !",
      "Ĝ Ę",
      "ĝ ĕ",
      "ĝ Ě",
      "ĝ ě",
      "ĝ Ğ",
      "ĝ ğ",
      "ĝ &+",
      "Ğ ,",
      "Ğ ğ",
      "ğ !",
      "ğ ę",
      "ğ Ĝ",
      "ğ ĝ",
      "ğ Ğ",
      "Ġ Ę",
      "Ġ %&&&&",
      "Ġ &&&&'",
      "Ġ )&&",
      "Ġ &&'&(",
      "Ġ &&(&",
      "Ġ $%",
      "Ġ +&&",
      "Ġ &ğ",
      "Ġ Ā*",
      "Ġ &&$&$",
      "&& &.",
      "&' (&&&&",
      "&' &&(&",
      "&' &&$&%",
      "&' '%&&&&",
      "&' %%&&&&",
      "&% %",
      "&% ,",
      "&% &$",
      "&% $&&&&",
      "&% ''",
      "&% &&$&'",
      "&% &&(&%",
      "&% &&(&'",
      "&% &&$&",
      "&% &&&%&",
      "&% &&&&&&&&&&&",
      "&&% &&*",
      "&&% &&&&'",
      "&&% &&%&&&&",
      "&&% &&&%&'",
      "&&% &&(&&&&",
      "&&' &&*",
      "&&' &&!",
      "ĀĀ <Ā",
      "ĀĀ ?Ā",
      "&( %#",
      "&$ &&'&",
      "&$ &&'&$",
      "&&( &'&&&&",
      "&&( &&&#",
      "&&( &&$%",
      "&&( &&%(",
      "&&( &&&*",
      "&&$ \"",
      "&&$ &'&&&&",
      "&&$ &&%&&&&",
      "&&$ &&!",
      "&&$ &&%%",
      "&&$ &&(%",
      "&# &",
      "&# *",
      "&# &&'&'",
      "&# &&'&$",
      "&) \"",
      "&) &&&&%",
      "&) &&'&",
      "&) &&%&",
      "&&# *",
      "&&# &&$",
      "&&# &&&'",
      "&&# &&\"",
      "&&# &&&#",
      "&&# &&&)",
      "%&&&& &&'&&&&",
      "'&&&& )",
      "'&&&& &#",
      "'&&&& &&&%",
      "'&&&& %'",
      "&&&' &&&&&&&&",
      "&* '",
      "&&&% &&&&&&&&",
      "&\" #",
      "&\" %",
      "&\" &&",
      "&&\" &&)",
      "&&\" &.",
      "&&\" &Ĝ",
      "&&\" &&$'",
      "&&* &&&&",
      "&+ )",
      "&+ +",
      "&! !",
      "&! &*",
      "&! &&%&'",
      "&&&&' %'&&&&",
      "&&&&% &%&&&&",
      "&&&&% '%&&&&",
      "&&&&% $(",
      "&&'&' $%",
      "&&'&' %$",
      "%&& &*",
      "&&%&' %$",
      "&&&&&&&& %&&&&",
      "&&&&&&&& &&&&&&&&&&&&",
      "&&'&% ''&&&&",
      "(&& Ĝ",
      "(&& +&'",
      "$&&&& &$",
      "&, #",
      "'' &&'&#",
      "#&& ĝ",
      "#&& +&'",
      "%' '&&&&",
      "%' &&%&$",
      "%% %&&&&",
      "%% &&'&(",
      "%% &&$&%",
      "%% &&$&(",
      "&%&&&& &&'",
      "'% %&&&&",
      "&'&&&& \"",
      "&'&&&& #",
      "&'&&&& *",
      ")&& &",
      "&- %",
      "&- &'",
      "(' &&'&(",
      "(' &&%&$",
      "(' &&(&'",
      "(' &&(&$",
      "(' &&'&#",
      "(' &&)&$",
      "$' '&&&&",
      "$' &&$&'",
      "$' &&%&#",
      "(% &&%&'",
      "(% &&'&$",
      "(% &&(&%",
      "!&& /",
      "$% )",
      "$% &&%&(",
      "&&$&% &(&&&&",
      "%$ &&$&'",
      "'( (",
      "'( &&'&(",
      "'( &&(&'",
      "&&$& ě",
      "'$ %&&&&",
      "'$ &&%&'",
      "'$ &&'&(",
      "'$ &&'&)",
      "%( &&$&'",
      "*&& &(",
      "Ġ&& /",
      "Ġ&& ğ",
      "Ġ&& &\"",
      "&&%&&&& &&&&%",
      "&$&&&& )",
      "ĀĀ%Ā )",
      "ĀĀ&Ā '",
      "&&'&&&& &'",
      "''&&&& (",
      "&&&( &%",
      "($ &&(&",
      "($ &&(&%",
      "%%&&&& &",
      "ĀĀ$ Ā(",
      "ĀĀ' Ā(",
      "&&&$ &%",
      "&&+ '",
      "&&)&% &'",
      "%'&&&& %",
      "&&! &%",
      "&&! &,",
      ")' &&'&",
      "ĀĀ'Ā !",
      "ĀĀ'Ā +",
      ")% &&'&$",
      "ĀĀ$Ā !",
      "'# &&'&%",
      "#$ &&%&'",
      "') &&&&'",
      ")( &&'&'",
      "%\" &&&&",
      "%\" &&%&'",
      "&&%&&% &&&$",
      "&&%&&% &&&%&",
      "&&'&&' '&&&&",
      "&&'&&' %&&'&",
      "%* &&&&",
      "$# (",
      "&&#& ĝ",
      "ĀĀğ Ā*",
      "-&& &)",
      "(# &&'&'",
      "&&&'&&&& &",
      "ĀĀ, Ā*",
      "*' &&'&$",
      "ĀĀğĀ -",
      "&&&&( &",
      "%&&&$ &%",
      "%&&&$ &(",
      "(&&&( &'",
      "(&&&( &(",
      "&&%&&$ (",
      "$&&&$ &(",
      "&&'&&( '",
      "&&'&&( (",
      "&&&%&&&& &",
      "ĀĀĚ Ā(",
      "$&&! &$",
      "'&&&% &(",
      ")&&&' &(",
      "(&&+ &$",
      "%&&ğ &'",
      "#&&+ &$",
      "&&'&&&( &&&&",
      "ĀĀė Ā",
      "! Ė",
      "! (&&&&",
      "\" &$",
      "\" %&&&&",
      "\" &&&&%",
      "\" &&'&(",
      "\" &&&&&%",
      "# ę",
      "# &&&&'",
      "# &&'&",
      "# &&%&(",
      "# &&&%&",
      "# &&&%&'",
      "# #&&!",
      "$ %&&",
      "$ &&'&(",
      "$ ĀĀ,Ā",
      "$ #&&!",
      "% ę",
      "% &$",
      "% $&&!",
      "' Ě",
      "' ĀĀ",
      "' %&&+",
      "( &",
      "( &&%&",
      ") &%&&&&",
      ") *&&",
      ") #&&&&",
      ") ĀĀ)Ā",
      "* -",
      "* .",
      "* &'",
      "* ĀĀ&Ā",
      "+ Ĝ",
      "+ (&&",
      "+ '&&+",
      ", ĝ",
      ", !&&",
      ", &&&",
      ", ĀĀ#Ā",
      ", ĀĀ\"Ā",
      "- ĀĀ(Ā",
      "- ĀĀ-Ā",
      ". #",
      ". -",
      ". ĀĀ*Ā",
      "/ Ğ",
      "2 7",
      "3 4",
      "4 1",
      "4 2",
      "5 1",
      "6 0",
      "6 1",
      "7 3",
      "9 5",
      "Ā ę",
      "Ā ĝ",
      "Ā &*",
      "Ā %'",
      "Ā (%",
      "Ā %\"",
      "ē Ā",
      "ĕ &&",
      "Ė &&",
      "ė Ĝ",
      "ė &&",
      "Ę Ĝ",
      "ę !",
      "ę &",
      "ę &'",
      "ę &!",
      "Ě &",
      "Ě ĝ",
      "Ě ğ",
      "ě Ę",
      "ě ě",
      "ě ğ",
      "ě &'",
      "ě &&&",
      "Ĝ (",
      "Ĝ -",
      "Ĝ ę",
      "Ĝ Ě",
      "Ĝ ĀĀ",
      "ĝ /",
      "Ğ '&&",
      "Ğ (&&",
      "ğ Ę",
      "ğ Ě",
      "ğ &&'&$",
      "Ġ ę",
      "Ġ &&*",
      "Ġ &&'&%",
      "Ġ $&&",
      "Ġ (&&",
      "Ġ ''",
      "Ġ #&&",
      "Ġ &&$&",
      "Ġ %(",
      "Ġ #'",
      "Ġ %)",
      "Ġ &&'&)",
      "Ġ '#",
      "Ġ ĀĀ(Ā",
      "Ġ (#",
      "Ġ &/",
      "Ġ &&*&%",
      "Ġ &&)&#",
      "Ġ (*",
      "Ġ &&$&*",
      "Ġ &&\"&*",
      "&&&& -",
      "&&&& &&&'",
      "&&&& &&&&'",
      "&&&& &&%&'",
      "&' )",
      "&' &'",
      "&' '%",
      "&' &&'&&&&",
      "&' #%",
      "&' &&'&&'",
      "&' &&'&\"",
      "&% !",
      "&% &&",
      "&% &(",
      "&% &&'&$",
      "&% &&%&&'",
      "&% %&&%&",
      "&&% &&!",
      "&&% &&%&&&&&",
      "&&' &&\"",
      "&&' &&%&&&&",
      "&&' &&&%&",
      "&&' &&(&&&&",
      "&&' &&$%",
      "ĀĀ ďĀ",
      "&( !",
      "&( \"",
      "&( -",
      "&( /",
      "&( Ğ",
      "&( &)",
      "&( ($",
      "&$ $'",
      "&$ &&'&)",
      "&&( %&&&&",
      "&&( &$&&&&",
      "&&$ &&\"",
      "&&$ &&%'&&&&",
      "&# !",
      "&# &%",
      "&# '(",
      "&) &&%&%",
      "&) ($",
      "&) &&&&(",
      "&&# $",
      "&&# %",
      "&&# &&&%",
      "&&# &&%%",
      "&&) \"",
      "&&) &&%'",
      "&&) &&''",
      "&&) &&(#",
      "'&&&& (",
      "'&&&& &\"",
      "'&&&& &&%&&&&&",
      "&&&' &+",
      "&* #",
      "&* ĝ",
      "&* &'",
      "&* &%",
      "&* &&&&%",
      "&* &&&&$",
      "&&&% &&&&'",
      "&&&% &&&&%",
      "&\" %'",
      "&\" &&'&(",
      "&&\" %",
      "&&\" &&",
      "&&\" &&(",
      "&&\" &ğ",
      "&&* &&$",
      "&&* &&&'",
      "&+ !",
      "&+ ,",
      "&! (",
      "&! )",
      "&! &&",
      "&! &&'&%",
      "&&&&' ((",
      "&&&&' &(&&&&",
      "&&&&% %&&&&",
      "&&&&% %&&&%",
      "&&%& Ĝ",
      "%&& +&'",
      "&&%&' %'&&&&",
      "&&%&' &&&&&&",
      "&&&&&&&& &'&&&&",
      "'&& Ĝ",
      "&&%&% %%&&&&",
      "&&'&% %'&&&&",
      "$&& &(",
      "(&& Ě",
      "$&&&& &)",
      "$&&&& &'%&&&&",
      "&, $",
      "&, *",
      "'' '",
      "'' &&(&%",
      "'' &&$&%",
      "'' &&(&(",
      "'' &&%&#",
      "#&& &#&'",
      "%' &&'&(",
      "%% &&(&'",
      "%% &&$&",
      "%% &&#&%",
      "%% &&)&$",
      "%% &&%&&$",
      "&%&&&& &(",
      "&%&&&& &&(",
      "&%&&&& %&&&&",
      "'% &&%&",
      "'% &&)&%",
      "&'&&&& %&&&&&&",
      "(&&&& #",
      "(&&&& &$",
      "\"&& &#&'",
      "&&%&( &#",
      "(' &&%&'",
      "(' &&(&(",
      "&&$&' ''",
      "&&'&( '%&&&&",
      "&&'&( '(&&&&",
      "$' %&&&&",
      "$' &&%&$",
      "$' &&%&)",
      "$' &&#&%",
      "$' &&%&*",
      "(% &&(&",
      "(% &&'&)",
      "!&& &",
      "!&& &!",
      "$% &&%&$",
      "$% &&%&)",
      "$% &&$&$",
      "&&$&% $(",
      "&&(&' &%",
      "%$ &&%&$",
      "%$ &&$&%",
      "%$ &&%&&&%",
      "'( &&&&'",
      "'( &&%&$",
      "&&$& ę",
      "'$ &&%&",
      "'$ &&(&'",
      "%( &&'&)",
      "Ġ&& -",
      "+&& .",
      "+&& Ğ",
      "+&& ğ",
      "+&& &,",
      "%&&&% &)",
      "'&&&' &#",
      "&$&&&& &&",
      "ĀĀ%Ā $",
      "$$ &&%&(",
      "$$ &&%&$",
      "$$ &&$&",
      "$$ &&%&)",
      "ĀĀ&Ā $",
      "ĀĀ&Ā )",
      "(( )",
      "(( &&(&$",
      "&&'&&&& &&'&&&&",
      "''&&&& $",
      "''&&&& &'",
      ")&&&& (",
      "&&&( &",
      "&&&( &#",
      "($ &&'&%",
      "($ &&'&(",
      "'%&&&& $",
      "'%&&&& &",
      "'%&&&& (",
      "%%&&&& (",
      "%%&&&& '%",
      "Ā) #",
      "&. &&&&",
      "#' &&%&",
      "#' &&$&'",
      "$( &&%&(",
      "$( &&(&%",
      "&&(&( (#",
      "&&+ #",
      "&&+ &)",
      "&&+ &*",
      "&&+ &,",
      "%'&&&& ''",
      "&&$&$ &$",
      "%# &&'&'",
      "%# &&%&(",
      "%# &&%&)",
      "%# &&%&#",
      "%# &&'&)",
      ")' &&'&%",
      ")' $&&&&",
      ")' &&(&%",
      "ĀĀ) Ā(",
      "#% &&%&%",
      "&(&&&& &&",
      "ĀĀ'Ā #",
      "ĀĀ'Ā %",
      ")% &&(&'",
      "'# &&(&%",
      "ĀĀ(Ā $",
      "'\" '",
      "'\" &&'&\"",
      "ĀĀ)Ā !",
      "ĀĀ)Ā $",
      "#$ &&%&%",
      "#$ &&$&'",
      "#$ &&$&%",
      "ĀĀ! Ā)",
      "') &&'&",
      "') &&(&(",
      "') &&)&%",
      "ĀĀ#Ā ,",
      ")( &&&&%",
      ")( &&'&#",
      "%\" &&&&'",
      "&&%&&' \"",
      "&&)&$ &%",
      "&&)&$ '(",
      ")$ &&(&%",
      ")$ &&%&$",
      ")$ &&(&$",
      "ĀĀ\"Ā '",
      "ğ&& /",
      "%* &&&&'",
      "$# &&%&(",
      "ĀĀ!Ā #",
      "ĀĀ!Ā -",
      "&&, &'",
      "&&, &#",
      "ĀĀ+ Ā*",
      "ĀĀ*Ā \"",
      "$) &&%&)",
      "-&& .",
      "'* &&&&",
      "'* &&'&%",
      "(# &&'&%",
      "\"$ &&%&'",
      "(&&&' &(",
      "\"' &&%&*",
      "&&&) &'",
      "ĀĀ- Ā*",
      "&&&&&&&&&&&& &'",
      ",&& Ğ",
      "$\" &&'&%",
      "(* &&&&",
      "&&ğ &$",
      "ĀĀĞ Ā,",
      "%&&&$ &)",
      "(&&&( &$",
      "%&&&' &%",
      "%&&&' &#",
      "%&&&' &)",
      "ĀĀĜ Ā(",
      "&&%&&$ &&&%&'",
      "'+ &&&&",
      "Ā, )",
      "Ā, *",
      "$&&&$ &'",
      "&&$&&' %&&&&",
      "'&&&&&% '&&&&&",
      "&&'&&( %",
      "+' &&'&'",
      "&&$&&&& &'",
      "Ġ&&&& \"",
      "Ġ&&&& #",
      "&&%&&&' &&%&",
      "%&&! &)",
      "'$&&&& $",
      "'$&&&& )",
      "&%&&&&' &",
      "#&&&$ &'",
      "#&&&$ &(",
      "#&&&$ &$",
      "&%%&&&& &%",
      "%&&+ &\"",
      "&&&&&&&&&&&&&&&& &&&&&&&&",
      ")&&&' &$",
      "(&&! &%",
      "&&'' &&'&'",
      "&&(% &&'&",
      "(&&+ &,",
      "ĀĀęĀ %",
      "&%( &&&'&",
      "&&%&&# '",
      "'&&&$ &(",
      "!&&+ &\"",
      "%&&, &'",
      "\"&&&$ &$",
      "&&%&&%' &&%&'",
      "&&)' &&(&%",
      "ĀĀ; Ā",
      "! &&%&%",
      "! &&'&(",
      "! *&&",
      "! ĀĀ!Ā",
      "! \"&&Ğ",
      "\" /",
      "\" Ė",
      "\" &%",
      "\" ĀĀ",
      "\" %&&",
      "\" )&&",
      "\" \"&&",
      "\" +&&",
      "\" ((",
      "\" #'",
      "\" &&&%&'",
      "\" #&&!",
      "\" $&&Ĝ",
      "# &",
      "# Ě",
      "# &(",
      "# &&&&%",
      "# &&%&'",
      "# (&&",
      "# &&'&(",
      "# ĀĀ&Ā",
      "# &&$&(",
      "# *&&!",
      "$ &\"",
      "$ &&&&'",
      "$ &&%&",
      "$ #&&",
      "$ &&%&(",
      "$ !&&",
      "$ &&'&#",
      "$ &&)&(",
      "$ $&&!",
      "% Ě",
      "% )&&",
      "% &&$&'",
      "% *&&",
      "& Ĕ",
      "& ĀĀ%Ā",
      "& ĀĀ#Ā",
      "' /",
      "' ě",
      "' &*",
      "' &&'&(",
      "' &&(&'",
      "' ĀĀ\"Ā",
      "( ę",
      "( &&(&",
      "( &&)&",
      "( !&&&&",
      "( &&&%&(",
      ") &",
      ") &&'&",
      ") &&%&",
      ") #&&",
      ") (&&&&",
      ") \"&&",
      ") &&%&(",
      ") '$",
      ") ĀĀ&Ā",
      ") ĀĀ(Ā",
      ") %&&+",
      ") $&&+",
      "* &",
      "* Ĝ",
      "* ĝ",
      "* %&&&&",
      "* &&%&'",
      "* (&&",
      "* &&%&(",
      "* ĀĀ%Ā",
      "* ĀĀ$Ā",
      "* ĀĀ(Ā",
      "* ĀĀ+Ā",
      "+ ę",
      "+ &&&&'",
      "+ %&&",
      "+ $&&&&",
      "+ %%",
      "+ &&'&(",
      "+ )&&&&",
      "+ &&#&'",
      "+ ĀĀ#Ā",
      "+ ğ&&",
      "+ Ğ&&",
      ", &&'&'",
      ", %&&",
      ", &&%&%",
      ", (&&",
      ", ĀĀ%Ā",
      ", ĀĀ'Ā",
      ", ĀĀ*Ā",
      "- .",
      "- '&&",
      "- #&&",
      "- ĀĀ+Ā",
      ". ,",
      ". &#",
      ". &&%&",
      ". '&&",
      ". (&&",
      ". ĀĀ$Ā",
      ". ĀĀ#Ā",
      ". ĀĀ+Ā",
      ". ĀĀ/Ā",
      "/ /",
      "/ ğ",
      "/ '&&",
      "/ ĀĀ,Ā",
      "/ ĀĀ/Ā",
      "0 3",
      "0 4",
      "1 6",
      "2 3",
      "3 0",
      "3 1",
      "3 2",
      "4 3",
      "7 1",
      "8 0",
      ": ĀĀ",
      "Ā &#",
      "Ĉ Ā",
      "Ď Ā",
      "Ē &&",
      "Ē ĀĀ",
      "Ē &(",
      "Ĕ &",
      "Ĕ .",
      "Ĕ ĀĀ",
      "ĕ &",
      "Ė ĀĀ",
      "ė (",
      "ė &&&",
      "Ę $",
      "Ę *",
      "Ę .",
      "Ę !&&",
      "ę ğ",
      "Ě ,",
      "Ě ę",
      "Ě Ě",
      "Ě &%",
      "ě $",
      "ě &*",
      "ě %&&",
      "ě ĝ&&",
      "Ĝ /",
      "Ĝ ě",
      "Ĝ Ĝ",
      "Ĝ %&&",
      "Ĝ ĀĀ#Ā",
      "ĝ ĝ",
      "ĝ &&&#",
      "Ğ +",
      "Ğ /",
      "Ğ ė",
      "Ğ ę",
      "Ğ Ě",
      "Ğ ĝ",
      "Ğ #&&",
      "Ğ &&&#",
      "ğ .",
      "ğ &&&&%",
      "ğ $&&",
      "ğ #&&",
      "ğ %&&!",
      "Ġ &&%&(",
      "Ġ &&(&%",
      "Ġ #&&&&",
      "Ġ &&%&#",
      "Ġ ĀĀ$Ā",
      "Ġ ĀĀ)Ā",
      "Ġ )(",
      "Ġ &&#&(",
      "Ġ ğ&&",
      "Ġ &&'&\"",
      "Ġ &&)&(",
      "Ġ \"'",
      "Ġ &&%&\"",
      "Ġ $\"",
      "Ġ &&#&*",
      "Ġ &&*&$",
      "Ġ ))",
      "Ġ &&&&$",
      "Ġ &&%&!",
      "Ġ +&&!",
      "Ġ )&&ğ",
      "&&&& &",
      "&&&& ,",
      "&&&& &\"",
      "&&&& &&\"",
      "&&&& $%",
      "&&&& ((",
      "&&&& &$'",
      "&' ğ",
      "&' &&",
      "&' %'",
      "&' &%&&&&",
      "&' &&$&'",
      "&' &&%&$",
      "&' &(&&&&",
      "&' *%",
      "&% $%",
      "&% %(",
      "&% &&'&&&&",
      "&% &&%&#",
      "&% (\"",
      "&% &&'&*",
      "&% &&%&&&&&&&&",
      "&&% &&\"",
      "&&% &&&'&",
      "&&' (&&&&",
      "ĀĀ <",
      "ĀĀ >",
      "ĀĀ ą",
      "ĀĀ đ",
      "ĀĀ Ē",
      "ĀĀ >Ā",
      "ĀĀ @Ā",
      "&( ,",
      "&( &&\"",
      "&( &&'&'",
      "&( &&$&%",
      "&( '(",
      "&( '%&&&&",
      "&( &&%&)",
      "&( %*",
      "&( %&&&&&'",
      "&$ )",
      "&$ Ě",
      "&$ Ĝ",
      "&$ '&&",
      "&$ (&&&&",
      "&$ &&(&",
      "&$ &&(&'",
      "&$ &&)&'",
      "&$ %&&&&&",
      "&$ &&\"&%",
      "&&( *",
      "&&( &&&&%",
      "&&( &&&&&&&&",
      "&&( &&,",
      "&&( &&&'&&&&",
      "&&( &&%%&&&&",
      "&&( &&%$",
      "&&$ &&*",
      "&&$ &&&&&&&&",
      "&&$ &&$'",
      "&# ĝ",
      "&# &#",
      "&# &&&&'",
      "&# &&%&%",
      "&# &&'&%",
      "&) )",
      "&) &&",
      "&) &$",
      "&) &&'&%",
      "&) &&'&(",
      "&) &&$&%",
      "&) &&(&'",
      "&) &&'&#",
      "&) )$",
      "&) $#",
      "&&# !",
      "&&# (",
      "&&# &&*",
      "&&# &&&(",
      "&&) (",
      "&&) &&&%",
      "&&) &(&&&&",
      "%&&&& #",
      "%&&&& &&(",
      "%&&&& &&$",
      "%&&&& &&%&",
      "'&&&& &&'",
      "'&&&& &&&'",
      "'&&&& $%",
      "'&&&& &'%&&&&",
      "&&&' &\"",
      "&&&' &&&&&&&&&&&&&&&&",
      "&* (",
      "&* $'",
      "&* #$",
      "&&&% &&%&",
      "&\" \"",
      "&\" &",
      "&\" &&%&'",
      "&&\" &&%",
      "&&\" &&&'",
      "&&\" &&&(",
      "&&\" &&&$",
      "&&* &&%",
      "&&* &&'",
      "&&* &&*",
      "&&* &/",
      "&+ \"",
      "&+ &",
      "&+ (",
      "&+ &(",
      "&+ &$",
      "&+ &)",
      "&+ &&%&%",
      "&! &!",
      "&! &&%&",
      "&! &&$&",
      "&! &&-",
      "&&&&' &)",
      "&&&&' &&&'",
      "&&&&' &!",
      "&&&&' %%",
      "&&&&' %$",
      "&&&&' &'&&&&'",
      "&&&&% &(",
      "&&'& ĝ",
      "&&%& ĝ",
      "&&'&' &&&&%",
      "&&'&' ''",
      "&&'&' &&&&&&",
      "%&& Ě",
      "&&%&' &$&&&&",
      "&&%&' $$",
      "&&%&% &'&&&&",
      "&&%&% $$",
      "&&'&% ''",
      "&&'&% %%",
      "&&'&% '&&&'",
      "$&& &",
      "(&& .&$",
      "$&&&& $",
      "$&&&& *",
      "$&&&& &&'&&&&",
      "&, (",
      "'' &&'&$",
      "'' '&&'&",
      "#&& &!",
      "%' %&&&&",
      "%' &&(&$",
      "%' &&%&)",
      "%' &&#&(",
      "%' &&%&*",
      "%' &&%&&&&&&&&",
      "%% &&'&%",
      "&%&&&& &&'&&&&",
      "'% &&%&(",
      "'% &&%&)",
      "'% &&%&#",
      "'% &&'&)",
      "&'&&&& )",
      "&'&&&& &&%",
      "&'&&&& '&&&&",
      "(&&&& $",
      "(&&&& &'%&&&&",
      ")&& &$",
      "&&%&( '$",
      "&&%&( '%&&&&",
      "&- !",
      "&- $",
      "(' !",
      "(' \"",
      "(' &&%&)",
      "(' &&'&)",
      "(' &&'&\"",
      "$' &&$&(",
      "&&'&$ '%&&&&",
      "(% *",
      "(% &&'&(",
      "(% &&(&'",
      "(% &&)&",
      "!&& &#&$",
      "$% &&$&%",
      "$% &&#&'",
      "&&(&% %'",
      "&&%&$ '(&&&&",
      "&&(&' &'",
      "%$ &&(&'",
      "%$ &&$&(",
      "%$ &&'&#",
      "'( %&&&&",
      "'( &&$&%",
      "'( &&'&)",
      "'$ &&%&%",
      "'$ &&'&&%",
      "%( &&%&#",
      "*&& ĝ",
      "*&& &$",
      "*&& &(&%",
      "*&& &(&'",
      "#&&&& &)",
      "Ġ&& Ė",
      "Ġ&& &#",
      "Ġ&& &!",
      "+&& &",
      "%&&&% &&&'",
      "%&&&% &&%%&&&&",
      "'&&&' &)",
      "'&&&' &%&&&&",
      "&ğ '",
      "&$&&&& \"",
      "&$&&&& &&'",
      "&$&&&& &&%&&&&",
      "ĀĀ%Ā (",
      "ĀĀ%Ā +",
      "ĀĀ%Ā ,",
      "ĀĀ%Ā .",
      "ĀĀ%Ā /",
      "ĀĀ&Ā !",
      "ĀĀ&Ā ,",
      "ĀĀ&Ā -",
      "ĀĀ&Ā ğ",
      "(( &&%&",
      "(( &&'&(",
      "(( &&'&$",
      "(( &&(&",
      "(( &&(&%",
      "(( &&(&'",
      "(( &&%&)",
      "''&&&& &%",
      ")&&&& *",
      ")&&&& ,",
      ")&&&& &%",
      "($ \"",
      "($ &&'&",
      "($ &&(&'",
      "($ &&(&)",
      "%%&&&& $",
      "Ā) *",
      "#' &&%&'",
      "#' &&%&%",
      "#' &&%&(",
      "#' &&%&&(",
      "#' &&$&+",
      "$( &&%&$",
      "$( &&$&%",
      "&&(&( &#",
      "&&&$ &",
      "%) &&%&(",
      "%) &&$&'",
      "%'&&&& (",
      "&&! &",
      "&&! &#",
      "&&$&$ &(",
      "&&$&$ $'",
      "%# &&'&",
      "%# &&%&",
      ")' &&)&'",
      ")' &&'&\"",
      ")' &&(&#",
      "ĀĀ) Ā*",
      "&&& /",
      "#% &&%&",
      "#% &&$&'",
      "#% &&$&%",
      "#% &&%&*",
      ")% &&)&$",
      "ĀĀ$Ā #",
      "'# &&'&",
      "'# &&%&%",
      "'# &&'&(",
      "ĀĀ(Ā \"",
      "ĀĀ(Ā -",
      "'\" &&'&%",
      "'\" &&(&%",
      "'\" &&(&'",
      "ĀĀ)Ā +",
      "ĀĀ)Ā -",
      "ĀĀ)Ā .",
      "ĀĀ)Ā Ě",
      "#$ &&%&(",
      "#$ &&%&$",
      "') &&%&",
      "') &&%&%",
      "&&'&&% (",
      "&&'&&% &&&%&",
      "ĀĀ#Ā !",
      "ĀĀ#Ā %",
      "ĀĀ#Ā ğ",
      ")( &&%&",
      ")( &&'&$",
      ")( &&)&$",
      "&&%&&% (",
      "&&%&&% %&&%&",
      "&&%&&' (&&&&",
      "&&'&&' &&&'&",
      "ĀĀ* Ā*",
      "&&#&( %'",
      ")$ &&'&(",
      ")$ &&)&(",
      "ĀĀ\"Ā +",
      "ğ&& ę",
      "ğ&& Ě",
      "ğ&& Ğ",
      "&&$&) '\"",
      "&&$&) (\"",
      "&&#& /",
      "&&#& Ĝ",
      "&&)& Ě",
      "&&, &\"",
      "ĀĀ*Ā +",
      "ĀĀ*Ā ,",
      "#( &&&&'",
      "$) &&%&%",
      "-&& /",
      "-&& Ğ",
      "-&& &,",
      "(\" &&'&)",
      "(\" &&(&#",
      "&&&# &'",
      "ĀĀ, Ā(",
      "## &&%&)",
      "\"% &&%&'",
      "\"% &&$&'",
      "\"' &&$&'",
      "&&&) &(",
      "&&&&&&&&&&&& &&",
      "&&*&% ''",
      "*$ &&(&(",
      ",&& -",
      ",&& ğ",
      ",&& &.",
      "ĀĀ,Ā +",
      "%! &&&&)",
      "ĠĀ -",
      "ĠĀ .",
      "ĀĀ/ Ā*",
      "&&*&' %'",
      "() &&'&$",
      "() &&(&'",
      "$* &&&&%",
      "#) &&$&(",
      "'&&&( &)",
      "&&ğ &",
      "&&ğ &%",
      "&&ğ &+",
      "ĀĀ-Ā !",
      "ĀĀĞ Ā)",
      "(&&&( &)",
      "ĀĀĜ Ā*",
      ")) &&'&%",
      "&&- &$",
      "&&- &)",
      "&&%&&$ '",
      "&&%&&$ )",
      "&&(&&' (",
      "*( &&'&'",
      "*( &&(&",
      "&'&&&&' &%",
      "&&Ğ &,",
      "&'&&&&% &",
      "&'&&&&% &(",
      "Ā, $",
      "$&&&$ &)",
      "&&$&&' '&&&&",
      "&&$&&' &&&'",
      ")* &&(&'",
      "+' &&(&#",
      "ĀĀĜĀ -",
      "$'&&&& (",
      "%&&! &%",
      "%(&&&& (",
      "+( &&)&%",
      "Ġ% .",
      "!( &&$&'",
      "$&&! &\"",
      "ĀĀę Ā)",
      "&'% &&'&",
      "%&&+ &#",
      "%&&+ &!",
      "#&&! &(",
      "'&&&% &$",
      "'&&+ &#",
      "#* &&$&'",
      "(&&! &)",
      "!&&&& (%",
      "ĀĀĚĀ +",
      "$&&+ &$",
      ")&&&( &",
      "%&&&( &\"",
      "&'$ &&&%&'",
      "%&&ğ &#",
      "&%' &&%&",
      "&%' &&%&'",
      "&#&&&& &&'",
      "&&(&&( $",
      "'&&&) &%",
      "&&&&%&% &&'&%",
      "&&'&&$ &&&$",
      "ĀĀĖ Ā(",
      "$&&&# &%",
      "ğ( ĀĀ",
      "$&&, &\"",
      ")&&+ &(",
      "!&&+ &%",
      "(&&, &#",
      "ĀĀĕ Ā(",
      "&&$&&( $",
      "'&&&&% &",
      "!&&! &",
      "%&&&&% &",
      "%&&Ğ &)",
      "#&&ğ &*",
      "Ġ&&! &",
      ")&&&* &#",
      "*&&&* &(",
      "ĀĀĔ Ā",
      "&&#' &&$&%",
      "''&&&&% &%&&&&",
      "! Ę",
      "! &&&'",
      "! &*",
      "! &+",
      "! &&%&(",
      "! &&$&(",
      "! ĀĀ'Ā",
      "! &&*&'",
      "! &&&&#",
      "! *)",
      "! #&&!",
      "\" ę",
      "\" &)",
      "\" '&&&&",
      "\" &&%&",
      "\" '&&",
      "\" &&'&%",
      "\" (&&",
      "\" ''",
      "\" &&'&$",
      "\" !&&",
      "\" %#",
      "\" &&&%&",
      "\" &&'&\"",
      "\" \"%",
      "\" \"'",
      "\" ĀĀĚĀ",
      "\" *&&Ğ",
      "# /",
      "# ē",
      "# ĕ",
      "# ė",
      "# &+",
      "# &&%&%",
      "# &%&&&&",
      "# )&&",
      "# &&$&'",
      "# $(",
      "# &&(&(",
      "# &&)&%",
      "# &&%&#",
      "# &&'&&%",
      "# -&&",
      "# *)",
      "# #&&+",
      "# &&&%&$",
      "# !&&!",
      "# ěĀĀ",
      "# &&*&&#",
      "$ ;",
      "$ Ę",
      "$ ě",
      "$ '&&",
      "$ $&&",
      "$ &&)&'",
      "$ &&&'&",
      "$ ĀĀ(Ā",
      "$ &&%&&%",
      "$ '&&!",
      "$ &&&'&'",
      "$ )&&!&%",
      "% Ę",
      "% ''",
      "% %'",
      "% &&(&'",
      "% ĀĀ&Ā",
      "% &&$&$",
      "% &&'&)",
      "% ĀĀ\"Ā",
      "% &&*&%",
      "% )&&!",
      "& ē",
      "& ĀĀ&Ā",
      "' ē",
      "' $&&",
      "' )&&",
      "' &&$&'",
      "' !&&",
      "' +&&",
      "' &&#&%",
      "' %&&!",
      "' &&*&#",
      "( &&&&'",
      "( %&&",
      "( ''",
      "( ĀĀ\"Ā",
      "( ĀĀ!Ā",
      "( &&)&#",
      "( &&&%&%",
      "( %&&+",
      "( &&&%&$",
      "( '&&/",
      "( !&&,",
      "( $&&.",
      ") /",
      ") &&&&'",
      ") %&&",
      ") )&&",
      ") &&'&(",
      ") &&(&'",
      ") &&(&(",
      ") ĀĀ#Ā",
      ") )(",
      ") ##",
      ") &&*&'",
      ") (&&,",
      "* /",
      "* &&*",
      "* &&'&",
      "* #&&",
      "* %'",
      "* (&&&&",
      "* &&$&'",
      "* $$",
      "* %\"",
      "* ĀĀğĀ",
      "* ĀĀ,Ā",
      "* &&&&&%",
      "* &&)&+",
      "* !&&,",
      "+ ě",
      "+ '&&&&",
      "+ &&&&%",
      "+ &&%&%",
      "+ &&'&%",
      "+ $&&",
      "+ &,",
      "+ #&&",
      "+ &&%&$",
      "+ #&&&&",
      "+ ĀĀ&Ā",
      "+ &&&'&",
      "+ '\"",
      "+ ĀĀ)Ā",
      "+ ĀĀ\"Ā",
      "+ ĀĀ-Ā",
      "+ ĀĀĝĀ",
      "+ *)",
      "+ %&&+",
      "+ (&&+",
      ", /",
      ", &(",
      ", %&&&&",
      ", '&&&&",
      ", &&%&",
      ", )(",
      ", -'",
      ", '&&-",
      ", &&&(&'",
      ", &&!&'",
      "- Ě",
      "- %&&&&",
      "- (&&",
      "- &&%&(",
      "- ĀĀ'Ā",
      "- ĀĀ!Ā",
      "- -&&",
      "- &&$&*",
      "- #&&+",
      ". ě",
      ". Ğ",
      ". &\"",
      ". &+",
      ". $&&",
      ". &&+",
      ". ĀĀ(Ā",
      ". &&,",
      ". ,&&",
      ". %&&-",
      ". $&&-",
      "/ ĀĀ)Ā",
      "/ ĀĀ!Ā",
      "2 5",
      "3 6",
      "3 9",
      "4 0",
      "4 5",
      "4 6",
      "5 8",
      "6 2",
      "6 4",
      "7 5",
      ": Ā",
      "; ĀĀ%Ā",
      "Ā Ė",
      "Ā ė",
      "Ā &'",
      "Ā %%",
      "Ā \"%",
      "Ā %+",
      "ć Ā",
      "Đ Ā",
      "ē .",
      "ē &*",
      "Ĕ Ā",
      "ĕ Ę",
      "ĕ &&&&",
      "Ė *",
      "Ė +",
      "Ė ĀĀ&Ā",
      "ė &",
      "ė *",
      "ė Ė",
      "ė ğ",
      "ė !&&",
      "Ę +",
      "Ę -",
      "Ę &'",
      "Ę &&'&",
      "Ę Ā.",
      "ę )",
      "ę -",
      "ę /",
      "ę ę",
      "ę ě",
      "ę Ĝ",
      "ę &)",
      "ę &*",
      "Ě '",
      "Ě &\"",
      "Ě &&,",
      "Ě Ě&&",
      "ě Ě",
      "ě Ğ",
      "ě &$",
      "ě &#",
      "Ĝ .",
      "Ĝ Ė",
      "Ĝ &%",
      "Ĝ *&&",
      "Ĝ ĀĀ)Ā",
      "Ĝ #(",
      "Ĝ .&&",
      "ĝ +",
      "ĝ -",
      "ĝ &$",
      "ĝ &!",
      "ĝ ĀĀ%Ā",
      "ĝ \"+",
      "Ğ Ĝ",
      "Ğ &&&&%",
      "Ğ $&&",
      "Ğ !&&",
      "Ğ &&$&(",
      "Ğ &&\"&%",
      "Ğ ĀĀĚĀ",
      "Ğ -$",
      "ğ /",
      "ğ ė",
      "ğ %&&",
      "ğ (&&",
      "ğ *&&",
      "ğ &&&",
      "ğ ĀĀ*Ā",
      "ğ '&&!",
      "ğ ./",
      "Ġ 3",
      "Ġ Ĕ",
      "Ġ '&&&&",
      "Ġ &&&%",
      "Ġ !&&",
      "Ġ '$",
      "Ġ $$",
      "Ġ '%&&&&",
      "Ġ Ā)",
      "Ġ &&$&(",
      "Ġ $(",
      "Ġ &&#&'",
      "Ġ Ā(",
      "Ġ &&'&#",
      "Ġ )'",
      "Ġ ')",
      "Ġ ĀĀ#Ā",
      "Ġ %\"",
      "Ġ &&)&$",
      "Ġ &&%&*",
      "Ġ &&)&",
      "Ġ ĀĀ*Ā",
      "Ġ $)",
      "Ġ '*",
      "Ġ (\"",
      "Ġ &ĝ",
      "Ġ \"$",
      "Ġ &&\"&'",
      "Ġ &&#&$",
      "Ġ &&'&*",
      "Ġ ()",
      "Ġ $*",
      "Ġ ĀĀ-Ā",
      "Ġ &&&&(",
      "Ġ &&(&\"",
      "Ġ &&*&(",
      "Ġ '+",
      "Ġ &&$&\"",
      "Ġ &&'&+",
      "Ġ !$",
      "Ġ &&%'",
      "Ġ Ğ&&",
      "Ġ !(",
      "Ġ *)",
      "Ġ &&'&&",
      "Ġ &&#&\"",
      "Ġ ,)",
      "Ġ (&&!",
      "Ġ .&&",
      "Ġ !*",
      "Ġ ğ)",
      "Ġ &&'&ğ",
      "Ġ &&&%&$",
      "Ġ $&&Ğ",
      "&& &,",
      "&& &-",
      "&&&& &&$",
      "&&&& &&&%",
      "&&&& &&%&",
      "&' Ĝ",
      "&' &&&'",
      "&' &&&&&&&&",
      "&' %%",
      "&' %$",
      "&' '(",
      "&' '&&&'",
      "&' ''&&&&",
      "&' &&)&%",
      "&' &&#&'",
      "&' '&&&&&",
      "&' &&#&$",
      "&' %&&&&&",
      "&' %!",
      "&' &&%&+",
      "&' '&&&&&%",
      "&' &&#&#",
      "&' %&&&%&",
      "&% -",
      "&% &&'",
      "&% &*",
      "&% %%",
      "&% %$",
      "&% &&%&&&&",
      "&% ((",
      "&% %%&&&&",
      "&% &&$&(",
      "&% ')",
      "&% &&#&(",
      "&% $)",
      "&% \"'",
      "&% &&%&\"",
      "&% %&&&'",
      "&% $'&&&&",
      "&% $!",
      "&&% *",
      "&&% &&%&",
      "&&% &&&&&&&&&&&&",
      "&&% &&*'",
      "&&% &&%&&&&&%",
      "&&' )",
      "&&' ''&&&&",
      "&&' &&&&&&&&&&&&",
      "&&' &&-",
      "&&' &&$'",
      "&&' %&&'&",
      "ĀĀ ď",
      "ĀĀ ĒĀ",
      "ĀĀ đĀ",
      "&( '&&&&",
      "&( &&$&'",
      "&( &&%&$",
      "&( &&(&'",
      "&( %$",
      "&( &&&'&",
      "&( $#",
      "&( (#",
      "&( \"'",
      "&( &&'&+",
      "&( &&&&%&",
      "&$ &",
      "&$ %&&&&",
      "&$ '&&&&",
      "&$ &&%&(",
      "&$ &&'&(",
      "&$ &&(&%",
      "&$ &&%&$",
      "&$ ((",
      "&$ &&(&(",
      "&$ &&&%&",
      "&$ #$",
      "&$ ')",
      "&$ #(",
      "&$ $)",
      "&$ &&&%&'",
      "&$ +#",
      "&$ %&&&(",
      "&$ &&/",
      "&$ %&&&&&%",
      "&$ )ğ",
      "&$ (&&&*",
      "&$ &&%&&&$&&&&",
      "&&( &%&&&&",
      "&&( #&&&&",
      "&&( &&'&&&&",
      "&&( &&&'&",
      "&&( &&&%&&&&",
      "&&( &&%&&&'",
      "&&( &&%'",
      "&&( &&$'",
      "&&( &&/",
      "&&( &&%&&&$",
      "&&$ +",
      "&&$ '&&&&",
      "&&$ &&'&",
      "&&$ (&&&&",
      "&&$ )&&&&",
      "&&$ &&&'&&&&",
      "&&$ &&%&&&%",
      "&&$ &&-",
      "&&$ &&&%&%",
      "&&$ &&%&&&&&",
      "&&$ &&%(",
      "&# (",
      "&# -",
      "&# '&&&&",
      "&# &&%&(",
      "&# &&'&(",
      "&# '$",
      "&# '&&&'",
      "&# &&(&(",
      "&# &&%&#",
      "&# %)",
      "&# &&%&*",
      "&# &ĝ",
      "&# &&&&#",
      "&# ,'",
      "&) &",
      "&) &+",
      "&) &&$&'",
      "&) &&(&",
      "&) '(",
      "&) )&&&&",
      "&) &&(&(",
      "&) %\"",
      "&) *%",
      "&) *#",
      "&&# \"",
      "&&# &&(",
      "&&# &Ğ",
      "&&# &&%'&&&&",
      "&&# &&*'",
      "&&) &&#",
      "&&) &&\"",
      "&&) &&*",
      "&&) &&&'&&&&",
      "&&) &&%%",
      "&&) &&%(",
      "%&&&& *",
      "%&&&& &&%",
      "%&&&& &&&$",
      "%&&&& ''%",
      "%&&&& '%%&&&&",
      "'&&&& *",
      "'&&&& &ğ",
      "'&&&& &&%&&&&",
      "'&&&& %%&&&&",
      "'&&&& &&&'&&&&",
      "&&&' &*",
      "&&&' &&'&",
      "&&&' &&%&%",
      "&&&' &&%&&&&&",
      "&* -",
      "&* &$",
      "&* &#",
      "&* &+",
      "&* &&'&'",
      "&* &&%&'",
      "&* &&%&%",
      "&* '%",
      "&* &&%&(",
      "&* &&'&$",
      "&* ($",
      "&* &&%&)",
      "&* &&#&'",
      "&* ('&&&&",
      "&* '&&&%",
      "&&&% &&&%",
      "&&&% &+",
      "&&&% &&'&%",
      "&&&% &%&&&&",
      "&&&% &&&%&",
      "&\" *",
      "&\" ,",
      "&\" &$",
      "&\" &\"",
      "&\" &&&&%",
      "&\" &&'&'",
      "&\" '&&",
      "&\" %%",
      "&\" \"&&",
      "&\" &&$&'",
      "&\" &&&&&%",
      "&\" &&&&)",
      "&&\" '",
      "&&\" &&$",
      "&&\" &&&%",
      "&&\" &ĝ",
      "&&\" &&-",
      "&&* %",
      "&&* &&\"",
      "&&* &&&$",
      "&&* &&$%",
      "&+ %",
      "&+ /",
      "&+ &+",
      "&+ &&&&'",
      "&+ $'",
      "&+ ($",
      "&+ &&(&(",
      "&+ )#",
      "&! #",
      "&! -",
      "&! Ę",
      "&! ĝ",
      "&! ğ",
      "&! &&&&%",
      "&! &,",
      "&! ('",
      "&! %(",
      "&! #&&&&",
      "&! $)",
      "&&&&' &&'",
      "&&&&' &'&&&&",
      "&&&&' &$&&&&",
      "&&&&' (#",
      "&&&&' &&&'&&&&",
      "&&&&' \"'",
      "&&&&' %&&&&&",
      "&&&&' '(&&&&",
      "&&&&% \"",
      "&&&&% &#",
      "&&&&% ((",
      "&&&&% %)",
      "&&&&% $)",
      "&&&&% '&&&&&",
      "&&&&% %$&&&&",
      "&&&&% $%&&%&%",
      "&&'&' %'",
      "&&'&' &%&&&&",
      "&&'&' &'&&&&",
      "%&& &+",
      "%&& &ğ",
      "%&& &.",
      "&&%&' \"",
      "&&%&' &%&&&&",
      "&&%&' '$",
      "&&%&' '%&&&&",
      "&&%&' #%",
      "&&&&&&&& $",
      "&&&&&&&& &&'&",
      "'&& ĝ",
      "'&& &#",
      "'&& &+",
      "'&& &ĝ",
      "'&& &\"&'",
      "&&%&% &(",
      "&&%&% '#",
      "&&%&% $*",
      "&&%&% $&&&%",
      "&&'&% '%",
      "&&'&% &'&&&&",
      "&&'&% '%&&&&",
      "$&& &*",
      "$&& &+",
      "$&& &!",
      "(&& &-",
      "(&& &.",
      "(&& &#&'",
      "$&&&& \"",
      "$&&&& &#",
      "$&&&& (%",
      "&, %",
      "&, +",
      "&, &\"",
      "&, ('",
      "'' %&&&&",
      "'' &&%&",
      "'' &&%&(",
      "'' &&(&$",
      "'' &&)&%",
      "'' &&'&&%",
      "'' &&(&#",
      "'' &&)&#",
      "'' &&'&&&'",
      "#&& &(",
      "#&& -&",
      "#&& &#&$",
      "#&& .&%",
      "%' &&(&",
      "%' &&#&%",
      "%' &&%&&'",
      "%' &&'&*",
      "%' &&%&!",
      "%% %",
      "%% &&(&",
      "%% &&%&&&&",
      "%% &&#&'",
      "%% &&'&)",
      "%% &&#&(",
      "%% &&%&*",
      "%% &&'&\"",
      "%% &&#&*",
      "%% &&%&&''",
      "&%&&&& +",
      "&%&&&& ('",
      "&%&&&& (%",
      "&%&&&& &%%&&&&",
      "'% &&(&'",
      "'% &&'&&&&",
      "'% &&$&$",
      "'% &&'&&%",
      "'% &&)&",
      "'% &&%&\"",
      "'% &&*&(",
      "'% &&%&+",
      "'% &&(&-",
      "&'&&&& &&&'",
      "&'&&&& $&&&&",
      "&'&&&& $%",
      "&'&&&& &''",
      "(&&&& )",
      "(&&&& &&",
      "(&&&& &)",
      "(&&&& &&'&&&&",
      ")&& &\"",
      ")&& &+&'",
      "\"&& ě",
      "\"&& -&'",
      "&&%&( %",
      "&&%&( %'&&&&",
      "&- +",
      "&- /",
      "&- &(",
      "&- &$",
      "(' (",
      "(' %&&&&",
      "(' &&&'",
      "(' &&%&",
      "(' &&$&%",
      "(' &&*&(",
      "(' &&&'&%",
      "&&$&' %%",
      "&&$&' ')",
      "&&'&( ('&&&&",
      "&&'&( '%&&'&(",
      "$' &&'&%",
      "$' (&&&&",
      "$' &&#&'",
      "$' &&#&(",
      "&&'&$ '$",
      "&&'&$ ')",
      "(% &&*",
      "(% (&&&&",
      "(% &&)&%",
      "&&(& ě",
      "!&& ę",
      "!&& &ğ",
      "!&& &ĝ",
      "!&& ğ&",
      "$% %&&&&",
      "$% &&'&",
      "$% (&&&&",
      "$% &&$&",
      "$% )&&&&",
      "$% &&%&#",
      "$% &&#&$",
      "&&(&% (%",
      "&&(&% &&&&'&",
      "&&$&% %'&&&&",
      "&&$&% &'&&'&'",
      "&&(&' %'",
      "&&(&' *'",
      "%$ &&'&",
      "%$ &&%&(",
      "%$ &&#&'",
      "%$ &&'&*",
      "%$ &&$&#",
      "%$ &&$&\"",
      "%$ &&$&!",
      "%$ &&%&&#",
      "'( &&&&%",
      "'( &&%&)",
      "'( &&)&%",
      "'( &&'&\"",
      "'( &&'&*",
      "&&$& Ę",
      "'$ &&(&%",
      "'$ &&'&#",
      "'$ &&'&\"",
      "'$ &&#&)",
      "%( &&$&%",
      "%( &&#&'",
      "%( &&%&*",
      "*&& &+",
      "*&& &,",
      "#&&&& #",
      "Ġ&& ĕ",
      "Ġ&& ę",
      "Ġ&& &ĝ",
      "Ġ&& &#&$",
      "Ġ&& ğ&",
      "Ġ&& &!&%",
      "+&& ę",
      "+&& &$",
      "%&&&% &*",
      "'&&&' &%&&&&&&",
      "&ğ Ĝ",
      "&ğ &*",
      "&ğ &&&&%",
      "&&%&&&& &&'&$",
      "&&%&&&& &&(&&&&",
      "&$&&&& &&&'",
      "ĀĀ%Ā ğ",
      "ĀĀ%Ā %%",
      "$$ '&&&&",
      "$$ &&&&'",
      "$$ &&$&(",
      "$$ &&%&\"",
      "$$ &&#&*",
      "ĀĀ&Ā #",
      "ĀĀ&Ā %",
      "ĀĀ&Ā ę",
      "ĀĀ&Ā Ĝ",
      "ĀĀ&Ā ,ğ",
      "(( &&&&%",
      "&&'&&&& &&",
      "&&'&&&& &&'&",
      "&&'&&&& &&%&",
      "''&&&& \"",
      "''&&&& ''",
      "''&&&& %'",
      "''&&&& %%",
      ")&&&& \"",
      ")&&&& -",
      ")&&&& &&%",
      ")&&&& &$",
      "&&&( &&&&",
      "($ &&$&",
      "($ &&(&(",
      "'%&&&& +",
      "'%&&&& &%",
      "'%&&&& &(",
      "'%&&&& %(",
      "'%&&&& &%'&&&&",
      "%%&&&& &%",
      "%%&&&& ''",
      "%%&&&& &&&&&&&'",
      "Ā) /",
      "&&%&) %*",
      "&. '",
      "&&$&( &!",
      "#' &&$&",
      "#' &&$&$",
      "#' &&%&+",
      "$( &&'&",
      "$( (&&&&",
      "$( &&$&",
      "$( &&$&(",
      "$( &&$&$",
      "$( &&#&%",
      "Ā* *",
      "&&+ &&&'",
      "&&+ &+",
      "&&)&% '(",
      "&&)&% $#",
      "&&#&' *$",
      "%) &&'&%",
      "%) &&'&$",
      "%) &&%&$",
      "%) &&%&)",
      "%) &&#&$",
      "%) &&#&*",
      "%'&&&& $",
      "%'&&&& *",
      "&&! '",
      "&&! )",
      "&&! &+",
      "&&! &-",
      "&&$&$ %'&&&&",
      "&&$&$ $%&&&&",
      "%# &&(&(",
      "%# &&%&&(",
      ")' &&(&'",
      ")' &&(&$",
      ")' &&(&(",
      ")' &&*&#",
      "&&)&' &%",
      "&&)&' %%&&&&",
      "#% &&%&$",
      "#% &&$&",
      "#% &&%&#",
      "#% &&%&+",
      "&(&&&& &",
      "&(&&&& (",
      "&(&&&& *",
      "ĀĀ'Ā $",
      "ĀĀ'Ā /",
      "ĀĀ'Ā ĝ",
      "ĀĀ'Ā ğ",
      ")% &&(&%",
      ")% &&(&$",
      ")% &&'&\"",
      "ĀĀ$Ā %",
      "ĀĀ$Ā ğ",
      "ĀĀ$Ā $'",
      "'# (",
      "'# &&'&'",
      "'# &&(&$",
      "'# &&(&#",
      "ĀĀ(Ā +",
      "ĀĀ(Ā /",
      "ĀĀ(Ā Ğ",
      "ĀĀ(Ā +\"",
      "'\" #",
      "#$ &&%&",
      "#$ &&#&#",
      "') &&%&'",
      "&&'&&% \"",
      "&&'&&% &&&%",
      "ĀĀ#Ā \"",
      "ĀĀ#Ā $",
      "ĀĀ#Ā +",
      "ĀĀ#Ā ě",
      ")( &&(&%",
      ")( &&(&$",
      ")( &&)&'",
      ")( &&)&#",
      "%\" &&'&%",
      "%\" &&$&)",
      "%\" &&&&)",
      "&&%&&' &&&'",
      "&&%&&' $&&&&",
      "&&'&&' &&&'",
      "&&)&$ $$",
      "&&#&( (",
      "&&#&( \"%",
      "&&#&( !#",
      ")$ &&'&",
      ")$ &&'&$",
      ")$ &&)&$",
      "ĀĀ\"Ā ğ",
      "ğ&& Ĝ",
      "ğ&& ĝ",
      "ğ&& &#&'",
      "%* &&$&'",
      "%* &&%&*",
      "&&$&) $)",
      "&&$&) ()",
      "$# &&%&",
      "$# &&%&'",
      "$# &&%&#",
      "$# &&\"&",
      "&&)& Ĝ",
      "&&'&\" '",
      "ĀĀ!Ā !",
      "ĀĀ!Ā %",
      "ĀĀ!Ā '",
      "#( &&%&",
      "#( &&%&'",
      "#( &&%&(",
      "#( &&%&$",
      "#( &&$&%",
      "#( &&$&",
      "#( &&#&(",
      "#( &&$&)",
      "#( &&%&*",
      "$) &&%&+",
      "-&& ĝ",
      "-&& &*",
      "'* &&'&'",
      "'* &&$&",
      "(\" '",
      "(\" &&'&%",
      "*% !",
      "*% ĀĀ",
      "*% &&'&(",
      "*% &&(&$",
      "(# &&&&'",
      "&ĝ $",
      "&ĝ ,",
      "&&)&( $%",
      "\"$ &&%&$",
      "\"$ &&$&%",
      "\"$ &&#&%",
      "## &&%&%",
      "## &&'&$",
      "## &&$&(",
      "\"% &&%&(",
      "\"% &&$&)",
      "\"% &&#&)",
      "\"' ,",
      "\"' &&#&'",
      "*' &&'&#",
      "*' &&(&)",
      "*' &&(&\"",
      "&&&) &%",
      "&&&) &,",
      "ĀĀ- Ā)",
      "ĀĀğĀ !",
      "ĀĀğĀ #",
      "ĀĀğĀ %",
      "ĀĀğĀ ,",
      "&&&&&&&&&&&& &%&&&&",
      "&&&&&&&&&&&& &'&&&&",
      "&&&&&&&&&&&& &&'&&&&",
      "&&%&&&% &&'&",
      "&&%&&&% &&&&&&&&",
      "&&*&% &'",
      "&&*&% $'",
      "ĀĀ+Ā -",
      "ĀĀ+Ā ğ",
      "*$ &&'&'",
      "*$ &&$&(",
      "*$ &&(&*",
      "ĀĀ,Ā #",
      "$\" )",
      "$\" &&$&%",
      "%! &&$&%",
      "ĠĀ /",
      "ĠĀ $+",
      "ĀĀ/ Ā)",
      "&&*&' $)",
      "(* &&'&%",
      "(* &&'&$",
      "(* &&(&",
      "() &&'&#",
      "&&$&# $'",
      "$* (",
      "$* &&%&",
      "$* &&$&%",
      "#) &&%&'",
      "#) &&$&%",
      "'! &&&&",
      "'! &&)&%",
      ")# &&)&'",
      "&&\"&( $(",
      "'&&&( &(",
      "'&&&( &*",
      "&&ğ &#",
      "&&ğ &)",
      "&&ğ &*",
      "&Ĝ &%",
      "!% &&$&$",
      "ĀĀĞ Ā*",
      "ĀĀĞ Ā(",
      "#\" &&$&\"",
      "%&&&$ &#",
      "%&&&$ &&%'",
      "ĀĀ/Ā /",
      "ĀĀ/Ā ,%",
      "\"( &&#",
      "\"( &&$&)",
      "ĀĀĜ Ā)",
      "&&(&\" '",
      ")) &&'&$",
      ")) &&(&%",
      "&&- &'",
      "&&- &ĝ",
      "&&%&&$ &&&%&",
      "&&(&* #'",
      "&&(&&&& &&%&",
      "Ġ( !",
      "Ġ( &&#&",
      "&&&&$ &)",
      "&&&&$ &*",
      "ĀĀĝ Ā*",
      "ĀĀĝ Ā,",
      "*( &&'&",
      "*( &&'&)",
      "*( &&)&'",
      "*( &&)&#",
      "'+ &&%&%",
      "&&Ğ &'",
      "&&Ğ &$",
      "&&Ğ &*",
      "&&Ğ &!",
      "&'&&&&% &'&&&&",
      "&&$&\" ((",
      "+# &&(&",
      "+# &&(&$",
      "+# &&*&!",
      "ĀĀě Ā,",
      "%$&&&& \"",
      "%$&&&& &''",
      "*\" &&)&%",
      "'&&&&&% %&&&&",
      "'&&&&&% '&&&&",
      "'&&&&&% &%&&&&",
      "'&&&&&% &'&&&&",
      "'&&&&&% %&&&&&",
      "&&'&&( $",
      "&&'&&( &&&'&",
      "&&'&&( %&&'&",
      "(%&&&& %",
      ")* &&(&(",
      "*# &&'&$",
      "*# &&(&'",
      "*# &&(&#",
      "*# &&(&\"",
      "&&$&&&& &&%&&&&",
      "Ġ$ ĀĀ.Ā",
      "&&&%&&&& &&",
      "&&&%&&&& &%%&&&&",
      "ĀĀĜĀ !",
      "ĀĀĜĀ \"",
      "$! &&%&(",
      "('&&&& \"",
      "('&&&& *",
      "Ġ' ,",
      "Ġ' &&#&$",
      "&&#&# %'",
      "%&&! &",
      "%&&! &(",
      "%(&&&& )",
      "%(&&&& $'",
      "&&%&&( )",
      "&&%&&( $&&&&",
      "&&&%&% (&&&'&",
      "\"\" &&&&",
      "\"\" &&&&'",
      "'$&&&& #",
      "+( !",
      "Ġ# ,",
      "&%&&&&' &'&&&&",
      "&%&&&&' '&&&'&",
      "ĀĀěĀ +",
      "ĀĀěĀ -",
      "!' &&'&$",
      ")\" &&&&",
      "ĀĀĚ Ā*",
      "&&'&&&' &%",
      "&&*&# !%",
      "\") &&#&'",
      "+$ &&(&'",
      "+$ &&'&!",
      "#&&&$ &",
      "&%%&&&& &&&&&&&",
      "ĀĀę Ā,",
      "#+ &&&&",
      "#+ &&$&%",
      "#+ &&#&'",
      "#&&! &'",
      "** &&'&%",
      "+% &&)&%",
      "+% &&*&%",
      "&&&&&&&&&&&&&&&& &&&&&&&&&&&&&&&&&&&&&&&&",
      "Ġ&( %%",
      "Ġ&) %",
      "&&#&\" (",
      "'&&&&&' '&&&&&",
      "'&&+ &%",
      "&&(&+ %\"",
      "(&&! &'",
      "%+ &&%&#",
      "&ĀĀ ĘĀ",
      "'ğ Ĝ",
      "'ğ &&&&",
      "Ġ\" &&\"&(",
      "&&%&& &\"",
      "&&%&& &!",
      "&#&' &&%&",
      "&&)&* -",
      "$&&+ &+",
      "$&&+ &,",
      "+* !",
      ")&&&( &(",
      "Ā. Ğ",
      "(&&+ &%",
      "(&&+ &(",
      "(&&+ &\""
    ]
  }
}