{
  "version": "1.0",
  "truncation": null,
  "padding": null,
  "added_tokens": [],
  "normalizer": null,
  "pre_tokenizer": {
    "type": "ByteLevel",
    "add_prefix_space": false,
    "trim_offsets": true,
    "use_regex": true
  },
  "post_processor": {
    "type": "ByteLevel",
    "add_prefix_space": true,
    "trim_offsets": false,
    "use_regex": true
  },
  "decoder": {
    "type": "ByteLevel",
    "add_prefix_space": true,
    "trim_offsets": true,
    "use_regex": true
  },
  "model": {
    "type": "BPE",
    "dropout": null,
    "unk_token": null,
    "continuing_subword_prefix": null,
    "end_of_word_suffix": null,
    "fuse_unk": false,
    "byte_fallback": false,
    "ignore_merges": false,
    "vocab": {
      "\u0000": 0,
      "\u0001": 1,
      "\u0002": 2,
      "\u0003": 3,
      "\u0004": 4,
      "\u0005": 5,
      "\u0006": 6,
      "\u0007": 7,
      "\b": 8,
      "\t": 9,
      "\n": 10,
      "\u000b": 11,
      "\f": 12,
      "\r": 13,
      "\u000e": 14,
      "\u000f": 15,
      "\u0010": 16,
      "\u0011": 17,
      "\u0012": 18,
      "\u0013": 19,
      "\u0014": 20,
      "\u0015": 21,
      "\u0016": 22,
      "\u0017": 23,
      "\u0018": 24,
      "\u0019": 25,
      "\u001a": 26,
      "\u001b": 27,
      "\u001c": 28,
      "\u001d": 29,
      "\u001e": 30,
      "\u001f": 31,
      " ": 32,
      "!": 33,
      "\"": 34,
      "#": 35,
      "$": 36,
      "%": 37,
      "&": 38,
      "'": 39,
      "(": 40,
      ")": 41,
      "*": 42,
      "+": 43,
      ",": 44,
      "-": 45,
      ".": 46,
      "/": 47,
      "0": 48,
      "1": 49,
      "2": 50,
      "Ā": 51,
      "ā": 52,
      "Ă": 53,
      "ă": 54,
      "Ą": 55,
      "ą": 56,
      "Ć": 57,
      "ć": 58,
      "Ĉ": 59,
      "ĉ": 60,
      "Ċ": 61,
      "ċ": 62,
      "Č": 63,
      "č": 64,
      "Ď": 65,
      "ď": 66,
      "Đ": 67,
      "đ": 68,
      "Ē": 69,
      "ē": 70,
      "Ĕ": 71,
      "ĕ": 72,
      "Ė": 73,
      "ė": 74,
      "Ę": 75,
      "ę": 76,
      "Ě": 77,
      "ě": 78,
      "Ĝ": 79,
      "ĝ": 80,
      "Ğ": 81,
      "ğ": 82,
      "Ġ": 83,
      "ęę": 84,
      "ęęęę": 85,
      "ęĚ": 86,
      "ęĘ": 87,
      "ęęĚ": 88,
      "ęęĘ": 89,
      "ĀĀ": 90,
      "ęě": 91,
      "ęė": 92,
      "ęęęęęęęę": 93,
      "ęęė": 94,
      "ęęě": 95,
      "Ęęęęę": 96,
      "Ěęęęę": 97,
      "ęęęĚ": 98,
      "ęęęĘ": 99,
      "ęĜ": 100,
      "ęĖ": 101,
      "ęęĖ": 102,
      "ęęĜ": 103,
      "ęĘęęęę": 104,
      "ęĚęęęę": 105,
      "ęĝ": 106,
      "ęĕ": 107,
      "ĘęęĚ": 108,
      "ĚęęĘ": 109,
      "ĘęęĘ": 110,
      "ĚęęĚ": 111,
      "ęęęęĘ": 112,
      "ęĚĚ": 113,
      "ęęęęĚ": 114,
      "ęĘĘ": 115,
      "ęĚĘ": 116,
      "ęęĕ": 117,
      "ęĘĚ": 118,
      "ęęĝ": 119,
      "ęęęė": 120,
      "ęęęě": 121,
      "ęęę": 122,
      "ėęęęę": 123,
      "ěęęęę": 124,
      "ęęęęęęęęęęęę": 125,
      "ęęĚęęęę": 126,
      "ęĞ": 127,
      "ęęĘęęęę": 128,
      "ęęĞ": 129,
      "ėęęĚ": 130,
      "ęĔ": 131,
      "ęęĔ": 132,
      "ĀĚ": 133,
      "ěęęĘ": 134,
      "ĀĘ": 135,
      "ĀĀĘ": 136,
      "ĀĀę": 137,
      "Ęęęě": 138,
      "Ěęęė": 139,
      "ęĚě": 140,
      "ęĘė": 141,
      "ęěĚ": 142,
      "Āě": 143,
      "ėęęĘ": 144,
      "Ęęęė": 145,
      "Āė": 146,
      "ěęęĚ": 147,
      "ęĘě": 148,
      "ĀĀĚ": 149,
      "ęěĘ": 150,
      "ęĚė": 151,
      "Ěęęě": 152,
      "ĀĀė": 153,
      "ęėĚ": 154,
      "ęėĘ": 155,
      "ĀĖ": 156,
      "ęğ": 157,
      "ĀĜ": 158,
      "ęęęęęęęęęęęęęęęę": 159,
      "ęęē": 160,
      "ĀĀě": 161,
      "ęęęĜ": 162,
      "ęęęĖ": 163,
      "ęęğ": 164,
      "ĀĀĖ": 165,
      "ęęęĘęęęę": 166,
      "ęęĚę": 167,
      "ęėė": 168,
      "ěęęė": 169,
      "ĘęęęęĚ": 170,
      "ĘęęęęĘ": 171,
      "Āĕ": 172,
      "ęęĚęęęĚ": 173,
      "ėęęě": 174,
      "Āĝ": 175,
      "ęęĘę": 176,
      "ęěęęęę": 177,
      "ęěě": 178,
      "Ĝęęęę": 179,
      "ĖęęĚ": 180,
      "ęėęęęę": 181,
      "Ėęęęę": 182,
      "ĚęęęęĚ": 183,
      "ęē": 184,
      "ęęęĚęęęę": 185,
      "ěęęě": 186,
      "ĚęęęęĘ": 187,
      "ĀĀĜ": 188,
      "ęěė": 189,
      "ĜęęĘ": 190,
      "ėęęė": 191,
      "ęėě": 192,
      "ĖęęĘ": 193,
      "ĀĀĕ": 194,
      "ĘęęĜ": 195,
      "ęęęĘę": 196,
      "ęĚĚęęęę": 197,
      "ęĚęęĘ": 198,
      "ĜęęĚ": 199,
      "ĀĞ": 200,
      "ěĚ": 201,
      "ęĚĜ": 202,
      "ęĘęęĚ": 203,
      "ęĘĘęęęę": 204,
      "ėĚ": 205,
      "ĀĀĝ": 206,
      "ęęĒ": 207,
      "ęęęĚę": 208,
      "ęĘęęĘ": 209,
      "ęĜĚ": 210,
      "ĀĔ": 211,
      "ęĘęęęęĚ": 212,
      "ęĘĖ": 213,
      "ĘęęĖ": 214,
      "ęĚęęĚ": 215,
      "ęĘĜ": 216,
      "ęĖĘ": 217,
      "ęĚĖ": 218,
      "ęĚęęęęĚ": 219,
      "ĀĀĔ": 220,
      "ęĚęęęęĘ": 221,
      "ęĖĚ": 222,
      "ęĘęęęęĘ": 223,
      "ęęęęęęęęęęę": 224,
      "ęĜĘ": 225,
      "ėĘ": 226,
      "ęĚĘęęęę": 227,
      "ęĘĚęęęę": 228,
      "ěĘ": 229,
      "ĀĀĞ": 230,
      "ěě": 231,
      "ęęęĕ": 232,
      "ęěĜ": 233,
      "ęĒ": 234,
      "Ėęęě": 235,
      "ĚęęĖ": 236,
      "Āē": 237,
      "ęęĘęęęĘ": 238,
      "ĚęęĜ": 239,
      "Ĝęęė": 240,
      "ęęęĝ": 241,
      "ęęęęĘĘ": 242,
      "ėě": 243,
      "ęėĖ": 244,
      "ĕęęęę": 245,
      "ęę!": 246,
      "Ėęęė": 247,
      "ėęęĜ": 248,
      "ĀĀğ": 249,
      "ęĜě": 250,
      "ęėĜ": 251,
      "ęęęęĘĚ": 252,
      "ęęđ": 253,
      "ęęęęĚĚ": 254,
      "ĀĀē": 255,
      "ęĖė": 256,
      "ęęęęĚĘ": 257,
      "ęěĖ": 258,
      "Ĝęęě": 259,
      "ěęęĖ": 260,
      "ėęęĖ": 261,
      "ĀĀęĀ": 262,
      "ĕęęĘ": 263,
      "ęęęĘęęĘ": 264,
      "ĕęęĚ": 265,
      "ėė": 266,
      "ĀĀĘĀ": 267,
      "ĜĚ": 268,
      "ĝęęęę": 269,
      "ęĜė": 270,
      "ěęęĜ": 271,
      "ĀĀĒ": 272,
      "ęĖě": 273,
      "ĖĚ": 274,
      "ĖĘ": 275,
      "ĝęęĘ": 276,
      "ęĜĜ": 277,
      "ęęęĘęęĚ": 278,
      "ĜĘ": 279,
      "ęĖęęęę": 280,
      "ęęęĚęęĘ": 281,
      "ę!": 282,
      "ęđ": 283,
      "ĀĀėĀ": 284,
      "ĚęęĘę": 285,
      "ęęęĚęęĚ": 286,
      "ĀĀ!": 287,
      "ęĕĚ": 288,
      "Ĝě": 289,
      "ĕĚ": 290,
      "ęĚĝ": 291,
      "ęěęęĘ": 292,
      "ęĚęęęęęę": 293,
      "ęĘęĚęęęę": 294,
      "ęęęęęęĘ": 295,
      "ęĘĕ": 296,
      "ĀĀĚĀ": 297,
      "ĀĀěĀ": 298,
      "ėĜ": 299,
      "ĝęęĚ": 300,
      "ĘęęĚę": 301,
      "ęĖĖ": 302,
      "ęĝĚ": 303,
      "ęĚęĘęęęę": 304,
      "ĀĀđ": 305,
      "ěĜ": 306,
      "ęĚęĘ": 307,
      "ĘĚ": 308,
      "ęęęęęęĚ": 309,
      "ęĘęĚ": 310,
      "ęę\"": 311,
      "ęĘĝ": 312,
      "ĚęęĚę": 313,
      "Ěęęęęę": 314,
      "ęĕĘ": 315,
      "ĖęęĜ": 316,
      "ęėęęĘ": 317,
      "ęĜęęęę": 318,
      "ĘęęĘę": 319,
      "ęĚĘęęęĘ": 320,
      "ęĘĚęęęĚ": 321,
      "ęĚĕ": 322,
      "Ėě": 323,
      "ĀĀĖĀ": 324,
      "ęęęĞ": 325,
      "ęęĘĘęęęę": 326,
      "ęėęęĚ": 327,
      "Ęęęĝ": 328,
      "ĚĚ": 329,
      "ĝęęė": 330,
      "ęęęęęęęęęęęęę": 331,
      "ęęĐ": 332,
      "ĕęęě": 333,
      "Ėė": 334,
      "ĝĚ": 335,
      "ęĝĘ": 336,
      "ĕĘ": 337,
      "ęęęĔ": 338,
      "ěė": 339,
      "ĀĀĐ": 340,
      "ęĘęęęęęę": 341,
      "ęĚĚęęęĚ": 342,
      "ęęęęęęęęęęęęęęęęęęęę": 343,
      "ĝě": 344,
      "ęĘĘęęęĘ": 345,
      "ĜĜ": 346,
      "ęęěęęęę": 347,
      "ĖęęĖ": 348,
      "ęěĝ": 349,
      "ęĘęĘęęęę": 350,
      "ĕęęė": 351,
      "ęęĚęęęęę": 352,
      "ĜęęĖ": 353,
      "ęĝě": 354,
      "ĘĘ": 355,
      "ęėĕ": 356,
      "ĀĀ\"": 357,
      "ęĚęĚ": 358,
      "ęęĚĚęęĚ": 359,
      "ęěęęĚ": 360,
      "Ėĝ": 361,
      "ęęėęęęę": 362,
      "ęĚęĚęęęę": 363,
      "ęĘęĘ": 364,
      "ęęĚĘęęĚ": 365,
      "ęęĘęęęęę": 366,
      "ęĜĖ": 367,
      "ęĕė": 368,
      "ę\"": 369,
      "ęęĚĚęęęę": 370,
      "ĕě": 371,
      "Ĝĝ": 372,
      "Ęęęĕ": 373,
      "Ęęęęęę": 374,
      "ĕė": 375,
      "ęĖĜ": 376,
      "ęęĘĚęęĘ": 377,
      "ěĞ": 378,
      "ęĝė": 379,
      "ĔęęĚ": 380,
      "ĀĀ$": 381,
      "ĀĀĕĀ": 382,
      "Ěęęĕ": 383,
      "ĀĀ#": 384,
      "ĀĀď": 385,
      "ęęęęęęęęęĘ": 386,
      "Ěęęĝ": 387,
      "ěęęęęĘ": 388,
      "ĔęęĘ": 389,
      "ęęĘĚęęęę": 390,
      "ęęĘĘęęĘ": 391,
      "ėęęĝ": 392,
      "Ěęęęęęę": 393,
      "ĖĜ": 394,
      "ěĝ": 395,
      "ęęĚĘęęęę": 396,
      "Ęęęęęęę": 397,
      "ĀĀĜĀ": 398,
      "ęėĝ": 399,
      "ęěęęęęĘ": 400,
      "ęĚĚĘęęĚ": 401,
      "ęėęęęęĚ": 402,
      "ĚĘ": 403,
      "ęĜĝ": 404,
      "ęĘėęęęę": 405,
      "Ĕęęęę": 406,
      "ėęęęęĘ": 407,
      "ęěĕ": 408,
      "ĚęęęĚ": 409,
      "ĞĞ": 410,
      "ęĕě": 411,
      "ęĚĘĚęęĘ": 412,
      "ėęęęęĚ": 413,
      "ĀĀĎ": 414,
      "ĔĘ": 415,
      "ėĝ": 416,
      "ėęęĕ": 417,
      "ęęęęęęęęęĚ": 418,
      "ęĝĜ": 419,
      "ęĘęęęęęęĚ": 420,
      "ėĖ": 421,
      "ĘĘęęęę": 422,
      "ĞęęĘ": 423,
      "ęĚęęęęęęĚ": 424,
      "ęĚęęęęęęĘ": 425,
      "ĀĀĔĀ": 426,
      "Ĕě": 427,
      "ęĖĕ": 428,
      "ęĕĖ": 429,
      "ęĘĘĚęęĘ": 430,
      "ĝĜ": 431,
      "ĔĚ": 432,
      "ęĚĞ": 433,
      "ĀĀ%": 434,
      "ęęėęęęĘ": 435,
      "ĝęęě": 436,
      "ęęęęęęęęęęęĚ": 437,
      "ĕĜ": 438,
      "ęęěęęęĚ": 439,
      "ĕęęĖ": 440,
      "ĚĚęęęę": 441,
      "ěęęęęĚ": 442,
      "ęęęęęęęęęęęĘ": 443,
      "ĀĀĘĀĘ": 444,
      "ĘęęęĘ": 445,
      "ęėęęęęĘ": 446,
      "ęęęē": 447,
      "ęĐ": 448,
      "ęę#": 449,
      "ęĘĚĚęęęę": 450,
      "ęĘĚĚęęĚ": 451,
      "ğĜ": 452,
      "ĀĀĘĀĚ": 453,
      "ĀĀĝĀ": 454,
      "ĀĀĞĀ": 455,
      "ĠĚ": 456,
      "ęĘęĚęęĚ": 457,
      "ęĘęęęęęęĘ": 458,
      "ęĘĚĘęęĚ": 459,
      "ęĚĘĘęęĘ": 460,
      "ęĘĘĚęęęę": 461,
      "ĕęęĜ": 462,
      "ěęęĝ": 463,
      "Ğęęęę": 464,
      "ęĚęęęęę": 465,
      "ĠĜ": 466,
      "ęĚęĘęęĚ": 467,
      "ęĚęĘęęĘ": 468,
      "Ėęęĝ": 469,
      "ęęęęęęęęęęęęęęę": 470,
      "ęęĚęęęĚę": 471,
      "Ġĝ": 472,
      "ęĚěęęęę": 473,
      "ĚęęęęęęĚ": 474,
      "ĖĖ": 475,
      "ĘęęĞ": 476,
      "ĞĚ": 477,
      "ěęęĕ": 478,
      "ęĚĔ": 479,
      "ęĚĚĘęęęę": 480,
      "Ĕęęė": 481,
      "ğĚ": 482,
      "ğĞ": 483,
      "ęĞĚ": 484,
      "ęĚĚĚęęęę": 485,
      "ěĖ": 486,
      "ęĜĕ": 487,
      "ęĜęęĘ": 488,
      "ęĞĘ": 489,
      "ęęęęęęęęęęęęęęęęęę": 490,
      "ĚĘęęęę": 491,
      "ĝĝ": 492,
      "ĞĜ": 493,
      "ęę$": 494,
      "ęęď": 495,
      "ęĘęĘęęĚ": 496,
      "ĀĀ&": 497,
      "ęěĚęęęę": 498,
      "ĀĀęĀĘ": 499,
      "ėęęĞ": 500,
      "ęěęęęęĚ": 501,
      "ęĘĔ": 502,
      "ęĘęĚęęĘ": 503,
      "ĀĀęĀė": 504,
      "ĘĚęęęę": 505,
      "ęěĞ": 506,
      "ĀĚĚ": 507,
      "ęĘęęęęę": 508,
      "ĀĀ'": 509,
      "Ĕęęě": 510,
      "ğĝ": 511,
      "ęęęęęęęęĚ": 512,
      "ęęęěę": 513,
      "ęęęğ": 514,
      "ĀĀĘĀė": 515,
      "ēė": 516,
      "ēĚ": 517,
      "Ėęęĕ": 518,
      "ęęěĘęęĚ": 519,
      "ĀĀğĀ": 520,
      "ĘęęęęęęĘ": 521,
      "ęĖęęĚ": 522,
      "ğĘ": 523,
      "ęĚęęė": 524,
      "ęĚęęě": 525,
      "ęĕęęęę": 526,
      "Ĕĝ": 527,
      "ęĘęęęĘ": 528,
      "ĀĚĘ": 529,
      "ĕĝ": 530,
      "ĞęęĚ": 531,
      "ęĘĞ": 532,
      "ęĝĖ": 533,
      "ęęęěęęĘ": 534,
      "ĀĀĘĀě": 535,
      "ęĚęĚęęĘ": 536,
      "ęěęĘ": 537,
      "ęęęėęęęę": 538,
      "ĀĀęĀě": 539,
      "ĀĀĚĀĘ": 540,
      "ĝĘ": 541,
      "ĘęęęęęęĚ": 542,
      "ĒĘ": 543,
      "ęĜęęĚ": 544,
      "ęęęėę": 545,
      "ēĘ": 546,
      "Ĝė": 547,
      "ęĕĜ": 548,
      "ęĘĘĘęęĘ": 549,
      "ęĘėęęęĘ": 550,
      "Ĕė": 551,
      "ĚĜ": 552,
      "ĠĘ": 553,
      "ęĘęĘęęĘ": 554,
      "ĚęęęęęęĘ": 555,
      "ęĔĘ": 556,
      "ęęęėęęĚ": 557,
      "ęęęěęęęę": 558,
      "ęęĘęęęęęęĘ": 559,
      "ĔĖ": 560,
      "ĠĞ": 561,
      "ęėęęě": 562,
      "ĀĀĘĀĖ": 563,
      "ęĘĘĘęęęę": 564,
      "ęęĚęęęęęęĚ": 565,
      "ęĚěęęęĚ": 566,
      "ĀĀėĀĘ": 567,
      "ęĚĚęęęęę": 568,
      "ĕĕ": 569,
      "ę#": 570,
      "ĚĚęęĚ": 571,
      "Ġğ": 572,
      "ėęęęĘ": 573,
      "ęėĔ": 574,
      "ęęęęęęęęĘ": 575,
      "ęĝęęęę": 576,
      "ĖĞ": 577,
      "Ġě": 578,
      "ęęĎ": 579,
      "ęĖęęĘ": 580,
      "ğě": 581,
      "ęĔĚ": 582,
      "ęėĘęęęę": 583,
      "ęęěĚęęĚ": 584,
      "ĀĀęĀĚ": 585,
      "Ĝęęĕ": 586,
      "Ġė": 587,
      "ęěęęė": 588,
      "ęĚĘĘęęęę": 589,
      "ĀĀėĀě": 590,
      "ęĚęęęęęęęęęęęę": 591,
      "ęĘěęęęę": 592,
      "ęĖĔ": 593,
      "ęĖĝ": 594,
      "ęęĘęęęęęęĚ": 595,
      "ęĚěĘęęĚ": 596,
      "ęĘěęęęĚ": 597,
      "ĘęęęęĘĘ": 598,
      "ĜęęĜ": 599,
      "Ğęęė": 600,
      "ęĚĚĚęęĚ": 601,
      "ēęęĘ": 602,
      "ĖęęĞ": 603,
      "ěĘęęĚ": 604,
      "ęĚęęęĚ": 605,
      "ęěĘęęęę": 606,
      "ęėĞ": 607,
      "ęęęėęęĘ": 608,
      "ęęĘęęęęęę": 609,
      "ĒĚ": 610,
      "ēęęĚ": 611,
      "ęĀĀ": 612,
      "ęęĚęęęęęęĘ": 613,
      "Ēė": 614,
      "ĕęęĕ": 615,
      "ęěĔ": 616,
      "ęęėĚęęĘ": 617,
      "ęĘĚĘęęęę": 618,
      "ĀĀėĀė": 619,
      "ęĘĘęęęęę": 620,
      "ęĘĚęęęęę": 621,
      "ėĘęęĘ": 622,
      "ĀĀĚĀė": 623,
      "ĀĀēĀ": 624,
      "ĕĖ": 625,
      "ęĞĜ": 626,
      "ĀĀĚĀě": 627,
      "ĀĀĚĀĖ": 628,
      "ēęęęę": 629,
      "ĕęęĝ": 630,
      "ęėĚęęęę": 631,
      "ĀĀęĀĕ": 632,
      "ĀĀĚĀĚ": 633,
      "ěğ": 634,
      "ěĚęęęę": 635,
      "ěęęęĚ": 636,
      "ęĝĝ": 637,
      "ęęęęęęęęęęęęęęęęęęęęęęęę": 638,
      "ęĘĘěęęĘ": 639,
      "ėęęĚę": 640,
      "ėĘęęęę": 641,
      "ĜĞ": 642,
      "ęĚęĚęęĚ": 643,
      "ęęęěęęĚ": 644,
      "ęęęęęęęęęęęęęęęęęęę": 645,
      "ĘęęęęĘĚ": 646,
      "ĖęęęęĘ": 647,
      "Ěĝ": 648,
      "ğęęĘ": 649,
      "ĠĀ": 650,
      "ęĚęęęęęęęę": 651,
      "ęĚėęęęę": 652,
      "ęęėĘęęĘ": 653,
      "ęĘęęė": 654,
      "ęĘęěęęęę": 655,
      "ĀĀ(": 656,
      "ĀĀėĀĚ": 657,
      "ĕĞ": 658,
      "ĀĀĖĀĚ": 659,
      "ęĘęęęęě": 660,
      "ęĝĞ": 661,
      "ĀĀęĀĜ": 662,
      "ęěĘęęęĘ": 663,
      "ĘęęęęĚĘ": 664,
      "ĀĀĒĀ": 665,
      "đĚ": 666,
      "ēĝ": 667,
      "ĔęęĖ": 668,
      "ęĘęęęęęęęę": 669,
      "ęęĚęęĘ": 670,
      "ęěęęě": 671,
      "ęęęĘęęė": 672,
      "ęĔė": 673,
      "ĖęęęęĚ": 674,
      "ęĜĞ": 675,
      "ęğĚ": 676,
      "ĚęęęęĘĘ": 677,
      "ğğ": 678,
      "ęĘęęě": 679,
      "ęĘĘęęęĚ": 680,
      "ęĞė": 681,
      "ęĔĖ": 682,
      "ęĘėĚęęĘ": 683,
      "ĚęęęęĘĚ": 684,
      "ēĖ": 685,
      "Ğĝ": 686,
      "ğė": 687,
      "ęĘęęęęęęęęęęęę": 688,
      "ęęĚęęęĘ": 689,
      "ĀĀĚĀĜ": 690,
      "ĒĖ": 691,
      "ĔĜ": 692,
      "ĘęęĔ": 693,
      "ěĕ": 694,
      "ęęĚęęęęęę": 695,
      "ĀĀęĀĖ": 696,
      "ěęęĚę": 697,
      "ęėĚęęęĚ": 698,
      "ĚęęęęĚĘ": 699,
      "ěĘęęęę": 700,
      "ęĚĚęęęě": 701,
      "ĀĀěĀė": 702,
      "ēě": 703,
      "ēęęė": 704,
      "ĔĞ": 705,
      "ĜęęęęĚ": 706,
      "ęę%": 707,
      "ęĚğ": 708,
      "ęęĘęęęĚ": 709,
      "ęĘĘęęęė": 710,
      "ęĚėęęęĘ": 711,
      "ęĚęė": 712,
      "ęĚĚęęĚ": 713,
      "ęĚėĚęęĘ": 714,
      "đė": 715,
      "Ēĕ": 716,
      "ēĜ": 717,
      "ęėĚĚęęĚ": 718,
      "ĀĀěĀĘ": 719,
      "Ęĝ": 720,
      "ęď": 721,
      "ęĚĘęęĚ": 722,
      "ęĚĘĚęęęę": 723,
      "ĀĀĘĀĕ": 724,
      "ęěĚęęęĚ": 725,
      "ĀĀđĀ": 726,
      "ėĕ": 727,
      "ėĞ": 728,
      "Ěě": 729,
      "Ġęęęę": 730,
      "ęęęęęęęęęęĚ": 731,
      "ęĚĚęęęĘ": 732,
      "ęěĘĘęęĘ": 733,
      "ĀĀĖĀė": 734,
      "ėĚęęĘ": 735,
      "ğęęęę": 736,
      "ĀĀ)": 737,
      "ęĜĔ": 738,
      "ęĕĕ": 739,
      "ęĚĚėęęĚ": 740,
      "ęęęĒ": 741,
      "ęĞĝ": 742,
      "ęĔĜ": 743,
      "ĀĀěĀě": 744,
      "ĀĀěĀĖ": 745,
      "ĞĘ": 746,
      "ęęėę": 747,
      "ęĞě": 748,
      "ĀĀĐĀ": 749,
      "!ĝ": 750,
      "ęęĚęęęě": 751,
      "ęęĚĘęęě": 752,
      "ęęĘęęęė": 753,
      "ęęęĘęęě": 754,
      "ęĚĚĘęęĘ": 755,
      "ęĚĘęęęęę": 756,
      "!ğ": 757,
      "ęĝĕ": 758,
      "ęĞĖ": 759,
      "ęĚěĚęęĚ": 760,
      "ęėĘĚęęęę": 761,
      "ĜęęęęĘ": 762,
      "ęĚęėęęęę": 763,
      "ęęĘęęĘ": 764,
      "ĀĀ*": 765,
      "ęĕĝ": 766,
      "ėęęĘę": 767,
      "ęĚėĘęęĘ": 768,
      "ĀĀėĀĖ": 769,
      "ĀĀĖĀĘ": 770,
      "ĀĀ!Ā": 771,
      "!ě": 772,
      "ĔęęĜ": 773,
      "ĘĜ": 774,
      "ęĘęĚęęęęĘ": 775,
      "ęęĚėęęĚ": 776,
      "ęěęĘęęęę": 777,
      "ęėęĚęęĚ": 778,
      "ęęęęęęęęęęęęĘ": 779,
      "ĀĀĘĀĜ": 780,
      "Ěęęėę": 781,
      "ęĘėĘęęĘ": 782,
      "ęĘěĘęęĚ": 783,
      "ęėĘęęęĘ": 784,
      "ĘĞ": 785,
      "ĝęęĖ": 786,
      "ęĚęĘęęęęĚ": 787,
      "ęĚęėęęĘ": 788,
      "ęĘęĚęęęęĚ": 789,
      "ęěğ": 790,
      "ęėėęęęę": 791,
      "ęęęęęęęęęęęęĚ": 792,
      "Ěęęěę": 793,
      "ĀĀėĀĕ": 794,
      "!Ě": 795,
      "Ēě": 796,
      "ęėęĚęęęę": 797,
      "ęĚĘęęęė": 798,
      "ęğĜ": 799,
      "ĀĀĕĀĚ": 800,
      "ēęęě": 801,
      "ę$": 802,
      "ĠĖ": 803,
      "ęĘĚęęĘ": 804,
      "ęėęęė": 805,
      "ęĘĚęęęě": 806,
      "ęĔě": 807,
      "ęěĚĘęęęę": 808,
      "ĀĀėĀĜ": 809,
      "!Ĝ": 810,
      "!Ğ": 811,
      "Ĕęęĝ": 812,
      "ĜĖ": 813,
      "ęĚęĘęęęęĘ": 814,
      "ęĘğ": 815,
      "ęęĘěęęĘ": 816,
      "ęěęĚęęĘ": 817,
      "ęęėęęęė": 818,
      "ęęęĚęęě": 819,
      "ęęęĚęęęęĘ": 820,
      "ęęęĘęęęęĘ": 821,
      "ĀĀĖĀě": 822,
      "ĀĀ\"Ā": 823,
      "ĒĜ": 824,
      "ėęęĔ": 825,
      "ĚęęĔ": 826,
      "ęĘē": 827,
      "ęěęĘęęĘ": 828,
      "ęęĜęęęę": 829,
      "ęęĚęęęĚęęęę": 830,
      "ęĚęęęęĚę": 831,
      "Ēĝ": 832,
      "ĕĔ": 833,
      "ĕğ": 834,
      "ęĘĘęęĘ": 835,
      "ęěěęęęę": 836,
      "ęęęĚęęė": 837,
      "ęĘěĚęęĚ": 838,
      "ĀĀĖĀĖ": 839,
      "ęėėęęęĘ": 840,
      "ĀĝĚ": 841,
      "ĚęęęęĚĚ": 842,
      "đĘ": 843,
      "ĠĀĀ": 844,
      "ęĘęě": 845,
      "ęĚĚėęęęę": 846,
      "ęėĘĚęęĘ": 847,
      "ĝęęĜ": 848,
      "Ġĕ": 849,
      "ęĚĘęęęĘę": 850,
      "ĘęęęęĚĚ": 851,
      "ęĘęęęęĚę": 852,
      "đĖ": 853,
      "ěĚęęĚ": 854,
      "ěęęĔ": 855,
      "ĠęęĘ": 856,
      "ęĚęęĜ": 857,
      "ęėęĘęęęę": 858,
      "ęĖĞ": 859,
      "ęĚęęęęě": 860,
      "ęĞęęęę": 861,
      "ęěĚĘęęĚ": 862,
      "Ęęęėę": 863,
      "ĀĀĚĀĕ": 864,
      "ęęęęęęęęęęęęęęęęęęęęęęęęęęęęęęęę": 865,
      "ĀĀĔĀĘ": 866,
      "ēęęĜ": 867,
      "ęėē": 868,
      "ęęęęęęęęęęĘ": 869,
      "ęęěęęĘ": 870,
      "ęęěęęęě": 871,
      "ęĚęęęęė": 872,
      "ęĝęęĘ": 873,
      "ęĚĘėęęĘ": 874,
      "ęĘĚěęęĚ": 875,
      "ęĔĕ": 876,
      "ęğĘ": 877,
      "ĀĀĜĀė": 878,
      "ĀĀĕĀĖ": 879,
      "ĀĀ$Ā": 880,
      "ĠęęĚ": 881,
      "ęĘęėęęęę": 882,
      "ęęęĚęęęęĚ": 883,
      "ęĖęęė": 884,
      "ęĘĘęęęĘę": 885,
      "ĀĀěĀĚ": 886,
      "ęęęĘęęęęę": 887,
      "ĀĀĕĀĘ": 888,
      "Ğě": 889,
      "ęĘęěęęĘ": 890,
      "Ęęęęęė": 891,
      "ęĜęęęęĘ": 892,
      "ęĚĚĘęęě": 893,
      "ęĚĘęęęĚ": 894,
      "ęĘĚęęęĚę": 895,
      "ĀĀėĀĝ": 896,
      "ĀĀĖĀĜ": 897,
      "ĀĀĜĀĘ": 898,
      "ĀĀĜĀě": 899,
      "ęęęęęęęęęęęęęęęęęęęęęę": 900,
      "ĘĘęęĘ": 901,
      "ğęęĚ": 902,
      "ęęęęęęęęĚęęęę": 903,
      "ęęěę": 904,
      "ęęĖęęęę": 905,
      "ęĚėęęęė": 906,
      "ęėĚĘęęĚ": 907,
      "ęęęĘęęęęęęĚ": 908,
      "ęęęĘęęęęęęĘ": 909,
      "ĀĀĝĀĘ": 910,
      "Ēē": 911,
      "Ęě": 912,
      "ęĚē": 913,
      "ęěęĘęęĚ": 914,
      "ęĘĚėęęĚ": 915,
      "ęęę!": 916,
      "ĀĀĘĀĝ": 917,
      "ęęęĚęęęęę": 918,
      "ęĚęęęęĘę": 919,
      "đĕ": 920,
      "Ėĕ": 921,
      "ėěęęĘ": 922,
      "ėęęğ": 923,
      "ěĔ": 924,
      "ęĚęęĘę": 925,
      "ęėęĚęęĘ": 926,
      "ęĘĘĘęęĚ": 927,
      "ęĘĘěęęęę": 928,
      "ęĘĘĚęęė": 929,
      "ęĚĘĚęęė": 930,
      "ęęęđ": 931,
      "ĀĀĘĀĔ": 932,
      "ĀĀęĀĔ": 933,
      "ęĚěęęęě": 934,
      "ęěĚęęęĘ": 935,
      "ęěĘĚęęĘ": 936,
      "ęğě": 937,
      "ĀĀĜĀĚ": 938,
      "ęĘęęęęĘę": 939,
      "\"Ě": 940,
      "ėĚęęęę": 941,
      "Ęęę": 942,
      "ĘĚęęĘ": 943,
      "ęĚęęĚę": 944,
      "ĀĀ+": 945,
      "ęĜğ": 946,
      "ęĖęęęęĚ": 947,
      "ęĚĚęęęĚę": 948,
      "ęęĘęęęęęęĚęęęę": 949,
      "ĀĀ#Ā": 950,
      "ĖęęęĘ": 951,
      "ėęęęęĘĘ": 952,
      "Ġ!": 953,
      "ęęĚĚęęĘ": 954,
      "ęęęĘęęęęĚ": 955,
      "ęĜęęė": 956,
      "ęĘęęęęęęęĚ": 957,
      "ęĘĚęęęĘ": 958,
      "ěęęĘę": 959,
      "ĀĞĚ": 960,
      "ĒęęĚ": 961,
      "Ĕęęĕ": 962,
      "ėęęęęĚĚ": 963,
      "ğęęė": 964,
      "ęĚęęęĚę": 965,
      "ęĘęęĘę": 966,
      "ęęĘėęęĘ": 967,
      "ęęĘęęęĘę": 968,
      "ęĜęęęęĚ": 969,
      "ęĖęęęęĘ": 970,
      "ęęĜęęęĚ": 971,
      "ęĘęęęęė": 972,
      "ęĘęęęęęęě": 973,
      "ęĕĞ": 974,
      "ęęęęęęęęęęęęęĚęęęę": 975,
      "ĀĀĜĀĖ": 976,
      "Ğęęě": 977,
      "Ġęęė": 978,
      "ęĘęęĚę": 979,
      "ęĘęęęęęęęęęęę": 980,
      "ęęĚėęęęę": 981,
      "ęĖęęě": 982,
      "ęęęĖęęęę": 983,
      "ęęęĚęęęęęęĘ": 984,
      "ĀĀĕĀě": 985,
      "ĀĀďĀ": 986,
      "ĐĚ": 987,
      "ĒęęĘ": 988,
      "ēĞ": 989,
      "ĖęęĔ": 990,
      "ėęę": 991,
      "ěęęĞ": 992,
      "ğĖ": 993,
      "ęĚęęĖ": 994,
      "ęĚęėęęĚ": 995,
      "ęęĚęęĚ": 996,
      "ęęĘĚęęė": 997,
      "ęęėěęęĘ": 998,
      "ĀĀęĀĝ": 999,
      "ĀĀĝĀě": 1000,
      "ēĔ": 1001,
      "ęĎ": 1002,
      "Ĝĕ": 1003,
      "Ĝęęĝ": 1004,
      "ĝĖ": 1005,
      "ęĘęėęęĚ": 1006,
      "ęęĘĘęęĚ": 1007,
      "ęęėĚęęė": 1008,
      "ęęĘęęęęęęĘęęęę": 1009,
      "ęĚĜęęęĚ": 1010,
      "ĀĀĔĀĚ": 1011,
      "\"Ğ": 1012,
      "Ěęęęęęęęę": 1013,
      "ĚęęĞ": 1014,
      "ěěęęĚ": 1015,
      "ęĚęĚęęęęĚ": 1016,
      "ęĘęęĜ": 1017,
      "ęĘęĘęęęęĘ": 1018,
      "ęęĚěęęęę": 1019,
      "ęęěĘęęě": 1020,
      "ęĖğ": 1021,
      "ęĘęęęęęęĚęęęę": 1022,
      "ęĕęęĚ": 1023
    },
    "merges": [
      "ę ę",
      "ęę ęę",
      "ę Ě",
      "ę Ę",
      "ęę Ě",
      "ęę Ę",
      "Ā Ā",
      "ę ě",
      "ę ė",
      "ęęęę ęęęę",
      "ęę ė",
      "ęę ě",
      "Ę ęęęę",
      "Ě ęęęę",
      "ęę ęĚ",
      "ęę ęĘ",
      "ę Ĝ",
      "ę Ė",
      "ęę Ė",
      "ęę Ĝ",
      "ęĘ ęęęę",
      "ęĚ ęęęę",
      "ę ĝ",
      "ę ĕ",
      "Ę ęęĚ",
      "Ě ęęĘ",
      "Ę ęęĘ",
      "Ě ęęĚ",
      "ęęęę Ę",
      "ęĚ Ě",
      "ęęęę Ě",
      "ęĘ Ę",
      "ęĚ Ę",
      "ęę ĕ",
      "ęĘ Ě",
      "ęę ĝ",
      "ęę ęė",
      "ęę ęě",
      "ęę ę",
      "ė ęęęę",
      "ě ęęęę",
      "ęęęęęęęę ęęęę",
      "ęęĚ ęęęę",
      "ę Ğ",
      "ęęĘ ęęęę",
      "ęę Ğ",
      "ė ęęĚ",
      "ę Ĕ",
      "ęę Ĕ",
      "Ā Ě",
      "ě ęęĘ",
      "Ā Ę",
      "ĀĀ Ę",
      "ĀĀ ę",
      "Ę ęęě",
      "Ě ęęė",
      "ęĚ ě",
      "ęĘ ė",
      "ęě Ě",
      "Ā ě",
      "ė ęęĘ",
      "Ę ęęė",
      "Ā ė",
      "ě ęęĚ",
      "ęĘ ě",
      "ĀĀ Ě",
      "ęě Ę",
      "ęĚ ė",
      "Ě ęęě",
      "ĀĀ ė",
      "ęė Ě",
      "ęė Ę",
      "Ā Ė",
      "ę ğ",
      "Ā Ĝ",
      "ęęęęęęęę ęęęęęęęę",
      "ęę ē",
      "ĀĀ ě",
      "ęę ęĜ",
      "ęę ęĖ",
      "ęę ğ",
      "ĀĀ Ė",
      "ęęęĘ ęęęę",
      "ęęĚ ę",
      "ęė ė",
      "ě ęęė",
      "Ęęęęę Ě",
      "Ęęęęę Ę",
      "Ā ĕ",
      "ęęĚ ęęęĚ",
      "ė ęęě",
      "Ā ĝ",
      "ęęĘ ę",
      "ęě ęęęę",
      "ęě ě",
      "Ĝ ęęęę",
      "Ė ęęĚ",
      "ęė ęęęę",
      "Ė ęęęę",
      "Ěęęęę Ě",
      "ę ē",
      "ęęęĚ ęęęę",
      "ě ęęě",
      "Ěęęęę Ę",
      "ĀĀ Ĝ",
      "ęě ė",
      "Ĝ ęęĘ",
      "ė ęęė",
      "ęė ě",
      "Ė ęęĘ",
      "ĀĀ ĕ",
      "Ę ęęĜ",
      "ęęęĘ ę",
      "ęĚ Ěęęęę",
      "ęĚ ęęĘ",
      "Ĝ ęęĚ",
      "Ā Ğ",
      "ě Ě",
      "ęĚ Ĝ",
      "ęĘ ęęĚ",
      "ęĘ Ęęęęę",
      "ė Ě",
      "ĀĀ ĝ",
      "ęę Ē",
      "ęęęĚ ę",
      "ęĘ ęęĘ",
      "ęĜ Ě",
      "Ā Ĕ",
      "ęĘęęęę Ě",
      "ęĘ Ė",
      "Ę ęęĖ",
      "ęĚ ęęĚ",
      "ęĘ Ĝ",
      "ęĖ Ę",
      "ęĚ Ė",
      "ęĚęęęę Ě",
      "ĀĀ Ĕ",
      "ęĚęęęę Ę",
      "ęĖ Ě",
      "ęĘęęęę Ę",
      "ęęęęęęęę ęęę",
      "ęĜ Ę",
      "ė Ę",
      "ęĚ Ęęęęę",
      "ęĘ Ěęęęę",
      "ě Ę",
      "ĀĀ Ğ",
      "ě ě",
      "ęę ęĕ",
      "ęě Ĝ",
      "ę Ē",
      "Ė ęęě",
      "Ě ęęĖ",
      "Ā ē",
      "ęęĘ ęęęĘ",
      "Ě ęęĜ",
      "Ĝ ęęė",
      "ęę ęĝ",
      "ęęęęĘ Ę",
      "ė ě",
      "ęė Ė",
      "ĕ ęęęę",
      "ęę !",
      "Ė ęęė",
      "ė ęęĜ",
      "ĀĀ ğ",
      "ęĜ ě",
      "ęė Ĝ",
      "ęęęęĘ Ě",
      "ęę đ",
      "ęęęęĚ Ě",
      "ĀĀ ē",
      "ęĖ ė",
      "ęęęęĚ Ę",
      "ęě Ė",
      "Ĝ ęęě",
      "ě ęęĖ",
      "ė ęęĖ",
      "ĀĀę Ā",
      "ĕ ęęĘ",
      "ęęęĘ ęęĘ",
      "ĕ ęęĚ",
      "ė ė",
      "ĀĀĘ Ā",
      "Ĝ Ě",
      "ĝ ęęęę",
      "ęĜ ė",
      "ě ęęĜ",
      "ĀĀ Ē",
      "ęĖ ě",
      "Ė Ě",
      "Ė Ę",
      "ĝ ęęĘ",
      "ęĜ Ĝ",
      "ęęęĘ ęęĚ",
      "Ĝ Ę",
      "ęĖ ęęęę",
      "ęęęĚ ęęĘ",
      "ę !",
      "ę đ",
      "ĀĀė Ā",
      "ĚęęĘ ę",
      "ęęęĚ ęęĚ",
      "ĀĀ !",
      "ęĕ Ě",
      "Ĝ ě",
      "ĕ Ě",
      "ęĚ ĝ",
      "ęě ęęĘ",
      "ęĚęęęę ęę",
      "ęĘ ęĚęęęę",
      "ęęęę ęęĘ",
      "ęĘ ĕ",
      "ĀĀĚ Ā",
      "ĀĀě Ā",
      "ė Ĝ",
      "ĝ ęęĚ",
      "ĘęęĚ ę",
      "ęĖ Ė",
      "ęĝ Ě",
      "ęĚ ęĘęęęę",
      "ĀĀ đ",
      "ě Ĝ",
      "ęĚ ęĘ",
      "Ę Ě",
      "ęęęę ęęĚ",
      "ęĘ ęĚ",
      "ęę \"",
      "ęĘ ĝ",
      "ĚęęĚ ę",
      "Ěęęęę ę",
      "ęĕ Ę",
      "Ė ęęĜ",
      "ęė ęęĘ",
      "ęĜ ęęęę",
      "ĘęęĘ ę",
      "ęĚĘ ęęęĘ",
      "ęĘĚ ęęęĚ",
      "ęĚ ĕ",
      "Ė ě",
      "ĀĀĖ Ā",
      "ęęę Ğ",
      "ęęĘ Ęęęęę",
      "ęė ęęĚ",
      "Ę ęęĝ",
      "Ě Ě",
      "ĝ ęęė",
      "ęęęęęęęęęęęę ę",
      "ęę Đ",
      "ĕ ęęě",
      "Ė ė",
      "ĝ Ě",
      "ęĝ Ę",
      "ĕ Ę",
      "ęęę Ĕ",
      "ě ė",
      "ĀĀ Đ",
      "ęĘęęęę ęę",
      "ęĚĚ ęęęĚ",
      "ęęęęęęęę ęęęęęęęęęęęę",
      "ĝ ě",
      "ęĘĘ ęęęĘ",
      "Ĝ Ĝ",
      "ęęě ęęęę",
      "Ė ęęĖ",
      "ęě ĝ",
      "ęĘ ęĘęęęę",
      "ĕ ęęė",
      "ęęĚęęęę ę",
      "Ĝ ęęĖ",
      "ęĝ ě",
      "Ę Ę",
      "ęė ĕ",
      "ĀĀ \"",
      "ęĚ ęĚ",
      "ęęĚ ĚęęĚ",
      "ęě ęęĚ",
      "Ė ĝ",
      "ęęė ęęęę",
      "ęĚ ęĚęęęę",
      "ęĘ ęĘ",
      "ęęĚ ĘęęĚ",
      "ęęĘęęęę ę",
      "ęĜ Ė",
      "ęĕ ė",
      "ę \"",
      "ęęĚ Ěęęęę",
      "ĕ ě",
      "Ĝ ĝ",
      "Ę ęęĕ",
      "Ęęęęę ę",
      "ĕ ė",
      "ęĖ Ĝ",
      "ęęĘ ĚęęĘ",
      "ě Ğ",
      "ęĝ ė",
      "Ĕ ęęĚ",
      "ĀĀ $",
      "ĀĀĕ Ā",
      "Ě ęęĕ",
      "ĀĀ #",
      "ĀĀ ď",
      "ęęęęęęęę ęĘ",
      "Ě ęęĝ",
      "ě ęęęęĘ",
      "Ĕ ęęĘ",
      "ęęĘ Ěęęęę",
      "ęęĘ ĘęęĘ",
      "ė ęęĝ",
      "Ěęęęę ęę",
      "Ė Ĝ",
      "ě ĝ",
      "ęęĚ Ęęęęę",
      "Ęęęęę ęę",
      "ĀĀĜ Ā",
      "ęė ĝ",
      "ęě ęęęęĘ",
      "ęĚĚ ĘęęĚ",
      "ęė ęęęęĚ",
      "Ě Ę",
      "ęĜ ĝ",
      "ęĘ ėęęęę",
      "Ĕ ęęęę",
      "ė ęęęęĘ",
      "ęě ĕ",
      "Ě ęęęĚ",
      "Ğ Ğ",
      "ęĕ ě",
      "ęĚĘ ĚęęĘ",
      "ė ęęęęĚ",
      "ĀĀ Ď",
      "Ĕ Ę",
      "ė ĝ",
      "ė ęęĕ",
      "ęęęęęęęę ęĚ",
      "ęĝ Ĝ",
      "ęĘęęęę ęęĚ",
      "ė Ė",
      "Ę Ęęęęę",
      "Ğ ęęĘ",
      "ęĚęęęę ęęĚ",
      "ęĚęęęę ęęĘ",
      "ĀĀĔ Ā",
      "Ĕ ě",
      "ęĖ ĕ",
      "ęĕ Ė",
      "ęĘĘ ĚęęĘ",
      "ĝ Ĝ",
      "Ĕ Ě",
      "ęĚ Ğ",
      "ĀĀ %",
      "ęęė ęęęĘ",
      "ĝ ęęě",
      "ęęęęęęęę ęęęĚ",
      "ĕ Ĝ",
      "ęęě ęęęĚ",
      "ĕ ęęĖ",
      "Ě Ěęęęę",
      "ě ęęęęĚ",
      "ęęęęęęęę ęęęĘ",
      "ĀĀĘ ĀĘ",
      "Ę ęęęĘ",
      "ęė ęęęęĘ",
      "ęęę ē",
      "ę Đ",
      "ęę #",
      "ęĘĚ Ěęęęę",
      "ęĘĚ ĚęęĚ",
      "ğ Ĝ",
      "ĀĀĘ ĀĚ",
      "ĀĀĝ Ā",
      "ĀĀĞ Ā",
      "Ġ Ě",
      "ęĘ ęĚęęĚ",
      "ęĘęęęę ęęĘ",
      "ęĘĚ ĘęęĚ",
      "ęĚĘ ĘęęĘ",
      "ęĘĘ Ěęęęę",
      "ĕ ęęĜ",
      "ě ęęĝ",
      "Ğ ęęęę",
      "ęĚęęęę ę",
      "Ġ Ĝ",
      "ęĚ ęĘęęĚ",
      "ęĚ ęĘęęĘ",
      "Ė ęęĝ",
      "ęęęęęęęęęęęę ęęę",
      "ęęĚęęęĚ ę",
      "Ġ ĝ",
      "ęĚ ěęęęę",
      "Ěęęęę ęęĚ",
      "Ė Ė",
      "Ę ęęĞ",
      "Ğ Ě",
      "ě ęęĕ",
      "ęĚ Ĕ",
      "ęĚĚ Ęęęęę",
      "Ĕ ęęė",
      "ğ Ě",
      "ğ Ğ",
      "ęĞ Ě",
      "ęĚĚ Ěęęęę",
      "ě Ė",
      "ęĜ ĕ",
      "ęĜ ęęĘ",
      "ęĞ Ę",
      "ęęęęęęęęęęęęęęęę ęę",
      "Ě Ęęęęę",
      "ĝ ĝ",
      "Ğ Ĝ",
      "ęę $",
      "ęę ď",
      "ęĘ ęĘęęĚ",
      "ĀĀ &",
      "ęě Ěęęęę",
      "ĀĀę ĀĘ",
      "ė ęęĞ",
      "ęě ęęęęĚ",
      "ęĘ Ĕ",
      "ęĘ ęĚęęĘ",
      "ĀĀę Āė",
      "Ę Ěęęęę",
      "ęě Ğ",
      "ĀĚ Ě",
      "ęĘęęęę ę",
      "ĀĀ '",
      "Ĕ ęęě",
      "ğ ĝ",
      "ęęęęęęęę Ě",
      "ęęęě ę",
      "ęęę ğ",
      "ĀĀĘ Āė",
      "ē ė",
      "ē Ě",
      "Ė ęęĕ",
      "ęęě ĘęęĚ",
      "ĀĀğ Ā",
      "Ęęęęę ęęĘ",
      "ęĖ ęęĚ",
      "ğ Ę",
      "ęĚ ęęė",
      "ęĚ ęęě",
      "ęĕ ęęęę",
      "Ĕ ĝ",
      "ęĘ ęęęĘ",
      "ĀĚ Ę",
      "ĕ ĝ",
      "Ğ ęęĚ",
      "ęĘ Ğ",
      "ęĝ Ė",
      "ęęęě ęęĘ",
      "ĀĀĘ Āě",
      "ęĚ ęĚęęĘ",
      "ęě ęĘ",
      "ęęęė ęęęę",
      "ĀĀę Āě",
      "ĀĀĚ ĀĘ",
      "ĝ Ę",
      "Ęęęęę ęęĚ",
      "Ē Ę",
      "ęĜ ęęĚ",
      "ęęęė ę",
      "ē Ę",
      "Ĝ ė",
      "ęĕ Ĝ",
      "ęĘĘ ĘęęĘ",
      "ęĘė ęęęĘ",
      "Ĕ ė",
      "Ě Ĝ",
      "Ġ Ę",
      "ęĘ ęĘęęĘ",
      "Ěęęęę ęęĘ",
      "ęĔ Ę",
      "ęęęė ęęĚ",
      "ęęęě ęęęę",
      "ęęĘęęęę ęęĘ",
      "Ĕ Ė",
      "Ġ Ğ",
      "ęė ęęě",
      "ĀĀĘ ĀĖ",
      "ęĘĘ Ęęęęę",
      "ęęĚęęęę ęęĚ",
      "ęĚě ęęęĚ",
      "ĀĀė ĀĘ",
      "ęĚĚęęęę ę",
      "ĕ ĕ",
      "ę #",
      "Ě ĚęęĚ",
      "Ġ ğ",
      "ė ęęęĘ",
      "ęė Ĕ",
      "ęęęęęęęę Ę",
      "ęĝ ęęęę",
      "Ė Ğ",
      "Ġ ě",
      "ęę Ď",
      "ęĖ ęęĘ",
      "ğ ě",
      "ęĔ Ě",
      "ęė Ęęęęę",
      "ęęě ĚęęĚ",
      "ĀĀę ĀĚ",
      "Ĝ ęęĕ",
      "Ġ ė",
      "ęě ęęė",
      "ęĚĘ Ęęęęę",
      "ĀĀė Āě",
      "ęĚ ęęęęęęęęęęęę",
      "ęĘ ěęęęę",
      "ęĖ Ĕ",
      "ęĖ ĝ",
      "ęęĘęęęę ęęĚ",
      "ęĚě ĘęęĚ",
      "ęĘě ęęęĚ",
      "ĘęęęęĘ Ę",
      "Ĝ ęęĜ",
      "Ğ ęęė",
      "ęĚĚ ĚęęĚ",
      "ē ęęĘ",
      "Ė ęęĞ",
      "ě ĘęęĚ",
      "ęĚ ęęęĚ",
      "ęě Ęęęęę",
      "ęė Ğ",
      "ęęęė ęęĘ",
      "ęęĘęęęę ęę",
      "Ē Ě",
      "ē ęęĚ",
      "ę ĀĀ",
      "ęęĚęęęę ęęĘ",
      "Ē ė",
      "ĕ ęęĕ",
      "ęě Ĕ",
      "ęęė ĚęęĘ",
      "ęĘĚ Ęęęęę",
      "ĀĀė Āė",
      "ęĘĘęęęę ę",
      "ęĘĚęęęę ę",
      "ė ĘęęĘ",
      "ĀĀĚ Āė",
      "ĀĀē Ā",
      "ĕ Ė",
      "ęĞ Ĝ",
      "ĀĀĚ Āě",
      "ĀĀĚ ĀĖ",
      "ē ęęęę",
      "ĕ ęęĝ",
      "ęė Ěęęęę",
      "ĀĀę Āĕ",
      "ĀĀĚ ĀĚ",
      "ě ğ",
      "ě Ěęęęę",
      "ě ęęęĚ",
      "ęĝ ĝ",
      "ęęęęęęęęęęęęęęęę ęęęęęęęę",
      "ęĘĘ ěęęĘ",
      "ėęęĚ ę",
      "ė Ęęęęę",
      "Ĝ Ğ",
      "ęĚ ęĚęęĚ",
      "ęęęě ęęĚ",
      "ęęęęęęęęęęęęęęęę ęęę",
      "ĘęęęęĘ Ě",
      "Ė ęęęęĘ",
      "Ě ĝ",
      "ğ ęęĘ",
      "Ġ Ā",
      "ęĚ ęęęęęęęę",
      "ęĚ ėęęęę",
      "ęęė ĘęęĘ",
      "ęĘ ęęė",
      "ęĘ ęěęęęę",
      "ĀĀ (",
      "ĀĀė ĀĚ",
      "ĕ Ğ",
      "ĀĀĖ ĀĚ",
      "ęĘęęęę ě",
      "ęĝ Ğ",
      "ĀĀę ĀĜ",
      "ęěĘ ęęęĘ",
      "ĘęęęęĚ Ę",
      "ĀĀĒ Ā",
      "đ Ě",
      "ē ĝ",
      "Ĕ ęęĖ",
      "ęĘ ęęęęęęęę",
      "ęęĚ ęęĘ",
      "ęě ęęě",
      "ęęęĘ ęęė",
      "ęĔ ė",
      "Ė ęęęęĚ",
      "ęĜ Ğ",
      "ęğ Ě",
      "ĚęęęęĘ Ę",
      "ğ ğ",
      "ęĘ ęęě",
      "ęĘĘ ęęęĚ",
      "ęĞ ė",
      "ęĔ Ė",
      "ęĘė ĚęęĘ",
      "ĚęęęęĘ Ě",
      "ē Ė",
      "Ğ ĝ",
      "ğ ė",
      "ęĘ ęęęęęęęęęęęę",
      "ęęĚ ęęęĘ",
      "ĀĀĚ ĀĜ",
      "Ē Ė",
      "Ĕ Ĝ",
      "Ę ęęĔ",
      "ě ĕ",
      "ęęĚęęęę ęę",
      "ĀĀę ĀĖ",
      "ěęęĚ ę",
      "ęėĚ ęęęĚ",
      "ĚęęęęĚ Ę",
      "ě Ęęęęę",
      "ęĚĚ ęęęě",
      "ĀĀě Āė",
      "ē ě",
      "ē ęęė",
      "Ĕ Ğ",
      "Ĝ ęęęęĚ",
      "ęę %",
      "ęĚ ğ",
      "ęęĘ ęęęĚ",
      "ęĘĘ ęęęė",
      "ęĚė ęęęĘ",
      "ęĚ ęė",
      "ęĚ ĚęęĚ",
      "ęĚė ĚęęĘ",
      "đ ė",
      "Ē ĕ",
      "ē Ĝ",
      "ęėĚ ĚęęĚ",
      "ĀĀě ĀĘ",
      "Ę ĝ",
      "ę ď",
      "ęĚ ĘęęĚ",
      "ęĚĘ Ěęęęę",
      "ĀĀĘ Āĕ",
      "ęěĚ ęęęĚ",
      "ĀĀđ Ā",
      "ė ĕ",
      "ė Ğ",
      "Ě ě",
      "Ġ ęęęę",
      "ęęęęęęęę ęęĚ",
      "ęĚĚ ęęęĘ",
      "ęěĘ ĘęęĘ",
      "ĀĀĖ Āė",
      "ė ĚęęĘ",
      "ğ ęęęę",
      "ĀĀ )",
      "ęĜ Ĕ",
      "ęĕ ĕ",
      "ęĚĚ ėęęĚ",
      "ęęę Ē",
      "ęĞ ĝ",
      "ęĔ Ĝ",
      "ĀĀě Āě",
      "ĀĀě ĀĖ",
      "Ğ Ę",
      "ęęė ę",
      "ęĞ ě",
      "ĀĀĐ Ā",
      "! ĝ",
      "ęęĚ ęęęě",
      "ęęĚ Ęęęě",
      "ęęĘ ęęęė",
      "ęęęĘ ęęě",
      "ęĚĚ ĘęęĘ",
      "ęĚĘęęęę ę",
      "! ğ",
      "ęĝ ĕ",
      "ęĞ Ė",
      "ęĚě ĚęęĚ",
      "ęėĘ Ěęęęę",
      "Ĝ ęęęęĘ",
      "ęĚ ęėęęęę",
      "ęęĘ ęęĘ",
      "ĀĀ *",
      "ęĕ ĝ",
      "ėęęĘ ę",
      "ęĚė ĘęęĘ",
      "ĀĀė ĀĖ",
      "ĀĀĖ ĀĘ",
      "ĀĀ! Ā",
      "! ě",
      "Ĕ ęęĜ",
      "Ę Ĝ",
      "ęĘ ęĚęęęęĘ",
      "ęęĚ ėęęĚ",
      "ęě ęĘęęęę",
      "ęė ęĚęęĚ",
      "ęęęęęęęę ęęęęĘ",
      "ĀĀĘ ĀĜ",
      "Ěęęė ę",
      "ęĘė ĘęęĘ",
      "ęĘě ĘęęĚ",
      "ęėĘ ęęęĘ",
      "Ę Ğ",
      "ĝ ęęĖ",
      "ęĚ ęĘęęęęĚ",
      "ęĚ ęėęęĘ",
      "ęĘ ęĚęęęęĚ",
      "ęě ğ",
      "ęė ėęęęę",
      "ęęęęęęęę ęęęęĚ",
      "Ěęęě ę",
      "ĀĀė Āĕ",
      "! Ě",
      "Ē ě",
      "ęė ęĚęęęę",
      "ęĚĘ ęęęė",
      "ęğ Ĝ",
      "ĀĀĕ ĀĚ",
      "ē ęęě",
      "ę $",
      "Ġ Ė",
      "ęĘ ĚęęĘ",
      "ęė ęęė",
      "ęĘĚ ęęęě",
      "ęĔ ě",
      "ęěĚ Ęęęęę",
      "ĀĀė ĀĜ",
      "! Ĝ",
      "! Ğ",
      "Ĕ ęęĝ",
      "Ĝ Ė",
      "ęĚ ęĘęęęęĘ",
      "ęĘ ğ",
      "ęęĘ ěęęĘ",
      "ęě ęĚęęĘ",
      "ęęė ęęęė",
      "ęęęĚ ęęě",
      "ęęęĚ ęęęęĘ",
      "ęęęĘ ęęęęĘ",
      "ĀĀĖ Āě",
      "ĀĀ\" Ā",
      "Ē Ĝ",
      "ė ęęĔ",
      "Ě ęęĔ",
      "ęĘ ē",
      "ęě ęĘęęĘ",
      "ęęĜ ęęęę",
      "ęęĚęęęĚ ęęęę",
      "ęĚęęęęĚ ę",
      "Ē ĝ",
      "ĕ Ĕ",
      "ĕ ğ",
      "ęĘ ĘęęĘ",
      "ęě ěęęęę",
      "ęęęĚ ęęė",
      "ęĘě ĚęęĚ",
      "ĀĀĖ ĀĖ",
      "ęėė ęęęĘ",
      "Āĝ Ě",
      "ĚęęęęĚ Ě",
      "đ Ę",
      "Ġ ĀĀ",
      "ęĘ ęě",
      "ęĚĚ ėęęęę",
      "ęėĘ ĚęęĘ",
      "ĝ ęęĜ",
      "Ġ ĕ",
      "ęĚĘ ęęęĘę",
      "ĘęęęęĚ Ě",
      "ęĘęęęęĚ ę",
      "đ Ė",
      "ě ĚęęĚ",
      "ě ęęĔ",
      "Ġ ęęĘ",
      "ęĚ ęęĜ",
      "ęė ęĘęęęę",
      "ęĖ Ğ",
      "ęĚęęęę ě",
      "ęĞ ęęęę",
      "ęěĚ ĘęęĚ",
      "Ęęęė ę",
      "ĀĀĚ Āĕ",
      "ęęęęęęęęęęęęęęęę ęęęęęęęęęęęęęęęę",
      "ĀĀĔ ĀĘ",
      "ē ęęĜ",
      "ęė ē",
      "ęęęęęęęę ęęĘ",
      "ęęě ęęĘ",
      "ęęě ęęęě",
      "ęĚęęęę ė",
      "ęĝ ęęĘ",
      "ęĚĘ ėęęĘ",
      "ęĘĚ ěęęĚ",
      "ęĔ ĕ",
      "ęğ Ę",
      "ĀĀĜ Āė",
      "ĀĀĕ ĀĖ",
      "ĀĀ$ Ā",
      "Ġ ęęĚ",
      "ęĘ ęėęęęę",
      "ęęęĚ ęęęęĚ",
      "ęĖ ęęė",
      "ęĘĘ ęęęĘę",
      "ĀĀě ĀĚ",
      "ęęęĘęęęę ę",
      "ĀĀĕ ĀĘ",
      "Ğ ě",
      "ęĘ ęěęęĘ",
      "Ęęęęę ė",
      "ęĜ ęęęęĘ",
      "ęĚĚ Ęęęě",
      "ęĚĘ ęęęĚ",
      "ęĘĚ ęęęĚę",
      "ĀĀė Āĝ",
      "ĀĀĖ ĀĜ",
      "ĀĀĜ ĀĘ",
      "ĀĀĜ Āě",
      "ęęęęęęęęęęęęęęęęęęęę ęę",
      "Ę ĘęęĘ",
      "ğ ęęĚ",
      "ęęęęęęęę Ěęęęę",
      "ęęě ę",
      "ęęĖ ęęęę",
      "ęĚė ęęęė",
      "ęėĚ ĘęęĚ",
      "ęęęĘęęęę ęęĚ",
      "ęęęĘęęęę ęęĘ",
      "ĀĀĝ ĀĘ",
      "Ē ē",
      "Ę ě",
      "ęĚ ē",
      "ęě ęĘęęĚ",
      "ęĘĚ ėęęĚ",
      "ęęę !",
      "ĀĀĘ Āĝ",
      "ęęęĚęęęę ę",
      "ęĚęęęęĘ ę",
      "đ ĕ",
      "Ė ĕ",
      "ė ěęęĘ",
      "ė ęęğ",
      "ě Ĕ",
      "ęĚ ęęĘę",
      "ęė ęĚęęĘ",
      "ęĘĘ ĘęęĚ",
      "ęĘĘ ěęęęę",
      "ęĘĘ Ěęęė",
      "ęĚĘ Ěęęė",
      "ęęę đ",
      "ĀĀĘ ĀĔ",
      "ĀĀę ĀĔ",
      "ęĚě ęęęě",
      "ęěĚ ęęęĘ",
      "ęěĘ ĚęęĘ",
      "ęğ ě",
      "ĀĀĜ ĀĚ",
      "ęĘęęęęĘ ę",
      "\" Ě",
      "ė Ěęęęę",
      "Ę ęę",
      "Ę ĚęęĘ",
      "ęĚ ęęĚę",
      "ĀĀ +",
      "ęĜ ğ",
      "ęĖ ęęęęĚ",
      "ęĚĚ ęęęĚę",
      "ęęĘęęęę ęęĚęęęę",
      "ĀĀ# Ā",
      "Ė ęęęĘ",
      "ė ęęęęĘĘ",
      "Ġ !",
      "ęęĚ ĚęęĘ",
      "ęęęĘ ęęęęĚ",
      "ęĜ ęęė",
      "ęĘęęęę ęęęĚ",
      "ęĘĚ ęęęĘ",
      "ěęęĘ ę",
      "ĀĞ Ě",
      "Ē ęęĚ",
      "Ĕ ęęĕ",
      "ė ęęęęĚĚ",
      "ğ ęęė",
      "ęĚ ęęęĚę",
      "ęĘ ęęĘę",
      "ęęĘ ėęęĘ",
      "ęęĘ ęęęĘę",
      "ęĜ ęęęęĚ",
      "ęĖ ęęęęĘ",
      "ęęĜ ęęęĚ",
      "ęĘęęęę ė",
      "ęĘęęęę ęęě",
      "ęĕ Ğ",
      "ęęęęęęęęęęęę ęĚęęęę",
      "ĀĀĜ ĀĖ",
      "Ğ ęęě",
      "Ġ ęęė",
      "ęĘ ęęĚę",
      "ęĘ ęęęęęęęęęęę",
      "ęęĚ ėęęęę",
      "ęĖ ęęě",
      "ęęęĖ ęęęę",
      "ęęęĚęęęę ęęĘ",
      "ĀĀĕ Āě",
      "ĀĀď Ā",
      "Đ Ě",
      "Ē ęęĘ",
      "ē Ğ",
      "Ė ęęĔ",
      "ė ęę",
      "ě ęęĞ",
      "ğ Ė",
      "ęĚ ęęĖ",
      "ęĚ ęėęęĚ",
      "ęęĚ ęęĚ",
      "ęęĘ Ěęęė",
      "ęęė ěęęĘ",
      "ĀĀę Āĝ",
      "ĀĀĝ Āě",
      "ē Ĕ",
      "ę Ď",
      "Ĝ ĕ",
      "Ĝ ęęĝ",
      "ĝ Ė",
      "ęĘ ęėęęĚ",
      "ęęĘ ĘęęĚ",
      "ęęė Ěęęė",
      "ęęĘęęęę ęęĘęęęę",
      "ęĚĜ ęęęĚ",
      "ĀĀĔ ĀĚ",
      "\" Ğ",
      "Ě ęęęęęęęę",
      "Ě ęęĞ",
      "ě ěęęĚ",
      "ęĚ ęĚęęęęĚ",
      "ęĘ ęęĜ",
      "ęĘ ęĘęęęęĘ",
      "ęęĚ ěęęęę",
      "ęęě Ęęęě",
      "ęĖ ğ",
      "ęĘęęęę ęęĚęęęę",
      "ęĕ ęęĚ"
    ]
  }
}