{
  "version": "1.0",
  "truncation": null,
  "padding": null,
  "added_tokens": [],
  "normalizer": null,
  "pre_tokenizer": {
    "type": "ByteLevel",
    "add_prefix_space": false,
    "trim_offsets": true,
    "use_regex": true
  },
  "post_processor": {
    "type": "ByteLevel",
    "add_prefix_space": true,
    "trim_offsets": false,
    "use_regex": true
  },
  "decoder": {
    "type": "ByteLevel",
    "add_prefix_space": true,
    "trim_offsets": true,
    "use_regex": true
  },
  "model": {
    "type": "BPE",
    "dropout": null,
    "unk_token": null,
    "continuing_subword_prefix": null,
    "end_of_word_suffix": null,
    "fuse_unk": false,
    "byte_fallback": false,
    "ignore_merges": false,
    "vocab": {
      "\u0000": 0,
      "\u0001": 1,
      "\u0002": 2,
      "\u0003": 3,
      "\u0004": 4,
      "\u0005": 5,
      "\u0006": 6,
      "\u0007": 7,
      "\b": 8,
      "\t": 9,
      "\n": 10,
      "\u000b": 11,
      "\f": 12,
      "\r": 13,
      "\u000e": 14,
      "\u000f": 15,
      "\u0010": 16,
      "\u0011": 17,
      "\u0012": 18,
      "\u0013": 19,
      "\u0014": 20,
      "\u0015": 21,
      "\u0016": 22,
      "\u0017": 23,
      "\u0018": 24,
      "\u0019": 25,
      "\u001a": 26,
      "\u001b": 27,
      "\u001c": 28,
      "\u001d": 29,
      "\u001e": 30,
      "\u001f": 31,
      " ": 32,
      "!": 33,
      "\"": 34,
      "#": 35,
      "$": 36,
      "%": 37,
      "&": 38,
      "'": 39,
      "(": 40,
      ")": 41,
      "*": 42,
      "+": 43,
      ",": 44,
      "-": 45,
      ".": 46,
      "/": 47,
      "0": 48,
      "1": 49,
      "2": 50,
      "3": 51,
      "4": 52,
      "5": 53,
      "6": 54,
      "7": 55,
      "8": 56,
      "9": 57,
      ":": 58,
      ";": 59,
      "<": 60,
      "=": 61,
      ">": 62,
      "?": 63,
      "@": 64,
      "Ā": 65,
      "ă": 66,
      "Ą": 67,
      "ą": 68,
      "Ć": 69,
      "ć": 70,
      "Ĉ": 71,
      "ĉ": 72,
      "Ċ": 73,
      "ċ": 74,
      "Č": 75,
      "č": 76,
      "Ď": 77,
      "ď": 78,
      "Đ": 79,
      "đ": 80,
      "Ē": 81,
      "ē": 82,
      "Ĕ": 83,
      "ĕ": 84,
      "Ė": 85,
      "ė": 86,
      "Ę": 87,
      "ę": 88,
      "Ě": 89,
      "ě": 90,
      "Ĝ": 91,
      "ĝ": 92,
      "Ğ": 93,
      "ğ": 94,
      "Ġ": 95,
      "ĠĠ": 96,
      "Ġ!": 97,
      "Ġğ": 98,
      "ĠĠĠĠ": 99,
      "Ġ\"": 100,
      "ĠĞ": 101,
      "ĠĠĠ": 102,
      "ĀĀ": 103,
      "Ġĝ": 104,
      "Ġ#": 105,
      "Ġ$": 106,
      "ĠĜ": 107,
      "ĠĠĠĠĠ": 108,
      "Ġě": 109,
      "Ġ!!": 110,
      "Ġ!ğ": 111,
      "Ġğğ": 112,
      "Ġ%": 113,
      "Ġğ!": 114,
      "ĠĠĠĠĠĠĠĠ": 115,
      "Ġ&": 116,
      "ĠĚ": 117,
      "Ġ'": 118,
      "Ġ\"!": 119,
      "Ġę": 120,
      "Ġ\"ğ": 121,
      "ĠğĞ": 122,
      "ĠĞ!": 123,
      "ĠĞğ": 124,
      "Ġ!\"": 125,
      "Ġ!Ğ": 126,
      "Ġğ\"": 127,
      "ĠĠĠĠĠĠ": 128,
      "ĠĘ": 129,
      "Ġ(": 130,
      "Ġ\"\"": 131,
      "Ā!": 132,
      "Ā\"": 133,
      "Āğ": 134,
      "Ġ\"Ğ": 135,
      "ĠĞĞ": 136,
      "ĠĞ\"": 137,
      "Ġ#!": 138,
      "ĀĀğ": 139,
      "ĀĞ": 140,
      "Ā#": 141,
      "Ġ!ĝ": 142,
      "Ġĝğ": 143,
      "Ġ)": 144,
      "Ġė": 145,
      "Ġ!#": 146,
      "Ġ#ğ": 147,
      "Ġĝ!": 148,
      "ĀĀ!": 149,
      "ĀĀĞ": 150,
      "ĀĀ\"": 151,
      "Ġğ#": 152,
      "Ġğĝ": 153,
      "Āĝ": 154,
      "Ā$": 155,
      "ĀĜ": 156,
      "Ġ!!ğ": 157,
      "Ġ!ğğ": 158,
      "Ġğ!!": 159,
      "ĀĀĝ": 160,
      "Ġ*": 161,
      "Ġğğ!": 162,
      "Ā%": 163,
      "ĀĀ#": 164,
      "ĠĠĠĠĠĠĠ": 165,
      "Ġ#\"": 166,
      "Ġ\"#": 167,
      "ĀĀĜ": 168,
      "ĠĝĞ": 169,
      "Ġ#Ğ": 170,
      "Ġĝ\"": 171,
      "Ā&": 172,
      "Ġ!ğ!": 173,
      "Ġ!!!": 174,
      "ĠĖ": 175,
      "Āě": 176,
      "Ġ\"ĝ": 177,
      "Ĝğ": 178,
      "ĠĞĝ": 179,
      "Ġğ!ğ": 180,
      "ĠĠĠĠĠĠĠĠĠĠĠ": 181,
      "Ġğğğ": 182,
      "Ĝ!": 183,
      "Ġ$ğ": 184,
      "ĠĞ#": 185,
      "ĀĀ$": 186,
      "ĀĀĚ": 187,
      "Ġĝĝ": 188,
      "$ğ": 189,
      "Ġ+": 190,
      "ĠĠĠĠĠĠĠĠĠĠĠĠ": 191,
      "$!": 192,
      "$Ğ": 193,
      "Ā'": 194,
      "ĀĀě": 195,
      "!!": 196,
      "Ĝ\"": 197,
      "ĀĀ%": 198,
      "ĀĚ": 199,
      "Ġ$\"": 200,
      "ĠĜğ": 201,
      "ĜĞ": 202,
      "Ġĕ": 203,
      "Ġ!ğĞ": 204,
      "#ğ": 205,
      "Ĝĝ": 206,
      "ĠĠĠĠĠĠĠĠĠĠ": 207,
      "ĀĀ&": 208,
      "$\"": 209,
      "Ğ!": 210,
      "Ġ#ĝ": 211,
      "ĠĜ!": 212,
      "Ġ\"!ğ": 213,
      "\"\"": 214,
      "Ġĝ#": 215,
      "Ġ$!": 216,
      "ĀĀĘ": 217,
      "ěğ": 218,
      "Ġğğ\"": 219,
      "Ġ\"ğğ": 220,
      "ĠĞğ!": 221,
      "\"!": 222,
      "ğğ": 223,
      "ĠğĞ!": 224,
      "ĠĔ": 225,
      "Ġ!!Ğ": 226,
      "Ĝ#": 227,
      "Ā)": 228,
      "ĝğ": 229,
      "ĀĀ(": 230,
      "Āę": 231,
      "ĀĀę": 232,
      "Ġ,": 233,
      "ĀĀ'": 234,
      "Ġ$Ğ": 235,
      "\"ğ": 236,
      "$ĝ": 237,
      "Ġ##": 238,
      "ě!": 239,
      "ĠĜĞ": 240,
      "$#": 241,
      "Ġ!\"!": 242,
      "Ġ$ĝ": 243,
      "Ġğ\"!": 244,
      "%!": 245,
      "Ā(": 246,
      "ĀĀė": 247,
      "Ġ!\"ğ": 248,
      "ĠĞ!!": 249,
      "Ġ!Ğğ": 250,
      "%#": 251,
      "%Ğ": 252,
      "&!": 253,
      "ĠĜĝ": 254,
      "ĠěĞ": 255,
      "!ğ": 256,
      "%ğ": 257,
      "ĀĀ)": 258,
      "ĠğĞğ": 259,
      "#Ğ": 260,
      "$$": 261,
      "ě\"": 262,
      "ěĞ": 263,
      "ĀĀĖ": 264,
      "Ġ!!\"": 265,
      "Ġ\"!!": 266,
      "ĀĘ": 267,
      "ĠĞ!ğ": 268,
      "ĠğğĞ": 269,
      "#\"": 270,
      "ğ!": 271,
      "Ġğ\"ğ": 272,
      "%\"": 273,
      "ĠĞğğ": 274,
      "#!": 275,
      "Ěğ": 276,
      "Ġ!ğ\"": 277,
      "Ġ\"!Ğ": 278,
      "!Ğ": 279,
      "\"Ğ": 280,
      "Ě!": 281,
      "Ġ!Ĝ": 282,
      "Ġğ!\"": 283,
      "\"ĝ": 284,
      "ĀĀ+": 285,
      "Ġ!Ğ!": 286,
      "Ě\"": 287,
      "ĞĞ": 288,
      "ğĞ": 289,
      "ğĝ": 290,
      "ĝĞ": 291,
      "ğ#": 292,
      "Ġ\"ğ!": 293,
      "Ġ\"\"ğ": 294,
      "Ġ-": 295,
      "Ġ!$": 296,
      "ĠĞ!\"": 297,
      "&ĀĀ": 298,
      "Āė": 299,
      "ĠĞğ\"": 300,
      "!ĝ": 301,
      "'ĀĀ": 302,
      "ĜĜ": 303,
      "Ġğ!Ğ": 304,
      "ĠĠĠĠĠĠĠĠĠĠĠĠĠĠĠĠ": 305,
      "\"#": 306,
      "Ĝ$": 307,
      "&\"": 308,
      "ě#": 309,
      "ěĝ": 310,
      "!\"": 311,
      "Ġ\"ğĞ": 312,
      "%ĝ": 313,
      "ĠĠĠĠĠĠĠĠĠ": 314,
      "##": 315,
      "ěě": 316,
      "Ġ#ğğ": 317,
      "!#": 318,
      "$ĀĀ": 319,
      "%ĀĀ": 320,
      "(ĀĀ": 321,
      "Ġ!ĞĞ": 322,
      "Ġ\"Ğğ": 323,
      "ĀĀğĀ": 324,
      "%$": 325,
      "&Ğ": 326,
      "Ě#": 327,
      "Ğĝ": 328,
      "Ġē": 329,
      "ĠĞĜ": 330,
      "Ġ$#": 331,
      "ĠĠĠĠĠĠĠĠĠĠĠĠĠ": 332,
      "Ġğ\"\"": 333,
      "ĠĞĞ!": 334,
      "ĠĞ\"!": 335,
      "'ğ": 336,
      "Ěĝ": 337,
      "Ğ\"": 338,
      "Ğğ": 339,
      "ğ\"": 340,
      "&ğ": 341,
      "ęğ": 342,
      "ě$": 343,
      "ĠĀĀ": 344,
      "Ġ\"$": 345,
      "Ġĝğ!": 346,
      "Ġ.": 347,
      "ĠĞ$": 348,
      "ĠĜ\"": 349,
      "Ġ!!ĝ": 350,
      "Ġ!\"Ğ": 351,
      "%Ĝ": 352,
      "Ā*": 353,
      "Ęĝ": 354,
      "Ġ!ğĝ": 355,
      "Ġ\"Ğ!": 356,
      "ĝ#": 357,
      "ĠğĜ": 358,
      "Ġ%!": 359,
      "Ġ#!ğ": 360,
      "ĚĜ": 361,
      "ĠĀ": 362,
      "Ġ\"\"Ğ": 363,
      "\"$": 364,
      "&#": 365,
      "*ĀĀ": 366,
      "ĚĞ": 367,
      "ĝ!": 368,
      "Ġğ$": 369,
      "Ġ\"!ĝ": 370,
      "Ġĝ!!": 371,
      "ĀĀĞĀ": 372,
      "ĀĀ\"Ā": 373,
      "'!": 374,
      ")ĀĀ": 375,
      "ĝ$": 376,
      "ğĜ": 377,
      "Ġğě": 378,
      "Ġě!": 379,
      "ĠğĞĞ": 380,
      "ĠĞĞğ": 381,
      "ĀĀ#Ā": 382,
      "#$": 383,
      "ę!": 384,
      "ęĞ": 385,
      "ĝ\"": 386,
      "Ġğ\"Ğ": 387,
      "%&": 388,
      "'\"": 389,
      "ĀĀĕ": 390,
      "Ġğğ#": 391,
      "Ġ\"\"!": 392,
      "ěĜ": 393,
      "ğě": 394,
      "ĠĒ": 395,
      "Ġ!\"\"": 396,
      "Ġ\"ĞĞ": 397,
      "Ġĝğ\"": 398,
      "\"%": 399,
      "$Ĝ": 400,
      "&&": 401,
      "Ā+": 402,
      "ėĞ": 403,
      "Ğě": 404,
      "Ġ!!Ĝ": 405,
      "ĠğĞ\"": 406,
      "Ġ!ĝğ": 407,
      "Ġ!#ğ": 408,
      "\"Ĝ": 409,
      "Ęğ": 410,
      "ĝĝ": 411,
      "Ğ#": 412,
      "Ġğ%": 413,
      "Ġğ!#": 414,
      "ĠĞğ#": 415,
      "Ġ#!Ğ": 416,
      "Ġ#\"ğ": 417,
      "(\"": 418,
      "ĀĀ,": 419,
      "ĠğĞ#": 420,
      "ĠĞ!Ğ": 421,
      "Ġ#ğĞ": 422,
      "ĀĀ!Ā": 423,
      "'#": 424,
      "Ġ!&": 425,
      "ĠĝĜ": 426,
      "Ġěğ": 427,
      "Ġ#!!": 428,
      "Ġĝğğ": 429,
      "(!": 430,
      "ĀĀ-": 431,
      "Ġ#$": 432,
      "Ġğğĝ": 433,
      "Ġ\"!\"": 434,
      "ĠĞĞ\"": 435,
      "Ġĝ!\"": 436,
      "ĠĝĞ!": 437,
      "!Ĝ": 438,
      "(ğ": 439,
      "ęě": 440,
      "Ěě": 441,
      "Ĝě": 442,
      "Ğ$": 443,
      "ĠĞě": 444,
      "ĀĀ.": 445,
      "ĀĀĒ": 446,
      "Ġĝ$": 447,
      "Ġğ!ĝ": 448,
      "ĠĠĠĠĠĠĠĠĠĠĠĠĠĠĠĠĠĠ": 449,
      "ĠĞğĞ": 450,
      "ĠĞ\"ğ": 451,
      "Ġ!ĝ!": 452,
      "Ġ!#!": 453,
      "Ġ!#Ğ": 454,
      "Ġğĝğ": 455,
      "#&": 456,
      "&ĝ": 457,
      "'Ğ": 458,
      "ĘĞ": 459,
      "ĝĜ": 460,
      "ĞĜ": 461,
      "ğĚ": 462,
      "ĠĠĠĠĠĠĠĠĠĠĠĠĠĠĠ": 463,
      "Ġ#\"!": 464,
      "ĀĀĜĀ": 465,
      "&$": 466,
      ")ğ": 467,
      "Ę\"": 468,
      "ęĜ": 469,
      "ĀĀ*": 470,
      "ĀĀē": 471,
      "ĠĜĜ": 472,
      "Ġě\"": 473,
      "Ġ\"ğĝ": 474,
      "ĠĞ!#": 475,
      "Ġ\"\"ĝ": 476,
      "Ġĝ!ğ": 477,
      "ĀĀěĀ": 478,
      "\"ě": 479,
      "#ĝ": 480,
      "&%": 481,
      "&Ĝ": 482,
      "Ę!": 483,
      "Ġ/": 484,
      "ĀĀĔ": 485,
      "Ġ\"ğ\"": 486,
      "Ġ!Ğĝ": 487,
      "Ġ#!ĝ": 488,
      "Ġ!ĝĞ": 489,
      "Ġğ#!": 490,
      "Ġğ#Ğ": 491,
      "Ġğ#ğ": 492,
      "ĠğĝĞ": 493,
      "Ġ\"#ğ": 494,
      "Ġ#ĞĞ": 495,
      "Ġ$ğğ": 496,
      "#ě": 497,
      "#Ĝ": 498,
      ")!": 499,
      "ęĝ": 500,
      "ğ$": 501,
      "ĠĀ!": 502,
      "ĠĀ\"": 503,
      "Ġ!Ě": 504,
      "Ġěĝ": 505,
      "Ġğ\"#": 506,
      "Ġ\"Ğĝ": 507,
      "ĀĀ!Ā!": 508,
      "Ġĝ\"!": 509,
      "ĠĞĝ!": 510,
      "Ġĝĝğ": 511,
      "ĀĀ%Ā": 512,
      "$ě": 513,
      "%ě": 514,
      "ėĝ": 515,
      "ėğ": 516,
      "ĠĀğ": 517,
      "Ġ\"Ĝ": 518,
      "ĠĞ%": 519,
      "ĀĀ/": 520,
      "Ġ#ě": 521,
      "Ġ#Ĝ": 522,
      "Ġ%Ğ": 523,
      "Ġ!Ğ\"": 524,
      "ĠĞ\"\"": 525,
      "Ġ#ğ!": 526,
      "ĀĀ!Āğ": 527,
      "ĀĀĞĀğ": 528,
      "Ġ$ğĞ": 529,
      "!$": 530,
      "$&": 531,
      "%'": 532,
      "($": 533,
      "ĘĜ": 534,
      "ę\"": 535,
      "ğ'": 536,
      "Ġ!$ğ": 537,
      "Ġ!ğĜ": 538,
      "Ġ\"ğĜ": 539,
      "ĀĀğĀ\"": 540,
      "Ġğ#\"": 541,
      "Ġğĝ!": 542,
      "ĀĀĝĀ\"": 543,
      "Ġ\"#!": 544,
      "Ġ\"ĝ!": 545,
      "!%": 546,
      "!Ě": 547,
      "(%": 548,
      "(Ĝ": 549,
      "(ĝ": 550,
      ",ĀĀ": 551,
      "Ę$": 552,
      "ě%": 553,
      "ğ%": 554,
      "ğĘ": 555,
      "Ġ0": 556,
      "ĀĀğĀĞ": 557,
      "ĀĀĞĀ#": 558,
      "ĀĀĝĀ": 559,
      "ĀĀĜĀ!": 560,
      "Ġ#Ğğ": 561,
      "Ġĝ\"ğ": 562,
      "ĀĀ'Ā": 563,
      ")\"": 564,
      ")$": 565,
      "ĀĖ": 566,
      "Ėĝ": 567,
      "Ę#": 568,
      "Ęě": 569,
      "ę#": 570,
      "ęĚ": 571,
      "ĞĚ": 572,
      "Ġđ": 573,
      "ĀĀđ": 574,
      "Ġ##ğ": 575,
      "Ġ!ğ#": 576,
      "ĠĠĠĠĠĠĠĠĠĠĠĠĠĠĠĠĠĠĠĠ": 577,
      "ĠĞ!ĝ": 578,
      "Ġ\"\"\"": 579,
      "ĀĀ!Ā\"": 580,
      "ĀĀ#Ā!": 581,
      "Ġ\"#Ğ": 582,
      "ĠĝĞ\"": 583,
      "ĠĞ#!": 584,
      "Ġĝĝ!": 585,
      "ĠĜğ\"": 586,
      "Ġĝ#!": 587,
      "!ě": 588,
      "\"'": 589,
      "\"Ě": 590,
      "#Ě": 591,
      "%Ě": 592,
      "'$": 593,
      "(#": 594,
      "(Ğ": 595,
      "ė!": 596,
      "ę$": 597,
      "ĝě": 598,
      "ğę": 599,
      "ĠĀě": 600,
      "Ġ!Ĝğ": 601,
      "Ġ\"ě": 602,
      "Ġ\"$Ğ": 603,
      "Ġ!ğ$": 604,
      "ĠğğĜ": 605,
      "ĠĚğ": 606,
      "Ġ\"!Ĝ": 607,
      "Ġ#!\"": 608,
      "Ġ!#ĝ": 609,
      "ĀĀ!ĀĞ": 610,
      "ĀĀ\"Ā!": 611,
      "Ġğĝ\"": 612,
      "ĀĀĝĀ!": 613,
      "ĀĀĝĀğ": 614,
      "ĀĀĝĀĞ": 615,
      "ĀĀĝĀ#": 616,
      "Ġ\"#ĝ": 617,
      "ĠĝĞğ": 618,
      "ĠĞ#\"": 619,
      "Ġ$!ğ": 620,
      "Ġ$Ğğ": 621,
      "\"&": 622,
      "$%": 623,
      "&ě": 624,
      "'&": 625,
      "''": 626,
      "'ĝ": 627,
      "(&": 628,
      "*!": 629,
      "*#": 630,
      "+ĀĀ": 631,
      "ė\"": 632,
      "ėĚ": 633,
      "ĜĚ": 634,
      "ĝ%": 635,
      "ĝĚ": 636,
      "ĠĀĜ": 637,
      "Ġ!ě": 638,
      "Ġ\"%": 639,
      "Ġ\"$ğ": 640,
      "Ġĝ%": 641,
      "ĠĜ#": 642,
      "Ġ!!#": 643,
      "Ġ%#": 644,
      "Ġğ!$": 645,
      "Ġ\"!#": 646,
      "ĠğĞĝ": 647,
      "Ġ!\"ĝ": 648,
      "ĀĀğĀğ": 649,
      "ĀĀğĀ#": 650,
      "Ġĝğ#": 651,
      "Ġ#ğĜ": 652,
      "Ġĝ!#": 653,
      "ĀĀ!Āĝ": 654,
      "ĀĀĞĀ!": 655,
      "ĀĀ\"Āğ": 656,
      "ĀĀ\"Ā$": 657,
      "ĀĀ#Ā\"": 658,
      "Ġ\"ĝĞ": 659,
      "Ġ\"ĝğ": 660,
      "!&": 661,
      "#ĀĀ": 662,
      "'%": 663,
      "'(": 664,
      "*\"": 665,
      "+!": 666,
      "ę%": 667,
      "ĚĚ": 668,
      "ĝ&": 669,
      "Ğ%": 670,
      "ĠĀĞ": 671,
      "ĠĀĝ": 672,
      "Ġğ$!": 673,
      "ĠğĜ\"": 674,
      "Ġ\"$!": 675,
      "Ġ#%": 676,
      "Ġ#$Ğ": 677,
      "ĠĜ!!": 678,
      "Ġğğ$": 679,
      "Ġğ!%": 680,
      "Ġ!\"#": 681,
      "Ġ!Ğ#": 682,
      "Ġ\"ĞĜ": 683,
      "Ġ#!#": 684,
      "ĀĀğĀ!": 685,
      "ĀĀğĀĜ": 686,
      "ĀĀĞĀ\"": 687,
      "ĀĀĞĀ%": 688,
      "ĀĀ\"Āĝ": 689,
      "Ġ#\"Ğ": 690,
      "Ġ#Ğ!": 691,
      "Ġ#Ğĝ": 692,
      "ĀĀ&Ā": 693,
      "ĠĜ!\"": 694,
      "Ġ$!Ğ": 695,
      "ĀĀĘĀ": 696,
      "$Ě": 697,
      "*'": 698,
      "ĕĝ": 699,
      "Ė!": 700,
      "ėė": 701,
      "ęĖ": 702,
      "Ě%": 703,
      "ĝ)": 704,
      "Ğ)": 705,
      "Ġ!%": 706,
      "ĠğĜğ": 707,
      "Ġğ$Ğ": 708,
      "Ġ\"&": 709,
      "Ġ\"Ě": 710,
      "ĠĞĜ!": 711,
      "Ġ$%": 712,
      "Ġ$Ĝ": 713,
      "ĠĜĞ!": 714,
      "Ġ%ğ": 715,
      "Ġğ\"ĝ": 716,
      "ĠĞĞĞ": 717,
      "ĀĀğĀ%": 718,
      "Ġ!#\"": 719,
      "Ġ#ğĝ": 720,
      "ĀĀ!Ā#": 721,
      "ĀĀ!Ā$": 722,
      "ĀĀ!ĀĜ": 723,
      "ĀĀĝĀĝ": 724,
      "Ġĝ\"\"": 725,
      "ĀĀ$Āĝ": 726,
      "ĠĝĝĞ": 727,
      "Ġ$\"!": 728,
      "Ġ$\"ĝ": 729,
      "Ġ$\"Ğ": 730,
      "ĠĜğ!": 731,
      "Ġ##Ğ": 732,
      "#%": 733,
      "&(": 734,
      "&ĀĀě": 735,
      ")%": 736,
      ")ĝ": 737,
      "Ā,": 738,
      "ĕĜ": 739,
      "ĕĀĀ": 740,
      "Ė\"": 741,
      "Ė#": 742,
      "ĖĜ": 743,
      "ĖĞ": 744,
      "ėĜ": 745,
      "Ğę": 746,
      "ğ&": 747,
      "ĠĀ$": 748,
      "Ġ!'": 749,
      "ĠğĚ": 750,
      "Ġ\"Ĝğ": 751,
      "ĠĞĚ": 752,
      "ĠĞĜ\"": 753,
      "Ġ$ě": 754,
      "Ġ$Ğ!": 755,
      "Ġ!!$": 756,
      "Ġ\"ğ#": 757,
      "ĠĞ!$": 758,
      "Ġ\"Ğ\"": 759,
      "ĠĞĞ#": 760,
      "ĠĞ\"#": 761,
      "ĀĀğĀĝ": 762,
      "ĀĀğĀ$": 763,
      "ĀĀğĀě": 764,
      "Ġ!ĝ\"": 765,
      "Ġ!ĝ#": 766,
      "ĀĀĞĀĞ": 767,
      "ĀĀĞĀ$": 768,
      "ĀĀ\"Ā\"": 769,
      "ĀĀ\"ĀĞ": 770,
      "ĀĀ\"Ā#": 771,
      "Ġĝ\"#": 772,
      "Ġ\"ĝ\"": 773,
      "ĀĀ$Ā\"": 774,
      "ĀĀĚĀ": 775,
      "ĀĀĚĀğ": 776,
      "Ġ$\"ğ": 777,
      "Ġ#ĝĞ": 778,
      "Ġĝ#\"": 779,
      "!ę": 780,
      "\"ę": 781,
      "(ě": 782,
      "*$": 783,
      "*(": 784,
      "*Ğ": 785,
      "Ĕě": 786,
      "Ėě": 787,
      "Ęę": 788,
      "ĘĀĀ": 789,
      "ĜĘ": 790,
      "Ĝę": 791,
      "Ğ(": 792,
      "ğĕ": 793,
      "ĠĐ": 794,
      "ĠĀ#": 795,
      "Ġ!Ĝ!": 796,
      "Ġ!$!": 797,
      "Ġ!ěğ": 798,
      "Ġğ&": 799,
      "ĠğĜĞ": 800,
      "Ġ\"ĜĞ": 801,
      "Ġ\"$ĝ": 802,
      "Ġ#ĜĞ": 803,
      "Ġ$!!": 804,
      "ĠĜ$": 805,
      "ĠĜě": 806,
      "ĠĜ\"ğ": 807,
      "Ġ%\"": 808,
      "ĠĚĝ": 809,
      "ĠĞ\"Ğ": 810,
      "ĀĀ\"ĀĜ": 811,
      "Ġğ#ĝ": 812,
      "ĀĀĝĀ$": 813,
      "ĀĀĝĀĜ": 814,
      "ĀĀ#ĀĞ": 815,
      "ĀĀ#Ā$": 816,
      "ĀĀĜĀĝ": 817,
      "Ġĝ\"ĝ": 818,
      "ĠĞĝĞ": 819,
      "ĠĞ##": 820,
      "ĠĞ#ğ": 821,
      "ĀĀĚĀĞ": 822,
      "ĀĀęĀ": 823,
      "ĀĀęĀ!": 824,
      "ĀĀĖĀ$": 825,
      "!(": 826,
      "'ě": 827,
      ")&": 828,
      ")*": 829,
      "*+": 830,
      ".ĀĀ": 831,
      "ĔĜ": 832,
      "Ėğ": 833,
      "ė$": 834,
      "ėę": 835,
      "ėě": 836,
      "Ę&": 837,
      "ĘĖ": 838,
      "ęę": 839,
      "Ĝ%": 840,
      "ĜĔ": 841,
      "Ġď": 842,
      "ĠĀ%": 843,
      "Ġ!$\"": 844,
      "Ġ!$#": 845,
      "Ġğ$ğ": 846,
      "Ġğ$\"": 847,
      "ĠĞĜğ": 848,
      "ĠĞ$!": 849,
      "ĠĞ$Ğ": 850,
      "Ġ#$ğ": 851,
      "ĠĜ\"\"": 852,
      "Ġ%Ğ!": 853,
      "Ġ%ğĞ": 854,
      "Ġğ!ě": 855,
      "ĠĠĠĠĠĠĠĠĠĠĠĠĠĠ": 856,
      "ĠĠĠĠĠĠĠĠĠĠĠĠĠĠĠĠĠĠĠ": 857,
      "Ġ&$": 858,
      "Ġ\"!ě": 859,
      "ĠęĞ": 860,
      "Ġ\"ğ$": 861,
      "ĠĞğ$": 862,
      "ĠĞğĝ": 863,
      "Ġ!Ğ$": 864,
      "Ġğ\"$": 865,
      "ĠĘĞ": 866,
      "Ġ!ĝĝ": 867,
      "ĀĀĞĀĝ": 868,
      "ĀĀĞĀĜ": 869,
      "ĀĀĞĀ&": 870,
      "ĀĀĞĀě": 871,
      "Ġğ##": 872,
      "ĀĀĜĀ#": 873,
      "ĠĝĞ#": 874,
      "ĠĞĝ\"": 875,
      "Ġ$ğĝ": 876,
      "ĀĀ$Ā!": 877,
      "ĀĀĚĀ!": 878,
      "ĀĀĚĀ\"": 879,
      "ĀĀĚĀ#": 880,
      "Ġĝĝ\"": 881,
      "ĀĀ%Āğ": 882,
      "ĠĜğğ": 883,
      "ĀĀ&Āğ": 884,
      "Ġ$!ĝ": 885,
      "ĀĀ(Ā": 886,
      "Ġ$Ğĝ": 887,
      "ĠĜĝ!": 888,
      "Ġ$#Ĝ": 889,
      "!'": 890,
      "\"+": 891,
      "\"Ę": 892,
      "%ę": 893,
      "&)": 894,
      "'Ě": 895,
      "()": 896,
      "(Ě": 897,
      ")-": 898,
      "+'": 899,
      "Āĕ": 900,
      "Ēĝ": 901,
      "Ĕĝ": 902,
      "ĕ\"": 903,
      "ĕĞ": 904,
      "Ėę": 905,
      "ėĕ": 906,
      "ėĘ": 907,
      "ėĀĀ": 908,
      "Ę%": 909,
      "Ě&": 910,
      "ĚĘ": 911,
      "Ĝ'": 912,
      "Ĝ(": 913,
      "ĝĖ": 914,
      "ĠğĜ#": 915,
      "Ġ\"Ĝ!": 916,
      "Ġ\"%Ğ": 917,
      "Ġĝě": 918,
      "Ġĝ$!": 919,
      "Ġ$$": 920,
      "Ġ$#ğ": 921,
      "Ġ$%ğ": 922,
      "Ġě!!": 923,
      "Ġě\"ğ": 924,
      "Ġğğ%": 925,
      "Ġğğ&": 926,
      "Ġ%!!": 927,
      "Ġğ!Ĝ": 928,
      "Ġ&!": 929,
      "Ġ&\"": 930,
      "Ġ&ĝ": 931,
      "Ġ&ğğ": 932,
      "Ġ'!": 933,
      "Ġ'\"": 934,
      "Ġ\"!Ě": 935,
      "ĠğĞ$": 936,
      "ĠĞ!Ĝ": 937,
      "Ġ!\"ě": 938,
      "Ġ\"Ğ#": 939,
      "ĠĞ\"$": 940,
      "ĠĞ\"ĝ": 941,
      "ĀĀğĀĚ": 942,
      "Ġ!ĝ$": 943,
      "Ġĝğĝ": 944,
      "Ġ!##": 945,
      "Ġĝ!$": 946,
      "Ġĝ!Ğ": 947,
      "ĀĀ!Ā%": 948,
      "ĀĀ!Āě": 949,
      "ĀĀ!Āę": 950,
      "ĀĀ\"Ā&": 951,
      "ĀĀ\"Ā'": 952,
      "ĀĀ#Āğ": 953,
      "ĀĀ#Āĝ": 954,
      "ĀĀ#ĀĜ": 955,
      "Ġ#\"\"": 956,
      "Ġ\"#Ĝ": 957,
      "ĀĀĜĀĜ": 958,
      "Ġ#Ğ\"": 959,
      "Ġ#Ğě": 960,
      "Ġ\"ĝĝ": 961,
      "Ġ$ğ!": 962,
      "ĠĞ#Ğ": 963,
      "ĀĀ$Āğ": 964,
      "ĀĀĚĀ&": 965,
      "ĀĀ%Ā&": 966,
      "ĠĜğ#": 967,
      "ĀĀ&Ā\"": 968,
      "ĀĀ&Āĝ": 969,
      "ĀĀ&ĀĜ": 970,
      "Ġ#ĝĝ": 971,
      "ĀĀ'Āğ": 972,
      "Ġ##!": 973,
      "Ġ$ĝĞ": 974,
      "ĠěĞğ": 975,
      "ĀĀĖĀ\"": 976,
      "#(": 977,
      "$(": 978,
      "$ę": 979,
      "%%": 980,
      "%Ę": 981,
      "'+": 982,
      ")#": 983,
      ")(": 984,
      "**": 985,
      "+Ĝ": 986,
      "ēĀĀ": 987,
      "Ĕ#": 988,
      "ĕ!": 989,
      "ĕğ": 990,
      "Ėė": 991,
      "ė#": 992,
      "ė&": 993,
      "Ę'": 994,
      "Ęĕ": 995,
      "ęĀĀ": 996,
      "ě&": 997,
      "ěę": 998,
      "ĝ(": 999,
      "ĝ,": 1000,
      "Ğė": 1001,
      "ĞĘ": 1002,
      "ğ+": 1003,
      "Ġ2": 1004,
      "Ġ!ĜĞ": 1005,
      "Ġ!$ĝ": 1006,
      "Ġğę": 1007,
      "Ġğ$#": 1008,
      "Ġğ%Ğ": 1009,
      "Ġ\"ę": 1010,
      "Ġ\"ěğ": 1011,
      "ĠĞ$#": 1012,
      "ĀĀď": 1013,
      "Ġĝ&": 1014,
      "ĠĝĜ!": 1015,
      "Ġ$#Ğ": 1016,
      "ĠĜ\"!": 1017,
      "ĠěĜğ": 1018,
      "ĠěĜ!": 1019,
      "Ġ!!ě": 1020,
      "Ġ!ğě": 1021,
      "Ġğğě": 1022,
      "Ġ%$": 1023,
      "Ġ%\"!": 1024,
      "Ġ%ğě": 1025,
      "Ġ&ě": 1026,
      "Ġ&ğ": 1027,
      "ĠĚ!": 1028,
      "Ġę#": 1029,
      "Ġ\"ğě": 1030,
      "ĠğĞĜ": 1031,
      "Ġ!Ğě": 1032,
      "Ġ!ĞĜ": 1033,
      "Ġ\"\"#": 1034,
      "Ġ#!Ĝ": 1035,
      "ĀĀğĀ'": 1036,
      "ĠĝğĞ": 1037,
      "Ġ!#Ĝ": 1038,
      "ĀĀ!ĀĚ": 1039,
      "ĀĀ\"Āě": 1040,
      "ĀĀ\"ĀĚ": 1041,
      "Ġğĝ#": 1042,
      "ĀĀĝĀ%": 1043,
      "Ġ#\"ĝ": 1044,
      "ĀĀĜĀ\"": 1045,
      "ĀĀĜĀğ": 1046,
      "ĀĀĜĀĞ": 1047,
      "ĀĀĜĀ$": 1048,
      "ĀĀĜĀ'": 1049,
      "Ġĝ\"Ğ": 1050,
      "Ġ\"ĝĜ": 1051,
      "ĠĞĝğ": 1052,
      "ĠĞ#ĝ": 1053,
      "ĀĀ$Ā": 1054,
      "ĀĀ$ĀĞ": 1055,
      "ĀĀ$ĀĜ": 1056,
      "ĀĀěĀ\"": 1057,
      "ĀĀěĀĞ": 1058,
      "ĀĀ%ĀĞ": 1059,
      "ĀĀ%Ā#": 1060,
      "Ġ#ĝ!": 1061,
      "ĠĜ!ğ": 1062,
      "Ġĝ#Ğ": 1063,
      "ĀĀĘĀĜ": 1064,
      "Ġ$ĞĞ": 1065,
      "Ġ##\"": 1066,
      "Ġ##ĝ": 1067,
      "ĠĜĞ\"": 1068,
      "Ġ$ĝ\"": 1069,
      "ĠĜĝĝ": 1070,
      "ĠĜĝĞ": 1071,
      "ĀĀ)Ā": 1072,
      "!+": 1073,
      "\"ĕ": 1074,
      "\"ĀĀ": 1075,
      "$'": 1076,
      "'Ę": 1077,
      "'Ĝ": 1078,
      "(*": 1079,
      "(,": 1080,
      "))": 1081,
      ")Ğ": 1082,
      ")ĀĀ)": 1083,
      "*ĝ": 1084,
      ".$": 1085,
      "/#": 1086,
      "čĠ": 1087,
      "ĕĚ": 1088,
      "ĘĒ": 1089,
      "ĘĔ": 1090,
      "ĘĚ": 1091,
      "ęė": 1092,
      "Ě$": 1093,
      "Ěė": 1094,
      "ě,": 1095,
      "Ĝ&": 1096,
      "Ĝ)": 1097,
      "Ĝė": 1098,
      "ĝ+": 1099,
      "ĝē": 1100,
      "ĝĘ": 1101,
      "ĝę": 1102,
      "Ğ'": 1103,
      "ĠĀ&": 1104,
      "ĠĀ'": 1105,
      "ĠĀĚ": 1106,
      "ĠĀę": 1107,
      "Ġ!$Ğ": 1108,
      "Ġ!Ĝĝ": 1109,
      "Ġ!%Ğ": 1110,
      "Ġ!%\"": 1111,
      "ĠğĜĝ": 1112,
      "Ġ\"&Ğ": 1113,
      "ĠĞ&": 1114,
      "ĠĞěĝ": 1115,
      "ĀĀć": 1116,
      "Ġĝ(": 1117,
      "ĠĝĜğ": 1118,
      "Ġ$&": 1119,
      "Ġ$Ĝ!": 1120,
      "Ġ$$!": 1121,
      "Ġ$$Ğ": 1122,
      "ĠĜĜ\"": 1123,
      "ĠĜě#": 1124,
      "Ġě#": 1125,
      "Ġě$": 1126,
      "ĠěĜ": 1127,
      "Ġě\"\"": 1128,
      "Ġě!ğ": 1129,
      "ĠěĝĞ": 1130,
      "Ġě!#": 1131,
      "Ġ%ĝğ": 1132,
      "Ġ%\"ğ": 1133,
      "Ġ%!ğ": 1134,
      "Ġ%!Ğ": 1135,
      "Ġ%Ğĝ": 1136,
      "Ġ&Ĝĝ": 1137,
      "Ġ&ĝğ": 1138,
      "Ġ&ğĝ": 1139,
      "ĠĚ#": 1140,
      "ĠĚĞ": 1141,
      "Ġę!": 1142,
      "Ġ!\"$": 1143,
      "Ġ!\"Ĝ": 1144,
      "Ġğ\"%": 1145,
      "ĠĞĞĝ": 1146,
      "Ġ#!ě": 1147,
      "ĀĀğĀĘ": 1148,
      "Ġĝ!Ĝ": 1149,
      "Ġĝ!ĝ": 1150,
      "ĀĀ!Ā&": 1151,
      "Ġğ#Ĝ": 1152,
      "ĀĀĝĀ&": 1153,
      "ĀĀĝĀ)": 1154,
      "Ġ#\"Ĝ": 1155,
      "ĀĀĜĀ%": 1156,
      "ĀĀĜĀě": 1157,
      "ĀĀ$Ā#": 1158,
      "ĀĀ$Ā&": 1159,
      "ĀĀ$Āě": 1160,
      "ĀĀ$ĀĚ": 1161,
      "ĀĀěĀğ": 1162,
      "ĀĀěĀ#": 1163,
      "ĀĀ%Ā$": 1164,
      "ĀĀ&ĀĞ": 1165,
      "Ġĝ#ĝ": 1166,
      "ĀĀĘĀ\"": 1167,
      "ĀĀĘĀğ": 1168,
      "ĀĀĘĀ#": 1169,
      "ĀĀĘĀě": 1170,
      "ĀĀ(Ā#": 1171,
      "ĀĀęĀ\"": 1172,
      "ĀĀęĀğ": 1173,
      "Ġ$ĝ!": 1174,
      "ĀĀėĀ!": 1175,
      "ĀĀ)Ā#": 1176,
      "ĀĀ+Ā": 1177,
      "Ġ$#ĝ": 1178,
      "Ġ%!ě": 1179,
      "!ĀĀ": 1180,
      "\"(": 1181,
      "$Ė": 1182,
      "%Ĕ": 1183,
      "')": 1184,
      "'ę": 1185,
      ")ě": 1186,
      "*ě": 1187,
      "*ğ": 1188,
      "+#": 1189,
      "+$": 1190,
      "+%": 1191,
      ",#": 1192,
      ",$": 1193,
      "-)": 1194,
      "/ĀĀ": 1195,
      "Ēě": 1196,
      "ē#": 1197,
      "Ĕğ": 1198,
      "ĕ$": 1199,
      "ĕĔ": 1200,
      "ĕĕ": 1201,
      "Ė$": 1202,
      "Ė)": 1203,
      "ĖĚ": 1204,
      "ė%": 1205,
      "Ĝ.": 1206,
      "Ĝĕ": 1207,
      "ĜĀĀ": 1208,
      "ğė": 1209,
      "ĠĎ": 1210,
      "Ġ!Ĝ\"": 1211,
      "Ġ!%!": 1212,
      "Ġ!&ğ": 1213,
      "Ġğě\"": 1214,
      "ĠğĚ!": 1215,
      "Ġ\"Ĝ\"": 1216,
      "Ġ\"ě!": 1217,
      "ĠĞę": 1218,
      "ĠĞě!": 1219,
      "ĠĞ%!": 1220,
      "ĠĞ&!": 1221,
      "ĀĀ;": 1222,
      "ĠĝĜĞ": 1223,
      "Ġĝ#ğ": 1224,
      "ĠĝĜĝ": 1225,
      "ĠĝĜ#": 1226,
      "Ġĝ&Ğ": 1227,
      "Ġ#&": 1228,
      "Ġ#Ě": 1229,
      "Ġ#Ĝğ": 1230,
      "Ġ#$!": 1231,
      "Ġ#$ĝ": 1232,
      "Ġ$Ĝğ": 1233,
      "Ġ$Ĝĝ": 1234,
      "Ġ$ĝğ": 1235,
      "Ġ$ĜĜ": 1236,
      "ĠĜ&": 1237,
      "ĠĜĚ": 1238,
      "ĠĜ#ğ": 1239,
      "ĠĜĚ!": 1240,
      "Ġě#ğ": 1241,
      "Ġěğğ": 1242,
      "Ġě#\"": 1243,
      "Ġ!ğ%": 1244,
      "Ġ%Ě": 1245,
      "Ġ%ě": 1246,
      "Ġ%ĝ": 1247,
      "Ġ%Ĝ!": 1248,
      "Ġ%$ğ": 1249,
      "Ġ%$!": 1250,
      "Ġ%\"\"": 1251,
      "Ġ%#Ğ": 1252,
      "Ġ%\"Ğ": 1253,
      "Ġ%ĞĞ": 1254,
      "Ġ%ğĝ": 1255,
      "Ġğ!&": 1256,
      "Ġ&\"ğ": 1257,
      "Ġ&#!": 1258,
      "ĠĚ$": 1259,
      "ĠĚĜ": 1260,
      "ĠĚ\"%": 1261,
      "Ġ'ĝ": 1262,
      "Ġ\"!$": 1263,
      "Ġęĝ": 1264,
      "Ġęğ": 1265,
      "Ġğ\"Ĝ": 1266,
      "ĠĘ!": 1267,
      "ĠĘğ": 1268,
      "Ġ(\"": 1269,
      "Ġ\"Ğ%": 1270,
      "ĠĞĞĜ": 1271,
      "ĠĞ\"Ĝ": 1272,
      "ĀĀğĀę": 1273,
      "ĀĀğĀ(": 1274,
      "Ġ!ĝě": 1275,
      "Ġ!ĝĜ": 1276,
      "Ġĝğ$": 1277,
      "ĠĝğĜ": 1278,
      "Ġ#ğ\"": 1279,
      "Ġ#ğ#": 1280,
      "Ġĝ!%": 1281,
      "ĀĀ!Ā'": 1282,
      "ĀĀĞĀĚ": 1283,
      "ĀĀĞĀĘ": 1284,
      "ĀĀ\"Ā%": 1285,
      "Ġğĝĝ": 1286,
      "ĀĀĝĀě": 1287,
      "ĀĀĝĀĚ": 1288,
      "ĀĀ#Ā#": 1289,
      "ĀĀ#Ā&": 1290,
      "ĀĀ#Ā'": 1291,
      "Ġ#\"ě": 1292,
      "Ġ\"#\"": 1293,
      "ĀĀĜĀ&": 1294,
      "ĀĀĜĀĚ": 1295,
      "Ġ\"ĝ#": 1296,
      "ĠĞĝ#": 1297,
      "ĠĞĝě": 1298,
      "ĠĞĝĝ": 1299,
      "Ġ$ğ\"": 1300,
      "Ġ$ğě": 1301,
      "ĀĀ$Ā%": 1302,
      "ĀĀĚĀ$": 1303,
      "ĀĀĚĀĜ": 1304,
      "ĀĀĚĀ%": 1305,
      "ĠĠĠĠĠĠĠĠĠĠĠĠĠĠĠĠĠ": 1306,
      "ĀĀěĀĝ": 1307,
      "ĀĀěĀ$": 1308,
      "ĀĀěĀ'": 1309,
      "ĀĀ%ĀĜ": 1310,
      "ĀĀ%Āě": 1311,
      "ĠĜğĞ": 1312,
      "ĀĀ&Ā#": 1313,
      "ĀĀ&Ā&": 1314,
      "ĠĜ!#": 1315,
      "ĠĜ!Ğ": 1316,
      "Ġĝ##": 1317,
      "ĀĀ(Ā$": 1318,
      "ĀĀęĀě": 1319,
      "ĀĀ'Ā\"": 1320,
      "Ġ$ĝĜ": 1321,
      "ĀĀėĀ&": 1322,
      "ĠĜĝ\"": 1323,
      "ĠĜĝ#": 1324,
      "ĀĀ)Ā%": 1325,
      "Ġ!ĜĜ": 1326,
      "ĀĀ+Ā\"": 1327,
      "ĠĠĠĠĠĠĠĠĠĠĠĠĠĠĠĠĠĠĠĠĠĠĠĠĠĠĠĠĠĠĠĠ": 1328,
      "Ġě!ě": 1329,
      "ĠĠĠĠĠĠĠĠĠĠĠĠĠĠĠĠĠĠĠĠĠĠĠĠĠ": 1330,
      "!)": 1331,
      "!ė": 1332,
      "!Ę": 1333,
      "#'": 1334,
      "#)": 1335,
      "#+": 1336,
      "#ē": 1337,
      "#ė": 1338,
      "$,": 1339,
      "$Ę": 1340,
      "%Ė": 1341,
      "&'": 1342,
      "&+": 1343,
      "&ė": 1344,
      "&Ę": 1345,
      ")Ĝ": 1346,
      ",-": 1347,
      "-*": 1348,
      "-Ğ": 1349,
      "-Āğ": 1350,
      ".&": 1351,
      "Ā-": 1352,
      "Ā.": 1353,
      "Ē!": 1354,
      "Ē&": 1355,
      "Ēę": 1356,
      "ēę": 1357,
      "ēĚ": 1358,
      "ēĞ": 1359,
      "Ĕĕ": 1360,
      "Ĕė": 1361,
      "ĖĖ": 1362,
      "ĖĀĀ": 1363,
      "ė)": 1364,
      "ė*": 1365,
      "Ę+": 1366,
      "ĘĘ": 1367,
      "Ě)": 1368,
      "Ěĕ": 1369,
      "Ěę": 1370,
      "ě)": 1371,
      "ěē": 1372,
      "ěĔ": 1373,
      "ěĕ": 1374,
      "ěĀĀ": 1375,
      "ĝ'": 1376,
      "ĞĀĀ": 1377,
      "ğ(": 1378,
      "ğē": 1379,
      "ĠĀ)": 1380,
      "ĠĀ(": 1381,
      "ĠĀė": 1382,
      "ĠĀĀ!Ā\"": 1383,
      "Ġ!(": 1384,
      "Ġ!%#": 1385,
      "Ġ!%ğ": 1386,
      "Ġ!$$": 1387,
      "Ġ!ě\"": 1388,
      "Ġ!ěĞ": 1389,
      "Ġğ$ĝ": 1390,
      "Ġğě!": 1391,
      "Ġğ%!": 1392,
      "Ġğ%#": 1393,
      "Ġğ%ğ": 1394,
      "ĠğĜĜ": 1395,
      "ĠğĚĝ": 1396,
      "Ġğę!": 1397,
      "Ġ\"Ĝĝ": 1398,
      "Ġ\"$\"": 1399,
      "ĠĞ)": 1400,
      "ĠĞĘ": 1401,
      "ĠĞ$ğ": 1402,
      "ĠĞěğ": 1403,
      "ĠĞĚğ": 1404,
      "ĠĝĜ\"": 1405,
      "Ġĝě!": 1406,
      "Ġĝ%!": 1407,
      "Ġ#'": 1408,
      "Ġ#Ę": 1409,
      "Ġ#ĀĀ": 1410,
      "Ġ#Ĝĝ": 1411,
      "Ġ#%Ğ": 1412,
      "Ġ#Ěğ": 1413,
      "Ġ#&ğ": 1414,
      "Ġ$Ĝ\"": 1415,
      "Ġ$ĜĞ": 1416,
      "Ġ$ěğ": 1417,
      "Ġ$Ĝ#": 1418,
      "Ġ$$ĝ": 1419,
      "Ġ$#\"": 1420,
      "ĠĜ%": 1421,
      "ĠĜĜ!": 1422,
      "ĠĜ$ğ": 1423,
      "ĠĜĜĞ": 1424,
      "ĠĜĜĝ": 1425,
      "ĠĜěğ": 1426,
      "ĠĜĝğ": 1427,
      "ĠĜ\"ĝ": 1428,
      "ĠěĜ#": 1429,
      "Ġě!Ğ": 1430,
      "Ġěğĝ": 1431,
      "Ġě\"#": 1432,
      "Ġěğ\"": 1433,
      "Ġ!ğĚ": 1434,
      "Ġ%$Ğ": 1435,
      "Ġ%ĜĞ": 1436,
      "Ġ%ě\"": 1437,
      "Ġ%#!": 1438,
      "Ġ%!ĝ": 1439,
      "Ġ%Ğě": 1440,
      "Ġ%\"Ĝ": 1441,
      "Ġğ!Ě": 1442,
      "Ġ&%": 1443,
      "Ġ&Ĝ": 1444,
      "Ġ&Ğ": 1445,
      "Ġ&!!": 1446,
      "Ġ&ğě": 1447,
      "ĠĚ&": 1448,
      "ĠĚğğ": 1449,
      "ĠĚ\"#": 1450,
      "ĠĚ!\"": 1451,
      "ĠĚğ\"": 1452,
      "ĠĚĞě": 1453,
      "Ġ'#": 1454,
      "Ġ'#\"": 1455,
      "Ġ!Ğ%": 1456,
      "Ġ(ĝ": 1457,
      "Ġ(!ĝ": 1458,
      "Ġ\"\"$": 1459,
      "Ġ\"\"ě": 1460,
      "Ġ\"\"Ĝ": 1461,
      "Ġ\"Ğ$": 1462,
      "Ġ\"Ğě": 1463,
      "ĠĞĞě": 1464,
      "ĀĀğĀ&": 1465,
      "ĀĀğĀ)": 1466,
      "Ġ!#$": 1467,
      "Ġ#ğĚ": 1468,
      "Ġĝ!&": 1469,
      "ĀĀĞĀ'": 1470,
      "ĀĀ\"Ā)": 1471,
      "ĀĀ\"Āę": 1472,
      "Ġğ#$": 1473,
      "Ġğĝ$": 1474,
      "ĀĀ#Ā%": 1475,
      "ĀĀ#Āę": 1476,
      "ĀĀ#Āė": 1477,
      "Ġ#\"#": 1478,
      "ĀĀĜĀ)": 1479,
      "ĠĝĞ%": 1480,
      "ĠĝĞĜ": 1481,
      "ĠĝĞĞ": 1482,
      "Ġ#Ğ#": 1483,
      "Ġ#ĞĜ": 1484,
      "Ġ\"ĝ$": 1485,
      "Ġ$ğĜ": 1486,
      "ĠĞ#$": 1487,
      "ĀĀĚĀĝ": 1488,
      "ĀĀĚĀ(": 1489,
      "Ġĝĝ#": 1490,
      "ĀĀěĀ!": 1491,
      "ĀĀěĀĜ": 1492,
      "ĀĀěĀ%": 1493,
      "ĀĀ%Ā!": 1494,
      "ĀĀ%Ā\"": 1495,
      "ĀĀ%Āĝ": 1496,
      "Ġ$\"\"": 1497,
      "Ġ$\"#": 1498,
      "ĀĀ&Ā!": 1499,
      "Ġ#ĝ\"": 1500,
      "Ġ#ĝğ": 1501,
      "\"\"ĀĀ": 1502,
      "Ġ$!\"": 1503,
      "ĀĀĘĀ!": 1504,
      "ĀĀĘĀĞ": 1505,
      "ĀĀ(ĀĜ": 1506,
      "ĀĀ(Ā%": 1507,
      "ĀĀ(Ā'": 1508,
      "ĀĀ(ĀĚ": 1509,
      "ĀĀ'ĀĞ": 1510,
      "ĀĀ'Āĝ": 1511,
      "ĠĜĞ#": 1512,
      "ĠĜĞ$": 1513,
      "ĠĜĞ%": 1514,
      "ĠĜĞĝ": 1515,
      "ĠĜĞğ": 1516,
      "ĀĀėĀĞ": 1517,
      "ĀĀėĀ%": 1518,
      "&!ĀĀ": 1519,
      "ĠěĞ%": 1520,
      "ĀĀ)Ā!": 1521,
      "ĀĀ)Āğ": 1522,
      "ĀĀĖĀ!": 1523,
      "ĀĀĖĀĞ": 1524,
      "ĀĀĖĀĝ": 1525,
      "ĀĀĖĀ(": 1526,
      "ĀĀ+Ā!": 1527,
      "ĀĀ+Ā$": 1528,
      "&ĀĀ*": 1529,
      "(ĀĀĒ": 1530,
      "ĠğĜě": 1531,
      "Ġě!$": 1532,
      "ĀĀ#ĀĖ": 1533,
      "ĀĀ,Ā!": 1534,
      "ĀĀ,Ā\"": 1535,
      "ĀĀ-Ā": 1536,
      "\"Ė": 1537,
      "#ĕ": 1538,
      "#ę": 1539,
      "$)": 1540,
      "$ė": 1541,
      "%)": 1542,
      "&Ĕ": 1543,
      "&ę": 1544,
      "&ĀĀ'": 1545,
      "'*": 1546,
      "('": 1547,
      "(-": 1548,
      "(.": 1549,
      "(ĕ": 1550,
      "(ę": 1551,
      ")ĀĀ!Ā": 1552,
      "*%": 1553,
      "*-": 1554,
      "*Ě": 1555,
      "+*": 1556,
      ",\"": 1557,
      "-!": 1558,
      "-\"": 1559,
      "-'": 1560,
      "-ĝ": 1561,
      "-ĀĀ": 1562,
      "/!": 1563,
      "/)": 1564,
      "/ğ": 1565,
      "Ā/": 1566,
      "ďĀ!": 1567,
      "ĐĀ$": 1568,
      "đ'": 1569,
      "Ēğ": 1570,
      "ē$": 1571,
      "ēĕ": 1572,
      "ēĘ": 1573,
      "ēĝ": 1574,
      "Ĕ\"": 1575,
      "ĔĒ": 1576,
      "ĔĘ": 1577,
      "ĔĚ": 1578,
      "ĔĀĀ": 1579,
      "ĕ#": 1580,
      "ĕĘ": 1581,
      "Ė%": 1582,
      "Ėĕ": 1583,
      "ę&": 1584,
      "ĚĀĀ": 1585,
      "ěđ": 1586,
      "ěĖ": 1587,
      "ěė": 1588,
      "ěĘ": 1589,
      "ěĚ": 1590,
      "ĜĖ": 1591,
      "ĝĐ": 1592,
      "ĝĕ": 1593,
      "ĞĒ": 1594,
      "Ğē": 1595,
      "ğĒ": 1596,
      "ğĖ": 1597,
      "ğ!!": 1598,
      "Ġ1": 1599,
      "ĠĀĘ": 1600,
      "ĠĀĀ+": 1601,
      "Ġ!ĀĀ": 1602,
      "Ġ!ě!": 1603,
      "Ġ!&!": 1604,
      "Ġ!Ěğ": 1605,
      "Ġ!Ě!": 1606,
      "Ġ!Ě\"": 1607,
      "Ġ!ěĝ": 1608,
      "Ġ!&#": 1609,
      "Ġ!ěĜ": 1610,
      "Ġğ'": 1611,
      "Ġğ(": 1612,
      "Ġğ-": 1613,
      "ĠğĘ": 1614,
      "ĠğĜ!": 1615,
      "Ġğěğ": 1616,
      "Ġğ$$": 1617,
      "ĠğĜ$": 1618,
      "Ġğěĝ": 1619,
      "Ġğ%ĝ": 1620,
      "Ġ\"'": 1621,
      "Ġ\"ěĞ": 1622,
      "Ġ\"%\"": 1623,
      "Ġ\"Ě\"": 1624,
      "Ġ\"ĜĜ": 1625,
      "Ġ\"Ĝ$": 1626,
      "Ġ\"&\"": 1627,
      "Ġ\"&&": 1628,
      "ĠĞ$\"": 1629,
      "ĠĞ$ĝ": 1630,
      "ĠĞ%#": 1631,
      "ĠĞĜ$": 1632,
      "ĠĞ%ĝ": 1633,
      "ĠĞ%Ĝ": 1634,
      "ĠĞ&#": 1635,
      "ĀĀĈ": 1636,
      "Ġĝė": 1637,
      "Ġĝę": 1638,
      "ĠĝĚ": 1639,
      "Ġĝ$\"": 1640,
      "Ġĝ&!": 1641,
      "ĠĝĚ\"": 1642,
      "ĠĝĜĜ": 1643,
      "Ġĝěĝ": 1644,
      "Ġ#Ĝ!": 1645,
      "Ġ#$$": 1646,
      "Ġ#%\"": 1647,
      "Ġ#%ĝ": 1648,
      "Ġ$$ğ": 1649,
      "Ġ$$\"": 1650,
      "Ġ$%!": 1651,
      "Ġ$ěĞ": 1652,
      "Ġ$Ě!": 1653,
      "Ġ$ěĝ": 1654,
      "ĠĜ$Ğ": 1655,
      "ĠĜ%#": 1656,
      "ĠĜ\"Ğ": 1657,
      "ĠĜ\"#": 1658,
      "ĠĜĘĝ": 1659,
      "ĠĜ$Ĝ": 1660,
      "Ġě%": 1661,
      "Ġěě": 1662,
      "Ġě$ğ": 1663,
      "ĠěĜĞ": 1664,
      "ĠěĞ!": 1665,
      "Ġě&!": 1666,
      "Ġě\"ĝ": 1667,
      "Ġě!\"": 1668,
      "Ġěęğ": 1669,
      "Ġěĝ!": 1670,
      "Ġ!!Ę": 1671,
      "Ġ!!ę": 1672,
      "Ġ%ğğ": 1673,
      "Ġ%%Ğ": 1674,
      "Ġ%\"ĝ": 1675,
      "Ġ%ĝĞ": 1676,
      "Ġ%Ğğ": 1677,
      "Ġ%ĝĜ": 1678,
      "Ġ&Ğ!": 1679,
      "Ġ&#Ğ": 1680,
      "Ġ&ğ!": 1681,
      "Ġ&!Ğ": 1682,
      "Ġ&\"ĝ": 1683,
      "Ġ&Ğĝ": 1684,
      "ĠĚ$ğ": 1685,
      "ĠĚ!!": 1686,
      "ĠĚĞ!": 1687,
      "ĠĚĝğ": 1688,
      "ĠĚ$ĝ": 1689,
      "ĠĚ%!": 1690,
      "ĠĚ\"Ğ": 1691,
      "ĠĚĞ\"": 1692,
      "ĠĚ%&": 1693,
      "ĠĚĞ#": 1694,
      "Ġ'$": 1695,
      "Ġ'Ğ": 1696,
      "Ġ'!!": 1697,
      "Ġ'\"!": 1698,
      "Ġ'#Ğ": 1699,
      "Ġ\"ğę": 1700,
      "ĠğĞ%": 1701,
      "ĠĞ!%": 1702,
      "ĠĞ!ě": 1703,
      "ĠĞğĚ": 1704,
      "Ġ!\"%": 1705,
      "ĠĘ#": 1706,
      "ĠĘ'": 1707,
      "ĠĘĜ": 1708,
      "Ġ(!": 1709,
      "Ġ(#!": 1710,
      "ĠĞ\"%": 1711,
      "ĠĞ\"Ě": 1712,
      "ĠĞ\"ě": 1713,
      "Ġ#!Ě": 1714,
      "ĀĀğĀė": 1715,
      "Ġ!ĝ&": 1716,
      "Ġė\"\"": 1717,
      "Ġė!ğ": 1718,
      "Ġ#ğę": 1719,
      "ĀĀĞĀė": 1720,
      "ĀĀ\"ĀĘ": 1721,
      "ĀĀ\"Āė": 1722,
      "Ġğĝ%": 1723,
      "ĀĀĝĀ'": 1724,
      "Ġ*!ĝ": 1725,
      "ĀĀĜĀĘ": 1726,
      "ĠĝĞĝ": 1727,
      "Ġĝ\"$": 1728,
      "Ġĝ\"%": 1729,
      "ĠĞĝĜ": 1730,
      "ĠĞ#Ĝ": 1731,
      "ĀĀ$Ā$": 1732,
      "ĀĀ$Ā+": 1733,
      "ĀĀĚĀĚ": 1734,
      "ĀĀĚĀ)": 1735,
      "ĠĝĝĜ": 1736,
      "ĠĜğ$": 1737,
      "ĠĜğĝ": 1738,
      "ĠĜ!%": 1739,
      "Ġ$!ě": 1740,
      "ĀĀĘĀĝ": 1741,
      "ĀĀĘĀ$": 1742,
      "Ĝ#ĀĀ": 1743,
      "ĀĀ(Ā!": 1744,
      "ĀĀ(ĀĞ": 1745,
      "ĀĀ(Āĝ": 1746,
      "ĀĀ(Ā&": 1747,
      "ĀĀ(Āė": 1748,
      "ĀĀęĀĞ": 1749,
      "ĀĀęĀ&": 1750,
      "ĀĀ'Ā&": 1751,
      "ĀĀ'Āě": 1752,
      "Ġ##Ĝ": 1753,
      "Ġ$ĝĝ": 1754,
      "ĀĀėĀ\"": 1755,
      "ĀĀėĀğ": 1756,
      "ĀĀėĀĜ": 1757,
      "ĀĀėĀě": 1758,
      "ĀĀėĀ'": 1759,
      "ĀĀėĀ)": 1760,
      "ĠĜĝě": 1761,
      "ĠěĞ$": 1762,
      "ĠěĞĞ": 1763,
      "!ğ%": 1764,
      "ĀĀ)Āĝ": 1765,
      "ĀĀ)ĀĜ": 1766,
      "#!ĀĀ": 1767,
      "Ġ!Ĝě": 1768,
      "ĀĀ+Ā%": 1769,
      "ĀĀ+ĀĚ": 1770,
      "'ĀĀ*": 1771,
      "'ĀĀĕ": 1772,
      "%ĀĀ*": 1773,
      "%ĀĀ-": 1774,
      "ĠĀĀ*": 1775,
      "ĠĞ$%": 1776,
      "ĠĜ\"&": 1777,
      "Ġ%!Ĝ": 1778,
      "ĀĀĞĀĕ": 1779,
      "ĀĀĕĀğ": 1780,
      "ĀĀĕĀĞ": 1781,
      "ĀĀĕĀ%": 1782,
      "ĀĀ,Ā+": 1783,
      "ĀĀ*Āğ": 1784,
      "ĀĀ/Ā": 1785,
      "ĀĀ/Ā!": 1786,
      "ĀĀ/Ā#": 1787,
      "!ē": 1788,
      "!Ĕ": 1789,
      "!Ė": 1790,
      "!Ĝ!": 1791,
      "\")": 1792,
      "\"#\"": 1793,
      "\"Ĝ$": 1794,
      "\"ĀĀĝĀ#": 1795,
      "#Ę": 1796,
      "#ĚĞ": 1797,
      "$đ": 1798,
      "$ē": 1799,
      "$ĀĀĞĀğ": 1800,
      "%(": 1801,
      "%ė": 1802,
      "%ĀĀğĀ": 1803,
      "%ĀĀĜĀ!": 1804,
      "%ĀĀ\"Ā\"": 1805,
      "&Ě": 1806,
      "&ĀĀ$": 1807,
      "&ĀĀė": 1808,
      "&Ę!": 1809,
      "&ĀĀĝĀ!": 1810,
      "'ė": 1811,
      "'ĀĀ\"Ā": 1812,
      "(Ė": 1813,
      "(Ě\"": 1814,
      "(ĀĀğĀ": 1815,
      ")ė": 1816,
      "*ĀĀ'": 1817,
      "+\"": 1818,
      "+Ė": 1819,
      "+ę": 1820,
      "+ě": 1821,
      ",'": 1822,
      ",(": 1823,
      ",)": 1824,
      ",*": 1825,
      ",Ė": 1826,
      ",Ğ": 1827,
      ",ĀĜ": 1828,
      ".ğ": 1829,
      "/\"": 1830,
      "/,": 1831,
      "/ě": 1832,
      ":Ā!": 1833,
      "ĎĀĞ": 1834,
      "ĎĀ$": 1835,
      "Đ#": 1836,
      "đđ": 1837,
      "đĕ": 1838,
      "đę": 1839,
      "đě": 1840,
      "đĜ": 1841,
      "đğ": 1842,
      "đ'+": 1843,
      "ē!": 1844,
      "ēĚĝ": 1845,
      "Ĕ%": 1846,
      "Ĕ&": 1847,
      "Ĕ.": 1848,
      "ĔĞ": 1849,
      "ĖĘ": 1850,
      "ė'": 1851,
      "ėĖ": 1852,
      "Ę*": 1853,
      "Ę,": 1854,
      "Ęė": 1855,
      "ę'": 1856,
      "ę(": 1857,
      "ę.": 1858,
      "ęĘ": 1859,
      "Ě(": 1860,
      "Ěđ": 1861,
      "ĚĒ": 1862,
      "ĚĔ": 1863,
      "ĚĀĀĒ": 1864,
      "Ĝ+": 1865,
      "Ĝ,": 1866,
      "Ĝ/": 1867,
      "Ĝđ": 1868,
      "ĝĒ": 1869,
      "ĝĀĀ": 1870,
      "ĝ\"\"": 1871,
      "ĝ##": 1872,
      "ĝ%&": 1873,
      "Ğ*": 1874,
      "Ğ+": 1875,
      "Ğ.": 1876,
      "ĞĔ": 1877,
      "Ğĕ": 1878,
      "ĞĖ": 1879,
      "Ğ\"#": 1880,
      "ğ)": 1881,
      "ğĐ": 1882,
      "ğđ": 1883,
      "Ġ3": 1884,
      "Ġ4": 1885,
      "Ġ5": 1886,
      "ĠĀĀğĀ": 1887,
      "ĠĀĀĞĀ": 1888,
      "ĠĀĀ!Āĝ": 1889,
      "Ġ!)": 1890,
      "Ġ!Ĕ": 1891,
      "Ġ!Ę": 1892,
      "Ġ!ę": 1893,
      "Ġ!Ĝ#": 1894,
      "Ġ!&\"": 1895,
      "Ġ!%$": 1896,
      "Ġ!'ğ": 1897,
      "Ġ!ęĞ": 1898,
      "Ġ!Ęğ": 1899,
      "Ġ!ęě": 1900,
      "Ġ!'Ğ": 1901,
      "Ġ!%ě": 1902,
      "Ġ!ě%": 1903,
      "Ġ!Ęě": 1904,
      "Ġ!%Ě": 1905,
      "Ġ!*!": 1906,
      "ĠğĖ": 1907,
      "Ġğ%\"": 1908,
      "Ġğ&\"": 1909,
      "Ġğěě": 1910,
      "Ġğ%$": 1911,
      "ĠğĚ#": 1912,
      "ĠğĘğ": 1913,
      "Ġğ&$": 1914,
      "ĠğęĜ": 1915,
      "Ġ\"Ĝ#": 1916,
      "Ġ\"$#": 1917,
      "Ġ\"%#": 1918,
      "Ġ\"&!": 1919,
      "Ġ\"ě\"": 1920,
      "Ġ\"Ěğ": 1921,
      "Ġ\"ěĝ": 1922,
      "Ġ\"ěě": 1923,
      "Ġ\"%Ĝ": 1924,
      "Ġ\"'!": 1925,
      "Ġ\"ěĜ": 1926,
      "Ġ\"Ĝě": 1927,
      "ĠĞĜĞ": 1928,
      "ĠĞ$$": 1929,
      "ĠĞěĞ": 1930,
      "ĠĞěě": 1931,
      "ĠĞ%$": 1932,
      "ĠĞę!": 1933,
      "ĠĞĘ\"": 1934,
      "ĠĞęĝ": 1935,
      "ĀĀĄ": 1936,
      "ĀĀĐ": 1937,
      "ĠĝĖ": 1938,
      "Ġĝ$ĝ": 1939,
      "Ġĝ$#": 1940,
      "Ġĝ$$": 1941,
      "Ġĝ%\"": 1942,
      "ĠĝĚğ": 1943,
      "Ġĝě#": 1944,
      "Ġĝ%ĝ": 1945,
      "Ġĝęğ": 1946,
      "Ġĝě%": 1947,
      "Ġ#ę": 1948,
      "Ġ#Ĝ\"": 1949,
      "Ġ#Ĝ#": 1950,
      "Ġ#ě\"": 1951,
      "Ġ#ěĞ": 1952,
      "Ġ#Ě!": 1953,
      "Ġ#ĜĜ": 1954,
      "Ġ#&\"": 1955,
      "Ġ#ě#": 1956,
      "Ġ#&Ğ": 1957,
      "Ġ#ĚĜ": 1958,
      "Ġ#&Ĝ": 1959,
      "Ġ#)!": 1960,
      "Ġ#'&": 1961,
      "Ġ$ę": 1962,
      "Ġ$Ě": 1963,
      "Ġ$ĀĀ": 1964,
      "Ġ$ě!": 1965,
      "Ġ$$$": 1966,
      "Ġ$&\"": 1967,
      "Ġ$ěě": 1968,
      "Ġ$&ğ": 1969,
      "Ġ$$Ĝ": 1970,
      "Ġ$Ĝě": 1971,
      "Ġ$$ě": 1972,
      "Ġ$(ĝ": 1973,
      "ĠĜĕ": 1974,
      "ĠĜĀĀ": 1975,
      "ĠĜ$\"": 1976,
      "ĠĜĜ#": 1977,
      "ĠĜ%!": 1978,
      "ĠĜ%Ğ": 1979,
      "ĠĜĜ$": 1980,
      "ĠĜ##": 1981,
      "ĠĜĚĞ": 1982,
      "Ġě$!": 1983,
      "Ġěĝğ": 1984,
      "Ġě$$": 1985,
      "ĠěĚ\"": 1986,
      "Ġěğ#": 1987,
      "Ġě##": 1988,
      "Ġěě$": 1989,
      "Ġěĝ#": 1990,
      "ĠěğĜ": 1991,
      "Ġě&$": 1992,
      "ĠěĘ\"": 1993,
      "Ġ!ğę": 1994,
      "Ġğğ'": 1995,
      "Ġ%&": 1996,
      "Ġ%Ĝ": 1997,
      "Ġ%Ĝ\"": 1998,
      "Ġ%#ğ": 1999,
      "Ġ%$ĝ": 2000,
      "Ġ%%#": 2001,
      "Ġ%ěĞ": 2002,
      "Ġ%ğ!": 2003,
      "Ġ%Ěğ": 2004,
      "Ġ%'ğ": 2005,
      "Ġ%ĝ$": 2006,
      "Ġ%#ĝ": 2007,
      "Ġ%%ě": 2008,
      "Ġğ!'": 2009,
      "Ġğ!Ę": 2010,
      "Ġ&&": 2011,
      "Ġ&*": 2012,
      "Ġ&ę": 2013,
      "Ġ&$!": 2014,
      "Ġ&ĜĞ": 2015,
      "Ġ&#ğ": 2016,
      "Ġ&\"!": 2017,
      "Ġ&Ě!": 2018,
      "Ġ&ğĞ": 2019,
      "Ġ&ĝĞ": 2020,
      "Ġ&ğ\"": 2021,
      "Ġ&\"ě": 2022,
      "Ġ&&Ĝ": 2023,
      "Ġ&!ě": 2024,
      "ĠĚę": 2025,
      "ĠĚĚ": 2026,
      "ĠĚ$\"": 2027,
      "ĠĚ\"!": 2028,
      "ĠĚ&!": 2029,
      "ĠĚğ#": 2030,
      "ĠĚğě": 2031,
      "ĠĚĝĜ": 2032,
      "Ġ''": 2033,
      "Ġ'(": 2034,
      "Ġ'ĀĀ": 2035,
      "Ġ'\"\"": 2036,
      "Ġ'ěğ": 2037,
      "Ġ'ğğ": 2038,
      "Ġ'!ğ": 2039,
      "Ġ'\"Ğ": 2040,
      "Ġ''ğ": 2041,
      "Ġ'Ğ\"": 2042,
      "Ġę\"": 2043,
      "Ġę$": 2044,
      "ĠęĜ": 2045,
      "Ġę$Ğ": 2046,
      "ĠęĜ\"": 2047
    },
    "merges": [
      "Ġ Ġ",
      "Ġ !",
      "Ġ ğ",
      "ĠĠ ĠĠ",
      "Ġ \"",
      "Ġ Ğ",
      "ĠĠ Ġ",
      "Ā Ā",
      "Ġ ĝ",
      "Ġ #",
      "Ġ $",
      "Ġ Ĝ",
      "ĠĠĠĠ Ġ",
      "Ġ ě",
      "Ġ! !",
      "Ġ! ğ",
      "Ġğ ğ",
      "Ġ %",
      "Ġğ !",
      "ĠĠĠĠ ĠĠĠĠ",
      "Ġ &",
      "Ġ Ě",
      "Ġ '",
      "Ġ\" !",
      "Ġ ę",
      "Ġ\" ğ",
      "Ġğ Ğ",
      "ĠĞ !",
      "ĠĞ ğ",
      "Ġ! \"",
      "Ġ! Ğ",
      "Ġğ \"",
      "ĠĠĠĠ ĠĠ",
      "Ġ Ę",
      "Ġ (",
      "Ġ\" \"",
      "Ā !",
      "Ā \"",
      "Ā ğ",
      "Ġ\" Ğ",
      "ĠĞ Ğ",
      "ĠĞ \"",
      "Ġ# !",
      "ĀĀ ğ",
      "Ā Ğ",
      "Ā #",
      "Ġ! ĝ",
      "Ġĝ ğ",
      "Ġ )",
      "Ġ ė",
      "Ġ! #",
      "Ġ# ğ",
      "Ġĝ !",
      "ĀĀ !",
      "ĀĀ Ğ",
      "ĀĀ \"",
      "Ġğ #",
      "Ġğ ĝ",
      "Ā ĝ",
      "Ā $",
      "Ā Ĝ",
      "Ġ!! ğ",
      "Ġ!ğ ğ",
      "Ġğ! !",
      "ĀĀ ĝ",
      "Ġ *",
      "Ġğğ !",
      "Ā %",
      "ĀĀ #",
      "ĠĠĠĠ ĠĠĠ",
      "Ġ# \"",
      "Ġ\" #",
      "ĀĀ Ĝ",
      "Ġĝ Ğ",
      "Ġ# Ğ",
      "Ġĝ \"",
      "Ā &",
      "Ġ!ğ !",
      "Ġ!! !",
      "Ġ Ė",
      "Ā ě",
      "Ġ\" ĝ",
      "Ĝ ğ",
      "ĠĞ ĝ",
      "Ġğ! ğ",
      "ĠĠĠĠĠĠĠĠ ĠĠĠ",
      "Ġğğ ğ",
      "Ĝ !",
      "Ġ$ ğ",
      "ĠĞ #",
      "ĀĀ $",
      "ĀĀ Ě",
      "Ġĝ ĝ",
      "$ ğ",
      "Ġ +",
      "ĠĠĠĠĠĠĠĠ ĠĠĠĠ",
      "$ !",
      "$ Ğ",
      "Ā '",
      "ĀĀ ě",
      "! !",
      "Ĝ \"",
      "ĀĀ %",
      "Ā Ě",
      "Ġ$ \"",
      "ĠĜ ğ",
      "Ĝ Ğ",
      "Ġ ĕ",
      "Ġ!ğ Ğ",
      "# ğ",
      "Ĝ ĝ",
      "ĠĠĠĠĠĠĠĠ ĠĠ",
      "ĀĀ &",
      "$ \"",
      "Ğ !",
      "Ġ# ĝ",
      "ĠĜ !",
      "Ġ\"! ğ",
      "\" \"",
      "Ġĝ #",
      "Ġ$ !",
      "ĀĀ Ę",
      "ě ğ",
      "Ġğğ \"",
      "Ġ\"ğ ğ",
      "ĠĞğ !",
      "\" !",
      "ğ ğ",
      "ĠğĞ !",
      "Ġ Ĕ",
      "Ġ!! Ğ",
      "Ĝ #",
      "Ā )",
      "ĝ ğ",
      "ĀĀ (",
      "Ā ę",
      "ĀĀ ę",
      "Ġ ,",
      "ĀĀ '",
      "Ġ$ Ğ",
      "\" ğ",
      "$ ĝ",
      "Ġ# #",
      "ě !",
      "ĠĜ Ğ",
      "$ #",
      "Ġ!\" !",
      "Ġ$ ĝ",
      "Ġğ\" !",
      "% !",
      "Ā (",
      "ĀĀ ė",
      "Ġ!\" ğ",
      "ĠĞ! !",
      "Ġ!Ğ ğ",
      "% #",
      "% Ğ",
      "& !",
      "ĠĜ ĝ",
      "Ġě Ğ",
      "! ğ",
      "% ğ",
      "ĀĀ )",
      "ĠğĞ ğ",
      "# Ğ",
      "$ $",
      "ě \"",
      "ě Ğ",
      "ĀĀ Ė",
      "Ġ!! \"",
      "Ġ\"! !",
      "Ā Ę",
      "ĠĞ! ğ",
      "Ġğğ Ğ",
      "# \"",
      "ğ !",
      "Ġğ\" ğ",
      "% \"",
      "ĠĞğ ğ",
      "# !",
      "Ě ğ",
      "Ġ!ğ \"",
      "Ġ\"! Ğ",
      "! Ğ",
      "\" Ğ",
      "Ě !",
      "Ġ! Ĝ",
      "Ġğ! \"",
      "\" ĝ",
      "ĀĀ +",
      "Ġ!Ğ !",
      "Ě \"",
      "Ğ Ğ",
      "ğ Ğ",
      "ğ ĝ",
      "ĝ Ğ",
      "ğ #",
      "Ġ\"ğ !",
      "Ġ\"\" ğ",
      "Ġ -",
      "Ġ! $",
      "ĠĞ! \"",
      "& ĀĀ",
      "Ā ė",
      "ĠĞğ \"",
      "! ĝ",
      "' ĀĀ",
      "Ĝ Ĝ",
      "Ġğ! Ğ",
      "ĠĠĠĠĠĠĠĠ ĠĠĠĠĠĠĠĠ",
      "\" #",
      "Ĝ $",
      "& \"",
      "ě #",
      "ě ĝ",
      "! \"",
      "Ġ\"ğ Ğ",
      "% ĝ",
      "ĠĠĠĠ ĠĠĠĠĠ",
      "# #",
      "ě ě",
      "Ġ#ğ ğ",
      "! #",
      "$ ĀĀ",
      "% ĀĀ",
      "( ĀĀ",
      "Ġ!Ğ Ğ",
      "Ġ\"Ğ ğ",
      "ĀĀğ Ā",
      "% $",
      "& Ğ",
      "Ě #",
      "Ğ ĝ",
      "Ġ ē",
      "ĠĞ Ĝ",
      "Ġ$ #",
      "ĠĠĠĠĠĠĠĠ ĠĠĠĠĠ",
      "Ġğ\" \"",
      "ĠĞĞ !",
      "ĠĞ\" !",
      "' ğ",
      "Ě ĝ",
      "Ğ \"",
      "Ğ ğ",
      "ğ \"",
      "& ğ",
      "ę ğ",
      "ě $",
      "Ġ ĀĀ",
      "Ġ\" $",
      "Ġĝğ !",
      "Ġ .",
      "ĠĞ $",
      "ĠĜ \"",
      "Ġ!! ĝ",
      "Ġ!\" Ğ",
      "% Ĝ",
      "Ā *",
      "Ę ĝ",
      "Ġ!ğ ĝ",
      "Ġ\"Ğ !",
      "ĝ #",
      "Ġğ Ĝ",
      "Ġ% !",
      "Ġ#! ğ",
      "Ě Ĝ",
      "Ġ Ā",
      "Ġ\"\" Ğ",
      "\" $",
      "& #",
      "* ĀĀ",
      "Ě Ğ",
      "ĝ !",
      "Ġğ $",
      "Ġ\"! ĝ",
      "Ġĝ! !",
      "ĀĀĞ Ā",
      "ĀĀ\" Ā",
      "' !",
      ") ĀĀ",
      "ĝ $",
      "ğ Ĝ",
      "Ġğ ě",
      "Ġě !",
      "ĠğĞ Ğ",
      "ĠĞĞ ğ",
      "ĀĀ# Ā",
      "# $",
      "ę !",
      "ę Ğ",
      "ĝ \"",
      "Ġğ\" Ğ",
      "% &",
      "' \"",
      "ĀĀ ĕ",
      "Ġğğ #",
      "Ġ\"\" !",
      "ě Ĝ",
      "ğ ě",
      "Ġ Ē",
      "Ġ!\" \"",
      "Ġ\"Ğ Ğ",
      "Ġĝğ \"",
      "\" %",
      "$ Ĝ",
      "& &",
      "Ā +",
      "ė Ğ",
      "Ğ ě",
      "Ġ!! Ĝ",
      "ĠğĞ \"",
      "Ġ!ĝ ğ",
      "Ġ!# ğ",
      "\" Ĝ",
      "Ę ğ",
      "ĝ ĝ",
      "Ğ #",
      "Ġğ %",
      "Ġğ! #",
      "ĠĞğ #",
      "Ġ#! Ğ",
      "Ġ#\" ğ",
      "( \"",
      "ĀĀ ,",
      "ĠğĞ #",
      "ĠĞ! Ğ",
      "Ġ#ğ Ğ",
      "ĀĀ! Ā",
      "' #",
      "Ġ! &",
      "Ġĝ Ĝ",
      "Ġě ğ",
      "Ġ#! !",
      "Ġĝğ ğ",
      "( !",
      "ĀĀ -",
      "Ġ# $",
      "Ġğğ ĝ",
      "Ġ\"! \"",
      "ĠĞĞ \"",
      "Ġĝ! \"",
      "ĠĝĞ !",
      "! Ĝ",
      "( ğ",
      "ę ě",
      "Ě ě",
      "Ĝ ě",
      "Ğ $",
      "ĠĞ ě",
      "ĀĀ .",
      "ĀĀ Ē",
      "Ġĝ $",
      "Ġğ! ĝ",
      "ĠĠĠĠĠĠĠĠ ĠĠĠĠĠĠĠĠĠĠ",
      "ĠĞğ Ğ",
      "ĠĞ\" ğ",
      "Ġ!ĝ !",
      "Ġ!# !",
      "Ġ!# Ğ",
      "Ġğĝ ğ",
      "# &",
      "& ĝ",
      "' Ğ",
      "Ę Ğ",
      "ĝ Ĝ",
      "Ğ Ĝ",
      "ğ Ě",
      "ĠĠĠĠĠĠĠĠ ĠĠĠĠĠĠĠ",
      "Ġ#\" !",
      "ĀĀĜ Ā",
      "& $",
      ") ğ",
      "Ę \"",
      "ę Ĝ",
      "ĀĀ *",
      "ĀĀ ē",
      "ĠĜ Ĝ",
      "Ġě \"",
      "Ġ\"ğ ĝ",
      "ĠĞ! #",
      "Ġ\"\" ĝ",
      "Ġĝ! ğ",
      "ĀĀě Ā",
      "\" ě",
      "# ĝ",
      "& %",
      "& Ĝ",
      "Ę !",
      "Ġ /",
      "ĀĀ Ĕ",
      "Ġ\"ğ \"",
      "Ġ!Ğ ĝ",
      "Ġ#! ĝ",
      "Ġ!ĝ Ğ",
      "Ġğ# !",
      "Ġğ# Ğ",
      "Ġğ# ğ",
      "Ġğĝ Ğ",
      "Ġ\"# ğ",
      "Ġ#Ğ Ğ",
      "Ġ$ğ ğ",
      "# ě",
      "# Ĝ",
      ") !",
      "ę ĝ",
      "ğ $",
      "Ġ Ā!",
      "Ġ Ā\"",
      "Ġ! Ě",
      "Ġě ĝ",
      "Ġğ\" #",
      "Ġ\"Ğ ĝ",
      "ĀĀ! Ā!",
      "Ġĝ\" !",
      "ĠĞĝ !",
      "Ġĝĝ ğ",
      "ĀĀ% Ā",
      "$ ě",
      "% ě",
      "ė ĝ",
      "ė ğ",
      "Ġ Āğ",
      "Ġ\" Ĝ",
      "ĠĞ %",
      "ĀĀ /",
      "Ġ# ě",
      "Ġ# Ĝ",
      "Ġ% Ğ",
      "Ġ!Ğ \"",
      "ĠĞ\" \"",
      "Ġ#ğ !",
      "ĀĀ! Āğ",
      "ĀĀĞ Āğ",
      "Ġ$ğ Ğ",
      "! $",
      "$ &",
      "% '",
      "( $",
      "Ę Ĝ",
      "ę \"",
      "ğ '",
      "Ġ! $ğ",
      "Ġ!ğ Ĝ",
      "Ġ\"ğ Ĝ",
      "ĀĀğ Ā\"",
      "Ġğ# \"",
      "Ġğĝ !",
      "ĀĀĝ Ā\"",
      "Ġ\"# !",
      "Ġ\"ĝ !",
      "! %",
      "! Ě",
      "( %",
      "( Ĝ",
      "( ĝ",
      ", ĀĀ",
      "Ę $",
      "ě %",
      "ğ %",
      "ğ Ę",
      "Ġ 0",
      "ĀĀğ ĀĞ",
      "ĀĀĞ Ā#",
      "ĀĀĝ Ā",
      "ĀĀĜ Ā!",
      "Ġ#Ğ ğ",
      "Ġĝ\" ğ",
      "ĀĀ' Ā",
      ") \"",
      ") $",
      "Ā Ė",
      "Ė ĝ",
      "Ę #",
      "Ę ě",
      "ę #",
      "ę Ě",
      "Ğ Ě",
      "Ġ đ",
      "ĀĀ đ",
      "Ġ# #ğ",
      "Ġ!ğ #",
      "ĠĠĠĠĠĠĠĠ ĠĠĠĠĠĠĠĠĠĠĠĠ",
      "ĠĞ! ĝ",
      "Ġ\"\" \"",
      "ĀĀ! Ā\"",
      "ĀĀ# Ā!",
      "Ġ\"# Ğ",
      "ĠĝĞ \"",
      "ĠĞ# !",
      "Ġĝĝ !",
      "ĠĜğ \"",
      "Ġĝ# !",
      "! ě",
      "\" '",
      "\" Ě",
      "# Ě",
      "% Ě",
      "' $",
      "( #",
      "( Ğ",
      "ė !",
      "ę $",
      "ĝ ě",
      "ğ ę",
      "Ġ Āě",
      "Ġ! Ĝğ",
      "Ġ\" ě",
      "Ġ\" $Ğ",
      "Ġ!ğ $",
      "Ġğğ Ĝ",
      "ĠĚ ğ",
      "Ġ\"! Ĝ",
      "Ġ#! \"",
      "Ġ!# ĝ",
      "ĀĀ! ĀĞ",
      "ĀĀ\" Ā!",
      "Ġğĝ \"",
      "ĀĀĝ Ā!",
      "ĀĀĝ Āğ",
      "ĀĀĝ ĀĞ",
      "ĀĀĝ Ā#",
      "Ġ\"# ĝ",
      "ĠĝĞ ğ",
      "ĠĞ# \"",
      "Ġ$! ğ",
      "Ġ$Ğ ğ",
      "\" &",
      "$ %",
      "& ě",
      "' &",
      "' '",
      "' ĝ",
      "( &",
      "* !",
      "* #",
      "+ ĀĀ",
      "ė \"",
      "ė Ě",
      "Ĝ Ě",
      "ĝ %",
      "ĝ Ě",
      "Ġ ĀĜ",
      "Ġ! ě",
      "Ġ\" %",
      "Ġ\" $ğ",
      "Ġĝ %",
      "ĠĜ #",
      "Ġ!! #",
      "Ġ% #",
      "Ġğ! $",
      "Ġ\"! #",
      "ĠğĞ ĝ",
      "Ġ!\" ĝ",
      "ĀĀğ Āğ",
      "ĀĀğ Ā#",
      "Ġĝğ #",
      "Ġ#ğ Ĝ",
      "Ġĝ! #",
      "ĀĀ! Āĝ",
      "ĀĀĞ Ā!",
      "ĀĀ\" Āğ",
      "ĀĀ\" Ā$",
      "ĀĀ# Ā\"",
      "Ġ\"ĝ Ğ",
      "Ġ\"ĝ ğ",
      "! &",
      "# ĀĀ",
      "' %",
      "' (",
      "* \"",
      "+ !",
      "ę %",
      "Ě Ě",
      "ĝ &",
      "Ğ %",
      "Ġ ĀĞ",
      "Ġ Āĝ",
      "Ġğ $!",
      "Ġğ Ĝ\"",
      "Ġ\" $!",
      "Ġ# %",
      "Ġ# $Ğ",
      "ĠĜ !!",
      "Ġğğ $",
      "Ġğ! %",
      "Ġ!\" #",
      "Ġ!Ğ #",
      "Ġ\"Ğ Ĝ",
      "Ġ#! #",
      "ĀĀğ Ā!",
      "ĀĀğ ĀĜ",
      "ĀĀĞ Ā\"",
      "ĀĀĞ Ā%",
      "ĀĀ\" Āĝ",
      "Ġ#\" Ğ",
      "Ġ#Ğ !",
      "Ġ#Ğ ĝ",
      "ĀĀ& Ā",
      "ĠĜ! \"",
      "Ġ$! Ğ",
      "ĀĀĘ Ā",
      "$ Ě",
      "* '",
      "ĕ ĝ",
      "Ė !",
      "ė ė",
      "ę Ė",
      "Ě %",
      "ĝ )",
      "Ğ )",
      "Ġ! %",
      "Ġğ Ĝğ",
      "Ġğ $Ğ",
      "Ġ\" &",
      "Ġ\" Ě",
      "ĠĞ Ĝ!",
      "Ġ$ %",
      "Ġ$ Ĝ",
      "ĠĜ Ğ!",
      "Ġ% ğ",
      "Ġğ\" ĝ",
      "ĠĞĞ Ğ",
      "ĀĀğ Ā%",
      "Ġ!# \"",
      "Ġ#ğ ĝ",
      "ĀĀ! Ā#",
      "ĀĀ! Ā$",
      "ĀĀ! ĀĜ",
      "ĀĀĝ Āĝ",
      "Ġĝ\" \"",
      "ĀĀ$ Āĝ",
      "Ġĝĝ Ğ",
      "Ġ$\" !",
      "Ġ$\" ĝ",
      "Ġ$\" Ğ",
      "ĠĜğ !",
      "Ġ## Ğ",
      "# %",
      "& (",
      "& ĀĀě",
      ") %",
      ") ĝ",
      "Ā ,",
      "ĕ Ĝ",
      "ĕ ĀĀ",
      "Ė \"",
      "Ė #",
      "Ė Ĝ",
      "Ė Ğ",
      "ė Ĝ",
      "Ğ ę",
      "ğ &",
      "Ġ Ā$",
      "Ġ! '",
      "Ġğ Ě",
      "Ġ\" Ĝğ",
      "ĠĞ Ě",
      "ĠĞ Ĝ\"",
      "Ġ$ ě",
      "Ġ$ Ğ!",
      "Ġ!! $",
      "Ġ\"ğ #",
      "ĠĞ! $",
      "Ġ\"Ğ \"",
      "ĠĞĞ #",
      "ĠĞ\" #",
      "ĀĀğ Āĝ",
      "ĀĀğ Ā$",
      "ĀĀğ Āě",
      "Ġ!ĝ \"",
      "Ġ!ĝ #",
      "ĀĀĞ ĀĞ",
      "ĀĀĞ Ā$",
      "ĀĀ\" Ā\"",
      "ĀĀ\" ĀĞ",
      "ĀĀ\" Ā#",
      "Ġĝ\" #",
      "Ġ\"ĝ \"",
      "ĀĀ$ Ā\"",
      "ĀĀĚ Ā",
      "ĀĀĚ Āğ",
      "Ġ$\" ğ",
      "Ġ#ĝ Ğ",
      "Ġĝ# \"",
      "! ę",
      "\" ę",
      "( ě",
      "* $",
      "* (",
      "* Ğ",
      "Ĕ ě",
      "Ė ě",
      "Ę ę",
      "Ę ĀĀ",
      "Ĝ Ę",
      "Ĝ ę",
      "Ğ (",
      "ğ ĕ",
      "Ġ Đ",
      "Ġ Ā#",
      "Ġ! Ĝ!",
      "Ġ! $!",
      "Ġ! ěğ",
      "Ġğ &",
      "Ġğ ĜĞ",
      "Ġ\" ĜĞ",
      "Ġ\" $ĝ",
      "Ġ# ĜĞ",
      "Ġ$ !!",
      "ĠĜ $",
      "ĠĜ ě",
      "ĠĜ \"ğ",
      "Ġ% \"",
      "ĠĚ ĝ",
      "ĠĞ\" Ğ",
      "ĀĀ\" ĀĜ",
      "Ġğ# ĝ",
      "ĀĀĝ Ā$",
      "ĀĀĝ ĀĜ",
      "ĀĀ# ĀĞ",
      "ĀĀ# Ā$",
      "ĀĀĜ Āĝ",
      "Ġĝ\" ĝ",
      "ĠĞĝ Ğ",
      "ĠĞ# #",
      "ĠĞ# ğ",
      "ĀĀĚ ĀĞ",
      "ĀĀę Ā",
      "ĀĀę Ā!",
      "ĀĀĖ Ā$",
      "! (",
      "' ě",
      ") &",
      ") *",
      "* +",
      ". ĀĀ",
      "Ĕ Ĝ",
      "Ė ğ",
      "ė $",
      "ė ę",
      "ė ě",
      "Ę &",
      "Ę Ė",
      "ę ę",
      "Ĝ %",
      "Ĝ Ĕ",
      "Ġ ď",
      "Ġ Ā%",
      "Ġ! $\"",
      "Ġ! $#",
      "Ġğ $ğ",
      "Ġğ $\"",
      "ĠĞ Ĝğ",
      "ĠĞ $!",
      "ĠĞ $Ğ",
      "Ġ# $ğ",
      "ĠĜ \"\"",
      "Ġ% Ğ!",
      "Ġ% ğĞ",
      "Ġğ! ě",
      "ĠĠĠĠĠĠĠĠ ĠĠĠĠĠĠ",
      "ĠĠĠĠĠĠĠĠ ĠĠĠĠĠĠĠĠĠĠĠ",
      "Ġ& $",
      "Ġ\"! ě",
      "Ġę Ğ",
      "Ġ\"ğ $",
      "ĠĞğ $",
      "ĠĞğ ĝ",
      "Ġ!Ğ $",
      "Ġğ\" $",
      "ĠĘ Ğ",
      "Ġ!ĝ ĝ",
      "ĀĀĞ Āĝ",
      "ĀĀĞ ĀĜ",
      "ĀĀĞ Ā&",
      "ĀĀĞ Āě",
      "Ġğ# #",
      "ĀĀĜ Ā#",
      "ĠĝĞ #",
      "ĠĞĝ \"",
      "Ġ$ğ ĝ",
      "ĀĀ$ Ā!",
      "ĀĀĚ Ā!",
      "ĀĀĚ Ā\"",
      "ĀĀĚ Ā#",
      "Ġĝĝ \"",
      "ĀĀ% Āğ",
      "ĠĜğ ğ",
      "ĀĀ& Āğ",
      "Ġ$! ĝ",
      "ĀĀ( Ā",
      "Ġ$Ğ ĝ",
      "ĠĜĝ !",
      "Ġ$# Ĝ",
      "! '",
      "\" +",
      "\" Ę",
      "% ę",
      "& )",
      "' Ě",
      "( )",
      "( Ě",
      ") -",
      "+ '",
      "Ā ĕ",
      "Ē ĝ",
      "Ĕ ĝ",
      "ĕ \"",
      "ĕ Ğ",
      "Ė ę",
      "ė ĕ",
      "ė Ę",
      "ė ĀĀ",
      "Ę %",
      "Ě &",
      "Ě Ę",
      "Ĝ '",
      "Ĝ (",
      "ĝ Ė",
      "Ġğ Ĝ#",
      "Ġ\" Ĝ!",
      "Ġ\" %Ğ",
      "Ġĝ ě",
      "Ġĝ $!",
      "Ġ$ $",
      "Ġ$ #ğ",
      "Ġ$ %ğ",
      "Ġě !!",
      "Ġě \"ğ",
      "Ġğğ %",
      "Ġğğ &",
      "Ġ% !!",
      "Ġğ! Ĝ",
      "Ġ& !",
      "Ġ& \"",
      "Ġ& ĝ",
      "Ġ& ğğ",
      "Ġ' !",
      "Ġ' \"",
      "Ġ\"! Ě",
      "ĠğĞ $",
      "ĠĞ! Ĝ",
      "Ġ!\" ě",
      "Ġ\"Ğ #",
      "ĠĞ\" $",
      "ĠĞ\" ĝ",
      "ĀĀğ ĀĚ",
      "Ġ!ĝ $",
      "Ġĝğ ĝ",
      "Ġ!# #",
      "Ġĝ! $",
      "Ġĝ! Ğ",
      "ĀĀ! Ā%",
      "ĀĀ! Āě",
      "ĀĀ! Āę",
      "ĀĀ\" Ā&",
      "ĀĀ\" Ā'",
      "ĀĀ# Āğ",
      "ĀĀ# Āĝ",
      "ĀĀ# ĀĜ",
      "Ġ#\" \"",
      "Ġ\"# Ĝ",
      "ĀĀĜ ĀĜ",
      "Ġ#Ğ \"",
      "Ġ#Ğ ě",
      "Ġ\"ĝ ĝ",
      "Ġ$ğ !",
      "ĠĞ# Ğ",
      "ĀĀ$ Āğ",
      "ĀĀĚ Ā&",
      "ĀĀ% Ā&",
      "ĠĜğ #",
      "ĀĀ& Ā\"",
      "ĀĀ& Āĝ",
      "ĀĀ& ĀĜ",
      "Ġ#ĝ ĝ",
      "ĀĀ' Āğ",
      "Ġ## !",
      "Ġ$ĝ Ğ",
      "ĠěĞ ğ",
      "ĀĀĖ Ā\"",
      "# (",
      "$ (",
      "$ ę",
      "% %",
      "% Ę",
      "' +",
      ") #",
      ") (",
      "* *",
      "+ Ĝ",
      "ē ĀĀ",
      "Ĕ #",
      "ĕ !",
      "ĕ ğ",
      "Ė ė",
      "ė #",
      "ė &",
      "Ę '",
      "Ę ĕ",
      "ę ĀĀ",
      "ě &",
      "ě ę",
      "ĝ (",
      "ĝ ,",
      "Ğ ė",
      "Ğ Ę",
      "ğ +",
      "Ġ 2",
      "Ġ! ĜĞ",
      "Ġ! $ĝ",
      "Ġğ ę",
      "Ġğ $#",
      "Ġğ %Ğ",
      "Ġ\" ę",
      "Ġ\" ěğ",
      "ĠĞ $#",
      "ĀĀ ď",
      "Ġĝ &",
      "Ġĝ Ĝ!",
      "Ġ$ #Ğ",
      "ĠĜ \"!",
      "Ġě Ĝğ",
      "Ġě Ĝ!",
      "Ġ!! ě",
      "Ġ!ğ ě",
      "Ġğğ ě",
      "Ġ% $",
      "Ġ% \"!",
      "Ġ% ğě",
      "Ġ& ě",
      "Ġ& ğ",
      "ĠĚ !",
      "Ġę #",
      "Ġ\"ğ ě",
      "ĠğĞ Ĝ",
      "Ġ!Ğ ě",
      "Ġ!Ğ Ĝ",
      "Ġ\"\" #",
      "Ġ#! Ĝ",
      "ĀĀğ Ā'",
      "Ġĝğ Ğ",
      "Ġ!# Ĝ",
      "ĀĀ! ĀĚ",
      "ĀĀ\" Āě",
      "ĀĀ\" ĀĚ",
      "Ġğĝ #",
      "ĀĀĝ Ā%",
      "Ġ#\" ĝ",
      "ĀĀĜ Ā\"",
      "ĀĀĜ Āğ",
      "ĀĀĜ ĀĞ",
      "ĀĀĜ Ā$",
      "ĀĀĜ Ā'",
      "Ġĝ\" Ğ",
      "Ġ\"ĝ Ĝ",
      "ĠĞĝ ğ",
      "ĠĞ# ĝ",
      "ĀĀ$ Ā",
      "ĀĀ$ ĀĞ",
      "ĀĀ$ ĀĜ",
      "ĀĀě Ā\"",
      "ĀĀě ĀĞ",
      "ĀĀ% ĀĞ",
      "ĀĀ% Ā#",
      "Ġ#ĝ !",
      "ĠĜ! ğ",
      "Ġĝ# Ğ",
      "ĀĀĘ ĀĜ",
      "Ġ$Ğ Ğ",
      "Ġ## \"",
      "Ġ## ĝ",
      "ĠĜĞ \"",
      "Ġ$ĝ \"",
      "ĠĜĝ ĝ",
      "ĠĜĝ Ğ",
      "ĀĀ) Ā",
      "! +",
      "\" ĕ",
      "\" ĀĀ",
      "$ '",
      "' Ę",
      "' Ĝ",
      "( *",
      "( ,",
      ") )",
      ") Ğ",
      ") ĀĀ)",
      "* ĝ",
      ". $",
      "/ #",
      "č Ġ",
      "ĕ Ě",
      "Ę Ē",
      "Ę Ĕ",
      "Ę Ě",
      "ę ė",
      "Ě $",
      "Ě ė",
      "ě ,",
      "Ĝ &",
      "Ĝ )",
      "Ĝ ė",
      "ĝ +",
      "ĝ ē",
      "ĝ Ę",
      "ĝ ę",
      "Ğ '",
      "Ġ Ā&",
      "Ġ Ā'",
      "Ġ ĀĚ",
      "Ġ Āę",
      "Ġ! $Ğ",
      "Ġ! Ĝĝ",
      "Ġ! %Ğ",
      "Ġ! %\"",
      "Ġğ Ĝĝ",
      "Ġ\" &Ğ",
      "ĠĞ &",
      "ĠĞ ěĝ",
      "ĀĀ ć",
      "Ġĝ (",
      "Ġĝ Ĝğ",
      "Ġ$ &",
      "Ġ$ Ĝ!",
      "Ġ$ $!",
      "Ġ$ $Ğ",
      "ĠĜ Ĝ\"",
      "ĠĜ ě#",
      "Ġě #",
      "Ġě $",
      "Ġě Ĝ",
      "Ġě \"\"",
      "Ġě !ğ",
      "Ġě ĝĞ",
      "Ġě !#",
      "Ġ% ĝğ",
      "Ġ% \"ğ",
      "Ġ% !ğ",
      "Ġ% !Ğ",
      "Ġ% Ğĝ",
      "Ġ& Ĝĝ",
      "Ġ& ĝğ",
      "Ġ& ğĝ",
      "ĠĚ #",
      "ĠĚ Ğ",
      "Ġę !",
      "Ġ!\" $",
      "Ġ!\" Ĝ",
      "Ġğ\" %",
      "ĠĞĞ ĝ",
      "Ġ#! ě",
      "ĀĀğ ĀĘ",
      "Ġĝ! Ĝ",
      "Ġĝ! ĝ",
      "ĀĀ! Ā&",
      "Ġğ# Ĝ",
      "ĀĀĝ Ā&",
      "ĀĀĝ Ā)",
      "Ġ#\" Ĝ",
      "ĀĀĜ Ā%",
      "ĀĀĜ Āě",
      "ĀĀ$ Ā#",
      "ĀĀ$ Ā&",
      "ĀĀ$ Āě",
      "ĀĀ$ ĀĚ",
      "ĀĀě Āğ",
      "ĀĀě Ā#",
      "ĀĀ% Ā$",
      "ĀĀ& ĀĞ",
      "Ġĝ# ĝ",
      "ĀĀĘ Ā\"",
      "ĀĀĘ Āğ",
      "ĀĀĘ Ā#",
      "ĀĀĘ Āě",
      "ĀĀ( Ā#",
      "ĀĀę Ā\"",
      "ĀĀę Āğ",
      "Ġ$ĝ !",
      "ĀĀė Ā!",
      "ĀĀ) Ā#",
      "ĀĀ+ Ā",
      "Ġ$# ĝ",
      "Ġ%! ě",
      "! ĀĀ",
      "\" (",
      "$ Ė",
      "% Ĕ",
      "' )",
      "' ę",
      ") ě",
      "* ě",
      "* ğ",
      "+ #",
      "+ $",
      "+ %",
      ", #",
      ", $",
      "- )",
      "/ ĀĀ",
      "Ē ě",
      "ē #",
      "Ĕ ğ",
      "ĕ $",
      "ĕ Ĕ",
      "ĕ ĕ",
      "Ė $",
      "Ė )",
      "Ė Ě",
      "ė %",
      "Ĝ .",
      "Ĝ ĕ",
      "Ĝ ĀĀ",
      "ğ ė",
      "Ġ Ď",
      "Ġ! Ĝ\"",
      "Ġ! %!",
      "Ġ! &ğ",
      "Ġğ ě\"",
      "Ġğ Ě!",
      "Ġ\" Ĝ\"",
      "Ġ\" ě!",
      "ĠĞ ę",
      "ĠĞ ě!",
      "ĠĞ %!",
      "ĠĞ &!",
      "ĀĀ ;",
      "Ġĝ ĜĞ",
      "Ġĝ #ğ",
      "Ġĝ Ĝĝ",
      "Ġĝ Ĝ#",
      "Ġĝ &Ğ",
      "Ġ# &",
      "Ġ# Ě",
      "Ġ# Ĝğ",
      "Ġ# $!",
      "Ġ# $ĝ",
      "Ġ$ Ĝğ",
      "Ġ$ Ĝĝ",
      "Ġ$ ĝğ",
      "Ġ$ ĜĜ",
      "ĠĜ &",
      "ĠĜ Ě",
      "ĠĜ #ğ",
      "ĠĜ Ě!",
      "Ġě #ğ",
      "Ġě ğğ",
      "Ġě #\"",
      "Ġ!ğ %",
      "Ġ% Ě",
      "Ġ% ě",
      "Ġ% ĝ",
      "Ġ% Ĝ!",
      "Ġ% $ğ",
      "Ġ% $!",
      "Ġ% \"\"",
      "Ġ% #Ğ",
      "Ġ% \"Ğ",
      "Ġ% ĞĞ",
      "Ġ% ğĝ",
      "Ġğ! &",
      "Ġ& \"ğ",
      "Ġ& #!",
      "ĠĚ $",
      "ĠĚ Ĝ",
      "ĠĚ \"%",
      "Ġ' ĝ",
      "Ġ\"! $",
      "Ġę ĝ",
      "Ġę ğ",
      "Ġğ\" Ĝ",
      "ĠĘ !",
      "ĠĘ ğ",
      "Ġ( \"",
      "Ġ\"Ğ %",
      "ĠĞĞ Ĝ",
      "ĠĞ\" Ĝ",
      "ĀĀğ Āę",
      "ĀĀğ Ā(",
      "Ġ!ĝ ě",
      "Ġ!ĝ Ĝ",
      "Ġĝğ $",
      "Ġĝğ Ĝ",
      "Ġ#ğ \"",
      "Ġ#ğ #",
      "Ġĝ! %",
      "ĀĀ! Ā'",
      "ĀĀĞ ĀĚ",
      "ĀĀĞ ĀĘ",
      "ĀĀ\" Ā%",
      "Ġğĝ ĝ",
      "ĀĀĝ Āě",
      "ĀĀĝ ĀĚ",
      "ĀĀ# Ā#",
      "ĀĀ# Ā&",
      "ĀĀ# Ā'",
      "Ġ#\" ě",
      "Ġ\"# \"",
      "ĀĀĜ Ā&",
      "ĀĀĜ ĀĚ",
      "Ġ\"ĝ #",
      "ĠĞĝ #",
      "ĠĞĝ ě",
      "ĠĞĝ ĝ",
      "Ġ$ğ \"",
      "Ġ$ğ ě",
      "ĀĀ$ Ā%",
      "ĀĀĚ Ā$",
      "ĀĀĚ ĀĜ",
      "ĀĀĚ Ā%",
      "ĠĠĠĠĠĠĠĠĠĠĠĠ ĠĠĠĠĠ",
      "ĀĀě Āĝ",
      "ĀĀě Ā$",
      "ĀĀě Ā'",
      "ĀĀ% ĀĜ",
      "ĀĀ% Āě",
      "ĠĜğ Ğ",
      "ĀĀ& Ā#",
      "ĀĀ& Ā&",
      "ĠĜ! #",
      "ĠĜ! Ğ",
      "Ġĝ# #",
      "ĀĀ( Ā$",
      "ĀĀę Āě",
      "ĀĀ' Ā\"",
      "Ġ$ĝ Ĝ",
      "ĀĀė Ā&",
      "ĠĜĝ \"",
      "ĠĜĝ #",
      "ĀĀ) Ā%",
      "Ġ!Ĝ Ĝ",
      "ĀĀ+ Ā\"",
      "ĠĠĠĠĠĠĠĠĠĠĠĠĠĠĠĠ ĠĠĠĠĠĠĠĠĠĠĠĠĠĠĠĠ",
      "Ġě! ě",
      "ĠĠĠĠĠĠĠĠĠĠĠĠĠĠĠĠĠĠĠĠ ĠĠĠĠĠ",
      "! )",
      "! ė",
      "! Ę",
      "# '",
      "# )",
      "# +",
      "# ē",
      "# ė",
      "$ ,",
      "$ Ę",
      "% Ė",
      "& '",
      "& +",
      "& ė",
      "& Ę",
      ") Ĝ",
      ", -",
      "- *",
      "- Ğ",
      "- Āğ",
      ". &",
      "Ā -",
      "Ā .",
      "Ē !",
      "Ē &",
      "Ē ę",
      "ē ę",
      "ē Ě",
      "ē Ğ",
      "Ĕ ĕ",
      "Ĕ ė",
      "Ė Ė",
      "Ė ĀĀ",
      "ė )",
      "ė *",
      "Ę +",
      "Ę Ę",
      "Ě )",
      "Ě ĕ",
      "Ě ę",
      "ě )",
      "ě ē",
      "ě Ĕ",
      "ě ĕ",
      "ě ĀĀ",
      "ĝ '",
      "Ğ ĀĀ",
      "ğ (",
      "ğ ē",
      "Ġ Ā)",
      "Ġ Ā(",
      "Ġ Āė",
      "Ġ ĀĀ!Ā\"",
      "Ġ! (",
      "Ġ! %#",
      "Ġ! %ğ",
      "Ġ! $$",
      "Ġ! ě\"",
      "Ġ! ěĞ",
      "Ġğ $ĝ",
      "Ġğ ě!",
      "Ġğ %!",
      "Ġğ %#",
      "Ġğ %ğ",
      "Ġğ ĜĜ",
      "Ġğ Ěĝ",
      "Ġğ ę!",
      "Ġ\" Ĝĝ",
      "Ġ\" $\"",
      "ĠĞ )",
      "ĠĞ Ę",
      "ĠĞ $ğ",
      "ĠĞ ěğ",
      "ĠĞ Ěğ",
      "Ġĝ Ĝ\"",
      "Ġĝ ě!",
      "Ġĝ %!",
      "Ġ# '",
      "Ġ# Ę",
      "Ġ# ĀĀ",
      "Ġ# Ĝĝ",
      "Ġ# %Ğ",
      "Ġ# Ěğ",
      "Ġ# &ğ",
      "Ġ$ Ĝ\"",
      "Ġ$ ĜĞ",
      "Ġ$ ěğ",
      "Ġ$ Ĝ#",
      "Ġ$ $ĝ",
      "Ġ$ #\"",
      "ĠĜ %",
      "ĠĜ Ĝ!",
      "ĠĜ $ğ",
      "ĠĜ ĜĞ",
      "ĠĜ Ĝĝ",
      "ĠĜ ěğ",
      "ĠĜ ĝğ",
      "ĠĜ \"ĝ",
      "Ġě Ĝ#",
      "Ġě !Ğ",
      "Ġě ğĝ",
      "Ġě \"#",
      "Ġě ğ\"",
      "Ġ!ğ Ě",
      "Ġ% $Ğ",
      "Ġ% ĜĞ",
      "Ġ% ě\"",
      "Ġ% #!",
      "Ġ% !ĝ",
      "Ġ% Ğě",
      "Ġ% \"Ĝ",
      "Ġğ! Ě",
      "Ġ& %",
      "Ġ& Ĝ",
      "Ġ& Ğ",
      "Ġ& !!",
      "Ġ& ğě",
      "ĠĚ &",
      "ĠĚ ğğ",
      "ĠĚ \"#",
      "ĠĚ !\"",
      "ĠĚ ğ\"",
      "ĠĚ Ğě",
      "Ġ' #",
      "Ġ' #\"",
      "Ġ!Ğ %",
      "Ġ( ĝ",
      "Ġ( !ĝ",
      "Ġ\"\" $",
      "Ġ\"\" ě",
      "Ġ\"\" Ĝ",
      "Ġ\"Ğ $",
      "Ġ\"Ğ ě",
      "ĠĞĞ ě",
      "ĀĀğ Ā&",
      "ĀĀğ Ā)",
      "Ġ!# $",
      "Ġ#ğ Ě",
      "Ġĝ! &",
      "ĀĀĞ Ā'",
      "ĀĀ\" Ā)",
      "ĀĀ\" Āę",
      "Ġğ# $",
      "Ġğĝ $",
      "ĀĀ# Ā%",
      "ĀĀ# Āę",
      "ĀĀ# Āė",
      "Ġ#\" #",
      "ĀĀĜ Ā)",
      "ĠĝĞ %",
      "ĠĝĞ Ĝ",
      "ĠĝĞ Ğ",
      "Ġ#Ğ #",
      "Ġ#Ğ Ĝ",
      "Ġ\"ĝ $",
      "Ġ$ğ Ĝ",
      "ĠĞ# $",
      "ĀĀĚ Āĝ",
      "ĀĀĚ Ā(",
      "Ġĝĝ #",
      "ĀĀě Ā!",
      "ĀĀě ĀĜ",
      "ĀĀě Ā%",
      "ĀĀ% Ā!",
      "ĀĀ% Ā\"",
      "ĀĀ% Āĝ",
      "Ġ$\" \"",
      "Ġ$\" #",
      "ĀĀ& Ā!",
      "Ġ#ĝ \"",
      "Ġ#ĝ ğ",
      "\"\" ĀĀ",
      "Ġ$! \"",
      "ĀĀĘ Ā!",
      "ĀĀĘ ĀĞ",
      "ĀĀ( ĀĜ",
      "ĀĀ( Ā%",
      "ĀĀ( Ā'",
      "ĀĀ( ĀĚ",
      "ĀĀ' ĀĞ",
      "ĀĀ' Āĝ",
      "ĠĜĞ #",
      "ĠĜĞ $",
      "ĠĜĞ %",
      "ĠĜĞ ĝ",
      "ĠĜĞ ğ",
      "ĀĀė ĀĞ",
      "ĀĀė Ā%",
      "&! ĀĀ",
      "ĠěĞ %",
      "ĀĀ) Ā!",
      "ĀĀ) Āğ",
      "ĀĀĖ Ā!",
      "ĀĀĖ ĀĞ",
      "ĀĀĖ Āĝ",
      "ĀĀĖ Ā(",
      "ĀĀ+ Ā!",
      "ĀĀ+ Ā$",
      "&ĀĀ *",
      "(ĀĀ Ē",
      "ĠğĜ ě",
      "Ġě! $",
      "ĀĀ#Ā Ė",
      "ĀĀ, Ā!",
      "ĀĀ, Ā\"",
      "ĀĀ- Ā",
      "\" Ė",
      "# ĕ",
      "# ę",
      "$ )",
      "$ ė",
      "% )",
      "& Ĕ",
      "& ę",
      "& ĀĀ'",
      "' *",
      "( '",
      "( -",
      "( .",
      "( ĕ",
      "( ę",
      ") ĀĀ!Ā",
      "* %",
      "* -",
      "* Ě",
      "+ *",
      ", \"",
      "- !",
      "- \"",
      "- '",
      "- ĝ",
      "- ĀĀ",
      "/ !",
      "/ )",
      "/ ğ",
      "Ā /",
      "ď Ā!",
      "Đ Ā$",
      "đ '",
      "Ē ğ",
      "ē $",
      "ē ĕ",
      "ē Ę",
      "ē ĝ",
      "Ĕ \"",
      "Ĕ Ē",
      "Ĕ Ę",
      "Ĕ Ě",
      "Ĕ ĀĀ",
      "ĕ #",
      "ĕ Ę",
      "Ė %",
      "Ė ĕ",
      "ę &",
      "Ě ĀĀ",
      "ě đ",
      "ě Ė",
      "ě ė",
      "ě Ę",
      "ě Ě",
      "Ĝ Ė",
      "ĝ Đ",
      "ĝ ĕ",
      "Ğ Ē",
      "Ğ ē",
      "ğ Ē",
      "ğ Ė",
      "ğ !!",
      "Ġ 1",
      "Ġ ĀĘ",
      "Ġ ĀĀ+",
      "Ġ! ĀĀ",
      "Ġ! ě!",
      "Ġ! &!",
      "Ġ! Ěğ",
      "Ġ! Ě!",
      "Ġ! Ě\"",
      "Ġ! ěĝ",
      "Ġ! &#",
      "Ġ! ěĜ",
      "Ġğ '",
      "Ġğ (",
      "Ġğ -",
      "Ġğ Ę",
      "Ġğ Ĝ!",
      "Ġğ ěğ",
      "Ġğ $$",
      "Ġğ Ĝ$",
      "Ġğ ěĝ",
      "Ġğ %ĝ",
      "Ġ\" '",
      "Ġ\" ěĞ",
      "Ġ\" %\"",
      "Ġ\" Ě\"",
      "Ġ\" ĜĜ",
      "Ġ\" Ĝ$",
      "Ġ\" &\"",
      "Ġ\" &&",
      "ĠĞ $\"",
      "ĠĞ $ĝ",
      "ĠĞ %#",
      "ĠĞ Ĝ$",
      "ĠĞ %ĝ",
      "ĠĞ %Ĝ",
      "ĠĞ &#",
      "ĀĀ Ĉ",
      "Ġĝ ė",
      "Ġĝ ę",
      "Ġĝ Ě",
      "Ġĝ $\"",
      "Ġĝ &!",
      "Ġĝ Ě\"",
      "Ġĝ ĜĜ",
      "Ġĝ ěĝ",
      "Ġ# Ĝ!",
      "Ġ# $$",
      "Ġ# %\"",
      "Ġ# %ĝ",
      "Ġ$ $ğ",
      "Ġ$ $\"",
      "Ġ$ %!",
      "Ġ$ ěĞ",
      "Ġ$ Ě!",
      "Ġ$ ěĝ",
      "ĠĜ $Ğ",
      "ĠĜ %#",
      "ĠĜ \"Ğ",
      "ĠĜ \"#",
      "ĠĜ Ęĝ",
      "ĠĜ $Ĝ",
      "Ġě %",
      "Ġě ě",
      "Ġě $ğ",
      "Ġě ĜĞ",
      "Ġě Ğ!",
      "Ġě &!",
      "Ġě \"ĝ",
      "Ġě !\"",
      "Ġě ęğ",
      "Ġě ĝ!",
      "Ġ!! Ę",
      "Ġ!! ę",
      "Ġ% ğğ",
      "Ġ% %Ğ",
      "Ġ% \"ĝ",
      "Ġ% ĝĞ",
      "Ġ% Ğğ",
      "Ġ% ĝĜ",
      "Ġ& Ğ!",
      "Ġ& #Ğ",
      "Ġ& ğ!",
      "Ġ& !Ğ",
      "Ġ& \"ĝ",
      "Ġ& Ğĝ",
      "ĠĚ $ğ",
      "ĠĚ !!",
      "ĠĚ Ğ!",
      "ĠĚ ĝğ",
      "ĠĚ $ĝ",
      "ĠĚ %!",
      "ĠĚ \"Ğ",
      "ĠĚ Ğ\"",
      "ĠĚ %&",
      "ĠĚ Ğ#",
      "Ġ' $",
      "Ġ' Ğ",
      "Ġ' !!",
      "Ġ' \"!",
      "Ġ' #Ğ",
      "Ġ\"ğ ę",
      "ĠğĞ %",
      "ĠĞ! %",
      "ĠĞ! ě",
      "ĠĞğ Ě",
      "Ġ!\" %",
      "ĠĘ #",
      "ĠĘ '",
      "ĠĘ Ĝ",
      "Ġ( !",
      "Ġ( #!",
      "ĠĞ\" %",
      "ĠĞ\" Ě",
      "ĠĞ\" ě",
      "Ġ#! Ě",
      "ĀĀğ Āė",
      "Ġ!ĝ &",
      "Ġė \"\"",
      "Ġė !ğ",
      "Ġ#ğ ę",
      "ĀĀĞ Āė",
      "ĀĀ\" ĀĘ",
      "ĀĀ\" Āė",
      "Ġğĝ %",
      "ĀĀĝ Ā'",
      "Ġ* !ĝ",
      "ĀĀĜ ĀĘ",
      "ĠĝĞ ĝ",
      "Ġĝ\" $",
      "Ġĝ\" %",
      "ĠĞĝ Ĝ",
      "ĠĞ# Ĝ",
      "ĀĀ$ Ā$",
      "ĀĀ$ Ā+",
      "ĀĀĚ ĀĚ",
      "ĀĀĚ Ā)",
      "Ġĝĝ Ĝ",
      "ĠĜğ $",
      "ĠĜğ ĝ",
      "ĠĜ! %",
      "Ġ$! ě",
      "ĀĀĘ Āĝ",
      "ĀĀĘ Ā$",
      "Ĝ# ĀĀ",
      "ĀĀ( Ā!",
      "ĀĀ( ĀĞ",
      "ĀĀ( Āĝ",
      "ĀĀ( Ā&",
      "ĀĀ( Āė",
      "ĀĀę ĀĞ",
      "ĀĀę Ā&",
      "ĀĀ' Ā&",
      "ĀĀ' Āě",
      "Ġ## Ĝ",
      "Ġ$ĝ ĝ",
      "ĀĀė Ā\"",
      "ĀĀė Āğ",
      "ĀĀė ĀĜ",
      "ĀĀė Āě",
      "ĀĀė Ā'",
      "ĀĀė Ā)",
      "ĠĜĝ ě",
      "ĠěĞ $",
      "ĠěĞ Ğ",
      "!ğ %",
      "ĀĀ) Āĝ",
      "ĀĀ) ĀĜ",
      "#! ĀĀ",
      "Ġ!Ĝ ě",
      "ĀĀ+ Ā%",
      "ĀĀ+ ĀĚ",
      "'ĀĀ *",
      "'ĀĀ ĕ",
      "%ĀĀ *",
      "%ĀĀ -",
      "ĠĀĀ *",
      "ĠĞ$ %",
      "ĠĜ\" &",
      "Ġ%! Ĝ",
      "ĀĀĞĀ ĕ",
      "ĀĀĕ Āğ",
      "ĀĀĕ ĀĞ",
      "ĀĀĕ Ā%",
      "ĀĀ, Ā+",
      "ĀĀ* Āğ",
      "ĀĀ/ Ā",
      "ĀĀ/ Ā!",
      "ĀĀ/ Ā#",
      "! ē",
      "! Ĕ",
      "! Ė",
      "! Ĝ!",
      "\" )",
      "\" #\"",
      "\" Ĝ$",
      "\" ĀĀĝĀ#",
      "# Ę",
      "# ĚĞ",
      "$ đ",
      "$ ē",
      "$ ĀĀĞĀğ",
      "% (",
      "% ė",
      "% ĀĀğĀ",
      "% ĀĀĜĀ!",
      "% ĀĀ\"Ā\"",
      "& Ě",
      "& ĀĀ$",
      "& ĀĀė",
      "& Ę!",
      "& ĀĀĝĀ!",
      "' ė",
      "' ĀĀ\"Ā",
      "( Ė",
      "( Ě\"",
      "( ĀĀğĀ",
      ") ė",
      "* ĀĀ'",
      "+ \"",
      "+ Ė",
      "+ ę",
      "+ ě",
      ", '",
      ", (",
      ", )",
      ", *",
      ", Ė",
      ", Ğ",
      ", ĀĜ",
      ". ğ",
      "/ \"",
      "/ ,",
      "/ ě",
      ": Ā!",
      "Ď ĀĞ",
      "Ď Ā$",
      "Đ #",
      "đ đ",
      "đ ĕ",
      "đ ę",
      "đ ě",
      "đ Ĝ",
      "đ ğ",
      "đ '+",
      "ē !",
      "ē Ěĝ",
      "Ĕ %",
      "Ĕ &",
      "Ĕ .",
      "Ĕ Ğ",
      "Ė Ę",
      "ė '",
      "ė Ė",
      "Ę *",
      "Ę ,",
      "Ę ė",
      "ę '",
      "ę (",
      "ę .",
      "ę Ę",
      "Ě (",
      "Ě đ",
      "Ě Ē",
      "Ě Ĕ",
      "Ě ĀĀĒ",
      "Ĝ +",
      "Ĝ ,",
      "Ĝ /",
      "Ĝ đ",
      "ĝ Ē",
      "ĝ ĀĀ",
      "ĝ \"\"",
      "ĝ ##",
      "ĝ %&",
      "Ğ *",
      "Ğ +",
      "Ğ .",
      "Ğ Ĕ",
      "Ğ ĕ",
      "Ğ Ė",
      "Ğ \"#",
      "ğ )",
      "ğ Đ",
      "ğ đ",
      "Ġ 3",
      "Ġ 4",
      "Ġ 5",
      "Ġ ĀĀğĀ",
      "Ġ ĀĀĞĀ",
      "Ġ ĀĀ!Āĝ",
      "Ġ! )",
      "Ġ! Ĕ",
      "Ġ! Ę",
      "Ġ! ę",
      "Ġ! Ĝ#",
      "Ġ! &\"",
      "Ġ! %$",
      "Ġ! 'ğ",
      "Ġ! ęĞ",
      "Ġ! Ęğ",
      "Ġ! ęě",
      "Ġ! 'Ğ",
      "Ġ! %ě",
      "Ġ! ě%",
      "Ġ! Ęě",
      "Ġ! %Ě",
      "Ġ! *!",
      "Ġğ Ė",
      "Ġğ %\"",
      "Ġğ &\"",
      "Ġğ ěě",
      "Ġğ %$",
      "Ġğ Ě#",
      "Ġğ Ęğ",
      "Ġğ &$",
      "Ġğ ęĜ",
      "Ġ\" Ĝ#",
      "Ġ\" $#",
      "Ġ\" %#",
      "Ġ\" &!",
      "Ġ\" ě\"",
      "Ġ\" Ěğ",
      "Ġ\" ěĝ",
      "Ġ\" ěě",
      "Ġ\" %Ĝ",
      "Ġ\" '!",
      "Ġ\" ěĜ",
      "Ġ\" Ĝě",
      "ĠĞ ĜĞ",
      "ĠĞ $$",
      "ĠĞ ěĞ",
      "ĠĞ ěě",
      "ĠĞ %$",
      "ĠĞ ę!",
      "ĠĞ Ę\"",
      "ĠĞ ęĝ",
      "ĀĀ Ą",
      "ĀĀ Đ",
      "Ġĝ Ė",
      "Ġĝ $ĝ",
      "Ġĝ $#",
      "Ġĝ $$",
      "Ġĝ %\"",
      "Ġĝ Ěğ",
      "Ġĝ ě#",
      "Ġĝ %ĝ",
      "Ġĝ ęğ",
      "Ġĝ ě%",
      "Ġ# ę",
      "Ġ# Ĝ\"",
      "Ġ# Ĝ#",
      "Ġ# ě\"",
      "Ġ# ěĞ",
      "Ġ# Ě!",
      "Ġ# ĜĜ",
      "Ġ# &\"",
      "Ġ# ě#",
      "Ġ# &Ğ",
      "Ġ# ĚĜ",
      "Ġ# &Ĝ",
      "Ġ# )!",
      "Ġ# '&",
      "Ġ$ ę",
      "Ġ$ Ě",
      "Ġ$ ĀĀ",
      "Ġ$ ě!",
      "Ġ$ $$",
      "Ġ$ &\"",
      "Ġ$ ěě",
      "Ġ$ &ğ",
      "Ġ$ $Ĝ",
      "Ġ$ Ĝě",
      "Ġ$ $ě",
      "Ġ$ (ĝ",
      "ĠĜ ĕ",
      "ĠĜ ĀĀ",
      "ĠĜ $\"",
      "ĠĜ Ĝ#",
      "ĠĜ %!",
      "ĠĜ %Ğ",
      "ĠĜ Ĝ$",
      "ĠĜ ##",
      "ĠĜ ĚĞ",
      "Ġě $!",
      "Ġě ĝğ",
      "Ġě $$",
      "Ġě Ě\"",
      "Ġě ğ#",
      "Ġě ##",
      "Ġě ě$",
      "Ġě ĝ#",
      "Ġě ğĜ",
      "Ġě &$",
      "Ġě Ę\"",
      "Ġ!ğ ę",
      "Ġğğ '",
      "Ġ% &",
      "Ġ% Ĝ",
      "Ġ% Ĝ\"",
      "Ġ% #ğ",
      "Ġ% $ĝ",
      "Ġ% %#",
      "Ġ% ěĞ",
      "Ġ% ğ!",
      "Ġ% Ěğ",
      "Ġ% 'ğ",
      "Ġ% ĝ$",
      "Ġ% #ĝ",
      "Ġ% %ě",
      "Ġğ! '",
      "Ġğ! Ę",
      "Ġ& &",
      "Ġ& *",
      "Ġ& ę",
      "Ġ& $!",
      "Ġ& ĜĞ",
      "Ġ& #ğ",
      "Ġ& \"!",
      "Ġ& Ě!",
      "Ġ& ğĞ",
      "Ġ& ĝĞ",
      "Ġ& ğ\"",
      "Ġ& \"ě",
      "Ġ& &Ĝ",
      "Ġ& !ě",
      "ĠĚ ę",
      "ĠĚ Ě",
      "ĠĚ $\"",
      "ĠĚ \"!",
      "ĠĚ &!",
      "ĠĚ ğ#",
      "ĠĚ ğě",
      "ĠĚ ĝĜ",
      "Ġ' '",
      "Ġ' (",
      "Ġ' ĀĀ",
      "Ġ' \"\"",
      "Ġ' ěğ",
      "Ġ' ğğ",
      "Ġ' !ğ",
      "Ġ' \"Ğ",
      "Ġ' 'ğ",
      "Ġ' Ğ\"",
      "Ġę \"",
      "Ġę $",
      "Ġę Ĝ",
      "Ġę $Ğ",
      "Ġę Ĝ\""
    ]
  }
}