{
  "version": "1.0",
  "truncation": null,
  "padding": null,
  "added_tokens": [],
  "normalizer": null,
  "pre_tokenizer": {
    "type": "ByteLevel",
    "add_prefix_space": false,
    "trim_offsets": true,
    "use_regex": true
  },
  "post_processor": {
    "type": "ByteLevel",
    "add_prefix_space": true,
    "trim_offsets": false,
    "use_regex": true
  },
  "decoder": {
    "type": "ByteLevel",
    "add_prefix_space": true,
    "trim_offsets": true,
    "use_regex": true
  },
  "model": {
    "type": "BPE",
    "dropout": null,
    "unk_token": null,
    "continuing_subword_prefix": null,
    "end_of_word_suffix": null,
    "fuse_unk": false,
    "byte_fallback": false,
    "ignore_merges": false,
    "vocab": {
      "\u0000": 0,
      "\u0001": 1,
      "\u0002": 2,
      "\u0003": 3,
      "\u0004": 4,
      "\u0005": 5,
      "\u0006": 6,
      "\u0007": 7,
      "\b": 8,
      "\t": 9,
      "\n": 10,
      "\u000b": 11,
      "\f": 12,
      "\r": 13,
      "\u000e": 14,
      "\u000f": 15,
      "\u0010": 16,
      "\u0011": 17,
      "\u0012": 18,
      "\u0013": 19,
      "\u0014": 20,
      "\u0015": 21,
      "\u0016": 22,
      "\u0017": 23,
      "\u0018": 24,
      "\u0019": 25,
      "\u001a": 26,
      "\u001b": 27,
      "\u001c": 28,
      "\u001d": 29,
      "\u001e": 30,
      "\u001f": 31,
      " ": 32,
      "!": 33,
      "\"": 34,
      "#": 35,
      "$": 36,
      "%": 37,
      "&": 38,
      "'": 39,
      "(": 40,
      ")": 41,
      "*": 42,
      "+": 43,
      ",": 44,
      "-": 45,
      ".": 46,
      "/": 47,
      "0": 48,
      "1": 49,
      "2": 50,
      "3": 51,
      "4": 52,
      "5": 53,
      "6": 54,
      "7": 55,
      "8": 56,
      "9": 57,
      ":": 58,
      ";": 59,
      "<": 60,
      "=": 61,
      ">": 62,
      "?": 63,
      "@": 64,
      "Ā": 65,
      "ā": 66,
      "Ă": 67,
      "ă": 68,
      "Ą": 69,
      "ą": 70,
      "Ć": 71,
      "ć": 72,
      "Ĉ": 73,
      "ĉ": 74,
      "Ċ": 75,
      "ċ": 76,
      "Č": 77,
      "č": 78,
      "Ď": 79,
      "ď": 80,
      "Đ": 81,
      "đ": 82,
      "Ē": 83,
      "ē": 84,
      "Ĕ": 85,
      "ĕ": 86,
      "Ė": 87,
      "ė": 88,
      "Ę": 89,
      "ę": 90,
      "Ě": 91,
      "ě": 92,
      "Ĝ": 93,
      "ĝ": 94,
      "Ğ": 95,
      "ğ": 96,
      "Ġ": 97,
      "ĠĠ": 98,
      "Ġ!": 99,
      "Ġğ": 100,
      "ĠĠĠĠ": 101,
      "Ġ\"": 102,
      "ĠĞ": 103,
      "ĠĠĠ": 104,
      "ĀĀ": 105,
      "Ġĝ": 106,
      "Ġ#": 107,
      "Ġ$": 108,
      "ĠĠĠĠĠ": 109,
      "ĠĜ": 110,
      "Ġ!!": 111,
      "Ġğğ": 112,
      "Ġě": 113,
      "Ġ%": 114,
      "ĠĠĠĠĠĠĠĠ": 115,
      "Ġğ!": 116,
      "Ġ!ğ": 117,
      "Ġ&": 118,
      "ĠĚ": 119,
      "Ġ\"!": 120,
      "ĠğĞ": 121,
      "ĠĞğ": 122,
      "Ġ!\"": 123,
      "Ġ'": 124,
      "Ġ\"ğ": 125,
      "Ġę": 126,
      "ĠĞ!": 127,
      "Ġğ\"": 128,
      "Ġ!Ğ": 129,
      "ĠĠĠĠĠĠ": 130,
      "Ġ(": 131,
      "ĠĘ": 132,
      "Ġ\"\"": 133,
      "Ā!": 134,
      "ĠĞĞ": 135,
      "Āğ": 136,
      "ĠĞ\"": 137,
      "ĀĀğ": 138,
      "Ā\"": 139,
      "Ġ\"Ğ": 140,
      "Ġ#!": 141,
      "ĀĞ": 142,
      "Āĝ": 143,
      "ĀĀĞ": 144,
      "Ġĝğ": 145,
      "#ğ": 146,
      "Ġğĝ": 147,
      "Ġĝ!": 148,
      "ĀĀ!": 149,
      "Ġ)": 150,
      "Ġ#ğ": 151,
      "Ġ!ĝ": 152,
      "Ġė": 153,
      "#!": 154,
      "ĀĀĝ": 155,
      "ĀĀ\"": 156,
      "ĀĜ": 157,
      "Ġ!!ğ": 158,
      "Ā$": 159,
      "Ā#": 160,
      "Ġğğ!": 161,
      "ĠĠĠĠĠĠĠ": 162,
      "Ġ!#": 163,
      "Ġğ!!": 164,
      "Ġ!ğğ": 165,
      "ĠĞĝ": 166,
      "Ġ#\"": 167,
      "ĠĝĞ": 168,
      "Ġğ#": 169,
      "Ġ*": 170,
      "ĀĀĜ": 171,
      "Ġğ!ğ": 172,
      "ĀĀ#": 173,
      "Ġ!!!": 174,
      "Āě": 175,
      "ĠĖ": 176,
      "Ġğğğ": 177,
      "ĠĠĠĠĠĠĠĠĠĠĠ": 178,
      "Ā%": 179,
      "Ġĝ\"": 180,
      "Ġ#Ğ": 181,
      "Ġ!ğ!": 182,
      "Ġ\"ĝ": 183,
      "$ğ": 184,
      "Ĝ!": 185,
      "$!": 186,
      "ĀĀ$": 187,
      "ĀĀě": 188,
      "ĠĠĠĠĠĠĠĠĠĠĠĠ": 189,
      "Ā&": 190,
      "Ġ\"#": 191,
      "Ĝğ": 192,
      "ĀĚ": 193,
      "ĠĜğ": 194,
      "Ġ$ğ": 195,
      "ĝğ": 196,
      "Ġ$!": 197,
      "Ĝ\"": 198,
      "Ġ+": 199,
      "ĀĀ%": 200,
      "$Ğ": 201,
      "$\"": 202,
      "ĠĜ!": 203,
      "ĝ!": 204,
      "ĀĀĚ": 205,
      "#\"": 206,
      "Ğğ": 207,
      "Ġ$\"": 208,
      "Ġĕ": 209,
      "ĜĞ": 210,
      "Āę": 211,
      "ĠĠĠĠĠĠĠĠĠĠ": 212,
      "Ğ!": 213,
      "ĀĀ&": 214,
      "#Ğ": 215,
      "Ā'": 216,
      "ěğ": 217,
      "Ġ\"!ğ": 218,
      "$ĀĀ": 219,
      "ĝ\"": 220,
      "ĠĜ\"": 221,
      "#ĀĀ": 222,
      "ĝĞ": 223,
      "ĠĞğ!": 224,
      "Ğ\"": 225,
      "ğğ": 226,
      "Ġ!!Ğ": 227,
      "ĠĀĀ": 228,
      "%!": 229,
      "ě!": 230,
      "Ġğğ\"": 231,
      "%ĀĀ": 232,
      "ě\"": 233,
      "%ğ": 234,
      "Ġ!ğĞ": 235,
      "ĀĘ": 236,
      "Ġ!\"ğ": 237,
      "Ġ\"ğğ": 238,
      "!ğ": 239,
      "Ġğ!\"": 240,
      "ĠĞ#": 241,
      "!!": 242,
      "&ĀĀ": 243,
      "'ĀĀ": 244,
      "Ĝ#": 245,
      "ĠğĞ!": 246,
      "$#": 247,
      "Ĝĝ": 248,
      "Ġ,": 249,
      "\"\"": 250,
      "Ġğ\"!": 251,
      "%\"": 252,
      "ĠğĞğ": 253,
      "ĠĔ": 254,
      "ĠĞ!!": 255,
      "ĠĠĠĠĠĠĠĠĠĠĠĠĠĠĠĠ": 256,
      "\"ğ": 257,
      "Ġ!Ğğ": 258,
      "ĝ#": 259,
      "Ġ!\"!": 260,
      "ğ!": 261,
      "ĞĞ": 262,
      "$ĝ": 263,
      "%Ğ": 264,
      "\"!": 265,
      "##": 266,
      "Ā(": 267,
      "ğĞ": 268,
      "Ġ\"!!": 269,
      "Āė": 270,
      "Ěğ": 271,
      "ěĞ": 272,
      "ĝĝ": 273,
      "!Ğ": 274,
      "(ĀĀ": 275,
      "Ġ!Ğ!": 276,
      ")ĀĀ": 277,
      "ĠğğĞ": 278,
      "Ġ!!\"": 279,
      "Ġğ\"ğ": 280,
      "!\"": 281,
      "ĠĞ!ğ": 282,
      "\"Ğ": 283,
      "ĠğĜ": 284,
      "ĠĜĞ": 285,
      "ĠĞğğ": 286,
      "&!": 287,
      "Ġ##": 288,
      "Ě\"": 289,
      "Ġ!Ĝ": 290,
      "ěĝ": 291,
      "Ě!": 292,
      "Ġ\"\"ğ": 293,
      "Ġ\"ğ!": 294,
      "*ĀĀ": 295,
      "Ā)": 296,
      "ğ\"": 297,
      "Ġ-": 298,
      "Ġğ!Ğ": 299,
      "Ġ#ĝ": 300,
      "$$": 301,
      "Ġ!ğ\"": 302,
      "ĠĞğ\"": 303,
      "%#": 304,
      "Ġ\"!Ğ": 305,
      "ĠĞĞ!": 306,
      "Ġĝĝ": 307,
      "&ğ": 308,
      "Ğĝ": 309,
      "ě#": 310,
      "ğ#": 311,
      "!#": 312,
      "ĜĜ": 313,
      "ĀĀ'": 314,
      "%ĝ": 315,
      "ĠĀ": 316,
      "Ġĝ#": 317,
      "!ĝ": 318,
      "\"#": 319,
      "ĀĀę": 320,
      "ĠĞ!\"": 321,
      "ĠĠĠĠĠĠĠĠĠ": 322,
      "Ġ\"ğĞ": 323,
      "Ġ!$": 324,
      "ĀĀğĀ": 325,
      "%$": 326,
      "&\"": 327,
      "ĀĀĘ": 328,
      "ĀĀĞĀ": 329,
      "ĀĀ\"Ā": 330,
      "Ġ\"$": 331,
      "ĠĞ\"!": 332,
      "ęğ": 333,
      "ĀĀ(": 334,
      "ĚĞ": 335,
      "ĠĞĜ": 336,
      "\"ĝ": 337,
      "Ğ#": 338,
      "Ġ#!ğ": 339,
      "Ġĝğ!": 340,
      "ě$": 341,
      "ĠĠĠĠĠĠĠĠĠĠĠĠĠ": 342,
      "Ġğ$": 343,
      "Ġē": 344,
      "Ġ!\"Ğ": 345,
      "Ě#": 346,
      "Ġğ\"\"": 347,
      "Ĝ$": 348,
      "&Ğ": 349,
      "'!": 350,
      "Ěĝ": 351,
      "Ġ!ĞĞ": 352,
      "#ĝ": 353,
      "ĠğĞ\"": 354,
      "ĠĞĞğ": 355,
      "Ġ\"Ğğ": 356,
      "'ğ": 357,
      "Ġ$Ğ": 358,
      "ĀĀĝĀ": 359,
      "Ġ%ğ": 360,
      "Ġ.": 361,
      "#$": 362,
      "ĠĞ$": 363,
      "ěĜ": 364,
      "Ġ!!ĝ": 365,
      "ę!": 366,
      "ĀĀė": 367,
      "Ġĝ!!": 368,
      "Ġ#ğğ": 369,
      "ĀĀ!Ā": 370,
      "ĝĜ": 371,
      "\"$": 372,
      "ęĞ": 373,
      "ěě": 374,
      "ĝ$": 375,
      "Ġě!": 376,
      "ĠĞ\"ğ": 377,
      "ĀĀ)": 378,
      "Ġ\"\"!": 379,
      "Ġğğ#": 380,
      "'\"": 381,
      "Ġ!#ğ": 382,
      "Ġ!ğĝ": 383,
      "&#": 384,
      "Ġğĝ!": 385,
      "ę\"": 386,
      "Ġğ!#": 387,
      "Ġğ\"Ğ": 388,
      "Ġ!\"\"": 389,
      "&$": 390,
      "&ĝ": 391,
      "#Ĝ": 392,
      "Ġěğ": 393,
      "Ġ%!": 394,
      "ĚĜ": 395,
      "Ġ\"Ĝ": 396,
      "ĀĀĖ": 397,
      "ĠğĞĞ": 398,
      "Ġ\"Ğ!": 399,
      "ĠěĞ": 400,
      "Ġ#!!": 401,
      "Ġĝğğ": 402,
      "ĠĒ": 403,
      "%Ĝ": 404,
      "ĀĀ#Ā": 405,
      "ĠĜĝ": 406,
      "\"%": 407,
      "ę#": 408,
      "Ġ!Ğ\"": 409,
      "ĠĝĞ!": 410,
      "'Ğ": 411,
      "ĀĀĕ": 412,
      "Ġ\"!ĝ": 413,
      "ĠĞĞ\"": 414,
      "Ġ#!Ğ": 415,
      "Ġğĝğ": 416,
      "%%": 417,
      "\"Ĝ": 418,
      "ęĝ": 419,
      "ğĝ": 420,
      "Ġ#$": 421,
      "Ġ\"\"Ğ": 422,
      "ĠĞĝ!": 423,
      "ĀĀĜĀ": 424,
      "ğĜ": 425,
      "Ġ#\"ğ": 426,
      "!$": 427,
      "ĠĞ!Ğ": 428,
      "Ġ\"ĞĞ": 429,
      "Ġ!ĝ!": 430,
      "(!": 431,
      "ĘĞ": 432,
      "Ġğě": 433,
      "Ęĝ": 434,
      "Ġĝ$": 435,
      "Ġ$ĝ": 436,
      "ĠĞğĞ": 437,
      "Ġ\"!\"": 438,
      "'#": 439,
      "+ĀĀ": 440,
      "Ę!": 441,
      "Ęğ": 442,
      "Ġ/": 443,
      "Ġ\"#ğ": 444,
      "Ġ$#": 445,
      "ĠğĞ#": 446,
      "Ġ\"ğ\"": 447,
      "Ġĝğ\"": 448,
      "ĀĀěĀ": 449,
      "Ğ$": 450,
      "(ğ": 451,
      "Ġğğĝ": 452,
      "(\"": 453,
      "ĠĝĜ": 454,
      "ĀĀ+": 455,
      "Ġ%Ğ": 456,
      "&&": 457,
      "ğ$": 458,
      "Ġğ#ğ": 459,
      "ĠĞğ#": 460,
      "Ġĝ!ğ": 461,
      "ĠĀ!": 462,
      "Ġ#Ĝ": 463,
      "ĠĠĠĠĠĠĠĠĠĠĠĠĠĠĠ": 464,
      "Ġ!#Ğ": 465,
      "'$": 466,
      "Ę\"": 467,
      "Ġ#ğĞ": 468,
      "Ġ!ĝğ": 469,
      "!Ĝ": 470,
      "ęĜ": 471,
      "ě%": 472,
      "ĠĀĞ": 473,
      "Ġ!#!": 474,
      "ĀĀ*": 475,
      "ĠĞ\"\"": 476,
      "Ġ!%": 477,
      "ĠĞ!#": 478,
      "Ġ!!#": 479,
      "ĀĀğĀğ": 480,
      "Ġĝ!\"": 481,
      "$%": 482,
      "Ě%": 483,
      "ĠĠĠĠĠĠĠĠĠĠĠĠĠĠĠĠĠĠ": 484,
      "Ġğ\"#": 485,
      "Ġ#ğ!": 486,
      "ėĞ": 487,
      "Ğ%": 488,
      "ĠĀğ": 489,
      "Ġ!ğ#": 490,
      "Ġ\"ğĝ": 491,
      "ĀĀğĀĞ": 492,
      "ĞĜ": 493,
      "ĀĀ!Ā!": 494,
      "&Ĝ": 495,
      "Ġğ%": 496,
      "ĀĀ-": 497,
      "(#": 498,
      "ğ%": 499,
      "ĠĜ#": 500,
      "ĀĀğĀ!": 501,
      "!%": 502,
      "ęě": 503,
      "Ġğ!ĝ": 504,
      "Ġğ#!": 505,
      "Ġĝ\"!": 506,
      "ěĚ": 507,
      "ĠĀ\"": 508,
      "ĀĀğĀ\"": 509,
      "Ĝ%": 510,
      "Ġ\"#!": 511,
      "ĠĞ#!": 512,
      "Ġ$$": 513,
      "Ġě\"": 514,
      "ĀĀ%Ā": 515,
      "ė!": 516,
      "ĀĀĞĀ!": 517,
      "Ġğĝ\"": 518,
      "ĀĀ$Ā": 519,
      "&%": 520,
      "ĘĜ": 521,
      "Ě$": 522,
      "ĝ%": 523,
      "ĝě": 524,
      "Ġđ": 525,
      "Ġ!!Ĝ": 526,
      "#%": 527,
      "ę$": 528,
      "Ĝě": 529,
      "ğě": 530,
      "Ġ\"ě": 531,
      "ĀĀĔ": 532,
      "Ġ!\"ĝ": 533,
      "ĀĀ!Āğ": 534,
      ")ğ": 535,
      "ĀĀ.": 536,
      "Ġ!Ğĝ": 537,
      "Ġ\"\"ĝ": 538,
      "ĀĀĝĀ!": 539,
      "ĠĞĝğ": 540,
      "Ġğ#\"": 541,
      ")!": 542,
      "Ġ##ğ": 543,
      "ĀĀ!Ā\"": 544,
      "Ěě": 545,
      "Ġ\"%": 546,
      "ĀĀ,": 547,
      "ĀĀĞĀ\"": 548,
      "ĀĀĝĀğ": 549,
      "Ġ!#\"": 550,
      "Ġ#\"!": 551,
      "ĠĝĞğ": 552,
      "ĀĀĜĀ!": 553,
      "#ě": 554,
      "'&": 555,
      "(Ğ": 556,
      "Ġ!ě": 557,
      "Ġ#!ĝ": 558,
      "ĀĀĞĀğ": 559,
      "ĀĀğĀĝ": 560,
      "ĀĀğĀĜ": 561,
      "($": 562,
      "ĠĀĝ": 563,
      "Ġ!ğĜ": 564,
      "ĠĝĞ\"": 565,
      "Ġ\"#Ğ": 566,
      "(ĝ": 567,
      "ė\"": 568,
      "ĀĀ/": 569,
      "ĠĠĠĠĠĠĠĠĠĠĠĠĠĠĠĠĠĠĠĠ": 570,
      "ĠğĝĞ": 571,
      "ĀĀ&Ā": 572,
      "Ě&": 573,
      "Ġ%\"": 574,
      "Ġ\"\"\"": 575,
      "ĀĀĞĀĝ": 576,
      "Ġğ#Ğ": 577,
      "Ġ\"ĝğ": 578,
      "ĀĀĚĀ": 579,
      "!ě": 580,
      "$Ĝ": 581,
      "&ě": 582,
      "'ĝ": 583,
      ")\"": 584,
      "ėĝ": 585,
      "ę%": 586,
      "Ġ0": 587,
      "ĀĀĒ": 588,
      "ĠĞĞĞ": 589,
      "Ġ!ĝĞ": 590,
      "Ġ$ğğ": 591,
      "ėğ": 592,
      "ĀĀē": 593,
      "Ġěĝ": 594,
      "Ġ#ĞĞ": 595,
      "Ġ#Ğğ": 596,
      "ĠĜ!!": 597,
      "#&": 598,
      "ĠĞ%": 599,
      "ĀĀĝĀ\"": 600,
      "ĀĀĝĀĝ": 601,
      "(%": 602,
      "Ğě": 603,
      "\"&": 604,
      "Ę$": 605,
      "ĠĞě": 606,
      "ĠĠĠĠĠĠĠĠĠĠĠĠĠĠĠĠĠĠĠ": 607,
      "ĀĀ!ĀĞ": 608,
      "Ġ#\"Ğ": 609,
      "Ġ\"ĝ!": 610,
      "Ġ$!ğ": 611,
      "Ę#": 612,
      "Ġĝ#!": 613,
      "Ġĝĝğ": 614,
      "ĠĞ\"Ğ": 615,
      "ĠĜğ!": 616,
      "!&": 617,
      "Ġĝĝ!": 618,
      "ĠğĞĝ": 619,
      "ĀĀ\"Āğ": 620,
      "ĀĀ\"Āĝ": 621,
      "$&": 622,
      "ĠĜĜ": 623,
      "Ġğğ$": 624,
      "ĠĀě": 625,
      "Ġ$Ğğ": 626,
      "Ġ!\"#": 627,
      "Ġ!Ğ#": 628,
      "ĠĞĞ#": 629,
      "ĠĞ\"#": 630,
      "Ġ\"Ğ\"": 631,
      "Ġ!ĝ\"": 632,
      "Ġĝ\"ğ": 633,
      "ĠĜğ\"": 634,
      "'%": 635,
      "'Ĝ": 636,
      "Ġ#%": 637,
      "Ġ\"Ğĝ": 638,
      "ĀĀ!Āĝ": 639,
      "''": 640,
      "*!": 641,
      "Ğ&": 642,
      "ĠĞ!$": 643,
      "\"ě": 644,
      "ĀĖ": 645,
      "ėĜ": 646,
      "Ġğ!$": 647,
      "Ġ#!\"": 648,
      "ĀĀĞĀĞ": 649,
      "\"Ě": 650,
      "Ā,": 651,
      "ĖĞ": 652,
      "ĞĚ": 653,
      "ğĚ": 654,
      "ĠĞ#\"": 655,
      "ĀĀ!ĀĜ": 656,
      "ĠĞĝ\"": 657,
      "Ęě": 658,
      "ĜĚ": 659,
      "Ġ!$ğ": 660,
      "Ġğ$ğ": 661,
      "ĠĞ!ĝ": 662,
      "*\"": 663,
      "ĠĐ": 664,
      "ĠĞ#ğ": 665,
      "ĠĚğ": 666,
      "Ġ\"!Ĝ": 667,
      "Ġ$\"ğ": 668,
      "$ě": 669,
      "ĝ&": 670,
      "Ġĝě": 671,
      "Ġ%#": 672,
      "Ġğ\"ĝ": 673,
      "Ġ#Ğ!": 674,
      "Ā+": 675,
      "Ė!": 676,
      "ęĚ": 677,
      "Ġĝğ#": 678,
      "ĀĀ\"Ā!": 679,
      "Ġ#Ğĝ": 680,
      "Ġ$!!": 681,
      "Ġğ$!": 682,
      "ĀĀĞĀě": 683,
      "ĀĀ!Ā$": 684,
      "ĀĀ\"Ā\"": 685,
      "ĀĀ\"ĀĞ": 686,
      "Ġ\"ĝ\"": 687,
      "Ġ\"ĝĞ": 688,
      ",ĀĀ": 689,
      "Ā*": 690,
      "ğ'": 691,
      "ĠĀ$": 692,
      "Ġ\"$ğ": 693,
      "ĠĞğ$": 694,
      "Ġ\"ğ#": 695,
      "Ġ!#ĝ": 696,
      "Ġĝ\"\"": 697,
      "Ėě": 698,
      "ĠĜĞ!": 699,
      "Ġ&!": 700,
      "Ġ\"!#": 701,
      "ĀĀğĀě": 702,
      "ĀĀĞĀ#": 703,
      "('": 704,
      "Ėĝ": 705,
      "ę&": 706,
      "Ġĝ#\"": 707,
      "Ġ\"ğĜ": 708,
      "Ġ#ğĜ": 709,
      "Ġ!ĝĝ": 710,
      "ĀĀ\"ĀĜ": 711,
      "ĀĀ#Ā\"": 712,
      ")#": 713,
      "ĕĞ": 714,
      "Ġ!Ĝ!": 715,
      "ĀĀđ": 716,
      "Ġĝĝ\"": 717,
      "Ġ#ě": 718,
      "Ġ$Ĝ": 719,
      "ĠĞğĝ": 720,
      "ĀĀĝĀĜ": 721,
      "Ġ\"#ĝ": 722,
      "Ġ$ğĞ": 723,
      "ĠĜ!\"": 724,
      "#Ě": 725,
      "%&": 726,
      ")$": 727,
      "Ėğ": 728,
      "ĠğĜğ": 729,
      "Ġ##!": 730,
      "Ġ!!$": 731,
      "Ġ%ĝ": 732,
      "Ġ!ğ$": 733,
      "ĠĞ\"ĝ": 734,
      "ĠĝğĞ": 735,
      "Ġĝ!$": 736,
      "Ġ!ĝ#": 737,
      "Ġ$!Ğ": 738,
      "ĠĜ!ğ": 739,
      "\"'": 740,
      "ĠĀĜ": 741,
      "Ġ!Ě": 742,
      "Ġ!Ĝğ": 743,
      "ĠğĜ\"": 744,
      "ĀĀğĀ$": 745,
      "ĀĀĝĀĞ": 746,
      "Ġğ##": 747,
      "ĠĜ\"!": 748,
      "%ě": 749,
      ")Ğ": 750,
      "*#": 751,
      "Ġğ$Ğ": 752,
      "Ġ\"Ĝ!": 753,
      "Ġ#$!": 754,
      "ĠğğĜ": 755,
      "ĀĀ#Āĝ": 756,
      "ě&": 757,
      "Ğę": 758,
      "Ġ!&": 759,
      "ĠğĚ": 760,
      "Ġě#": 761,
      "ĀĀğĀ%": 762,
      "ĀĀĞĀ%": 763,
      "Ġĝ!Ğ": 764,
      "Ġĝ\"#": 765,
      "Ġ$\"!": 766,
      ")&": 767,
      "ėĚ": 768,
      "Ĝę": 769,
      "ğ&": 770,
      "ĠĀ#": 771,
      "Ġ!$!": 772,
      "ĠğĜ!": 773,
      "Ġĝ!#": 774,
      "Ġ#ğĝ": 775,
      "ĀĀĜĀĝ": 776,
      "ĠĜğğ": 777,
      "Ġ$\"Ğ": 778,
      "!Ě": 779,
      "*$": 780,
      "+!": 781,
      "ĕĝ": 782,
      "ęę": 783,
      "Ĝ&": 784,
      "Ġğ$\"": 785,
      "Ġ\"Ě": 786,
      "ĀĀğĀ#": 787,
      "Ġ\"Ğ#": 788,
      "Ġğĝ#": 789,
      "ĀĀ!Ā%": 790,
      "Ġ#ğ\"": 791,
      "ĀĀ#Ā!": 792,
      "Ġ\"ĝĝ": 793,
      "Ġ\"#\"": 794,
      "ĠĠĠĠĠĠĠĠĠĠĠĠĠĠĠĠĠĠĠĠĠĠĠĠĠĠĠĠĠĠĠĠ": 795,
      "ĕĜ": 796,
      "Ė\"": 797,
      "ĖĜ": 798,
      "ĝĚ": 799,
      "Ġ!'": 800,
      "Ġ\"$Ğ": 801,
      "ĠĞĜ!": 802,
      "ĠĞ$!": 803,
      "Ġĝ#ğ": 804,
      "Ġ#ĝ!": 805,
      "Ġ&ğ": 806,
      "Ġğ\"$": 807,
      "Ġ\"\"#": 808,
      "ĀĀğĀĚ": 809,
      "ĠĝĞĞ": 810,
      "ĀĀěĀ!": 811,
      "ĠĜ\"ğ": 812,
      "#(": 813,
      "(&": 814,
      ")%": 815,
      "ėě": 816,
      "ěę": 817,
      "ĠĞĜğ": 818,
      "ĠĜ$": 819,
      "Ġğ!Ĝ": 820,
      "ĠğĞ$": 821,
      "ĀĀ!Ā#": 822,
      "ĀĀ!Āě": 823,
      "ĀĀ\"Ā#": 824,
      "ĠĝĞ#": 825,
      "ĀĀĜĀĞ": 826,
      "ĀĀ#Āğ": 827,
      "ĀĀ#ĀĞ": 828,
      "ĀĀĚĀ!": 829,
      "ĠĜ\"\"": 830,
      "'ě": 831,
      ")ĝ": 832,
      "+\"": 833,
      "Ġğ&": 834,
      "ĠĞĜ\"": 835,
      "ĠĞ#Ğ": 836,
      "Ġĝ%": 837,
      "Ġ#ĝğ": 838,
      "Ġ##Ğ": 839,
      "Ġ$%": 840,
      "ĠĚ!": 841,
      "Ġ#!#": 842,
      "Ġ!##": 843,
      "ĠĞĝĞ": 844,
      "Ġ#\"\"": 845,
      "Ġ#\"ĝ": 846,
      "Ġ#Ğ\"": 847,
      "ĀĀěĀğ": 848,
      "Ġ$ğ!": 849,
      "(Ĝ": 850,
      "ė#": 851,
      "Ġ1": 852,
      "Ġ\"&": 853,
      "ĠĜĞğ": 854,
      "ĠĞĞĝ": 855,
      "ĀĀĞĀĜ": 856,
      "ĀĀĝĀ#": 857,
      "ĀĀĜĀğ": 858,
      "ĀĀ#Ā$": 859,
      "ĀĀ$Āĝ": 860,
      "ĠĜğ#": 861,
      "Ġ$!ĝ": 862,
      "ĀĀĚĀğ": 863,
      "!'": 864,
      "))": 865,
      "*Ğ": 866,
      "Ę&": 867,
      "ĘĚ": 868,
      "Ġ%!ğ": 869,
      "ĀĀĞĀ$": 870,
      "ĀĀĝĀ$": 871,
      "Ġğ#ĝ": 872,
      "ĀĀ$Ā\"": 873,
      "ĀĀ%Āğ": 874,
      "ĕ\"": 875,
      "Ğ'": 876,
      "Ġ!Ĝ\"": 877,
      "Ġ!$Ğ": 878,
      "Ġ!$\"": 879,
      "Ġ\"$!": 880,
      "Ġ$#ğ": 881,
      "Ġ$Ğ!": 882,
      "ĠĜĝğ": 883,
      "ĠĜĞ\"": 884,
      "Ġ!!ě": 885,
      "ĠĠĠĠĠĠĠĠĠĠĠĠĠĠ": 886,
      "Ġ\"ğě": 887,
      "Ġ#!Ĝ": 888,
      "Ġ!ĝĜ": 889,
      "ĀĀĝĀě": 890,
      "ĀĀĜĀ\"": 891,
      "ĀĀ$Ā!": 892,
      "ĀĀ$ĀĞ": 893,
      "ĀĀěĀ\"": 894,
      "Ġ##ĝ": 895,
      "'(": 896,
      "'Ā": 897,
      ")(": 898,
      "Ę%": 899,
      "ĠĞ$Ğ": 900,
      "ĀĀĐ": 901,
      "ĠĝĝĞ": 902,
      "Ġ#&": 903,
      "Ġ#$ğ": 904,
      "Ġ##\"": 905,
      "ĠěĜ": 906,
      "Ġ%$": 907,
      "Ġğ!%": 908,
      "Ġ&\"": 909,
      "Ġ\"!ě": 910,
      "Ġ\"ĞĜ": 911,
      "Ġğĝĝ": 912,
      "ĠĞĝ#": 913,
      "Ġĝ\"Ğ": 914,
      "ĔĜ": 915,
      "ĕğ": 916,
      "Ěę": 917,
      "ĝę": 918,
      "Ġ2": 919,
      "Ġ$ě": 920,
      "Ġ$#Ğ": 921,
      "Ġę!": 922,
      "ĀĀ\"Ā$": 923,
      "ĀĀ\"ĀĚ": 924,
      "ĀĀĜĀĜ": 925,
      "Ġĝ\"$": 926,
      "ĀĀěĀĜ": 927,
      "%'": 928,
      ")'": 929,
      "ĕ!": 930,
      "Ęę": 931,
      "ĠĀĚ": 932,
      "Ġ\"Ĝğ": 933,
      "ĀĀď": 934,
      "Ġ#ĝ\"": 935,
      "ĠĜĝ!": 936,
      "Ġěğğ": 937,
      "Ġ!\"Ĝ": 938,
      "Ġ!ĞĜ": 939,
      "ĀĀĜĀ#": 940,
      "ĀĀ$Āğ": 941,
      "ĀĀ%Ā\"": 942,
      "Ġ$\"ĝ": 943,
      "ĀĀ&Āĝ": 944,
      "ĠĞ##": 945,
      "ĀĀ(Ā": 946,
      "#'": 947,
      "%Ě": 948,
      "&(": 949,
      "*ğ": 950,
      "Ě'": 951,
      "ğę": 952,
      "Ġ\"ĜĞ": 953,
      "Ġ#ĝĞ": 954,
      "Ġ$$Ğ": 955,
      "Ġ!ğě": 956,
      "Ġ&$": 957,
      "ĀĀĞĀ&": 958,
      "ĀĀ!ĀĚ": 959,
      "ĀĀ#ĀĜ": 960,
      "+$": 961,
      "Ė#": 962,
      "ęĀĀ": 963,
      "ĚĚ": 964,
      "Ĝ'": 965,
      "Ġď": 966,
      "ĠĀę": 967,
      "Ġĝ$!": 968,
      "Ġ#$Ğ": 969,
      "Ġ$ĞĞ": 970,
      "ĠĜě": 971,
      "ĠěĞğ": 972,
      "ĠĚ\"": 973,
      "ĠğĞĜ": 974,
      "Ġ'!": 975,
      "Ġ!Ğ$": 976,
      "ĀĀ#Ā#": 977,
      "ĀĀ&Āğ": 978,
      "*%": 979,
      "*(": 980,
      "ĔĞ": 981,
      "ĖĚ": 982,
      "ėĘ": 983,
      "ĝĀĀ": 984,
      "ğĘ": 985,
      "ĠĀ&": 986,
      "Ġ!ěğ": 987,
      "ĠğĜĝ": 988,
      "Ġ$&": 989,
      "Ġě$": 990,
      "Ġě!!": 991,
      "Ġ\"ğ$": 992,
      "ĀĀğĀ'": 993,
      "Ġĝ!ĝ": 994,
      "Ġ#\"#": 995,
      "ĀĀĜĀ$": 996,
      "&'": 997,
      "+&": 998,
      "Āĕ": 999,
      "ě(": 1000,
      "ĝ'": 1001,
      "Ġ!%Ğ": 1002,
      "ĠğĜĞ": 1003,
      "ĠĝĜ!": 1004,
      "Ġ#Ĝğ": 1005,
      "Ġ$$ğ": 1006,
      "Ġě!ğ": 1007,
      "Ġ%\"ğ": 1008,
      "Ġ\"!$": 1009,
      "ĠęĞ": 1010,
      "Ġĝğĝ": 1011,
      "ĀĀ\"Ā%": 1012,
      "ĀĀěĀĞ": 1013,
      "Ġ$ğĝ": 1014,
      "$'": 1015,
      "+%": 1016,
      "+ğ": 1017,
      "Ā.": 1018,
      "Ė$": 1019,
      "ėę": 1020,
      "ĘĀĀ": 1021,
      "ĠĀ'": 1022,
      "Ġ!ě\"": 1023
    },
    "merges": [
      "Ġ Ġ",
      "Ġ !",
      "Ġ ğ",
      "ĠĠ ĠĠ",
      "Ġ \"",
      "Ġ Ğ",
      "ĠĠ Ġ",
      "Ā Ā",
      "Ġ ĝ",
      "Ġ #",
      "Ġ $",
      "ĠĠĠĠ Ġ",
      "Ġ Ĝ",
      "Ġ! !",
      "Ġğ ğ",
      "Ġ ě",
      "Ġ %",
      "ĠĠĠĠ ĠĠĠĠ",
      "Ġğ !",
      "Ġ! ğ",
      "Ġ &",
      "Ġ Ě",
      "Ġ\" !",
      "Ġğ Ğ",
      "ĠĞ ğ",
      "Ġ! \"",
      "Ġ '",
      "Ġ\" ğ",
      "Ġ ę",
      "ĠĞ !",
      "Ġğ \"",
      "Ġ! Ğ",
      "ĠĠĠĠ ĠĠ",
      "Ġ (",
      "Ġ Ę",
      "Ġ\" \"",
      "Ā !",
      "ĠĞ Ğ",
      "Ā ğ",
      "ĠĞ \"",
      "ĀĀ ğ",
      "Ā \"",
      "Ġ\" Ğ",
      "Ġ# !",
      "Ā Ğ",
      "Ā ĝ",
      "ĀĀ Ğ",
      "Ġĝ ğ",
      "# ğ",
      "Ġğ ĝ",
      "Ġĝ !",
      "ĀĀ !",
      "Ġ )",
      "Ġ# ğ",
      "Ġ! ĝ",
      "Ġ ė",
      "# !",
      "ĀĀ ĝ",
      "ĀĀ \"",
      "Ā Ĝ",
      "Ġ!! ğ",
      "Ā $",
      "Ā #",
      "Ġğğ !",
      "ĠĠĠĠ ĠĠĠ",
      "Ġ! #",
      "Ġğ! !",
      "Ġ!ğ ğ",
      "ĠĞ ĝ",
      "Ġ# \"",
      "Ġĝ Ğ",
      "Ġğ #",
      "Ġ *",
      "ĀĀ Ĝ",
      "Ġğ! ğ",
      "ĀĀ #",
      "Ġ!! !",
      "Ā ě",
      "Ġ Ė",
      "Ġğğ ğ",
      "ĠĠĠĠĠĠĠĠ ĠĠĠ",
      "Ā %",
      "Ġĝ \"",
      "Ġ# Ğ",
      "Ġ!ğ !",
      "Ġ\" ĝ",
      "$ ğ",
      "Ĝ !",
      "$ !",
      "ĀĀ $",
      "ĀĀ ě",
      "ĠĠĠĠĠĠĠĠ ĠĠĠĠ",
      "Ā &",
      "Ġ\" #",
      "Ĝ ğ",
      "Ā Ě",
      "ĠĜ ğ",
      "Ġ$ ğ",
      "ĝ ğ",
      "Ġ$ !",
      "Ĝ \"",
      "Ġ +",
      "ĀĀ %",
      "$ Ğ",
      "$ \"",
      "ĠĜ !",
      "ĝ !",
      "ĀĀ Ě",
      "# \"",
      "Ğ ğ",
      "Ġ$ \"",
      "Ġ ĕ",
      "Ĝ Ğ",
      "Ā ę",
      "ĠĠĠĠĠĠĠĠ ĠĠ",
      "Ğ !",
      "ĀĀ &",
      "# Ğ",
      "Ā '",
      "ě ğ",
      "Ġ\"! ğ",
      "$ ĀĀ",
      "ĝ \"",
      "ĠĜ \"",
      "# ĀĀ",
      "ĝ Ğ",
      "ĠĞğ !",
      "Ğ \"",
      "ğ ğ",
      "Ġ!! Ğ",
      "Ġ ĀĀ",
      "% !",
      "ě !",
      "Ġğğ \"",
      "% ĀĀ",
      "ě \"",
      "% ğ",
      "Ġ!ğ Ğ",
      "Ā Ę",
      "Ġ!\" ğ",
      "Ġ\"ğ ğ",
      "! ğ",
      "Ġğ! \"",
      "ĠĞ #",
      "! !",
      "& ĀĀ",
      "' ĀĀ",
      "Ĝ #",
      "ĠğĞ !",
      "$ #",
      "Ĝ ĝ",
      "Ġ ,",
      "\" \"",
      "Ġğ\" !",
      "% \"",
      "ĠğĞ ğ",
      "Ġ Ĕ",
      "ĠĞ! !",
      "ĠĠĠĠĠĠĠĠ ĠĠĠĠĠĠĠĠ",
      "\" ğ",
      "Ġ!Ğ ğ",
      "ĝ #",
      "Ġ!\" !",
      "ğ !",
      "Ğ Ğ",
      "$ ĝ",
      "% Ğ",
      "\" !",
      "# #",
      "Ā (",
      "ğ Ğ",
      "Ġ\"! !",
      "Ā ė",
      "Ě ğ",
      "ě Ğ",
      "ĝ ĝ",
      "! Ğ",
      "( ĀĀ",
      "Ġ!Ğ !",
      ") ĀĀ",
      "Ġğğ Ğ",
      "Ġ!! \"",
      "Ġğ\" ğ",
      "! \"",
      "ĠĞ! ğ",
      "\" Ğ",
      "Ġğ Ĝ",
      "ĠĜ Ğ",
      "ĠĞğ ğ",
      "& !",
      "Ġ# #",
      "Ě \"",
      "Ġ! Ĝ",
      "ě ĝ",
      "Ě !",
      "Ġ\"\" ğ",
      "Ġ\"ğ !",
      "* ĀĀ",
      "Ā )",
      "ğ \"",
      "Ġ -",
      "Ġğ! Ğ",
      "Ġ# ĝ",
      "$ $",
      "Ġ!ğ \"",
      "ĠĞğ \"",
      "% #",
      "Ġ\"! Ğ",
      "ĠĞĞ !",
      "Ġĝ ĝ",
      "& ğ",
      "Ğ ĝ",
      "ě #",
      "ğ #",
      "! #",
      "Ĝ Ĝ",
      "ĀĀ '",
      "% ĝ",
      "Ġ Ā",
      "Ġĝ #",
      "! ĝ",
      "\" #",
      "ĀĀ ę",
      "ĠĞ! \"",
      "ĠĠĠĠ ĠĠĠĠĠ",
      "Ġ\"ğ Ğ",
      "Ġ! $",
      "ĀĀğ Ā",
      "% $",
      "& \"",
      "ĀĀ Ę",
      "ĀĀĞ Ā",
      "ĀĀ\" Ā",
      "Ġ\" $",
      "ĠĞ\" !",
      "ę ğ",
      "ĀĀ (",
      "Ě Ğ",
      "ĠĞ Ĝ",
      "\" ĝ",
      "Ğ #",
      "Ġ#! ğ",
      "Ġĝğ !",
      "ě $",
      "ĠĠĠĠĠĠĠĠ ĠĠĠĠĠ",
      "Ġğ $",
      "Ġ ē",
      "Ġ!\" Ğ",
      "Ě #",
      "Ġğ\" \"",
      "Ĝ $",
      "& Ğ",
      "' !",
      "Ě ĝ",
      "Ġ!Ğ Ğ",
      "# ĝ",
      "ĠğĞ \"",
      "ĠĞĞ ğ",
      "Ġ\"Ğ ğ",
      "' ğ",
      "Ġ$ Ğ",
      "ĀĀĝ Ā",
      "Ġ% ğ",
      "Ġ .",
      "# $",
      "ĠĞ $",
      "ě Ĝ",
      "Ġ!! ĝ",
      "ę !",
      "ĀĀ ė",
      "Ġĝ! !",
      "Ġ#ğ ğ",
      "ĀĀ! Ā",
      "ĝ Ĝ",
      "\" $",
      "ę Ğ",
      "ě ě",
      "ĝ $",
      "Ġě !",
      "ĠĞ\" ğ",
      "ĀĀ )",
      "Ġ\"\" !",
      "Ġğğ #",
      "' \"",
      "Ġ! #ğ",
      "Ġ!ğ ĝ",
      "& #",
      "Ġğĝ !",
      "ę \"",
      "Ġğ! #",
      "Ġğ\" Ğ",
      "Ġ!\" \"",
      "& $",
      "& ĝ",
      "# Ĝ",
      "Ġě ğ",
      "Ġ% !",
      "Ě Ĝ",
      "Ġ\" Ĝ",
      "ĀĀ Ė",
      "ĠğĞ Ğ",
      "Ġ\"Ğ !",
      "Ġě Ğ",
      "Ġ#! !",
      "Ġĝğ ğ",
      "Ġ Ē",
      "% Ĝ",
      "ĀĀ# Ā",
      "ĠĜ ĝ",
      "\" %",
      "ę #",
      "Ġ!Ğ \"",
      "ĠĝĞ !",
      "' Ğ",
      "ĀĀ ĕ",
      "Ġ\"! ĝ",
      "ĠĞĞ \"",
      "Ġ#! Ğ",
      "Ġğĝ ğ",
      "% %",
      "\" Ĝ",
      "ę ĝ",
      "ğ ĝ",
      "Ġ# $",
      "Ġ\"\" Ğ",
      "ĠĞĝ !",
      "ĀĀĜ Ā",
      "ğ Ĝ",
      "Ġ#\" ğ",
      "! $",
      "ĠĞ! Ğ",
      "Ġ\"Ğ Ğ",
      "Ġ!ĝ !",
      "( !",
      "Ę Ğ",
      "Ġğ ě",
      "Ę ĝ",
      "Ġĝ $",
      "Ġ$ ĝ",
      "ĠĞğ Ğ",
      "Ġ\"! \"",
      "' #",
      "+ ĀĀ",
      "Ę !",
      "Ę ğ",
      "Ġ /",
      "Ġ\" #ğ",
      "Ġ$ #",
      "ĠğĞ #",
      "Ġ\"ğ \"",
      "Ġĝğ \"",
      "ĀĀě Ā",
      "Ğ $",
      "( ğ",
      "Ġğğ ĝ",
      "( \"",
      "Ġĝ Ĝ",
      "ĀĀ +",
      "Ġ% Ğ",
      "& &",
      "ğ $",
      "Ġğ #ğ",
      "ĠĞğ #",
      "Ġĝ! ğ",
      "Ġ Ā!",
      "Ġ# Ĝ",
      "ĠĠĠĠĠĠĠĠ ĠĠĠĠĠĠĠ",
      "Ġ!# Ğ",
      "' $",
      "Ę \"",
      "Ġ#ğ Ğ",
      "Ġ!ĝ ğ",
      "! Ĝ",
      "ę Ĝ",
      "ě %",
      "Ġ ĀĞ",
      "Ġ! #!",
      "ĀĀ *",
      "ĠĞ\" \"",
      "Ġ! %",
      "ĠĞ! #",
      "Ġ!! #",
      "ĀĀğ Āğ",
      "Ġĝ! \"",
      "$ %",
      "Ě %",
      "ĠĠĠĠĠĠĠĠ ĠĠĠĠĠĠĠĠĠĠ",
      "Ġğ\" #",
      "Ġ#ğ !",
      "ė Ğ",
      "Ğ %",
      "Ġ Āğ",
      "Ġ!ğ #",
      "Ġ\"ğ ĝ",
      "ĀĀğ ĀĞ",
      "Ğ Ĝ",
      "ĀĀ! Ā!",
      "& Ĝ",
      "Ġğ %",
      "ĀĀ -",
      "( #",
      "ğ %",
      "ĠĜ #",
      "ĀĀğ Ā!",
      "! %",
      "ę ě",
      "Ġğ! ĝ",
      "Ġğ #!",
      "Ġĝ\" !",
      "ě Ě",
      "Ġ Ā\"",
      "ĀĀğ Ā\"",
      "Ĝ %",
      "Ġ\" #!",
      "ĠĞ #!",
      "Ġ$ $",
      "Ġě \"",
      "ĀĀ% Ā",
      "ė !",
      "ĀĀĞ Ā!",
      "Ġğĝ \"",
      "ĀĀ$ Ā",
      "& %",
      "Ę Ĝ",
      "Ě $",
      "ĝ %",
      "ĝ ě",
      "Ġ đ",
      "Ġ!! Ĝ",
      "# %",
      "ę $",
      "Ĝ ě",
      "ğ ě",
      "Ġ\" ě",
      "ĀĀ Ĕ",
      "Ġ!\" ĝ",
      "ĀĀ! Āğ",
      ") ğ",
      "ĀĀ .",
      "Ġ!Ğ ĝ",
      "Ġ\"\" ĝ",
      "ĀĀĝ Ā!",
      "ĠĞĝ ğ",
      "Ġğ# \"",
      ") !",
      "Ġ# #ğ",
      "ĀĀ! Ā\"",
      "Ě ě",
      "Ġ\" %",
      "ĀĀ ,",
      "ĀĀĞ Ā\"",
      "ĀĀĝ Āğ",
      "Ġ!# \"",
      "Ġ#\" !",
      "ĠĝĞ ğ",
      "ĀĀĜ Ā!",
      "# ě",
      "' &",
      "( Ğ",
      "Ġ! ě",
      "Ġ#! ĝ",
      "ĀĀĞ Āğ",
      "ĀĀğ Āĝ",
      "ĀĀğ ĀĜ",
      "( $",
      "Ġ Āĝ",
      "Ġ!ğ Ĝ",
      "ĠĝĞ \"",
      "Ġ\"# Ğ",
      "( ĝ",
      "ė \"",
      "ĀĀ /",
      "ĠĠĠĠĠĠĠĠ ĠĠĠĠĠĠĠĠĠĠĠĠ",
      "Ġğĝ Ğ",
      "ĀĀ& Ā",
      "Ě &",
      "Ġ% \"",
      "Ġ\"\" \"",
      "ĀĀĞ Āĝ",
      "Ġğ# Ğ",
      "Ġ\"ĝ ğ",
      "ĀĀĚ Ā",
      "! ě",
      "$ Ĝ",
      "& ě",
      "' ĝ",
      ") \"",
      "ė ĝ",
      "ę %",
      "Ġ 0",
      "ĀĀ Ē",
      "ĠĞĞ Ğ",
      "Ġ!ĝ Ğ",
      "Ġ$ğ ğ",
      "ė ğ",
      "ĀĀ ē",
      "Ġě ĝ",
      "Ġ#Ğ Ğ",
      "Ġ#Ğ ğ",
      "ĠĜ! !",
      "# &",
      "ĠĞ %",
      "ĀĀĝ Ā\"",
      "ĀĀĝ Āĝ",
      "( %",
      "Ğ ě",
      "\" &",
      "Ę $",
      "ĠĞ ě",
      "ĠĠĠĠĠĠĠĠ ĠĠĠĠĠĠĠĠĠĠĠ",
      "ĀĀ! ĀĞ",
      "Ġ#\" Ğ",
      "Ġ\"ĝ !",
      "Ġ$! ğ",
      "Ę #",
      "Ġĝ #!",
      "Ġĝ ĝğ",
      "ĠĞ\" Ğ",
      "ĠĜğ !",
      "! &",
      "Ġĝ ĝ!",
      "ĠğĞ ĝ",
      "ĀĀ\" Āğ",
      "ĀĀ\" Āĝ",
      "$ &",
      "ĠĜ Ĝ",
      "Ġğğ $",
      "Ġ Āě",
      "Ġ$ Ğğ",
      "Ġ!\" #",
      "Ġ!Ğ #",
      "ĠĞĞ #",
      "ĠĞ\" #",
      "Ġ\"Ğ \"",
      "Ġ!ĝ \"",
      "Ġĝ\" ğ",
      "ĠĜğ \"",
      "' %",
      "' Ĝ",
      "Ġ# %",
      "Ġ\"Ğ ĝ",
      "ĀĀ! Āĝ",
      "' '",
      "* !",
      "Ğ &",
      "ĠĞ! $",
      "\" ě",
      "Ā Ė",
      "ė Ĝ",
      "Ġğ! $",
      "Ġ#! \"",
      "ĀĀĞ ĀĞ",
      "\" Ě",
      "Ā ,",
      "Ė Ğ",
      "Ğ Ě",
      "ğ Ě",
      "ĠĞ #\"",
      "ĀĀ! ĀĜ",
      "ĠĞĝ \"",
      "Ę ě",
      "Ĝ Ě",
      "Ġ! $ğ",
      "Ġğ $ğ",
      "ĠĞ! ĝ",
      "* \"",
      "Ġ Đ",
      "ĠĞ #ğ",
      "ĠĚ ğ",
      "Ġ\"! Ĝ",
      "Ġ$\" ğ",
      "$ ě",
      "ĝ &",
      "Ġĝ ě",
      "Ġ% #",
      "Ġğ\" ĝ",
      "Ġ#Ğ !",
      "Ā +",
      "Ė !",
      "ę Ě",
      "Ġĝğ #",
      "ĀĀ\" Ā!",
      "Ġ#Ğ ĝ",
      "Ġ$! !",
      "Ġğ $!",
      "ĀĀĞ Āě",
      "ĀĀ! Ā$",
      "ĀĀ\" Ā\"",
      "ĀĀ\" ĀĞ",
      "Ġ\"ĝ \"",
      "Ġ\"ĝ Ğ",
      ", ĀĀ",
      "Ā *",
      "ğ '",
      "Ġ Ā$",
      "Ġ\" $ğ",
      "ĠĞğ $",
      "Ġ\"ğ #",
      "Ġ!# ĝ",
      "Ġĝ\" \"",
      "Ė ě",
      "ĠĜ Ğ!",
      "Ġ& !",
      "Ġ\"! #",
      "ĀĀğ Āě",
      "ĀĀĞ Ā#",
      "( '",
      "Ė ĝ",
      "ę &",
      "Ġĝ #\"",
      "Ġ\"ğ Ĝ",
      "Ġ#ğ Ĝ",
      "Ġ!ĝ ĝ",
      "ĀĀ\" ĀĜ",
      "ĀĀ# Ā\"",
      ") #",
      "ĕ Ğ",
      "Ġ! Ĝ!",
      "ĀĀ đ",
      "Ġĝ ĝ\"",
      "Ġ# ě",
      "Ġ$ Ĝ",
      "ĠĞğ ĝ",
      "ĀĀĝ ĀĜ",
      "Ġ\"# ĝ",
      "Ġ$ğ Ğ",
      "ĠĜ! \"",
      "# Ě",
      "% &",
      ") $",
      "Ė ğ",
      "Ġğ Ĝğ",
      "Ġ# #!",
      "Ġ!! $",
      "Ġ% ĝ",
      "Ġ!ğ $",
      "ĠĞ\" ĝ",
      "Ġĝğ Ğ",
      "Ġĝ! $",
      "Ġ!ĝ #",
      "Ġ$! Ğ",
      "ĠĜ! ğ",
      "\" '",
      "Ġ ĀĜ",
      "Ġ! Ě",
      "Ġ! Ĝğ",
      "Ġğ Ĝ\"",
      "ĀĀğ Ā$",
      "ĀĀĝ ĀĞ",
      "Ġğ# #",
      "ĠĜ\" !",
      "% ě",
      ") Ğ",
      "* #",
      "Ġğ $Ğ",
      "Ġ\" Ĝ!",
      "Ġ# $!",
      "Ġğğ Ĝ",
      "ĀĀ# Āĝ",
      "ě &",
      "Ğ ę",
      "Ġ! &",
      "Ġğ Ě",
      "Ġě #",
      "ĀĀğ Ā%",
      "ĀĀĞ Ā%",
      "Ġĝ! Ğ",
      "Ġĝ\" #",
      "Ġ$\" !",
      ") &",
      "ė Ě",
      "Ĝ ę",
      "ğ &",
      "Ġ Ā#",
      "Ġ! $!",
      "Ġğ Ĝ!",
      "Ġĝ! #",
      "Ġ#ğ ĝ",
      "ĀĀĜ Āĝ",
      "ĠĜğ ğ",
      "Ġ$\" Ğ",
      "! Ě",
      "* $",
      "+ !",
      "ĕ ĝ",
      "ę ę",
      "Ĝ &",
      "Ġğ $\"",
      "Ġ\" Ě",
      "ĀĀğ Ā#",
      "Ġ\"Ğ #",
      "Ġğĝ #",
      "ĀĀ! Ā%",
      "Ġ#ğ \"",
      "ĀĀ# Ā!",
      "Ġ\"ĝ ĝ",
      "Ġ\"# \"",
      "ĠĠĠĠĠĠĠĠĠĠĠĠĠĠĠĠ ĠĠĠĠĠĠĠĠĠĠĠĠĠĠĠĠ",
      "ĕ Ĝ",
      "Ė \"",
      "Ė Ĝ",
      "ĝ Ě",
      "Ġ! '",
      "Ġ\" $Ğ",
      "ĠĞ Ĝ!",
      "ĠĞ $!",
      "Ġĝ #ğ",
      "Ġ# ĝ!",
      "Ġ& ğ",
      "Ġğ\" $",
      "Ġ\"\" #",
      "ĀĀğ ĀĚ",
      "ĠĝĞ Ğ",
      "ĀĀě Ā!",
      "ĠĜ\" ğ",
      "# (",
      "( &",
      ") %",
      "ė ě",
      "ě ę",
      "ĠĞ Ĝğ",
      "ĠĜ $",
      "Ġğ! Ĝ",
      "ĠğĞ $",
      "ĀĀ! Ā#",
      "ĀĀ! Āě",
      "ĀĀ\" Ā#",
      "ĠĝĞ #",
      "ĀĀĜ ĀĞ",
      "ĀĀ# Āğ",
      "ĀĀ# ĀĞ",
      "ĀĀĚ Ā!",
      "ĠĜ\" \"",
      "' ě",
      ") ĝ",
      "+ \"",
      "Ġğ &",
      "ĠĞ Ĝ\"",
      "ĠĞ #Ğ",
      "Ġĝ %",
      "Ġ# ĝğ",
      "Ġ# #Ğ",
      "Ġ$ %",
      "ĠĚ !",
      "Ġ#! #",
      "Ġ!# #",
      "ĠĞĝ Ğ",
      "Ġ#\" \"",
      "Ġ#\" ĝ",
      "Ġ#Ğ \"",
      "ĀĀě Āğ",
      "Ġ$ğ !",
      "( Ĝ",
      "ė #",
      "Ġ 1",
      "Ġ\" &",
      "ĠĜ Ğğ",
      "ĠĞĞ ĝ",
      "ĀĀĞ ĀĜ",
      "ĀĀĝ Ā#",
      "ĀĀĜ Āğ",
      "ĀĀ# Ā$",
      "ĀĀ$ Āĝ",
      "ĠĜğ #",
      "Ġ$! ĝ",
      "ĀĀĚ Āğ",
      "! '",
      ") )",
      "* Ğ",
      "Ę &",
      "Ę Ě",
      "Ġ% !ğ",
      "ĀĀĞ Ā$",
      "ĀĀĝ Ā$",
      "Ġğ# ĝ",
      "ĀĀ$ Ā\"",
      "ĀĀ% Āğ",
      "ĕ \"",
      "Ğ '",
      "Ġ! Ĝ\"",
      "Ġ! $Ğ",
      "Ġ! $\"",
      "Ġ\" $!",
      "Ġ$ #ğ",
      "Ġ$ Ğ!",
      "ĠĜ ĝğ",
      "ĠĜ Ğ\"",
      "Ġ!! ě",
      "ĠĠĠĠĠĠĠĠ ĠĠĠĠĠĠ",
      "Ġ\"ğ ě",
      "Ġ#! Ĝ",
      "Ġ!ĝ Ĝ",
      "ĀĀĝ Āě",
      "ĀĀĜ Ā\"",
      "ĀĀ$ Ā!",
      "ĀĀ$ ĀĞ",
      "ĀĀě Ā\"",
      "Ġ## ĝ",
      "' (",
      "' Ā",
      ") (",
      "Ę %",
      "ĠĞ $Ğ",
      "ĀĀ Đ",
      "Ġĝ ĝĞ",
      "Ġ# &",
      "Ġ# $ğ",
      "Ġ# #\"",
      "Ġě Ĝ",
      "Ġ% $",
      "Ġğ! %",
      "Ġ& \"",
      "Ġ\"! ě",
      "Ġ\"Ğ Ĝ",
      "Ġğĝ ĝ",
      "ĠĞĝ #",
      "Ġĝ\" Ğ",
      "Ĕ Ĝ",
      "ĕ ğ",
      "Ě ę",
      "ĝ ę",
      "Ġ 2",
      "Ġ$ ě",
      "Ġ$ #Ğ",
      "Ġę !",
      "ĀĀ\" Ā$",
      "ĀĀ\" ĀĚ",
      "ĀĀĜ ĀĜ",
      "Ġĝ\" $",
      "ĀĀě ĀĜ",
      "% '",
      ") '",
      "ĕ !",
      "Ę ę",
      "Ġ ĀĚ",
      "Ġ\" Ĝğ",
      "ĀĀ ď",
      "Ġ# ĝ\"",
      "ĠĜ ĝ!",
      "Ġě ğğ",
      "Ġ!\" Ĝ",
      "Ġ!Ğ Ĝ",
      "ĀĀĜ Ā#",
      "ĀĀ$ Āğ",
      "ĀĀ% Ā\"",
      "Ġ$\" ĝ",
      "ĀĀ& Āĝ",
      "ĠĞ# #",
      "ĀĀ( Ā",
      "# '",
      "% Ě",
      "& (",
      "* ğ",
      "Ě '",
      "ğ ę",
      "Ġ\" ĜĞ",
      "Ġ# ĝĞ",
      "Ġ$ $Ğ",
      "Ġ!ğ ě",
      "Ġ& $",
      "ĀĀĞ Ā&",
      "ĀĀ! ĀĚ",
      "ĀĀ# ĀĜ",
      "+ $",
      "Ė #",
      "ę ĀĀ",
      "Ě Ě",
      "Ĝ '",
      "Ġ ď",
      "Ġ Āę",
      "Ġĝ $!",
      "Ġ# $Ğ",
      "Ġ$ ĞĞ",
      "ĠĜ ě",
      "Ġě Ğğ",
      "ĠĚ \"",
      "ĠğĞ Ĝ",
      "Ġ' !",
      "Ġ!Ğ $",
      "ĀĀ# Ā#",
      "ĀĀ& Āğ",
      "* %",
      "* (",
      "Ĕ Ğ",
      "Ė Ě",
      "ė Ę",
      "ĝ ĀĀ",
      "ğ Ę",
      "Ġ Ā&",
      "Ġ! ěğ",
      "Ġğ Ĝĝ",
      "Ġ$ &",
      "Ġě $",
      "Ġě !!",
      "Ġ\"ğ $",
      "ĀĀğ Ā'",
      "Ġĝ! ĝ",
      "Ġ#\" #",
      "ĀĀĜ Ā$",
      "& '",
      "+ &",
      "Ā ĕ",
      "ě (",
      "ĝ '",
      "Ġ! %Ğ",
      "Ġğ ĜĞ",
      "Ġĝ Ĝ!",
      "Ġ# Ĝğ",
      "Ġ$ $ğ",
      "Ġě !ğ",
      "Ġ% \"ğ",
      "Ġ\"! $",
      "Ġę Ğ",
      "Ġĝğ ĝ",
      "ĀĀ\" Ā%",
      "ĀĀě ĀĞ",
      "Ġ$ğ ĝ",
      "$ '",
      "+ %",
      "+ ğ",
      "Ā .",
      "Ė $",
      "ė ę",
      "Ę ĀĀ",
      "Ġ Ā'",
      "Ġ! ě\""
    ]
  }
}