{
  "version": "1.0",
  "truncation": null,
  "padding": null,
  "added_tokens": [],
  "normalizer": null,
  "pre_tokenizer": {
    "type": "ByteLevel",
    "add_prefix_space": false,
    "trim_offsets": true,
    "use_regex": true
  },
  "post_processor": {
    "type": "ByteLevel",
    "add_prefix_space": true,
    "trim_offsets": false,
    "use_regex": true
  },
  "decoder": {
    "type": "ByteLevel",
    "add_prefix_space": true,
    "trim_offsets": true,
    "use_regex": true
  },
  "model": {
    "type": "BPE",
    "dropout": null,
    "unk_token": null,
    "continuing_subword_prefix": null,
    "end_of_word_suffix": null,
    "fuse_unk": false,
    "byte_fallback": false,
    "ignore_merges": false,
    "vocab": {
      "\u0000": 0,
      "\u0001": 1,
      "\u0002": 2,
      "\u0003": 3,
      "\u0004": 4,
      "\u0005": 5,
      "\u0006": 6,
      "\u0007": 7,
      "\b": 8,
      "\t": 9,
      "\n": 10,
      "\u000b": 11,
      "\f": 12,
      "\r": 13,
      "\u000e": 14,
      "\u000f": 15,
      "\u0010": 16,
      "\u0011": 17,
      "\u0012": 18,
      "\u0013": 19,
      "\u0014": 20,
      "\u0015": 21,
      "\u0016": 22,
      "\u0017": 23,
      "\u0018": 24,
      "\u0019": 25,
      "\u001a": 26,
      "\u001b": 27,
      "\u001c": 28,
      "\u001d": 29,
      "\u001e": 30,
      "\u001f": 31,
      " ": 32,
      "!": 33,
      "\"": 34,
      "#": 35,
      "$": 36,
      "%": 37,
      "&": 38,
      "'": 39,
      "(": 40,
      ")": 41,
      "*": 42,
      "+": 43,
      ",": 44,
      "-": 45,
      ".": 46,
      "/": 47,
      "0": 48,
      "1": 49,
      "2": 50,
      "Ā": 51,
      "ā": 52,
      "Ă": 53,
      "ă": 54,
      "Ą": 55,
      "ą": 56,
      "Ć": 57,
      "ć": 58,
      "Ĉ": 59,
      "ĉ": 60,
      "Ċ": 61,
      "ċ": 62,
      "Č": 63,
      "č": 64,
      "Ď": 65,
      "ď": 66,
      "Đ": 67,
      "đ": 68,
      "Ē": 69,
      "ē": 70,
      "Ĕ": 71,
      "ĕ": 72,
      "Ė": 73,
      "ė": 74,
      "Ę": 75,
      "ę": 76,
      "Ě": 77,
      "ě": 78,
      "Ĝ": 79,
      "ĝ": 80,
      "Ğ": 81,
      "ğ": 82,
      "Ġ": 83,
      "ęę": 84,
      "ęęęę": 85,
      "ęĚ": 86,
      "ęĘ": 87,
      "ęęĚ": 88,
      "ęęĘ": 89,
      "ĀĀ": 90,
      "ęě": 91,
      "ęė": 92,
      "ęęęęęęęę": 93,
      "ęęė": 94,
      "ęęě": 95,
      "Ęęęęę": 96,
      "Ěęęęę": 97,
      "ęęęĚ": 98,
      "ęęęĘ": 99,
      "ęĜ": 100,
      "ęĖ": 101,
      "ęęĖ": 102,
      "ęęĜ": 103,
      "ęĘęęęę": 104,
      "ęĚęęęę": 105,
      "ęĝ": 106,
      "ęĕ": 107,
      "ĘęęĚ": 108,
      "ĚęęĘ": 109,
      "ĘęęĘ": 110,
      "ĚęęĚ": 111,
      "ęęęęĘ": 112,
      "ęĚĚ": 113,
      "ęęęęĚ": 114,
      "ęĘĘ": 115,
      "ęĚĘ": 116,
      "ęęĕ": 117,
      "ęĘĚ": 118,
      "ęęĝ": 119,
      "ęęęė": 120,
      "ęęęě": 121,
      "ęęę": 122,
      "ėęęęę": 123,
      "ěęęęę": 124,
      "ęęęęęęęęęęęę": 125,
      "ęęĚęęęę": 126,
      "ęĞ": 127,
      "ęęĘęęęę": 128,
      "ęęĞ": 129,
      "ėęęĚ": 130,
      "ęĔ": 131,
      "ęęĔ": 132,
      "ĀĚ": 133,
      "ěęęĘ": 134,
      "ĀĘ": 135,
      "ĀĀĘ": 136,
      "ĀĀę": 137,
      "Ęęęě": 138,
      "Ěęęė": 139,
      "ęĚě": 140,
      "ęĘė": 141,
      "ęěĚ": 142,
      "Āě": 143,
      "ėęęĘ": 144,
      "Ęęęė": 145,
      "Āė": 146,
      "ěęęĚ": 147,
      "ęĘě": 148,
      "ĀĀĚ": 149,
      "ęěĘ": 150,
      "ęĚė": 151,
      "Ěęęě": 152,
      "ĀĀė": 153,
      "ęėĚ": 154,
      "ęėĘ": 155,
      "ĀĖ": 156,
      "ęğ": 157,
      "ĀĜ": 158,
      "ęęęęęęęęęęęęęęęę": 159,
      "ęęē": 160,
      "ĀĀě": 161,
      "ęęęĜ": 162,
      "ęęęĖ": 163,
      "ęęğ": 164,
      "ĀĀĖ": 165,
      "ęęęĘęęęę": 166,
      "ęęĚę": 167,
      "ęėė": 168,
      "ěęęė": 169,
      "ĘęęęęĚ": 170,
      "ĘęęęęĘ": 171,
      "Āĕ": 172,
      "ęęĚęęęĚ": 173,
      "ėęęě": 174,
      "Āĝ": 175,
      "ęęĘę": 176,
      "ęěęęęę": 177,
      "ęěě": 178,
      "Ĝęęęę": 179,
      "ĖęęĚ": 180,
      "ęėęęęę": 181,
      "Ėęęęę": 182,
      "ĚęęęęĚ": 183,
      "ęē": 184,
      "ęęęĚęęęę": 185,
      "ěęęě": 186,
      "ĚęęęęĘ": 187,
      "ĀĀĜ": 188,
      "ęěė": 189,
      "ĜęęĘ": 190,
      "ėęęė": 191,
      "ęėě": 192,
      "ĖęęĘ": 193,
      "ĀĀĕ": 194,
      "ĘęęĜ": 195,
      "ęęęĘę": 196,
      "ęĚĚęęęę": 197,
      "ęĚęęĘ": 198,
      "ĜęęĚ": 199,
      "ĀĞ": 200,
      "ěĚ": 201,
      "ęĚĜ": 202,
      "ęĘęęĚ": 203,
      "ęĘĘęęęę": 204,
      "ėĚ": 205,
      "ĀĀĝ": 206,
      "ęęĒ": 207,
      "ęęęĚę": 208,
      "ęĘęęĘ": 209,
      "ęĜĚ": 210,
      "ĀĔ": 211,
      "ęĘęęęęĚ": 212,
      "ęĘĖ": 213,
      "ĘęęĖ": 214,
      "ęĚęęĚ": 215,
      "ęĘĜ": 216,
      "ęĖĘ": 217,
      "ęĚĖ": 218,
      "ęĚęęęęĚ": 219,
      "ĀĀĔ": 220,
      "ęĚęęęęĘ": 221,
      "ęĖĚ": 222,
      "ęĘęęęęĘ": 223,
      "ęęęęęęęęęęę": 224,
      "ęĜĘ": 225,
      "ėĘ": 226,
      "ęĚĘęęęę": 227,
      "ęĘĚęęęę": 228,
      "ěĘ": 229,
      "ĀĀĞ": 230,
      "ěě": 231,
      "ęęęĕ": 232,
      "ęěĜ": 233,
      "ęĒ": 234,
      "Ėęęě": 235,
      "ĚęęĖ": 236,
      "Āē": 237,
      "ęęĘęęęĘ": 238,
      "ĚęęĜ": 239,
      "Ĝęęė": 240,
      "ęęęĝ": 241,
      "ęęęęĘĘ": 242,
      "ėě": 243,
      "ęėĖ": 244,
      "ĕęęęę": 245,
      "ęę!": 246,
      "Ėęęė": 247,
      "ėęęĜ": 248,
      "ĀĀğ": 249,
      "ęĜě": 250,
      "ęėĜ": 251,
      "ęęęęĘĚ": 252,
      "ęęđ": 253,
      "ęęęęĚĚ": 254,
      "ĀĀē": 255,
      "ęĖė": 256,
      "ęęęęĚĘ": 257,
      "ęěĖ": 258,
      "Ĝęęě": 259,
      "ěęęĖ": 260,
      "ėęęĖ": 261,
      "ĀĀęĀ": 262,
      "ĕęęĘ": 263,
      "ęęęĘęęĘ": 264,
      "ĕęęĚ": 265,
      "ėė": 266,
      "ĀĀĘĀ": 267,
      "ĜĚ": 268,
      "ĝęęęę": 269,
      "ęĜė": 270,
      "ěęęĜ": 271,
      "ĀĀĒ": 272,
      "ęĖě": 273,
      "ĖĚ": 274,
      "ĖĘ": 275,
      "ĝęęĘ": 276,
      "ęĜĜ": 277,
      "ęęęĘęęĚ": 278,
      "ĜĘ": 279,
      "ęĖęęęę": 280,
      "ęęęĚęęĘ": 281,
      "ę!": 282,
      "ęđ": 283,
      "ĀĀėĀ": 284,
      "ĚęęĘę": 285,
      "ęęęĚęęĚ": 286,
      "ĀĀ!": 287,
      "ęĕĚ": 288,
      "Ĝě": 289,
      "ĕĚ": 290,
      "ęĚĝ": 291,
      "ęěęęĘ": 292,
      "ęĚęęęęęę": 293,
      "ęĘęĚęęęę": 294,
      "ęęęęęęĘ": 295,
      "ęĘĕ": 296,
      "ĀĀĚĀ": 297,
      "ĀĀěĀ": 298,
      "ėĜ": 299,
      "ĝęęĚ": 300,
      "ĘęęĚę": 301,
      "ęĖĖ": 302,
      "ęĝĚ": 303,
      "ęĚęĘęęęę": 304,
      "ĀĀđ": 305,
      "ěĜ": 306,
      "ęĚęĘ": 307,
      "ĘĚ": 308,
      "ęęęęęęĚ": 309,
      "ęĘęĚ": 310,
      "ęę\"": 311,
      "ęĘĝ": 312,
      "ĚęęĚę": 313,
      "Ěęęęęę": 314,
      "ęĕĘ": 315,
      "ĖęęĜ": 316,
      "ęėęęĘ": 317,
      "ęĜęęęę": 318,
      "ĘęęĘę": 319,
      "ęĚĘęęęĘ": 320,
      "ęĘĚęęęĚ": 321,
      "ęĚĕ": 322,
      "Ėě": 323,
      "ĀĀĖĀ": 324,
      "ęęęĞ": 325,
      "ęęĘĘęęęę": 326,
      "ęėęęĚ": 327,
      "Ęęęĝ": 328,
      "ĚĚ": 329,
      "ĝęęė": 330,
      "ęęęęęęęęęęęęę": 331,
      "ęęĐ": 332,
      "ĕęęě": 333,
      "Ėė": 334,
      "ĝĚ": 335,
      "ęĝĘ": 336,
      "ĕĘ": 337,
      "ęęęĔ": 338,
      "ěė": 339,
      "ĀĀĐ": 340,
      "ęĘęęęęęę": 341,
      "ęĚĚęęęĚ": 342,
      "ęęęęęęęęęęęęęęęęęęęę": 343,
      "ĝě": 344,
      "ęĘĘęęęĘ": 345,
      "ĜĜ": 346,
      "ęęěęęęę": 347,
      "ĖęęĖ": 348,
      "ęěĝ": 349,
      "ęĘęĘęęęę": 350,
      "ĕęęė": 351,
      "ęęĚęęęęę": 352,
      "ĜęęĖ": 353,
      "ęĝě": 354,
      "ĘĘ": 355,
      "ęėĕ": 356,
      "ĀĀ\"": 357,
      "ęĚęĚ": 358,
      "ęęĚĚęęĚ": 359,
      "ęěęęĚ": 360,
      "Ėĝ": 361,
      "ęęėęęęę": 362,
      "ęĚęĚęęęę": 363,
      "ęĘęĘ": 364,
      "ęęĚĘęęĚ": 365,
      "ęęĘęęęęę": 366,
      "ęĜĖ": 367,
      "ęĕė": 368,
      "ę\"": 369,
      "ęęĚĚęęęę": 370,
      "ĕě": 371,
      "Ĝĝ": 372,
      "Ęęęĕ": 373,
      "Ęęęęęę": 374,
      "ĕė": 375,
      "ęĖĜ": 376,
      "ęęĘĚęęĘ": 377,
      "ěĞ": 378,
      "ęĝė": 379,
      "ĔęęĚ": 380,
      "ĀĀ$": 381,
      "ĀĀĕĀ": 382,
      "Ěęęĕ": 383,
      "ĀĀ#": 384,
      "ĀĀď": 385,
      "ęęęęęęęęęĘ": 386,
      "Ěęęĝ": 387,
      "ěęęęęĘ": 388,
      "ĔęęĘ": 389,
      "ęęĘĚęęęę": 390,
      "ęęĘĘęęĘ": 391,
      "ėęęĝ": 392,
      "Ěęęęęęę": 393,
      "ĖĜ": 394,
      "ěĝ": 395,
      "ęęĚĘęęęę": 396,
      "Ęęęęęęę": 397,
      "ĀĀĜĀ": 398,
      "ęėĝ": 399,
      "ęěęęęęĘ": 400,
      "ęĚĚĘęęĚ": 401,
      "ęėęęęęĚ": 402,
      "ĚĘ": 403,
      "ęĜĝ": 404,
      "ęĘėęęęę": 405,
      "Ĕęęęę": 406,
      "ėęęęęĘ": 407,
      "ęěĕ": 408,
      "ĚęęęĚ": 409,
      "ĞĞ": 410,
      "ęĕě": 411,
      "ęĚĘĚęęĘ": 412,
      "ėęęęęĚ": 413,
      "ĀĀĎ": 414,
      "ĔĘ": 415,
      "ėĝ": 416,
      "ėęęĕ": 417,
      "ęęęęęęęęęĚ": 418,
      "ęĝĜ": 419,
      "ęĘęęęęęęĚ": 420,
      "ėĖ": 421,
      "ĘĘęęęę": 422,
      "ĞęęĘ": 423,
      "ęĚęęęęęęĚ": 424,
      "ęĚęęęęęęĘ": 425,
      "ĀĀĔĀ": 426,
      "Ĕě": 427,
      "ęĖĕ": 428,
      "ęĕĖ": 429,
      "ęĘĘĚęęĘ": 430,
      "ĝĜ": 431,
      "ĔĚ": 432,
      "ęĚĞ": 433,
      "ĀĀ%": 434,
      "ęęėęęęĘ": 435,
      "ĝęęě": 436,
      "ęęęęęęęęęęęĚ": 437,
      "ĕĜ": 438,
      "ęęěęęęĚ": 439,
      "ĕęęĖ": 440,
      "ĚĚęęęę": 441,
      "ěęęęęĚ": 442,
      "ęęęęęęęęęęęĘ": 443,
      "ĀĀĘĀĘ": 444,
      "ĘęęęĘ": 445,
      "ęėęęęęĘ": 446,
      "ęęęē": 447,
      "ęĐ": 448,
      "ęę#": 449,
      "ęĘĚĚęęęę": 450,
      "ęĘĚĚęęĚ": 451,
      "ğĜ": 452,
      "ĀĀĘĀĚ": 453,
      "ĀĀĝĀ": 454,
      "ĀĀĞĀ": 455,
      "ĠĚ": 456,
      "ęĘęĚęęĚ": 457,
      "ęĘęęęęęęĘ": 458,
      "ęĘĚĘęęĚ": 459,
      "ęĚĘĘęęĘ": 460,
      "ęĘĘĚęęęę": 461,
      "ĕęęĜ": 462,
      "ěęęĝ": 463,
      "Ğęęęę": 464,
      "ęĚęęęęę": 465,
      "ĠĜ": 466,
      "ęĚęĘęęĚ": 467,
      "ęĚęĘęęĘ": 468,
      "Ėęęĝ": 469,
      "ęęęęęęęęęęęęęęę": 470,
      "ęęĚęęęĚę": 471,
      "Ġĝ": 472,
      "ęĚěęęęę": 473,
      "ĚęęęęęęĚ": 474,
      "ĖĖ": 475,
      "ĘęęĞ": 476,
      "ĞĚ": 477,
      "ěęęĕ": 478,
      "ęĚĔ": 479,
      "ęĚĚĘęęęę": 480,
      "Ĕęęė": 481,
      "ğĚ": 482,
      "ğĞ": 483,
      "ęĞĚ": 484,
      "ęĚĚĚęęęę": 485,
      "ěĖ": 486,
      "ęĜĕ": 487,
      "ęĜęęĘ": 488,
      "ęĞĘ": 489,
      "ęęęęęęęęęęęęęęęęęę": 490,
      "ĚĘęęęę": 491,
      "ĝĝ": 492,
      "ĞĜ": 493,
      "ęę$": 494,
      "ęęď": 495,
      "ęĘęĘęęĚ": 496,
      "ĀĀ&": 497,
      "ęěĚęęęę": 498,
      "ĀĀęĀĘ": 499,
      "ėęęĞ": 500,
      "ęěęęęęĚ": 501,
      "ęĘĔ": 502,
      "ęĘęĚęęĘ": 503,
      "ĀĀęĀė": 504,
      "ĘĚęęęę": 505,
      "ęěĞ": 506,
      "ĀĚĚ": 507,
      "ęĘęęęęę": 508,
      "ĀĀ'": 509,
      "Ĕęęě": 510,
      "ğĝ": 511,
      "ęęęęęęęęĚ": 512,
      "ęęęěę": 513,
      "ęęęğ": 514,
      "ĀĀĘĀė": 515,
      "ēė": 516,
      "ēĚ": 517,
      "Ėęęĕ": 518,
      "ęęěĘęęĚ": 519,
      "ĀĀğĀ": 520,
      "ĘęęęęęęĘ": 521,
      "ęĖęęĚ": 522,
      "ğĘ": 523,
      "ęĚęęė": 524,
      "ęĚęęě": 525,
      "ęĕęęęę": 526,
      "Ĕĝ": 527,
      "ęĘęęęĘ": 528,
      "ĀĚĘ": 529,
      "ĕĝ": 530,
      "ĞęęĚ": 531,
      "ęĘĞ": 532,
      "ęĝĖ": 533,
      "ęęęěęęĘ": 534,
      "ĀĀĘĀě": 535,
      "ęĚęĚęęĘ": 536,
      "ęěęĘ": 537,
      "ęęęėęęęę": 538,
      "ĀĀęĀě": 539,
      "ĀĀĚĀĘ": 540,
      "ĝĘ": 541,
      "ĘęęęęęęĚ": 542,
      "ĒĘ": 543,
      "ęĜęęĚ": 544,
      "ęęęėę": 545,
      "ēĘ": 546,
      "Ĝė": 547,
      "ęĕĜ": 548,
      "ęĘĘĘęęĘ": 549,
      "ęĘėęęęĘ": 550,
      "Ĕė": 551,
      "ĚĜ": 552,
      "ĠĘ": 553,
      "ęĘęĘęęĘ": 554,
      "ĚęęęęęęĘ": 555,
      "ęĔĘ": 556,
      "ęęęėęęĚ": 557,
      "ęęęěęęęę": 558,
      "ęęĘęęęęęęĘ": 559,
      "ĔĖ": 560,
      "ĠĞ": 561,
      "ęėęęě": 562,
      "ĀĀĘĀĖ": 563,
      "ęĘĘĘęęęę": 564,
      "ęęĚęęęęęęĚ": 565,
      "ęĚěęęęĚ": 566,
      "ĀĀėĀĘ": 567,
      "ęĚĚęęęęę": 568,
      "ĕĕ": 569,
      "ę#": 570,
      "ĚĚęęĚ": 571,
      "Ġğ": 572,
      "ėęęęĘ": 573,
      "ęėĔ": 574,
      "ęęęęęęęęĘ": 575,
      "ęĝęęęę": 576,
      "ĖĞ": 577,
      "Ġě": 578,
      "ęęĎ": 579,
      "ęĖęęĘ": 580,
      "ğě": 581,
      "ęĔĚ": 582,
      "ęėĘęęęę": 583,
      "ęęěĚęęĚ": 584,
      "ĀĀęĀĚ": 585,
      "Ĝęęĕ": 586,
      "Ġė": 587,
      "ęěęęė": 588,
      "ęĚĘĘęęęę": 589,
      "ĀĀėĀě": 590,
      "ęĚęęęęęęęęęęęę": 591,
      "ęĘěęęęę": 592,
      "ęĖĔ": 593,
      "ęĖĝ": 594,
      "ęęĘęęęęęęĚ": 595,
      "ęĚěĘęęĚ": 596,
      "ęĘěęęęĚ": 597,
      "ĘęęęęĘĘ": 598,
      "ĜęęĜ": 599,
      "Ğęęė": 600,
      "ęĚĚĚęęĚ": 601,
      "ēęęĘ": 602,
      "ĖęęĞ": 603,
      "ěĘęęĚ": 604,
      "ęĚęęęĚ": 605,
      "ęěĘęęęę": 606,
      "ęėĞ": 607,
      "ęęęėęęĘ": 608,
      "ęęĘęęęęęę": 609,
      "ĒĚ": 610,
      "ēęęĚ": 611,
      "ęĀĀ": 612,
      "ęęĚęęęęęęĘ": 613,
      "Ēė": 614,
      "ĕęęĕ": 615,
      "ęěĔ": 616,
      "ęęėĚęęĘ": 617,
      "ęĘĚĘęęęę": 618,
      "ĀĀėĀė": 619,
      "ęĘĘęęęęę": 620,
      "ęĘĚęęęęę": 621,
      "ėĘęęĘ": 622,
      "ĀĀĚĀė": 623,
      "ĀĀēĀ": 624,
      "ĕĖ": 625,
      "ęĞĜ": 626,
      "ĀĀĚĀě": 627,
      "ĀĀĚĀĖ": 628,
      "ēęęęę": 629,
      "ĕęęĝ": 630,
      "ęėĚęęęę": 631,
      "ĀĀęĀĕ": 632,
      "ĀĀĚĀĚ": 633,
      "ěğ": 634,
      "ěĚęęęę": 635,
      "ěęęęĚ": 636,
      "ęĝĝ": 637,
      "ęęęęęęęęęęęęęęęęęęęęęęęę": 638,
      "ęĘĘěęęĘ": 639,
      "ėęęĚę": 640,
      "ėĘęęęę": 641,
      "ĜĞ": 642,
      "ęĚęĚęęĚ": 643,
      "ęęęěęęĚ": 644,
      "ęęęęęęęęęęęęęęęęęęę": 645,
      "ĘęęęęĘĚ": 646,
      "ĖęęęęĘ": 647,
      "Ěĝ": 648,
      "ğęęĘ": 649,
      "ĠĀ": 650,
      "ęĚęęęęęęęę": 651,
      "ęĚėęęęę": 652,
      "ęęėĘęęĘ": 653,
      "ęĘęęė": 654,
      "ęĘęěęęęę": 655,
      "ĀĀ(": 656,
      "ĀĀėĀĚ": 657,
      "ĕĞ": 658,
      "ĀĀĖĀĚ": 659,
      "ęĘęęęęě": 660,
      "ęĝĞ": 661,
      "ĀĀęĀĜ": 662,
      "ęěĘęęęĘ": 663,
      "ĘęęęęĚĘ": 664,
      "ĀĀĒĀ": 665,
      "đĚ": 666,
      "ēĝ": 667,
      "ĔęęĖ": 668,
      "ęĘęęęęęęęę": 669,
      "ęęĚęęĘ": 670,
      "ęěęęě": 671,
      "ęęęĘęęė": 672,
      "ęĔė": 673,
      "ĖęęęęĚ": 674,
      "ęĜĞ": 675,
      "ęğĚ": 676,
      "ĚęęęęĘĘ": 677,
      "ğğ": 678,
      "ęĘęęě": 679,
      "ęĘĘęęęĚ": 680,
      "ęĞė": 681,
      "ęĔĖ": 682,
      "ęĘėĚęęĘ": 683,
      "ĚęęęęĘĚ": 684,
      "ēĖ": 685,
      "Ğĝ": 686,
      "ğė": 687,
      "ęĘęęęęęęęęęęęę": 688,
      "ęęĚęęęĘ": 689,
      "ĀĀĚĀĜ": 690,
      "ĒĖ": 691,
      "ĔĜ": 692,
      "ĘęęĔ": 693,
      "ěĕ": 694,
      "ęęĚęęęęęę": 695,
      "ĀĀęĀĖ": 696,
      "ěęęĚę": 697,
      "ęėĚęęęĚ": 698,
      "ĚęęęęĚĘ": 699,
      "ěĘęęęę": 700,
      "ęĚĚęęęě": 701,
      "ĀĀěĀė": 702,
      "ēě": 703,
      "ēęęė": 704,
      "ĔĞ": 705,
      "ĜęęęęĚ": 706,
      "ęę%": 707,
      "ęĚğ": 708,
      "ęęĘęęęĚ": 709,
      "ęĘĘęęęė": 710,
      "ęĚėęęęĘ": 711,
      "ęĚęė": 712,
      "ęĚĚęęĚ": 713,
      "ęĚėĚęęĘ": 714,
      "đė": 715,
      "Ēĕ": 716,
      "ēĜ": 717,
      "ęėĚĚęęĚ": 718,
      "ĀĀěĀĘ": 719,
      "Ęĝ": 720,
      "ęď": 721,
      "ęĚĘęęĚ": 722,
      "ęĚĘĚęęęę": 723,
      "ĀĀĘĀĕ": 724,
      "ęěĚęęęĚ": 725,
      "ĀĀđĀ": 726,
      "ėĕ": 727,
      "ėĞ": 728,
      "Ěě": 729,
      "Ġęęęę": 730,
      "ęęęęęęęęęęĚ": 731,
      "ęĚĚęęęĘ": 732,
      "ęěĘĘęęĘ": 733,
      "ĀĀĖĀė": 734,
      "ėĚęęĘ": 735,
      "ğęęęę": 736,
      "ĀĀ)": 737,
      "ęĜĔ": 738,
      "ęĕĕ": 739,
      "ęĚĚėęęĚ": 740,
      "ęęęĒ": 741,
      "ęĞĝ": 742,
      "ęĔĜ": 743,
      "ĀĀěĀě": 744,
      "ĀĀěĀĖ": 745,
      "ĞĘ": 746,
      "ęęėę": 747,
      "ęĞě": 748,
      "ĀĀĐĀ": 749,
      "!ĝ": 750,
      "ęęĚęęęě": 751,
      "ęęĚĘęęě": 752,
      "ęęĘęęęė": 753,
      "ęęęĘęęě": 754,
      "ęĚĚĘęęĘ": 755,
      "ęĚĘęęęęę": 756,
      "!ğ": 757,
      "ęĝĕ": 758,
      "ęĞĖ": 759,
      "ęĚěĚęęĚ": 760,
      "ęėĘĚęęęę": 761,
      "ĜęęęęĘ": 762,
      "ęĚęėęęęę": 763,
      "ęęĘęęĘ": 764,
      "ĀĀ*": 765,
      "ęĕĝ": 766,
      "ėęęĘę": 767,
      "ęĚėĘęęĘ": 768,
      "ĀĀėĀĖ": 769,
      "ĀĀĖĀĘ": 770,
      "ĀĀ!Ā": 771,
      "!ě": 772,
      "ĔęęĜ": 773,
      "ĘĜ": 774,
      "ęĘęĚęęęęĘ": 775,
      "ęęĚėęęĚ": 776,
      "ęěęĘęęęę": 777,
      "ęėęĚęęĚ": 778,
      "ęęęęęęęęęęęęĘ": 779,
      "ĀĀĘĀĜ": 780,
      "Ěęęėę": 781,
      "ęĘėĘęęĘ": 782,
      "ęĘěĘęęĚ": 783,
      "ęėĘęęęĘ": 784,
      "ĘĞ": 785,
      "ĝęęĖ": 786,
      "ęĚęĘęęęęĚ": 787,
      "ęĚęėęęĘ": 788,
      "ęĘęĚęęęęĚ": 789,
      "ęěğ": 790,
      "ęėėęęęę": 791,
      "ęęęęęęęęęęęęĚ": 792,
      "Ěęęěę": 793,
      "ĀĀėĀĕ": 794,
      "!Ě": 795,
      "Ēě": 796,
      "ęėęĚęęęę": 797,
      "ęĚĘęęęė": 798,
      "ęğĜ": 799,
      "ĀĀĕĀĚ": 800,
      "ēęęě": 801,
      "ę$": 802,
      "ĠĖ": 803,
      "ęĘĚęęĘ": 804,
      "ęėęęė": 805,
      "ęĘĚęęęě": 806,
      "ęĔě": 807,
      "ęěĚĘęęęę": 808,
      "ĀĀėĀĜ": 809,
      "!Ĝ": 810,
      "!Ğ": 811,
      "Ĕęęĝ": 812,
      "ĜĖ": 813,
      "ęĚęĘęęęęĘ": 814,
      "ęĘğ": 815,
      "ęęĘěęęĘ": 816,
      "ęěęĚęęĘ": 817,
      "ęęėęęęė": 818,
      "ęęęĚęęě": 819,
      "ęęęĚęęęęĘ": 820,
      "ęęęĘęęęęĘ": 821,
      "ĀĀĖĀě": 822,
      "ĀĀ\"Ā": 823,
      "ĒĜ": 824,
      "ėęęĔ": 825,
      "ĚęęĔ": 826,
      "ęĘē": 827,
      "ęěęĘęęĘ": 828,
      "ęęĜęęęę": 829,
      "ęęĚęęęĚęęęę": 830,
      "ęĚęęęęĚę": 831,
      "Ēĝ": 832,
      "ĕĔ": 833,
      "ĕğ": 834,
      "ęĘĘęęĘ": 835,
      "ęěěęęęę": 836,
      "ęęęĚęęė": 837,
      "ęĘěĚęęĚ": 838,
      "ĀĀĖĀĖ": 839,
      "ęėėęęęĘ": 840,
      "ĀĝĚ": 841,
      "ĚęęęęĚĚ": 842,
      "đĘ": 843,
      "ĠĀĀ": 844,
      "ęĘęě": 845,
      "ęĚĚėęęęę": 846,
      "ęėĘĚęęĘ": 847,
      "ĝęęĜ": 848,
      "Ġĕ": 849,
      "ęĚĘęęęĘę": 850,
      "ĘęęęęĚĚ": 851,
      "ęĘęęęęĚę": 852,
      "đĖ": 853,
      "ěĚęęĚ": 854,
      "ěęęĔ": 855,
      "ĠęęĘ": 856,
      "ęĚęęĜ": 857,
      "ęėęĘęęęę": 858,
      "ęĖĞ": 859,
      "ęĚęęęęě": 860,
      "ęĞęęęę": 861,
      "ęěĚĘęęĚ": 862,
      "Ęęęėę": 863,
      "ĀĀĚĀĕ": 864,
      "ęęęęęęęęęęęęęęęęęęęęęęęęęęęęęęęę": 865,
      "ĀĀĔĀĘ": 866,
      "ēęęĜ": 867,
      "ęėē": 868,
      "ęęęęęęęęęęĘ": 869,
      "ęęěęęĘ": 870,
      "ęęěęęęě": 871,
      "ęĚęęęęė": 872,
      "ęĝęęĘ": 873,
      "ęĚĘėęęĘ": 874,
      "ęĘĚěęęĚ": 875,
      "ęĔĕ": 876,
      "ęğĘ": 877,
      "ĀĀĜĀė": 878,
      "ĀĀĕĀĖ": 879,
      "ĀĀ$Ā": 880,
      "ĠęęĚ": 881,
      "ęĘęėęęęę": 882,
      "ęęęĚęęęęĚ": 883,
      "ęĖęęė": 884,
      "ęĘĘęęęĘę": 885,
      "ĀĀěĀĚ": 886,
      "ęęęĘęęęęę": 887,
      "ĀĀĕĀĘ": 888,
      "Ğě": 889,
      "ęĘęěęęĘ": 890,
      "Ęęęęęė": 891,
      "ęĜęęęęĘ": 892,
      "ęĚĚĘęęě": 893,
      "ęĚĘęęęĚ": 894,
      "ęĘĚęęęĚę": 895,
      "ĀĀėĀĝ": 896,
      "ĀĀĖĀĜ": 897,
      "ĀĀĜĀĘ": 898,
      "ĀĀĜĀě": 899,
      "ęęęęęęęęęęęęęęęęęęęęęę": 900,
      "ĘĘęęĘ": 901,
      "ğęęĚ": 902,
      "ęęęęęęęęĚęęęę": 903,
      "ęęěę": 904,
      "ęęĖęęęę": 905,
      "ęĚėęęęė": 906,
      "ęėĚĘęęĚ": 907,
      "ęęęĘęęęęęęĚ": 908,
      "ęęęĘęęęęęęĘ": 909,
      "ĀĀĝĀĘ": 910,
      "Ēē": 911,
      "Ęě": 912,
      "ęĚē": 913,
      "ęěęĘęęĚ": 914,
      "ęĘĚėęęĚ": 915,
      "ęęę!": 916,
      "ĀĀĘĀĝ": 917,
      "ęęęĚęęęęę": 918,
      "ęĚęęęęĘę": 919,
      "đĕ": 920,
      "Ėĕ": 921,
      "ėěęęĘ": 922,
      "ėęęğ": 923,
      "ěĔ": 924,
      "ęĚęęĘę": 925,
      "ęėęĚęęĘ": 926,
      "ęĘĘĘęęĚ": 927,
      "ęĘĘěęęęę": 928,
      "ęĘĘĚęęė": 929,
      "ęĚĘĚęęė": 930,
      "ęęęđ": 931,
      "ĀĀĘĀĔ": 932,
      "ĀĀęĀĔ": 933,
      "ęĚěęęęě": 934,
      "ęěĚęęęĘ": 935,
      "ęěĘĚęęĘ": 936,
      "ęğě": 937,
      "ĀĀĜĀĚ": 938,
      "ęĘęęęęĘę": 939,
      "\"Ě": 940,
      "ėĚęęęę": 941,
      "Ęęę": 942,
      "ĘĚęęĘ": 943,
      "ęĚęęĚę": 944,
      "ĀĀ+": 945,
      "ęĜğ": 946,
      "ęĖęęęęĚ": 947,
      "ęĚĚęęęĚę": 948,
      "ęęĘęęęęęęĚęęęę": 949,
      "ĀĀ#Ā": 950,
      "ĖęęęĘ": 951,
      "ėęęęęĘĘ": 952,
      "Ġ!": 953,
      "ęęĚĚęęĘ": 954,
      "ęęęĘęęęęĚ": 955,
      "ęĜęęė": 956,
      "ęĘęęęęęęęĚ": 957,
      "ęĘĚęęęĘ": 958,
      "ěęęĘę": 959,
      "ĀĞĚ": 960,
      "ĒęęĚ": 961,
      "Ĕęęĕ": 962,
      "ėęęęęĚĚ": 963,
      "ğęęė": 964,
      "ęĚęęęĚę": 965,
      "ęĘęęĘę": 966,
      "ęęĘėęęĘ": 967,
      "ęęĘęęęĘę": 968,
      "ęĜęęęęĚ": 969,
      "ęĖęęęęĘ": 970,
      "ęęĜęęęĚ": 971,
      "ęĘęęęęė": 972,
      "ęĘęęęęęęě": 973,
      "ęĕĞ": 974,
      "ęęęęęęęęęęęęęĚęęęę": 975,
      "ĀĀĜĀĖ": 976,
      "Ğęęě": 977,
      "Ġęęė": 978,
      "ęĘęęĚę": 979,
      "ęĘęęęęęęęęęęę": 980,
      "ęęĚėęęęę": 981,
      "ęĖęęě": 982,
      "ęęęĖęęęę": 983,
      "ęęęĚęęęęęęĘ": 984,
      "ĀĀĕĀě": 985,
      "ĀĀďĀ": 986,
      "ĐĚ": 987,
      "ĒęęĘ": 988,
      "ēĞ": 989,
      "ĖęęĔ": 990,
      "ėęę": 991,
      "ěęęĞ": 992,
      "ğĖ": 993,
      "ęĚęęĖ": 994,
      "ęĚęėęęĚ": 995,
      "ęęĚęęĚ": 996,
      "ęęĘĚęęė": 997,
      "ęęėěęęĘ": 998,
      "ĀĀęĀĝ": 999,
      "ĀĀĝĀě": 1000,
      "ēĔ": 1001,
      "ęĎ": 1002,
      "Ĝĕ": 1003,
      "Ĝęęĝ": 1004,
      "ĝĖ": 1005,
      "ęĘęėęęĚ": 1006,
      "ęęĘĘęęĚ": 1007,
      "ęęėĚęęė": 1008,
      "ęęĘęęęęęęĘęęęę": 1009,
      "ęĚĜęęęĚ": 1010,
      "ĀĀĔĀĚ": 1011,
      "\"Ğ": 1012,
      "Ěęęęęęęęę": 1013,
      "ĚęęĞ": 1014,
      "ěěęęĚ": 1015,
      "ęĚęĚęęęęĚ": 1016,
      "ęĘęęĜ": 1017,
      "ęĘęĘęęęęĘ": 1018,
      "ęęĚěęęęę": 1019,
      "ęęěĘęęě": 1020,
      "ęĖğ": 1021,
      "ęĘęęęęęęĚęęęę": 1022,
      "ęĕęęĚ": 1023,
      "ėęęęęė": 1024,
      "ęęęęęęęęęęęęęĚ": 1025,
      "ĀĀěĀĜ": 1026,
      "ęēĘ": 1027,
      "ęęęĚęęęęęęĚ": 1028,
      "ĒĒ": 1029,
      "ėęęęęĚĘ": 1030,
      "ěěęęęę": 1031,
      "ĀĀ-": 1032,
      "ęęęęęęęęĘęęęę": 1033,
      "ęĘęęęęęęęĘ": 1034,
      "ęĝĔ": 1035,
      "ęĝęęĚ": 1036,
      "ęĚĘěęęĘ": 1037,
      "ĀĀĚĀĝ": 1038,
      "ęěĘĘęęęę": 1039,
      "ęėĚĚęęęę": 1040,
      "ęěěęęęĚ": 1041,
      "đĜ": 1042,
      "Ēęęęę": 1043,
      "ĕęę": 1044,
      "ĜęęęĚ": 1045,
      "Ġęęě": 1046,
      "ęęĘěęęęę": 1047,
      "ĀĀ,": 1048,
      "ęęĖęęęĘ": 1049,
      "ęĘĚĘęęě": 1050,
      "ęĘĚĚęęě": 1051,
      "ęĘėěęęĘ": 1052,
      "ĀĀĚĀĔ": 1053,
      "ęęęĜęęęę": 1054,
      "ĀĀĖĀĕ": 1055,
      "ĀĀĝĀė": 1056,
      "ęĘęĚęęě": 1057,
      "ęęęęęęęęęęęęęęęęęęęęęęęęę": 1058,
      "\"ĝ": 1059,
      "Đė": 1060,
      "ĐĘ": 1061,
      "ĒĔ": 1062,
      "ėęęęęĘĚ": 1063,
      "Ęęęęęęęęęęęę": 1064,
      "ĚĞ": 1065,
      "ĚĘęęĚ": 1066,
      "ğęęě": 1067,
      "ęĚęĚęęęęĘ": 1068,
      "ęĚęęęęęęęęęęęęę": 1069,
      "ęĘęęęęęęęęęęęęę": 1070,
      "ęęĚěęęĚ": 1071,
      "ęęĘĘęęė": 1072,
      "ęĕĔ": 1073,
      "ęĚĚĚęęĘ": 1074,
      "ęĚĘėęęęę": 1075,
      "ęĘĚěęęęę": 1076,
      "ĀĀĘĀē": 1077,
      "ęĘėęęęė": 1078,
      "ęĘėĚęęė": 1079,
      "ęėĘĚęęĚ": 1080,
      "ĀĀěĀĕ": 1081,
      "ĀĀěĀĝ": 1082,
      "ĀĀĞĀĘ": 1083,
      "!Ę": 1084,
      "ēğ": 1085,
      "Ėęęğ": 1086,
      "ėėęęĘ": 1087,
      "ěęęęęĘĚ": 1088,
      "ĜĘęęĚ": 1089,
      "Ġ#": 1090,
      "ęėğ": 1091,
      "ęĔĝ": 1092,
      "ĀĀĚĀē": 1093,
      "ęěĘęęęė": 1094,
      "ęęęĜęęĘ": 1095,
      "ęěěĘęęĚ": 1096,
      "ęěėĘęęĘ": 1097,
      "ĀĀĝĀĖ": 1098,
      "đęęė": 1099,
      "ĒĞ": 1100,
      "ĕęęęęĚ": 1101,
      "ėęęęė": 1102,
      "Ġ\"": 1103,
      "ęĚęě": 1104,
      "ęęĘėęęęę": 1105,
      "ęėęě": 1106,
      "ęėęěęęĘ": 1107,
      "ęęěĚęęęę": 1108,
      "ęĜē": 1109,
      "ęĜĚęęęę": 1110,
      "ęĚĚěęęęę": 1111,
      "ęĚĚĘęęęęĘ": 1112,
      "ęĚĘĘęęė": 1113,
      "ęĔęęęę": 1114,
      "ĀĀĘĀĞ": 1115,
      "ęĘěĘęęě": 1116,
      "ęěĘėęęĘ": 1117,
      "ĀĀėĀĞ": 1118,
      "ęğĝ": 1119,
      "ĀĀěĀĔ": 1120,
      "ęęęĖęęĚ": 1121,
      "ęēĚ": 1122,
      "ĀĀĜĀĕ": 1123,
      "ĀĀēĀĘ": 1124,
      "đĔ": 1125,
      "ĒĐ": 1126,
      "Ēęęě": 1127,
      "ěėęęĚ": 1128,
      "ěęęęęĚĘ": 1129,
      "ęĘęĘęęęęĚ": 1130,
      "ęęėĘęęęę": 1131,
      "ęĚęęęęęęęĚ": 1132,
      "ęĕęęĘ": 1133,
      "ęĘĘĘęęė": 1134,
      "ęěĚėęęĚ": 1135,
      "ęĘěęęęě": 1136,
      "ĀĜĚ": 1137,
      "ĀĀĝĀĚ": 1138,
      "!ĀĀ": 1139,
      "\"Ĝ": 1140,
      "đğ": 1141,
      "ēĕ": 1142,
      "ēęęĖ": 1143,
      "ĖĘęęĘ": 1144,
      "ĖęęĚę": 1145,
      "Ęęęğ": 1146,
      "ęĘęė": 1147,
      "ęěĒ": 1148,
      "ęěęĚęęęę": 1149,
      "ęěĘęęĚ": 1150,
      "ęėęĘęęĚ": 1151,
      "ęęėęęĚ": 1152,
      "ęęėĚęęęę": 1153,
      "ęęěėęęĚ": 1154,
      "ęĖĘęęęę": 1155,
      "ęĝğ": 1156,
      "ęĘĘĚęęĚ": 1157,
      "ęĚěĘęęęę": 1158,
      "ęėĘęęęĚ": 1159,
      "ĀĀěĀē": 1160,
      "ęĘĖęęęĘ": 1161,
      "ĀĀĔĀě": 1162,
      "ėĔ": 1163,
      "ėğ": 1164,
      "ĝęęĕ": 1165,
      "ęĚęěęęęę": 1166,
      "ęėęěęęĚ": 1167,
      "ęĖē": 1168,
      "ęĚĚĚęęě": 1169,
      "ęęĚęęęęęęĚęęęę": 1170,
      "ęĚěĘęęě": 1171,
      "ęěĚĚęęĚ": 1172,
      "ęěĚėęęęę": 1173,
      "ęĘěěęęĚ": 1174,
      "ęėĘĘęęĘ": 1175,
      "ęěėęęęĘ": 1176,
      "ęėěęęęĚ": 1177,
      "ėĚęęĖ": 1178,
      "ęĘęĚęęė": 1179,
      "ęĘęĘęęě": 1180,
      "ĀĀ'Ā": 1181,
      "Ēđ": 1182,
      "ĘęęęĚ": 1183,
      "Ěęęęęęęęęęęę": 1184,
      "ěęęęęĘĘ": 1185,
      "ěęęęęĚĚ": 1186,
      "ĜęęĔ": 1187,
      "ĜęęĚę": 1188,
      "ĝĞ": 1189,
      "Ġę": 1190,
      "ęĘęęĖ": 1191,
      "ęĘęěęęĚ": 1192,
      "ęėĚęęĘ": 1193,
      "Ěęęęęė": 1194,
      "ęĜęęě": 1195,
      "ęĚĘĘęęĚ": 1196,
      "ęĞĕ": 1197,
      "ęĞğ": 1198,
      "ęĘěĚęęě": 1199,
      "ęěěĚęęĚ": 1200,
      "ĀĀĝĀĕ": 1201,
      "ęĘĖĚęęĘ": 1202,
      "ĀĀĔĀė": 1203,
      "ĀĀĞĀė": 1204,
      "ĀĀ!ĀĘ": 1205,
      "ĀĀ%Ā": 1206,
      "ĕęęĞ": 1207,
      "ĖĔ": 1208,
      "ėėęęęę": 1209,
      "ėęęē": 1210,
      "ęěęė": 1211,
      "ęěęęęĚ": 1212,
      "ęěęėęęęę": 1213,
      "ęěęėęęĘ": 1214,
      "ęęėĘęęė": 1215,
      "ęĜęĘęęĘ": 1216,
      "ęĘĘėęęĘ": 1217,
      "ęĚĘĚęęĚ": 1218,
      "ęĚĘĘęęęęĚ": 1219,
      "ęęęęęęęęęęęęęĘęęęę": 1220,
      "ęĞĞ": 1221,
      "ĀĀęĀē": 1222,
      "ęĚěėęęĚ": 1223,
      "ęěĚĚęęęę": 1224,
      "ęěĚĘęęě": 1225,
      "ęěęęęęě": 1226,
      "ęęęĚęęęęęę": 1227,
      "ęĚĖęęęĘ": 1228,
      "Ēęęė": 1229,
      "Ęęęęęęęęę": 1230,
      "ĝęęĝ": 1231,
      "ğĀĀ": 1232,
      "ĠęęĜ": 1233,
      "ęęęęę": 1234,
      "ęĘĒ": 1235,
      "ęĘęęęĘę": 1236,
      "ęęĚĘęęĘ": 1237,
      "ęėěęęęę": 1238,
      "ęęęęęęęęĚĚ": 1239,
      "ęęĖĘęęĘ": 1240,
      "ęĘęęęęęęĘęęęę": 1241,
      "ęĕğ": 1242,
      "ęęęęĘęĚęęęę": 1243,
      "ęĘĚĘęęĘ": 1244,
      "ęĞĔ": 1245,
      "ęĔĞ": 1246,
      "ĀĀĚĀĞ": 1247,
      "ęěĘĘęęė": 1248,
      "ęĚėĘęęęę": 1249,
      "ęĚėĚęęė": 1250,
      "ĀĀėĀē": 1251,
      "ęğė": 1252,
      "ĀĀĖĀĝ": 1253,
      "ęęęĘęęęęęę": 1254,
      "ęęĚęęęĚęęĘ": 1255,
      "ęěěęęęě": 1256,
      "ęĘĜęęęě": 1257,
      "ĀĀĞĀĖ": 1258,
      "ęęęęĚĘĘęęęę": 1259,
      "ĕĚęęĕ": 1260,
      "Đĕ": 1261,
      "ēęęĕ": 1262,
      "ĝė": 1263,
      "ęĘĖęęęę": 1264,
      "ęėĘęęĘ": 1265,
      "ęėęĘęęĘ": 1266,
      "ęęęęęęęęĘĚ": 1267,
      "ęęėęęĘ": 1268,
      "ęęęĘęęĚę": 1269,
      "ęěĚęęęě": 1270,
      "ĀĀĕĀė": 1271,
      "ęĚĜĘęęĚ": 1272,
      "ĀĀēĀė": 1273,
      "ęĚęĚęęė": 1274,
      "!\"": 1275,
      "\"ğ": 1276,
      "ĐĞ": 1277,
      "ę&": 1278,
      "ęĚĜęęęę": 1279,
      "ęĚęĖęęęę": 1280,
      "ęěē": 1281,
      "ęęęęęęęęĘĘ": 1282,
      "ęęęĘęęęęęęęę": 1283,
      "ęęęĘęęĘę": 1284,
      "ęęĜęęęě": 1285,
      "ęęęęĘė": 1286,
      "ęĚĚĘęęĚę": 1287,
      "ęĚėĘęęė": 1288,
      "ĀĀĖĀĞ": 1289,
      "ęėėĚęęĘ": 1290,
      "ęēě": 1291,
      "ĀĀĜĀĝ": 1292,
      "ęėěĚęęě": 1293,
      "ěĚęęĜ": 1294,
      "ęĘĖęęęė": 1295,
      "ęĖĚęęęĚ": 1296,
      "ęĜĘĘęęĘ": 1297,
      "ĀĀĞĀĚ": 1298,
      "ĀĀĞĀě": 1299,
      "ĀĀĞĀĜ": 1300,
      "ęĒĘ": 1301,
      "\"!": 1302,
      "Ėğ": 1303,
      "Ęęęē": 1304,
      "Ěĕ": 1305,
      "ěĀĀ": 1306,
      "ĠĔ": 1307,
      "ęĚęěęęĘ": 1308,
      "ęęěėęęě": 1309,
      "Ěęęęęě": 1310,
      "ęĜęĘęęęę": 1311,
      "ęĖĚęęęę": 1312,
      "ęĚęęęęęęĚęęęę": 1313,
      "ęęęĐ": 1314,
      "ęĘėěęęė": 1315,
      "ĀĀėĀĔ": 1316,
      "ęěěėęęĚ": 1317,
      "ęėęęęęě": 1318,
      "ęėěĚęęĚ": 1319,
      "ĀĀĕĀĜ": 1320,
      "ĀĀĕĀĕ": 1321,
      "ĀĀĔĀĜ": 1322,
      "ĀĀēĀĚ": 1323,
      "ĒęęĖ": 1324,
      "ēđ": 1325,
      "Ĕęę": 1326,
      "ĖĚęęĘ": 1327,
      "ěęęē": 1328,
      "ĞęęĜ": 1329,
      "ĠĀĘ": 1330,
      "ęęĚĖęęĚ": 1331,
      "ęęĘĚęęĚ": 1332,
      "ęěėęęęę": 1333,
      "ęęėėęęĘ": 1334,
      "ęęěĘęęęę": 1335,
      "ęęĖęęęė": 1336,
      "ęĚęęęęęęė": 1337,
      "ęĚĚĘęęęęĚ": 1338,
      "ęĚĘěęęęę": 1339,
      "ĀĀęĀĞ": 1340,
      "ęĘėĚęęęę": 1341,
      "ęěĚĚęęĘ": 1342,
      "ęěĚĘęęĘ": 1343,
      "ęěĘėęęęę": 1344,
      "ęĚėėęęĘ": 1345,
      "ęėĚęęęě": 1346,
      "ęėėĘęęęę": 1347,
      "ęėėęęęė": 1348,
      "ęėęęęęęęĚ": 1349,
      "ĀĀĜĀĞ": 1350,
      "ęěėĚęęĘ": 1351,
      "ėęęėę": 1352,
      "ĀĀĕĀĝ": 1353,
      "ęĜĘęęęĘ": 1354,
      "ĀĀğĀĖ": 1355,
      "ĀĀĎĀ": 1356,
      "ęęęęęęęęęĚę": 1357,
      "ĕęęĔ": 1358,
      "ėę": 1359,
      "ėĘęęė": 1360,
      "Ěęę": 1361,
      "Ěęęğ": 1362,
      "ĜĚęęĚ": 1363,
      "ĝęęęęĘ": 1364,
      "ĝęęęęĚ": 1365,
      "ĞęęĖ": 1366,
      "ğęęĖ": 1367,
      "ęĚęęęęęęęęęęę": 1368,
      "ęęĚĚęęě": 1369,
      "ęęĘĘęęĘę": 1370,
      "ĀĀ.": 1371,
      "ĀĀ/": 1372,
      "ęėęęęĘ": 1373,
      "ĚęęęęęęĘęęęę": 1374,
      "ęęĜĘęęĚ": 1375,
      "ęęĜĚęęĚ": 1376,
      "ęęę\"": 1377,
      "ěęęęęė": 1378,
      "ĀěĘ": 1379,
      "ęĚėěęęĘ": 1380,
      "ęėĚęęęĘ": 1381,
      "ęęęĜę": 1382,
      "ęėėĘęęĘ": 1383,
      "ęėėěęęĘ": 1384,
      "ęęĚęęęĚęęĚ": 1385,
      "ęěęęęęęę": 1386,
      "ęěęęęęęęĘ": 1387,
      "ěęęěę": 1388,
      "ęėěĘęęĚ": 1389,
      "ęĖĘęęęĘ": 1390,
      "ęĖĚĚęęĚ": 1391,
      "ęěĜęęęĚ": 1392,
      "ęĚęĘęęě": 1393,
      "ęęęęęęęęęĘę": 1394,
      "ĀĀ&Ā": 1395,
      "\"Ę": 1396,
      "ďĚ": 1397,
      "đęęĚ": 1398,
      "Ēę": 1399,
      "ēę": 1400,
      "Ėęę": 1401,
      "Ęęęęęęęęęęęęę": 1402,
      "ĜěęęĚ": 1403,
      "ęęěĚęęě": 1404,
      "ęęęėęęě": 1405,
      "Ęęęěę": 1406,
      "ĀěĚ": 1407,
      "ĖĚęęĕ": 1408,
      "ĀĀ(Ā": 1409,
      "!!": 1410,
      "\"ě": 1411,
      "\"ĀĀ": 1412,
      "ĐĖ": 1413,
      "đē": 1414,
      "Ėę": 1415,
      "Ęėęęęę": 1416,
      "ĘęęĒ": 1417,
      "ĚęęęĚę": 1418,
      "ěęęęě": 1419,
      "ěĘęęě": 1420,
      "ĜĀĀ": 1421,
      "ĜęęĘę": 1422,
      "ęĚĖęęęę": 1423,
      "ęĘęĜ": 1424,
      "ęĘęėęęĘ": 1425,
      "ęęĚĘęęĚę": 1426,
      "ęęĘęęĚ": 1427,
      "ęėęęĜ": 1428,
      "ĚęęęęęęĚęęęę": 1429,
      "ęĜĘęęęę": 1430,
      "ęĘęęęęęęė": 1431,
      "ęĚęęęęęęęĘ": 1432,
      "ęĚęęęęęęĘęęęę": 1433,
      "ęęęęĘĘęęęę": 1434,
      "ęĚĚęęęĜ": 1435,
      "ęĚĚĖęęĚ": 1436,
      "ęĘĚėęęęę": 1437,
      "ęĘĚĜęęĚ": 1438,
      "ęęęęęęęęęęęęęĘ": 1439,
      "ęĔĔ": 1440,
      "ęĔğ": 1441,
      "ęĘěėęęĚ": 1442,
      "ęėĚĘęęęę": 1443,
      "ęğęęęę": 1444,
      "ęęęęęęęęęęęęęęęęęęęęęęęęęęę": 1445,
      "ĚęęęęĘĘęęęę": 1446,
      "ĀĀĜĀĜ": 1447,
      "ĀĀĜĀĔ": 1448,
      "ĀĀĜĀē": 1449,
      "ěĚĘęęĚ": 1450,
      "ęęęęĘĘĚęęęę": 1451,
      "ĀĀğĀĚ": 1452,
      "ęęęęĘĚĚęęęę": 1453,
      "ĀĀĒĀė": 1454,
      "ęĚęĘęęė": 1455,
      "ĀĀĐĀĘ": 1456,
      "#Ğ": 1457,
      "ĒęęĜ": 1458,
      "Ĕĕ": 1459,
      "ĖěęęĘ": 1460,
      "ĖęęĘę": 1461,
      "ěęĘęęęę": 1462,
      "Ġē": 1463,
      "ęęęęęęĚę": 1464,
      "ęĚęęĝ": 1465,
      "ęĚėęęĚ": 1466,
      "ĀĀć": 1467,
      "ęęęęęęęęęęĘęęęę": 1468,
      "ĘęęęęęęĚęęęę": 1469,
      "ęęęĘęęĖ": 1470,
      "ęęĖĚęęĘ": 1471,
      "ęĘęęęęĚęęĚ": 1472,
      "ęĘĘėęęęę": 1473,
      "ęĘĚĚęęĘ": 1474,
      "ęĚěěęęĚ": 1475,
      "ęĘěĚęęęę": 1476,
      "ęğĖ": 1477,
      "ęğĞ": 1478,
      "ęęęĜęęĚ": 1479,
      "ęėėĚęęęę": 1480,
      "ęėėĚęęė": 1481,
      "ęĚĜęęęě": 1482,
      "ĀĀĝĀĜ": 1483,
      "ĀĀĝĀē": 1484,
      "ęĜĚĘęęĚ": 1485,
      "ęĘĖĘęęĘ": 1486,
      "ęĘĜĘęęě": 1487,
      "ėěęęĖ": 1488,
      "ĀĀğĀĘ": 1489,
      "ęĘęĚęęĚę": 1490,
      "ĐĜ": 1491,
      "Đĝ": 1492,
      "đđ": 1493,
      "Ēğ": 1494,
      "Ėē": 1495,
      "ĖęęęęĘĘ": 1496,
      "ėĖęęĘ": 1497,
      "ĘęęęĘę": 1498,
      "Ĝē": 1499,
      "Ĝęęğ": 1500,
      "ęęęęęęĘę": 1501,
      "ęĚĚęęęęĚ": 1502,
      "ęĚęęęęęęęęęęęęęęęęęęęę": 1503,
      "ęĘęĜęęęę": 1504,
      "ęęĘĚęęęęĚ": 1505,
      "ęěĚęęĚ": 1506,
      "ęėęėęęęę": 1507,
      "ęęęęęęęęęęĚęęęę": 1508,
      "ęęěěęęĚ": 1509,
      "ęęęĚęęęęęęęę": 1510,
      "ęĜěęęęę": 1511,
      "ęĕē": 1512,
      "ęęęęĘę": 1513,
      "ęĚĚěęęĚ": 1514,
      "ęĚĚėęęě": 1515,
      "ęęęęĚę": 1516,
      "ęĘĘĜęęĘ": 1517,
      "ęĘĚěęęĘ": 1518,
      "ęęę#": 1519,
      "ĀĀěĀĞ": 1520,
      "ęęęĖę": 1521,
      "ĀĀĖĀĔ": 1522,
      "ęěěĘęęęę": 1523,
      "ęĚĜėęęĚ": 1524,
      "ęěĜĘęęĚ": 1525,
      "ĀĀđĀĜ": 1526,
      "ęĘęĚęęĘę": 1527,
      "ĕĘęęĕ": 1528,
      "!ė": 1529,
      "#ğ": 1530,
      "$ĝ": 1531,
      "Đě": 1532,
      "đĝ": 1533,
      "ĕęęęęĘ": 1534,
      "ėęĚęęęę": 1535,
      "ĚėęęĚ": 1536,
      "ěěęęě": 1537,
      "ĜĔ": 1538,
      "ĜĘęęě": 1539,
      "ĞĀĀ": 1540,
      "ęĚęĖęęĚ": 1541,
      "ęęĚęęęęęęęęęęęę": 1542,
      "ęęĚĚęęĚę": 1543,
      "ĀĀą": 1544,
      "ęěęĚęęĚ": 1545,
      "ęęėĘęęĚ": 1546,
      "ĘęęęęęęĘęęęę": 1547,
      "Ěęęęęęęě": 1548,
      "ęęęĚęęĚę": 1549,
      "ęĕęęě": 1550,
      "ęĚĘĘęęĘę": 1551,
      "ęĘĚĘęęęęĚ": 1552,
      "ęėĚěęęęę": 1553,
      "ęėĘĘęęĚ": 1554,
      "ęėĘěęęĘ": 1555,
      "ęğĕ": 1556,
      "ěęęėę": 1557,
      "ęęĚęęęĚęęęęęęęę": 1558,
      "ęěěĘęęě": 1559,
      "ęēė": 1560,
      "ĀĀĔĀĖ": 1561,
      "ęėĖęęęĘ": 1562,
      "ĀĀğĀě": 1563,
      "ĀĀĒĀĘ": 1564,
      "ĀĀĒĀĖ": 1565,
      "đĒ": 1566,
      "ĔęęĔ": 1567,
      "ĕęęē": 1568,
      "Ėęęē": 1569,
      "Ęěęęęę": 1570,
      "ěęęğ": 1571,
      "ĜĚęęě": 1572,
      "Ġ$": 1573,
      "ęĚęĖ": 1574,
      "ęĚęĔ": 1575,
      "ęęĚĘęęęęĘ": 1576,
      "ęęĚĚęęęęĚ": 1577,
      "ęęĘęęęęęęęęęęęę": 1578,
      "ęęėěęęė": 1579,
      "ĚęęęęęęęĘ": 1580,
      "ęęęĚęęęęĘĘ": 1581,
      "ęĖĒ": 1582,
      "ęĖęĚęęęę": 1583,
      "ęĖėęęęę": 1584,
      "ęęĜęęĘ": 1585,
      "ęęĜĘęęě": 1586,
      "ęĚĚėęęĘ": 1587,
      "ęęęęĚęĘęęęę": 1588,
      "ęĘĘěęęĚ": 1589,
      "ęĘĘĘęęęęĘ": 1590,
      "ęĚĘĜęęĘ": 1591,
      "ęĘĚĘęęĚę": 1592,
      "ęĔē": 1593,
      "ęĚěĚęęęę": 1594,
      "ęěĘĚęęęę": 1595,
      "ęěĘĘęęĚ": 1596,
      "ęĚėėęęė": 1597,
      "ęėĚĚęęě": 1598,
      "ęěęęęęęęĚ": 1599,
      "ĚęęęęĘęĚęęęę": 1600,
      "ęėěęęęě": 1601,
      "ěĚĘęęęę": 1602,
      "ěĚęęęĚ": 1603,
      "ĀĀĝĀĞ": 1604,
      "ĀĀĝĀĔ": 1605,
      "ęĘĜęęęĚ": 1606,
      "ęĚĖęęęė": 1607,
      "ĀĀĔĀĝ": 1608,
      "ęĒĖ": 1609,
      "ęęĘęęęĘęęęęęęęę": 1610,
      "ęęęĘęęĘĚęęĘ": 1611,
      "ęĜėĘęęė": 1612,
      "Đğ": 1613,
      "ĔęęĞ": 1614,
      "ĕęęğ": 1615,
      "ĖĒ": 1616,
      "ĘěęęĘ": 1617,
      "ĘėęęĘ": 1618,
      "ěę": 1619,
      "ěĖęęĚ": 1620,
      "Ĝğ": 1621,
      "Ĝęęęě": 1622,
      "ĜęęĞ": 1623,
      "ĠĀě": 1624,
      "ęĚĘęęęęĚ": 1625,
      "ęĚęěęęĚ": 1626,
      "ęĚęĜęęĘ": 1627,
      "ęĘęĜęęĚ": 1628,
      "ęęĚęęęęęęęę": 1629,
      "ęęĘĜęęĘ": 1630,
      "ęěęėęęĚ": 1631,
      "ęėęęĖ": 1632,
      "ęĘęęęęĚęęĘ": 1633,
      "ęĘęęęęĘęęĘ": 1634,
      "ęĚęęęęĘęęĘ": 1635,
      "ęĘĘęęęęęęęęęęęę": 1636,
      "ęęĚęęęęęęĘęęęę": 1637,
      "ęĘěěęęęę": 1638,
      "ęĚėĖęęĘ": 1639,
      "ęėĘĘęęęę": 1640,
      "ĀĀĖĀē": 1641,
      "ęěęęęęė": 1642,
      "ęėęęęęęę": 1643,
      "ęěėėęęĘ": 1644,
      "ęĜĚęęęĚ": 1645,
      "ęĘĖĚęęė": 1646,
      "ęĘĜĚęęĚ": 1647,
      "ęĖĘĚęęęę": 1648,
      "ĀĀĔĀĞ": 1649,
      "ěĘęęĝ": 1650,
      "ĀĀĞĀĕ": 1651,
      "ĀĀğĀė": 1652,
      "ĀĀğĀĜ": 1653,
      "ĀĀēĀĜ": 1654,
      "ĀĀĒĀě": 1655,
      "ęĚęĚęęě": 1656,
      "ęĘęĘęęė": 1657,
      "ęęęęęęęęęęęęęęęęęęęęęęęęęę": 1658,
      "#!": 1659,
      "Đē": 1660,
      "đĞ": 1661,
      "đęęĘ": 1662,
      "ēęęĝ": 1663,
      "Ėęęęė": 1664,
      "ĖĚęęė": 1665,
      "ėęęęĚ": 1666,
      "ėęęęĖ": 1667,
      "Ěğ": 1668,
      "Ěęęęęęęęęęęęę": 1669,
      "ěęę": 1670,
      "ěĚęęě": 1671,
      "ĝęęĔ": 1672,
      "Ğęęĕ": 1673,
      "ğĔ": 1674,
      "ĠĀĚ": 1675,
      "ęę&": 1676,
      "ęĚęęĕ": 1677,
      "ęęĘĖęęĘ": 1678,
      "ęěĜęęęę": 1679,
      "ęěęĖęęĚ": 1680,
      "ęęėęęęĚ": 1681,
      "ęęėĖęęĘ": 1682,
      "ĚęęęęęęęĚ": 1683,
      "ęęęĚęęĘę": 1684,
      "ęĚĚęęęė": 1685,
      "ęĘĘėęęĚ": 1686,
      "ęĚĘėęęĚ": 1687,
      "ęĚĘěęęė": 1688,
      "ęĘĚėęęě": 1689,
      "ęĘĚĘęęĜ": 1690,
      "ęęęěęęě": 1691,
      "ęĚěĖęęĚ": 1692,
      "ęěĘęęęĚ": 1693,
      "ęėĚěęęĚ": 1694,
      "ęėĚĜęęĚ": 1695,
      "ęğğ": 1696,
      "ęėėĘęęė": 1697,
      "ĘęęęęĚė": 1698,
      "ėĚĚęęęę": 1699,
      "ęĜĚĘęęĘ": 1700,
      "ęĖĘĚęęĘ": 1701,
      "ęĚĖĘęęĘ": 1702,
      "ęěĜęęęě": 1703,
      "ęĒė": 1704,
      "ęėĖĚęęĘ": 1705,
      "ĀĀēĀĕ": 1706,
      "ęĖėęęęĘ": 1707,
      "ęĚęĘęęĖ": 1708,
      "ĀĀ)Ā": 1709,
      "\"\"": 1710,
      "\"ė": 1711,
      "$Ę": 1712,
      "ĐęęĖ": 1713,
      "ĕď": 1714,
      "ė!": 1715,
      "ėĘęęĚ": 1716,
      "ę%": 1717,
      "ĚęęęĘ": 1718,
      "ĚĘęęě": 1719,
      "ě!": 1720,
      "ěėęęě": 1721,
      "ěęęęĚę": 1722,
      "ĝĚęęě": 1723,
      "ĠĀė": 1724,
      "ĠĀĀęĀ": 1725,
      "ęęęęęęě": 1726,
      "ęĚĚęęĘ": 1727,
      "ęĘĘęęęęĘ": 1728,
      "ęĘęĖęęęę": 1729,
      "ęęĚęęęĜ": 1730,
      "ęęĘěęęė": 1731,
      "ęęĘĖęęęę": 1732,
      "ęėĒ": 1733,
      "ęėĖęęęę": 1734,
      "ęĖęě": 1735,
      "ęĖęĚęęĘ": 1736,
      "ęęĖĘęęė": 1737,
      "ęĚęęęęęęě": 1738,
      "ęĕĒ": 1739,
      "ęĕęęĜ": 1740,
      "ęęęęĚęĚęęęę": 1741,
      "ęĘĘęęęě": 1742,
      "ęĘĘęęęĖ": 1743,
      "ęĘĘĚęęĘę": 1744,
      "ęĚĘĚęęęęĚ": 1745,
      "ęĘĚěęęě": 1746,
      "ęĞęęĘ": 1747,
      "ęĘėĘęęė": 1748,
      "ęĘėĜęęė": 1749,
      "ęěĘěęęĘ": 1750,
      "ęěĘĚęęė": 1751,
      "ęėĚėęęĚ": 1752,
      "ęėĚěęęě": 1753,
      "ęğĔ": 1754,
      "ęėėěęęė": 1755,
      "ęėęęęęė": 1756,
      "ęēĕ": 1757,
      "ęěėęęęė": 1758,
      "ěĚęęĝ": 1759,
      "ęĚĜĘęęě": 1760,
      "ęĖĘĚęęĚ": 1761,
      "ėĘĚęęęę": 1762,
      "ėĘęęęĘ": 1763,
      "ěĘĘęęęę": 1764,
      "ěěęęĜ": 1765,
      "ĚęęĜę": 1766,
      "ęėĖěęęĘ": 1767,
      "ęĜěęęęĚ": 1768,
      "ęęęęĚĚĘęęĚ": 1769,
      "ęěĖęęęė": 1770,
      "ĀĀĒĀĕ": 1771,
      "ęĖěęęęĚ": 1772,
      "ĖĘęęĕ": 1773,
      "ĀĀ!ĀĚ": 1774,
      "ęĚęĘęęĘę": 1775,
      "ĀĀ$ĀĘ": 1776,
      "ęĘėęęęęę": 1777,
      "!Ė": 1778,
      "\"#": 1779,
      "#Ě": 1780,
      "#ě": 1781,
      "ďĖ": 1782,
      "ĐĒ": 1783,
      "đęęě": 1784,
      "ĕĚęęė": 1785,
      "ĕęęĚę": 1786,
      "ĚěęęĚ": 1787,
      "ěĘęęĘ": 1788,
      "ĜėęęĚ": 1789,
      "Ĝęęē": 1790,
      "ĜĘęęĜ": 1791,
      "ĝğ": 1792,
      "ĝĀĀ": 1793,
      "ğē": 1794,
      "ĠęęĖ": 1795,
      "Ġęęĝ": 1796,
      "ĠĀĖ": 1797,
      "ęęęęęęė": 1798,
      "ęĚĒ": 1799,
      "ęĘ!": 1800,
      "ęĘęęęęęęęęęęęĚ": 1801,
      "ęĘęĜęęĘ": 1802,
      "ęęĚĚęęė": 1803,
      "ęęĘĘęęęęĘ": 1804,
      "ęėęěęęęę": 1805,
      "ęėęĚęęęęĘ": 1806,
      "ęęęęęęęęĚęęęęęę": 1807,
      "ęęęęęęęęĘęęęęęę": 1808,
      "ęęėęęęĘę": 1809,
      "ęęėĚęęĘę": 1810,
      "ęęěěęęęę": 1811,
      "ęĜ!": 1812,
      "ęĚęęęęęęĘęęęęęę": 1813,
      "ęĝē": 1814,
      "ęĝęęě": 1815,
      "ęĝęęęęĚ": 1816,
      "ęĕęęė": 1817,
      "ęĚĚęęęęęęęęęęęę": 1818,
      "ęĘĘěęęė": 1819,
      "ęĘĘĘęęęęĚ": 1820,
      "ęĘĘĜęęęę": 1821,
      "ęęĕęęęĘ": 1822,
      "ęĘĚĜęęęę": 1823,
      "ęĘĚĚęęĚę": 1824,
      "ėęęęęě": 1825,
      "ęĚěėęęě": 1826,
      "ęĘěĜęęĚ": 1827,
      "ęęęĘęęęęęęĚę": 1828,
      "ĀĝĘ": 1829,
      "ęėęęęęęęĘ": 1830,
      "ęēĖ": 1831,
      "ęėěĚęęęę": 1832,
      "ĘęęĜę": 1833,
      "ęĘĜĘęęĚ": 1834,
      "ęĚĖĚęęĘ": 1835,
      "ęĚĖĘęęė": 1836,
      "ęęęĕęęĚ": 1837,
      "ĀĀēĀĖ": 1838,
      "ęĜėęęęĘ": 1839,
      "ĜĘęęĝ": 1840,
      "ĀĀ!Āė": 1841,
      "ęĚęĘęęĚę": 1842,
      "ĝĚęęĞ": 1843,
      "ĀĀĐĀě": 1844,
      "ĀĀďĀĘ": 1845,
      "ĀĀďĀė": 1846,
      "ĀĀ%ĀĜ": 1847,
      "ĎĚ": 1848,
      "ĔĔ": 1849,
      "ĔęęęęĘ": 1850,
      "Ęęę!": 1851,
      "ĘęęęęęęęęęęęĘ": 1852,
      "Ěěęęęę": 1853,
      "ěĜęęě": 1854,
      "Ĝėęęě": 1855,
      "Ĝěęęě": 1856,
      "Ğęęĝ": 1857,
      "ğĕ": 1858,
      "ęĚĘęęęęĘ": 1859,
      "ęĚęęęęęęęęęęęĚ": 1860,
      "ęęĚěęęĘ": 1861,
      "ęęĚĘęęęęĚ": 1862,
      "ęęĚĚęęęęĘ": 1863,
      "ęęĘĘęęęęĚ": 1864,
      "ĀĀĈ": 1865,
      "ęě!": 1866,
      "ęěĚęęęęę": 1867,
      "ęėęĚęęě": 1868,
      "ęęęęęęęęęĚęęęęę": 1869,
      "Ęęęęęě": 1870,
      "ęĜĒ": 1871,
      "ęęĖĚęęė": 1872,
      "ęęĜėęęĚ": 1873,
      "ęĚĚĚęęęęĘ": 1874,
      "ęĚĚĚęęĚę": 1875,
      "ęęęęĚĚęęęę": 1876,
      "ęęęěęęė": 1877,
      "ėęęęęėĘ": 1878,
      "ęĔęęĚ": 1879,
      "ęĘėęęĘ": 1880,
      "ęĘėĘęęęę": 1881,
      "ęĘėęęęĖ": 1882,
      "ęėĘęęęė": 1883,
      "ęėĘěęęęę": 1884,
      "ęęęęęęęęęęęęęęęęęęęęęęęęęęęęę": 1885,
      "ĘęęęęĘę": 1886,
      "ĚęęęęĚĚęęęę": 1887,
      "ęēĝ": 1888,
      "ęėěĘęęě": 1889,
      "ęėěěęęĚ": 1890,
      "ĀĀĕĀĞ": 1891,
      "ėĚĚęęĚ": 1892,
      "ĀĔĘ": 1893,
      "ęĘĜėęęĚ": 1894,
      "ęĖĘęęęĚ": 1895,
      "ęĖĘĘęęĘ": 1896,
      "ęĜĘęęęė": 1897,
      "ěĘęęęĘ": 1898,
      "ěěęęĝ": 1899,
      "ęęęęĘĘĚęęĘ": 1900,
      "ęėĖĘęęĘ": 1901,
      "ĀĀğĀĕ": 1902,
      "ęęęęĘĚĘęęĚ": 1903,
      "ĜĚęęĝ": 1904,
      "ęĖěĘęęĚ": 1905,
      "ĝĚęęĝ": 1906,
      "ęĘęĘęęĚę": 1907,
      "ęėęęęęĚę": 1908,
      "ĀĀĎĀě": 1909,
      "ĞĚęęĞ": 1910,
      "ęěęĘęęė": 1911,
      "!ęęĘ": 1912,
      "#ĝ": 1913,
      "Đęęęę": 1914,
      "ĐęęĘ": 1915,
      "đęęęę": 1916,
      "ēęęĔ": 1917,
      "ĕęęęė": 1918,
      "ĖėęęĘ": 1919,
      "Ėěęęė": 1920,
      "ĖĖęęĘ": 1921,
      "ėęĜ": 1922,
      "Ęğ": 1923,
      "ęĀĀĘĀ": 1924,
      "ĚęęĒ": 1925,
      "ĝĘęęĚ": 1926,
      "ğęęĜ": 1927,
      "ĠęęęĜ": 1928,
      "ęęęęęęĖ": 1929,
      "ęĚęėęęě": 1930,
      "ęĘęĖ": 1931,
      "ęęĚėęęě": 1932,
      "ęęĚěęęě": 1933,
      "ęęĘĚęęęęĘ": 1934,
      "ęęĘĚęęĘę": 1935,
      "ęěęĘęęęęĘ": 1936,
      "ęěęĚęęė": 1937,
      "ęėęĜęęĚ": 1938,
      "ęęėęęęęĘ": 1939,
      "ęęėĜęęė": 1940,
      "ęęěĖęęĚ": 1941,
      "ęĜėęęęę": 1942,
      "ęęĖę": 1943,
      "ęęĜĚęęě": 1944,
      "ęĚęęęęęęęĚęęęę": 1945,
      "ęĚĚěęęĘ": 1946,
      "ęĚĚĜęęĚ": 1947,
      "ęĘĘĚęęě": 1948,
      "ęĚĘęęęĘęęĘ": 1949,
      "ęĘĚęęęęęęęęęęęę": 1950,
      "ęĘĚĖęęĚ": 1951,
      "ęĘĚĚęęęęĚ": 1952,
      "ęęęď": 1953,
      "ėęęęęęęĘ": 1954,
      "ęęĔę": 1955,
      "ęĚěěęęě": 1956,
      "ęĘėĜęęĘ": 1957,
      "ęĘěěęęě": 1958,
      "ęĚėěęęė": 1959,
      "ęėĘĚęęė": 1960,
      "ęėĘĜęęĘ": 1961,
      "ĘęęęęĚę": 1962,
      "ĘęęęęĘęĘęęęę": 1963,
      "ęěěęęęĘ": 1964,
      "Ĝęęęęė": 1965,
      "Ėęęęęė": 1966,
      "ĚęęęęĘę": 1967,
      "ęĜĚĚęęĚ": 1968,
      "ęĜĚĘęęě": 1969,
      "ęĘĖęęęĖ": 1970,
      "ęĘĖěęęė": 1971,
      "ęĘĜĚęęě": 1972,
      "ęĚĖěęęė": 1973,
      "ĀĀĔĀĕ": 1974,
      "ęĖĚĘęęĚ": 1975,
      "ęęęęĘĘĘęęęę": 1976,
      "ęęęęĘĚěęęęę": 1977,
      "ęęęęĚĚĚęęęę": 1978,
      "ęěĖĚęęė": 1979,
      "ęĜĜėęęĚ": 1980,
      "ĀĀđĀĘ": 1981,
      "ęĜęęęęė": 1982,
      "ĜĜęęĜ": 1983,
      "ĀĀ\"ĀĘ": 1984,
      "ęĚęĚęęĘę": 1985,
      "ęěęęęęĘę": 1986,
      "Ĕěęęĕ": 1987,
      "ğĘęęğ": 1988,
      "#Ę": 1989,
      "ĎĖ": 1990,
      "ďĕ": 1991,
      "ēĒ": 1992,
      "ēē": 1993,
      "Ĕęęęė": 1994,
      "ĖĘęęė": 1995,
      "Ėęę!": 1996,
      "ėęę!": 1997,
      "ĘĚęęė": 1998,
      "Ěęęęě": 1999,
      "Ěęęē": 2000,
      "Ěęę!": 2001,
      "ěĜęęĚ": 2002,
      "ěęęĒ": 2003,
      "ĜęęęęĚĘ": 2004,
      "ĝĔ": 2005,
      "ĝĕ": 2006,
      "ĝĘęęě": 2007,
      "Ğ!": 2008,
      "Ġď": 2009,
      "ęĚ!": 2010,
      "ęĚęĜ": 2011,
      "ęĚęėęęęęĘ": 2012,
      "ęĚęěęęė": 2013,
      "ęĘĜęęęę": 2014,
      "ęęĚĜęęęę": 2015,
      "ęęĘęęęęĚ": 2016,
      "ęęĘĚęęĖ": 2017,
      "ĀĀĄ": 2018,
      "ęěęě": 2019,
      "ęėęĜ": 2020,
      "ęėęĘęęęęĚ": 2021,
      "ęėęĚęęęęĚ": 2022,
      "ęėęėęęĚ": 2023,
      "ęėĘęęęęę": 2024,
      "ęęęęęęęęĚĘ": 2025,
      "ęęěĚęęĘ": 2026,
      "ęęěĜęęĚ": 2027,
      "ęęęĚęęęęęęęęęęę": 2028,
      "ęęęĘęęĜ": 2029,
      "ęęęĘęęęęęęęęęęę": 2030,
      "ęĜĚęęĚ": 2031,
      "ęĜęėęęęę": 2032,
      "ęĜęėęęĘ": 2033,
      "ęęĖėęęĘ": 2034,
      "ęęĖėęęė": 2035,
      "ęęĜėęęě": 2036,
      "ęĕęęęęĘ": 2037,
      "ęĘĘĚęęęęĘ": 2038,
      "ęĚĘęęęě": 2039,
      "ęĚĘĘęęě": 2040,
      "ęĚĘėęęė": 2041,
      "ęęĕęęęę": 2042,
      "ęĘĚęęęė": 2043,
      "ėęęęęęęĚ": 2044,
      "ęĔĒ": 2045,
      "ęĔęęĘ": 2046,
      "ęęĔęĜ": 2047,
      "ęĚěęęĚ": 2048,
      "ęĚěęęęĚę": 2049,
      "ęĘėęęęĚ": 2050,
      "ęěĚěęęĚ": 2051,
      "ęěĚėęęě": 2052,
      "ęěĚĖęęĚ": 2053,
      "ęěĘĖęęĘ": 2054,
      "ęėĚęęęĚę": 2055,
      "ęėĘėęęĘ": 2056,
      "ęėĘĘęęė": 2057,
      "ęěěĚęęě": 2058,
      "Ėęęęęě": 2059,
      "ęēĞ": 2060,
      "ęěėěęęĘ": 2061,
      "ĀĀĕĀĔ": 2062,
      "ėĚęęęĚ": 2063,
      "ĀĀĝĀĝ": 2064,
      "ęĜĚęęęě": 2065,
      "ęĘĖěęęĘ": 2066,
      "ęĖĘěęęĘ": 2067,
      "ęĚĖęęęĖ": 2068,
      "ęĖĚěęęęę": 2069,
      "ęĖĚĚęęě": 2070,
      "ėĘęęĕ": 2071,
      "ěĘĘęęĘ": 2072,
      "ěĘęęĞ": 2073,
      "ęĒĚ": 2074,
      "ęėĖęęęė": 2075,
      "ęęęęĚĚęęęĚ": 2076,
      "ĀĀēĀĝ": 2077,
      "ĀĀĒĀĜ": 2078,
      "ĀĀĒĀĝ": 2079,
      "ęĜĜĘęęĚ": 2080,
      "ĀĀđĀĚ": 2081,
      "ĀĀđĀĖ": 2082,
      "ęęĘĘęęęęę": 2083,
      "ĀĀ\"ĀĖ": 2084,
      "ĕėęęĕ": 2085,
      "\"ę": 2086,
      "$!": 2087,
      "%Ğ": 2088,
      "Ďė": 2089,
      "ēęę": 2090,
      "ĕĘęęĘ": 2091,
      "ĖĘęęęę": 2092,
      "ėęě": 2093,
      "ėėęęĚ": 2094,
      "Ęė": 2095,
      "ĘĘęęęęĚ": 2096,
      "ĘęęęęęęęęęęęĚ": 2097,
      "ę'": 2098,
      "Ěęě": 2099,
      "ĚĘęęĘ": 2100,
      "ěěęęĘ": 2101,
      "ěĜęęęę": 2102,
      "ěĘęęĜ": 2103,
      "ĜĘęęęę": 2104,
      "ĜĚęęęę": 2105,
      "ĝĚęęĚ": 2106,
      "Ğĕ": 2107,
      "ĠęęĔ": 2108,
      "ĠĀĜ": 2109,
      "ĠĀĝ": 2110,
      "ęĚęĖęęĘ": 2111,
      "ęĘđ": 2112,
      "ęĘęęĕ": 2113,
      "ęĘęėęęě": 2114,
      "ęęĘėęęė": 2115,
      "ĀĀă": 2116,
      "ęěęĖęęęę": 2117,
      "ęěęěęęĘ": 2118,
      "ęėđ": 2119,
      "ęėęęĚę": 2120,
      "ęėęĘęęě": 2121,
      "ęęėęęęĖ": 2122,
      "ęęěęęęĚę": 2123,
      "ęĘęęęęęęęĚęęęę": 2124,
      "ęĚęęęęĖ": 2125,
      "ęĚęęęęęęęĘęęęę": 2126,
      "ęĝ!": 2127,
      "ęĘĘĝęęĘ": 2128,
      "ęĚĘĘęęęęĘ": 2129,
      "ęĚĘĚęęĖ": 2130,
      "ęĚĘĕęęĘ": 2131,
      "ęĘĚęęęěę": 2132,
      "ęęęěęęęęĚ": 2133,
      "ėęęęęěĚ": 2134,
      "ěęęęęę": 2135,
      "ěęęęęęęĘ": 2136,
      "ęĞęęĚ": 2137,
      "ęĚěĚęęě": 2138,
      "ęĚěęęęĜ": 2139,
      "ęěĚĚęęě": 2140,
      "ęĘěĘęęęę": 2141,
      "ęĚėĚęęęę": 2142,
      "ęęęĖęęĘ": 2143,
      "ĘęęęęĚĚęęęę": 2144,
      "ęĚĖěęęĘ": 2145,
      "ĀĀĔĀĔ": 2146,
      "ęĖĚęęęě": 2147,
      "ĀĀĞĀĝ": 2148,
      "ĀĀğĀĝ": 2149,
      "ęėĜĘęęĚ": 2150,
      "ĀĀēĀě": 2151,
      "ęěĖĚęęĘ": 2152,
      "ęěĖĘęęė": 2153,
      "ęĖěĚęęĚ": 2154,
      "ĀĀ!ĀĖ": 2155,
      "ĕĚęęĔ": 2156,
      "ĀĀđĀě": 2157,
      "ĀĀđĀė": 2158,
      "Ėěęęĕ": 2159,
      "ĀĀĐĀĖ": 2160,
      "ĀĀ\"Āė": 2161,
      "ĕěęęĕ": 2162,
      "ğĜęęĝ": 2163,
      "ĀĀ*Ā": 2164,
      "!#": 2165,
      "#Ĝ": 2166,
      "$Ě": 2167,
      "ďė": 2168,
      "ĐĔ": 2169,
      "ĒĎ": 2170,
      "Ĕđ": 2171,
      "Ĕğ": 2172,
      "ĔĚęęė": 2173,
      "Ĕęęğ": 2174,
      "Ėěęęęę": 2175,
      "ĖĘęęĖ": 2176,
      "ĖęęęęĘĚ": 2177,
      "ėĚęęė": 2178,
      "Ęĕ": 2179,
      "ĘĚęęĚ": 2180,
      "ĘęęęęęęęęęĘ": 2181,
      "ĚĚęęě": 2182,
      "ěėęęĜ": 2183,
      "ĜĜęęĚ": 2184,
      "ĝęęęě": 2185,
      "ĠęĘ": 2186,
      "ęĘęęęĚ": 2187,
      "ęĘěęęĘ": 2188,
      "ęĘĚęęęęĚ": 2189,
      "ęęĚĜęęĚ": 2190,
      "ęęĘĘęęĖ": 2191,
      "ęěđ": 2192,
      "ęěęęĜ": 2193,
      "ęėęęĕ": 2194,
      "ęėĜęęęę": 2195,
      "ęėęĚęęė": 2196,
      "ęęęęęęęęęĘęęęęę": 2197,
      "ęęėěęęęę": 2198,
      "ĘęęęęėĘ": 2199,
      "Ěęęęęęęė": 2200,
      "ęęęĚęęĜ": 2201,
      "ęęęĚęęęęĘĚ": 2202,
      "ęĜęĘęęĚ": 2203,
      "ęĖęęĖ": 2204,
      "ęęĖęęĚ": 2205,
      "ęęĖęęĘ": 2206,
      "ęęĖĘęęĖ": 2207,
      "ęĚęęęęĘęęĚ": 2208,
      "ęĝęęė": 2209,
      "ęĝĚęęęę": 2210,
      "ęĝęĘęęĘ": 2211,
      "ęĘĘĖęęĘ": 2212,
      "ęĘĘęęęĚę": 2213,
      "ęĚĘĚęęĘę": 2214,
      "ęęĕęęęė": 2215,
      "ęĘĚĚęęė": 2216,
      "ęĘĚęęęĚęęĚ": 2217,
      "ęęęęęęęęęęęęęęęĚ": 2218,
      "ęęĞęĕ": 2219,
      "ęĘėėęęęę": 2220,
      "ęĘėėęęė": 2221,
      "ęĘėęęęĘę": 2222,
      "ęĘěęęęĜ": 2223,
      "ęĘěėęęě": 2224,
      "ęĘěĖęęĚ": 2225,
      "ęĘěĚęęĜ": 2226,
      "ęĘěĚęęĚę": 2227,
      "ęěĘĚęęĚ": 2228,
      "ęěĘĘęęĖ": 2229,
      "ęĚėęęęĘę": 2230,
      "ęęēęĜ": 2231,
      "ęęēęĖ": 2232,
      "ęěěĚęęęę": 2233,
      "ęěěėęęě": 2234,
      "ęēęęęę": 2235,
      "ęěėĚęęė": 2236,
      "ęěėěęęė": 2237,
      "ęėěěęęęę": 2238,
      "ęĚĜĚęęĚ": 2239,
      "ęĚĜĚęęě": 2240,
      "ęĚĜĖęęĚ": 2241,
      "ėĚęęĕ": 2242,
      "ęĜĚęęęĘ": 2243,
      "ęĘĖėęęĘ": 2244,
      "ęĘĖĘęęė": 2245,
      "ęĘĜęęęĜ": 2246,
      "ęĚęęęęĚęęęęęęęę": 2247,
      "ęĜĘėęęĘ": 2248,
      "ĀĀĞĀē": 2249,
      "ĀĀğĀĔ": 2250,
      "ęęęęĚĚĘęęęę": 2251,
      "ĀĀēĀĔ": 2252,
      "ęĖėęęęė": 2253,
      "ęĜėĘęęĘ": 2254,
      "ĀĀĒĀĚ": 2255,
      "ęĖęęęęė": 2256,
      "ĀĀ!ĀĜ": 2257,
      "ęĘĕęęęĘ": 2258,
      "ęĚęĘęęĜ": 2259,
      "ĕĘęęĔ": 2260,
      "ĀĀĐĀĚ": 2261,
      "ĝěęęĝ": 2262,
      "ęĘĘęęęĘęęęęęęęę": 2263,
      "ęěĝęęęĚ": 2264,
      "ęĚęĚęęĚę": 2265,
      "ĀĀ#ĀĘ": 2266,
      "ęěęĘęęě": 2267,
      "!ĕ": 2268,
      "ďĜ": 2269,
      "ĐęęĔ": 2270,
      "đęęĝ": 2271,
      "Ēęę": 2272,
      "Ēęęĕ": 2273,
      "ĕėęęė": 2274,
      "Ėđ": 2275,
      "Ėęĝ": 2276,
      "ĖęęęĖ": 2277,
      "ĖĜęęĘ": 2278,
      "ĖęęęęĚĘ": 2279,
      "ėĀĀ": 2280,
      "ėęęęĘę": 2281,
      "ėĕęęĘ": 2282,
      "ĘĖęęęę": 2283,
      "Ęėęęė": 2284,
      "ęĀĀęĀ": 2285,
      "Ě!": 2286,
      "ĚĚęęĘ": 2287,
      "ĚĚęęęęĚ": 2288,
      "ĚęęęęęęęęęęęĚ": 2289,
      "ě\"": 2290,
      "ěęęęĘ": 2291,
      "ěėęęęę": 2292,
      "ěęęęĜ": 2293,
      "ĝęęē": 2294,
      "ĠĒ": 2295,
      "ĠĚęęě": 2296,
      "ęĚęęęĘ": 2297,
      "ęĚęęęě": 2298,
      "ęĘęĔ": 2299,
      "ęĘĘęęęęĚ": 2300,
      "ęĘĚęęĘę": 2301,
      "ęĘęęęęęęęęęęęęęęęęęęęę": 2302,
      "ęĘęěęęě": 2303,
      "ęęĚĘęęĜ": 2304,
      "ęęĘėęęĚ": 2305,
      "ęěęěęęęę": 2306,
      "ęęęęęęęęęĚęęęę": 2307,
      "ęęęęęęęęęęĘę": 2308,
      "ęęėėęęė": 2309,
      "ęęěĘęęĘ": 2310,
      "ęęěęęęė": 2311,
      "ęęěĚęęĜ": 2312,
      "ęęęĘęęĚęęęę": 2313,
      "ęĜĜęęęę": 2314,
      "ęĜęĚęęĘ": 2315,
      "ęĖęĘęęĚ": 2316,
      "ęĖęĚęęĚ": 2317,
      "ęęĖěęęĘ": 2318,
      "ęęĖĖęęė": 2319,
      "ęĘęęęęęęęĘęęęę": 2320,
      "ęĚęęęęĚęęĘ": 2321,
      "ęĚęęęęĚęęĚ": 2322,
      "ęĕĚęęęę": 2323,
      "ęĕęęęęĚ": 2324,
      "ęĚĚĖęęęę": 2325,
      "ęĚĚěęęě": 2326,
      "ęĚĚĖęęě": 2327,
      "ęĚĚĕęęĚ": 2328,
      "ęĘĘĚęęęęĚ": 2329,
      "ęĚĘĖęęĚ": 2330,
      "ęĚĘĖęęĘ": 2331,
      "ęęĞęĜ": 2332,
      "ęĚěĚęęĘ": 2333,
      "ęĚěėęęęę": 2334,
      "ęĚěĚęęĜ": 2335,
      "ęĘėĚęęĚ": 2336,
      "ęěĚěęęęę": 2337,
      "ęĘěĚęęĘ": 2338,
      "ęěĘęęęĖ": 2339,
      "ęĚėęęęĚ": 2340,
      "ęėĚĚęęĘ": 2341,
      "ęėĚĘęęě": 2342,
      "ęęęęęęęęęęęęęęęęęęęęęęęęęęęęęęęęęęęę": 2343,
      "ęęēęĝ": 2344,
      "ęęęĘęęęęęęĘę": 2345,
      "ęėėĚęęĖ": 2346,
      "ęěęęęęęęě": 2347,
      "ęěěěęęĚ": 2348,
      "Ĝęęęęě": 2349,
      "ĚęęęęĚę": 2350,
      "ęēĜ": 2351,
      "ęěėĘęęė": 2352,
      "ęĚĜęęęĜ": 2353,
      "ėĚĘęęĚ": 2354,
      "ęĜĚėęęĚ": 2355,
      "ęĜĚėęęĘ": 2356,
      "ęĚĖĚęęė": 2357,
      "ęěĜĘęęě": 2358,
      "ęęĘęęęĘęęĘ": 2359,
      "ėěĞ": 2360,
      "ęėĖĚęęė": 2361,
      "ęĜěĚęęĚ": 2362,
      "ęėĜĚęęě": 2363,
      "ęĖėĚęęĘ": 2364,
      "ęĖėĘęęĘ": 2365,
      "ęěĖĘęęĘ": 2366,
      "ĜĘęęĞ": 2367,
      "ĀĀ!Āě": 2368,
      "ĀĀ!Āĝ": 2369,
      "Ĝěęęĝ": 2370,
      "ęĕĘęęęĘ": 2371,
      "ęĜĖęęęė": 2372,
      "ĀĀĎĀĚ": 2373,
      "ğĚęęĞ": 2374,
      "ĀĀ+Ā": 2375,
      "$ě": 2376,
      "$ğ": 2377,
      "ďě": 2378,
      "ďğ": 2379,
      "ďęęĚ": 2380,
      "ďęęė": 2381,
      "Đę": 2382,
      "ēĎ": 2383,
      "ĕĚęęęę": 2384,
      "ĕęęĘę": 2385,
      "Ėęě": 2386,
      "Ėėęęęę": 2387,
      "Ėėęęė": 2388,
      "ĖĕęęĘ": 2389,
      "ĖĖĝ": 2390,
      "ėĜęęĘ": 2391,
      "ėęęĒ": 2392,
      "ėĝęęĘ": 2393,
      "ĘĔ": 2394,
      "ĘĘęęĚ": 2395,
      "ěęě": 2396,
      "ěęĚęęęę": 2397,
      "ěĘęęĚę": 2398,
      "ĝ!": 2399,
      "ĝęęĞ": 2400,
      "ĝėęęě": 2401,
      "ĞĚęęě": 2402,
      "ĠęĘĘ": 2403,
      "ĠĘęęĜ": 2404,
      "ĠęęęĞ": 2405,
      "ĠĀĀĘĀĘ": 2406,
      "ęĚĚęęęęĘ": 2407,
      "ęĚĘęęĚę": 2408,
      "ęĚęĜęęęę": 2409,
      "ęĚęėęęęęĚ": 2410,
      "ęĚęęęęęęęęęęęĘ": 2411,
      "ęĘęęęė": 2412,
      "ęĘęęĔ": 2413,
      "ęĘĚęęęęĘ": 2414,
      "ęĘęęęĘęęĘ": 2415,
      "ęĘęėęęė": 2416,
      "ęěęĖ": 2417,
      "ęěęĘęęęęĚ": 2418,
      "ęěęĖęęĘ": 2419,
      "ęėęęĘę": 2420,
      "ęėęėęęĘ": 2421,
      "ęėęĜęęĘ": 2422,
      "ęėęěęęė": 2423,
      "ęęėęęęęęęĘ": 2424,
      "ęęěėęęęę": 2425,
      "ęęěęęęĜ": 2426,
      "ęęěĖęęě": 2427,
      "Ęęęęęęęė": 2428,
      "ĘęęęęęęęĘ": 2429,
      "ęĜęęĜ": 2430,
      "ęĖĐ": 2431,
      "ęęĜěęęĚ": 2432,
      "ęĘęęęęĜ": 2433,
      "ęĘęęęęĘęęĚ": 2434,
      "ęĘęęęęęęĘęęęęęę": 2435,
      "ęĚęęęęęęęĘęęęęę": 2436,
      "ęĚęęęęęęęĚęęęęę": 2437,
      "ęĝęęęęĘ": 2438,
      "ęĕĘęęęę": 2439,
      "ęĕęęĖ": 2440,
      "ęĕėęęęę": 2441,
      "ęĚĘęęęęęęęęęęęę": 2442,
      "ęĚĘėęęě": 2443,
      "ęĚĘĖęęė": 2444,
      "ęĚĘęęęĘęęĚ": 2445,
      "ęĘĚĜęęĘ": 2446,
      "ęęęėęęęęĘ": 2447,
      "ęęęėęęęęĚ": 2448,
      "ęęĘęęęęęęęĘęęęę": 2449,
      "ęęĘęęęęęęĚę": 2450,
      "ęĚěĖęęě": 2451,
      "ęĘėėęęĘ": 2452,
      "ęěĚėęęĘ": 2453,
      "ęĘěęęęĘ": 2454,
      "ęěĘėęęė": 2455,
      "ęěĘęęęĘę": 2456,
      "ęĚėėęęęę": 2457,
      "ęĚėęęęĖ": 2458,
      "ęėĚėęęęę": 2459,
      "ęėĚėęęě": 2460,
      "ęėĚĖęęĚ": 2461,
      "ęėĘėęęęę": 2462,
      "ęėĘěęęĚ": 2463,
      "ęėėėęęęę": 2464,
      "ęėėėęęĘ": 2465,
      "ęěęęęęĜ": 2466,
      "ęěėĘęęęę": 2467,
      "ěĚĚęęęę": 2468,
      "ęĜĘĘęęęę": 2469,
      "ęĜĘĚęęĘ": 2470,
      "ęĜĘĘęęė": 2471,
      "ěěě": 2472,
      "ęěĜĚęęĚ": 2473,
      "ęĒęęęę": 2474,
      "ęęĘęęęĘęęĚ": 2475,
      "ėěĚęęĚ": 2476,
      "ėěęęĕ": 2477,
      "ęĜěĘęęĚ": 2478,
      "ęĜěėęęĚ": 2479,
      "ęĜěĘęęě": 2480,
      "ęĜěĚęęě": 2481,
      "ęęęęĚĚĚęęĚ": 2482,
      "ęĖėěęęĘ": 2483,
      "ęĜėĚęęė": 2484,
      "ęĜĜęęęĚ": 2485,
      "ęđė": 2486,
      "ĀĀ!Āĕ": 2487,
      "ĀĀ!ĀĔ": 2488,
      "ėĜęęĖ": 2489,
      "ĀĀđĀĕ": 2490,
      "ęĘęĚęęęęęęęęęęę": 2491,
      "ęĘĝĚęęĚ": 2492,
      "ęĜęęęęě": 2493,
      "ĀĀ\"ĀĚ": 2494,
      "Ĝĝęęě": 2495,
      "ęĝėĘęęĘ": 2496,
      "ĞĜęęĜ": 2497,
      "ĀĀ&Āě": 2498,
      "ēĘęęĔ": 2499,
      "ęĚęęęęęęęęĘęęęę": 2500,
      "ĀĀ*ĀĘ": 2501,
      "\"ĀĀęĀ": 2502,
      "#ė": 2503,
      "#ęęęę": 2504,
      "%ě": 2505,
      "ĐĐ": 2506,
      "ĐęęĚ": 2507,
      "đě": 2508,
      "đęęĜ": 2509,
      "Ē!": 2510,
      "Ēď": 2511,
      "ĒęęĔ": 2512,
      "ēęęĞ": 2513,
      "ēęęğ": 2514,
      "ĔĘęęė": 2515,
      "ĕĚęęĘ": 2516,
      "ĕęęęĖ": 2517,
      "ĕęęĒ": 2518,
      "ĖęęęęĚĚ": 2519,
      "ĖěęęĖ": 2520,
      "ĖėęęĖ": 2521,
      "ėěęęęę": 2522,
      "ėěęęė": 2523,
      "ėĜęęęę": 2524,
      "ėĖęęęę": 2525,
      "Ęę": 2526,
      "ĘĘęęė": 2527,
      "Ęęęęęęęęęęęęęęęęę": 2528,
      "ĘĚęęĘę": 2529,
      "ęĀĀėĀ": 2530,
      "Ěė": 2531,
      "Ěěęęė": 2532,
      "ĚęęęęęęęęęęęĘ": 2533,
      "ĜęęęęĘĘ": 2534,
      "ĜěęęĜ": 2535,
      "Ğğ": 2536,
      "ĠęęĞ": 2537,
      "Ġęęē": 2538,
      "Ġęē": 2539,
      "ĠěęęĜ": 2540,
      "ĠĀĀĞĀ": 2541,
      "ęĚđ": 2542,
      "ęĚęęĔ": 2543,
      "ęĚĕęęęę": 2544,
      "ęĘĘęęĚ": 2545,
      "ęĘęęęęęęęęęęęęęęęę": 2546,
      "ęĘĜęęĘ": 2547,
      "ęĘĕęęęę": 2548,
      "ęĘĘęęĘę": 2549,
      "ęĘęěęęęęĘ": 2550,
      "ęĘęěęęė": 2551,
      "ęĘęĝęęĘ": 2552,
      "ęęĚęęęė": 2553,
      "ęęĚĘęęė": 2554,
      "ęęĘĘęęě": 2555,
      "ęęĘĜęęė": 2556,
      "ĀĀĂ": 2557,
      "ęě\"": 2558,
      "ęěęęĕ": 2559,
      "ęěėęęĚ": 2560,
      "ęė!": 2561,
      "ęęęęęęęęęęĚę": 2562,
      "ęęėĚęęĖ": 2563,
      "ęęěęęęęĚ": 2564,
      "ęęěęęęĚęęĘ": 2565,
      "ĚęęęęėĘ": 2566,
      "ęęęĚęęęęęęęęęęęę": 2567,
      "ęęęĘęęęęĘĘ": 2568,
      "ęĜęęęĚ": 2569,
      "ęĖęęĜ": 2570,
      "ęĘęęęęĘęęęę": 2571,
      "ęĚęęęęęęĜ": 2572,
      "ęĚęęęęĚęęęęęęĚ": 2573,
      "ęĝĒ": 2574,
      "ęĕęĚęęĚ": 2575,
      "ęĚĚęęě": 2576,
      "ęĚĚĚęęĜ": 2577,
      "ęĚĘęęęĖ": 2578,
      "ęĚĘĚęęęęĘ": 2579,
      "ęĚĘĝęęĘ": 2580,
      "ęĘĚėęęĘ": 2581,
      "ęĘĚĚęęęęĘ": 2582,
      "ęęĝęęęę": 2583,
      "ęęęěęęęęĘ": 2584,
      "ėęęęęęę": 2585,
      "ėęęęęěĘ": 2586,
      "ęęĚęęęęęęĚę": 2587,
      "ęĞē": 2588,
      "ęęĘęęęęęęĘę": 2589,
      "ęĚěĜęęĚ": 2590,
      "ęĘėĘęęĖ": 2591,
      "ęěĚĘęęęęĚ": 2592,
      "ęěĚĖęęęę": 2593,
      "ĀĀĚĀĚĚ": 2594,
      "ęěĘėęęĚ": 2595,
      "ęěĘėęęĖ": 2596,
      "ęėĘěęęė": 2597,
      "ęėĘĚęęęęĚ": 2598,
      "ęėĘęęęĘę": 2599,
      "ęęęĜęęė": 2600,
      "ęęĚęē": 2601,
      "ęėėĜęęĘ": 2602,
      "ęěęęęęęęė": 2603,
      "ęěěĖęęĚ": 2604,
      "ęėęęęęęęě": 2605,
      "ęēĔ": 2606,
      "ęěėęęęĖ": 2607,
      "ęěėĖęęĘ": 2608,
      "ęěėĜęęė": 2609,
      "ěĚęęĖ": 2610,
      "ėĚęęĜ": 2611,
      "ęĜĚĚęęęę": 2612,
      "ęĖĘěęęęę": 2613,
      "ęĚĖĖęęĘ": 2614,
      "ęĖĚĚęęęę": 2615,
      "ęĘęęęęĘęęęęęęęę": 2616,
      "ęĜĘĚęęė": 2617,
      "ėĘĚęęĘ": 2618,
      "ĀĀĞĀĞ": 2619,
      "ęĒĕ": 2620,
      "ęėĖěęęė": 2621,
      "ĀĀğĀĞ": 2622,
      "ęĜěĘęęĘ": 2623,
      "ęėĜĚęęĚ": 2624,
      "ęęđęĜ": 2625,
      "ĀĀēĀĞ": 2626,
      "ęęęęĚĘĘęęĘ": 2627,
      "ĜĚęę": 2628,
      "ęĜėęęęė": 2629,
      "ĀĀĒĀĞ": 2630,
      "ęĖěĚęęě": 2631,
      "ę!Ğ": 2632,
      "ęĚĝėęęě": 2633,
      "ĀĀđĀĞ": 2634,
      "ĘĚĜ": 2635,
      "ęĝĘęęęĘ": 2636,
      "ĀĀĐĀė": 2637,
      "ĝěęęĞ": 2638,
      "ĀĀ$Āě": 2639,
      "ĀĀďĀĚ": 2640,
      "ĀĀĎĀĘ": 2641,
      "ĀĀĎĀĖ": 2642,
      "ĀĀĎĀĜ": 2643,
      "ĀĀ%Āė": 2644,
      "ĀĀ&ĀĘ": 2645,
      "ĀĀ'Āě": 2646,
      "ĘęęęęĘĘĚęęĘ": 2647,
      "ęęęęęęęęęęęęęĚę": 2648,
      "ĀĀ-Ā": 2649,
      "!Ĕ": 2650,
      "\"Ė": 2651,
      "Đď": 2652,
      "đęę": 2653,
      "ĕĀĀ": 2654,
      "ĖĀĀ": 2655,
      "ĖęĜ": 2656,
      "ėěě": 2657,
      "ėĜęęė": 2658,
      "ėĖĜ": 2659,
      "Ęęęęė": 2660,
      "ęĀĀěĀ": 2661,
      "Ěėęęęę": 2662,
      "ĚĘęęęęĚ": 2663,
      "ĚĜęęęę": 2664,
      "ĚĖęęĚ": 2665,
      "ěęĚ": 2666,
      "ěĚęęė": 2667,
      "ěęęđ": 2668,
      "ěĝęęĚ": 2669,
      "Ĝěě": 2670,
      "ĜęęęęĚĚ": 2671,
      "ĜĀĀęĀ": 2672,
      "ĝĘęęęę": 2673,
      "ĝĜęęě": 2674,
      "Ğ#": 2675,
      "ĠęęęęĚ": 2676,
      "ĠęĞ": 2677,
      "ĠĀĕ": 2678,
      "ĠĀĞ": 2679,
      "Ġęęęĝ": 2680,
      "ĠĀĀĘĀ": 2681,
      "ĠĀĀėĀ": 2682,
      "ęĚ\"": 2683,
      "ęĚęęęęęęęęęęęęęęęę": 2684,
      "ęĚęĕęęęę": 2685,
      "ęĘęęğ": 2686,
      "ęĘęĖęęĘ": 2687,
      "ęęĚėęęĘ": 2688,
      "ęęĚĕęęĚ": 2689,
      "ęęĘĜęęęę": 2690,
      "ęěęęęęęęęę": 2691,
      "ęěęęęě": 2692,
      "ęěěęęĚ": 2693,
      "ęěęęĚę": 2694,
      "ęěęĚęęęęĚ": 2695,
      "ęěęęęęĘĘ": 2696,
      "ęěęěęęĚ": 2697,
      "ęėėęęĘ": 2698,
      "ęėęĘęęęęĘ": 2699,
      "ęėęĜęęęę": 2700,
      "ęęęęęęęęęęęĘęęęęęę": 2701,
      "ęęėĜęęĘ": 2702,
      "ęęěĘęęĜ": 2703,
      "ęĜĘęęĚ": 2704,
      "ęĜęĚęęė": 2705,
      "ęĜęĘęęė": 2706,
      "ęĖĖęęęę": 2707,
      "ęĖęĘęęĘ": 2708,
      "ęĖęĚęęė": 2709,
      "ęĖęĚęęě": 2710,
      "ęęĖĘęęęę": 2711,
      "ęęĜę": 2712,
      "ęęĜėęęĜ": 2713,
      "ęĘęęęęĚęęęę": 2714,
      "ęĘęęęęęĚĚęęęę": 2715,
      "ęĘęęęęęęĚĘęęęę": 2716,
      "ęĘęęęęęęĚęęęęęę": 2717,
      "ęĚęęęęĚęęęę": 2718,
      "ęĚęęęęęĚĘęęęę": 2719,
      "ĘęęĚęĖ": 2720,
      "ęĘĘęęęĜ": 2721,
      "ęĘĘĘęęĖ": 2722,
      "ęĚĘĚęęě": 2723,
      "ęĚĘĘęęĖ": 2724,
      "ęĘĚęęęĜ": 2725,
      "ęĘĚĘęęęęĘ": 2726,
      "ęĘĚĜęęě": 2727,
      "ęęĝĘęęĚ": 2728,
      "ęęęėęęė": 2729,
      "ęęę$": 2730,
      "ęęę%": 2731,
      "ěęęęęě": 2732,
      "ěęęęęęęĚ": 2733,
      "ęęĚęęęęęęĚęęęęę": 2734,
      "ęęĞę": 2735,
      "ęĔĘęęęę": 2736,
      "ęęĔęĖ": 2737,
      "ęĘėĘęęĚ": 2738,
      "ęĘėĚęęĘę": 2739,
      "ęěĚęęęė": 2740,
      "ęĘěęęęĚę": 2741,
      "ęĚėĘęęĖ": 2742,
      "ęĚėęęęĕ": 2743,
      "ęėėĚęęĚ": 2744,
      "ĘęęęęĘĚęęęę": 2745,
      "ĜęęęęěĚ": 2746,
      "Ĝęęęęěě": 2747,
      "ĚęęęęĚęĘęęęę": 2748,
      "ęēęęĘ": 2749,
      "ęėěęęęĜ": 2750,
      "ęėěěęęě": 2751,
      "ęĚĜėęęě": 2752,
      "ėĚğ": 2753,
      "ęĜĚėęęě": 2754,
      "ęĜĚĜęęĚ": 2755,
      "ęĘęęęęĚęęęęęęęę": 2756,
      "ęĘĜěęęĚ": 2757,
      "ęĘĜěęęě": 2758,
      "ęĘĜĘęęĜ": 2759,
      "ęĖĘĚęęė": 2760,
      "ęĖĚėęęĚ": 2761,
      "ęĜĘěęęĘ": 2762,
      "ėĘĚ": 2763,
      "ęěĜęęęĜ": 2764,
      "ęĒē": 2765,
      "ęĒğ": 2766,
      "ęėĖęęęĖ": 2767,
      "ęĜěĘęęęę": 2768,
      "ęėĜęęęĚ": 2769,
      "ęėĜęęęě": 2770,
      "ęėĜėęęĚ": 2771,
      "ęęęęĘĚĘęęęę": 2772,
      "ĀĀēĀē": 2773,
      "ĀĀęĀğ": 2774,
      "ęęęĘęęĘĘęęęę": 2775,
      "ėėĚęęĘ": 2776,
      "ĜĚĝ": 2777,
      "ęĜėĚęęĘ": 2778,
      "ĖĚĝ": 2779,
      "ĖĘęęĔ": 2780,
      "ęęęĘęęĚĚęęĚ": 2781,
      "ĜĘęęğ": 2782,
      "ę!Ě": 2783,
      "ĀĀėĀĒ": 2784,
      "ęĕĚęęęĚ": 2785,
      "ęĚĝęęęĚ": 2786,
      "ęĚĝęęęě": 2787,
      "ęĖĖĚęęĘ": 2788,
      "ęĖĖĚęęė": 2789,
      "ĀĀđĀĔ": 2790,
      "ęĘęĚęęĜ": 2791,
      "ęęęĞęęĘ": 2792,
      "ĚĚĜ": 2793,
      "Ėėęęĕ": 2794,
      "ěėĘęęĘ": 2795,
      "ęęěęęęęę": 2796,
      "ęėĕęęęĘ": 2797,
      "ĀĀ\"Āě": 2798,
      "ęĕėĚęęĘ": 2799,
      "ĀĀ$Āė": 2800,
      "ĀĀ#ĀĖ": 2801,
      "ĞĞęęě": 2802,
      "ĀĀ%ĀĚ": 2803,
      "ĀĀ%Āě": 2804,
      "ęėęęęęĘę": 2805,
      "ĠĚęęĞ": 2806,
      "ĀĀ'ĀĘ": 2807,
      "ęěęĘęęĖ": 2808,
      "ęĝęęęęė": 2809,
      "ęĘĘěęęĘę": 2810,
      "ĀĀ,Ā": 2811,
      "ĀĀ/Ā": 2812,
      "!$": 2813,
      "\"ĕ": 2814,
      "#\"": 2815,
      "$Ğ": 2816,
      "ĎĔ": 2817,
      "ďē": 2818,
      "đĀĀ": 2819,
      "đęęē": 2820,
      "ĒĀĀ": 2821,
      "Ēęęĝ": 2822,
      "ĔęĜ": 2823,
      "ĔĘęęĘ": 2824,
      "ĔęęęęĚ": 2825,
      "ĕęęęĘ": 2826,
      "ĕėęęĘ": 2827,
      "ĕęęęęĘĘ": 2828,
      "ĕęęęęĚĘ": 2829,
      "Ė#": 2830,
      "Ė$": 2831,
      "ĖĚęęęę": 2832,
      "ĖĚęęĖ": 2833,
      "Ėėě": 2834,
      "ĖĖęęė": 2835,
      "ėđ": 2836,
      "ėęęęęęęęę": 2837,
      "ėĘęęĖ": 2838,
      "ĘęęęĖ": 2839,
      "Ęěęęė": 2840,
      "Ęěě": 2841,
      "ĘęęęęęęęęęĚ": 2842,
      "Ě\"": 2843,
      "ĚęĚ": 2844,
      "Ěęęęė": 2845,
      "Ěěęęě": 2846,
      "Ěĝęęęę": 2847,
      "ĚĚęęĚę": 2848,
      "ĚĖĜ": 2849,
      "ěĚęęĘ": 2850,
      "ěęėęęęę": 2851,
      "ěĜęęĘ": 2852,
      "ěĖĚ": 2853,
      "ěęę#": 2854,
      "Ĝę": 2855,
      "ĜęĜ": 2856,
      "ĜęĘęęęę": 2857,
      "ĜęęęĜ": 2858,
      "ĜęęęęĘĚ": 2859,
      "ĜĜęęě": 2860,
      "ĝęę": 2861,
      "ĞęęęĚ": 2862,
      "ĞęęęęĚ": 2863,
      "Ğęęęě": 2864,
      "ĞĀĀęĀ": 2865,
      "ğęęĝ": 2866,
      "ğĀĀĚĀ": 2867,
      "Ġęė": 2868,
      "ĠęęęĚ": 2869,
      "Ġęęĕ": 2870,
      "Ġęęęě": 2871,
      "ĠĘęęě": 2872,
      "ĠĀĀĚĀ": 2873,
      "ĠĀĀěĀ": 2874,
      "ęę'": 2875,
      "ęĚę": 2876,
      "ęĚěęęĘ": 2877,
      "ęĚĖęęĚ": 2878,
      "ęĚĝęęęę": 2879,
      "ęĚęěęęęęĚ": 2880,
      "ęĘę": 2881,
      "ęĘęęĝ": 2882,
      "ęĘėęęĚ": 2883,
      "ęĘęęęęęęęęęęęĘ": 2884,
      "ęęĚěęęė": 2885,
      "ęęĚĜęęĘ": 2886,
      "ęęĚęęęęęęęęęęę": 2887,
      "ęęĚěęęĜ": 2888,
      "ęęĚĝęęĚ": 2889,
      "ęęĘęęęęĘ": 2890,
      "ęęĘěęęĚ": 2891,
      "ęęĘęęęĖ": 2892,
      "ęęĘęęęĚę": 2893,
      "ęęĘěęęĖ": 2894,
      "ęěęęĖ": 2895,
      "ęěęęęĚę": 2896,
      "ęěęęęęĚĘ": 2897,
      "ęěęĖęęě": 2898,
      "ęėěęęĘ": 2899,
      "ęėęęęĘę": 2900,
      "ęėĚęęęęę": 2901,
      "ęėęěęęě": 2902,
      "ęęėĘęęęęĘ": 2903,
      "ęęėĘęęĖ": 2904,
      "ęęěěęęě": 2905,
      "ęęěĘęęĚę": 2906,
      "ęęěęęęęęęĚ": 2907,
      "ęęěĚęęĚę": 2908,
      "Ęęęęęęęě": 2909,
      "ĘęęęęęĘĘęęęę": 2910,
      "ęĜĐ": 2911,
      "ęĜęěęęęę": 2912,
      "ęĜęĖęęĘ": 2913,
      "ęĖęĘęęęę": 2914,
      "ęĖęęĕ": 2915,
      "ęĖěęęęę": 2916,
      "ęĖęěęęĘ": 2917,
      "ęęĖęęęĖ": 2918,
      "ęęĖĖęęĘ": 2919,
      "ęęĖęęęĕ": 2920,
      "ęęĜěęęě": 2921,
      "ęĘęęęęĚęęęęęę": 2922,
      "ęĝęĚęęĚ": 2923,
      "ęĕđ": 2924,
      "ęĕęĚęęě": 2925,
      "ĘęęĘęęęę": 2926,
      "ęĚĚĘęęĜ": 2927,
      "ęĘĘęęė": 2928,
      "ęĘĘĘęęě": 2929,
      "ęĘĘėęęě": 2930,
      "ęĘĘĖęęęę": 2931,
      "ęĘĘĘęęĘę": 2932,
      "ęĚĘęęě": 2933,
      "ęĚĘĖęęęę": 2934,
      "ęĚĘĖęęě": 2935,
      "ęęĕĘęęĘ": 2936,
      "ęĘĚęęė": 2937,
      "ęĘĚĖęęě": 2938,
      "ęęĝę": 2939,
      "ęęĝęęęě": 2940,
      "ęęęėęęĖ": 2941,
      "ęęęĎ": 2942,
      "ėęęęęěě": 2943,
      "ęęęęęęęęęęęęęęęĚęęęęęę": 2944,
      "ęęĚęęęęęęĘę": 2945,
      "ęĞ!": 2946,
      "ęĞĒ": 2947,
      "ęęĔęĕ": 2948,
      "ęĚěĘęęĘ": 2949,
      "ęĚěěęęęę": 2950,
      "ęĚěĚęęęęĚ": 2951,
      "ęěĚĘęęė": 2952,
      "ęěĚęęęĜ": 2953,
      "ęěĚĚęęęęĘ": 2954,
      "ęěĚęęęĚę": 2955,
      "ęěĚĖęęě": 2956,
      "ęěĘĘęęě": 2957,
      "ęĚėĘęęĚ": 2958,
      "ęĚėĚęęĖ": 2959,
      "ęėĚĘęęĘ": 2960,
      "ęėĘęęęě": 2961,
      "ęėĘĜęęęę": 2962,
      "ęėĘĚęęĖ": 2963,
      "ĀĀěĀĚĚ": 2964,
      "ęęęĘęęęęęęĚęęęę": 2965,
      "ęęęĘęęęęęęĘęęęę": 2966,
      "ęėėęęęĚ": 2967,
      "ęėėĘęęĖ": 2968,
      "ęėėĚęęĘę": 2969,
      "ĘęęęęĚĚĚęęęę": 2970,
      "ęěęęęęĖ": 2971,
      "ęěěĘęęĘ": 2972,
      "ęěěėęęęę": 2973,
      "ęėęęęęĖ": 2974,
      "ęėęęęęęęė": 2975,
      "ĖęęęęěĘ": 2976,
      "ęęęĚęęęęęęĚęęęę": 2977,
      "ęėěĘęęĜ": 2978,
      "ěĚęęĞ": 2979,
      "ęĚĜĘęęĘ": 2980,
      "ęĚĜĘęęĜ": 2981,
      "ęĘĘęęęęęĚĚęęęę": 2982,
      "ėĚĝ": 2983,
      "ęĜĚĘęęė": 2984,
      "ęĘĜĖęęě": 2985,
      "ęĚĖėęęė": 2986,
      "ĀĀĔĀē": 2987,
      "ęĚęęęęĘęĚęęęę": 2988,
      "ęĖĚĘęęęę": 2989,
      "ęĘęęęęĘęĚęęęę": 2990,
      "ęĜĘĘęęĚ": 2991,
      "ěĘėęęĘ": 2992,
      "ęęęĕęęęę": 2993,
      "ęěĜĚęęęę": 2994,
      "ęěĜėęęě": 2995,
      "ęĒęęĚ": 2996,
      "ęĜěęęęě": 2997,
      "ęėĜěęęĚ": 2998,
      "ęĖėĚęęĚ": 2999,
      "ęĖėĚęęė": 3000,
      "ęęęęĚĘęęęĘ": 3001,
      "ęěĖėęęĘ": 3002,
      "ėėěęęĘ": 3003,
      "ĜĚęęĞ": 3004,
      "ęĜėėęęĘ": 3005,
      "ĀĀĒĀē": 3006,
      "ęĖěĘęęě": 3007,
      "ęĖěěęęě": 3008,
      "ĖĚęęĔ": 3009,
      "ĖĚęęē": 3010,
      "ęęęĘęęĚęęęĘ": 3011,
      "ęęęĚęęĚĚęęęę": 3012,
      "ęĕĚĘęęĚ": 3013,
      "ęĕĚĚęęĚ": 3014,
      "ęĚĝĚęęĚ": 3015,
      "ęĖĖęęęė": 3016,
      "ęĝĚęęęĚ": 3017,
      "ęĚęĘęęęęęęęęęęę": 3018,
      "ĘĚęęĝ": 3019,
      "ĘĚęęē": 3020,
      "ęĘĝęęęĚ": 3021,
      "ęĘĝęęęĜ": 3022,
      "ęĚĘęęęĘęęęęęęęę": 3023,
      "ęĚĕęęęė": 3024,
      "ĖĝęęĖ": 3025,
      "ęĘęĘęęĜ": 3026,
      "ęĖĜęęęĚ": 3027,
      "ĀĀ#Āě": 3028,
      "ĀĀ#Āė": 3029,
      "ĀĀ#ĀĜ": 3030,
      "ĀĀ#ĀĔ": 3031,
      "ĀĀďĀĜ": 3032,
      "ĚĘęęĞ": 3033,
      "ęěĕęęęė": 3034,
      "ĔěęęĔ": 3035,
      "ĔĚęęĔ": 3036,
      "ĔĚęęē": 3037,
      "ğĜęęĜ": 3038,
      "ĀĀĘĀĚĘ": 3039,
      "ęĚĔęęęė": 3040,
      "ĀĀ&Āė": 3041,
      "ęęęęęęęęĚęĚęęęę": 3042,
      "##": 3043,
      "$ĀĀ": 3044,
      "%!": 3045,
      "%Ĝ": 3046,
      "Āğ": 3047,
      "Ďĕ": 3048,
      "Đęęė": 3049,
      "ĐęęĜ": 3050,
      "ēęęē": 3051,
      "ēęę\"": 3052,
      "Ĕ!": 3053,
      "ĕē": 3054,
      "ĕěęęĘ": 3055,
      "ĕĘęęė": 3056,
      "ĕęęęĕ": 3057,
      "ĕęęęęĚĚ": 3058,
      "ĕĕě": 3059,
      "Ėď": 3060,
      "ĖĘęęě": 3061,
      "ĖęęĒ": 3062,
      "ėĎ": 3063,
      "ėē": 3064,
      "ėĘęęě": 3065,
      "ėěęęĚ": 3066,
      "ėĚęęęęĚ": 3067,
      "ėėęęė": 3068,
      "ėĚęęĘę": 3069,
      "ėęę\"": 3070,
      "ėĔęęĘ": 3071,
      "ėĞĞ": 3072,
      "Ę\"": 3073,
      "Ęď": 3074,
      "Ęęĝ": 3075,
      "Ęėęęě": 3076,
      "ĘĘĚ": 3077,
      "ęĀĀĖĀ": 3078,
      "ĚěęęĘ": 3079,
      "ĚėęęĘ": 3080,
      "Ěėė": 3081,
      "ĚĜě": 3082,
      "ĚĖĝ": 3083,
      "ĚĔė": 3084,
      "ěęęęĝ": 3085,
      "ěĖĜ": 3086,
      "ĜĐ": 3087,
      "Ĝęę": 3088,
      "ĜĚęęĘ": 3089,
      "ĜĘęęĘ": 3090,
      "ĜĖęęĚ": 3091,
      "ĜĜĚ": 3092,
      "ĝęĚ": 3093,
      "ĝęęęĚ": 3094,
      "ĞĚęęĚ": 3095,
      "ĞęęęęĘ": 3096,
      "ĞęęĔ": 3097,
      "Ğėęęě": 3098,
      "ĞĀĀĘĀ": 3099,
      "ğĒ": 3100,
      "Ġ%": 3101,
      "Ġęĕ": 3102,
      "ĠĚęęĚ": 3103,
      "ĠĘęęĝ": 3104,
      "ĠĀĀĜĀ": 3105,
      "ĠĀĀėĀĘ": 3106,
      "ęĚĘęęĘ": 3107,
      "ęĚęěęęě": 3108,
      "ęĚęĖęęė": 3109,
      "ęĘ\"": 3110,
      "ęĘęěęęęęĚ": 3111,
      "ęĘęĝęęęę": 3112,
      "ęęĘĚ": 3113,
      "ęęĘęęęęęęęęęęę": 3114,
      "ęěęĚęęě": 3115,
      "ęėĐ": 3116,
      "ęėęęĝ": 3117,
      "ęėęĘęęė": 3118,
      "ęėęĘęęĜ": 3119,
      "ęęęęęęęęęĘęęęę": 3120,
      "ęęěęęĚ": 3121,
      "ęęěęęęĘ": 3122,
      "ĘęęęęęęĚęęęęęę": 3123,
      "ĚęęęęĖ": 3124,
      "ĚęęęęęęĚęęęęęę": 3125,
      "ęĜđ": 3126,
      "ęĜėęęĚ": 3127,
      "ęĖęěęęęę": 3128,
      "ęĖęĜęęęę": 3129,
      "ęęĖěęęė": 3130,
      "ęęĜęęęĜ": 3131,
      "ęęĜĘęęĜ": 3132,
      "ęęĜĖęęě": 3133,
      "ęĘęęęęęęĚĚęęęę": 3134,
      "ęĚęęęęęęĚĚęęęę": 3135,
      "ęĚęęęęęęĚĘęęęę": 3136,
      "ęĚęęęęĚęęęęęęĘ": 3137,
      "ęĝęėęęĘ": 3138,
      "ęĝęėęęĚ": 3139,
      "ĚęęĘęęęęęęęę": 3140,
      "ęĚĚĘęęĖ": 3141,
      "ęĚĚěęęęęĘ": 3142,
      "ęęęęĚĘęęęę": 3143,
      "ęĘĘěęęě": 3144,
      "ęĘĘėęęė": 3145,
      "ęĘĘėęęęęĚ": 3146,
      "ęęĕęĝ": 3147,
      "ęęĕĚęęĖ": 3148,
      "ęĘĚĘęęė": 3149,
      "ęĘĚĝęęęę": 3150,
      "ęĘĚęęęĚęęĘ": 3151,
      "ęęĝęęęĚ": 3152,
      "ęęĝĚęęě": 3153,
      "ęęĝĘęęĜ": 3154,
      "ęĚěęęęĘ": 3155,
      "ęĚěėęęĘ": 3156,
      "ęĚěĘęęĜ": 3157,
      "ęĘėĘęęě": 3158,
      "ęěĚĘęęęęĘ": 3159,
      "ęěĚěęęě": 3160,
      "ęěĚĕęęęę": 3161,
      "ĀĀĚĀĚĘ": 3162,
      "ęěĘĖęęęę": 3163,
      "ęĚėĜęęĘ": 3164,
      "ĀĀėĀĚĚ": 3165,
      "ęėĚěęęĘ": 3166,
      "ęėĚĚęęĚę": 3167,
      "ęğē": 3168,
      "ęėėĝęęĘ": 3169,
      "ĘęęęęĘĘęęęę": 3170,
      "ęěěęęęĜ": 3171,
      "ĚęęęęĚęĚęęęę": 3172,
      "ĚęęęęĚĚĘęęęę": 3173,
      "ęēē": 3174,
      "ęēğ": 3175,
      "ęęęĚęęęęęęĘęęęę": 3176,
      "ęęęĚęęęęęęĘę": 3177,
      "ęėěĖęęĚ": 3178,
      "ėĚě": 3179,
      "ėĚěęęęę": 3180,
      "ęęĒę": 3181,
      "ęĜĚĚęęĘ": 3182,
      "ęĜĚĖęęęę": 3183,
      "ęĘĜėęęě": 3184,
      "ęĘĜĚęęĜ": 3185,
      "ęĘĜėęęĜ": 3186,
      "ęĖĘĘęęĚ": 3187,
      "ęĖĘęęęė": 3188,
      "ęĖĘĜęęĘ": 3189,
      "ęĚĖėęęĘ": 3190,
      "ęĚĖĚęęĖ": 3191,
      "ęĖĚęęęĘ": 3192,
      "ęĖĚĚęęĘ": 3193,
      "ęĖĚěęęĚ": 3194,
      "ėĘĘęęĘ": 3195,
      "ęĘĚęęęęęęĘęęęę": 3196,
      "ěĘě": 3197,
      "ěĘĜ": 3198,
      "ěěęęęĚ": 3199,
      "ęěĜĚęęĘ": 3200,
      "ęěĜėęęĚ": 3201,
      "ęěĜĖęęĚ": 3202,
      "ęěĜĘęęĜ": 3203,
      "ęĒĞ": 3204,
      "ęęęĝę": 3205,
      "ęėĜĘęęě": 3206,
      "ęęęęĘĚęęęĚ": 3207,
      "ęęęęĘĚĚęęĚ": 3208,
      "ęĖėěęęė": 3209,
      "ęěĖęęęĘ": 3210,
      "ėėĘęęęę": 3211,
      "ĀĀĘĀĒ": 3212,
      "ęĖěęęęĜ": 3213,
      "ęĜĜęęęĜ": 3214,
      "ęĖęęęęě": 3215,
      "ęĖęęęęęę": 3216,
      "ęđĚ": 3217,
      "ĀĀěĀđ": 3218,
      "ėĜęęĕ": 3219,
      "ęĖĖĘęęĘ": 3220,
      "ĘĚě": 3221,
      "ęĘęĚęęĖ": 3222,
      "ęĘĝęęęě": 3223,
      "ęĕĘĘęęĘ": 3224,
      "ęĕĘěęęĚ": 3225,
      "ĖěęęĔ": 3226,
      "ĚĚęęğ": 3227,
      "ěėęęĝ": 3228,
      "ĀĀĐĀĜ": 3229,
      "ĀĀĐĀĞ": 3230,
      "ęėĕĚęęĘ": 3231,
      "ĀĀ\"ĀĜ": 3232,
      "ĀĀ\"ĀĞ": 3233,
      "ęęėęęęęęęĚęęęę": 3234,
      "ęĘęĘęęĘę": 3235,
      "ęĜĖęęęĘ": 3236,
      "ęĕėĘęęĘ": 3237,
      "ěĞęęęę": 3238,
      "ĀĀ$ĀĖ": 3239,
      "ĀĀ$ĀĜ": 3240,
      "ĀĀ$Āĕ": 3241,
      "ĀĀ#ĀĚ": 3242,
      "ĀĀ#Āĝ": 3243,
      "ęěĕęęęĘ": 3244,
      "ęěĕĘęęĖ": 3245,
      "ĚęęęĚęęęęęęęę": 3246,
      "ĔĘęęĔ": 3247,
      "ėĖĚęęĘ": 3248,
      "ĖĖęęĕ": 3249,
      "ęęęęęęęęĚęęęęęęęęęęęęę": 3250,
      "ĚĜęęĜ": 3251,
      "Ěĝğ": 3252,
      "ęĚęęęęęęęęĚęęęę": 3253,
      "ĘęęęęĚĘĚęęĘ": 3254,
      "!ē": 3255,
      "!ęęęę": 3256,
      "!ĀĀėĀ": 3257,
      "\"ęęĘ": 3258,
      "\"ęęĜ": 3259,
      "#ĀĀ": 3260,
      "%ğ": 3261,
      "Ā#": 3262,
      "ĎĞ": 3263,
      "ď\"": 3264,
      "đęęĖ": 3265,
      "đęęĕ": 3266,
      "đęęĞ": 3267,
      "ĒĖęęė": 3268,
      "ēĘęęĘ": 3269,
      "ēěęęĖ": 3270,
      "Ĕę": 3271,
      "Ĕęęē": 3272,
      "ĕęě": 3273,
      "ĕĚęęě": 3274,
      "ĕĖęęė": 3275,
      "ĕĝě": 3276,
      "ĕĖĝ": 3277,
      "Ėĕęęęę": 3278,
      "ĖĞĞ": 3279,
      "Ė!ğ": 3280,
      "ėęĝ": 3281,
      "ėĚęęĚ": 3282,
      "ėęęęě": 3283,
      "ėęĚęęĚ": 3284,
      "ėęęęĕ": 3285,
      "ėĕęęęę": 3286,
      "ėĖęęė": 3287,
      "ĘĖ": 3288,
      "Ęęęęě": 3289,
      "Ęěęęě": 3290,
      "ĘĖęęĘ": 3291,
      "ĘĜě": 3292,
      "ĘĖĜ": 3293,
      "ęĀĀĘĀĚ": 3294,
      "ęĀĀĝĀ": 3295,
      "ĚęĞ": 3296,
      "Ěęęęęęęęęęęęęęęęę": 3297,
      "ĚĘęęĜ": 3298,
      "ĚĝęęĚ": 3299,
      "ěĒ": 3300,
      "ěęęęė": 3301,
      "ěĖęęęę": 3302,
      "ěęĘęęęęĚ": 3303,
      "Ĝď": 3304,
      "Ĝěęęęę": 3305,
      "ĜĚęęĖ": 3306,
      "ĜĔęęĚ": 3307,
      "ĝę": 3308,
      "ĝěęęĚ": 3309,
      "ĝęęęĜ": 3310,
      "ĝęęĚę": 3311,
      "ĝęęĘę": 3312,
      "ĝĜęęęę": 3313,
      "ĝĜęęĚ": 3314,
      "ĝĞęęĚ": 3315,
      "ĞęęĞ": 3316,
      "ĞĀĀėĀ": 3317,
      "ğęęĕ": 3318,
      "ğĝě": 3319,
      "Ġđ": 3320,
      "ĠęĚ": 3321,
      "ĠęĜ": 3322,
      "ĠęĖ": 3323,
      "Ġęĝ": 3324,
      "ĠęĔ": 3325,
      "Ġěęęě": 3326,
      "ĠĀē": 3327,
      "ĠĚęęĜ": 3328,
      "ĠĜęęě": 3329,
      "ĠĀĀĚĀė": 3330,
      "ęęęęė": 3331,
      "ęĚęęğ": 3332,
      "ęĚĜęęĚ": 3333,
      "ęĚęęęęęęęęęęęęęęęęęęę": 3334,
      "ęĘĐ": 3335,
      "ęĘęĝ": 3336,
      "ęĘęęĞ": 3337,
      "ęęĚĖęęě": 3338,
      "ęęĚėęęĚę": 3339,
      "ęęĘęęě": 3340,
      "ęęĘĚęęě": 3341,
      "ęęĘėęęě": 3342,
      "ęęĘėęęĖ": 3343,
      "ęěęĜ": 3344,
      "ęěęęĘę": 3345,
      "ęěęěęęė": 3346,
      "ęėęĝ": 3347,
      "ęėęęĞ": 3348,
      "ęėęĚęęĚę": 3349,
      "ęėęĝęęĚ": 3350,
      "ęęęęęęęęęęęĘęęęę": 3351,
      "ęęėėęęęę": 3352,
      "ęęėěęęĖ": 3353,
      "ęęėĕęęĘ": 3354,
      "ęęěěęęĘ": 3355,
      "ęęěęęęęęęĘ": 3356,
      "ĘęęęęĖ": 3357,
      "ĚęęęęěĚ": 3358,
      "ęęęĚĚęęęę": 3359,
      "ęęęĚęęęęĚĚ": 3360,
      "ęĜęĚęęęę": 3361,
      "ęĜęěęęĘ": 3362,
      "ęĜęėęęě": 3363,
      "ęĖęĜ": 3364,
      "ęĖĘęęĘ": 3365,
      "ęęĖěęęĖ": 3366,
      "ęęĜĖęęĚ": 3367,
      "ęĚęęęęĘęęęęęęĘ": 3368,
      "ęĝ#": 3369,
      "ęĚĚė": 3370,
      "ęĚĚĘęęė": 3371,
      "ęĚĚěęęė": 3372,
      "ęĚĚęęęĚęęĘ": 3373,
      "ęĚĚĘęęęęĘĘ": 3374,
      "ęĘĘęęęęęęęę": 3375,
      "ęĘĘęęęĘęęĘ": 3376,
      "ęĚĘěęęĖ": 3377,
      "ęĚĘėęęęęĘ": 3378,
      "ęęĕĚęęė": 3379,
      "ęĘĚĚęęĜ": 3380,
      "ęęĝĘęęě": 3381,
      "ęęĝęęęĝ": 3382,
      "ęęęěęęĚęęęĚ": 3383,
      "ėęęęęĜ": 3384,
      "ěęęęęěĘ": 3385,
      "ęęęęęęęęęęęęęęęĘ": 3386,
      "ęęĚęęęęęĚęęęęęę": 3387,
      "ęęĚęęęęęĘęęęęęę": 3388,
      "ęęĚęęęęęęĘęęęęę": 3389,
      "ęĞęęė": 3390,
      "ęęĘęęęęęęĘęęęęęęĘ": 3391,
      "ęĔęęě": 3392,
      "ęęĔęęęė": 3393,
      "ĀĀęĀĚĘ": 3394,
      "ęĚěėęęĜ": 3395,
      "ęĚěěęęĜ": 3396,
      "ęĚěĘęęĝ": 3397,
      "ęěĚęęě": 3398,
      "ęěĚĜęęęę": 3399,
      "ęěĚĜęęĚ": 3400,
      "ęěĚĚęęĜ": 3401,
      "ęěĚĕęęĚ": 3402,
      "ęĘěĘęęĘ": 3403,
      "ęĘěęęęĝ": 3404,
      "ęĘěĜęęě": 3405,
      "ęĘěĝęęĚ": 3406,
      "ęěĘĖęęĚ": 3407,
      "ęĚėĖęęė": 3408,
      "ęėĚĜęęĘ": 3409,
      "ęėĚĖęęě": 3410,
      "ęėĘėęęė": 3411,
      "ęėĘĖęęĘ": 3412,
      "ęėĘĜęęĚ": 3413,
      "ęėĘĘęęĖ": 3414,
      "ęėĘěęęĖ": 3415,
      "ęėĘĚęęĘę": 3416,
      "ęęēę": 3417,
      "ęęğę": 3418,
      "ęęęĘęęęęęĘęęęę": 3419,
      "ęęęĘęęęęĘęęęęęę": 3420,
      "ęėėěęęęę": 3421,
      "ęėėęęęĖ": 3422,
      "ęėėĖęęĘ": 3423,
      "ĘęęęęĚĚĘęęęę": 3424,
      "ĘęęęęĘęĚęęęę": 3425,
      "ĘęęęęĘęĘęęĚ": 3426,
      "ęęĚęęęĚęĚęęęęęę": 3427,
      "ęěěĚęęĘ": 3428,
      "ęěěĘęęĜ": 3429,
      "ęėęęęęĜ": 3430,
      "ęęęĚęęęęęęĚę": 3431,
      "ęěėĜęęĘ": 3432,
      "ęěėėęęė": 3433,
      "ęėěęęęĘ": 3434,
      "ęĚĚęęęęęĚĚęęęę": 3435,
      "ěĚĚęęĚ": 3436,
      "ěĚėęęęę": 3437,
      "ęĚĜěęęĚ": 3438,
      "ęĚĜĘęęĝ": 3439,
      "ėĚĚ": 3440,
      "ėĚĘęęęę": 3441,
      "ęęĒęęĚ": 3442,
      "ęĜĚĘęęęę": 3443,
      "ęĘĖĜęęĘ": 3444,
      "ęĘĖěęęĖ": 3445,
      "ęĘĜĜęęĚ": 3446,
      "ęĖĘĘęęęę": 3447,
      "ęĖĘěęęĚ": 3448,
      "ęĖĚĚęęė": 3449,
      "ęĖĚěęęě": 3450,
      "ęĜĘėęęęę": 3451,
      "ėĘěęęęę": 3452,
      "ėĘęęĔ": 3453,
      "ĀĀĞĀĔ": 3454,
      "ěěĘęęĚ": 3455,
      "ęěĜĘęęęę": 3456,
      "ęěĜęęęĘ": 3457,
      "ęęęĝęęęę": 3458,
      "ėěęęē": 3459,
      "ĕęęęęě": 3460,
      "ĀĀğĀē": 3461,
      "ęĜěěęęĚ": 3462,
      "ęĜěėęęě": 3463,
      "ęėĜėęęě": 3464,
      "ęĖėĚęęęę": 3465,
      "ęĖėĘęęė": 3466,
      "ęĖėĖęęĘ": 3467,
      "ęěĖěęęĘ": 3468,
      "ęěĖęęęĖ": 3469,
      "ėėĜ": 3470,
      "ėėęęęĘ": 3471,
      "ęĖěęęęě": 3472,
      "ęĖěěęęĚ": 3473,
      "ęĜĜĚęęě": 3474,
      "ęęęĘęęĚęęęęęęęę": 3475,
      "ęęęĘęęĚĚęęęę": 3476,
      "ĀĀ!ĀĞ": 3477,
      "ĀĀ!Āē": 3478,
      "ĕĚ!": 3479,
      "ęĚĝĘęęě": 3480,
      "ęĚĝęęęĜ": 3481,
      "ęĚĝĘęęĜ": 3482,
      "ęĘĕĚęęė": 3483,
      "ęĘĕěęęė": 3484,
      "ĀĀěĀğ": 3485,
      "ėĜĜ": 3486,
      "ěĜĝ": 3487,
      "ęĘĝėęęě": 3488,
      "ęĕĘĚęęĘ": 3489,
      "ĝĚęę": 3490,
      "ĝĚęę!": 3491,
      "ĕĘęęē": 3492,
      "ěėęęęĘ": 3493,
      "ĀĀĐĀĝ": 3494,
      "ĝěęę": 3495,
      "ęěĝėęęĚ": 3496,
      "ĀĀ\"Āĕ": 3497,
      "ĀĀ\"Āĝ": 3498,
      "ĀĀ\"ĀĔ": 3499,
      "ęĚęĚęęĖ": 3500,
      "Ėĝęęĕ": 3501,
      "ęęėęęęęę": 3502,
      "ęĘęĘęęęęęęęęęęę": 3503,
      "ĕěęęĔ": 3504,
      "ĀĀďĀĖ": 3505,
      "ĀĀďĀĕ": 3506,
      "ěĝęęě": 3507,
      "ęėĝĘęęĜ": 3508,
      "ĚĘĞ": 3509,
      "ęĕěęęęĚ": 3510,
      "ĀĀĎĀĔ": 3511,
      "ęęęęęęęęęĚęęęęęęęęęęęę": 3512,
      "ęĘęęęęęęĚęĘęęęę": 3513,
      "ėĖęęĕ": 3514,
      "ęĕĖĚęęė": 3515,
      "ĀĀ%ĀĖ": 3516,
      "ęĚěęęęęę": 3517,
      "ğĚęęğ": 3518,
      "ęĜĕĘęęė": 3519,
      "ĀĀ&ĀĜ": 3520,
      "ĀĀ&Āĝ": 3521,
      "ęěĞęęęě": 3522,
      "ĀĀ'ĀĜ": 3523,
      "ĀĀ'Āĝ": 3524,
      "ğĝęęĜ": 3525,
      "ēėęęĔ": 3526,
      "ēĚęęĔ": 3527,
      "ęĝĖęęęė": 3528,
      "ęěęĘęęĚę": 3529,
      "ęěęĘęęĘę": 3530,
      "ĠĘęęğ": 3531,
      "ĔĖęęĔ": 3532,
      "ęęęęęęęęĘęĘęęęę": 3533,
      "ęęęęęęęęĘęĚęęęę": 3534,
      "ĀĀ(ĀĘ": 3535,
      "ęĘęęęęęęęęĘęęęę": 3536,
      "ĚęęęęĘĚĘęęĚ": 3537,
      "ĀĀ)ĀĘ": 3538,
      "ęęęęęęęęęęęęęęęęęęęęęęęęęęęęęęęęę": 3539,
      "ęęęęęęęęęęęęęĘę": 3540,
      "\"ĀĀěĀ": 3541,
      "%ĕ": 3542,
      "ĎĜ": 3543,
      "Đ$": 3544,
      "ĐĎ": 3545,
      "Đđ": 3546,
      "ĐĀĀ": 3547,
      "đęęĔ": 3548,
      "ĒěĞ": 3549,
      "ĔĐ": 3550,
      "Ĕē": 3551,
      "ĔĀĀ": 3552,
      "ĔęęęĖ": 3553,
      "ĔęęĒ": 3554,
      "ĔěĜ": 3555,
      "Ĕěĝ": 3556,
      "ĕĘęęęę": 3557,
      "ĕęĜ": 3558,
      "ĕĖęęĘ": 3559,
      "ĕĘęęĖ": 3560,
      "ĕĜęęė": 3561,
      "ĕĀĀĘĀ": 3562,
      "Ė\"": 3563,
      "Ė%": 3564,
      "ĖėĚ": 3565,
      "Ėęęęĕ": 3566,
      "Ėęę\"": 3567,
      "Ėĕęęė": 3568,
      "ėěĚ": 3569,
      "ėĖĚ": 3570,
      "ėĝęęė": 3571,
      "Ę!": 3572,
      "Ęē": 3573,
      "ĘĀĀ": 3574,
      "Ęęě": 3575,
      "ĘęĞ": 3576,
      "ĘĘęęě": 3577,
      "Ęėě": 3578,
      "Ęęę\"": 3579,
      "ĘĘęęĘę": 3580,
      "ĘěĞ": 3581,
      "Ęěĝ": 3582,
      "ĘğĞ": 3583,
      "Ęěğ": 3584,
      "ĘęęęęęęęęęęęęĚ": 3585,
      "ęĀĀęĀě": 3586,
      "ęĀĀėĀĘ": 3587,
      "ĚęĜ": 3588,
      "ĚęęęĜ": 3589,
      "ĚĖĘ": 3590,
      "ĚĘęęĚę": 3591,
      "Ěĝě": 3592,
      "ĚĜĜ": 3593,
      "ĚęęęęęęęęęĘ": 3594,
      "ěęĝ": 3595,
      "ěĘęęė": 3596,
      "ěęęęęęęęęęęę": 3597,
      "ěėĜ": 3598,
      "ěęęęĞ": 3599,
      "Ĝđ": 3600,
      "Ĝėęęęę": 3601,
      "ĜėęęĘ": 3602,
      "ĜĚęęĜ": 3603,
      "Ĝęęđ": 3604,
      "ĜĕĚ": 3605,
      "ĝėęęĚ": 3606,
      "ĝěęęě": 3607,
      "ĝĘęęĜ": 3608,
      "ĝęęęęĚĘ": 3609,
      "ĝĀĀėĀ": 3610,
      "ĝęęęĞ": 3611,
      "ĞĘęęĚ": 3612,
      "ĞĀĀĚĀ": 3613,
      "ĞĀĀĘĀĚ": 3614,
      "ğ\"": 3615,
      "ğ$": 3616,
      "ğĀĀĘĀ": 3617,
      "ğĀĀĖĀ": 3618,
      "Ġ&": 3619,
      "Ġ(": 3620,
      "Ġęęğ": 3621,
      "ĠĀĔ": 3622,
      "ĠėęęĜ": 3623,
      "ĠĀĀĖĀ": 3624,
      "ĠĀĀĕĀ": 3625,
      "ĠĚęęĝ": 3626,
      "ĠĀĀęĀė": 3627,
      "ęęęęęęĜ": 3628,
      "ęęęęęęĕ": 3629,
      "ęĚėęęĚę": 3630,
      "ęĚęĝęęĘ": 3631,
      "ęĚęĕęęĚ": 3632,
      "ęĚęęęęęęęęęęęęęęęęęęęęęęęęęęę": 3633,
      "ęĘęĕ": 3634,
      "ęĘĝęęęę": 3635,
      "ęĘĝęęĘ": 3636,
      "ęĘęėęęęęĚ": 3637,
      "ęĘęėęęęęĘ": 3638,
      "ęĘęĖęęĚ": 3639,
      "ęęĚęęęęĘ": 3640,
      "ęęĚĖęęęę": 3641,
      "ęęĚėęęĜ": 3642,
      "ęęĘęęęě": 3643,
      "ęęĘĖęęĚ": 3644,
      "ęęĘĝęęĘ": 3645,
      "ĀĀĆ": 3646,
      "ęě$": 3647,
      "ęěď": 3648,
      "ęěęĕ": 3649,
      "ęěĖęęęę": 3650,
      "ęěęĚęęęęĘ": 3651,
      "ęěęĜęęĘ": 3652,
      "ęěęĕęęęę": 3653,
      "ęěęėęęė": 3654,
      "ęěęĚęęĖ": 3655,
      "ęėęĕ": 3656,
      "ęėĚęęė": 3657,
      "ęėęęęęĚĘ": 3658,
      "ęėęĝęęęę": 3659,
      "ęęęęęęęęęĚĚęęęę": 3660,
      "ęęėęęě": 3661,
      "ęęėĚęęęęĘ": 3662,
      "ęęěėęęĜ": 3663,
      "ĘęęęęęęĘęęęęęę": 3664,
      "ĚęęęęęęęĘęęęę": 3665,
      "ĚęęęęęęĘĘęęęę": 3666,
      "ĚęęęęęęĘęęęęęę": 3667,
      "ęęęĘęęęęĚĚ": 3668,
      "ęęęĘęęęęĚĘ": 3669,
      "ęĜęĕ": 3670,
      "ęĜęęęęęęĘ": 3671,
      "ęĜĚęęęęę": 3672,
      "ęĜęěęęĚ": 3673,
      "ęĜęĚęęě": 3674,
      "ęĜęėęęė": 3675,
      "ęĖę": 3676,
      "ęĖĚęęĘ": 3677,
      "ęĖęĚęęęęĘ": 3678,
      "ęĖęėęęĚ": 3679,
      "ęĖęěęęĚ": 3680,
      "ęĖęĜęęĘ": 3681,
      "ęęĜěęęĘ": 3682,
      "ęęĜĜęęĚ": 3683,
      "ęęĜĚęęĜ": 3684,
      "ęĘęęęęęęĜ": 3685,
      "ęĘęęęęęęĘĘęęęę": 3686,
      "ęĘęęęęęęęĚęęęęę": 3687,
      "ęĚęęęęęęĚęęęęęę": 3688,
      "ęĝęĘęęęę": 3689,
      "ęĕęěęęĚ": 3690,
      "ęĚĚĚęęęęĚ": 3691,
      "ęĚĚĜęęĘ": 3692,
      "ęĚĚęęęĚęęĚ": 3693,
      "ęĚĚėęęęęĘĘ": 3694,
      "ęĘĘęęęęęęęęęęę": 3695,
      "ęĘĘĚęęĖ": 3696,
      "ęĘĘĜęęė": 3697,
      "ęĘĘĕęęĚ": 3698,
      "ęĘĘĝęęė": 3699,
      "ęĚĘĜęęĚ": 3700,
      "ęĚĘęęęĕ": 3701,
      "ęĚĘěęęęęĘ": 3702,
      "ęęĕęęĚ": 3703,
      "ęęĕėęęĘ": 3704,
      "ęęĕęęęĖ": 3705,
      "ęĘĚĖęęęę": 3706,
      "ęĘĚĘęęĖ": 3707,
      "ęĘĚĚęęĖ": 3708,
      "ęĘĚĕęęĚ": 3709,
      "ęęęěęĕ": 3710,
      "ėęęęęęęě": 3711,
      "ěęęęęęę": 3712,
      "ęęęęęęęęęęęęęĚęęęęęę": 3713,
      "ęęĚęęęęęĚĚęęęę": 3714,
      "ęęĚęęęęęĘĘęęęę": 3715,
      "ęęĘęęęęęęė": 3716,
      "ęęĘęęęęęęęĚęęęę": 3717,
      "ęęĞęęęě": 3718,
      "ęęĞĚęęě": 3719,
      "ęĔđ": 3720,
      "ęĔęęęęĚ": 3721,
      "ęĘėęęęě": 3722,
      "ęĘėėęęĚ": 3723,
      "ęĘėěęęĚ": 3724,
      "ęĘėĚęęĖ": 3725,
      "ęěĚěęęĘ": 3726,
      "ęěĚĘęęĜ": 3727,
      "ęĘěĖęęě": 3728,
      "ęĘěěęęĜ": 3729,
      "ęěĘěęęęę": 3730,
      "ęěĘĖęęė": 3731,
      "ęěĘěęęĖ": 3732,
      "ęěĘĘęęĘę": 3733,
      "ęĚėĚęęĚ": 3734,
      "ęĚėĕęęĘ": 3735,
      "ęĚėĝęęĘ": 3736,
      "ęėĚĚęęęęĘ": 3737,
      "ęėĘĘęęě": 3738,
      "ęėĘĚęęęęĘ": 3739,
      "ęėĘĖęęě": 3740,
      "ęğ!": 3741,
      "ęğ\"": 3742,
      "ęğęęĚ": 3743,
      "ęęęęęęęęęęęęęęęęęęĚ": 3744,
      "ęęęĘęęęęęĘĚęęęę": 3745,
      "ęėėėęęė": 3746,
      "ęėėęęęĘę": 3747,
      "ĘęęęęĚĘęęęę": 3748,
      "ĘęęęęĚęĘęęęę": 3749,
      "ĘęęęęĚęĚęęęę": 3750,
      "ęęĚęęęĚęęĘęęęę": 3751,
      "ėęęěę": 3752,
      "ęěęęęęę": 3753,
      "ęěęęęęęęęĚ": 3754,
      "ęěęęęęĘęęĚ": 3755,
      "ęěęęęęęęĚęęęę": 3756,
      "ęěěęęęė": 3757,
      "ęěěĘęęęęĘ": 3758,
      "ęėęęęęęęęĘ": 3759,
      "ęēęęĚ": 3760,
      "ęēęęě": 3761,
      "ęěėėęęĚ": 3762,
      "ęėěĘęęęę": 3763,
      "ęėěėęęě": 3764,
      "ĀĀĕĀē": 3765,
      "ěĚĘ": 3766,
      "ėĚęęĝ": 3767,
      "ėĚęęĔ": 3768,
      "ėĚěęęĚ": 3769,
      "ėĚęęē": 3770,
      "ęęĒęĝ": 3771,
      "ęĜĚěęęęę": 3772,
      "ęĜĚěęęĘ": 3773,
      "ęĘĖĘęęĖ": 3774,
      "ęĘĜęęęĘ": 3775,
      "ęĘĜĜęęě": 3776,
      "ęĖĘĚęęě": 3777,
      "ęĚĖĘęęĖ": 3778,
      "ęĚĖėęęĖ": 3779,
      "ęĚęęęęĚęĚęęęę": 3780,
      "ęĖĚĜęęĚ": 3781,
      "ęĘęęęęĘęĚęęęęĚ": 3782,
      "ěĘĝ": 3783,
      "ěĘĞ": 3784,
      "ěĘęę": 3785,
      "ěĘĚęęĘ": 3786,
      "ěěėęęĚ": 3787,
      "ęěĜĘęęĘ": 3788,
      "ęěĜĖęęě": 3789,
      "ęĒęęĘ": 3790,
      "ęęĘęęęĘęęĚęęęĚ": 3791,
      "ęęęĝęęĚ": 3792,
      "ęęęĝęęĘ": 3793,
      "ėěĘęęĚ": 3794,
      "ėěěęęĚ": 3795,
      "ęėĖĚęęęę": 3796,
      "ęėĖėęęĘ": 3797,
      "ĕęęęęěĘ": 3798,
      "ęĜěėęęęę": 3799,
      "ęĜěĖęęĚ": 3800,
      "ęėĜěęęě": 3801,
      "ęėĜěęęĜ": 3802,
      "ęęęęĘĚěęęĚ": 3803,
      "ęęđęĝ": 3804,
      "ęęęęĚĚěęęęę": 3805,
      "ęęęęĚĚėęęĚ": 3806,
      "ęĖėęęęĚ": 3807,
      "ęěĖĘęęĖ": 3808,
      "ėėęęĕ": 3809,
      "ĀĀĘĀ!": 3810,
      "ĜĚĜ": 3811,
      "ĀĀĒĀĔ": 3812,
      "ĖĚě": 3813,
      "ĖĘęęęĘ": 3814,
      "ĖĘęęē": 3815,
      "ęĜĜĚęęĚ": 3816,
      "ęĜĜęęęě": 3817,
      "ęęęĘęęĚĘęęĚ": 3818,
      "ĜĘĜ": 3819,
      "ęĖęęęęęęĘ": 3820,
      "ęęęĚęęĘĚęęĘ": 3821,
      "ęđĖ": 3822,
      "ęĕĚėęęĚ": 3823,
      "ĜěĜ": 3824,
      "ĜěęęęĚ": 3825,
      "ĜěĘęęĚ": 3826,
      "ęĚĝěęęĚ": 3827,
      "ęĚĝěęęě": 3828,
      "ęęęęęęĘęęĘ": 3829,
      "ęĘĕĘęęĘ": 3830,
      "ęĘĕęęęĖ": 3831,
      "ėĜęęĔ": 3832,
      "ęĖĖėęęĘ": 3833,
      "ęĝĚĘęęĚ": 3834,
      "ęĝĚęęęě": 3835,
      "ęęęęęęĚęęĘ": 3836,
      "ęĘĝĚęęĜ": 3837,
      "ęĕĘĚęęęę": 3838,
      "ęĕĘęęęĚ": 3839,
      "ęĚĕĚęęĘ": 3840,
      "ęĚĕĚęęė": 3841,
      "ĀĀĖĀĒ": 3842,
      "ĚĚĚ": 3843,
      "ĚĚĝ": 3844,
      "ĚĚęęĝ": 3845,
      "ĝĚęęğ": 3846,
      "ęĝĘĚęęĘ": 3847,
      "ęĝĘĘęęĘ": 3848,
      "ĕĘě": 3849,
      "ęęęĔęęĘ": 3850,
      "ěėĚęęĘ": 3851,
      "ěėęęĞ": 3852,
      "ĜĜęęĝ": 3853,
      "ęěĝĚęęĚ": 3854,
      "ęĝěĘęęĚ": 3855,
      "ęĝěęęęě": 3856,
      "ĘĘĜ": 3857,
      "ĘĘĝ": 3858,
      "ĘĘęęĕ": 3859,
      "ĘĘęęĞ": 3860,
      "ęėĕęęęė": 3861,
      "ęĚęĚęęęęęęęę": 3862,
      "ęĚęĚęęęęęęęęęęę": 3863,
      "ęĜĖĚęęė": 3864,
      "ęĜĖęęęĖ": 3865,
      "ę\"Ě": 3866,
      "ĕěęęē": 3867,
      "ęĖĜĚęęĚ": 3868,
      "ęĖĜęęęě": 3869,
      "ěĞęęě": 3870,
      "ęĝėęęęė": 3871,
      "ĀĀ$ĀĞ": 3872,
      "ĀĀĕĀĒ": 3873,
      "ĀĀďĀě": 3874,
      "ęęĘĘęęĘęęęęęęęę": 3875,
      "ĚĘĜ": 3876,
      "ęĜĝęęęĚ": 3877,
      "ęĜĝęęęě": 3878,
      "ęĜĝĘęęě": 3879,
      "ęĕěĚęęĚ": 3880,
      "ęĕěęęęě": 3881,
      "ęęęęęęęęęĚęęęĚ": 3882,
      "ęęęęęęęęęĚęęęĚę": 3883,
      "ęĚęęęęęęĚĚęęęĚ": 3884,
      "ĝĜęęĜ": 3885,
      "ęĚĞęęęę": 3886,
      "ĀĀ%ĀĘ": 3887,
      "ĕĜ!": 3888,
      "ęęęęęęęęęęęĘęĚęęęę": 3889,
      "ĠĚęęğ": 3890,
      "ĀĀ'ĀĔ": 3891,
      "ęĘěęęęęę": 3892,
      "ęĘęęęęęęęęĚęęęę": 3893,
      "ĀĀđĀğ": 3894,
      "ęĘęěęęĘę": 3895,
      "ėęęęęĚĘĘęęĘ": 3896,
      "ĀĀ.Ā": 3897,
      "!ęęĕ": 3898,
      "!ĀĀĘĀĖ": 3899,
      "\"%": 3900,
      "\"ęęęę": 3901,
      "\"ęęė": 3902,
      "\"ĀĀĘĀ": 3903,
      "#ę": 3904,
      "#ĀĀĚĀ": 3905,
      "%ĝ": 3906,
      "%ĀĀęĀ": 3907,
      "&!": 3908,
      "'ě": 3909,
      "ĎęęĘ": 3910,
      "Ďęęě": 3911,
      "Đęę": 3912,
      "đĎ": 3913,
      "Ē$": 3914,
      "Ēęęğ": 3915,
      "ĒĜęęĕ": 3916,
      "ēď": 3917,
      "ēėęęęę": 3918,
      "ēĘęęė": 3919,
      "ēĜęęė": 3920,
      "ēĖęęė": 3921,
      "ēĜĝ": 3922,
      "ĔęęĘę": 3923,
      "Ĕėęęė": 3924,
      "ĔĕĘ": 3925,
      "ĔĜĝ": 3926,
      "ĕĚęęĖ": 3927,
      "ĕėě": 3928,
      "ĕęę\"": 3929,
      "ĕĕęęė": 3930,
      "ĕğĞ": 3931,
      "ĖĎ": 3932,
      "ĖęĚ": 3933,
      "ĖěęęĚ": 3934,
      "ĖęĚęęĚ": 3935,
      "Ėęęđ": 3936,
      "ĖĕĚ": 3937,
      "ĖĜĝ": 3938,
      "ĖğĞ": 3939,
      "ėĖęęĚ": 3940,
      "ėęęđ": 3941,
      "ėėęęĖ": 3942,
      "ėĜě": 3943,
      "ėĞĜ": 3944,
      "Ę'": 3945,
      "ĘĐ": 3946,
      "ĘėęęĚ": 3947,
      "ĘĚęęĖ": 3948,
      "Ęęęđ": 3949,
      "ĘėĜ": 3950,
      "ĘěĜ": 3951,
      "ĘĖě": 3952,
      "ĘĖė": 3953,
      "ĘĝĜ": 3954,
      "ĘĔęęė": 3955,
      "Ęĝĝ": 3956,
      "ęĀĀĚĀ": 3957,
      "ęĀĀĘĀĘ": 3958,
      "ęĀĀĚĀĖ": 3959,
      "Ěėęęě": 3960,
      "ĚĚęęęęĘ": 3961,
      "ĚĜęęĚ": 3962,
      "ĚĖęęě": 3963,
      "ĚĖĚ": 3964,
      "ĚĘĚ": 3965,
      "ĚęęĐ": 3966,
      "ĚěĞ": 3967,
      "Ěěĝ": 3968,
      "Ěėĝ": 3969,
      "ĚĔě": 3970,
      "ĚĝĜ": 3971,
      "Ěęęęęęęęęęęęęęęęęęę": 3972,
      "Ěęęęęęęęęęęęęęęęęęęę": 3973,
      "ĚĞĝ": 3974,
      "Ěėę": 3975,
      "ěęęęęęęęę": 3976,
      "ěęĜ": 3977,
      "ěęĞ": 3978,
      "ěęĚęęĘ": 3979,
      "ěĜęęė": 3980,
      "ěĖęęė": 3981,
      "ěėė": 3982,
      "ěĝęęęę": 3983,
      "ěĜĘ": 3984,
      "ěĖęęĜ": 3985,
      "ěĖě": 3986,
      "ěğĞ": 3987,
      "ĜęęęĘ": 3988,
      "Ĝęĕ": 3989,
      "ĜĜęęęę": 3990,
      "ĜęęĒ": 3991,
      "ĜėĘ": 3992,
      "Ĝĝęęęę": 3993,
      "Ĝėĝ": 3994,
      "ĝ\"": 3995,
      "ĝđ": 3996,
      "ĝęĝ": 3997,
      "ĝěĚ": 3998,
      "ĝęęęĝ": 3999,
      "ĝęęęęĚĚ": 4000,
      "ĝěęęĜ": 4001,
      "ĝĜě": 4002,
      "ĝĖęęĜ": 4003,
      "ĝĝě": 4004,
      "ĝėęęĝ": 4005,
      "ĞĖ": 4006,
      "Ğęęē": 4007,
      "ĞĚęęĜ": 4008,
      "ĞěęęĜ": 4009,
      "ğĐ": 4010,
      "ğęęĔ": 4011,
      "ğĀĀęĀ": 4012,
      "ğĀĀėĀ": 4013,
      "ĠĐ": 4014,
      "ĠęęęęĘ": 4015,
      "ĠęĚě": 4016,
      "Ġėęęě": 4017,
      "Ġę!": 4018,
      "ĠĀĀęĀě": 4019,
      "ĠĀĀĚĀĚ": 4020,
      "ĠĀĀěĀė": 4021,
      "ĠĀĀěĀĘ": 4022,
      "ęęęęĜ": 4023,
      "ęĚĐ": 4024,
      "ęĚęĝ": 4025,
      "ęĚęĕ": 4026,
      "ęĚĚęęĚę": 4027,
      "ęĚęęęęęęęęęęęęęęęęęę": 4028,
      "ęĚęĜęęĚ": 4029,
      "ęĚęĜęęė": 4030,
      "ęĘęęęęęęęęęęęęęęęęęęęęęęęęęęęęęęęę": 4031,
      "ęęĚęęęęĚ": 4032,
      "ęęĚęęęĘę": 4033,
      "ęęĚĕęęě": 4034,
      "ęęĚĔęęĚ": 4035,
      "ęęĚėęęęęĘ": 4036,
      "ęęĘĖęęě": 4037,
      "ęęĘĖęęė": 4038,
      "ęęĘĚęęĕ": 4039,
      "ęęĘěęęęęĚ": 4040,
      "ęěęęĝ": 4041,
      "ęěĜęęĚ": 4042,
      "ęěĖęęě": 4043,
      "ęěĕęęęę": 4044,
      "ęěęĕęęĘ": 4045,
      "ęė\"": 4046,
      "ęėęĞ": 4047,
      "ęėĘęęė": 4048,
      "ęėĖęęĘ": 4049,
      "ęėĕęęęę": 4050,
      "ęėęĖęęęę": 4051,
      "ęėĘęęĘę": 4052,
      "ęėęėęęęęĘ": 4053,
      "ęėęĝęęĘ": 4054,
      "ęėęĜęęęęĘ": 4055,
      "ęęęęęęęęěęęęę": 4056,
      "ęęėĚęęĚ": 4057,
      "ęęėĘęęĘę": 4058,
      "ęęěĜęęęę": 4059,
      "ĘęęęęęęĖ": 4060,
      "ĘęęęęęęęĘęęęę": 4061,
      "ĘęęęęěĜ": 4062,
      "ĘęęęęęęĚęęęęę": 4063,
      "ĚęęęęĔ": 4064,
      "ęęęĚęęĖ": 4065,
      "ęĜęė": 4066,
      "ęĜěęęĚ": 4067,
      "ęĜėęęě": 4068,
      "ęĜęėęęĚ": 4069,
      "ęĖ!": 4070,
      "ęĖ\"": 4071,
      "ęĖđ": 4072,
      "ęĖĜęęęę": 4073,
      "ęĖęĜęęĚ": 4074,
      "ęĖęėęęě": 4075,
      "ęĖęěęęė": 4076,
      "ęęĖęęęĚ": 4077,
      "ęęĖĚęęĕ": 4078,
      "ęęĜęęęęĚ": 4079,
      "ęĘęęęęęęęė": 4080,
      "ęĘęęęęęęęě": 4081,
      "ęĚęęęęęęĖ": 4082,
      "ęĚęęęęęęęě": 4083,
      "ęĚęęęęęĚĚęęęę": 4084,
      "ęĚęęęęęęĘĘęęęę": 4085,
      "ęĚęęęęęęěęęęę": 4086,
      "ęĚęęęęęęĘęęęęę": 4087,
      "ęĝęęĜ": 4088,
      "ęĝěęęęę": 4089,
      "ęĝęėęęęę": 4090,
      "ęĕęęęĘ": 4091,
      "ęĕęĚęęęę": 4092,
      "ęĕĘęęė": 4093,
      "ęĕĖęęęę": 4094,
      "ęĕęĘęęĚ": 4095
    },
    "merges": [
      "ę ę",
      "ęę ęę",
      "ę Ě",
      "ę Ę",
      "ęę Ě",
      "ęę Ę",
      "Ā Ā",
      "ę ě",
      "ę ė",
      "ęęęę ęęęę",
      "ęę ė",
      "ęę ě",
      "Ę ęęęę",
      "Ě ęęęę",
      "ęę ęĚ",
      "ęę ęĘ",
      "ę Ĝ",
      "ę Ė",
      "ęę Ė",
      "ęę Ĝ",
      "ęĘ ęęęę",
      "ęĚ ęęęę",
      "ę ĝ",
      "ę ĕ",
      "Ę ęęĚ",
      "Ě ęęĘ",
      "Ę ęęĘ",
      "Ě ęęĚ",
      "ęęęę Ę",
      "ęĚ Ě",
      "ęęęę Ě",
      "ęĘ Ę",
      "ęĚ Ę",
      "ęę ĕ",
      "ęĘ Ě",
      "ęę ĝ",
      "ęę ęė",
      "ęę ęě",
      "ęę ę",
      "ė ęęęę",
      "ě ęęęę",
      "ęęęęęęęę ęęęę",
      "ęęĚ ęęęę",
      "ę Ğ",
      "ęęĘ ęęęę",
      "ęę Ğ",
      "ė ęęĚ",
      "ę Ĕ",
      "ęę Ĕ",
      "Ā Ě",
      "ě ęęĘ",
      "Ā Ę",
      "ĀĀ Ę",
      "ĀĀ ę",
      "Ę ęęě",
      "Ě ęęė",
      "ęĚ ě",
      "ęĘ ė",
      "ęě Ě",
      "Ā ě",
      "ė ęęĘ",
      "Ę ęęė",
      "Ā ė",
      "ě ęęĚ",
      "ęĘ ě",
      "ĀĀ Ě",
      "ęě Ę",
      "ęĚ ė",
      "Ě ęęě",
      "ĀĀ ė",
      "ęė Ě",
      "ęė Ę",
      "Ā Ė",
      "ę ğ",
      "Ā Ĝ",
      "ęęęęęęęę ęęęęęęęę",
      "ęę ē",
      "ĀĀ ě",
      "ęę ęĜ",
      "ęę ęĖ",
      "ęę ğ",
      "ĀĀ Ė",
      "ęęęĘ ęęęę",
      "ęęĚ ę",
      "ęė ė",
      "ě ęęė",
      "Ęęęęę Ě",
      "Ęęęęę Ę",
      "Ā ĕ",
      "ęęĚ ęęęĚ",
      "ė ęęě",
      "Ā ĝ",
      "ęęĘ ę",
      "ęě ęęęę",
      "ęě ě",
      "Ĝ ęęęę",
      "Ė ęęĚ",
      "ęė ęęęę",
      "Ė ęęęę",
      "Ěęęęę Ě",
      "ę ē",
      "ęęęĚ ęęęę",
      "ě ęęě",
      "Ěęęęę Ę",
      "ĀĀ Ĝ",
      "ęě ė",
      "Ĝ ęęĘ",
      "ė ęęė",
      "ęė ě",
      "Ė ęęĘ",
      "ĀĀ ĕ",
      "Ę ęęĜ",
      "ęęęĘ ę",
      "ęĚ Ěęęęę",
      "ęĚ ęęĘ",
      "Ĝ ęęĚ",
      "Ā Ğ",
      "ě Ě",
      "ęĚ Ĝ",
      "ęĘ ęęĚ",
      "ęĘ Ęęęęę",
      "ė Ě",
      "ĀĀ ĝ",
      "ęę Ē",
      "ęęęĚ ę",
      "ęĘ ęęĘ",
      "ęĜ Ě",
      "Ā Ĕ",
      "ęĘęęęę Ě",
      "ęĘ Ė",
      "Ę ęęĖ",
      "ęĚ ęęĚ",
      "ęĘ Ĝ",
      "ęĖ Ę",
      "ęĚ Ė",
      "ęĚęęęę Ě",
      "ĀĀ Ĕ",
      "ęĚęęęę Ę",
      "ęĖ Ě",
      "ęĘęęęę Ę",
      "ęęęęęęęę ęęę",
      "ęĜ Ę",
      "ė Ę",
      "ęĚ Ęęęęę",
      "ęĘ Ěęęęę",
      "ě Ę",
      "ĀĀ Ğ",
      "ě ě",
      "ęę ęĕ",
      "ęě Ĝ",
      "ę Ē",
      "Ė ęęě",
      "Ě ęęĖ",
      "Ā ē",
      "ęęĘ ęęęĘ",
      "Ě ęęĜ",
      "Ĝ ęęė",
      "ęę ęĝ",
      "ęęęęĘ Ę",
      "ė ě",
      "ęė Ė",
      "ĕ ęęęę",
      "ęę !",
      "Ė ęęė",
      "ė ęęĜ",
      "ĀĀ ğ",
      "ęĜ ě",
      "ęė Ĝ",
      "ęęęęĘ Ě",
      "ęę đ",
      "ęęęęĚ Ě",
      "ĀĀ ē",
      "ęĖ ė",
      "ęęęęĚ Ę",
      "ęě Ė",
      "Ĝ ęęě",
      "ě ęęĖ",
      "ė ęęĖ",
      "ĀĀę Ā",
      "ĕ ęęĘ",
      "ęęęĘ ęęĘ",
      "ĕ ęęĚ",
      "ė ė",
      "ĀĀĘ Ā",
      "Ĝ Ě",
      "ĝ ęęęę",
      "ęĜ ė",
      "ě ęęĜ",
      "ĀĀ Ē",
      "ęĖ ě",
      "Ė Ě",
      "Ė Ę",
      "ĝ ęęĘ",
      "ęĜ Ĝ",
      "ęęęĘ ęęĚ",
      "Ĝ Ę",
      "ęĖ ęęęę",
      "ęęęĚ ęęĘ",
      "ę !",
      "ę đ",
      "ĀĀė Ā",
      "ĚęęĘ ę",
      "ęęęĚ ęęĚ",
      "ĀĀ !",
      "ęĕ Ě",
      "Ĝ ě",
      "ĕ Ě",
      "ęĚ ĝ",
      "ęě ęęĘ",
      "ęĚęęęę ęę",
      "ęĘ ęĚęęęę",
      "ęęęę ęęĘ",
      "ęĘ ĕ",
      "ĀĀĚ Ā",
      "ĀĀě Ā",
      "ė Ĝ",
      "ĝ ęęĚ",
      "ĘęęĚ ę",
      "ęĖ Ė",
      "ęĝ Ě",
      "ęĚ ęĘęęęę",
      "ĀĀ đ",
      "ě Ĝ",
      "ęĚ ęĘ",
      "Ę Ě",
      "ęęęę ęęĚ",
      "ęĘ ęĚ",
      "ęę \"",
      "ęĘ ĝ",
      "ĚęęĚ ę",
      "Ěęęęę ę",
      "ęĕ Ę",
      "Ė ęęĜ",
      "ęė ęęĘ",
      "ęĜ ęęęę",
      "ĘęęĘ ę",
      "ęĚĘ ęęęĘ",
      "ęĘĚ ęęęĚ",
      "ęĚ ĕ",
      "Ė ě",
      "ĀĀĖ Ā",
      "ęęę Ğ",
      "ęęĘ Ęęęęę",
      "ęė ęęĚ",
      "Ę ęęĝ",
      "Ě Ě",
      "ĝ ęęė",
      "ęęęęęęęęęęęę ę",
      "ęę Đ",
      "ĕ ęęě",
      "Ė ė",
      "ĝ Ě",
      "ęĝ Ę",
      "ĕ Ę",
      "ęęę Ĕ",
      "ě ė",
      "ĀĀ Đ",
      "ęĘęęęę ęę",
      "ęĚĚ ęęęĚ",
      "ęęęęęęęę ęęęęęęęęęęęę",
      "ĝ ě",
      "ęĘĘ ęęęĘ",
      "Ĝ Ĝ",
      "ęęě ęęęę",
      "Ė ęęĖ",
      "ęě ĝ",
      "ęĘ ęĘęęęę",
      "ĕ ęęė",
      "ęęĚęęęę ę",
      "Ĝ ęęĖ",
      "ęĝ ě",
      "Ę Ę",
      "ęė ĕ",
      "ĀĀ \"",
      "ęĚ ęĚ",
      "ęęĚ ĚęęĚ",
      "ęě ęęĚ",
      "Ė ĝ",
      "ęęė ęęęę",
      "ęĚ ęĚęęęę",
      "ęĘ ęĘ",
      "ęęĚ ĘęęĚ",
      "ęęĘęęęę ę",
      "ęĜ Ė",
      "ęĕ ė",
      "ę \"",
      "ęęĚ Ěęęęę",
      "ĕ ě",
      "Ĝ ĝ",
      "Ę ęęĕ",
      "Ęęęęę ę",
      "ĕ ė",
      "ęĖ Ĝ",
      "ęęĘ ĚęęĘ",
      "ě Ğ",
      "ęĝ ė",
      "Ĕ ęęĚ",
      "ĀĀ $",
      "ĀĀĕ Ā",
      "Ě ęęĕ",
      "ĀĀ #",
      "ĀĀ ď",
      "ęęęęęęęę ęĘ",
      "Ě ęęĝ",
      "ě ęęęęĘ",
      "Ĕ ęęĘ",
      "ęęĘ Ěęęęę",
      "ęęĘ ĘęęĘ",
      "ė ęęĝ",
      "Ěęęęę ęę",
      "Ė Ĝ",
      "ě ĝ",
      "ęęĚ Ęęęęę",
      "Ęęęęę ęę",
      "ĀĀĜ Ā",
      "ęė ĝ",
      "ęě ęęęęĘ",
      "ęĚĚ ĘęęĚ",
      "ęė ęęęęĚ",
      "Ě Ę",
      "ęĜ ĝ",
      "ęĘ ėęęęę",
      "Ĕ ęęęę",
      "ė ęęęęĘ",
      "ęě ĕ",
      "Ě ęęęĚ",
      "Ğ Ğ",
      "ęĕ ě",
      "ęĚĘ ĚęęĘ",
      "ė ęęęęĚ",
      "ĀĀ Ď",
      "Ĕ Ę",
      "ė ĝ",
      "ė ęęĕ",
      "ęęęęęęęę ęĚ",
      "ęĝ Ĝ",
      "ęĘęęęę ęęĚ",
      "ė Ė",
      "Ę Ęęęęę",
      "Ğ ęęĘ",
      "ęĚęęęę ęęĚ",
      "ęĚęęęę ęęĘ",
      "ĀĀĔ Ā",
      "Ĕ ě",
      "ęĖ ĕ",
      "ęĕ Ė",
      "ęĘĘ ĚęęĘ",
      "ĝ Ĝ",
      "Ĕ Ě",
      "ęĚ Ğ",
      "ĀĀ %",
      "ęęė ęęęĘ",
      "ĝ ęęě",
      "ęęęęęęęę ęęęĚ",
      "ĕ Ĝ",
      "ęęě ęęęĚ",
      "ĕ ęęĖ",
      "Ě Ěęęęę",
      "ě ęęęęĚ",
      "ęęęęęęęę ęęęĘ",
      "ĀĀĘ ĀĘ",
      "Ę ęęęĘ",
      "ęė ęęęęĘ",
      "ęęę ē",
      "ę Đ",
      "ęę #",
      "ęĘĚ Ěęęęę",
      "ęĘĚ ĚęęĚ",
      "ğ Ĝ",
      "ĀĀĘ ĀĚ",
      "ĀĀĝ Ā",
      "ĀĀĞ Ā",
      "Ġ Ě",
      "ęĘ ęĚęęĚ",
      "ęĘęęęę ęęĘ",
      "ęĘĚ ĘęęĚ",
      "ęĚĘ ĘęęĘ",
      "ęĘĘ Ěęęęę",
      "ĕ ęęĜ",
      "ě ęęĝ",
      "Ğ ęęęę",
      "ęĚęęęę ę",
      "Ġ Ĝ",
      "ęĚ ęĘęęĚ",
      "ęĚ ęĘęęĘ",
      "Ė ęęĝ",
      "ęęęęęęęęęęęę ęęę",
      "ęęĚęęęĚ ę",
      "Ġ ĝ",
      "ęĚ ěęęęę",
      "Ěęęęę ęęĚ",
      "Ė Ė",
      "Ę ęęĞ",
      "Ğ Ě",
      "ě ęęĕ",
      "ęĚ Ĕ",
      "ęĚĚ Ęęęęę",
      "Ĕ ęęė",
      "ğ Ě",
      "ğ Ğ",
      "ęĞ Ě",
      "ęĚĚ Ěęęęę",
      "ě Ė",
      "ęĜ ĕ",
      "ęĜ ęęĘ",
      "ęĞ Ę",
      "ęęęęęęęęęęęęęęęę ęę",
      "Ě Ęęęęę",
      "ĝ ĝ",
      "Ğ Ĝ",
      "ęę $",
      "ęę ď",
      "ęĘ ęĘęęĚ",
      "ĀĀ &",
      "ęě Ěęęęę",
      "ĀĀę ĀĘ",
      "ė ęęĞ",
      "ęě ęęęęĚ",
      "ęĘ Ĕ",
      "ęĘ ęĚęęĘ",
      "ĀĀę Āė",
      "Ę Ěęęęę",
      "ęě Ğ",
      "ĀĚ Ě",
      "ęĘęęęę ę",
      "ĀĀ '",
      "Ĕ ęęě",
      "ğ ĝ",
      "ęęęęęęęę Ě",
      "ęęęě ę",
      "ęęę ğ",
      "ĀĀĘ Āė",
      "ē ė",
      "ē Ě",
      "Ė ęęĕ",
      "ęęě ĘęęĚ",
      "ĀĀğ Ā",
      "Ęęęęę ęęĘ",
      "ęĖ ęęĚ",
      "ğ Ę",
      "ęĚ ęęė",
      "ęĚ ęęě",
      "ęĕ ęęęę",
      "Ĕ ĝ",
      "ęĘ ęęęĘ",
      "ĀĚ Ę",
      "ĕ ĝ",
      "Ğ ęęĚ",
      "ęĘ Ğ",
      "ęĝ Ė",
      "ęęęě ęęĘ",
      "ĀĀĘ Āě",
      "ęĚ ęĚęęĘ",
      "ęě ęĘ",
      "ęęęė ęęęę",
      "ĀĀę Āě",
      "ĀĀĚ ĀĘ",
      "ĝ Ę",
      "Ęęęęę ęęĚ",
      "Ē Ę",
      "ęĜ ęęĚ",
      "ęęęė ę",
      "ē Ę",
      "Ĝ ė",
      "ęĕ Ĝ",
      "ęĘĘ ĘęęĘ",
      "ęĘė ęęęĘ",
      "Ĕ ė",
      "Ě Ĝ",
      "Ġ Ę",
      "ęĘ ęĘęęĘ",
      "Ěęęęę ęęĘ",
      "ęĔ Ę",
      "ęęęė ęęĚ",
      "ęęęě ęęęę",
      "ęęĘęęęę ęęĘ",
      "Ĕ Ė",
      "Ġ Ğ",
      "ęė ęęě",
      "ĀĀĘ ĀĖ",
      "ęĘĘ Ęęęęę",
      "ęęĚęęęę ęęĚ",
      "ęĚě ęęęĚ",
      "ĀĀė ĀĘ",
      "ęĚĚęęęę ę",
      "ĕ ĕ",
      "ę #",
      "Ě ĚęęĚ",
      "Ġ ğ",
      "ė ęęęĘ",
      "ęė Ĕ",
      "ęęęęęęęę Ę",
      "ęĝ ęęęę",
      "Ė Ğ",
      "Ġ ě",
      "ęę Ď",
      "ęĖ ęęĘ",
      "ğ ě",
      "ęĔ Ě",
      "ęė Ęęęęę",
      "ęęě ĚęęĚ",
      "ĀĀę ĀĚ",
      "Ĝ ęęĕ",
      "Ġ ė",
      "ęě ęęė",
      "ęĚĘ Ęęęęę",
      "ĀĀė Āě",
      "ęĚ ęęęęęęęęęęęę",
      "ęĘ ěęęęę",
      "ęĖ Ĕ",
      "ęĖ ĝ",
      "ęęĘęęęę ęęĚ",
      "ęĚě ĘęęĚ",
      "ęĘě ęęęĚ",
      "ĘęęęęĘ Ę",
      "Ĝ ęęĜ",
      "Ğ ęęė",
      "ęĚĚ ĚęęĚ",
      "ē ęęĘ",
      "Ė ęęĞ",
      "ě ĘęęĚ",
      "ęĚ ęęęĚ",
      "ęě Ęęęęę",
      "ęė Ğ",
      "ęęęė ęęĘ",
      "ęęĘęęęę ęę",
      "Ē Ě",
      "ē ęęĚ",
      "ę ĀĀ",
      "ęęĚęęęę ęęĘ",
      "Ē ė",
      "ĕ ęęĕ",
      "ęě Ĕ",
      "ęęė ĚęęĘ",
      "ęĘĚ Ęęęęę",
      "ĀĀė Āė",
      "ęĘĘęęęę ę",
      "ęĘĚęęęę ę",
      "ė ĘęęĘ",
      "ĀĀĚ Āė",
      "ĀĀē Ā",
      "ĕ Ė",
      "ęĞ Ĝ",
      "ĀĀĚ Āě",
      "ĀĀĚ ĀĖ",
      "ē ęęęę",
      "ĕ ęęĝ",
      "ęė Ěęęęę",
      "ĀĀę Āĕ",
      "ĀĀĚ ĀĚ",
      "ě ğ",
      "ě Ěęęęę",
      "ě ęęęĚ",
      "ęĝ ĝ",
      "ęęęęęęęęęęęęęęęę ęęęęęęęę",
      "ęĘĘ ěęęĘ",
      "ėęęĚ ę",
      "ė Ęęęęę",
      "Ĝ Ğ",
      "ęĚ ęĚęęĚ",
      "ęęęě ęęĚ",
      "ęęęęęęęęęęęęęęęę ęęę",
      "ĘęęęęĘ Ě",
      "Ė ęęęęĘ",
      "Ě ĝ",
      "ğ ęęĘ",
      "Ġ Ā",
      "ęĚ ęęęęęęęę",
      "ęĚ ėęęęę",
      "ęęė ĘęęĘ",
      "ęĘ ęęė",
      "ęĘ ęěęęęę",
      "ĀĀ (",
      "ĀĀė ĀĚ",
      "ĕ Ğ",
      "ĀĀĖ ĀĚ",
      "ęĘęęęę ě",
      "ęĝ Ğ",
      "ĀĀę ĀĜ",
      "ęěĘ ęęęĘ",
      "ĘęęęęĚ Ę",
      "ĀĀĒ Ā",
      "đ Ě",
      "ē ĝ",
      "Ĕ ęęĖ",
      "ęĘ ęęęęęęęę",
      "ęęĚ ęęĘ",
      "ęě ęęě",
      "ęęęĘ ęęė",
      "ęĔ ė",
      "Ė ęęęęĚ",
      "ęĜ Ğ",
      "ęğ Ě",
      "ĚęęęęĘ Ę",
      "ğ ğ",
      "ęĘ ęęě",
      "ęĘĘ ęęęĚ",
      "ęĞ ė",
      "ęĔ Ė",
      "ęĘė ĚęęĘ",
      "ĚęęęęĘ Ě",
      "ē Ė",
      "Ğ ĝ",
      "ğ ė",
      "ęĘ ęęęęęęęęęęęę",
      "ęęĚ ęęęĘ",
      "ĀĀĚ ĀĜ",
      "Ē Ė",
      "Ĕ Ĝ",
      "Ę ęęĔ",
      "ě ĕ",
      "ęęĚęęęę ęę",
      "ĀĀę ĀĖ",
      "ěęęĚ ę",
      "ęėĚ ęęęĚ",
      "ĚęęęęĚ Ę",
      "ě Ęęęęę",
      "ęĚĚ ęęęě",
      "ĀĀě Āė",
      "ē ě",
      "ē ęęė",
      "Ĕ Ğ",
      "Ĝ ęęęęĚ",
      "ęę %",
      "ęĚ ğ",
      "ęęĘ ęęęĚ",
      "ęĘĘ ęęęė",
      "ęĚė ęęęĘ",
      "ęĚ ęė",
      "ęĚ ĚęęĚ",
      "ęĚė ĚęęĘ",
      "đ ė",
      "Ē ĕ",
      "ē Ĝ",
      "ęėĚ ĚęęĚ",
      "ĀĀě ĀĘ",
      "Ę ĝ",
      "ę ď",
      "ęĚ ĘęęĚ",
      "ęĚĘ Ěęęęę",
      "ĀĀĘ Āĕ",
      "ęěĚ ęęęĚ",
      "ĀĀđ Ā",
      "ė ĕ",
      "ė Ğ",
      "Ě ě",
      "Ġ ęęęę",
      "ęęęęęęęę ęęĚ",
      "ęĚĚ ęęęĘ",
      "ęěĘ ĘęęĘ",
      "ĀĀĖ Āė",
      "ė ĚęęĘ",
      "ğ ęęęę",
      "ĀĀ )",
      "ęĜ Ĕ",
      "ęĕ ĕ",
      "ęĚĚ ėęęĚ",
      "ęęę Ē",
      "ęĞ ĝ",
      "ęĔ Ĝ",
      "ĀĀě Āě",
      "ĀĀě ĀĖ",
      "Ğ Ę",
      "ęęė ę",
      "ęĞ ě",
      "ĀĀĐ Ā",
      "! ĝ",
      "ęęĚ ęęęě",
      "ęęĚ Ęęęě",
      "ęęĘ ęęęė",
      "ęęęĘ ęęě",
      "ęĚĚ ĘęęĘ",
      "ęĚĘęęęę ę",
      "! ğ",
      "ęĝ ĕ",
      "ęĞ Ė",
      "ęĚě ĚęęĚ",
      "ęėĘ Ěęęęę",
      "Ĝ ęęęęĘ",
      "ęĚ ęėęęęę",
      "ęęĘ ęęĘ",
      "ĀĀ *",
      "ęĕ ĝ",
      "ėęęĘ ę",
      "ęĚė ĘęęĘ",
      "ĀĀė ĀĖ",
      "ĀĀĖ ĀĘ",
      "ĀĀ! Ā",
      "! ě",
      "Ĕ ęęĜ",
      "Ę Ĝ",
      "ęĘ ęĚęęęęĘ",
      "ęęĚ ėęęĚ",
      "ęě ęĘęęęę",
      "ęė ęĚęęĚ",
      "ęęęęęęęę ęęęęĘ",
      "ĀĀĘ ĀĜ",
      "Ěęęė ę",
      "ęĘė ĘęęĘ",
      "ęĘě ĘęęĚ",
      "ęėĘ ęęęĘ",
      "Ę Ğ",
      "ĝ ęęĖ",
      "ęĚ ęĘęęęęĚ",
      "ęĚ ęėęęĘ",
      "ęĘ ęĚęęęęĚ",
      "ęě ğ",
      "ęė ėęęęę",
      "ęęęęęęęę ęęęęĚ",
      "Ěęęě ę",
      "ĀĀė Āĕ",
      "! Ě",
      "Ē ě",
      "ęė ęĚęęęę",
      "ęĚĘ ęęęė",
      "ęğ Ĝ",
      "ĀĀĕ ĀĚ",
      "ē ęęě",
      "ę $",
      "Ġ Ė",
      "ęĘ ĚęęĘ",
      "ęė ęęė",
      "ęĘĚ ęęęě",
      "ęĔ ě",
      "ęěĚ Ęęęęę",
      "ĀĀė ĀĜ",
      "! Ĝ",
      "! Ğ",
      "Ĕ ęęĝ",
      "Ĝ Ė",
      "ęĚ ęĘęęęęĘ",
      "ęĘ ğ",
      "ęęĘ ěęęĘ",
      "ęě ęĚęęĘ",
      "ęęė ęęęė",
      "ęęęĚ ęęě",
      "ęęęĚ ęęęęĘ",
      "ęęęĘ ęęęęĘ",
      "ĀĀĖ Āě",
      "ĀĀ\" Ā",
      "Ē Ĝ",
      "ė ęęĔ",
      "Ě ęęĔ",
      "ęĘ ē",
      "ęě ęĘęęĘ",
      "ęęĜ ęęęę",
      "ęęĚęęęĚ ęęęę",
      "ęĚęęęęĚ ę",
      "Ē ĝ",
      "ĕ Ĕ",
      "ĕ ğ",
      "ęĘ ĘęęĘ",
      "ęě ěęęęę",
      "ęęęĚ ęęė",
      "ęĘě ĚęęĚ",
      "ĀĀĖ ĀĖ",
      "ęėė ęęęĘ",
      "Āĝ Ě",
      "ĚęęęęĚ Ě",
      "đ Ę",
      "Ġ ĀĀ",
      "ęĘ ęě",
      "ęĚĚ ėęęęę",
      "ęėĘ ĚęęĘ",
      "ĝ ęęĜ",
      "Ġ ĕ",
      "ęĚĘ ęęęĘę",
      "ĘęęęęĚ Ě",
      "ęĘęęęęĚ ę",
      "đ Ė",
      "ě ĚęęĚ",
      "ě ęęĔ",
      "Ġ ęęĘ",
      "ęĚ ęęĜ",
      "ęė ęĘęęęę",
      "ęĖ Ğ",
      "ęĚęęęę ě",
      "ęĞ ęęęę",
      "ęěĚ ĘęęĚ",
      "Ęęęė ę",
      "ĀĀĚ Āĕ",
      "ęęęęęęęęęęęęęęęę ęęęęęęęęęęęęęęęę",
      "ĀĀĔ ĀĘ",
      "ē ęęĜ",
      "ęė ē",
      "ęęęęęęęę ęęĘ",
      "ęęě ęęĘ",
      "ęęě ęęęě",
      "ęĚęęęę ė",
      "ęĝ ęęĘ",
      "ęĚĘ ėęęĘ",
      "ęĘĚ ěęęĚ",
      "ęĔ ĕ",
      "ęğ Ę",
      "ĀĀĜ Āė",
      "ĀĀĕ ĀĖ",
      "ĀĀ$ Ā",
      "Ġ ęęĚ",
      "ęĘ ęėęęęę",
      "ęęęĚ ęęęęĚ",
      "ęĖ ęęė",
      "ęĘĘ ęęęĘę",
      "ĀĀě ĀĚ",
      "ęęęĘęęęę ę",
      "ĀĀĕ ĀĘ",
      "Ğ ě",
      "ęĘ ęěęęĘ",
      "Ęęęęę ė",
      "ęĜ ęęęęĘ",
      "ęĚĚ Ęęęě",
      "ęĚĘ ęęęĚ",
      "ęĘĚ ęęęĚę",
      "ĀĀė Āĝ",
      "ĀĀĖ ĀĜ",
      "ĀĀĜ ĀĘ",
      "ĀĀĜ Āě",
      "ęęęęęęęęęęęęęęęęęęęę ęę",
      "Ę ĘęęĘ",
      "ğ ęęĚ",
      "ęęęęęęęę Ěęęęę",
      "ęęě ę",
      "ęęĖ ęęęę",
      "ęĚė ęęęė",
      "ęėĚ ĘęęĚ",
      "ęęęĘęęęę ęęĚ",
      "ęęęĘęęęę ęęĘ",
      "ĀĀĝ ĀĘ",
      "Ē ē",
      "Ę ě",
      "ęĚ ē",
      "ęě ęĘęęĚ",
      "ęĘĚ ėęęĚ",
      "ęęę !",
      "ĀĀĘ Āĝ",
      "ęęęĚęęęę ę",
      "ęĚęęęęĘ ę",
      "đ ĕ",
      "Ė ĕ",
      "ė ěęęĘ",
      "ė ęęğ",
      "ě Ĕ",
      "ęĚ ęęĘę",
      "ęė ęĚęęĘ",
      "ęĘĘ ĘęęĚ",
      "ęĘĘ ěęęęę",
      "ęĘĘ Ěęęė",
      "ęĚĘ Ěęęė",
      "ęęę đ",
      "ĀĀĘ ĀĔ",
      "ĀĀę ĀĔ",
      "ęĚě ęęęě",
      "ęěĚ ęęęĘ",
      "ęěĘ ĚęęĘ",
      "ęğ ě",
      "ĀĀĜ ĀĚ",
      "ęĘęęęęĘ ę",
      "\" Ě",
      "ė Ěęęęę",
      "Ę ęę",
      "Ę ĚęęĘ",
      "ęĚ ęęĚę",
      "ĀĀ +",
      "ęĜ ğ",
      "ęĖ ęęęęĚ",
      "ęĚĚ ęęęĚę",
      "ęęĘęęęę ęęĚęęęę",
      "ĀĀ# Ā",
      "Ė ęęęĘ",
      "ė ęęęęĘĘ",
      "Ġ !",
      "ęęĚ ĚęęĘ",
      "ęęęĘ ęęęęĚ",
      "ęĜ ęęė",
      "ęĘęęęę ęęęĚ",
      "ęĘĚ ęęęĘ",
      "ěęęĘ ę",
      "ĀĞ Ě",
      "Ē ęęĚ",
      "Ĕ ęęĕ",
      "ė ęęęęĚĚ",
      "ğ ęęė",
      "ęĚ ęęęĚę",
      "ęĘ ęęĘę",
      "ęęĘ ėęęĘ",
      "ęęĘ ęęęĘę",
      "ęĜ ęęęęĚ",
      "ęĖ ęęęęĘ",
      "ęęĜ ęęęĚ",
      "ęĘęęęę ė",
      "ęĘęęęę ęęě",
      "ęĕ Ğ",
      "ęęęęęęęęęęęę ęĚęęęę",
      "ĀĀĜ ĀĖ",
      "Ğ ęęě",
      "Ġ ęęė",
      "ęĘ ęęĚę",
      "ęĘ ęęęęęęęęęęę",
      "ęęĚ ėęęęę",
      "ęĖ ęęě",
      "ęęęĖ ęęęę",
      "ęęęĚęęęę ęęĘ",
      "ĀĀĕ Āě",
      "ĀĀď Ā",
      "Đ Ě",
      "Ē ęęĘ",
      "ē Ğ",
      "Ė ęęĔ",
      "ė ęę",
      "ě ęęĞ",
      "ğ Ė",
      "ęĚ ęęĖ",
      "ęĚ ęėęęĚ",
      "ęęĚ ęęĚ",
      "ęęĘ Ěęęė",
      "ęęė ěęęĘ",
      "ĀĀę Āĝ",
      "ĀĀĝ Āě",
      "ē Ĕ",
      "ę Ď",
      "Ĝ ĕ",
      "Ĝ ęęĝ",
      "ĝ Ė",
      "ęĘ ęėęęĚ",
      "ęęĘ ĘęęĚ",
      "ęęė Ěęęė",
      "ęęĘęęęę ęęĘęęęę",
      "ęĚĜ ęęęĚ",
      "ĀĀĔ ĀĚ",
      "\" Ğ",
      "Ě ęęęęęęęę",
      "Ě ęęĞ",
      "ě ěęęĚ",
      "ęĚ ęĚęęęęĚ",
      "ęĘ ęęĜ",
      "ęĘ ęĘęęęęĘ",
      "ęęĚ ěęęęę",
      "ęęě Ęęęě",
      "ęĖ ğ",
      "ęĘęęęę ęęĚęęęę",
      "ęĕ ęęĚ",
      "ėęęęę ė",
      "ęęęęęęęęęęęę ęĚ",
      "ĀĀě ĀĜ",
      "ęē Ę",
      "ęęęĚęęęę ęęĚ",
      "Ē Ē",
      "ė ęęęęĚĘ",
      "ě ěęęęę",
      "ĀĀ -",
      "ęęęęęęęę Ęęęęę",
      "ęĘęęęę ęęęĘ",
      "ęĝ Ĕ",
      "ęĝ ęęĚ",
      "ęĚĘ ěęęĘ",
      "ĀĀĚ Āĝ",
      "ęěĘ Ęęęęę",
      "ęėĚ Ěęęęę",
      "ęěě ęęęĚ",
      "đ Ĝ",
      "Ē ęęęę",
      "ĕ ęę",
      "Ĝ ęęęĚ",
      "Ġ ęęě",
      "ęęĘ ěęęęę",
      "ĀĀ ,",
      "ęęĖ ęęęĘ",
      "ęĘĚ Ęęęě",
      "ęĘĚ Ěęęě",
      "ęĘė ěęęĘ",
      "ĀĀĚ ĀĔ",
      "ęęęĜ ęęęę",
      "ĀĀĖ Āĕ",
      "ĀĀĝ Āė",
      "ęĘęĚ ęęě",
      "ęęęęęęęęęęęęęęęęęęęęęęęę ę",
      "\" ĝ",
      "Đ ė",
      "Đ Ę",
      "Ē Ĕ",
      "ė ęęęęĘĚ",
      "Ę ęęęęęęęęęęę",
      "Ě Ğ",
      "Ě ĘęęĚ",
      "ğ ęęě",
      "ęĚ ęĚęęęęĘ",
      "ęĚ ęęęęęęęęęęęęę",
      "ęĘ ęęęęęęęęęęęęę",
      "ęęĚ ěęęĚ",
      "ęęĘ Ęęęė",
      "ęĕ Ĕ",
      "ęĚĚ ĚęęĘ",
      "ęĚĘ ėęęęę",
      "ęĘĚ ěęęęę",
      "ĀĀĘ Āē",
      "ęĘė ęęęė",
      "ęĘė Ěęęė",
      "ęėĘ ĚęęĚ",
      "ĀĀě Āĕ",
      "ĀĀě Āĝ",
      "ĀĀĞ ĀĘ",
      "! Ę",
      "ē ğ",
      "Ė ęęğ",
      "ė ėęęĘ",
      "ě ęęęęĘĚ",
      "Ĝ ĘęęĚ",
      "Ġ #",
      "ęė ğ",
      "ęĔ ĝ",
      "ĀĀĚ Āē",
      "ęěĘ ęęęė",
      "ęęęĜ ęęĘ",
      "ęěě ĘęęĚ",
      "ęěė ĘęęĘ",
      "ĀĀĝ ĀĖ",
      "đ ęęė",
      "Ē Ğ",
      "ĕ ęęęęĚ",
      "ė ęęęė",
      "Ġ \"",
      "ęĚ ęě",
      "ęęĘ ėęęęę",
      "ęė ęě",
      "ęė ęěęęĘ",
      "ęęě Ěęęęę",
      "ęĜ ē",
      "ęĜ Ěęęęę",
      "ęĚĚ ěęęęę",
      "ęĚĚ ĘęęęęĘ",
      "ęĚĘ Ęęęė",
      "ęĔ ęęęę",
      "ĀĀĘ ĀĞ",
      "ęĘě Ęęęě",
      "ęěĘ ėęęĘ",
      "ĀĀė ĀĞ",
      "ęğ ĝ",
      "ĀĀě ĀĔ",
      "ęęęĖ ęęĚ",
      "ęē Ě",
      "ĀĀĜ Āĕ",
      "ĀĀē ĀĘ",
      "đ Ĕ",
      "Ē Đ",
      "Ē ęęě",
      "ě ėęęĚ",
      "ě ęęęęĚĘ",
      "ęĘ ęĘęęęęĚ",
      "ęęė Ęęęęę",
      "ęĚęęęę ęęęĚ",
      "ęĕ ęęĘ",
      "ęĘĘ Ęęęė",
      "ęěĚ ėęęĚ",
      "ęĘě ęęęě",
      "ĀĜ Ě",
      "ĀĀĝ ĀĚ",
      "! ĀĀ",
      "\" Ĝ",
      "đ ğ",
      "ē ĕ",
      "ē ęęĖ",
      "Ė ĘęęĘ",
      "Ė ęęĚę",
      "Ę ęęğ",
      "ęĘ ęė",
      "ęě Ē",
      "ęě ęĚęęęę",
      "ęě ĘęęĚ",
      "ęė ęĘęęĚ",
      "ęęė ęęĚ",
      "ęęė Ěęęęę",
      "ęęě ėęęĚ",
      "ęĖ Ęęęęę",
      "ęĝ ğ",
      "ęĘĘ ĚęęĚ",
      "ęĚě Ęęęęę",
      "ęėĘ ęęęĚ",
      "ĀĀě Āē",
      "ęĘĖ ęęęĘ",
      "ĀĀĔ Āě",
      "ė Ĕ",
      "ė ğ",
      "ĝ ęęĕ",
      "ęĚ ęěęęęę",
      "ęė ęěęęĚ",
      "ęĖ ē",
      "ęĚĚ Ěęęě",
      "ęęĚęęęę ęęĚęęęę",
      "ęĚě Ęęęě",
      "ęěĚ ĚęęĚ",
      "ęěĚ ėęęęę",
      "ęĘě ěęęĚ",
      "ęėĘ ĘęęĘ",
      "ęěė ęęęĘ",
      "ęėě ęęęĚ",
      "ėĚ ęęĖ",
      "ęĘęĚ ęęė",
      "ęĘęĘ ęęě",
      "ĀĀ' Ā",
      "Ē đ",
      "Ę ęęęĚ",
      "Ě ęęęęęęęęęęę",
      "ě ęęęęĘĘ",
      "ě ęęęęĚĚ",
      "Ĝ ęęĔ",
      "Ĝ ęęĚę",
      "ĝ Ğ",
      "Ġ ę",
      "ęĘ ęęĖ",
      "ęĘ ęěęęĚ",
      "ęė ĚęęĘ",
      "Ěęęęę ė",
      "ęĜ ęęě",
      "ęĚĘ ĘęęĚ",
      "ęĞ ĕ",
      "ęĞ ğ",
      "ęĘě Ěęęě",
      "ęěě ĚęęĚ",
      "ĀĀĝ Āĕ",
      "ęĘĖ ĚęęĘ",
      "ĀĀĔ Āė",
      "ĀĀĞ Āė",
      "ĀĀ! ĀĘ",
      "ĀĀ% Ā",
      "ĕ ęęĞ",
      "Ė Ĕ",
      "ė ėęęęę",
      "ė ęęē",
      "ęě ęė",
      "ęě ęęęĚ",
      "ęě ęėęęęę",
      "ęě ęėęęĘ",
      "ęęė Ęęęė",
      "ęĜ ęĘęęĘ",
      "ęĘĘ ėęęĘ",
      "ęĚĘ ĚęęĚ",
      "ęĚĘ ĘęęęęĚ",
      "ęęęęęęęęęęęę ęĘęęęę",
      "ęĞ Ğ",
      "ĀĀę Āē",
      "ęĚě ėęęĚ",
      "ęěĚ Ěęęęę",
      "ęěĚ Ęęęě",
      "ęěęęęę ě",
      "ęęęĚęęęę ęę",
      "ęĚĖ ęęęĘ",
      "Ē ęęė",
      "Ę ęęęęęęęę",
      "ĝ ęęĝ",
      "ğ ĀĀ",
      "Ġ ęęĜ",
      "ęęęę ę",
      "ęĘ Ē",
      "ęĘ ęęęĘę",
      "ęęĚ ĘęęĘ",
      "ęė ěęęęę",
      "ęęęęęęęę ĚĚ",
      "ęęĖ ĘęęĘ",
      "ęĘęęęę ęęĘęęęę",
      "ęĕ ğ",
      "ęęęęĘ ęĚęęęę",
      "ęĘĚ ĘęęĘ",
      "ęĞ Ĕ",
      "ęĔ Ğ",
      "ĀĀĚ ĀĞ",
      "ęěĘ Ęęęė",
      "ęĚė Ęęęęę",
      "ęĚė Ěęęė",
      "ĀĀė Āē",
      "ęğ ė",
      "ĀĀĖ Āĝ",
      "ęęęĘęęęę ęę",
      "ęęĚęęęĚ ęęĘ",
      "ęěě ęęęě",
      "ęĘĜ ęęęě",
      "ĀĀĞ ĀĖ",
      "ęęęęĚĘ Ęęęęę",
      "ĕĚ ęęĕ",
      "Đ ĕ",
      "ē ęęĕ",
      "ĝ ė",
      "ęĘ Ėęęęę",
      "ęė ĘęęĘ",
      "ęė ęĘęęĘ",
      "ęęęęęęęę ĘĚ",
      "ęęė ęęĘ",
      "ęęęĘ ęęĚę",
      "ęěĚ ęęęě",
      "ĀĀĕ Āė",
      "ęĚĜ ĘęęĚ",
      "ĀĀē Āė",
      "ęĚęĚ ęęė",
      "! \"",
      "\" ğ",
      "Đ Ğ",
      "ę &",
      "ęĚ Ĝęęęę",
      "ęĚ ęĖęęęę",
      "ęě ē",
      "ęęęęęęęę ĘĘ",
      "ęęęĘ ęęęęęęęę",
      "ęęęĘ ęęĘę",
      "ęęĜ ęęęě",
      "ęęęęĘ ė",
      "ęĚĚ ĘęęĚę",
      "ęĚė Ęęęė",
      "ĀĀĖ ĀĞ",
      "ęėė ĚęęĘ",
      "ęē ě",
      "ĀĀĜ Āĝ",
      "ęėě Ěęęě",
      "ěĚ ęęĜ",
      "ęĘĖ ęęęė",
      "ęĖĚ ęęęĚ",
      "ęĜĘ ĘęęĘ",
      "ĀĀĞ ĀĚ",
      "ĀĀĞ Āě",
      "ĀĀĞ ĀĜ",
      "ęĒ Ę",
      "\" !",
      "Ė ğ",
      "Ę ęęē",
      "Ě ĕ",
      "ě ĀĀ",
      "Ġ Ĕ",
      "ęĚ ęěęęĘ",
      "ęęě ėęęě",
      "Ěęęęę ě",
      "ęĜ ęĘęęęę",
      "ęĖ Ěęęęę",
      "ęĚęęęę ęęĚęęęę",
      "ęęę Đ",
      "ęĘė ěęęė",
      "ĀĀė ĀĔ",
      "ęěě ėęęĚ",
      "ęėęęęę ě",
      "ęėě ĚęęĚ",
      "ĀĀĕ ĀĜ",
      "ĀĀĕ Āĕ",
      "ĀĀĔ ĀĜ",
      "ĀĀē ĀĚ",
      "Ē ęęĖ",
      "ē đ",
      "Ĕ ęę",
      "Ė ĚęęĘ",
      "ě ęęē",
      "Ğ ęęĜ",
      "Ġ ĀĘ",
      "ęęĚ ĖęęĚ",
      "ęęĘ ĚęęĚ",
      "ęě ėęęęę",
      "ęęė ėęęĘ",
      "ęęě Ęęęęę",
      "ęęĖ ęęęė",
      "ęĚęęęę ęęė",
      "ęĚĚ ĘęęęęĚ",
      "ęĚĘ ěęęęę",
      "ĀĀę ĀĞ",
      "ęĘė Ěęęęę",
      "ęěĚ ĚęęĘ",
      "ęěĚ ĘęęĘ",
      "ęěĘ ėęęęę",
      "ęĚė ėęęĘ",
      "ęėĚ ęęęě",
      "ęėė Ęęęęę",
      "ęėė ęęęė",
      "ęėęęęę ęęĚ",
      "ĀĀĜ ĀĞ",
      "ęěė ĚęęĘ",
      "ėęęė ę",
      "ĀĀĕ Āĝ",
      "ęĜĘ ęęęĘ",
      "ĀĀğ ĀĖ",
      "ĀĀĎ Ā",
      "ęęęęęęęęęĚ ę",
      "ĕ ęęĔ",
      "ė ę",
      "ė Ęęęė",
      "Ě ęę",
      "Ě ęęğ",
      "Ĝ ĚęęĚ",
      "ĝ ęęęęĘ",
      "ĝ ęęęęĚ",
      "Ğ ęęĖ",
      "ğ ęęĖ",
      "ęĚ ęęęęęęęęęęę",
      "ęęĚ Ěęęě",
      "ęęĘ ĘęęĘę",
      "ĀĀ .",
      "ĀĀ /",
      "ęė ęęęĘ",
      "Ěęęęę ęęĘęęęę",
      "ęęĜ ĘęęĚ",
      "ęęĜ ĚęęĚ",
      "ęęę \"",
      "ěęęęę ė",
      "Āě Ę",
      "ęĚė ěęęĘ",
      "ęėĚ ęęęĘ",
      "ęęęĜ ę",
      "ęėė ĘęęĘ",
      "ęėė ěęęĘ",
      "ęęĚęęęĚ ęęĚ",
      "ęěęęęę ęę",
      "ęěęęęę ęęĘ",
      "ěęęě ę",
      "ęėě ĘęęĚ",
      "ęĖĘ ęęęĘ",
      "ęĖĚ ĚęęĚ",
      "ęěĜ ęęęĚ",
      "ęĚęĘ ęęě",
      "ęęęęęęęęęĘ ę",
      "ĀĀ& Ā",
      "\" Ę",
      "ď Ě",
      "đ ęęĚ",
      "Ē ę",
      "ē ę",
      "Ė ęę",
      "Ę ęęęęęęęęęęęę",
      "Ĝ ěęęĚ",
      "ęęě Ěęęě",
      "ęęęė ęęě",
      "Ęęęě ę",
      "Āě Ě",
      "ĖĚ ęęĕ",
      "ĀĀ( Ā",
      "! !",
      "\" ě",
      "\" ĀĀ",
      "Đ Ė",
      "đ ē",
      "Ė ę",
      "Ę ėęęęę",
      "Ę ęęĒ",
      "Ě ęęęĚę",
      "ě ęęęě",
      "ě Ęęęě",
      "Ĝ ĀĀ",
      "Ĝ ęęĘę",
      "ęĚ Ėęęęę",
      "ęĘ ęĜ",
      "ęĘ ęėęęĘ",
      "ęęĚ ĘęęĚę",
      "ęęĘ ęęĚ",
      "ęė ęęĜ",
      "Ěęęęę ęęĚęęęę",
      "ęĜ Ęęęęę",
      "ęĘęęęę ęęė",
      "ęĚęęęę ęęęĘ",
      "ęĚęęęę ęęĘęęęę",
      "ęęęęĘ Ęęęęę",
      "ęĚĚ ęęęĜ",
      "ęĚĚ ĖęęĚ",
      "ęĘĚ ėęęęę",
      "ęĘĚ ĜęęĚ",
      "ęęęęęęęęęęęę ęĘ",
      "ęĔ Ĕ",
      "ęĔ ğ",
      "ęĘě ėęęĚ",
      "ęėĚ Ęęęęę",
      "ęğ ęęęę",
      "ęęęęęęęęęęęęęęęę ęęęęęęęęęęę",
      "ĚęęęęĘ Ęęęęę",
      "ĀĀĜ ĀĜ",
      "ĀĀĜ ĀĔ",
      "ĀĀĜ Āē",
      "ěĚ ĘęęĚ",
      "ęęęęĘĘ Ěęęęę",
      "ĀĀğ ĀĚ",
      "ęęęęĘĚ Ěęęęę",
      "ĀĀĒ Āė",
      "ęĚęĘ ęęė",
      "ĀĀĐ ĀĘ",
      "# Ğ",
      "Ē ęęĜ",
      "Ĕ ĕ",
      "Ė ěęęĘ",
      "Ė ęęĘę",
      "ě ęĘęęęę",
      "Ġ ē",
      "ęęęę ęęĚę",
      "ęĚ ęęĝ",
      "ęĚ ėęęĚ",
      "ĀĀ ć",
      "ęęęęęęęę ęęĘęęęę",
      "Ęęęęę ęęĚęęęę",
      "ęęęĘ ęęĖ",
      "ęęĖ ĚęęĘ",
      "ęĘęęęę ĚęęĚ",
      "ęĘĘ ėęęęę",
      "ęĘĚ ĚęęĘ",
      "ęĚě ěęęĚ",
      "ęĘě Ěęęęę",
      "ęğ Ė",
      "ęğ Ğ",
      "ęęęĜ ęęĚ",
      "ęėė Ěęęęę",
      "ęėė Ěęęė",
      "ęĚĜ ęęęě",
      "ĀĀĝ ĀĜ",
      "ĀĀĝ Āē",
      "ęĜĚ ĘęęĚ",
      "ęĘĖ ĘęęĘ",
      "ęĘĜ Ęęęě",
      "ėě ęęĖ",
      "ĀĀğ ĀĘ",
      "ęĘęĚ ęęĚę",
      "Đ Ĝ",
      "Đ ĝ",
      "đ đ",
      "Ē ğ",
      "Ė ē",
      "Ė ęęęęĘĘ",
      "ė ĖęęĘ",
      "Ę ęęęĘę",
      "Ĝ ē",
      "Ĝ ęęğ",
      "ęęęę ęęĘę",
      "ęĚ ĚęęęęĚ",
      "ęĚ ęęęęęęęęęęęęęęęęęęęę",
      "ęĘ ęĜęęęę",
      "ęęĘ ĚęęęęĚ",
      "ęě ĚęęĚ",
      "ęė ęėęęęę",
      "ęęęęęęęę ęęĚęęęę",
      "ęęě ěęęĚ",
      "ęęęĚ ęęęęęęęę",
      "ęĜ ěęęęę",
      "ęĕ ē",
      "ęęęęĘ ę",
      "ęĚĚ ěęęĚ",
      "ęĚĚ ėęęě",
      "ęęęęĚ ę",
      "ęĘĘ ĜęęĘ",
      "ęĘĚ ěęęĘ",
      "ęęę #",
      "ĀĀě ĀĞ",
      "ęęęĖ ę",
      "ĀĀĖ ĀĔ",
      "ęěě Ęęęęę",
      "ęĚĜ ėęęĚ",
      "ęěĜ ĘęęĚ",
      "ĀĀđ ĀĜ",
      "ęĘęĚ ęęĘę",
      "ĕĘ ęęĕ",
      "! ė",
      "# ğ",
      "$ ĝ",
      "Đ ě",
      "đ ĝ",
      "ĕ ęęęęĘ",
      "ė ęĚęęęę",
      "Ě ėęęĚ",
      "ě ěęęě",
      "Ĝ Ĕ",
      "Ĝ Ęęęě",
      "Ğ ĀĀ",
      "ęĚ ęĖęęĚ",
      "ęęĚ ęęęęęęęęęęęę",
      "ęęĚ ĚęęĚę",
      "ĀĀ ą",
      "ęě ęĚęęĚ",
      "ęęė ĘęęĚ",
      "Ęęęęę ęęĘęęęę",
      "Ěęęęę ęęě",
      "ęęęĚ ęęĚę",
      "ęĕ ęęě",
      "ęĚĘ ĘęęĘę",
      "ęĘĚ ĘęęęęĚ",
      "ęėĚ ěęęęę",
      "ęėĘ ĘęęĚ",
      "ęėĘ ěęęĘ",
      "ęğ ĕ",
      "ěęęė ę",
      "ęęĚęęęĚ ęęęęęęęę",
      "ęěě Ęęęě",
      "ęē ė",
      "ĀĀĔ ĀĖ",
      "ęėĖ ęęęĘ",
      "ĀĀğ Āě",
      "ĀĀĒ ĀĘ",
      "ĀĀĒ ĀĖ",
      "đ Ē",
      "Ĕ ęęĔ",
      "ĕ ęęē",
      "Ė ęęē",
      "Ę ěęęęę",
      "ě ęęğ",
      "Ĝ Ěęęě",
      "Ġ $",
      "ęĚ ęĖ",
      "ęĚ ęĔ",
      "ęęĚ ĘęęęęĘ",
      "ęęĚ ĚęęęęĚ",
      "ęęĘ ęęęęęęęęęęęę",
      "ęęė ěęęė",
      "Ěęęęę ęęęĘ",
      "ęęęĚ ęęęęĘĘ",
      "ęĖ Ē",
      "ęĖ ęĚęęęę",
      "ęĖ ėęęęę",
      "ęęĜ ęęĘ",
      "ęęĜ Ęęęě",
      "ęĚĚ ėęęĘ",
      "ęęęęĚ ęĘęęęę",
      "ęĘĘ ěęęĚ",
      "ęĘĘ ĘęęęęĘ",
      "ęĚĘ ĜęęĘ",
      "ęĘĚ ĘęęĚę",
      "ęĔ ē",
      "ęĚě Ěęęęę",
      "ęěĘ Ěęęęę",
      "ęěĘ ĘęęĚ",
      "ęĚė ėęęė",
      "ęėĚ Ěęęě",
      "ęěęęęę ęęĚ",
      "ĚęęęęĘ ęĚęęęę",
      "ęėě ęęęě",
      "ěĚ Ęęęęę",
      "ěĚ ęęęĚ",
      "ĀĀĝ ĀĞ",
      "ĀĀĝ ĀĔ",
      "ęĘĜ ęęęĚ",
      "ęĚĖ ęęęė",
      "ĀĀĔ Āĝ",
      "ęĒ Ė",
      "ęęĘęęęĘ ęęęęęęęę",
      "ęęęĘęęĘ ĚęęĘ",
      "ęĜė Ęęęė",
      "Đ ğ",
      "Ĕ ęęĞ",
      "ĕ ęęğ",
      "Ė Ē",
      "Ę ěęęĘ",
      "Ę ėęęĘ",
      "ě ę",
      "ě ĖęęĚ",
      "Ĝ ğ",
      "Ĝ ęęęě",
      "Ĝ ęęĞ",
      "Ġ Āě",
      "ęĚ ĘęęęęĚ",
      "ęĚ ęěęęĚ",
      "ęĚ ęĜęęĘ",
      "ęĘ ęĜęęĚ",
      "ęęĚ ęęęęęęęę",
      "ęęĘ ĜęęĘ",
      "ęě ęėęęĚ",
      "ęė ęęĖ",
      "ęĘęęęę ĚęęĘ",
      "ęĘęęęę ĘęęĘ",
      "ęĚęęęę ĘęęĘ",
      "ęĘĘ ęęęęęęęęęęęę",
      "ęęĚęęęę ęęĘęęęę",
      "ęĘě ěęęęę",
      "ęĚė ĖęęĘ",
      "ęėĘ Ęęęęę",
      "ĀĀĖ Āē",
      "ęěęęęę ė",
      "ęėęęęę ęę",
      "ęěė ėęęĘ",
      "ęĜĚ ęęęĚ",
      "ęĘĖ Ěęęė",
      "ęĘĜ ĚęęĚ",
      "ęĖĘ Ěęęęę",
      "ĀĀĔ ĀĞ",
      "ěĘ ęęĝ",
      "ĀĀĞ Āĕ",
      "ĀĀğ Āė",
      "ĀĀğ ĀĜ",
      "ĀĀē ĀĜ",
      "ĀĀĒ Āě",
      "ęĚęĚ ęęě",
      "ęĘęĘ ęęė",
      "ęęęęęęęęęęęęęęęęęęęęęęęę ęę",
      "# !",
      "Đ ē",
      "đ Ğ",
      "đ ęęĘ",
      "ē ęęĝ",
      "Ė ęęęė",
      "Ė Ěęęė",
      "ė ęęęĚ",
      "ė ęęęĖ",
      "Ě ğ",
      "Ě ęęęęęęęęęęęę",
      "ě ęę",
      "ě Ěęęě",
      "ĝ ęęĔ",
      "Ğ ęęĕ",
      "ğ Ĕ",
      "Ġ ĀĚ",
      "ęę &",
      "ęĚ ęęĕ",
      "ęęĘ ĖęęĘ",
      "ęě Ĝęęęę",
      "ęě ęĖęęĚ",
      "ęęė ęęęĚ",
      "ęęė ĖęęĘ",
      "Ěęęęę ęęęĚ",
      "ęęęĚ ęęĘę",
      "ęĚĚ ęęęė",
      "ęĘĘ ėęęĚ",
      "ęĚĘ ėęęĚ",
      "ęĚĘ ěęęė",
      "ęĘĚ ėęęě",
      "ęĘĚ ĘęęĜ",
      "ęęęě ęęě",
      "ęĚě ĖęęĚ",
      "ęěĘ ęęęĚ",
      "ęėĚ ěęęĚ",
      "ęėĚ ĜęęĚ",
      "ęğ ğ",
      "ęėė Ęęęė",
      "ĘęęęęĚ ė",
      "ėĚ Ěęęęę",
      "ęĜĚ ĘęęĘ",
      "ęĖĘ ĚęęĘ",
      "ęĚĖ ĘęęĘ",
      "ęěĜ ęęęě",
      "ęĒ ė",
      "ęėĖ ĚęęĘ",
      "ĀĀē Āĕ",
      "ęĖė ęęęĘ",
      "ęĚęĘ ęęĖ",
      "ĀĀ) Ā",
      "\" \"",
      "\" ė",
      "$ Ę",
      "Đ ęęĖ",
      "ĕ ď",
      "ė !",
      "ė ĘęęĚ",
      "ę %",
      "Ě ęęęĘ",
      "Ě Ęęęě",
      "ě !",
      "ě ėęęě",
      "ě ęęęĚę",
      "ĝ Ěęęě",
      "Ġ Āė",
      "Ġ ĀĀęĀ",
      "ęęęę ęęě",
      "ęĚ ĚęęĘ",
      "ęĘ ĘęęęęĘ",
      "ęĘ ęĖęęęę",
      "ęęĚ ęęęĜ",
      "ęęĘ ěęęė",
      "ęęĘ Ėęęęę",
      "ęė Ē",
      "ęė Ėęęęę",
      "ęĖ ęě",
      "ęĖ ęĚęęĘ",
      "ęęĖ Ęęęė",
      "ęĚęęęę ęęě",
      "ęĕ Ē",
      "ęĕ ęęĜ",
      "ęęęęĚ ęĚęęęę",
      "ęĘĘ ęęęě",
      "ęĘĘ ęęęĖ",
      "ęĘĘ ĚęęĘę",
      "ęĚĘ ĚęęęęĚ",
      "ęĘĚ ěęęě",
      "ęĞ ęęĘ",
      "ęĘė Ęęęė",
      "ęĘė Ĝęęė",
      "ęěĘ ěęęĘ",
      "ęěĘ Ěęęė",
      "ęėĚ ėęęĚ",
      "ęėĚ ěęęě",
      "ęğ Ĕ",
      "ęėė ěęęė",
      "ęėęęęę ė",
      "ęē ĕ",
      "ęěė ęęęė",
      "ěĚ ęęĝ",
      "ęĚĜ Ęęęě",
      "ęĖĘ ĚęęĚ",
      "ėĘ Ěęęęę",
      "ėĘ ęęęĘ",
      "ěĘ Ęęęęę",
      "ěě ęęĜ",
      "ĚęęĜ ę",
      "ęėĖ ěęęĘ",
      "ęĜě ęęęĚ",
      "ęęęęĚĚ ĘęęĚ",
      "ęěĖ ęęęė",
      "ĀĀĒ Āĕ",
      "ęĖě ęęęĚ",
      "ĖĘ ęęĕ",
      "ĀĀ! ĀĚ",
      "ęĚęĘ ęęĘę",
      "ĀĀ$ ĀĘ",
      "ęĘėęęęę ę",
      "! Ė",
      "\" #",
      "# Ě",
      "# ě",
      "ď Ė",
      "Đ Ē",
      "đ ęęě",
      "ĕ Ěęęė",
      "ĕ ęęĚę",
      "Ě ěęęĚ",
      "ě ĘęęĘ",
      "Ĝ ėęęĚ",
      "Ĝ ęęē",
      "Ĝ ĘęęĜ",
      "ĝ ğ",
      "ĝ ĀĀ",
      "ğ ē",
      "Ġ ęęĖ",
      "Ġ ęęĝ",
      "Ġ ĀĖ",
      "ęęęę ęęė",
      "ęĚ Ē",
      "ęĘ !",
      "ęĘ ęęęęęęęęęęęĚ",
      "ęĘ ęĜęęĘ",
      "ęęĚ Ěęęė",
      "ęęĘ ĘęęęęĘ",
      "ęė ęěęęęę",
      "ęė ęĚęęęęĘ",
      "ęęęęęęęę Ěęęęęęę",
      "ęęęęęęęę Ęęęęęęę",
      "ęęė ęęęĘę",
      "ęęė ĚęęĘę",
      "ęęě ěęęęę",
      "ęĜ !",
      "ęĚęęęę ęęĘęęęęęę",
      "ęĝ ē",
      "ęĝ ęęě",
      "ęĝ ęęęęĚ",
      "ęĕ ęęė",
      "ęĚĚ ęęęęęęęęęęęę",
      "ęĘĘ ěęęė",
      "ęĘĘ ĘęęęęĚ",
      "ęĘĘ Ĝęęęę",
      "ęęĕ ęęęĘ",
      "ęĘĚ Ĝęęęę",
      "ęĘĚ ĚęęĚę",
      "ėęęęę ě",
      "ęĚě ėęęě",
      "ęĘě ĜęęĚ",
      "ęęęĘęęęę ęęĚę",
      "Āĝ Ę",
      "ęėęęęę ęęĘ",
      "ęē Ė",
      "ęėě Ěęęęę",
      "ĘęęĜ ę",
      "ęĘĜ ĘęęĚ",
      "ęĚĖ ĚęęĘ",
      "ęĚĖ Ęęęė",
      "ęęęĕ ęęĚ",
      "ĀĀē ĀĖ",
      "ęĜė ęęęĘ",
      "ĜĘ ęęĝ",
      "ĀĀ! Āė",
      "ęĚęĘ ęęĚę",
      "ĝĚ ęęĞ",
      "ĀĀĐ Āě",
      "ĀĀď ĀĘ",
      "ĀĀď Āė",
      "ĀĀ% ĀĜ",
      "Ď Ě",
      "Ĕ Ĕ",
      "Ĕ ęęęęĘ",
      "Ę ęę!",
      "Ę ęęęęęęęęęęęĘ",
      "Ě ěęęęę",
      "ě Ĝęęě",
      "Ĝ ėęęě",
      "Ĝ ěęęě",
      "Ğ ęęĝ",
      "ğ ĕ",
      "ęĚ ĘęęęęĘ",
      "ęĚ ęęęęęęęęęęęĚ",
      "ęęĚ ěęęĘ",
      "ęęĚ ĘęęęęĚ",
      "ęęĚ ĚęęęęĘ",
      "ęęĘ ĘęęęęĚ",
      "ĀĀ Ĉ",
      "ęě !",
      "ęě Ěęęęęę",
      "ęė ęĚęęě",
      "ęęęęęęęę ęĚęęęęę",
      "Ęęęęę ě",
      "ęĜ Ē",
      "ęęĖ Ěęęė",
      "ęęĜ ėęęĚ",
      "ęĚĚ ĚęęęęĘ",
      "ęĚĚ ĚęęĚę",
      "ęęęęĚ Ěęęęę",
      "ęęęě ęęė",
      "ėęęęę ėĘ",
      "ęĔ ęęĚ",
      "ęĘė ęęĘ",
      "ęĘė Ęęęęę",
      "ęĘė ęęęĖ",
      "ęėĘ ęęęė",
      "ęėĘ ěęęęę",
      "ęęęęęęęęęęęęęęęę ęęęęęęęęęęęęę",
      "ĘęęęęĘ ę",
      "ĚęęęęĚ Ěęęęę",
      "ęē ĝ",
      "ęėě Ęęęě",
      "ęėě ěęęĚ",
      "ĀĀĕ ĀĞ",
      "ėĚ ĚęęĚ",
      "ĀĔ Ę",
      "ęĘĜ ėęęĚ",
      "ęĖĘ ęęęĚ",
      "ęĖĘ ĘęęĘ",
      "ęĜĘ ęęęė",
      "ěĘ ęęęĘ",
      "ěě ęęĝ",
      "ęęęęĘĘ ĚęęĘ",
      "ęėĖ ĘęęĘ",
      "ĀĀğ Āĕ",
      "ęęęęĘĚ ĘęęĚ",
      "ĜĚ ęęĝ",
      "ęĖě ĘęęĚ",
      "ĝĚ ęęĝ",
      "ęĘęĘ ęęĚę",
      "ęėęęęęĚ ę",
      "ĀĀĎ Āě",
      "ĞĚ ęęĞ",
      "ęěęĘ ęęė",
      "! ęęĘ",
      "# ĝ",
      "Đ ęęęę",
      "Đ ęęĘ",
      "đ ęęęę",
      "ē ęęĔ",
      "ĕ ęęęė",
      "Ė ėęęĘ",
      "Ė ěęęė",
      "Ė ĖęęĘ",
      "ė ęĜ",
      "Ę ğ",
      "ę ĀĀĘĀ",
      "Ě ęęĒ",
      "ĝ ĘęęĚ",
      "ğ ęęĜ",
      "Ġ ęęęĜ",
      "ęęęę ęęĖ",
      "ęĚ ęėęęě",
      "ęĘ ęĖ",
      "ęęĚ ėęęě",
      "ęęĚ ěęęě",
      "ęęĘ ĚęęęęĘ",
      "ęęĘ ĚęęĘę",
      "ęě ęĘęęęęĘ",
      "ęě ęĚęęė",
      "ęė ęĜęęĚ",
      "ęęė ęęęęĘ",
      "ęęė Ĝęęė",
      "ęęě ĖęęĚ",
      "ęĜ ėęęęę",
      "ęęĖ ę",
      "ęęĜ Ěęęě",
      "ęĚęęęę ęęęĚęęęę",
      "ęĚĚ ěęęĘ",
      "ęĚĚ ĜęęĚ",
      "ęĘĘ Ěęęě",
      "ęĚĘ ęęęĘęęĘ",
      "ęĘĚ ęęęęęęęęęęęę",
      "ęĘĚ ĖęęĚ",
      "ęĘĚ ĚęęęęĚ",
      "ęęę ď",
      "ėęęęę ęęĘ",
      "ęęĔ ę",
      "ęĚě ěęęě",
      "ęĘė ĜęęĘ",
      "ęĘě ěęęě",
      "ęĚė ěęęė",
      "ęėĘ Ěęęė",
      "ęėĘ ĜęęĘ",
      "ĘęęęęĚ ę",
      "ĘęęęęĘ ęĘęęęę",
      "ęěě ęęęĘ",
      "Ĝęęęę ė",
      "Ėęęęę ė",
      "ĚęęęęĘ ę",
      "ęĜĚ ĚęęĚ",
      "ęĜĚ Ęęęě",
      "ęĘĖ ęęęĖ",
      "ęĘĖ ěęęė",
      "ęĘĜ Ěęęě",
      "ęĚĖ ěęęė",
      "ĀĀĔ Āĕ",
      "ęĖĚ ĘęęĚ",
      "ęęęęĘĘ Ęęęęę",
      "ęęęęĘĚ ěęęęę",
      "ęęęęĚĚ Ěęęęę",
      "ęěĖ Ěęęė",
      "ęĜĜ ėęęĚ",
      "ĀĀđ ĀĘ",
      "ęĜęęęę ė",
      "ĜĜ ęęĜ",
      "ĀĀ\" ĀĘ",
      "ęĚęĚ ęęĘę",
      "ęěęęęęĘ ę",
      "Ĕě ęęĕ",
      "ğĘ ęęğ",
      "# Ę",
      "Ď Ė",
      "ď ĕ",
      "ē Ē",
      "ē ē",
      "Ĕ ęęęė",
      "Ė Ęęęė",
      "Ė ęę!",
      "ė ęę!",
      "Ę Ěęęė",
      "Ě ęęęě",
      "Ě ęęē",
      "Ě ęę!",
      "ě ĜęęĚ",
      "ě ęęĒ",
      "Ĝ ęęęęĚĘ",
      "ĝ Ĕ",
      "ĝ ĕ",
      "ĝ Ęęęě",
      "Ğ !",
      "Ġ ď",
      "ęĚ !",
      "ęĚ ęĜ",
      "ęĚ ęėęęęęĘ",
      "ęĚ ęěęęė",
      "ęĘ Ĝęęęę",
      "ęęĚ Ĝęęęę",
      "ęęĘ ęęęęĚ",
      "ęęĘ ĚęęĖ",
      "ĀĀ Ą",
      "ęě ęě",
      "ęė ęĜ",
      "ęė ęĘęęęęĚ",
      "ęė ęĚęęęęĚ",
      "ęė ęėęęĚ",
      "ęė Ęęęęęę",
      "ęęęęęęęę ĚĘ",
      "ęęě ĚęęĘ",
      "ęęě ĜęęĚ",
      "ęęęĚ ęęęęęęęęęęę",
      "ęęęĘ ęęĜ",
      "ęęęĘ ęęęęęęęęęęę",
      "ęĜ ĚęęĚ",
      "ęĜ ęėęęęę",
      "ęĜ ęėęęĘ",
      "ęęĖ ėęęĘ",
      "ęęĖ ėęęė",
      "ęęĜ ėęęě",
      "ęĕ ęęęęĘ",
      "ęĘĘ ĚęęęęĘ",
      "ęĚĘ ęęęě",
      "ęĚĘ Ęęęě",
      "ęĚĘ ėęęė",
      "ęęĕ ęęęę",
      "ęĘĚ ęęęė",
      "ėęęęę ęęĚ",
      "ęĔ Ē",
      "ęĔ ęęĘ",
      "ęęĔ ęĜ",
      "ęĚě ęęĚ",
      "ęĚě ęęęĚę",
      "ęĘė ęęęĚ",
      "ęěĚ ěęęĚ",
      "ęěĚ ėęęě",
      "ęěĚ ĖęęĚ",
      "ęěĘ ĖęęĘ",
      "ęėĚ ęęęĚę",
      "ęėĘ ėęęĘ",
      "ęėĘ Ęęęė",
      "ęěě Ěęęě",
      "Ėęęęę ě",
      "ęē Ğ",
      "ęěė ěęęĘ",
      "ĀĀĕ ĀĔ",
      "ėĚ ęęęĚ",
      "ĀĀĝ Āĝ",
      "ęĜĚ ęęęě",
      "ęĘĖ ěęęĘ",
      "ęĖĘ ěęęĘ",
      "ęĚĖ ęęęĖ",
      "ęĖĚ ěęęęę",
      "ęĖĚ Ěęęě",
      "ėĘ ęęĕ",
      "ěĘ ĘęęĘ",
      "ěĘ ęęĞ",
      "ęĒ Ě",
      "ęėĖ ęęęė",
      "ęęęęĚĚ ęęęĚ",
      "ĀĀē Āĝ",
      "ĀĀĒ ĀĜ",
      "ĀĀĒ Āĝ",
      "ęĜĜ ĘęęĚ",
      "ĀĀđ ĀĚ",
      "ĀĀđ ĀĖ",
      "ęęĘĘęęęę ę",
      "ĀĀ\" ĀĖ",
      "ĕė ęęĕ",
      "\" ę",
      "$ !",
      "% Ğ",
      "Ď ė",
      "ē ęę",
      "ĕ ĘęęĘ",
      "Ė Ęęęęę",
      "ė ęě",
      "ė ėęęĚ",
      "Ę ė",
      "Ę ĘęęęęĚ",
      "Ę ęęęęęęęęęęęĚ",
      "ę '",
      "Ě ęě",
      "Ě ĘęęĘ",
      "ě ěęęĘ",
      "ě Ĝęęęę",
      "ě ĘęęĜ",
      "Ĝ Ęęęęę",
      "Ĝ Ěęęęę",
      "ĝ ĚęęĚ",
      "Ğ ĕ",
      "Ġ ęęĔ",
      "Ġ ĀĜ",
      "Ġ Āĝ",
      "ęĚ ęĖęęĘ",
      "ęĘ đ",
      "ęĘ ęęĕ",
      "ęĘ ęėęęě",
      "ęęĘ ėęęė",
      "ĀĀ ă",
      "ęě ęĖęęęę",
      "ęě ęěęęĘ",
      "ęė đ",
      "ęė ęęĚę",
      "ęė ęĘęęě",
      "ęęė ęęęĖ",
      "ęęě ęęęĚę",
      "ęĘęęęę ęęęĚęęęę",
      "ęĚęęęę Ė",
      "ęĚęęęę ęęęĘęęęę",
      "ęĝ !",
      "ęĘĘ ĝęęĘ",
      "ęĚĘ ĘęęęęĘ",
      "ęĚĘ ĚęęĖ",
      "ęĚĘ ĕęęĘ",
      "ęĘĚ ęęęěę",
      "ęęęě ęęęęĚ",
      "ėęęęę ěĚ",
      "ěęęęę ę",
      "ěęęęę ęęĘ",
      "ęĞ ęęĚ",
      "ęĚě Ěęęě",
      "ęĚě ęęęĜ",
      "ęěĚ Ěęęě",
      "ęĘě Ęęęęę",
      "ęĚė Ěęęęę",
      "ęęęĖ ęęĘ",
      "ĘęęęęĚ Ěęęęę",
      "ęĚĖ ěęęĘ",
      "ĀĀĔ ĀĔ",
      "ęĖĚ ęęęě",
      "ĀĀĞ Āĝ",
      "ĀĀğ Āĝ",
      "ęėĜ ĘęęĚ",
      "ĀĀē Āě",
      "ęěĖ ĚęęĘ",
      "ęěĖ Ęęęė",
      "ęĖě ĚęęĚ",
      "ĀĀ! ĀĖ",
      "ĕĚ ęęĔ",
      "ĀĀđ Āě",
      "ĀĀđ Āė",
      "Ėě ęęĕ",
      "ĀĀĐ ĀĖ",
      "ĀĀ\" Āė",
      "ĕě ęęĕ",
      "ğĜ ęęĝ",
      "ĀĀ* Ā",
      "! #",
      "# Ĝ",
      "$ Ě",
      "ď ė",
      "Đ Ĕ",
      "Ē Ď",
      "Ĕ đ",
      "Ĕ ğ",
      "Ĕ Ěęęė",
      "Ĕ ęęğ",
      "Ė ěęęęę",
      "Ė ĘęęĖ",
      "Ė ęęęęĘĚ",
      "ė Ěęęė",
      "Ę ĕ",
      "Ę ĚęęĚ",
      "Ę ęęęęęęęęęĘ",
      "Ě Ěęęě",
      "ě ėęęĜ",
      "Ĝ ĜęęĚ",
      "ĝ ęęęě",
      "Ġ ęĘ",
      "ęĘ ęęęĚ",
      "ęĘ ěęęĘ",
      "ęĘ ĚęęęęĚ",
      "ęęĚ ĜęęĚ",
      "ęęĘ ĘęęĖ",
      "ęě đ",
      "ęě ęęĜ",
      "ęė ęęĕ",
      "ęė Ĝęęęę",
      "ęė ęĚęęė",
      "ęęęęęęęę ęĘęęęęę",
      "ęęė ěęęęę",
      "Ęęęęę ėĘ",
      "Ěęęęę ęęė",
      "ęęęĚ ęęĜ",
      "ęęęĚ ęęęęĘĚ",
      "ęĜ ęĘęęĚ",
      "ęĖ ęęĖ",
      "ęęĖ ęęĚ",
      "ęęĖ ęęĘ",
      "ęęĖ ĘęęĖ",
      "ęĚęęęę ĘęęĚ",
      "ęĝ ęęė",
      "ęĝ Ěęęęę",
      "ęĝ ęĘęęĘ",
      "ęĘĘ ĖęęĘ",
      "ęĘĘ ęęęĚę",
      "ęĚĘ ĚęęĘę",
      "ęęĕ ęęęė",
      "ęĘĚ Ěęęė",
      "ęĘĚ ęęęĚęęĚ",
      "ęęęęęęęęęęęę ęęęĚ",
      "ęęĞ ęĕ",
      "ęĘė ėęęęę",
      "ęĘė ėęęė",
      "ęĘė ęęęĘę",
      "ęĘě ęęęĜ",
      "ęĘě ėęęě",
      "ęĘě ĖęęĚ",
      "ęĘě ĚęęĜ",
      "ęĘě ĚęęĚę",
      "ęěĘ ĚęęĚ",
      "ęěĘ ĘęęĖ",
      "ęĚė ęęęĘę",
      "ęęē ęĜ",
      "ęęē ęĖ",
      "ęěě Ěęęęę",
      "ęěě ėęęě",
      "ęē ęęęę",
      "ęěė Ěęęė",
      "ęěė ěęęė",
      "ęėě ěęęęę",
      "ęĚĜ ĚęęĚ",
      "ęĚĜ Ěęęě",
      "ęĚĜ ĖęęĚ",
      "ėĚ ęęĕ",
      "ęĜĚ ęęęĘ",
      "ęĘĖ ėęęĘ",
      "ęĘĖ Ęęęė",
      "ęĘĜ ęęęĜ",
      "ęĚęęęęĚ ęęęęęęęę",
      "ęĜĘ ėęęĘ",
      "ĀĀĞ Āē",
      "ĀĀğ ĀĔ",
      "ęęęęĚĚ Ęęęęę",
      "ĀĀē ĀĔ",
      "ęĖė ęęęė",
      "ęĜė ĘęęĘ",
      "ĀĀĒ ĀĚ",
      "ęĖęęęę ė",
      "ĀĀ! ĀĜ",
      "ęĘĕ ęęęĘ",
      "ęĚęĘ ęęĜ",
      "ĕĘ ęęĔ",
      "ĀĀĐ ĀĚ",
      "ĝě ęęĝ",
      "ęĘĘęęęĘ ęęęęęęęę",
      "ęěĝ ęęęĚ",
      "ęĚęĚ ęęĚę",
      "ĀĀ# ĀĘ",
      "ęěęĘ ęęě",
      "! ĕ",
      "ď Ĝ",
      "Đ ęęĔ",
      "đ ęęĝ",
      "Ē ęę",
      "Ē ęęĕ",
      "ĕ ėęęė",
      "Ė đ",
      "Ė ęĝ",
      "Ė ęęęĖ",
      "Ė ĜęęĘ",
      "Ė ęęęęĚĘ",
      "ė ĀĀ",
      "ė ęęęĘę",
      "ė ĕęęĘ",
      "Ę Ėęęęę",
      "Ę ėęęė",
      "ę ĀĀęĀ",
      "Ě !",
      "Ě ĚęęĘ",
      "Ě ĚęęęęĚ",
      "Ě ęęęęęęęęęęęĚ",
      "ě \"",
      "ě ęęęĘ",
      "ě ėęęęę",
      "ě ęęęĜ",
      "ĝ ęęē",
      "Ġ Ē",
      "Ġ Ěęęě",
      "ęĚ ęęęĘ",
      "ęĚ ęęęě",
      "ęĘ ęĔ",
      "ęĘ ĘęęęęĚ",
      "ęĘ ĚęęĘę",
      "ęĘ ęęęęęęęęęęęęęęęęęęęę",
      "ęĘ ęěęęě",
      "ęęĚ ĘęęĜ",
      "ęęĘ ėęęĚ",
      "ęě ęěęęęę",
      "ęęęęęęęę ęĚęęęę",
      "ęęęęęęęę ęęĘę",
      "ęęė ėęęė",
      "ęęě ĘęęĘ",
      "ęęě ęęęė",
      "ęęě ĚęęĜ",
      "ęęęĘ ęęĚęęęę",
      "ęĜ Ĝęęęę",
      "ęĜ ęĚęęĘ",
      "ęĖ ęĘęęĚ",
      "ęĖ ęĚęęĚ",
      "ęęĖ ěęęĘ",
      "ęęĖ Ėęęė",
      "ęĘęęęę ęęęĘęęęę",
      "ęĚęęęę ĚęęĘ",
      "ęĚęęęę ĚęęĚ",
      "ęĕ Ěęęęę",
      "ęĕ ęęęęĚ",
      "ęĚĚ Ėęęęę",
      "ęĚĚ ěęęě",
      "ęĚĚ Ėęęě",
      "ęĚĚ ĕęęĚ",
      "ęĘĘ ĚęęęęĚ",
      "ęĚĘ ĖęęĚ",
      "ęĚĘ ĖęęĘ",
      "ęęĞ ęĜ",
      "ęĚě ĚęęĘ",
      "ęĚě ėęęęę",
      "ęĚě ĚęęĜ",
      "ęĘė ĚęęĚ",
      "ęěĚ ěęęęę",
      "ęĘě ĚęęĘ",
      "ęěĘ ęęęĖ",
      "ęĚė ęęęĚ",
      "ęėĚ ĚęęĘ",
      "ęėĚ Ęęęě",
      "ęęęęęęęęęęęęęęęę ęęęęęęęęęęęęęęęęęęęę",
      "ęęē ęĝ",
      "ęęęĘęęęę ęęĘę",
      "ęėė ĚęęĖ",
      "ęěęęęę ęęě",
      "ęěě ěęęĚ",
      "Ĝęęęę ě",
      "ĚęęęęĚ ę",
      "ęē Ĝ",
      "ęěė Ęęęė",
      "ęĚĜ ęęęĜ",
      "ėĚ ĘęęĚ",
      "ęĜĚ ėęęĚ",
      "ęĜĚ ėęęĘ",
      "ęĚĖ Ěęęė",
      "ęěĜ Ęęęě",
      "ęęĘęęęĘ ęęĘ",
      "ėě Ğ",
      "ęėĖ Ěęęė",
      "ęĜě ĚęęĚ",
      "ęėĜ Ěęęě",
      "ęĖė ĚęęĘ",
      "ęĖė ĘęęĘ",
      "ęěĖ ĘęęĘ",
      "ĜĘ ęęĞ",
      "ĀĀ! Āě",
      "ĀĀ! Āĝ",
      "Ĝě ęęĝ",
      "ęĕĘ ęęęĘ",
      "ęĜĖ ęęęė",
      "ĀĀĎ ĀĚ",
      "ğĚ ęęĞ",
      "ĀĀ+ Ā",
      "$ ě",
      "$ ğ",
      "ď ě",
      "ď ğ",
      "ď ęęĚ",
      "ď ęęė",
      "Đ ę",
      "ē Ď",
      "ĕ Ěęęęę",
      "ĕ ęęĘę",
      "Ė ęě",
      "Ė ėęęęę",
      "Ė ėęęė",
      "Ė ĕęęĘ",
      "Ė Ėĝ",
      "ė ĜęęĘ",
      "ė ęęĒ",
      "ė ĝęęĘ",
      "Ę Ĕ",
      "Ę ĘęęĚ",
      "ě ęě",
      "ě ęĚęęęę",
      "ě ĘęęĚę",
      "ĝ !",
      "ĝ ęęĞ",
      "ĝ ėęęě",
      "Ğ Ěęęě",
      "Ġ ęĘĘ",
      "Ġ ĘęęĜ",
      "Ġ ęęęĞ",
      "Ġ ĀĀĘĀĘ",
      "ęĚ ĚęęęęĘ",
      "ęĚ ĘęęĚę",
      "ęĚ ęĜęęęę",
      "ęĚ ęėęęęęĚ",
      "ęĚ ęęęęęęęęęęęĘ",
      "ęĘ ęęęė",
      "ęĘ ęęĔ",
      "ęĘ ĚęęęęĘ",
      "ęĘ ęęęĘęęĘ",
      "ęĘ ęėęęė",
      "ęě ęĖ",
      "ęě ęĘęęęęĚ",
      "ęě ęĖęęĘ",
      "ęė ęęĘę",
      "ęė ęėęęĘ",
      "ęė ęĜęęĘ",
      "ęė ęěęęė",
      "ęęė ęęęęęęĘ",
      "ęęě ėęęęę",
      "ęęě ęęęĜ",
      "ęęě Ėęęě",
      "Ęęęęę ęęė",
      "Ęęęęę ęęęĘ",
      "ęĜ ęęĜ",
      "ęĖ Đ",
      "ęęĜ ěęęĚ",
      "ęĘęęęę Ĝ",
      "ęĘęęęę ĘęęĚ",
      "ęĘęęęę ęęĘęęęęęę",
      "ęĚęęęę ęęęĘęęęęę",
      "ęĚęęęę ęęęĚęęęęę",
      "ęĝ ęęęęĘ",
      "ęĕ Ęęęęę",
      "ęĕ ęęĖ",
      "ęĕ ėęęęę",
      "ęĚĘ ęęęęęęęęęęęę",
      "ęĚĘ ėęęě",
      "ęĚĘ Ėęęė",
      "ęĚĘ ęęęĘęęĚ",
      "ęĘĚ ĜęęĘ",
      "ęęęė ęęęęĘ",
      "ęęęė ęęęęĚ",
      "ęęĘęęęę ęęęĘęęęę",
      "ęęĘęęęę ęęĚę",
      "ęĚě Ėęęě",
      "ęĘė ėęęĘ",
      "ęěĚ ėęęĘ",
      "ęĘě ęęęĘ",
      "ęěĘ ėęęė",
      "ęěĘ ęęęĘę",
      "ęĚė ėęęęę",
      "ęĚė ęęęĖ",
      "ęėĚ ėęęęę",
      "ęėĚ ėęęě",
      "ęėĚ ĖęęĚ",
      "ęėĘ ėęęęę",
      "ęėĘ ěęęĚ",
      "ęėė ėęęęę",
      "ęėė ėęęĘ",
      "ęěęęęę Ĝ",
      "ęěė Ęęęęę",
      "ěĚ Ěęęęę",
      "ęĜĘ Ęęęęę",
      "ęĜĘ ĚęęĘ",
      "ęĜĘ Ęęęė",
      "ěě ě",
      "ęěĜ ĚęęĚ",
      "ęĒ ęęęę",
      "ęęĘęęęĘ ęęĚ",
      "ėě ĚęęĚ",
      "ėě ęęĕ",
      "ęĜě ĘęęĚ",
      "ęĜě ėęęĚ",
      "ęĜě Ęęęě",
      "ęĜě Ěęęě",
      "ęęęęĚĚ ĚęęĚ",
      "ęĖė ěęęĘ",
      "ęĜė Ěęęė",
      "ęĜĜ ęęęĚ",
      "ęđ ė",
      "ĀĀ! Āĕ",
      "ĀĀ! ĀĔ",
      "ėĜ ęęĖ",
      "ĀĀđ Āĕ",
      "ęĘęĚ ęęęęęęęęęęę",
      "ęĘĝ ĚęęĚ",
      "ęĜęęęę ě",
      "ĀĀ\" ĀĚ",
      "Ĝĝ ęęě",
      "ęĝė ĘęęĘ",
      "ĞĜ ęęĜ",
      "ĀĀ& Āě",
      "ēĘ ęęĔ",
      "ęĚęęęęęęęę Ęęęęę",
      "ĀĀ* ĀĘ",
      "\" ĀĀęĀ",
      "# ė",
      "# ęęęę",
      "% ě",
      "Đ Đ",
      "Đ ęęĚ",
      "đ ě",
      "đ ęęĜ",
      "Ē !",
      "Ē ď",
      "Ē ęęĔ",
      "ē ęęĞ",
      "ē ęęğ",
      "Ĕ Ęęęė",
      "ĕ ĚęęĘ",
      "ĕ ęęęĖ",
      "ĕ ęęĒ",
      "Ė ęęęęĚĚ",
      "Ė ěęęĖ",
      "Ė ėęęĖ",
      "ė ěęęęę",
      "ė ěęęė",
      "ė Ĝęęęę",
      "ė Ėęęęę",
      "Ę ę",
      "Ę Ęęęė",
      "Ę ęęęęęęęęęęęęęęęę",
      "Ę ĚęęĘę",
      "ę ĀĀėĀ",
      "Ě ė",
      "Ě ěęęė",
      "Ě ęęęęęęęęęęęĘ",
      "Ĝ ęęęęĘĘ",
      "Ĝ ěęęĜ",
      "Ğ ğ",
      "Ġ ęęĞ",
      "Ġ ęęē",
      "Ġ ęē",
      "Ġ ěęęĜ",
      "Ġ ĀĀĞĀ",
      "ęĚ đ",
      "ęĚ ęęĔ",
      "ęĚ ĕęęęę",
      "ęĘ ĘęęĚ",
      "ęĘ ęęęęęęęęęęęęęęęę",
      "ęĘ ĜęęĘ",
      "ęĘ ĕęęęę",
      "ęĘ ĘęęĘę",
      "ęĘ ęěęęęęĘ",
      "ęĘ ęěęęė",
      "ęĘ ęĝęęĘ",
      "ęęĚ ęęęė",
      "ęęĚ Ęęęė",
      "ęęĘ Ęęęě",
      "ęęĘ Ĝęęė",
      "ĀĀ Ă",
      "ęě \"",
      "ęě ęęĕ",
      "ęě ėęęĚ",
      "ęė !",
      "ęęęęęęęę ęęĚę",
      "ęęė ĚęęĖ",
      "ęęě ęęęęĚ",
      "ęęě ęęęĚęęĘ",
      "Ěęęęę ėĘ",
      "ęęęĚ ęęęęęęęęęęęę",
      "ęęęĘ ęęęęĘĘ",
      "ęĜ ęęęĚ",
      "ęĖ ęęĜ",
      "ęĘęęęę Ęęęęę",
      "ęĚęęęę ęęĜ",
      "ęĚęęęę ĚęęęęęęĚ",
      "ęĝ Ē",
      "ęĕ ęĚęęĚ",
      "ęĚĚ ęęě",
      "ęĚĚ ĚęęĜ",
      "ęĚĘ ęęęĖ",
      "ęĚĘ ĚęęęęĘ",
      "ęĚĘ ĝęęĘ",
      "ęĘĚ ėęęĘ",
      "ęĘĚ ĚęęęęĘ",
      "ęęĝ ęęęę",
      "ęęęě ęęęęĘ",
      "ėęęęę ęę",
      "ėęęęę ěĘ",
      "ęęĚęęęę ęęĚę",
      "ęĞ ē",
      "ęęĘęęęę ęęĘę",
      "ęĚě ĜęęĚ",
      "ęĘė ĘęęĖ",
      "ęěĚ ĘęęęęĚ",
      "ęěĚ Ėęęęę",
      "ĀĀĚ ĀĚĚ",
      "ęěĘ ėęęĚ",
      "ęěĘ ėęęĖ",
      "ęėĘ ěęęė",
      "ęėĘ ĚęęęęĚ",
      "ęėĘ ęęęĘę",
      "ęęęĜ ęęė",
      "ęęĚę ē",
      "ęėė ĜęęĘ",
      "ęěęęęę ęęė",
      "ęěě ĖęęĚ",
      "ęėęęęę ęęě",
      "ęē Ĕ",
      "ęěė ęęęĖ",
      "ęěė ĖęęĘ",
      "ęěė Ĝęęė",
      "ěĚ ęęĖ",
      "ėĚ ęęĜ",
      "ęĜĚ Ěęęęę",
      "ęĖĘ ěęęęę",
      "ęĚĖ ĖęęĘ",
      "ęĖĚ Ěęęęę",
      "ęĘęęęęĘ ęęęęęęęę",
      "ęĜĘ Ěęęė",
      "ėĘ ĚęęĘ",
      "ĀĀĞ ĀĞ",
      "ęĒ ĕ",
      "ęėĖ ěęęė",
      "ĀĀğ ĀĞ",
      "ęĜě ĘęęĘ",
      "ęėĜ ĚęęĚ",
      "ęęđ ęĜ",
      "ĀĀē ĀĞ",
      "ęęęęĚĘ ĘęęĘ",
      "ĜĚ ęę",
      "ęĜė ęęęė",
      "ĀĀĒ ĀĞ",
      "ęĖě Ěęęě",
      "ę! Ğ",
      "ęĚĝ ėęęě",
      "ĀĀđ ĀĞ",
      "ĘĚ Ĝ",
      "ęĝĘ ęęęĘ",
      "ĀĀĐ Āė",
      "ĝě ęęĞ",
      "ĀĀ$ Āě",
      "ĀĀď ĀĚ",
      "ĀĀĎ ĀĘ",
      "ĀĀĎ ĀĖ",
      "ĀĀĎ ĀĜ",
      "ĀĀ% Āė",
      "ĀĀ& ĀĘ",
      "ĀĀ' Āě",
      "ĘęęęęĘĘ ĚęęĘ",
      "ęęęęęęęęęęęęęĚ ę",
      "ĀĀ- Ā",
      "! Ĕ",
      "\" Ė",
      "Đ ď",
      "đ ęę",
      "ĕ ĀĀ",
      "Ė ĀĀ",
      "Ė ęĜ",
      "ė ěě",
      "ė Ĝęęė",
      "ė ĖĜ",
      "Ę ęęęė",
      "ę ĀĀěĀ",
      "Ě ėęęęę",
      "Ě ĘęęęęĚ",
      "Ě Ĝęęęę",
      "Ě ĖęęĚ",
      "ě ęĚ",
      "ě Ěęęė",
      "ě ęęđ",
      "ě ĝęęĚ",
      "Ĝ ěě",
      "Ĝ ęęęęĚĚ",
      "Ĝ ĀĀęĀ",
      "ĝ Ęęęęę",
      "ĝ Ĝęęě",
      "Ğ #",
      "Ġ ęęęęĚ",
      "Ġ ęĞ",
      "Ġ Āĕ",
      "Ġ ĀĞ",
      "Ġ ęęęĝ",
      "Ġ ĀĀĘĀ",
      "Ġ ĀĀėĀ",
      "ęĚ \"",
      "ęĚ ęęęęęęęęęęęęęęęę",
      "ęĚ ęĕęęęę",
      "ęĘ ęęğ",
      "ęĘ ęĖęęĘ",
      "ęęĚ ėęęĘ",
      "ęęĚ ĕęęĚ",
      "ęęĘ Ĝęęęę",
      "ęě ęęęęęęęę",
      "ęě ęęęě",
      "ęě ěęęĚ",
      "ęě ęęĚę",
      "ęě ęĚęęęęĚ",
      "ęě ęęęęĘĘ",
      "ęě ęěęęĚ",
      "ęė ėęęĘ",
      "ęė ęĘęęęęĘ",
      "ęė ęĜęęęę",
      "ęęęęęęęę ęęęĘęęęęęę",
      "ęęė ĜęęĘ",
      "ęęě ĘęęĜ",
      "ęĜ ĘęęĚ",
      "ęĜ ęĚęęė",
      "ęĜ ęĘęęė",
      "ęĖ Ėęęęę",
      "ęĖ ęĘęęĘ",
      "ęĖ ęĚęęė",
      "ęĖ ęĚęęě",
      "ęęĖ Ęęęęę",
      "ęęĜ ę",
      "ęęĜ ėęęĜ",
      "ęĘęęęę Ěęęęę",
      "ęĘęęęę ęĚĚęęęę",
      "ęĘęęęę ęęĚĘęęęę",
      "ęĘęęęę ęęĚęęęęęę",
      "ęĚęęęę Ěęęęę",
      "ęĚęęęę ęĚĘęęęę",
      "ĘęęĚ ęĖ",
      "ęĘĘ ęęęĜ",
      "ęĘĘ ĘęęĖ",
      "ęĚĘ Ěęęě",
      "ęĚĘ ĘęęĖ",
      "ęĘĚ ęęęĜ",
      "ęĘĚ ĘęęęęĘ",
      "ęĘĚ Ĝęęě",
      "ęęĝ ĘęęĚ",
      "ęęęė ęęė",
      "ęęę $",
      "ęęę %",
      "ěęęęę ě",
      "ěęęęę ęęĚ",
      "ęęĚęęęę ęęĚęęęęę",
      "ęęĞ ę",
      "ęĔ Ęęęęę",
      "ęęĔ ęĖ",
      "ęĘė ĘęęĚ",
      "ęĘė ĚęęĘę",
      "ęěĚ ęęęė",
      "ęĘě ęęęĚę",
      "ęĚė ĘęęĖ",
      "ęĚė ęęęĕ",
      "ęėė ĚęęĚ",
      "ĘęęęęĘ Ěęęęę",
      "Ĝęęęę ěĚ",
      "Ĝęęęę ěě",
      "ĚęęęęĚ ęĘęęęę",
      "ęē ęęĘ",
      "ęėě ęęęĜ",
      "ęėě ěęęě",
      "ęĚĜ ėęęě",
      "ėĚ ğ",
      "ęĜĚ ėęęě",
      "ęĜĚ ĜęęĚ",
      "ęĘęęęęĚ ęęęęęęęę",
      "ęĘĜ ěęęĚ",
      "ęĘĜ ěęęě",
      "ęĘĜ ĘęęĜ",
      "ęĖĘ Ěęęė",
      "ęĖĚ ėęęĚ",
      "ęĜĘ ěęęĘ",
      "ėĘ Ě",
      "ęěĜ ęęęĜ",
      "ęĒ ē",
      "ęĒ ğ",
      "ęėĖ ęęęĖ",
      "ęĜě Ęęęęę",
      "ęėĜ ęęęĚ",
      "ęėĜ ęęęě",
      "ęėĜ ėęęĚ",
      "ęęęęĘĚ Ęęęęę",
      "ĀĀē Āē",
      "ĀĀęĀ ğ",
      "ęęęĘęęĘ Ęęęęę",
      "ėė ĚęęĘ",
      "ĜĚ ĝ",
      "ęĜė ĚęęĘ",
      "ĖĚ ĝ",
      "ĖĘ ęęĔ",
      "ęęęĘęęĚ ĚęęĚ",
      "ĜĘ ęęğ",
      "ę! Ě",
      "ĀĀėĀ Ē",
      "ęĕĚ ęęęĚ",
      "ęĚĝ ęęęĚ",
      "ęĚĝ ęęęě",
      "ęĖĖ ĚęęĘ",
      "ęĖĖ Ěęęė",
      "ĀĀđ ĀĔ",
      "ęĘęĚ ęęĜ",
      "ęęęĞ ęęĘ",
      "ĚĚ Ĝ",
      "Ėė ęęĕ",
      "ěė ĘęęĘ",
      "ęęěęęęę ę",
      "ęėĕ ęęęĘ",
      "ĀĀ\" Āě",
      "ęĕė ĚęęĘ",
      "ĀĀ$ Āė",
      "ĀĀ# ĀĖ",
      "ĞĞ ęęě",
      "ĀĀ% ĀĚ",
      "ĀĀ% Āě",
      "ęėęęęęĘ ę",
      "ĠĚ ęęĞ",
      "ĀĀ' ĀĘ",
      "ęěęĘ ęęĖ",
      "ęĝęęęę ė",
      "ęĘĘěęęĘ ę",
      "ĀĀ, Ā",
      "ĀĀ/ Ā",
      "! $",
      "\" ĕ",
      "# \"",
      "$ Ğ",
      "Ď Ĕ",
      "ď ē",
      "đ ĀĀ",
      "đ ęęē",
      "Ē ĀĀ",
      "Ē ęęĝ",
      "Ĕ ęĜ",
      "Ĕ ĘęęĘ",
      "Ĕ ęęęęĚ",
      "ĕ ęęęĘ",
      "ĕ ėęęĘ",
      "ĕ ęęęęĘĘ",
      "ĕ ęęęęĚĘ",
      "Ė #",
      "Ė $",
      "Ė Ěęęęę",
      "Ė ĚęęĖ",
      "Ė ėě",
      "Ė Ėęęė",
      "ė đ",
      "ė ęęęęęęęę",
      "ė ĘęęĖ",
      "Ę ęęęĖ",
      "Ę ěęęė",
      "Ę ěě",
      "Ę ęęęęęęęęęĚ",
      "Ě \"",
      "Ě ęĚ",
      "Ě ęęęė",
      "Ě ěęęě",
      "Ě ĝęęęę",
      "Ě ĚęęĚę",
      "Ě ĖĜ",
      "ě ĚęęĘ",
      "ě ęėęęęę",
      "ě ĜęęĘ",
      "ě ĖĚ",
      "ě ęę#",
      "Ĝ ę",
      "Ĝ ęĜ",
      "Ĝ ęĘęęęę",
      "Ĝ ęęęĜ",
      "Ĝ ęęęęĘĚ",
      "Ĝ Ĝęęě",
      "ĝ ęę",
      "Ğ ęęęĚ",
      "Ğ ęęęęĚ",
      "Ğ ęęęě",
      "Ğ ĀĀęĀ",
      "ğ ęęĝ",
      "ğ ĀĀĚĀ",
      "Ġ ęė",
      "Ġ ęęęĚ",
      "Ġ ęęĕ",
      "Ġ ęęęě",
      "Ġ Ęęęě",
      "Ġ ĀĀĚĀ",
      "Ġ ĀĀěĀ",
      "ęę '",
      "ęĚ ę",
      "ęĚ ěęęĘ",
      "ęĚ ĖęęĚ",
      "ęĚ ĝęęęę",
      "ęĚ ęěęęęęĚ",
      "ęĘ ę",
      "ęĘ ęęĝ",
      "ęĘ ėęęĚ",
      "ęĘ ęęęęęęęęęęęĘ",
      "ęęĚ ěęęė",
      "ęęĚ ĜęęĘ",
      "ęęĚ ęęęęęęęęęęę",
      "ęęĚ ěęęĜ",
      "ęęĚ ĝęęĚ",
      "ęęĘ ęęęęĘ",
      "ęęĘ ěęęĚ",
      "ęęĘ ęęęĖ",
      "ęęĘ ęęęĚę",
      "ęęĘ ěęęĖ",
      "ęě ęęĖ",
      "ęě ęęęĚę",
      "ęě ęęęęĚĘ",
      "ęě ęĖęęě",
      "ęė ěęęĘ",
      "ęė ęęęĘę",
      "ęė Ěęęęęę",
      "ęė ęěęęě",
      "ęęė ĘęęęęĘ",
      "ęęė ĘęęĖ",
      "ęęě ěęęě",
      "ęęě ĘęęĚę",
      "ęęě ęęęęęęĚ",
      "ęęě ĚęęĚę",
      "Ęęęęę ęęě",
      "Ęęęęę ęĘĘęęęę",
      "ęĜ Đ",
      "ęĜ ęěęęęę",
      "ęĜ ęĖęęĘ",
      "ęĖ ęĘęęęę",
      "ęĖ ęęĕ",
      "ęĖ ěęęęę",
      "ęĖ ęěęęĘ",
      "ęęĖ ęęęĖ",
      "ęęĖ ĖęęĘ",
      "ęęĖ ęęęĕ",
      "ęęĜ ěęęě",
      "ęĘęęęę Ěęęęęęę",
      "ęĝ ęĚęęĚ",
      "ęĕ đ",
      "ęĕ ęĚęęě",
      "ĘęęĘ ęęęę",
      "ęĚĚ ĘęęĜ",
      "ęĘĘ ęęė",
      "ęĘĘ Ęęęě",
      "ęĘĘ ėęęě",
      "ęĘĘ Ėęęęę",
      "ęĘĘ ĘęęĘę",
      "ęĚĘ ęęě",
      "ęĚĘ Ėęęęę",
      "ęĚĘ Ėęęě",
      "ęęĕ ĘęęĘ",
      "ęĘĚ ęęė",
      "ęĘĚ Ėęęě",
      "ęęĝ ę",
      "ęęĝ ęęęě",
      "ęęęė ęęĖ",
      "ęęę Ď",
      "ėęęęę ěě",
      "ęęęęęęęęęęęę ęęęĚęęęęęę",
      "ęęĚęęęę ęęĘę",
      "ęĞ !",
      "ęĞ Ē",
      "ęęĔ ęĕ",
      "ęĚě ĘęęĘ",
      "ęĚě ěęęęę",
      "ęĚě ĚęęęęĚ",
      "ęěĚ Ęęęė",
      "ęěĚ ęęęĜ",
      "ęěĚ ĚęęęęĘ",
      "ęěĚ ęęęĚę",
      "ęěĚ Ėęęě",
      "ęěĘ Ęęęě",
      "ęĚė ĘęęĚ",
      "ęĚė ĚęęĖ",
      "ęėĚ ĘęęĘ",
      "ęėĘ ęęęě",
      "ęėĘ Ĝęęęę",
      "ęėĘ ĚęęĖ",
      "ĀĀě ĀĚĚ",
      "ęęęĘęęęę ęęĚęęęę",
      "ęęęĘęęęę ęęĘęęęę",
      "ęėė ęęęĚ",
      "ęėė ĘęęĖ",
      "ęėė ĚęęĘę",
      "ĘęęęęĚ ĚĚęęęę",
      "ęěęęęę Ė",
      "ęěě ĘęęĘ",
      "ęěě ėęęęę",
      "ęėęęęę Ė",
      "ęėęęęę ęęė",
      "Ėęęęę ěĘ",
      "ęęęĚęęęę ęęĚęęęę",
      "ęėě ĘęęĜ",
      "ěĚ ęęĞ",
      "ęĚĜ ĘęęĘ",
      "ęĚĜ ĘęęĜ",
      "ęĘĘęęęę ęĚĚęęęę",
      "ėĚ ĝ",
      "ęĜĚ Ęęęė",
      "ęĘĜ Ėęęě",
      "ęĚĖ ėęęė",
      "ĀĀĔ Āē",
      "ęĚęęęęĘ ęĚęęęę",
      "ęĖĚ Ęęęęę",
      "ęĘęęęęĘ ęĚęęęę",
      "ęĜĘ ĘęęĚ",
      "ěĘ ėęęĘ",
      "ęęęĕ ęęęę",
      "ęěĜ Ěęęęę",
      "ęěĜ ėęęě",
      "ęĒ ęęĚ",
      "ęĜě ęęęě",
      "ęėĜ ěęęĚ",
      "ęĖė ĚęęĚ",
      "ęĖė Ěęęė",
      "ęęęęĚĘ ęęęĘ",
      "ęěĖ ėęęĘ",
      "ėė ěęęĘ",
      "ĜĚ ęęĞ",
      "ęĜė ėęęĘ",
      "ĀĀĒ Āē",
      "ęĖě Ęęęě",
      "ęĖě ěęęě",
      "ĖĚ ęęĔ",
      "ĖĚ ęęē",
      "ęęęĘęęĚ ęęęĘ",
      "ęęęĚęęĚ Ěęęęę",
      "ęĕĚ ĘęęĚ",
      "ęĕĚ ĚęęĚ",
      "ęĚĝ ĚęęĚ",
      "ęĖĖ ęęęė",
      "ęĝĚ ęęęĚ",
      "ęĚęĘ ęęęęęęęęęęę",
      "ĘĚ ęęĝ",
      "ĘĚ ęęē",
      "ęĘĝ ęęęĚ",
      "ęĘĝ ęęęĜ",
      "ęĚĘęęęĘ ęęęęęęęę",
      "ęĚĕ ęęęė",
      "Ėĝ ęęĖ",
      "ęĘęĘ ęęĜ",
      "ęĖĜ ęęęĚ",
      "ĀĀ# Āě",
      "ĀĀ# Āė",
      "ĀĀ# ĀĜ",
      "ĀĀ# ĀĔ",
      "ĀĀď ĀĜ",
      "ĚĘ ęęĞ",
      "ęěĕ ęęęė",
      "Ĕě ęęĔ",
      "ĔĚ ęęĔ",
      "ĔĚ ęęē",
      "ğĜ ęęĜ",
      "ĀĀĘĀĚ Ę",
      "ęĚĔ ęęęė",
      "ĀĀ& Āė",
      "ęęęęęęęęĚ ęĚęęęę",
      "# #",
      "$ ĀĀ",
      "% !",
      "% Ĝ",
      "Ā ğ",
      "Ď ĕ",
      "Đ ęęė",
      "Đ ęęĜ",
      "ē ęęē",
      "ē ęę\"",
      "Ĕ !",
      "ĕ ē",
      "ĕ ěęęĘ",
      "ĕ Ęęęė",
      "ĕ ęęęĕ",
      "ĕ ęęęęĚĚ",
      "ĕ ĕě",
      "Ė ď",
      "Ė Ęęęě",
      "Ė ęęĒ",
      "ė Ď",
      "ė ē",
      "ė Ęęęě",
      "ė ěęęĚ",
      "ė ĚęęęęĚ",
      "ė ėęęė",
      "ė ĚęęĘę",
      "ė ęę\"",
      "ė ĔęęĘ",
      "ė ĞĞ",
      "Ę \"",
      "Ę ď",
      "Ę ęĝ",
      "Ę ėęęě",
      "Ę ĘĚ",
      "ę ĀĀĖĀ",
      "Ě ěęęĘ",
      "Ě ėęęĘ",
      "Ě ėė",
      "Ě Ĝě",
      "Ě Ėĝ",
      "Ě Ĕė",
      "ě ęęęĝ",
      "ě ĖĜ",
      "Ĝ Đ",
      "Ĝ ęę",
      "Ĝ ĚęęĘ",
      "Ĝ ĘęęĘ",
      "Ĝ ĖęęĚ",
      "Ĝ ĜĚ",
      "ĝ ęĚ",
      "ĝ ęęęĚ",
      "Ğ ĚęęĚ",
      "Ğ ęęęęĘ",
      "Ğ ęęĔ",
      "Ğ ėęęě",
      "Ğ ĀĀĘĀ",
      "ğ Ē",
      "Ġ %",
      "Ġ ęĕ",
      "Ġ ĚęęĚ",
      "Ġ Ęęęĝ",
      "Ġ ĀĀĜĀ",
      "Ġ ĀĀėĀĘ",
      "ęĚ ĘęęĘ",
      "ęĚ ęěęęě",
      "ęĚ ęĖęęė",
      "ęĘ \"",
      "ęĘ ęěęęęęĚ",
      "ęĘ ęĝęęęę",
      "ęęĘ Ě",
      "ęęĘ ęęęęęęęęęęę",
      "ęě ęĚęęě",
      "ęė Đ",
      "ęė ęęĝ",
      "ęė ęĘęęė",
      "ęė ęĘęęĜ",
      "ęęęęęęęę ęĘęęęę",
      "ęęě ęęĚ",
      "ęęě ęęęĘ",
      "Ęęęęę ęęĚęęęęęę",
      "Ěęęęę Ė",
      "Ěęęęę ęęĚęęęęęę",
      "ęĜ đ",
      "ęĜ ėęęĚ",
      "ęĖ ęěęęęę",
      "ęĖ ęĜęęęę",
      "ęęĖ ěęęė",
      "ęęĜ ęęęĜ",
      "ęęĜ ĘęęĜ",
      "ęęĜ Ėęęě",
      "ęĘęęęę ęęĚĚęęęę",
      "ęĚęęęę ęęĚĚęęęę",
      "ęĚęęęę ęęĚĘęęęę",
      "ęĚęęęę ĚęęęęęęĘ",
      "ęĝ ęėęęĘ",
      "ęĝ ęėęęĚ",
      "ĚęęĘ ęęęęęęęę",
      "ęĚĚ ĘęęĖ",
      "ęĚĚ ěęęęęĘ",
      "ęęęęĚ Ęęęęę",
      "ęĘĘ ěęęě",
      "ęĘĘ ėęęė",
      "ęĘĘ ėęęęęĚ",
      "ęęĕ ęĝ",
      "ęęĕ ĚęęĖ",
      "ęĘĚ Ęęęė",
      "ęĘĚ ĝęęęę",
      "ęĘĚ ęęęĚęęĘ",
      "ęęĝ ęęęĚ",
      "ęęĝ Ěęęě",
      "ęęĝ ĘęęĜ",
      "ęĚě ęęęĘ",
      "ęĚě ėęęĘ",
      "ęĚě ĘęęĜ",
      "ęĘė Ęęęě",
      "ęěĚ ĘęęęęĘ",
      "ęěĚ ěęęě",
      "ęěĚ ĕęęęę",
      "ĀĀĚ ĀĚĘ",
      "ęěĘ Ėęęęę",
      "ęĚė ĜęęĘ",
      "ĀĀė ĀĚĚ",
      "ęėĚ ěęęĘ",
      "ęėĚ ĚęęĚę",
      "ęğ ē",
      "ęėė ĝęęĘ",
      "ĘęęęęĘ Ęęęęę",
      "ęěě ęęęĜ",
      "ĚęęęęĚ ęĚęęęę",
      "ĚęęęęĚ ĚĘęęęę",
      "ęē ē",
      "ęē ğ",
      "ęęęĚęęęę ęęĘęęęę",
      "ęęęĚęęęę ęęĘę",
      "ęėě ĖęęĚ",
      "ėĚ ě",
      "ėĚ ěęęęę",
      "ęęĒ ę",
      "ęĜĚ ĚęęĘ",
      "ęĜĚ Ėęęęę",
      "ęĘĜ ėęęě",
      "ęĘĜ ĚęęĜ",
      "ęĘĜ ėęęĜ",
      "ęĖĘ ĘęęĚ",
      "ęĖĘ ęęęė",
      "ęĖĘ ĜęęĘ",
      "ęĚĖ ėęęĘ",
      "ęĚĖ ĚęęĖ",
      "ęĖĚ ęęęĘ",
      "ęĖĚ ĚęęĘ",
      "ęĖĚ ěęęĚ",
      "ėĘ ĘęęĘ",
      "ęĘĚęęęę ęęĘęęęę",
      "ěĘ ě",
      "ěĘ Ĝ",
      "ěě ęęęĚ",
      "ęěĜ ĚęęĘ",
      "ęěĜ ėęęĚ",
      "ęěĜ ĖęęĚ",
      "ęěĜ ĘęęĜ",
      "ęĒ Ğ",
      "ęęęĝ ę",
      "ęėĜ Ęęęě",
      "ęęęęĘĚ ęęęĚ",
      "ęęęęĘĚ ĚęęĚ",
      "ęĖė ěęęė",
      "ęěĖ ęęęĘ",
      "ėė Ęęęęę",
      "ĀĀĘĀ Ē",
      "ęĖě ęęęĜ",
      "ęĜĜ ęęęĜ",
      "ęĖęęęę ě",
      "ęĖęęęę ęę",
      "ęđ Ě",
      "ĀĀěĀ đ",
      "ėĜ ęęĕ",
      "ęĖĖ ĘęęĘ",
      "ĘĚ ě",
      "ęĘęĚ ęęĖ",
      "ęĘĝ ęęęě",
      "ęĕĘ ĘęęĘ",
      "ęĕĘ ěęęĚ",
      "Ėě ęęĔ",
      "ĚĚ ęęğ",
      "ěė ęęĝ",
      "ĀĀĐ ĀĜ",
      "ĀĀĐ ĀĞ",
      "ęėĕ ĚęęĘ",
      "ĀĀ\" ĀĜ",
      "ĀĀ\" ĀĞ",
      "ęęėęęęę ęęĚęęęę",
      "ęĘęĘ ęęĘę",
      "ęĜĖ ęęęĘ",
      "ęĕė ĘęęĘ",
      "ěĞ ęęęę",
      "ĀĀ$ ĀĖ",
      "ĀĀ$ ĀĜ",
      "ĀĀ$ Āĕ",
      "ĀĀ# ĀĚ",
      "ĀĀ# Āĝ",
      "ęěĕ ęęęĘ",
      "ęěĕ ĘęęĖ",
      "ĚęęęĚ ęęęęęęęę",
      "ĔĘ ęęĔ",
      "ėĖ ĚęęĘ",
      "ĖĖ ęęĕ",
      "ęęęęęęęęĚ ęęęęęęęęęęęęę",
      "ĚĜ ęęĜ",
      "Ěĝ ğ",
      "ęĚęęęęęęęę Ěęęęę",
      "ĘęęęęĚĘ ĚęęĘ",
      "! ē",
      "! ęęęę",
      "! ĀĀėĀ",
      "\" ęęĘ",
      "\" ęęĜ",
      "# ĀĀ",
      "% ğ",
      "Ā #",
      "Ď Ğ",
      "ď \"",
      "đ ęęĖ",
      "đ ęęĕ",
      "đ ęęĞ",
      "Ē Ėęęė",
      "ē ĘęęĘ",
      "ē ěęęĖ",
      "Ĕ ę",
      "Ĕ ęęē",
      "ĕ ęě",
      "ĕ Ěęęě",
      "ĕ Ėęęė",
      "ĕ ĝě",
      "ĕ Ėĝ",
      "Ė ĕęęęę",
      "Ė ĞĞ",
      "Ė !ğ",
      "ė ęĝ",
      "ė ĚęęĚ",
      "ė ęęęě",
      "ė ęĚęęĚ",
      "ė ęęęĕ",
      "ė ĕęęęę",
      "ė Ėęęė",
      "Ę Ė",
      "Ę ęęęě",
      "Ę ěęęě",
      "Ę ĖęęĘ",
      "Ę Ĝě",
      "Ę ĖĜ",
      "ę ĀĀĘĀĚ",
      "ę ĀĀĝĀ",
      "Ě ęĞ",
      "Ě ęęęęęęęęęęęęęęęę",
      "Ě ĘęęĜ",
      "Ě ĝęęĚ",
      "ě Ē",
      "ě ęęęė",
      "ě Ėęęęę",
      "ě ęĘęęęęĚ",
      "Ĝ ď",
      "Ĝ ěęęęę",
      "Ĝ ĚęęĖ",
      "Ĝ ĔęęĚ",
      "ĝ ę",
      "ĝ ěęęĚ",
      "ĝ ęęęĜ",
      "ĝ ęęĚę",
      "ĝ ęęĘę",
      "ĝ Ĝęęęę",
      "ĝ ĜęęĚ",
      "ĝ ĞęęĚ",
      "Ğ ęęĞ",
      "Ğ ĀĀėĀ",
      "ğ ęęĕ",
      "ğ ĝě",
      "Ġ đ",
      "Ġ ęĚ",
      "Ġ ęĜ",
      "Ġ ęĖ",
      "Ġ ęĝ",
      "Ġ ęĔ",
      "Ġ ěęęě",
      "Ġ Āē",
      "Ġ ĚęęĜ",
      "Ġ Ĝęęě",
      "Ġ ĀĀĚĀė",
      "ęęęę ė",
      "ęĚ ęęğ",
      "ęĚ ĜęęĚ",
      "ęĚ ęęęęęęęęęęęęęęęęęęę",
      "ęĘ Đ",
      "ęĘ ęĝ",
      "ęĘ ęęĞ",
      "ęęĚ Ėęęě",
      "ęęĚ ėęęĚę",
      "ęęĘ ęęě",
      "ęęĘ Ěęęě",
      "ęęĘ ėęęě",
      "ęęĘ ėęęĖ",
      "ęě ęĜ",
      "ęě ęęĘę",
      "ęě ęěęęė",
      "ęė ęĝ",
      "ęė ęęĞ",
      "ęė ęĚęęĚę",
      "ęė ęĝęęĚ",
      "ęęęęęęęę ęęęĘęęęę",
      "ęęė ėęęęę",
      "ęęė ěęęĖ",
      "ęęė ĕęęĘ",
      "ęęě ěęęĘ",
      "ęęě ęęęęęęĘ",
      "Ęęęęę Ė",
      "Ěęęęę ěĚ",
      "ęęęĚ Ěęęęę",
      "ęęęĚ ęęęęĚĚ",
      "ęĜ ęĚęęęę",
      "ęĜ ęěęęĘ",
      "ęĜ ęėęęě",
      "ęĖ ęĜ",
      "ęĖ ĘęęĘ",
      "ęęĖ ěęęĖ",
      "ęęĜ ĖęęĚ",
      "ęĚęęęę ĘęęęęęęĘ",
      "ęĝ #",
      "ęĚĚ ė",
      "ęĚĚ Ęęęė",
      "ęĚĚ ěęęė",
      "ęĚĚ ęęęĚęęĘ",
      "ęĚĚ ĘęęęęĘĘ",
      "ęĘĘ ęęęęęęęę",
      "ęĘĘ ęęęĘęęĘ",
      "ęĚĘ ěęęĖ",
      "ęĚĘ ėęęęęĘ",
      "ęęĕ Ěęęė",
      "ęĘĚ ĚęęĜ",
      "ęęĝ Ęęęě",
      "ęęĝ ęęęĝ",
      "ęęęě ęęĚęęęĚ",
      "ėęęęę Ĝ",
      "ěęęęę ěĘ",
      "ęęęęęęęęęęęę ęęęĘ",
      "ęęĚęęęę ęĚęęęęęę",
      "ęęĚęęęę ęĘęęęęęę",
      "ęęĚęęęę ęęĘęęęęę",
      "ęĞ ęęė",
      "ęęĘęęęę ęęĘęęęęęęĘ",
      "ęĔ ęęě",
      "ęęĔ ęęęė",
      "ĀĀę ĀĚĘ",
      "ęĚě ėęęĜ",
      "ęĚě ěęęĜ",
      "ęĚě Ęęęĝ",
      "ęěĚ ęęě",
      "ęěĚ Ĝęęęę",
      "ęěĚ ĜęęĚ",
      "ęěĚ ĚęęĜ",
      "ęěĚ ĕęęĚ",
      "ęĘě ĘęęĘ",
      "ęĘě ęęęĝ",
      "ęĘě Ĝęęě",
      "ęĘě ĝęęĚ",
      "ęěĘ ĖęęĚ",
      "ęĚė Ėęęė",
      "ęėĚ ĜęęĘ",
      "ęėĚ Ėęęě",
      "ęėĘ ėęęė",
      "ęėĘ ĖęęĘ",
      "ęėĘ ĜęęĚ",
      "ęėĘ ĘęęĖ",
      "ęėĘ ěęęĖ",
      "ęėĘ ĚęęĘę",
      "ęęē ę",
      "ęęğ ę",
      "ęęęĘęęęę ęĘęęęę",
      "ęęęĘęęęę Ęęęęęęę",
      "ęėė ěęęęę",
      "ęėė ęęęĖ",
      "ęėė ĖęęĘ",
      "ĘęęęęĚ ĚĘęęęę",
      "ĘęęęęĘ ęĚęęęę",
      "ĘęęęęĘ ęĘęęĚ",
      "ęęĚęęęĚ ęĚęęęęęę",
      "ęěě ĚęęĘ",
      "ęěě ĘęęĜ",
      "ęėęęęę Ĝ",
      "ęęęĚęęęę ęęĚę",
      "ęěė ĜęęĘ",
      "ęěė ėęęė",
      "ęėě ęęęĘ",
      "ęĚĚęęęę ęĚĚęęęę",
      "ěĚ ĚęęĚ",
      "ěĚ ėęęęę",
      "ęĚĜ ěęęĚ",
      "ęĚĜ Ęęęĝ",
      "ėĚ Ě",
      "ėĚ Ęęęęę",
      "ęęĒ ęęĚ",
      "ęĜĚ Ęęęęę",
      "ęĘĖ ĜęęĘ",
      "ęĘĖ ěęęĖ",
      "ęĘĜ ĜęęĚ",
      "ęĖĘ Ęęęęę",
      "ęĖĘ ěęęĚ",
      "ęĖĚ Ěęęė",
      "ęĖĚ ěęęě",
      "ęĜĘ ėęęęę",
      "ėĘ ěęęęę",
      "ėĘ ęęĔ",
      "ĀĀĞ ĀĔ",
      "ěě ĘęęĚ",
      "ęěĜ Ęęęęę",
      "ęěĜ ęęęĘ",
      "ęęęĝ ęęęę",
      "ėě ęęē",
      "ĕęęęę ě",
      "ĀĀğ Āē",
      "ęĜě ěęęĚ",
      "ęĜě ėęęě",
      "ęėĜ ėęęě",
      "ęĖė Ěęęęę",
      "ęĖė Ęęęė",
      "ęĖė ĖęęĘ",
      "ęěĖ ěęęĘ",
      "ęěĖ ęęęĖ",
      "ėė Ĝ",
      "ėė ęęęĘ",
      "ęĖě ęęęě",
      "ęĖě ěęęĚ",
      "ęĜĜ Ěęęě",
      "ęęęĘęęĚ ęęęęęęęę",
      "ęęęĘęęĚ Ěęęęę",
      "ĀĀ! ĀĞ",
      "ĀĀ! Āē",
      "ĕĚ !",
      "ęĚĝ Ęęęě",
      "ęĚĝ ęęęĜ",
      "ęĚĝ ĘęęĜ",
      "ęĘĕ Ěęęė",
      "ęĘĕ ěęęė",
      "ĀĀěĀ ğ",
      "ėĜ Ĝ",
      "ěĜ ĝ",
      "ęĘĝ ėęęě",
      "ęĕĘ ĚęęĘ",
      "ĝĚ ęę",
      "ĝĚ ęę!",
      "ĕĘ ęęē",
      "ěė ęęęĘ",
      "ĀĀĐ Āĝ",
      "ĝě ęę",
      "ęěĝ ėęęĚ",
      "ĀĀ\" Āĕ",
      "ĀĀ\" Āĝ",
      "ĀĀ\" ĀĔ",
      "ęĚęĚ ęęĖ",
      "Ėĝ ęęĕ",
      "ęęėęęęę ę",
      "ęĘęĘ ęęęęęęęęęęę",
      "ĕě ęęĔ",
      "ĀĀď ĀĖ",
      "ĀĀď Āĕ",
      "ěĝ ęęě",
      "ęėĝ ĘęęĜ",
      "ĚĘ Ğ",
      "ęĕě ęęęĚ",
      "ĀĀĎ ĀĔ",
      "ęęęęęęęęęĚ ęęęęęęęęęęęę",
      "ęĘęęęęęęĚ ęĘęęęę",
      "ėĖ ęęĕ",
      "ęĕĖ Ěęęė",
      "ĀĀ% ĀĖ",
      "ęĚěęęęę ę",
      "ğĚ ęęğ",
      "ęĜĕ Ęęęė",
      "ĀĀ& ĀĜ",
      "ĀĀ& Āĝ",
      "ęěĞ ęęęě",
      "ĀĀ' ĀĜ",
      "ĀĀ' Āĝ",
      "ğĝ ęęĜ",
      "ēė ęęĔ",
      "ēĚ ęęĔ",
      "ęĝĖ ęęęė",
      "ęěęĘ ęęĚę",
      "ęěęĘ ęęĘę",
      "ĠĘ ęęğ",
      "ĔĖ ęęĔ",
      "ęęęęęęęęĘ ęĘęęęę",
      "ęęęęęęęęĘ ęĚęęęę",
      "ĀĀ( ĀĘ",
      "ęĘęęęęęęęę Ęęęęę",
      "ĚęęęęĘĚ ĘęęĚ",
      "ĀĀ) ĀĘ",
      "ęęęęęęęęęęęęęęęęęęęęęęęęęęęęęęęę ę",
      "ęęęęęęęęęęęęęĘ ę",
      "\" ĀĀěĀ",
      "% ĕ",
      "Ď Ĝ",
      "Đ $",
      "Đ Ď",
      "Đ đ",
      "Đ ĀĀ",
      "đ ęęĔ",
      "Ē ěĞ",
      "Ĕ Đ",
      "Ĕ ē",
      "Ĕ ĀĀ",
      "Ĕ ęęęĖ",
      "Ĕ ęęĒ",
      "Ĕ ěĜ",
      "Ĕ ěĝ",
      "ĕ Ęęęęę",
      "ĕ ęĜ",
      "ĕ ĖęęĘ",
      "ĕ ĘęęĖ",
      "ĕ Ĝęęė",
      "ĕ ĀĀĘĀ",
      "Ė \"",
      "Ė %",
      "Ė ėĚ",
      "Ė ęęęĕ",
      "Ė ęę\"",
      "Ė ĕęęė",
      "ė ěĚ",
      "ė ĖĚ",
      "ė ĝęęė",
      "Ę !",
      "Ę ē",
      "Ę ĀĀ",
      "Ę ęě",
      "Ę ęĞ",
      "Ę Ęęęě",
      "Ę ėě",
      "Ę ęę\"",
      "Ę ĘęęĘę",
      "Ę ěĞ",
      "Ę ěĝ",
      "Ę ğĞ",
      "Ę ěğ",
      "Ę ęęęęęęęęęęęęĚ",
      "ę ĀĀęĀě",
      "ę ĀĀėĀĘ",
      "Ě ęĜ",
      "Ě ęęęĜ",
      "Ě ĖĘ",
      "Ě ĘęęĚę",
      "Ě ĝě",
      "Ě ĜĜ",
      "Ě ęęęęęęęęęĘ",
      "ě ęĝ",
      "ě Ęęęė",
      "ě ęęęęęęęęęęę",
      "ě ėĜ",
      "ě ęęęĞ",
      "Ĝ đ",
      "Ĝ ėęęęę",
      "Ĝ ėęęĘ",
      "Ĝ ĚęęĜ",
      "Ĝ ęęđ",
      "Ĝ ĕĚ",
      "ĝ ėęęĚ",
      "ĝ ěęęě",
      "ĝ ĘęęĜ",
      "ĝ ęęęęĚĘ",
      "ĝ ĀĀėĀ",
      "ĝ ęęęĞ",
      "Ğ ĘęęĚ",
      "Ğ ĀĀĚĀ",
      "Ğ ĀĀĘĀĚ",
      "ğ \"",
      "ğ $",
      "ğ ĀĀĘĀ",
      "ğ ĀĀĖĀ",
      "Ġ &",
      "Ġ (",
      "Ġ ęęğ",
      "Ġ ĀĔ",
      "Ġ ėęęĜ",
      "Ġ ĀĀĖĀ",
      "Ġ ĀĀĕĀ",
      "Ġ Ěęęĝ",
      "Ġ ĀĀęĀė",
      "ęęęę ęęĜ",
      "ęęęę ęęĕ",
      "ęĚ ėęęĚę",
      "ęĚ ęĝęęĘ",
      "ęĚ ęĕęęĚ",
      "ęĚ ęęęęęęęęęęęęęęęęęęęęęęęęęęę",
      "ęĘ ęĕ",
      "ęĘ ĝęęęę",
      "ęĘ ĝęęĘ",
      "ęĘ ęėęęęęĚ",
      "ęĘ ęėęęęęĘ",
      "ęĘ ęĖęęĚ",
      "ęęĚ ęęęęĘ",
      "ęęĚ Ėęęęę",
      "ęęĚ ėęęĜ",
      "ęęĘ ęęęě",
      "ęęĘ ĖęęĚ",
      "ęęĘ ĝęęĘ",
      "ĀĀ Ć",
      "ęě $",
      "ęě ď",
      "ęě ęĕ",
      "ęě Ėęęęę",
      "ęě ęĚęęęęĘ",
      "ęě ęĜęęĘ",
      "ęě ęĕęęęę",
      "ęě ęėęęė",
      "ęě ęĚęęĖ",
      "ęė ęĕ",
      "ęė Ěęęė",
      "ęė ęęęęĚĘ",
      "ęė ęĝęęęę",
      "ęęęęęęęę ęĚĚęęęę",
      "ęęė ęęě",
      "ęęė ĚęęęęĘ",
      "ęęě ėęęĜ",
      "Ęęęęę ęęĘęęęęęę",
      "Ěęęęę ęęęĘęęęę",
      "Ěęęęę ęęĘĘęęęę",
      "Ěęęęę ęęĘęęęęęę",
      "ęęęĘ ęęęęĚĚ",
      "ęęęĘ ęęęęĚĘ",
      "ęĜ ęĕ",
      "ęĜ ęęęęęęĘ",
      "ęĜ Ěęęęęę",
      "ęĜ ęěęęĚ",
      "ęĜ ęĚęęě",
      "ęĜ ęėęęė",
      "ęĖ ę",
      "ęĖ ĚęęĘ",
      "ęĖ ęĚęęęęĘ",
      "ęĖ ęėęęĚ",
      "ęĖ ęěęęĚ",
      "ęĖ ęĜęęĘ",
      "ęęĜ ěęęĘ",
      "ęęĜ ĜęęĚ",
      "ęęĜ ĚęęĜ",
      "ęĘęęęę ęęĜ",
      "ęĘęęęę ęęĘĘęęęę",
      "ęĘęęęę ęęęĚęęęęę",
      "ęĚęęęę ęęĚęęęęęę",
      "ęĝ ęĘęęęę",
      "ęĕ ęěęęĚ",
      "ęĚĚ ĚęęęęĚ",
      "ęĚĚ ĜęęĘ",
      "ęĚĚ ęęęĚęęĚ",
      "ęĚĚ ėęęęęĘĘ",
      "ęĘĘ ęęęęęęęęęęę",
      "ęĘĘ ĚęęĖ",
      "ęĘĘ Ĝęęė",
      "ęĘĘ ĕęęĚ",
      "ęĘĘ ĝęęė",
      "ęĚĘ ĜęęĚ",
      "ęĚĘ ęęęĕ",
      "ęĚĘ ěęęęęĘ",
      "ęęĕ ęęĚ",
      "ęęĕ ėęęĘ",
      "ęęĕ ęęęĖ",
      "ęĘĚ Ėęęęę",
      "ęĘĚ ĘęęĖ",
      "ęĘĚ ĚęęĖ",
      "ęĘĚ ĕęęĚ",
      "ęęęě ęĕ",
      "ėęęęę ęęě",
      "ěęęęę ęę",
      "ęęęęęęęęęęęę ęĚęęęęęę",
      "ęęĚęęęę ęĚĚęęęę",
      "ęęĚęęęę ęĘĘęęęę",
      "ęęĘęęęę ęęė",
      "ęęĘęęęę ęęęĚęęęę",
      "ęęĞ ęęęě",
      "ęęĞ Ěęęě",
      "ęĔ đ",
      "ęĔ ęęęęĚ",
      "ęĘė ęęęě",
      "ęĘė ėęęĚ",
      "ęĘė ěęęĚ",
      "ęĘė ĚęęĖ",
      "ęěĚ ěęęĘ",
      "ęěĚ ĘęęĜ",
      "ęĘě Ėęęě",
      "ęĘě ěęęĜ",
      "ęěĘ ěęęęę",
      "ęěĘ Ėęęė",
      "ęěĘ ěęęĖ",
      "ęěĘ ĘęęĘę",
      "ęĚė ĚęęĚ",
      "ęĚė ĕęęĘ",
      "ęĚė ĝęęĘ",
      "ęėĚ ĚęęęęĘ",
      "ęėĘ Ęęęě",
      "ęėĘ ĚęęęęĘ",
      "ęėĘ Ėęęě",
      "ęğ !",
      "ęğ \"",
      "ęğ ęęĚ",
      "ęęęęęęęęęęęęęęęę ęęĚ",
      "ęęęĘęęęę ęĘĚęęęę",
      "ęėė ėęęė",
      "ęėė ęęęĘę",
      "ĘęęęęĚ Ęęęęę",
      "ĘęęęęĚ ęĘęęęę",
      "ĘęęęęĚ ęĚęęęę",
      "ęęĚęęęĚ ęęĘęęęę",
      "ėęęě ę",
      "ęěęęęę ę",
      "ęěęęęę ęęęĚ",
      "ęěęęęę ĘęęĚ",
      "ęěęęęę ęęĚęęęę",
      "ęěě ęęęė",
      "ęěě ĘęęęęĘ",
      "ęėęęęę ęęęĘ",
      "ęē ęęĚ",
      "ęē ęęě",
      "ęěė ėęęĚ",
      "ęėě Ęęęęę",
      "ęėě ėęęě",
      "ĀĀĕ Āē",
      "ěĚ Ę",
      "ėĚ ęęĝ",
      "ėĚ ęęĔ",
      "ėĚ ěęęĚ",
      "ėĚ ęęē",
      "ęęĒ ęĝ",
      "ęĜĚ ěęęęę",
      "ęĜĚ ěęęĘ",
      "ęĘĖ ĘęęĖ",
      "ęĘĜ ęęęĘ",
      "ęĘĜ Ĝęęě",
      "ęĖĘ Ěęęě",
      "ęĚĖ ĘęęĖ",
      "ęĚĖ ėęęĖ",
      "ęĚęęęęĚ ęĚęęęę",
      "ęĖĚ ĜęęĚ",
      "ęĘęęęęĘ ęĚęęęęĚ",
      "ěĘ ĝ",
      "ěĘ Ğ",
      "ěĘ ęę",
      "ěĘ ĚęęĘ",
      "ěě ėęęĚ",
      "ęěĜ ĘęęĘ",
      "ęěĜ Ėęęě",
      "ęĒ ęęĘ",
      "ęęĘęęęĘ ęęĚęęęĚ",
      "ęęęĝ ęęĚ",
      "ęęęĝ ęęĘ",
      "ėě ĘęęĚ",
      "ėě ěęęĚ",
      "ęėĖ Ěęęęę",
      "ęėĖ ėęęĘ",
      "ĕęęęę ěĘ",
      "ęĜě ėęęęę",
      "ęĜě ĖęęĚ",
      "ęėĜ ěęęě",
      "ęėĜ ěęęĜ",
      "ęęęęĘĚ ěęęĚ",
      "ęęđ ęĝ",
      "ęęęęĚĚ ěęęęę",
      "ęęęęĚĚ ėęęĚ",
      "ęĖė ęęęĚ",
      "ęěĖ ĘęęĖ",
      "ėė ęęĕ",
      "ĀĀĘĀ !",
      "ĜĚ Ĝ",
      "ĀĀĒ ĀĔ",
      "ĖĚ ě",
      "ĖĘ ęęęĘ",
      "ĖĘ ęęē",
      "ęĜĜ ĚęęĚ",
      "ęĜĜ ęęęě",
      "ęęęĘęęĚ ĘęęĚ",
      "ĜĘ Ĝ",
      "ęĖęęęę ęęĘ",
      "ęęęĚęęĘ ĚęęĘ",
      "ęđ Ė",
      "ęĕĚ ėęęĚ",
      "Ĝě Ĝ",
      "Ĝě ęęęĚ",
      "Ĝě ĘęęĚ",
      "ęĚĝ ěęęĚ",
      "ęĚĝ ěęęě",
      "ęęęęęęĘ ęęĘ",
      "ęĘĕ ĘęęĘ",
      "ęĘĕ ęęęĖ",
      "ėĜ ęęĔ",
      "ęĖĖ ėęęĘ",
      "ęĝĚ ĘęęĚ",
      "ęĝĚ ęęęě",
      "ęęęęęęĚ ęęĘ",
      "ęĘĝ ĚęęĜ",
      "ęĕĘ Ěęęęę",
      "ęĕĘ ęęęĚ",
      "ęĚĕ ĚęęĘ",
      "ęĚĕ Ěęęė",
      "ĀĀĖĀ Ē",
      "ĚĚ Ě",
      "ĚĚ ĝ",
      "ĚĚ ęęĝ",
      "ĝĚ ęęğ",
      "ęĝĘ ĚęęĘ",
      "ęĝĘ ĘęęĘ",
      "ĕĘ ě",
      "ęęęĔ ęęĘ",
      "ěė ĚęęĘ",
      "ěė ęęĞ",
      "ĜĜ ęęĝ",
      "ęěĝ ĚęęĚ",
      "ęĝě ĘęęĚ",
      "ęĝě ęęęě",
      "ĘĘ Ĝ",
      "ĘĘ ĝ",
      "ĘĘ ęęĕ",
      "ĘĘ ęęĞ",
      "ęėĕ ęęęė",
      "ęĚęĚ ęęęęęęęę",
      "ęĚęĚ ęęęęęęęęęęę",
      "ęĜĖ Ěęęė",
      "ęĜĖ ęęęĖ",
      "ę\" Ě",
      "ĕě ęęē",
      "ęĖĜ ĚęęĚ",
      "ęĖĜ ęęęě",
      "ěĞ ęęě",
      "ęĝė ęęęė",
      "ĀĀ$ ĀĞ",
      "ĀĀĕĀ Ē",
      "ĀĀď Āě",
      "ęęĘĘęęĘ ęęęęęęęę",
      "ĚĘ Ĝ",
      "ęĜĝ ęęęĚ",
      "ęĜĝ ęęęě",
      "ęĜĝ Ęęęě",
      "ęĕě ĚęęĚ",
      "ęĕě ęęęě",
      "ęęęęęęęęęĚ ęęęĚ",
      "ęęęęęęęęęĚ ęęęĚę",
      "ęĚęęęęęęĚ ĚęęęĚ",
      "ĝĜ ęęĜ",
      "ęĚĞ ęęęę",
      "ĀĀ% ĀĘ",
      "ĕĜ !",
      "ęęęęęęęęęęęĘ ęĚęęęę",
      "ĠĚ ęęğ",
      "ĀĀ' ĀĔ",
      "ęĘěęęęę ę",
      "ęĘęęęęęęęę Ěęęęę",
      "ĀĀđĀ ğ",
      "ęĘęě ęęĘę",
      "ėęęęęĚĘ ĘęęĘ",
      "ĀĀ. Ā",
      "! ęęĕ",
      "! ĀĀĘĀĖ",
      "\" %",
      "\" ęęęę",
      "\" ęęė",
      "\" ĀĀĘĀ",
      "# ę",
      "# ĀĀĚĀ",
      "% ĝ",
      "% ĀĀęĀ",
      "& !",
      "' ě",
      "Ď ęęĘ",
      "Ď ęęě",
      "Đ ęę",
      "đ Ď",
      "Ē $",
      "Ē ęęğ",
      "Ē Ĝęęĕ",
      "ē ď",
      "ē ėęęęę",
      "ē Ęęęė",
      "ē Ĝęęė",
      "ē Ėęęė",
      "ē Ĝĝ",
      "Ĕ ęęĘę",
      "Ĕ ėęęė",
      "Ĕ ĕĘ",
      "Ĕ Ĝĝ",
      "ĕ ĚęęĖ",
      "ĕ ėě",
      "ĕ ęę\"",
      "ĕ ĕęęė",
      "ĕ ğĞ",
      "Ė Ď",
      "Ė ęĚ",
      "Ė ěęęĚ",
      "Ė ęĚęęĚ",
      "Ė ęęđ",
      "Ė ĕĚ",
      "Ė Ĝĝ",
      "Ė ğĞ",
      "ė ĖęęĚ",
      "ė ęęđ",
      "ė ėęęĖ",
      "ė Ĝě",
      "ė ĞĜ",
      "Ę '",
      "Ę Đ",
      "Ę ėęęĚ",
      "Ę ĚęęĖ",
      "Ę ęęđ",
      "Ę ėĜ",
      "Ę ěĜ",
      "Ę Ėě",
      "Ę Ėė",
      "Ę ĝĜ",
      "Ę Ĕęęė",
      "Ę ĝĝ",
      "ę ĀĀĚĀ",
      "ę ĀĀĘĀĘ",
      "ę ĀĀĚĀĖ",
      "Ě ėęęě",
      "Ě ĚęęęęĘ",
      "Ě ĜęęĚ",
      "Ě Ėęęě",
      "Ě ĖĚ",
      "Ě ĘĚ",
      "Ě ęęĐ",
      "Ě ěĞ",
      "Ě ěĝ",
      "Ě ėĝ",
      "Ě Ĕě",
      "Ě ĝĜ",
      "Ě ęęęęęęęęęęęęęęęęęę",
      "Ě ęęęęęęęęęęęęęęęęęęę",
      "Ě Ğĝ",
      "Ě ėę",
      "ě ęęęęęęęę",
      "ě ęĜ",
      "ě ęĞ",
      "ě ęĚęęĘ",
      "ě Ĝęęė",
      "ě Ėęęė",
      "ě ėė",
      "ě ĝęęęę",
      "ě ĜĘ",
      "ě ĖęęĜ",
      "ě Ėě",
      "ě ğĞ",
      "Ĝ ęęęĘ",
      "Ĝ ęĕ",
      "Ĝ Ĝęęęę",
      "Ĝ ęęĒ",
      "Ĝ ėĘ",
      "Ĝ ĝęęęę",
      "Ĝ ėĝ",
      "ĝ \"",
      "ĝ đ",
      "ĝ ęĝ",
      "ĝ ěĚ",
      "ĝ ęęęĝ",
      "ĝ ęęęęĚĚ",
      "ĝ ěęęĜ",
      "ĝ Ĝě",
      "ĝ ĖęęĜ",
      "ĝ ĝě",
      "ĝ ėęęĝ",
      "Ğ Ė",
      "Ğ ęęē",
      "Ğ ĚęęĜ",
      "Ğ ěęęĜ",
      "ğ Đ",
      "ğ ęęĔ",
      "ğ ĀĀęĀ",
      "ğ ĀĀėĀ",
      "Ġ Đ",
      "Ġ ęęęęĘ",
      "Ġ ęĚě",
      "Ġ ėęęě",
      "Ġ ę!",
      "Ġ ĀĀęĀě",
      "Ġ ĀĀĚĀĚ",
      "Ġ ĀĀěĀė",
      "Ġ ĀĀěĀĘ",
      "ęęęę Ĝ",
      "ęĚ Đ",
      "ęĚ ęĝ",
      "ęĚ ęĕ",
      "ęĚ ĚęęĚę",
      "ęĚ ęęęęęęęęęęęęęęęęęę",
      "ęĚ ęĜęęĚ",
      "ęĚ ęĜęęė",
      "ęĘ ęęęęęęęęęęęęęęęęęęęęęęęęęęęęęęęę",
      "ęęĚ ęęęęĚ",
      "ęęĚ ęęęĘę",
      "ęęĚ ĕęęě",
      "ęęĚ ĔęęĚ",
      "ęęĚ ėęęęęĘ",
      "ęęĘ Ėęęě",
      "ęęĘ Ėęęė",
      "ęęĘ Ěęęĕ",
      "ęęĘ ěęęęęĚ",
      "ęě ęęĝ",
      "ęě ĜęęĚ",
      "ęě Ėęęě",
      "ęě ĕęęęę",
      "ęě ęĕęęĘ",
      "ęė \"",
      "ęė ęĞ",
      "ęė Ęęęė",
      "ęė ĖęęĘ",
      "ęė ĕęęęę",
      "ęė ęĖęęęę",
      "ęė ĘęęĘę",
      "ęė ęėęęęęĘ",
      "ęė ęĝęęĘ",
      "ęė ęĜęęęęĘ",
      "ęęęęęęęę ěęęęę",
      "ęęė ĚęęĚ",
      "ęęė ĘęęĘę",
      "ęęě Ĝęęęę",
      "Ęęęęę ęęĖ",
      "Ęęęęę ęęęĘęęęę",
      "Ęęęęę ěĜ",
      "Ęęęęę ęęĚęęęęę",
      "Ěęęęę Ĕ",
      "ęęęĚ ęęĖ",
      "ęĜ ęė",
      "ęĜ ěęęĚ",
      "ęĜ ėęęě",
      "ęĜ ęėęęĚ",
      "ęĖ !",
      "ęĖ \"",
      "ęĖ đ",
      "ęĖ Ĝęęęę",
      "ęĖ ęĜęęĚ",
      "ęĖ ęėęęě",
      "ęĖ ęěęęė",
      "ęęĖ ęęęĚ",
      "ęęĖ Ěęęĕ",
      "ęęĜ ęęęęĚ",
      "ęĘęęęę ęęęė",
      "ęĘęęęę ęęęě",
      "ęĚęęęę ęęĖ",
      "ęĚęęęę ęęęě",
      "ęĚęęęę ęĚĚęęęę",
      "ęĚęęęę ęęĘĘęęęę",
      "ęĚęęęę ęęěęęęę",
      "ęĚęęęę ęęĘęęęęę",
      "ęĝ ęęĜ",
      "ęĝ ěęęęę",
      "ęĝ ęėęęęę",
      "ęĕ ęęęĘ",
      "ęĕ ęĚęęęę",
      "ęĕ Ęęęė",
      "ęĕ Ėęęęę",
      "ęĕ ęĘęęĚ"
    ]
  }
}