{
  "version": "1.0",
  "truncation": null,
  "padding": null,
  "added_tokens": [],
  "normalizer": null,
  "pre_tokenizer": {
    "type": "ByteLevel",
    "add_prefix_space": false,
    "trim_offsets": true,
    "use_regex": true
  },
  "post_processor": {
    "type": "ByteLevel",
    "add_prefix_space": true,
    "trim_offsets": false,
    "use_regex": true
  },
  "decoder": {
    "type": "ByteLevel",
    "add_prefix_space": true,
    "trim_offsets": true,
    "use_regex": true
  },
  "model": {
    "type": "BPE",
    "dropout": null,
    "unk_token": null,
    "continuing_subword_prefix": null,
    "end_of_word_suffix": null,
    "fuse_unk": false,
    "byte_fallback": false,
    "ignore_merges": false,
    "vocab": {
      "\u0000": 0,
      "\u0001": 1,
      "\u0002": 2,
      "\u0003": 3,
      "\u0004": 4,
      "\u0005": 5,
      "\u0006": 6,
      "\u0007": 7,
      "\b": 8,
      "\t": 9,
      "\n": 10,
      "\u000b": 11,
      "\f": 12,
      "\r": 13,
      "\u000e": 14,
      "\u000f": 15,
      "\u0010": 16,
      "\u0011": 17,
      "\u0012": 18,
      "\u0013": 19,
      "\u0014": 20,
      "\u0015": 21,
      "\u0016": 22,
      "\u0017": 23,
      "\u0018": 24,
      "\u0019": 25,
      "\u001a": 26,
      "\u001b": 27,
      "\u001c": 28,
      "\u001d": 29,
      "\u001e": 30,
      "\u001f": 31,
      " ": 32,
      "!": 33,
      "\"": 34,
      "#": 35,
      "$": 36,
      "%": 37,
      "&": 38,
      "'": 39,
      "(": 40,
      ")": 41,
      "*": 42,
      "+": 43,
      ",": 44,
      "-": 45,
      ".": 46,
      "/": 47,
      "0": 48,
      "1": 49,
      "2": 50,
      "3": 51,
      "4": 52,
      "5": 53,
      "6": 54,
      "7": 55,
      "8": 56,
      "9": 57,
      ":": 58,
      ";": 59,
      "<": 60,
      "=": 61,
      ">": 62,
      "?": 63,
      "@": 64,
      "Ā": 65,
      "ă": 66,
      "Ą": 67,
      "ą": 68,
      "Ć": 69,
      "ć": 70,
      "Ĉ": 71,
      "ĉ": 72,
      "Ċ": 73,
      "ċ": 74,
      "Č": 75,
      "č": 76,
      "Ď": 77,
      "ď": 78,
      "Đ": 79,
      "đ": 80,
      "Ē": 81,
      "ē": 82,
      "Ĕ": 83,
      "ĕ": 84,
      "Ė": 85,
      "ė": 86,
      "Ę": 87,
      "ę": 88,
      "Ě": 89,
      "ě": 90,
      "Ĝ": 91,
      "ĝ": 92,
      "Ğ": 93,
      "ğ": 94,
      "Ġ": 95,
      "ĠĠ": 96,
      "Ġ!": 97,
      "Ġğ": 98,
      "ĠĠĠĠ": 99,
      "Ġ\"": 100,
      "ĠĞ": 101,
      "ĠĠĠ": 102,
      "ĀĀ": 103,
      "Ġĝ": 104,
      "Ġ#": 105,
      "Ġ$": 106,
      "ĠĜ": 107,
      "ĠĠĠĠĠ": 108,
      "Ġě": 109,
      "Ġ!!": 110,
      "Ġ!ğ": 111,
      "Ġğğ": 112,
      "Ġ%": 113,
      "Ġğ!": 114,
      "ĠĠĠĠĠĠĠĠ": 115,
      "Ġ&": 116,
      "ĠĚ": 117,
      "Ġ'": 118,
      "Ġ\"!": 119,
      "Ġę": 120,
      "Ġ\"ğ": 121,
      "ĠğĞ": 122,
      "ĠĞ!": 123,
      "ĠĞğ": 124,
      "Ġ!\"": 125,
      "Ġ!Ğ": 126,
      "Ġğ\"": 127,
      "ĠĠĠĠĠĠ": 128,
      "ĠĘ": 129,
      "Ġ(": 130,
      "Ġ\"\"": 131,
      "Ā!": 132,
      "Ā\"": 133,
      "Āğ": 134,
      "Ġ\"Ğ": 135,
      "ĠĞĞ": 136,
      "ĠĞ\"": 137,
      "Ġ#!": 138,
      "ĀĀğ": 139,
      "ĀĞ": 140,
      "Ā#": 141,
      "Ġ!ĝ": 142,
      "Ġĝğ": 143,
      "Ġ)": 144,
      "Ġė": 145,
      "Ġ!#": 146,
      "Ġ#ğ": 147,
      "Ġĝ!": 148,
      "ĀĀ!": 149,
      "ĀĀĞ": 150,
      "ĀĀ\"": 151,
      "Ġğ#": 152,
      "Ġğĝ": 153,
      "Āĝ": 154,
      "Ā$": 155,
      "ĀĜ": 156,
      "Ġ!!ğ": 157,
      "Ġ!ğğ": 158,
      "Ġğ!!": 159,
      "ĀĀĝ": 160,
      "Ġ*": 161,
      "Ġğğ!": 162,
      "Ā%": 163,
      "ĀĀ#": 164,
      "ĠĠĠĠĠĠĠ": 165,
      "Ġ#\"": 166,
      "Ġ\"#": 167,
      "ĀĀĜ": 168,
      "ĠĝĞ": 169,
      "Ġ#Ğ": 170,
      "Ġĝ\"": 171,
      "Ā&": 172,
      "Ġ!ğ!": 173,
      "Ġ!!!": 174,
      "ĠĖ": 175,
      "Āě": 176,
      "Ġ\"ĝ": 177,
      "Ĝğ": 178,
      "ĠĞĝ": 179,
      "Ġğ!ğ": 180,
      "ĠĠĠĠĠĠĠĠĠĠĠ": 181,
      "Ġğğğ": 182,
      "Ĝ!": 183,
      "Ġ$ğ": 184,
      "ĠĞ#": 185,
      "ĀĀ$": 186,
      "ĀĀĚ": 187,
      "Ġĝĝ": 188,
      "$ğ": 189,
      "Ġ+": 190,
      "ĠĠĠĠĠĠĠĠĠĠĠĠ": 191,
      "$!": 192,
      "$Ğ": 193,
      "Ā'": 194,
      "ĀĀě": 195,
      "!!": 196,
      "Ĝ\"": 197,
      "ĀĀ%": 198,
      "ĀĚ": 199,
      "Ġ$\"": 200,
      "ĠĜğ": 201,
      "ĜĞ": 202,
      "Ġĕ": 203,
      "Ġ!ğĞ": 204,
      "#ğ": 205,
      "Ĝĝ": 206,
      "ĠĠĠĠĠĠĠĠĠĠ": 207,
      "ĀĀ&": 208,
      "$\"": 209,
      "Ğ!": 210,
      "Ġ#ĝ": 211,
      "ĠĜ!": 212,
      "Ġ\"!ğ": 213,
      "\"\"": 214,
      "Ġĝ#": 215,
      "Ġ$!": 216,
      "ĀĀĘ": 217,
      "ěğ": 218,
      "Ġğğ\"": 219,
      "Ġ\"ğğ": 220,
      "ĠĞğ!": 221,
      "\"!": 222,
      "ğğ": 223,
      "ĠğĞ!": 224,
      "ĠĔ": 225,
      "Ġ!!Ğ": 226,
      "Ĝ#": 227,
      "Ā)": 228,
      "ĝğ": 229,
      "ĀĀ(": 230,
      "Āę": 231,
      "ĀĀę": 232,
      "Ġ,": 233,
      "ĀĀ'": 234,
      "Ġ$Ğ": 235,
      "\"ğ": 236,
      "$ĝ": 237,
      "Ġ##": 238,
      "ě!": 239,
      "ĠĜĞ": 240,
      "$#": 241,
      "Ġ!\"!": 242,
      "Ġ$ĝ": 243,
      "Ġğ\"!": 244,
      "%!": 245,
      "Ā(": 246,
      "ĀĀė": 247,
      "Ġ!\"ğ": 248,
      "ĠĞ!!": 249,
      "Ġ!Ğğ": 250,
      "%#": 251,
      "%Ğ": 252,
      "&!": 253,
      "ĠĜĝ": 254,
      "ĠěĞ": 255,
      "!ğ": 256,
      "%ğ": 257,
      "ĀĀ)": 258,
      "ĠğĞğ": 259,
      "#Ğ": 260,
      "$$": 261,
      "ě\"": 262,
      "ěĞ": 263,
      "ĀĀĖ": 264,
      "Ġ!!\"": 265,
      "Ġ\"!!": 266,
      "ĀĘ": 267,
      "ĠĞ!ğ": 268,
      "ĠğğĞ": 269,
      "#\"": 270,
      "ğ!": 271,
      "Ġğ\"ğ": 272,
      "%\"": 273,
      "ĠĞğğ": 274,
      "#!": 275,
      "Ěğ": 276,
      "Ġ!ğ\"": 277,
      "Ġ\"!Ğ": 278,
      "!Ğ": 279,
      "\"Ğ": 280,
      "Ě!": 281,
      "Ġ!Ĝ": 282,
      "Ġğ!\"": 283,
      "\"ĝ": 284,
      "ĀĀ+": 285,
      "Ġ!Ğ!": 286,
      "Ě\"": 287,
      "ĞĞ": 288,
      "ğĞ": 289,
      "ğĝ": 290,
      "ĝĞ": 291,
      "ğ#": 292,
      "Ġ\"ğ!": 293,
      "Ġ\"\"ğ": 294,
      "Ġ-": 295,
      "Ġ!$": 296,
      "ĠĞ!\"": 297,
      "&ĀĀ": 298,
      "Āė": 299,
      "ĠĞğ\"": 300,
      "!ĝ": 301,
      "'ĀĀ": 302,
      "ĜĜ": 303,
      "Ġğ!Ğ": 304,
      "ĠĠĠĠĠĠĠĠĠĠĠĠĠĠĠĠ": 305,
      "\"#": 306,
      "Ĝ$": 307,
      "&\"": 308,
      "ě#": 309,
      "ěĝ": 310,
      "!\"": 311,
      "Ġ\"ğĞ": 312,
      "%ĝ": 313,
      "ĠĠĠĠĠĠĠĠĠ": 314,
      "##": 315,
      "ěě": 316,
      "Ġ#ğğ": 317,
      "!#": 318,
      "$ĀĀ": 319,
      "%ĀĀ": 320,
      "(ĀĀ": 321,
      "Ġ!ĞĞ": 322,
      "Ġ\"Ğğ": 323,
      "ĀĀğĀ": 324,
      "%$": 325,
      "&Ğ": 326,
      "Ě#": 327,
      "Ğĝ": 328,
      "Ġē": 329,
      "ĠĞĜ": 330,
      "Ġ$#": 331,
      "ĠĠĠĠĠĠĠĠĠĠĠĠĠ": 332,
      "Ġğ\"\"": 333,
      "ĠĞĞ!": 334,
      "ĠĞ\"!": 335,
      "'ğ": 336,
      "Ěĝ": 337,
      "Ğ\"": 338,
      "Ğğ": 339,
      "ğ\"": 340,
      "&ğ": 341,
      "ęğ": 342,
      "ě$": 343,
      "ĠĀĀ": 344,
      "Ġ\"$": 345,
      "Ġĝğ!": 346,
      "Ġ.": 347,
      "ĠĞ$": 348,
      "ĠĜ\"": 349,
      "Ġ!!ĝ": 350,
      "Ġ!\"Ğ": 351,
      "%Ĝ": 352,
      "Ā*": 353,
      "Ęĝ": 354,
      "Ġ!ğĝ": 355,
      "Ġ\"Ğ!": 356,
      "ĝ#": 357,
      "ĠğĜ": 358,
      "Ġ%!": 359,
      "Ġ#!ğ": 360,
      "ĚĜ": 361,
      "ĠĀ": 362,
      "Ġ\"\"Ğ": 363,
      "\"$": 364,
      "&#": 365,
      "*ĀĀ": 366,
      "ĚĞ": 367,
      "ĝ!": 368,
      "Ġğ$": 369,
      "Ġ\"!ĝ": 370,
      "Ġĝ!!": 371,
      "ĀĀĞĀ": 372,
      "ĀĀ\"Ā": 373,
      "'!": 374,
      ")ĀĀ": 375,
      "ĝ$": 376,
      "ğĜ": 377,
      "Ġğě": 378,
      "Ġě!": 379,
      "ĠğĞĞ": 380,
      "ĠĞĞğ": 381,
      "ĀĀ#Ā": 382,
      "#$": 383,
      "ę!": 384,
      "ęĞ": 385,
      "ĝ\"": 386,
      "Ġğ\"Ğ": 387,
      "%&": 388,
      "'\"": 389,
      "ĀĀĕ": 390,
      "Ġğğ#": 391,
      "Ġ\"\"!": 392,
      "ěĜ": 393,
      "ğě": 394,
      "ĠĒ": 395,
      "Ġ!\"\"": 396,
      "Ġ\"ĞĞ": 397,
      "Ġĝğ\"": 398,
      "\"%": 399,
      "$Ĝ": 400,
      "&&": 401,
      "Ā+": 402,
      "ėĞ": 403,
      "Ğě": 404,
      "Ġ!!Ĝ": 405,
      "ĠğĞ\"": 406,
      "Ġ!ĝğ": 407,
      "Ġ!#ğ": 408,
      "\"Ĝ": 409,
      "Ęğ": 410,
      "ĝĝ": 411,
      "Ğ#": 412,
      "Ġğ%": 413,
      "Ġğ!#": 414,
      "ĠĞğ#": 415,
      "Ġ#!Ğ": 416,
      "Ġ#\"ğ": 417,
      "(\"": 418,
      "ĀĀ,": 419,
      "ĠğĞ#": 420,
      "ĠĞ!Ğ": 421,
      "Ġ#ğĞ": 422,
      "ĀĀ!Ā": 423,
      "'#": 424,
      "Ġ!&": 425,
      "ĠĝĜ": 426,
      "Ġěğ": 427,
      "Ġ#!!": 428,
      "Ġĝğğ": 429,
      "(!": 430,
      "ĀĀ-": 431,
      "Ġ#$": 432,
      "Ġğğĝ": 433,
      "Ġ\"!\"": 434,
      "ĠĞĞ\"": 435,
      "Ġĝ!\"": 436,
      "ĠĝĞ!": 437,
      "!Ĝ": 438,
      "(ğ": 439,
      "ęě": 440,
      "Ěě": 441,
      "Ĝě": 442,
      "Ğ$": 443,
      "ĠĞě": 444,
      "ĀĀ.": 445,
      "ĀĀĒ": 446,
      "Ġĝ$": 447,
      "Ġğ!ĝ": 448,
      "ĠĠĠĠĠĠĠĠĠĠĠĠĠĠĠĠĠĠ": 449,
      "ĠĞğĞ": 450,
      "ĠĞ\"ğ": 451,
      "Ġ!ĝ!": 452,
      "Ġ!#!": 453,
      "Ġ!#Ğ": 454,
      "Ġğĝğ": 455,
      "#&": 456,
      "&ĝ": 457,
      "'Ğ": 458,
      "ĘĞ": 459,
      "ĝĜ": 460,
      "ĞĜ": 461,
      "ğĚ": 462,
      "ĠĠĠĠĠĠĠĠĠĠĠĠĠĠĠ": 463,
      "Ġ#\"!": 464,
      "ĀĀĜĀ": 465,
      "&$": 466,
      ")ğ": 467,
      "Ę\"": 468,
      "ęĜ": 469,
      "ĀĀ*": 470,
      "ĀĀē": 471,
      "ĠĜĜ": 472,
      "Ġě\"": 473,
      "Ġ\"ğĝ": 474,
      "ĠĞ!#": 475,
      "Ġ\"\"ĝ": 476,
      "Ġĝ!ğ": 477,
      "ĀĀěĀ": 478,
      "\"ě": 479,
      "#ĝ": 480,
      "&%": 481,
      "&Ĝ": 482,
      "Ę!": 483,
      "Ġ/": 484,
      "ĀĀĔ": 485,
      "Ġ\"ğ\"": 486,
      "Ġ!Ğĝ": 487,
      "Ġ#!ĝ": 488,
      "Ġ!ĝĞ": 489,
      "Ġğ#!": 490,
      "Ġğ#Ğ": 491,
      "Ġğ#ğ": 492,
      "ĠğĝĞ": 493,
      "Ġ\"#ğ": 494,
      "Ġ#ĞĞ": 495,
      "Ġ$ğğ": 496,
      "#ě": 497,
      "#Ĝ": 498,
      ")!": 499,
      "ęĝ": 500,
      "ğ$": 501,
      "ĠĀ!": 502,
      "ĠĀ\"": 503,
      "Ġ!Ě": 504,
      "Ġěĝ": 505,
      "Ġğ\"#": 506,
      "Ġ\"Ğĝ": 507,
      "ĀĀ!Ā!": 508,
      "Ġĝ\"!": 509,
      "ĠĞĝ!": 510,
      "Ġĝĝğ": 511,
      "ĀĀ%Ā": 512,
      "$ě": 513,
      "%ě": 514,
      "ėĝ": 515,
      "ėğ": 516,
      "ĠĀğ": 517,
      "Ġ\"Ĝ": 518,
      "ĠĞ%": 519,
      "ĀĀ/": 520,
      "Ġ#ě": 521,
      "Ġ#Ĝ": 522,
      "Ġ%Ğ": 523,
      "Ġ!Ğ\"": 524,
      "ĠĞ\"\"": 525,
      "Ġ#ğ!": 526,
      "ĀĀ!Āğ": 527,
      "ĀĀĞĀğ": 528,
      "Ġ$ğĞ": 529,
      "!$": 530,
      "$&": 531,
      "%'": 532,
      "($": 533,
      "ĘĜ": 534,
      "ę\"": 535,
      "ğ'": 536,
      "Ġ!$ğ": 537,
      "Ġ!ğĜ": 538,
      "Ġ\"ğĜ": 539,
      "ĀĀğĀ\"": 540,
      "Ġğ#\"": 541,
      "Ġğĝ!": 542,
      "ĀĀĝĀ\"": 543,
      "Ġ\"#!": 544,
      "Ġ\"ĝ!": 545,
      "!%": 546,
      "!Ě": 547,
      "(%": 548,
      "(Ĝ": 549,
      "(ĝ": 550,
      ",ĀĀ": 551,
      "Ę$": 552,
      "ě%": 553,
      "ğ%": 554,
      "ğĘ": 555,
      "Ġ0": 556,
      "ĀĀğĀĞ": 557,
      "ĀĀĞĀ#": 558,
      "ĀĀĝĀ": 559,
      "ĀĀĜĀ!": 560,
      "Ġ#Ğğ": 561,
      "Ġĝ\"ğ": 562,
      "ĀĀ'Ā": 563,
      ")\"": 564,
      ")$": 565,
      "ĀĖ": 566,
      "Ėĝ": 567,
      "Ę#": 568,
      "Ęě": 569,
      "ę#": 570,
      "ęĚ": 571,
      "ĞĚ": 572,
      "Ġđ": 573,
      "ĀĀđ": 574,
      "Ġ##ğ": 575,
      "Ġ!ğ#": 576,
      "ĠĠĠĠĠĠĠĠĠĠĠĠĠĠĠĠĠĠĠĠ": 577,
      "ĠĞ!ĝ": 578,
      "Ġ\"\"\"": 579,
      "ĀĀ!Ā\"": 580,
      "ĀĀ#Ā!": 581,
      "Ġ\"#Ğ": 582,
      "ĠĝĞ\"": 583,
      "ĠĞ#!": 584,
      "Ġĝĝ!": 585,
      "ĠĜğ\"": 586,
      "Ġĝ#!": 587,
      "!ě": 588,
      "\"'": 589,
      "\"Ě": 590,
      "#Ě": 591,
      "%Ě": 592,
      "'$": 593,
      "(#": 594,
      "(Ğ": 595,
      "ė!": 596,
      "ę$": 597,
      "ĝě": 598,
      "ğę": 599,
      "ĠĀě": 600,
      "Ġ!Ĝğ": 601,
      "Ġ\"ě": 602,
      "Ġ\"$Ğ": 603,
      "Ġ!ğ$": 604,
      "ĠğğĜ": 605,
      "ĠĚğ": 606,
      "Ġ\"!Ĝ": 607,
      "Ġ#!\"": 608,
      "Ġ!#ĝ": 609,
      "ĀĀ!ĀĞ": 610,
      "ĀĀ\"Ā!": 611,
      "Ġğĝ\"": 612,
      "ĀĀĝĀ!": 613,
      "ĀĀĝĀğ": 614,
      "ĀĀĝĀĞ": 615,
      "ĀĀĝĀ#": 616,
      "Ġ\"#ĝ": 617,
      "ĠĝĞğ": 618,
      "ĠĞ#\"": 619,
      "Ġ$!ğ": 620,
      "Ġ$Ğğ": 621,
      "\"&": 622,
      "$%": 623,
      "&ě": 624,
      "'&": 625,
      "''": 626,
      "'ĝ": 627,
      "(&": 628,
      "*!": 629,
      "*#": 630,
      "+ĀĀ": 631,
      "ė\"": 632,
      "ėĚ": 633,
      "ĜĚ": 634,
      "ĝ%": 635,
      "ĝĚ": 636,
      "ĠĀĜ": 637,
      "Ġ!ě": 638,
      "Ġ\"%": 639,
      "Ġ\"$ğ": 640,
      "Ġĝ%": 641,
      "ĠĜ#": 642,
      "Ġ!!#": 643,
      "Ġ%#": 644,
      "Ġğ!$": 645,
      "Ġ\"!#": 646,
      "ĠğĞĝ": 647,
      "Ġ!\"ĝ": 648,
      "ĀĀğĀğ": 649,
      "ĀĀğĀ#": 650,
      "Ġĝğ#": 651,
      "Ġ#ğĜ": 652,
      "Ġĝ!#": 653,
      "ĀĀ!Āĝ": 654,
      "ĀĀĞĀ!": 655,
      "ĀĀ\"Āğ": 656,
      "ĀĀ\"Ā$": 657,
      "ĀĀ#Ā\"": 658,
      "Ġ\"ĝĞ": 659,
      "Ġ\"ĝğ": 660,
      "!&": 661,
      "#ĀĀ": 662,
      "'%": 663,
      "'(": 664,
      "*\"": 665,
      "+!": 666,
      "ę%": 667,
      "ĚĚ": 668,
      "ĝ&": 669,
      "Ğ%": 670,
      "ĠĀĞ": 671,
      "ĠĀĝ": 672,
      "Ġğ$!": 673,
      "ĠğĜ\"": 674,
      "Ġ\"$!": 675,
      "Ġ#%": 676,
      "Ġ#$Ğ": 677,
      "ĠĜ!!": 678,
      "Ġğğ$": 679,
      "Ġğ!%": 680,
      "Ġ!\"#": 681,
      "Ġ!Ğ#": 682,
      "Ġ\"ĞĜ": 683,
      "Ġ#!#": 684,
      "ĀĀğĀ!": 685,
      "ĀĀğĀĜ": 686,
      "ĀĀĞĀ\"": 687,
      "ĀĀĞĀ%": 688,
      "ĀĀ\"Āĝ": 689,
      "Ġ#\"Ğ": 690,
      "Ġ#Ğ!": 691,
      "Ġ#Ğĝ": 692,
      "ĀĀ&Ā": 693,
      "ĠĜ!\"": 694,
      "Ġ$!Ğ": 695,
      "ĀĀĘĀ": 696,
      "$Ě": 697,
      "*'": 698,
      "ĕĝ": 699,
      "Ė!": 700,
      "ėė": 701,
      "ęĖ": 702,
      "Ě%": 703,
      "ĝ)": 704,
      "Ğ)": 705,
      "Ġ!%": 706,
      "ĠğĜğ": 707,
      "Ġğ$Ğ": 708,
      "Ġ\"&": 709,
      "Ġ\"Ě": 710,
      "ĠĞĜ!": 711,
      "Ġ$%": 712,
      "Ġ$Ĝ": 713,
      "ĠĜĞ!": 714,
      "Ġ%ğ": 715,
      "Ġğ\"ĝ": 716,
      "ĠĞĞĞ": 717,
      "ĀĀğĀ%": 718,
      "Ġ!#\"": 719,
      "Ġ#ğĝ": 720,
      "ĀĀ!Ā#": 721,
      "ĀĀ!Ā$": 722,
      "ĀĀ!ĀĜ": 723,
      "ĀĀĝĀĝ": 724,
      "Ġĝ\"\"": 725,
      "ĀĀ$Āĝ": 726,
      "ĠĝĝĞ": 727,
      "Ġ$\"!": 728,
      "Ġ$\"ĝ": 729,
      "Ġ$\"Ğ": 730,
      "ĠĜğ!": 731,
      "Ġ##Ğ": 732,
      "#%": 733,
      "&(": 734,
      "&ĀĀě": 735,
      ")%": 736,
      ")ĝ": 737,
      "Ā,": 738,
      "ĕĜ": 739,
      "ĕĀĀ": 740,
      "Ė\"": 741,
      "Ė#": 742,
      "ĖĜ": 743,
      "ĖĞ": 744,
      "ėĜ": 745,
      "Ğę": 746,
      "ğ&": 747,
      "ĠĀ$": 748,
      "Ġ!'": 749,
      "ĠğĚ": 750,
      "Ġ\"Ĝğ": 751,
      "ĠĞĚ": 752,
      "ĠĞĜ\"": 753,
      "Ġ$ě": 754,
      "Ġ$Ğ!": 755,
      "Ġ!!$": 756,
      "Ġ\"ğ#": 757,
      "ĠĞ!$": 758,
      "Ġ\"Ğ\"": 759,
      "ĠĞĞ#": 760,
      "ĠĞ\"#": 761,
      "ĀĀğĀĝ": 762,
      "ĀĀğĀ$": 763,
      "ĀĀğĀě": 764,
      "Ġ!ĝ\"": 765,
      "Ġ!ĝ#": 766,
      "ĀĀĞĀĞ": 767,
      "ĀĀĞĀ$": 768,
      "ĀĀ\"Ā\"": 769,
      "ĀĀ\"ĀĞ": 770,
      "ĀĀ\"Ā#": 771,
      "Ġĝ\"#": 772,
      "Ġ\"ĝ\"": 773,
      "ĀĀ$Ā\"": 774,
      "ĀĀĚĀ": 775,
      "ĀĀĚĀğ": 776,
      "Ġ$\"ğ": 777,
      "Ġ#ĝĞ": 778,
      "Ġĝ#\"": 779,
      "!ę": 780,
      "\"ę": 781,
      "(ě": 782,
      "*$": 783,
      "*(": 784,
      "*Ğ": 785,
      "Ĕě": 786,
      "Ėě": 787,
      "Ęę": 788,
      "ĘĀĀ": 789,
      "ĜĘ": 790,
      "Ĝę": 791,
      "Ğ(": 792,
      "ğĕ": 793,
      "ĠĐ": 794,
      "ĠĀ#": 795,
      "Ġ!Ĝ!": 796,
      "Ġ!$!": 797,
      "Ġ!ěğ": 798,
      "Ġğ&": 799,
      "ĠğĜĞ": 800,
      "Ġ\"ĜĞ": 801,
      "Ġ\"$ĝ": 802,
      "Ġ#ĜĞ": 803,
      "Ġ$!!": 804,
      "ĠĜ$": 805,
      "ĠĜě": 806,
      "ĠĜ\"ğ": 807,
      "Ġ%\"": 808,
      "ĠĚĝ": 809,
      "ĠĞ\"Ğ": 810,
      "ĀĀ\"ĀĜ": 811,
      "Ġğ#ĝ": 812,
      "ĀĀĝĀ$": 813,
      "ĀĀĝĀĜ": 814,
      "ĀĀ#ĀĞ": 815,
      "ĀĀ#Ā$": 816,
      "ĀĀĜĀĝ": 817,
      "Ġĝ\"ĝ": 818,
      "ĠĞĝĞ": 819,
      "ĠĞ##": 820,
      "ĠĞ#ğ": 821,
      "ĀĀĚĀĞ": 822,
      "ĀĀęĀ": 823,
      "ĀĀęĀ!": 824,
      "ĀĀĖĀ$": 825,
      "!(": 826,
      "'ě": 827,
      ")&": 828,
      ")*": 829,
      "*+": 830,
      ".ĀĀ": 831,
      "ĔĜ": 832,
      "Ėğ": 833,
      "ė$": 834,
      "ėę": 835,
      "ėě": 836,
      "Ę&": 837,
      "ĘĖ": 838,
      "ęę": 839,
      "Ĝ%": 840,
      "ĜĔ": 841,
      "Ġď": 842,
      "ĠĀ%": 843,
      "Ġ!$\"": 844,
      "Ġ!$#": 845,
      "Ġğ$ğ": 846,
      "Ġğ$\"": 847,
      "ĠĞĜğ": 848,
      "ĠĞ$!": 849,
      "ĠĞ$Ğ": 850,
      "Ġ#$ğ": 851,
      "ĠĜ\"\"": 852,
      "Ġ%Ğ!": 853,
      "Ġ%ğĞ": 854,
      "Ġğ!ě": 855,
      "ĠĠĠĠĠĠĠĠĠĠĠĠĠĠ": 856,
      "ĠĠĠĠĠĠĠĠĠĠĠĠĠĠĠĠĠĠĠ": 857,
      "Ġ&$": 858,
      "Ġ\"!ě": 859,
      "ĠęĞ": 860,
      "Ġ\"ğ$": 861,
      "ĠĞğ$": 862,
      "ĠĞğĝ": 863,
      "Ġ!Ğ$": 864,
      "Ġğ\"$": 865,
      "ĠĘĞ": 866,
      "Ġ!ĝĝ": 867,
      "ĀĀĞĀĝ": 868,
      "ĀĀĞĀĜ": 869,
      "ĀĀĞĀ&": 870,
      "ĀĀĞĀě": 871,
      "Ġğ##": 872,
      "ĀĀĜĀ#": 873,
      "ĠĝĞ#": 874,
      "ĠĞĝ\"": 875,
      "Ġ$ğĝ": 876,
      "ĀĀ$Ā!": 877,
      "ĀĀĚĀ!": 878,
      "ĀĀĚĀ\"": 879,
      "ĀĀĚĀ#": 880,
      "Ġĝĝ\"": 881,
      "ĀĀ%Āğ": 882,
      "ĠĜğğ": 883,
      "ĀĀ&Āğ": 884,
      "Ġ$!ĝ": 885,
      "ĀĀ(Ā": 886,
      "Ġ$Ğĝ": 887,
      "ĠĜĝ!": 888,
      "Ġ$#Ĝ": 889,
      "!'": 890,
      "\"+": 891,
      "\"Ę": 892,
      "%ę": 893,
      "&)": 894,
      "'Ě": 895,
      "()": 896,
      "(Ě": 897,
      ")-": 898,
      "+'": 899,
      "Āĕ": 900,
      "Ēĝ": 901,
      "Ĕĝ": 902,
      "ĕ\"": 903,
      "ĕĞ": 904,
      "Ėę": 905,
      "ėĕ": 906,
      "ėĘ": 907,
      "ėĀĀ": 908,
      "Ę%": 909,
      "Ě&": 910,
      "ĚĘ": 911,
      "Ĝ'": 912,
      "Ĝ(": 913,
      "ĝĖ": 914,
      "ĠğĜ#": 915,
      "Ġ\"Ĝ!": 916,
      "Ġ\"%Ğ": 917,
      "Ġĝě": 918,
      "Ġĝ$!": 919,
      "Ġ$$": 920,
      "Ġ$#ğ": 921,
      "Ġ$%ğ": 922,
      "Ġě!!": 923,
      "Ġě\"ğ": 924,
      "Ġğğ%": 925,
      "Ġğğ&": 926,
      "Ġ%!!": 927,
      "Ġğ!Ĝ": 928,
      "Ġ&!": 929,
      "Ġ&\"": 930,
      "Ġ&ĝ": 931,
      "Ġ&ğğ": 932,
      "Ġ'!": 933,
      "Ġ'\"": 934,
      "Ġ\"!Ě": 935,
      "ĠğĞ$": 936,
      "ĠĞ!Ĝ": 937,
      "Ġ!\"ě": 938,
      "Ġ\"Ğ#": 939,
      "ĠĞ\"$": 940,
      "ĠĞ\"ĝ": 941,
      "ĀĀğĀĚ": 942,
      "Ġ!ĝ$": 943,
      "Ġĝğĝ": 944,
      "Ġ!##": 945,
      "Ġĝ!$": 946,
      "Ġĝ!Ğ": 947,
      "ĀĀ!Ā%": 948,
      "ĀĀ!Āě": 949,
      "ĀĀ!Āę": 950,
      "ĀĀ\"Ā&": 951,
      "ĀĀ\"Ā'": 952,
      "ĀĀ#Āğ": 953,
      "ĀĀ#Āĝ": 954,
      "ĀĀ#ĀĜ": 955,
      "Ġ#\"\"": 956,
      "Ġ\"#Ĝ": 957,
      "ĀĀĜĀĜ": 958,
      "Ġ#Ğ\"": 959,
      "Ġ#Ğě": 960,
      "Ġ\"ĝĝ": 961,
      "Ġ$ğ!": 962,
      "ĠĞ#Ğ": 963,
      "ĀĀ$Āğ": 964,
      "ĀĀĚĀ&": 965,
      "ĀĀ%Ā&": 966,
      "ĠĜğ#": 967,
      "ĀĀ&Ā\"": 968,
      "ĀĀ&Āĝ": 969,
      "ĀĀ&ĀĜ": 970,
      "Ġ#ĝĝ": 971,
      "ĀĀ'Āğ": 972,
      "Ġ##!": 973,
      "Ġ$ĝĞ": 974,
      "ĠěĞğ": 975,
      "ĀĀĖĀ\"": 976,
      "#(": 977,
      "$(": 978,
      "$ę": 979,
      "%%": 980,
      "%Ę": 981,
      "'+": 982,
      ")#": 983,
      ")(": 984,
      "**": 985,
      "+Ĝ": 986,
      "ēĀĀ": 987,
      "Ĕ#": 988,
      "ĕ!": 989,
      "ĕğ": 990,
      "Ėė": 991,
      "ė#": 992,
      "ė&": 993,
      "Ę'": 994,
      "Ęĕ": 995,
      "ęĀĀ": 996,
      "ě&": 997,
      "ěę": 998,
      "ĝ(": 999,
      "ĝ,": 1000,
      "Ğė": 1001,
      "ĞĘ": 1002,
      "ğ+": 1003,
      "Ġ2": 1004,
      "Ġ!ĜĞ": 1005,
      "Ġ!$ĝ": 1006,
      "Ġğę": 1007,
      "Ġğ$#": 1008,
      "Ġğ%Ğ": 1009,
      "Ġ\"ę": 1010,
      "Ġ\"ěğ": 1011,
      "ĠĞ$#": 1012,
      "ĀĀď": 1013,
      "Ġĝ&": 1014,
      "ĠĝĜ!": 1015,
      "Ġ$#Ğ": 1016,
      "ĠĜ\"!": 1017,
      "ĠěĜğ": 1018,
      "ĠěĜ!": 1019,
      "Ġ!!ě": 1020,
      "Ġ!ğě": 1021,
      "Ġğğě": 1022,
      "Ġ%$": 1023
    },
    "merges": [
      "Ġ Ġ",
      "Ġ !",
      "Ġ ğ",
      "ĠĠ ĠĠ",
      "Ġ \"",
      "Ġ Ğ",
      "ĠĠ Ġ",
      "Ā Ā",
      "Ġ ĝ",
      "Ġ #",
      "Ġ $",
      "Ġ Ĝ",
      "ĠĠĠĠ Ġ",
      "Ġ ě",
      "Ġ! !",
      "Ġ! ğ",
      "Ġğ ğ",
      "Ġ %",
      "Ġğ !",
      "ĠĠĠĠ ĠĠĠĠ",
      "Ġ &",
      "Ġ Ě",
      "Ġ '",
      "Ġ\" !",
      "Ġ ę",
      "Ġ\" ğ",
      "Ġğ Ğ",
      "ĠĞ !",
      "ĠĞ ğ",
      "Ġ! \"",
      "Ġ! Ğ",
      "Ġğ \"",
      "ĠĠĠĠ ĠĠ",
      "Ġ Ę",
      "Ġ (",
      "Ġ\" \"",
      "Ā !",
      "Ā \"",
      "Ā ğ",
      "Ġ\" Ğ",
      "ĠĞ Ğ",
      "ĠĞ \"",
      "Ġ# !",
      "ĀĀ ğ",
      "Ā Ğ",
      "Ā #",
      "Ġ! ĝ",
      "Ġĝ ğ",
      "Ġ )",
      "Ġ ė",
      "Ġ! #",
      "Ġ# ğ",
      "Ġĝ !",
      "ĀĀ !",
      "ĀĀ Ğ",
      "ĀĀ \"",
      "Ġğ #",
      "Ġğ ĝ",
      "Ā ĝ",
      "Ā $",
      "Ā Ĝ",
      "Ġ!! ğ",
      "Ġ!ğ ğ",
      "Ġğ! !",
      "ĀĀ ĝ",
      "Ġ *",
      "Ġğğ !",
      "Ā %",
      "ĀĀ #",
      "ĠĠĠĠ ĠĠĠ",
      "Ġ# \"",
      "Ġ\" #",
      "ĀĀ Ĝ",
      "Ġĝ Ğ",
      "Ġ# Ğ",
      "Ġĝ \"",
      "Ā &",
      "Ġ!ğ !",
      "Ġ!! !",
      "Ġ Ė",
      "Ā ě",
      "Ġ\" ĝ",
      "Ĝ ğ",
      "ĠĞ ĝ",
      "Ġğ! ğ",
      "ĠĠĠĠĠĠĠĠ ĠĠĠ",
      "Ġğğ ğ",
      "Ĝ !",
      "Ġ$ ğ",
      "ĠĞ #",
      "ĀĀ $",
      "ĀĀ Ě",
      "Ġĝ ĝ",
      "$ ğ",
      "Ġ +",
      "ĠĠĠĠĠĠĠĠ ĠĠĠĠ",
      "$ !",
      "$ Ğ",
      "Ā '",
      "ĀĀ ě",
      "! !",
      "Ĝ \"",
      "ĀĀ %",
      "Ā Ě",
      "Ġ$ \"",
      "ĠĜ ğ",
      "Ĝ Ğ",
      "Ġ ĕ",
      "Ġ!ğ Ğ",
      "# ğ",
      "Ĝ ĝ",
      "ĠĠĠĠĠĠĠĠ ĠĠ",
      "ĀĀ &",
      "$ \"",
      "Ğ !",
      "Ġ# ĝ",
      "ĠĜ !",
      "Ġ\"! ğ",
      "\" \"",
      "Ġĝ #",
      "Ġ$ !",
      "ĀĀ Ę",
      "ě ğ",
      "Ġğğ \"",
      "Ġ\"ğ ğ",
      "ĠĞğ !",
      "\" !",
      "ğ ğ",
      "ĠğĞ !",
      "Ġ Ĕ",
      "Ġ!! Ğ",
      "Ĝ #",
      "Ā )",
      "ĝ ğ",
      "ĀĀ (",
      "Ā ę",
      "ĀĀ ę",
      "Ġ ,",
      "ĀĀ '",
      "Ġ$ Ğ",
      "\" ğ",
      "$ ĝ",
      "Ġ# #",
      "ě !",
      "ĠĜ Ğ",
      "$ #",
      "Ġ!\" !",
      "Ġ$ ĝ",
      "Ġğ\" !",
      "% !",
      "Ā (",
      "ĀĀ ė",
      "Ġ!\" ğ",
      "ĠĞ! !",
      "Ġ!Ğ ğ",
      "% #",
      "% Ğ",
      "& !",
      "ĠĜ ĝ",
      "Ġě Ğ",
      "! ğ",
      "% ğ",
      "ĀĀ )",
      "ĠğĞ ğ",
      "# Ğ",
      "$ $",
      "ě \"",
      "ě Ğ",
      "ĀĀ Ė",
      "Ġ!! \"",
      "Ġ\"! !",
      "Ā Ę",
      "ĠĞ! ğ",
      "Ġğğ Ğ",
      "# \"",
      "ğ !",
      "Ġğ\" ğ",
      "% \"",
      "ĠĞğ ğ",
      "# !",
      "Ě ğ",
      "Ġ!ğ \"",
      "Ġ\"! Ğ",
      "! Ğ",
      "\" Ğ",
      "Ě !",
      "Ġ! Ĝ",
      "Ġğ! \"",
      "\" ĝ",
      "ĀĀ +",
      "Ġ!Ğ !",
      "Ě \"",
      "Ğ Ğ",
      "ğ Ğ",
      "ğ ĝ",
      "ĝ Ğ",
      "ğ #",
      "Ġ\"ğ !",
      "Ġ\"\" ğ",
      "Ġ -",
      "Ġ! $",
      "ĠĞ! \"",
      "& ĀĀ",
      "Ā ė",
      "ĠĞğ \"",
      "! ĝ",
      "' ĀĀ",
      "Ĝ Ĝ",
      "Ġğ! Ğ",
      "ĠĠĠĠĠĠĠĠ ĠĠĠĠĠĠĠĠ",
      "\" #",
      "Ĝ $",
      "& \"",
      "ě #",
      "ě ĝ",
      "! \"",
      "Ġ\"ğ Ğ",
      "% ĝ",
      "ĠĠĠĠ ĠĠĠĠĠ",
      "# #",
      "ě ě",
      "Ġ#ğ ğ",
      "! #",
      "$ ĀĀ",
      "% ĀĀ",
      "( ĀĀ",
      "Ġ!Ğ Ğ",
      "Ġ\"Ğ ğ",
      "ĀĀğ Ā",
      "% $",
      "& Ğ",
      "Ě #",
      "Ğ ĝ",
      "Ġ ē",
      "ĠĞ Ĝ",
      "Ġ$ #",
      "ĠĠĠĠĠĠĠĠ ĠĠĠĠĠ",
      "Ġğ\" \"",
      "ĠĞĞ !",
      "ĠĞ\" !",
      "' ğ",
      "Ě ĝ",
      "Ğ \"",
      "Ğ ğ",
      "ğ \"",
      "& ğ",
      "ę ğ",
      "ě $",
      "Ġ ĀĀ",
      "Ġ\" $",
      "Ġĝğ !",
      "Ġ .",
      "ĠĞ $",
      "ĠĜ \"",
      "Ġ!! ĝ",
      "Ġ!\" Ğ",
      "% Ĝ",
      "Ā *",
      "Ę ĝ",
      "Ġ!ğ ĝ",
      "Ġ\"Ğ !",
      "ĝ #",
      "Ġğ Ĝ",
      "Ġ% !",
      "Ġ#! ğ",
      "Ě Ĝ",
      "Ġ Ā",
      "Ġ\"\" Ğ",
      "\" $",
      "& #",
      "* ĀĀ",
      "Ě Ğ",
      "ĝ !",
      "Ġğ $",
      "Ġ\"! ĝ",
      "Ġĝ! !",
      "ĀĀĞ Ā",
      "ĀĀ\" Ā",
      "' !",
      ") ĀĀ",
      "ĝ $",
      "ğ Ĝ",
      "Ġğ ě",
      "Ġě !",
      "ĠğĞ Ğ",
      "ĠĞĞ ğ",
      "ĀĀ# Ā",
      "# $",
      "ę !",
      "ę Ğ",
      "ĝ \"",
      "Ġğ\" Ğ",
      "% &",
      "' \"",
      "ĀĀ ĕ",
      "Ġğğ #",
      "Ġ\"\" !",
      "ě Ĝ",
      "ğ ě",
      "Ġ Ē",
      "Ġ!\" \"",
      "Ġ\"Ğ Ğ",
      "Ġĝğ \"",
      "\" %",
      "$ Ĝ",
      "& &",
      "Ā +",
      "ė Ğ",
      "Ğ ě",
      "Ġ!! Ĝ",
      "ĠğĞ \"",
      "Ġ!ĝ ğ",
      "Ġ!# ğ",
      "\" Ĝ",
      "Ę ğ",
      "ĝ ĝ",
      "Ğ #",
      "Ġğ %",
      "Ġğ! #",
      "ĠĞğ #",
      "Ġ#! Ğ",
      "Ġ#\" ğ",
      "( \"",
      "ĀĀ ,",
      "ĠğĞ #",
      "ĠĞ! Ğ",
      "Ġ#ğ Ğ",
      "ĀĀ! Ā",
      "' #",
      "Ġ! &",
      "Ġĝ Ĝ",
      "Ġě ğ",
      "Ġ#! !",
      "Ġĝğ ğ",
      "( !",
      "ĀĀ -",
      "Ġ# $",
      "Ġğğ ĝ",
      "Ġ\"! \"",
      "ĠĞĞ \"",
      "Ġĝ! \"",
      "ĠĝĞ !",
      "! Ĝ",
      "( ğ",
      "ę ě",
      "Ě ě",
      "Ĝ ě",
      "Ğ $",
      "ĠĞ ě",
      "ĀĀ .",
      "ĀĀ Ē",
      "Ġĝ $",
      "Ġğ! ĝ",
      "ĠĠĠĠĠĠĠĠ ĠĠĠĠĠĠĠĠĠĠ",
      "ĠĞğ Ğ",
      "ĠĞ\" ğ",
      "Ġ!ĝ !",
      "Ġ!# !",
      "Ġ!# Ğ",
      "Ġğĝ ğ",
      "# &",
      "& ĝ",
      "' Ğ",
      "Ę Ğ",
      "ĝ Ĝ",
      "Ğ Ĝ",
      "ğ Ě",
      "ĠĠĠĠĠĠĠĠ ĠĠĠĠĠĠĠ",
      "Ġ#\" !",
      "ĀĀĜ Ā",
      "& $",
      ") ğ",
      "Ę \"",
      "ę Ĝ",
      "ĀĀ *",
      "ĀĀ ē",
      "ĠĜ Ĝ",
      "Ġě \"",
      "Ġ\"ğ ĝ",
      "ĠĞ! #",
      "Ġ\"\" ĝ",
      "Ġĝ! ğ",
      "ĀĀě Ā",
      "\" ě",
      "# ĝ",
      "& %",
      "& Ĝ",
      "Ę !",
      "Ġ /",
      "ĀĀ Ĕ",
      "Ġ\"ğ \"",
      "Ġ!Ğ ĝ",
      "Ġ#! ĝ",
      "Ġ!ĝ Ğ",
      "Ġğ# !",
      "Ġğ# Ğ",
      "Ġğ# ğ",
      "Ġğĝ Ğ",
      "Ġ\"# ğ",
      "Ġ#Ğ Ğ",
      "Ġ$ğ ğ",
      "# ě",
      "# Ĝ",
      ") !",
      "ę ĝ",
      "ğ $",
      "Ġ Ā!",
      "Ġ Ā\"",
      "Ġ! Ě",
      "Ġě ĝ",
      "Ġğ\" #",
      "Ġ\"Ğ ĝ",
      "ĀĀ! Ā!",
      "Ġĝ\" !",
      "ĠĞĝ !",
      "Ġĝĝ ğ",
      "ĀĀ% Ā",
      "$ ě",
      "% ě",
      "ė ĝ",
      "ė ğ",
      "Ġ Āğ",
      "Ġ\" Ĝ",
      "ĠĞ %",
      "ĀĀ /",
      "Ġ# ě",
      "Ġ# Ĝ",
      "Ġ% Ğ",
      "Ġ!Ğ \"",
      "ĠĞ\" \"",
      "Ġ#ğ !",
      "ĀĀ! Āğ",
      "ĀĀĞ Āğ",
      "Ġ$ğ Ğ",
      "! $",
      "$ &",
      "% '",
      "( $",
      "Ę Ĝ",
      "ę \"",
      "ğ '",
      "Ġ! $ğ",
      "Ġ!ğ Ĝ",
      "Ġ\"ğ Ĝ",
      "ĀĀğ Ā\"",
      "Ġğ# \"",
      "Ġğĝ !",
      "ĀĀĝ Ā\"",
      "Ġ\"# !",
      "Ġ\"ĝ !",
      "! %",
      "! Ě",
      "( %",
      "( Ĝ",
      "( ĝ",
      ", ĀĀ",
      "Ę $",
      "ě %",
      "ğ %",
      "ğ Ę",
      "Ġ 0",
      "ĀĀğ ĀĞ",
      "ĀĀĞ Ā#",
      "ĀĀĝ Ā",
      "ĀĀĜ Ā!",
      "Ġ#Ğ ğ",
      "Ġĝ\" ğ",
      "ĀĀ' Ā",
      ") \"",
      ") $",
      "Ā Ė",
      "Ė ĝ",
      "Ę #",
      "Ę ě",
      "ę #",
      "ę Ě",
      "Ğ Ě",
      "Ġ đ",
      "ĀĀ đ",
      "Ġ# #ğ",
      "Ġ!ğ #",
      "ĠĠĠĠĠĠĠĠ ĠĠĠĠĠĠĠĠĠĠĠĠ",
      "ĠĞ! ĝ",
      "Ġ\"\" \"",
      "ĀĀ! Ā\"",
      "ĀĀ# Ā!",
      "Ġ\"# Ğ",
      "ĠĝĞ \"",
      "ĠĞ# !",
      "Ġĝĝ !",
      "ĠĜğ \"",
      "Ġĝ# !",
      "! ě",
      "\" '",
      "\" Ě",
      "# Ě",
      "% Ě",
      "' $",
      "( #",
      "( Ğ",
      "ė !",
      "ę $",
      "ĝ ě",
      "ğ ę",
      "Ġ Āě",
      "Ġ! Ĝğ",
      "Ġ\" ě",
      "Ġ\" $Ğ",
      "Ġ!ğ $",
      "Ġğğ Ĝ",
      "ĠĚ ğ",
      "Ġ\"! Ĝ",
      "Ġ#! \"",
      "Ġ!# ĝ",
      "ĀĀ! ĀĞ",
      "ĀĀ\" Ā!",
      "Ġğĝ \"",
      "ĀĀĝ Ā!",
      "ĀĀĝ Āğ",
      "ĀĀĝ ĀĞ",
      "ĀĀĝ Ā#",
      "Ġ\"# ĝ",
      "ĠĝĞ ğ",
      "ĠĞ# \"",
      "Ġ$! ğ",
      "Ġ$Ğ ğ",
      "\" &",
      "$ %",
      "& ě",
      "' &",
      "' '",
      "' ĝ",
      "( &",
      "* !",
      "* #",
      "+ ĀĀ",
      "ė \"",
      "ė Ě",
      "Ĝ Ě",
      "ĝ %",
      "ĝ Ě",
      "Ġ ĀĜ",
      "Ġ! ě",
      "Ġ\" %",
      "Ġ\" $ğ",
      "Ġĝ %",
      "ĠĜ #",
      "Ġ!! #",
      "Ġ% #",
      "Ġğ! $",
      "Ġ\"! #",
      "ĠğĞ ĝ",
      "Ġ!\" ĝ",
      "ĀĀğ Āğ",
      "ĀĀğ Ā#",
      "Ġĝğ #",
      "Ġ#ğ Ĝ",
      "Ġĝ! #",
      "ĀĀ! Āĝ",
      "ĀĀĞ Ā!",
      "ĀĀ\" Āğ",
      "ĀĀ\" Ā$",
      "ĀĀ# Ā\"",
      "Ġ\"ĝ Ğ",
      "Ġ\"ĝ ğ",
      "! &",
      "# ĀĀ",
      "' %",
      "' (",
      "* \"",
      "+ !",
      "ę %",
      "Ě Ě",
      "ĝ &",
      "Ğ %",
      "Ġ ĀĞ",
      "Ġ Āĝ",
      "Ġğ $!",
      "Ġğ Ĝ\"",
      "Ġ\" $!",
      "Ġ# %",
      "Ġ# $Ğ",
      "ĠĜ !!",
      "Ġğğ $",
      "Ġğ! %",
      "Ġ!\" #",
      "Ġ!Ğ #",
      "Ġ\"Ğ Ĝ",
      "Ġ#! #",
      "ĀĀğ Ā!",
      "ĀĀğ ĀĜ",
      "ĀĀĞ Ā\"",
      "ĀĀĞ Ā%",
      "ĀĀ\" Āĝ",
      "Ġ#\" Ğ",
      "Ġ#Ğ !",
      "Ġ#Ğ ĝ",
      "ĀĀ& Ā",
      "ĠĜ! \"",
      "Ġ$! Ğ",
      "ĀĀĘ Ā",
      "$ Ě",
      "* '",
      "ĕ ĝ",
      "Ė !",
      "ė ė",
      "ę Ė",
      "Ě %",
      "ĝ )",
      "Ğ )",
      "Ġ! %",
      "Ġğ Ĝğ",
      "Ġğ $Ğ",
      "Ġ\" &",
      "Ġ\" Ě",
      "ĠĞ Ĝ!",
      "Ġ$ %",
      "Ġ$ Ĝ",
      "ĠĜ Ğ!",
      "Ġ% ğ",
      "Ġğ\" ĝ",
      "ĠĞĞ Ğ",
      "ĀĀğ Ā%",
      "Ġ!# \"",
      "Ġ#ğ ĝ",
      "ĀĀ! Ā#",
      "ĀĀ! Ā$",
      "ĀĀ! ĀĜ",
      "ĀĀĝ Āĝ",
      "Ġĝ\" \"",
      "ĀĀ$ Āĝ",
      "Ġĝĝ Ğ",
      "Ġ$\" !",
      "Ġ$\" ĝ",
      "Ġ$\" Ğ",
      "ĠĜğ !",
      "Ġ## Ğ",
      "# %",
      "& (",
      "& ĀĀě",
      ") %",
      ") ĝ",
      "Ā ,",
      "ĕ Ĝ",
      "ĕ ĀĀ",
      "Ė \"",
      "Ė #",
      "Ė Ĝ",
      "Ė Ğ",
      "ė Ĝ",
      "Ğ ę",
      "ğ &",
      "Ġ Ā$",
      "Ġ! '",
      "Ġğ Ě",
      "Ġ\" Ĝğ",
      "ĠĞ Ě",
      "ĠĞ Ĝ\"",
      "Ġ$ ě",
      "Ġ$ Ğ!",
      "Ġ!! $",
      "Ġ\"ğ #",
      "ĠĞ! $",
      "Ġ\"Ğ \"",
      "ĠĞĞ #",
      "ĠĞ\" #",
      "ĀĀğ Āĝ",
      "ĀĀğ Ā$",
      "ĀĀğ Āě",
      "Ġ!ĝ \"",
      "Ġ!ĝ #",
      "ĀĀĞ ĀĞ",
      "ĀĀĞ Ā$",
      "ĀĀ\" Ā\"",
      "ĀĀ\" ĀĞ",
      "ĀĀ\" Ā#",
      "Ġĝ\" #",
      "Ġ\"ĝ \"",
      "ĀĀ$ Ā\"",
      "ĀĀĚ Ā",
      "ĀĀĚ Āğ",
      "Ġ$\" ğ",
      "Ġ#ĝ Ğ",
      "Ġĝ# \"",
      "! ę",
      "\" ę",
      "( ě",
      "* $",
      "* (",
      "* Ğ",
      "Ĕ ě",
      "Ė ě",
      "Ę ę",
      "Ę ĀĀ",
      "Ĝ Ę",
      "Ĝ ę",
      "Ğ (",
      "ğ ĕ",
      "Ġ Đ",
      "Ġ Ā#",
      "Ġ! Ĝ!",
      "Ġ! $!",
      "Ġ! ěğ",
      "Ġğ &",
      "Ġğ ĜĞ",
      "Ġ\" ĜĞ",
      "Ġ\" $ĝ",
      "Ġ# ĜĞ",
      "Ġ$ !!",
      "ĠĜ $",
      "ĠĜ ě",
      "ĠĜ \"ğ",
      "Ġ% \"",
      "ĠĚ ĝ",
      "ĠĞ\" Ğ",
      "ĀĀ\" ĀĜ",
      "Ġğ# ĝ",
      "ĀĀĝ Ā$",
      "ĀĀĝ ĀĜ",
      "ĀĀ# ĀĞ",
      "ĀĀ# Ā$",
      "ĀĀĜ Āĝ",
      "Ġĝ\" ĝ",
      "ĠĞĝ Ğ",
      "ĠĞ# #",
      "ĠĞ# ğ",
      "ĀĀĚ ĀĞ",
      "ĀĀę Ā",
      "ĀĀę Ā!",
      "ĀĀĖ Ā$",
      "! (",
      "' ě",
      ") &",
      ") *",
      "* +",
      ". ĀĀ",
      "Ĕ Ĝ",
      "Ė ğ",
      "ė $",
      "ė ę",
      "ė ě",
      "Ę &",
      "Ę Ė",
      "ę ę",
      "Ĝ %",
      "Ĝ Ĕ",
      "Ġ ď",
      "Ġ Ā%",
      "Ġ! $\"",
      "Ġ! $#",
      "Ġğ $ğ",
      "Ġğ $\"",
      "ĠĞ Ĝğ",
      "ĠĞ $!",
      "ĠĞ $Ğ",
      "Ġ# $ğ",
      "ĠĜ \"\"",
      "Ġ% Ğ!",
      "Ġ% ğĞ",
      "Ġğ! ě",
      "ĠĠĠĠĠĠĠĠ ĠĠĠĠĠĠ",
      "ĠĠĠĠĠĠĠĠ ĠĠĠĠĠĠĠĠĠĠĠ",
      "Ġ& $",
      "Ġ\"! ě",
      "Ġę Ğ",
      "Ġ\"ğ $",
      "ĠĞğ $",
      "ĠĞğ ĝ",
      "Ġ!Ğ $",
      "Ġğ\" $",
      "ĠĘ Ğ",
      "Ġ!ĝ ĝ",
      "ĀĀĞ Āĝ",
      "ĀĀĞ ĀĜ",
      "ĀĀĞ Ā&",
      "ĀĀĞ Āě",
      "Ġğ# #",
      "ĀĀĜ Ā#",
      "ĠĝĞ #",
      "ĠĞĝ \"",
      "Ġ$ğ ĝ",
      "ĀĀ$ Ā!",
      "ĀĀĚ Ā!",
      "ĀĀĚ Ā\"",
      "ĀĀĚ Ā#",
      "Ġĝĝ \"",
      "ĀĀ% Āğ",
      "ĠĜğ ğ",
      "ĀĀ& Āğ",
      "Ġ$! ĝ",
      "ĀĀ( Ā",
      "Ġ$Ğ ĝ",
      "ĠĜĝ !",
      "Ġ$# Ĝ",
      "! '",
      "\" +",
      "\" Ę",
      "% ę",
      "& )",
      "' Ě",
      "( )",
      "( Ě",
      ") -",
      "+ '",
      "Ā ĕ",
      "Ē ĝ",
      "Ĕ ĝ",
      "ĕ \"",
      "ĕ Ğ",
      "Ė ę",
      "ė ĕ",
      "ė Ę",
      "ė ĀĀ",
      "Ę %",
      "Ě &",
      "Ě Ę",
      "Ĝ '",
      "Ĝ (",
      "ĝ Ė",
      "Ġğ Ĝ#",
      "Ġ\" Ĝ!",
      "Ġ\" %Ğ",
      "Ġĝ ě",
      "Ġĝ $!",
      "Ġ$ $",
      "Ġ$ #ğ",
      "Ġ$ %ğ",
      "Ġě !!",
      "Ġě \"ğ",
      "Ġğğ %",
      "Ġğğ &",
      "Ġ% !!",
      "Ġğ! Ĝ",
      "Ġ& !",
      "Ġ& \"",
      "Ġ& ĝ",
      "Ġ& ğğ",
      "Ġ' !",
      "Ġ' \"",
      "Ġ\"! Ě",
      "ĠğĞ $",
      "ĠĞ! Ĝ",
      "Ġ!\" ě",
      "Ġ\"Ğ #",
      "ĠĞ\" $",
      "ĠĞ\" ĝ",
      "ĀĀğ ĀĚ",
      "Ġ!ĝ $",
      "Ġĝğ ĝ",
      "Ġ!# #",
      "Ġĝ! $",
      "Ġĝ! Ğ",
      "ĀĀ! Ā%",
      "ĀĀ! Āě",
      "ĀĀ! Āę",
      "ĀĀ\" Ā&",
      "ĀĀ\" Ā'",
      "ĀĀ# Āğ",
      "ĀĀ# Āĝ",
      "ĀĀ# ĀĜ",
      "Ġ#\" \"",
      "Ġ\"# Ĝ",
      "ĀĀĜ ĀĜ",
      "Ġ#Ğ \"",
      "Ġ#Ğ ě",
      "Ġ\"ĝ ĝ",
      "Ġ$ğ !",
      "ĠĞ# Ğ",
      "ĀĀ$ Āğ",
      "ĀĀĚ Ā&",
      "ĀĀ% Ā&",
      "ĠĜğ #",
      "ĀĀ& Ā\"",
      "ĀĀ& Āĝ",
      "ĀĀ& ĀĜ",
      "Ġ#ĝ ĝ",
      "ĀĀ' Āğ",
      "Ġ## !",
      "Ġ$ĝ Ğ",
      "ĠěĞ ğ",
      "ĀĀĖ Ā\"",
      "# (",
      "$ (",
      "$ ę",
      "% %",
      "% Ę",
      "' +",
      ") #",
      ") (",
      "* *",
      "+ Ĝ",
      "ē ĀĀ",
      "Ĕ #",
      "ĕ !",
      "ĕ ğ",
      "Ė ė",
      "ė #",
      "ė &",
      "Ę '",
      "Ę ĕ",
      "ę ĀĀ",
      "ě &",
      "ě ę",
      "ĝ (",
      "ĝ ,",
      "Ğ ė",
      "Ğ Ę",
      "ğ +",
      "Ġ 2",
      "Ġ! ĜĞ",
      "Ġ! $ĝ",
      "Ġğ ę",
      "Ġğ $#",
      "Ġğ %Ğ",
      "Ġ\" ę",
      "Ġ\" ěğ",
      "ĠĞ $#",
      "ĀĀ ď",
      "Ġĝ &",
      "Ġĝ Ĝ!",
      "Ġ$ #Ğ",
      "ĠĜ \"!",
      "Ġě Ĝğ",
      "Ġě Ĝ!",
      "Ġ!! ě",
      "Ġ!ğ ě",
      "Ġğğ ě",
      "Ġ% $"
    ]
  }
}