{
  "version": "1.0",
  "truncation": null,
  "padding": null,
  "added_tokens": [],
  "normalizer": null,
  "pre_tokenizer": {
    "type": "ByteLevel",
    "add_prefix_space": false,
    "trim_offsets": true,
    "use_regex": true
  },
  "post_processor": {
    "type": "ByteLevel",
    "add_prefix_space": true,
    "trim_offsets": false,
    "use_regex": true
  },
  "decoder": {
    "type": "ByteLevel",
    "add_prefix_space": true,
    "trim_offsets": true,
    "use_regex": true
  },
  "model": {
    "type": "BPE",
    "dropout": null,
    "unk_token": null,
    "continuing_subword_prefix": null,
    "end_of_word_suffix": null,
    "fuse_unk": false,
    "byte_fallback": false,
    "ignore_merges": false,
    "vocab": {
      "\u0000": 0,
      "\u0001": 1,
      "\u0002": 2,
      "\u0003": 3,
      "\u0004": 4,
      "\u0005": 5,
      "\u0006": 6,
      "\u0007": 7,
      "\b": 8,
      "\t": 9,
      "\n": 10,
      "\u000b": 11,
      "\f": 12,
      "\r": 13,
      "\u000e": 14,
      "\u000f": 15,
      "\u0010": 16,
      "\u0011": 17,
      "\u0012": 18,
      "\u0013": 19,
      "\u0014": 20,
      "\u0015": 21,
      "\u0016": 22,
      "\u0017": 23,
      "\u0018": 24,
      "\u0019": 25,
      "\u001a": 26,
      "\u001b": 27,
      "\u001c": 28,
      "\u001d": 29,
      "\u001e": 30,
      "\u001f": 31,
      " ": 32,
      "!": 33,
      "\"": 34,
      "#": 35,
      "$": 36,
      "%": 37,
      "&": 38,
      "'": 39,
      "(": 40,
      ")": 41,
      "*": 42,
      "+": 43,
      ",": 44,
      "-": 45,
      ".": 46,
      "/": 47,
      "0": 48,
      "1": 49,
      "2": 50,
      "3": 51,
      "4": 52,
      "5": 53,
      "6": 54,
      "7": 55,
      "8": 56,
      "9": 57,
      ":": 58,
      ";": 59,
      "<": 60,
      "=": 61,
      ">": 62,
      "?": 63,
      "@": 64,
      "A": 65,
      "B": 66,
      "C": 67,
      "D": 68,
      "E": 69,
      "F": 70,
      "G": 71,
      "H": 72,
      "I": 73,
      "J": 74,
      "K": 75,
      "L": 76,
      "Ā": 77,
      "ā": 78,
      "ă": 79,
      "Ą": 80,
      "ą": 81,
      "Ć": 82,
      "ć": 83,
      "Ĉ": 84,
      "ĉ": 85,
      "Ċ": 86,
      "ċ": 87,
      "Č": 88,
      "č": 89,
      "Ď": 90,
      "ď": 91,
      "Đ": 92,
      "đ": 93,
      "Ē": 94,
      "ē": 95,
      "Ĕ": 96,
      "ĕ": 97,
      "Ė": 98,
      "ė": 99,
      "Ę": 100,
      "ę": 101,
      "Ě": 102,
      "ě": 103,
      "Ĝ": 104,
      "ĝ": 105,
      "Ğ": 106,
      "ğ": 107,
      "Ġ": 108,
      "&&": 109,
      "&&&&": 110,
      "&'": 111,
      "&%": 112,
      "&&%": 113,
      "&&'": 114,
      "ĀĀ": 115,
      "&(": 116,
      "&$": 117,
      "&&(": 118,
      "&&$": 119,
      "&)": 120,
      "&#": 121,
      "%&&": 122,
      "'&&": 123,
      "%&&&&": 124,
      "'&&&&": 125,
      "&*": 126,
      "&\"": 127,
      "&&#": 128,
      "&&)": 129,
      "&'&&&&": 130,
      "&%&&&&": 131,
      "$&&": 132,
      "(&&": 133,
      "&&%&": 134,
      "&&'&": 135,
      "&+": 136,
      ")&&": 137,
      "#&&": 138,
      "&!": 139,
      "$&&&&": 140,
      "(&&&&": 141,
      "&&&&&&&&": 142,
      "&&%&'": 143,
      "&&'&'": 144,
      "&&%&%": 145,
      "\"&&": 146,
      "&&'&%": 147,
      "'%": 148,
      "*&&": 149,
      "''": 150,
      "%%": 151,
      "&,": 152,
      "&&&%": 153,
      "%'": 154,
      "&&&'": 155,
      "&&\"": 156,
      "&&%&(": 157,
      "&&*": 158,
      "&-": 159,
      "&&'&$": 160,
      "&&'&(": 161,
      "&&$&'": 162,
      "#&&&&": 163,
      "&&%&$": 164,
      "'(": 165,
      "&&(&": 166,
      "&$&&&&": 167,
      ")&&&&": 168,
      "%$": 169,
      "&&(&'": 170,
      "!&&": 171,
      "&&(&%": 172,
      "&(&&&&": 173,
      "('": 174,
      "&&$&": 175,
      "$'": 176,
      "&&$&%": 177,
      "+&&": 178,
      "%(": 179,
      "&&%&&&&": 180,
      "$%": 181,
      "%&&&%": 182,
      "'&&&'": 183,
      "Ā(": 184,
      "&&'&&&&": 185,
      "&ğ": 186,
      "ĀĀ%": 187,
      "Ā)": 188,
      "'$": 189,
      "Ā$": 190,
      "Ġ&&": 191,
      "(%": 192,
      "ĀĀ&": 193,
      "&&'&&": 194,
      "ĀĀ$": 195,
      "ĀĀ'": 196,
      "%%&&&&": 197,
      "&&%&&": 198,
      "''&&&&": 199,
      "&&%&)": 200,
      "Ā%": 201,
      "ĀĀ(": 202,
      "Ā\"": 203,
      "&.": 204,
      "&&(&$": 205,
      "'%&&&&": 206,
      "ĀĀ#": 207,
      "Ā#": 208,
      "Ā*": 209,
      "&&$&(": 210,
      "&&'&#": 211,
      "Ā!": 212,
      "&&(&(": 213,
      "$$": 214,
      "\"&&&&": 215,
      "&&%&#": 216,
      "%'&&&&": 217,
      "Ā'": 218,
      "ĀĀ\"": 219,
      "($": 220,
      "&&$&$": 221,
      ",&&": 222,
      "&&'&)": 223,
      "%&&)": 224,
      "((": 225,
      "&Ğ": 226,
      "'&&)": 227,
      "ĀĀ)": 228,
      "*&&&&": 229,
      "'&&#": 230,
      "$(": 231,
      "ğ&&": 232,
      "Ā+": 233,
      "#'": 234,
      "%)": 235,
      "-&&": 236,
      "&&'&&'": 237,
      "ĀĀ!": 238,
      "%&&#": 239,
      "%#": 240,
      "Ā,": 241,
      "'#": 242,
      "&&%&&%": 243,
      ")'": 244,
      "(&&&'": 245,
      "&&&": 246,
      "&&'&&%": 247,
      ")%": 248,
      ")(": 249,
      "ĀĀ*": 250,
      "&&)&'": 251,
      "$&&&%": 252,
      "&&$&)": 253,
      "&&)&%": 254,
      "&ĝ": 255,
      "Ā-": 256,
      "&&#&'": 257,
      "&&%&*": 258,
      ")$": 259,
      "&/": 260,
      "&&!": 261,
      "&&%&&'": 262,
      "&&+": 263,
      "&&'&\"": 264,
      "#%": 265,
      "#$": 266,
      "&#&&&&": 267,
      "&&#&%": 268,
      "&&(&#": 269,
      "(#": 270,
      "ĀĀ+": 271,
      "!&&&&": 272,
      "&&(&&": 273,
      "Āğ": 274,
      "ĀĀğ": 275,
      "&)&&&&": 276,
      "#(": 277,
      "&&$&#": 278,
      "&&$&&": 279,
      "')": 280,
      "ĀĀ,": 281,
      "&&#&(": 282,
      "%&&&'": 283,
      "+&&&&": 284,
      "Ā.": 285,
      "&&%&\"": 286,
      "&&'&*": 287,
      "$#": 288,
      "&Ĝ": 289,
      "&&(&)": 290,
      "'&&\"": 291,
      "%&&\"": 292,
      "'&&&%": 293,
      "%&&*": 294,
      "$)": 295,
      "&'%": 296,
      "&&)&$": 297,
      "ĀĀ%Ā": 298,
      "ĀĀ-": 299,
      "&'&&&&%": 300,
      "'\"": 301,
      "Ğ&&": 302,
      "Ġ(": 303,
      "Ġ&&&&": 304,
      "'&&*": 305,
      "&$&'": 306,
      "&'&&&&'": 307,
      "$%&&&&": 308,
      "*%": 309,
      "ĀĀ/": 310,
      "*(": 311,
      "ĀĀ&Ā": 312,
      "\"'": 313,
      "ĝ&&": 314,
      "&'%&&&&": 315,
      ")&&&'": 316,
      "ĀĀ$Ā": 317,
      "\"$": 318,
      "&&%&&&%": 319,
      "%*": 320,
      "&(&%": 321,
      "%(&&&&": 322,
      "()": 323,
      "&%'": 324,
      "&&)&(": 325,
      "&&(&&&&": 326,
      ")#": 327,
      "&&'&&&'": 328,
      "*$": 329,
      "*'": 330,
      "+ĀĀ": 331,
      "&%&&&&'": 332,
      "(&&\"": 333,
      "&&&&&&&&&&&&": 334,
      "%\"": 335,
      "'&&&&&": 336,
      "ĀĀ'Ā": 337,
      "&''": 338,
      "&&$&*": 339,
      "&&#&": 340,
      "&&)&": 341,
      "##": 342,
      "&%%&&&&": 343,
      "&&(&*": 344,
      "&&(&\"": 345,
      ".&&": 346,
      "ĀĀĞ": 347,
      "&&$&\"": 348,
      "\"(": 349,
      "&(&'": 350,
      "&&$&&&&": 351,
      "%&&&$": 352,
      "$&&\"": 353,
      "$&&*": 354,
      "'*": 355,
      "'$&&&&": 356,
      "$*": 357,
      "(\"": 358,
      "ĀĀĜ": 359,
      "&&&'&&&&": 360,
      "&&%&!": 361,
      "'(&&&&": 362,
      "&&#&$": 363,
      "%&&+": 364,
      "#)": 365,
      "&&%&+": 366,
      "&&'&+": 367,
      ")&&\"": 368,
      "ĀĞ": 369,
      "ĀĀ.": 370,
      "&&(&&'": 371,
      "\"%": 372,
      "$'&&&&": 373,
      "(%&&&&": 374,
      "ĀĀě": 375,
      "&&#&)": 376,
      "$&&&$": 377,
      "&&'&!": 378,
      "(*": 379,
      "('&&&&": 380,
      "))": 381,
      "&%&'": 382,
      "ĀĀĝ": 383,
      "&&'&&(": 384,
      "(&&*": 385,
      "&&,": 386,
      "&\"&&&&": 387,
      "&%&&&&%": 388,
      "$\"": 389,
      "Ġ%": 390,
      "ĀĀ(Ā": 391,
      "%&&!": 392,
      "&&)&#": 393,
      "&'&&&&&&": 394,
      "#&&\"": 395,
      "&&%&&&&&&&&": 396,
      "&(&": 397,
      "%&&&%&": 398,
      "ĀĀ\"Ā": 399,
      "%$&&&&": 400,
      "Ġ$": 401,
      "'!": 402,
      "(+": 403,
      "&'&%": 404,
      "&%&&&&&&&&": 405,
      "'&&&'&": 406,
      "ĀĀ)Ā": 407,
      ")*": 408,
      "&%'&&&&": 409,
      "&&%&&$": 410,
      "&&$&+": 411,
      "ĀĀ#Ā": 412,
      "ĀĀĚ": 413,
      "'&&+": 414,
      "&''&&&&": 415,
      "'&&!": 416,
      "*#": 417,
      "+(": 418,
      ",&&&&": 419,
      "#&&*": 420,
      "Ġ'": 421,
      "&%%": 422,
      "&&%'": 423,
      ")&&*": 424,
      "Ġ!": 425,
      "&%$": 426,
      "#\"": 427,
      "&&(&+": 428,
      "&&#&*": 429,
      "&&)&)": 430,
      "&&'&&&&&&&&": 431,
      "&&&%&": 432,
      "&&&'&": 433,
      "&%&&&&&&": 434,
      "+$": 435,
      "Ġ#": 436,
      "$&&!": 437,
      "%!": 438,
      "&ě": 439,
      "Ġ&(": 440,
      "&&%&&(": 441,
      ")\"": 442,
      "&'&'": 443,
      "&&$&&'": 444,
      "&*&&&&": 445,
      "(&&!": 446,
      "#&&&%": 447,
      "((&&&&": 448,
      "*)": 449,
      "ĀĀ!Ā": 450,
      "!%": 451,
      "!'": 452,
      "Ġ\"": 453,
      "&&(&!": 454,
      "%&&&&&": 455,
      "&'&&&&&&&&": 456,
      "+#": 457,
      "&$%": 458,
      "$&&+": 459,
      "+'": 460,
      "-ĀĀ": 461,
      "ğ&&&&": 462,
      "&$&%": 463,
      "&&#&#": 464,
      "ĀĀ*Ā": 465,
      ",ĀĀ": 466,
      "\"&&*": 467,
      "$!": 468,
      "&ĀĀ": 469,
      "&(&(": 470,
      "\")": 471,
      "Ġ*": 472,
      "&&&&&&&&&&&&&&&&": 473,
      "&&%&&&&&": 474,
      "!$": 475,
      "Ġ&'": 476,
      "&&ğ": 477,
      "(&&+": 478,
      "*&&\"": 479,
      ",)": 480,
      "&('": 481,
      "#&&!": 482,
      "\"#": 483,
      "&&-": 484,
      "&%(": 485,
      "&&%%": 486,
      "#&&+": 487,
      "Ġ)": 488,
      "&$'": 489,
      "&&#&&": 490,
      "Ġ&)": 491,
      "&&%&&&'": 492,
      "#+": 493,
      "%+": 494,
      "+%": 495,
      "&&)&&": 496,
      "&&)&\"": 497,
      "\"\"": 498,
      "',": 499,
      "&(&$": 500,
      "&&$&!": 501,
      "%#&&&&": 502,
      "+)": 503,
      "ĀĀę": 504,
      "'&&&)": 505,
      "*&&*": 506,
      "!#": 507,
      "!(": 508,
      "*+": 509,
      "Ĝ&&": 510,
      "ĠĀ": 511,
      "&&&&%": 512,
      "&&&&'": 513,
      "&&%&,": 514,
      "\"&&\"": 515,
      "&&'&&&&&": 516,
      "&&'&&$": 517,
      "ĀĀ+Ā": 518,
      "*\"": 519,
      "Ġ&%": 520,
      "&#&'": 521,
      "'%&&'&": 522,
      "#!": 523,
      "#*": 524,
      ")+": 525,
      "&%&%": 526,
      "&&#&\"": 527,
      ".ĀĀ": 528,
      "%&&&&'": 529,
      "')&&&&": 530,
      "),": 531,
      "&($": 532,
      "(&&&(": 533,
      "'+": 534,
      "/ĀĀ": 535,
      "Ġ&": 536,
      "&&&%&&&&": 537,
      "&'$": 538,
      "&&(%": 539,
      "'&&&&%": 540,
      "\"&&+": 541,
      "!)": 542,
      "(,": 543,
      "&&#&+": 544,
      "Āĝ": 545,
      "ğ)": 546,
      "&&(&&$": 547,
      ")&&!": 548,
      "%,": 549,
      "(!": 550,
      "/&&": 551,
      "%&&&&%": 552,
      ")&&+": 553,
      "*&&&'": 554,
      "$+": 555,
      ")!": 556,
      "**": 557,
      "Ā/": 558,
      "Ġ+": 559,
      "&((": 560,
      "%&&ğ": 561,
      "'&&&(": 562,
      "'&&&&&&&&": 563,
      "&&)&*": 564,
      "''&&'&": 565,
      "&&$&&%": 566,
      "&&$&&$": 567,
      "'&&,": 568,
      "%&&&&&&&&": 569,
      "Ġ&$": 570,
      "Ġ&*": 571,
      "&%&'&&&&": 572,
      "&&'&&)": 573,
      "&&$&,": 574,
      "%&&&&&&": 575,
      "#&&&$": 576,
      "&Ě": 577,
      ",'": 578,
      "Ġ&#": 579,
      "&&Ğ": 580,
      "&&''": 581,
      "&$$": 582,
      "&%&&&&(": 583,
      ")&&&(": 584,
      "&'(": 585,
      "&&%&'&&&&": 586,
      "&&'&&&%": 587,
      "&$(": 588,
      "$&&,": 589,
      "$&&&#": 590,
      "*&&!": 591,
      "%&&'&": 592,
      "(ĀĀ": 593,
      "&%%'": 594,
      "'&&&&'": 595,
      "(&&,": 596,
      "&&%&-": 597,
      "&&'&ğ": 598,
      "#&&,": 599,
      "%&&&%&'": 600,
      "$&&&%&": 601,
      "ĀĀ,Ā": 602,
      "\"!": 603,
      "\"+": 604,
      "'#&&&&": 605,
      "-&&&&": 606,
      "\"*": 607,
      "*!": 608,
      "-&": 609,
      "Ġ,": 610,
      "&&(&&%": 611,
      "&&$&&(": 612,
      "%&&,": 613,
      "&&*&%": 614,
      "&&%&&&%&&&&": 615,
      "ĀĀĞĀ": 616,
      "$,": 617,
      "$$&&&&": 618,
      "'ğ": 619,
      "*ĀĀ": 620,
      "++": 621,
      "&&%&&#": 622,
      "&(%": 623,
      "&#%": 624,
      "(&&&%": 625,
      "'&&&'&%": 626,
      "ĀĀğĀ": 627,
      "($&&&&": 628,
      ")ĀĀ": 629,
      "'&&ğ": 630,
      "&+&&&&": 631,
      "&(&&&&%": 632,
      "Ġ-": 633,
      "&&.": 634,
      "&&'%": 635,
      "&&'&'&&&&": 636,
      "&(#": 637,
      "&$&(": 638,
      "&&)&!": 639,
      "\"&&&%": 640,
      "&&\"&%": 641,
      "&$&&&&'": 642,
      "!!": 643,
      "$ĀĀ": 644,
      "'ĀĀ": 645,
      "+*": 646,
      ",+": 647,
      "&$&": 648,
      "%&&-": 649,
      "&&)&+": 650,
      ")&&&)": 651,
      "#&&&#": 652,
      "&!&&&&": 653,
      "&'\"": 654,
      "&&(&&(": 655,
      "&&$&&&%": 656,
      "'&&&&&&": 657,
      "'&&&&&%": 658,
      "%%&&%&": 659,
      "(&&&'&": 660,
      "ĀĀ-Ā": 661,
      "!\"": 662,
      "%&'&&&&": 663,
      "%)&&&&": 664,
      "'-": 665,
      "Ğ!": 666,
      "ğ$": 667,
      "&&%%&&&&": 668,
      "&&%&%&&&&": 669,
      "%&&Ğ": 670,
      "&*&%": 671,
      "&&'&,": 672,
      "(-": 673,
      "(ğ": 674,
      "&%#": 675,
      "&$&$": 676,
      "!&&+": 677,
      "ĀĀ/Ā": 678,
      "!+": 679,
      "#ğ": 680,
      "%-": 681,
      ")ğ": 682,
      ")%&&&&": 683,
      ",*": 684,
      "ě&&": 685,
      "Ġğ": 686,
      "&%&&'&": 687,
      "&&'&%&&&&": 688,
      "&&(&,": 689,
      "'&&&&&'": 690,
      ")&&,": 691,
      "*&&&)": 692,
      "%'&&%&": 693,
      "#ĀĀ": 694,
      "%&&%&": 695,
      "'&&'&": 696,
      ".&": 697,
      "&&&$": 698,
      "&&%&&)": 699,
      "&&(&&&'": 700,
      "&)$": 701,
      "%&&&#": 702,
      "&\"&'": 703,
      "&'&&&&(": 704,
      "$&&-": 705,
      "(&&-": 706,
      "!&&!": 707,
      "'&&&'&'": 708,
      "&&'&&&'&&&&": 709,
      "%&&)&%": 710,
      "&ę": 711,
      "'&&%&": 712,
      "ğ(": 713,
      "ĠĀĀ": 714,
      "Ġ&&\"": 715,
      "&&ĝ": 716,
      "&&&&$": 717,
      "&&'%&&&&": 718,
      "&$#": 719,
      "'&&-": 720,
      "\"&&&#": 721,
      "''&&'&%": 722,
      "&&*&'": 723,
      "+&&&)": 724,
      "&&'&&&%&&&&": 725,
      "ĀĀĜĀ": 726,
      "'&&%&'": 727,
      ")'&&&&": 728,
      "*,": 729,
      "Ğ\"": 730,
      "Ġ&&*": 731,
      "&%&&&&&": 732,
      "(&&&)": 733,
      "$&&&&%": 734,
      "\"&&-": 735,
      "'%&&'&'": 736,
      "$%&&%&": 737,
      "&&'&&&(": 738,
      "ĀĀĝĀ": 739,
      "#,": 740,
      "%ĝ": 741,
      "&Ę": 742,
      ",%": 743,
      "Ġ&+": 744,
      "&&'&&#": 745,
      "&##": 746,
      "&'&&&&&": 747,
      "#&&ğ": 748,
      "'%%&&&&": 749,
      "''&&'&'": 750,
      "&&(&ğ": 751,
      "&(&&&&'": 752,
      "&&%&&&$": 753,
      "\",": 754,
      "$#&&&&": 755,
      "(#&&&&": 756,
      "*-": 757,
      "-)": 758,
      "ğ%": 759,
      "&'*": 760,
      "&'(&&&&": 761,
      "&%)": 762,
      "&&''&&&&": 763,
      "&$*": 764,
      "&)'": 765,
      "&&#&!": 766,
      "$&&ğ": 767,
      "&&%&.": 768,
      "\"&&,": 769,
      "&&&'&'": 770,
      "+&&!": 771,
      "&&%&&&'&&&&": 772,
      "+\"": 773,
      ",#": 774,
      ",$": 775,
      "-$": 776,
      ".$": 777,
      "&%&&%&": 778,
      "&%$&&&&": 779,
      "&(*": 780,
      "&#'": 781,
      "$&&/": 782,
      "\"&&!": 783,
      "&&'&%&'": 784,
      "&&&'&%": 785,
      "+&&&(": 786,
      "()&&&&": 787,
      "+!": 788,
      ",(": 789,
      "-*": 790,
      "..": 791,
      "Ě&&": 792,
      "Ğ&": 793,
      "Ġ&\"": 794,
      "&&%'&&&&": 795,
      "ĀĀė": 796,
      "%&&.": 797,
      "&%&&&&$": 798,
      "*&&ğ": 799,
      "&&&%&'": 800,
      "!&&&#": 801,
      "Ġ&&!": 802,
      ",&&!": 803,
      "ĀĀ.Ā": 804,
      "#-": 805,
      "#$&&&&": 806,
      ".(": 807,
      "./": 808,
      "00": 809,
      "ĝ$": 810,
      "Ğ&&&&": 811,
      "&%&&'&'": 812,
      "&()": 813,
      "&))": 814,
      "%&&&&(": 815,
      "&&#&,": 816,
      "$&&&'": 817,
      "&&%&ğ": 818,
      ")&&-": 819,
      "#&&-": 820,
      "&&%&%&'": 821,
      "\"&&ğ": 822,
      "'''&&&&": 823,
      "%%&&%&'": 824,
      "%'&&%&'": 825,
      "&&(&Ğ": 826,
      "+&&+": 827,
      "%&&&%&%": 828,
      "'&&)&": 829,
      "!*": 830,
      "$(&&&&": 831,
      "%&'": 832,
      ",,": 833,
      "-%": 834,
      "-'": 835,
      ".&&&&": 836,
      "Ĝ$": 837,
      "Ġ1": 838,
      "Ġě": 839,
      "&')": 840,
      "&%*": 841,
      "ĀĀĖ": 842,
      "&(+": 843,
      "&$)": 844,
      "'&&ĝ": 845,
      "'&&Ğ": 846,
      "(&&.": 847,
      "(&&ğ": 848,
      ")&&ğ": 849,
      "'%&&'&(": 850,
      "''%&&&&": 851,
      "%%'&&&&": 852,
      "%'%&&&&": 853,
      "&&\"&": 854,
      "(%&&'&%": 855,
      "&&'&&&$": 856,
      "#'&&&&": 857,
      "%\"&&&&": 858,
      "(&&%&'": 859,
      ")-": 860,
      ",\"": 861,
      "-(": 862,
      "/&&&&": 863,
      "ĝ!": 864,
      "ĝ#": 865,
      "ĝ'": 866,
      "Ğ$": 867,
      "&$&&": 868,
      "&&(&-": 869,
      "&&$&-": 870,
      "%&&&(": 871,
      "%&&&)": 872,
      "'%%": 873,
      "*&&&*": 874,
      "%''&&&&": 875,
      "&&\"&*": 876,
      "'&&&'&$": 877,
      "ĀĀ%Ā$": 878,
      "&&'&&&'&": 879,
      "ĀĀěĀ": 880,
      "#%&&&&": 881,
      "(&&%&%": 882,
      "))&&&&": 883,
      ".%": 884,
      "ğ\"": 885,
      "Ġĝ": 886,
      "Ġ&,": 887,
      "&'&&'&": 888,
      "ĀĀĕ": 889,
      "&&$&&#": 890,
      "&)%": 891,
      "'&&&$": 892,
      "&\"(": 893,
      "&'&&&&$": 894,
      "(&&&*": 895,
      "(&&&&&": 896,
      "'(&&'&": 897,
      "&$&&&&%": 898,
      "&$&&&&(": 899,
      "$'&&%&'": 900,
      "+&&,": 901,
      "ĀĀ&Ā$": 902,
      "'&&#&'": 903,
      "%&&#&%": 904,
      "%&&&'&": 905,
      "&&%&&&%&": 906,
      "ĀĀĚĀ": 907,
      "!ĀĀ": 908,
      "\"ğ": 909,
      "$Ğ": 910,
      "$&&'&": 911,
      "'&%&&&&": 912,
      "'&&%&%": 913,
      "*.": 914,
      "-#": 915,
      "ğ#": 916,
      "Ġ.": 917,
      "Ġ%&&": 918,
      "&%&%&&&&": 919,
      "&#*": 920,
      "'%&&'&%": 921,
      "*&&+": 922,
      "&&$&ğ": 923,
      "%&&)&": 924,
      "&&$&&&$": 925,
      "$-": 926,
      "$&&'&%": 927,
      "%&&'&'": 928,
      "'&'": 929,
      "(ĝ": 930,
      "(Ğ": 931,
      ")Ğ": 932,
      "&'#": 933,
      "&'&%&&&&": 934,
      "&)\"": 935,
      "&)(": 936,
      "&)&&": 937,
      "&#&$": 938,
      "&\"#": 939,
      "&&)&,": 940,
      "$&&Ğ": 941,
      "#&&.": 942,
      "%%%&&&&": 943,
      "!&&,": 944,
      "('&&'&'": 945,
      "ĀĀ%Ā(": 946,
      "ĀĀ%Ā)": 947,
      "Ġ&&,": 948,
      "(%&&'&": 949,
      "ĀĀ(Ā$": 950,
      "(&&&'&%": 951,
      "&'&&&&'&": 952,
      "$&&&$&": 953,
      "%ĀĀ": 954,
      "%&%&&&&": 955,
      "'*&&&&": 956,
      "*ğ": 957,
      "+.": 958,
      "/&": 959,
      "ğ*": 960,
      "ĠĞ": 961,
      "&'$&&&&": 962,
      "&'%%&&&&": 963,
      "&%!": 964,
      "&%\"": 965,
      "&%$'": 966,
      "ĀĀ:": 967,
      "&(\"": 968,
      "&)*": 969,
      "%&&&&&'": 970,
      "&*(": 971,
      "&&)&&&&": 972,
      "&&)&&'": 973,
      "&%&&&&&&&&&&&&": 974,
      "$&&.": 975,
      "&&'&Ğ": 976,
      "#&&&'": 977,
      "#&&&\"": 978,
      "\"&&&\"": 979,
      "&&\"&$": 980,
      "&&*&$": 981,
      "&&'&&''": 982,
      "&'&&&&%&": 983,
      "%&&&$&": 984,
      "$&&'&'": 985,
      "'&'&&&&": 986,
      ")(&&&&": 987,
      ".+": 988,
      "ĘĀ": 989,
      "ę&&": 990,
      "ĝ&": 991,
      "ğ'": 992,
      "Ġ/": 993,
      "&%(&&&&": 994,
      "&%''": 995,
      "&&%&&&&&&&&&&&&": 996,
      "&&('": 997,
      "&&$'": 998,
      "'&&&&(": 999,
      "&*'": 1000,
      "\"&&&$": 1001,
      "&&\"&'": 1002,
      "&&*&\"": 1003,
      "!&&&\"": 1004,
      "('&&'&": 1005,
      "Ġ&&+": 1006,
      "ĀĀ&Ā\"": 1007,
      "ĀĀ$Ā#": 1008,
      "ĀĀ#Ā(": 1009,
      "'&&)&$": 1010,
      "'&&#&%": 1011,
      "&&'&&%%": 1012,
      "&'%&&&&&": 1013,
      "&%%&&&&&": 1014,
      "!-": 1015,
      "$)&&&&": 1016,
      "%ğ": 1017,
      "(&&'&'": 1018,
      "(\"&&&&": 1019,
      ")$&&&&": 1020,
      "ĝ&&&&": 1021,
      "Ğ(": 1022,
      "ĠĜ": 1023,
      "&'&&%&": 1024,
      "&%&&%&%": 1025,
      "&%&&'&%": 1026,
      "&&%(": 1027,
      "&&%&&*": 1028,
      "&(&&%&": 1029,
      "&$&&'&'": 1030,
      "&&$&&)": 1031,
      "%&&/": 1032,
      "%&&ĝ": 1033,
      "'&&/": 1034,
      "%&&&&&%": 1035,
      "%&&&&&(": 1036,
      "%&&&&&&&&&&&&": 1037,
      "'&&&&&&&&&&&&": 1038,
      "&%&&&&&&%&&&&": 1039,
      "(&&Ğ": 1040,
      "(&&&(&": 1041,
      ")&&ĝ": 1042,
      "'%&&'&$": 1043,
      "'%&&(&%": 1044,
      "&&\"&#": 1045,
      "&&*&": 1046,
      "&&*&#": 1047,
      "'(&&'&'": 1048,
      "$%&&%&'": 1049,
      "$%&&%&%": 1050,
      "ĀĀ%Ā*": 1051,
      "ĀĀ$Ā$": 1052,
      "ĀĀ$Ā!": 1053,
      "ĀĀ'Ā(": 1054,
      "ĀĀ'Ā\"": 1055,
      "ĀĀ#Ā)": 1056,
      "&&%&&%'": 1057,
      "&&%&&'%": 1058,
      "&%&&&&'&": 1059,
      "!Ğ": 1060,
      "\"ĀĀ": 1061,
      "#%&&#": 1062,
      ").": 1063,
      "+-": 1064,
      "-\"": 1065,
      ".'": 1066,
      "/'": 1067,
      "/*": 1068,
      "11": 1069,
      "Ĝ&": 1070,
      "&'!": 1071,
      "&(!": 1072,
      "&(&#": 1073,
      "&)+": 1074,
      "%&&&\"": 1075,
      "'&&.": 1076,
      "'&&&&&$": 1077,
      "&*%": 1078,
      "&*&'": 1079,
      "&'&&&&&&'&&&&": 1080,
      "(&&ĝ": 1081,
      "(&&&$": 1082,
      "&+)": 1083,
      ")&&.": 1084,
      ")&&Ğ": 1085,
      "#&&Ĝ": 1086,
      "&!$": 1087,
      "&!(": 1088,
      "%%&&'&": 1089,
      "%%&&%&$": 1090,
      "&&&%&%": 1091,
      "&&\"&\"": 1092,
      "%$&&%&'": 1093,
      "!&&-": 1094,
      "&&$&%&'": 1095,
      "Ā()": 1096,
      "ĀĀ$Ā)": 1097,
      "ĀĀ'Ā)": 1098,
      "ĀĀ'Ā$": 1099,
      "ĀĀ(Ā'": 1100,
      "ĀĀ\"Ā'": 1101,
      ",&&,": 1102,
      "(&&&'&'": 1103,
      "&%&&&&&&&&&&&": 1104,
      "!/": 1105,
      "\"$&&": 1106,
      "$&&%&'": 1107,
      "'.": 1108,
      "(.": 1109,
      "(&&'&": 1110,
      ",/": 1111,
      "ĝĀĀ": 1112,
      "Ğ%": 1113,
      "Ġ&&'&'": 1114,
      "&%&&%&'": 1115,
      "&&%&&%&&&&": 1116,
      "&&'&&'&&&&": 1117,
      "&(&&": 1118,
      "&&(&&#": 1119,
      "&#&%": 1120,
      "%&&&$&'": 1121,
      "'&&Ĝ": 1122,
      "'&&&(&%": 1123,
      "&*$": 1124,
      "&&#&&&&": 1125,
      "&&#&-": 1126,
      "$&&&\"": 1127,
      "$&&&&&": 1128,
      "(&&&&%": 1129,
      "&&%&%&'&&&&": 1130,
      "&&%&%%'": 1131,
      "\"&&&'": 1132,
      "'%'": 1133,
      "'%'&&&&": 1134,
      "%%&&$&'": 1135,
      "&,&&&&": 1136,
      "!&&ğ": 1137,
      "&(&&&&(": 1138,
      "+&&-": 1139,
      "'&&&'&(": 1140,
      "ĀĀ%Ā%": 1141,
      "(%&&'&'": 1142,
      "ĀĀ&Ā)": 1143,
      "ĀĀ$Ā(": 1144,
      "ĀĀ$Ā%": 1145,
      "%%&&&&&": 1146,
      "ĀĀ(Ā#": 1147,
      "ĀĀ\"Ā$": 1148,
      "%&&)&(": 1149,
      "'&&#&": 1150,
      "%&&#&'": 1151,
      "&&%&&%'&&&&": 1152,
      "'&&&%&": 1153,
      ")&&&'&": 1154,
      "\"&&%&'": 1155,
      "#Ğ": 1156,
      "#$&&": 1157,
      "#&&'&'": 1158,
      "##&&&&": 1159,
      "$/": 1160,
      "%&&%&'": 1161,
      "'\"&&&&": 1162,
      "(&": 1163,
      "(/": 1164,
      "(&&%&": 1165,
      "/)": 1166,
      "20": 1167,
      "Ĝ!": 1168,
      "Ğ*": 1169,
      "Ğğ": 1170,
      "ĞĀĀ": 1171,
      "Ġ0": 1172,
      "Ġ&!": 1173,
      "&&&&\"": 1174,
      "&&&&&&&": 1175,
      "&'+": 1176,
      "&%&&": 1177,
      "&%&&%&$": 1178,
      "&&%&&'&&&&": 1179,
      "&&%&'&&&&&&": 1180,
      "&&'&%&&&&&&": 1181,
      "ĀĀ>": 1182,
      "&$+": 1183,
      "&$&&%&": 1184,
      "&$&&'&%": 1185,
      "&&(&&)": 1186,
      "&&(&&&%": 1187,
      "&)&'": 1188,
      "&)&(": 1189,
      "'&&&#": 1190,
      "'&&&(&": 1191,
      "%&&&&&&%": 1192,
      "&&)&ğ": 1193,
      ")&&&%": 1194,
      ")&&&+": 1195,
      "$&&&&&%": 1196,
      "''&&(&'": 1197,
      "&&\"&)": 1198,
      "&&*&*": 1199,
      "%$&&%&": 1200,
      "('&&'&%": 1201,
      "ĀĀ&Ā#": 1202,
      "ĀĀ&Ā!": 1203,
      "ĀĀ&Ā'": 1204,
      "ĀĀ'Ā%": 1205,
      "ĀĀ'Ā#": 1206,
      "ĀĀ#Ā$": 1207,
      "ĀĀ\"Ā(": 1208,
      "%&&)&'": 1209,
      "'&&)&%": 1210,
      "&&'&&''&&&&": 1211,
      "&&'&&%%&&&&": 1212,
      "&&'&&%'&&&&": 1213,
      "$&&&%&'": 1214,
      "$&&&%&%": 1215,
      "'&&\"&(": 1216,
      "!.": 1217,
      "$&(": 1218,
      "%/": 1219,
      "*Ğ": 1220,
      ",!": 1221,
      "-+": 1222,
      ".-": 1223,
      "ě$": 1224,
      "ě)": 1225,
      "Ĝ#": 1226,
      "ĝ,": 1227,
      "ğ!": 1228,
      "Ġ&&'&": 1229,
      "Ġ\"&&": 1230,
      "Ġ&&&%": 1231,
      "&'&&": 1232,
      "&'&&'&%": 1233,
      "&'&&&'&": 1234,
      "&&'&&%&&&&": 1235,
      "ĀĀē": 1236,
      "&$\"": 1237,
      "&$&&%&'": 1238,
      "&$%'": 1239,
      "&&()": 1240,
      "&&(&&*": 1241,
      "&&$&&&'": 1242,
      "&#$": 1243,
      "'&&&'&&&&&&&&": 1244,
      "&\"$": 1245,
      "&&)&&)": 1246,
      "&'&&&&&&%&&&&": 1247,
      "&%&&&&#": 1248,
      "(&&/": 1249,
      ")&&&*": 1250,
      "(&&&&'": 1251,
      "(&&&&(": 1252,
      "(&&&&&'": 1253,
      "\"&&.": 1254,
      "'%&&(&": 1255,
      "*&&-": 1256,
      "%%$&&&&": 1257,
      "!&&Ğ": 1258,
      "&&$&/": 1259,
      "$'&&%&": 1260,
      "$'&&%&%": 1261,
      "%(&&%&'": 1262,
      "$%&&$&'": 1263,
      "%&&&%&$": 1264,
      "'$&&'&%": 1265,
      "ĀĀ&Ā(": 1266,
      "ĀĀ$Ā*": 1267,
      "''&&&&&": 1268,
      "ĀĀ(Ā%": 1269,
      "ĀĀ(Ā\"": 1270,
      "ĀĀ#Ā#": 1271,
      "ĀĀ#Ā!": 1272,
      "'&&#&(": 1273,
      "ğ&&!": 1274,
      "-&&+": 1275,
      "&&'&&'%&&&&": 1276,
      "ĀĀ!Ā!": 1277,
      "(&&&'&$": 1278,
      "'&&&%&'": 1279,
      "!,": 1280,
      "\"-": 1281,
      "#&&'&%": 1282,
      "$ğ": 1283,
      "$&&%&": 1284,
      "$\"&&&&": 1285,
      "%Ğ": 1286,
      "%*&&&&": 1287,
      "&ė": 1288,
      "'&%": 1289,
      "''&&)": 1290,
      "+,": 1291,
      "+$&&&&": 1292,
      ".,": 1293,
      "Ğ#": 1294,
      "Ğ'": 1295,
      "ğ&": 1296,
      "Ġ'&&": 1297,
      "Ġ$&&": 1298,
      "Ġ&-": 1299,
      "&'&&&'": 1300,
      "&&'(": 1301,
      "&&'&%&&&&'": 1302,
      "&&'&'&&&&&&": 1303,
      "ĀĀĔ": 1304,
      "&(-": 1305,
      "&(ğ": 1306,
      "&(&%&&&&": 1307,
      "&(&&'&": 1308,
      "&(&&%&%": 1309,
      "&$&&'&": 1310,
      "&$&&%&%": 1311,
      "&&('&&&&": 1312,
      "&#\"": 1313,
      "&#&&": 1314,
      "&\"'": 1315,
      "&\"&&": 1316,
      "&&#&&%": 1317,
      "&&#&.": 1318,
      "&&)&Ğ": 1319,
      "&+*": 1320,
      "#&&&$&'": 1321,
      "$&&&&$": 1322,
      "$&&&&(": 1323,
      "\"&&&!": 1324,
      "'%&&%&%": 1325,
      "*&&,": 1326,
      "*&&Ğ": 1327,
      "'''": 1328,
      "%%&&%&%": 1329,
      "%%&&%&(": 1330,
      ")&&&&%": 1331,
      "%$&&%&%": 1332,
      "&&$&.": 1333,
      "%(&&%&%": 1334,
      "&&'&&&$&&&&": 1335,
      "&&'&&&(&&&&": 1336,
      "ĀĀ(Ā(": 1337,
      "'%&&&&&": 1338,
      "'%&&&&'": 1339,
      "ĀĀ\"Ā#": 1340,
      "ĀĀ\"Ā*": 1341,
      ",&&+": 1342,
      "%&&)&$": 1343,
      "'&&#&$": 1344,
      "ğ&&+": 1345,
      "&&%&&'%&&&&": 1346,
      "&&(&&&(": 1347,
      "%&&&'&%": 1348,
      "&&&&&&&&&&&&&&": 1349,
      "&&&&&&&&&&&&&&&": 1350,
      "&%&&&&%&": 1351,
      "!ĝ": 1352,
      "!(&&": 1353,
      "\".": 1354,
      "\"/": 1355,
      "\"%&&&&": 1356,
      "#Ĝ": 1357,
      "$Ĝ": 1358,
      "'ĝ": 1359,
      ")ě": 1360,
      ")ĝ": 1361,
      "+/": 1362,
      ".*": 1363,
      "/+": 1364,
      "10": 1365,
      "ĀĜ": 1366,
      "Ě!": 1367,
      "ěğ": 1368,
      "Ğ)": 1369,
      "Ğ,": 1370,
      "Ğ&&+": 1371,
      "Ġ&&%&": 1372,
      "Ġ&&%&'": 1373,
      "&&&&(": 1374,
      "&&&&&&": 1375,
      "&'&&%&'": 1376,
      "&%''&&&&": 1377,
      "&&'&&\"": 1378,
      "ĀĀ=": 1379,
      "&$&)": 1380,
      "&&(&&&&&&&&": 1381,
      "&&(&&%%": 1382,
      "&&$%": 1383,
      "&)&": 1384,
      "&)&&'&'": 1385,
      "&#(": 1386,
      "&#'(": 1387,
      "'&&&*": 1388,
      "'&&&(&'": 1389,
      "&&#'": 1390,
      "&&#&ğ": 1391,
      "&&)&-": 1392,
      "$&&ĝ": 1393,
      "$&&&!": 1394,
      "$&&&$&'": 1395,
      "#&&&!": 1396,
      "$&&&&&(": 1397,
      "*&&/": 1398,
      "%%&&'&'": 1399,
      "!&&&!": 1400,
      "%&&&%&(": 1401,
      "ĀĀ%Ā!": 1402,
      "Ġ&&Ğ": 1403,
      "Ġ&&&!": 1404,
      "ĀĀ&Ā%": 1405,
      "ĀĀ&Ā*": 1406,
      "ĀĀ$Ā'": 1407,
      "ĀĀ'Ā*": 1408,
      "ĀĀ'Ā!": 1409,
      "&&%&&&$&&&&": 1410,
      "ĀĀ(Ā!": 1411,
      "ĀĀ(Ā+": 1412,
      "ĀĀ#Ā\"": 1413,
      "ĀĀ#Ā,": 1414,
      "ĀĀ\"Ā)": 1415,
      "ĀĀ\"Ā\"": 1416,
      "'&&)&'": 1417,
      "ĀĀ)Ā)": 1418,
      "ĀĀ)Ā!": 1419,
      "#'&&$&%": 1420,
      "ĀĀ!Ā*": 1421,
      "&&%&&%%&&&&": 1422,
      "Ā-'": 1423,
      "&&%&&''&&&&": 1424,
      "'&&\"&'": 1425,
      "%&&*&'": 1426,
      "&'&&&&'&'": 1427,
      "!ğ": 1428,
      "!&&&%": 1429,
      "#ĝ": 1430,
      "$ĝ": 1431,
      "$&&%&$": 1432,
      "%&$&&&&": 1433,
      "'&": 1434,
      "'&&'&%": 1435,
      "(Ĝ": 1436,
      "(&&'&%": 1437,
      "+Ě": 1438,
      "+ğ": 1439,
      "-,": 1440,
      "Ā&": 1441,
      "Ę&&": 1442,
      "ęĀĀ": 1443,
      "Ĝ\"": 1444,
      "ĝ%": 1445,
      "&'&&%&%": 1446,
      "&%+": 1447,
      "ĀĀ<": 1448,
      "&('&&&&": 1449,
      "&(&&%&'": 1450,
      "&(&&%&(": 1451,
      "&(&&'&(": 1452,
      "&$,": 1453,
      "&&$&%&&&&": 1454,
      "&#+": 1455,
      "%&&Ĝ": 1456,
      "'&&&'&&&&": 1457,
      "%&&&&#": 1458,
      "'&&&&$": 1459,
      "&\"%": 1460,
      "&&#&&#": 1461,
      "&'&&&&)": 1462,
      "&'&&&&&&%": 1463,
      "&'&&&&&&'": 1464,
      "&&'&-": 1465,
      "#&&Ğ": 1466,
      "&!)": 1467,
      "&&%&%'(": 1468,
      "\"&&Ğ": 1469,
      "'%&&(&'": 1470,
      "'%&&(&$": 1471,
      "%'&&%&(": 1472,
      "&&\"&(": 1473,
      "#&&&&'": 1474,
      "('&&(&%": 1475,
      "$'&&$&": 1476,
      "+&&ğ": 1477,
      "+&&&*": 1478,
      "%(&&%&(": 1479,
      "%(&&%&$": 1480,
      "ĀĀ%Ā\"": 1481,
      "'$&&'&'": 1482,
      "&&%&&&#": 1483,
      "ĀĀ#Ā%": 1484,
      "%'&&&&&": 1485,
      "ĀĀ)Ā%": 1486,
      "ğ&&,": 1487,
      "-&&!": 1488,
      "&&%&&%&&&%": 1489,
      "&#&&&&%": 1490,
      "%&&\"&$": 1491,
      "!&&*": 1492,
      "\"ĝ": 1493,
      "#'&&": 1494,
      "$&'&&&&": 1495,
      "$&&%&%": 1496,
      "%.": 1497,
      "%&&'&%": 1498,
      "%%&&#": 1499,
      "%!&&&&": 1500,
      "'&&(&%": 1501,
      "(&&$&'": 1502,
      ")&": 1503,
      ")/": 1504,
      ",-": 1505,
      "--": 1506,
      "ĘĀĀ": 1507,
      "ě&": 1508,
      "Ĝ,": 1509,
      "Ĝĝ": 1510,
      "Ğ+": 1511,
      "ĞĞ": 1512,
      "ĠĚ": 1513,
      "Ġ&&$&'": 1514,
      "Ġ&ğ": 1515,
      "Ġ&.": 1516,
      "&&&&&'": 1517,
      "&%,": 1518,
      "&%'(": 1519,
      "&%'%&&&&": 1520,
      "&%&&&%&": 1521,
      "&&'&&*": 1522,
      "&&'&&%&&&&&": 1523,
      "&(,": 1524,
      "&$%&&&&": 1525,
      "&$''": 1526,
      "&&((": 1527,
      "&&$&&&&&&&&": 1528,
      "&)&%": 1529,
      "&)&)": 1530,
      "&)&#": 1531,
      "&#)": 1532,
      "%&&ě": 1533,
      "%&&&%&&&&&&&&": 1534,
      "%&&&&&&'": 1535,
      "&*#": 1536,
      "&**": 1537,
      "&'&&&&#": 1538,
      "&'&&&&&&&&&&&&": 1539,
      "(&&Ĝ": 1540,
      "(&&&(&'": 1541,
      ")&&/": 1542,
      "#&&ĝ": 1543,
      "\"&&/": 1544,
      "'%$&&&&": 1545,
      "'%&&%&(": 1546,
      "*&&&(": 1547,
      "''$&&&&": 1548,
      "''&&%&%": 1549,
      "''&&(&": 1550,
      "%%%": 1551,
      "%'&&'&'": 1552,
      "%'&&%&%": 1553,
      "&&*&&&&": 1554,
      "&$&&&&$": 1555,
      ")&&&&$": 1556,
      "%$&&$&'": 1557,
      "('&&(&": 1558,
      "$'&&%&(": 1559,
      "%(&&%&": 1560,
      "%&&&%&#": 1561,
      "&&'&&&&&&": 1562,
      "ĀĀ%Ā+": 1563,
      "(%&&(&%": 1564,
      "ĀĀ$Ā+": 1565,
      "%%&&&&(": 1566,
      "ĀĀ#Ā-": 1567,
      "%'&&&&(": 1568,
      "Ā'\"": 1569,
      "'&&)&(": 1570,
      "'&&#&)": 1571,
      "ĀĀ!Ā(": 1572,
      "ĀĀ!Ā%": 1573,
      "ĀĀ!Ā#": 1574,
      "%&&#&)": 1575,
      "&&%&&%%": 1576,
      ")'&&'&'": 1577,
      ")%&&'&": 1578,
      "ĀĀ*Ā(": 1579,
      "ĀĀ+Ā)": 1580,
      "ĀĀ+Ā$": 1581,
      "&&$&&&#": 1582,
      "%&&&'&'": 1583,
      "&&&&&&&&&&&&&": 1584,
      "%&&&&&&&&&&&": 1585,
      "!'&&": 1586,
      "!$&&\"": 1587,
      "\"(&&": 1588,
      "#ě": 1589,
      "#(&&&&": 1590,
      "$.": 1591,
      "$&&'&$": 1592,
      "'&(": 1593,
      "'%&&*": 1594,
      "(&&%&(": 1595,
      ")&&'&%": 1596,
      "*'&&": 1597,
      "+%&&*": 1598,
      "/,": 1599,
      "/-": 1600,
      "/.": 1601,
      "02": 1602,
      "ě!": 1603,
      "ĝ(": 1604,
      "ĝ&+": 1605,
      "Ġ)&&": 1606,
      "Ġ&&'&$": 1607,
      "Ġ&&%&$": 1608,
      "Ġ,&&": 1609,
      "&&Ĝ": 1610,
      "&%&(": 1611,
      "&%&&&%": 1612,
      "&&%#": 1613,
      "&&%&&\"": 1614,
      "ĀĀď": 1615,
      "ĀĀđ": 1616,
      "&$&*": 1617,
      "&&(&&\"": 1618,
      "&&(&&%&&&%": 1619,
      "&&$'&&&&": 1620,
      "&&$&&%'": 1621,
      "&)#": 1622,
      "&)&$": 1623,
      "%&&&%&&&&": 1624,
      "&*.": 1625,
      "&\"\"": 1626,
      "&\")": 1627,
      "&&)&&&'": 1628,
      "&%&&&&&&%": 1629,
      "(&&&(&%": 1630,
      "#&&&": 1631,
      "&!%": 1632,
      "&!'": 1633,
      "(&&&&)": 1634,
      "%%'": 1635,
      "%'&&%&$": 1636,
      "&&\"&+": 1637,
      "&&*&(": 1638,
      "&-%": 1639,
      "&&'&('%&&&&": 1640,
      "&&(&.": 1641,
      "&$&&&&#": 1642,
      "%$'": 1643,
      "!&&ĝ": 1644,
      "&(&&&&$": 1645,
      "$'&&%&$": 1646,
      "%(&&'&": 1647,
      "$%'&&&&": 1648,
      "ĀĀ%Ā#": 1649,
      "Ġ&&-": 1650,
      "Ġ&&&\"": 1651,
      "(%&&'&$": 1652,
      "ĀĀ&Ā,": 1653,
      "ĀĀ&Āğ": 1654,
      "''&&&&$": 1655,
      "ĀĀ(Ā*": 1656,
      "ĀĀ#Ā*": 1657,
      "$$&&%&'": 1658,
      "%&&)&\"": 1659,
      "'&&)&\"": 1660,
      "ĀĀ)Ā$": 1661,
      "$(&&%&'": 1662,
      "ğ&&ğ": 1663,
      "#'&&%&%": 1664,
      "%)&&%&'": 1665,
      "ĀĀ!Ā)": 1666,
      "ĀĀ!Ā\"": 1667,
      "&&%&&%$": 1668,
      ")'&&'&": 1669,
      "(&&&'&(": 1670,
      ")%&&'&'": 1671,
      "ĀĀ*Ā)": 1672,
      "ĀĀ*Ā$": 1673,
      "#%&&%&'": 1674,
      "ĀĀğĀ$": 1675,
      "ĀĀğĀ'": 1676,
      "%&&\"&'": 1677,
      "ĝ&&ğ": 1678,
      "&&&&&&&&&&&&&&&&&&&&&&&&&&&&&&&&": 1679,
      "!Ĝ": 1680,
      "\"Ě": 1681,
      "\"ě": 1682,
      "##&&": 1683,
      "$%&&": 1684,
      "$$&&": 1685,
      "%ě": 1686,
      "%&$": 1687,
      "'&$&&&&": 1688,
      "('&&": 1689,
      ")&&'&'": 1690,
      ")#&&&&": 1691,
      "*/": 1692,
      "*%&&&&": 1693,
      "*'&&&&": 1694,
      "*&&'&'": 1695,
      "+(&&": 1696,
      "-.": 1697,
      "Ā'%": 1698,
      "Ā%'": 1699,
      "Ė&&": 1700,
      "Ě#": 1701,
      "Ě$": 1702,
      "Ĝ*": 1703,
      "ĝ+": 1704,
      "ĝ.": 1705,
      "ĝĞ": 1706,
      "Ġ&&#": 1707,
      "Ġ&&$&%": 1708,
      "&&&&#": 1709,
      "&'ğ": 1710,
      "&%&$": 1711,
      "&%&&$&": 1712,
      "&&%$": 1713,
      "&&%&'&&&&%": 1714,
      "&&%&%&&&&'": 1715,
      "ĀĀ@": 1716,
      "ĀĀĒ": 1717,
      "&(&&'&'": 1718,
      "&),": 1719,
      "&)&&%&%": 1720,
      "&#&*": 1721,
      "'&&ě": 1722,
      "%&&&&$": 1723,
      "%&&&&&$": 1724,
      "%&&&&&#": 1725,
      "%&&&&&&&'&&&&": 1726,
      "&*+": 1727,
      "&*,": 1728,
      "$&&&(": 1729,
      "&&%&Ğ": 1730,
      "&+'": 1731,
      ")&&Ĝ": 1732,
      "&!#": 1733,
      "$&&&&&&": 1734,
      "(&&&&$": 1735,
      "'%&&'&&'": 1736,
      "*&&&+": 1737,
      "''&&%&'": 1738,
      "%%&&'&$": 1739,
      "%%&&$&": 1740,
      "&,%": 1741,
      "%'&&$&'": 1742,
      "&&'&('%": 1743,
      "&&$&'(": 1744,
      "#&&&&$": 1745,
      "'(&&'&$": 1746,
      "'(&&'&(": 1747,
      "&&(&ĝ": 1748,
      "&$&&&&&&": 1749,
      "%$%": 1750,
      "%$&&'&'": 1751,
      "&(&&&&)": 1752,
      "&(&&&&&&": 1753,
      "$'&&$&%": 1754,
      "+&&.": 1755,
      "&&%&&&&&&'&": 1756,
      "ĀĀ&Ā+": 1757,
      "ĀĀ$Āğ": 1758,
      "ĀĀ'Ā'": 1759,
      "ĀĀ'Ā+": 1760,
      "ĀĀ'Āğ": 1761,
      "''&&&&%": 1762,
      "ĀĀ(Ā)": 1763,
      "ĀĀ#Āğ": 1764,
      "Ā')": 1765,
      "($&&'&": 1766,
      ",&&ğ": 1767,
      "ĀĀ)Ā\"": 1768,
      "ĀĀ)Ā+": 1769,
      "*&&&&(": 1770,
      "$(&&%&%": 1771,
      "ğ&&-": 1772,
      "ĀĀ*Ā,": 1773,
      "ĀĀğĀ)": 1774,
      "ĀĀğĀ%": 1775,
      "%&&\"&(": 1776,
      "'&&&%&$": 1777,
      "&'%$&&&&": 1778,
      "ĀĀ-Ā(": 1779,
      "ĀĀ-Ā#": 1780,
      "'&&*&": 1781,
      "(&&*&": 1782,
      "&&%&&$%": 1783,
      "&&$&&'%": 1784,
      "&&&&%&": 1785,
      "!'&&#": 1786,
      "\"Ĝ": 1787,
      "#.": 1788,
      "#&&%&": 1789,
      "#\"&&&&": 1790,
      "'Ğ": 1791,
      "'%&&": 1792,
      "'$&&": 1793,
      "'(&&": 1794,
      "'+&&&&": 1795,
      "'(&&*": 1796,
      "(ę": 1797,
      "(&&$&%": 1798,
      ")Ĝ": 1799,
      ")&&%&'": 1800,
      "*&'": 1801,
      "-!": 1802,
      "-Ĝ": 1803,
      "/(": 1804,
      "04": 1805,
      "05": 1806,
      "22": 1807,
      "Ęğ": 1808,
      "ę*": 1809,
      "ę&$": 1810,
      "Ěě": 1811,
      "ĚĀĀ": 1812,
      "ěě": 1813,
      "ĜĞ": 1814,
      "Ġė": 1815,
      "Ġ&&)": 1816,
      "Ġ&&$&": 1817,
      "ĠĀ)": 1818,
      "Ġ&&(&$": 1819,
      "&',": 1820,
      "&''&&&&&": 1821,
      "&%&&%&(": 1822,
      "&%#&&&&": 1823,
      "&%%&&&%": 1824,
      "&&%)": 1825,
      "&&'&'&&&&'": 1826,
      "&(%&&&&": 1827,
      "&(&&'&%": 1828,
      "&('$": 1829,
      "&$!": 1830,
      "&$&&!": 1831,
      "&&(#": 1832,
      "&&$$": 1833,
      "&&$&&&%&": 1834,
      "&&$&&%%": 1835,
      "&).": 1836,
      "&)&&%&": 1837,
      "&)&&'&": 1838,
      "&)&&%&'": 1839,
      "'&&&&&(": 1840,
      "'&&&&&&'&&&&": 1841,
      "&*)": 1842,
      "&*&&": 1843,
      "&\",": 1844,
      "&&#&&&%": 1845,
      "&&)%": 1846,
      "$&&&": 1847,
      "(&&Ě": 1848,
      "&&%&/": 1849,
      "&&'&.": 1850,
      "&+#": 1851,
      "&+$": 1852,
      "&+%": 1853,
      "''(&&&&": 1854,
      "''&&'&$": 1855,
      "''&&'&(": 1856,
      "''&&%&$": 1857,
      "%%&&$&%": 1858,
      "&,\"": 1859,
      "&,$": 1860,
      "&,&": 1861,
      "&,+": 1862,
      "&&&'&&": 1863,
      "&&$&''": 1864,
      "'(%": 1865,
      "'((": 1866,
      "'(&&'&%": 1867,
      ")&&&&(": 1868,
      "('&&'&$": 1869,
      "('&&(&(": 1870,
      "&&$&ĝ": 1871,
      "$''&&&&": 1872,
      "&&%&&&&&'": 1873,
      "$%&&$&%": 1874,
      "&ğ&&&&": 1875,
      "ĀĀ%Ā,": 1876,
      "ĀĀ%Ā.": 1877,
      "'$%&&&&": 1878,
      "Ġ&&ğ": 1879,
      "ĀĀ$Ā\"": 1880,
      "ĀĀ$Ā-": 1881,
      "ĀĀ'Ā,": 1882,
      "&&%&&&(&&&&": 1883,
      "&&%&&&#&&&&": 1884,
      "Ā%)": 1885,
      "'%&&&&(": 1886,
      "ĀĀ#Ā+": 1887,
      "$$&&%&%": 1888,
      "$$&&%&)": 1889,
      "\"&&&&%": 1890,
      "%'&&&&$": 1891,
      "($&&'&'": 1892,
      "($&&(&(": 1893,
      "'&&)&#": 1894,
      "ĀĀ)Ā(": 1895,
      "ĀĀ)Ā#": 1896,
      "-&&&+": 1897,
      "%&&#&(": 1898,
      "Ā,*": 1899,
      ")'&&'&$": 1900,
      "&&'&&%&&&%": 1901,
      "ĀĀ*Ā#": 1902,
      ")$&&(&'": 1903,
      "&&!&\"": 1904,
      "&&%&&''": 1905,
      "&&%&&'&&&'&": 1906,
      "&&+&": 1907,
      "ĀĀ+Ā!": 1908,
      "&&(&&&)": 1909,
      "ĀĀğĀ(": 1910,
      "ĀĀğĀ\"": 1911,
      "&)&&&&'": 1912,
      "&)&&&&(": 1913,
      "ĀĀ,Ā(": 1914,
      "ĀĀ,Ā%": 1915,
      "ĀĀ,Ā*": 1916,
      "'&&&%&(": 1917,
      "%(&&&&(": 1918,
      "&%'&&%&": 1919,
      "$&&\"&$": 1920,
      "$'&&&&(": 1921,
      "ĀĀĝĀ(": 1922,
      "#&&\"&": 1923,
      "&*&&&&$": 1924,
      "!ę": 1925,
      "!)&&": 1926,
      "\"Ğ": 1927,
      "\"'&&": 1928,
      "#Ė": 1929,
      "#%&&": 1930,
      "#)&&&&": 1931,
      "#'&&\"": 1932,
      "%&": 1933,
      "%'&&)": 1934,
      "%,&&&&": 1935,
      "'/": 1936,
      "'ě": 1937,
      "'&&'&'": 1938,
      "(Ę": 1939,
      "(*&&&&": 1940,
      "(%&&*": 1941,
      "*%&&": 1942,
      "*%&&)": 1943,
      "**&&&&": 1944,
      "+Ĝ": 1945,
      ",ğ": 1946,
      ".\"": 1947,
      "/#": 1948,
      "01": 1949,
      "13": 1950,
      "34": 1951,
      "Āė": 1952,
      "Āę": 1953,
      "ė&&": 1954,
      "ę\"": 1955,
      "ě+": 1956,
      "ěĜ": 1957,
      "ěĞ": 1958,
      "Ĝ/": 1959,
      "ĝ)": 1960,
      "ğ+": 1961,
      "ğ-": 1962,
      "ğĞ": 1963,
      "ğ'&&": 1964,
      "Ġ2": 1965,
      "Ġ4": 1966,
      "Ġ5": 1967,
      "Ġ+&&": 1968,
      "ĠĀ$": 1969,
      "ĠĀ\"": 1970,
      "Ġ&&%&#": 1971,
      "Ġ&&)&'": 1972,
      "Ġ'&&\"": 1973,
      "Ġ)&&\"": 1974,
      "&&&&)": 1975,
      "&&&&&%": 1976,
      "&&&&&&&%": 1977,
      "&'-": 1978,
      "&'.": 1979,
      "&'Ğ": 1980,
      "&'&&'&$": 1981,
      "&'&&(&'": 1982,
      "&'$'": 1983,
      "&'''&&&&": 1984,
      "&%&&$&'": 1985,
      "&&%&%&&&&%": 1986,
      "&&'&&%&": 1987,
      "&&'$&&&&": 1988,
      "&&'&&&&&&&&&&&&": 1989,
      "&$(&&&&": 1990,
      "&$&&'&$": 1991,
      "&$%&&&&&": 1992,
      "&&(&%&&&&": 1993,
      "&&(&&%'": 1994,
      "&&$&'&&&&": 1995,
      "&&$&&'&&&'": 1996,
      "&&$&&(%": 1997,
      "&#!": 1998,
      "&#&": 1999,
      "&#,": 2000,
      "&#&(": 2001,
      "&#&&%&": 2002,
      "&#&&%&%": 2003,
      "&#&&'&$": 2004,
      "%&&&!": 2005,
      "'&&&(&$": 2006,
      "&&#&/": 2007,
      "&%&&&&)": 2008,
      "&%&&&&'&&&&": 2009,
      "$&&&)": 2010,
      "&+(": 2011,
      "&+,": 2012,
      ")&&&,": 2013,
      ")&&&(&%": 2014,
      "#&&/": 2015,
      "#&&&ğ": 2016,
      "#&&&%&'": 2017,
      "&&%&'&%&&&&": 2018,
      "&&%&'''&&&&": 2019,
      "&&'&'&'&&&&": 2020,
      "&&%&%%": 2021,
      "&&%&%&%": 2022,
      "\"&&Ĝ": 2023,
      "\"&&&(": 2024,
      "'%(": 2025,
      "'%&&(&(": 2026,
      "*&&ě": 2027,
      "*&&ĝ": 2028,
      "''&&'&#": 2029,
      "%%&&'&(": 2030,
      "&,(": 2031,
      "%'&&'&%": 2032,
      "%'&&$&%": 2033,
      "&&&'&(": 2034,
      "&&\"&&&&": 2035,
      "&&\"&,": 2036,
      "&&%&(&%": 2037,
      "&&'&(%'": 2038,
      "&&(&Ĝ": 2039,
      "!&&&": 2040,
      "!&&.": 2041,
      "&&$&ě": 2042,
      "+&&&+": 2043,
      "%(%": 2044,
      "$%&&'&": 2045,
      "$%&&%&)": 2046,
      "'&&&'&)": 2047
    },
    "merges": [
      "& &",
      "&& &&",
      "& '",
      "& %",
      "&& %",
      "&& '",
      "Ā Ā",
      "& (",
      "& $",
      "&& (",
      "&& $",
      "& )",
      "& #",
      "% &&",
      "' &&",
      "% &&&&",
      "' &&&&",
      "& *",
      "& \"",
      "&& #",
      "&& )",
      "&' &&&&",
      "&% &&&&",
      "$ &&",
      "( &&",
      "&&% &",
      "&&' &",
      "& +",
      ") &&",
      "# &&",
      "& !",
      "$ &&&&",
      "( &&&&",
      "&&&& &&&&",
      "&&% &'",
      "&&' &'",
      "&&% &%",
      "\" &&",
      "&&' &%",
      "' %",
      "* &&",
      "' '",
      "% %",
      "& ,",
      "&& &%",
      "% '",
      "&& &'",
      "&& \"",
      "&&% &(",
      "&& *",
      "& -",
      "&&' &$",
      "&&' &(",
      "&&$ &'",
      "# &&&&",
      "&&% &$",
      "' (",
      "&&( &",
      "&$ &&&&",
      ") &&&&",
      "% $",
      "&&( &'",
      "! &&",
      "&&( &%",
      "&( &&&&",
      "( '",
      "&&$ &",
      "$ '",
      "&&$ &%",
      "+ &&",
      "% (",
      "&&% &&&&",
      "$ %",
      "%&& &%",
      "'&& &'",
      "Ā (",
      "&&' &&&&",
      "& ğ",
      "ĀĀ %",
      "Ā )",
      "' $",
      "Ā $",
      "Ġ &&",
      "( %",
      "ĀĀ &",
      "&&' &&",
      "ĀĀ $",
      "ĀĀ '",
      "% %&&&&",
      "&&% &&",
      "' '&&&&",
      "&&% &)",
      "Ā %",
      "ĀĀ (",
      "Ā \"",
      "& .",
      "&&( &$",
      "' %&&&&",
      "ĀĀ #",
      "Ā #",
      "Ā *",
      "&&$ &(",
      "&&' &#",
      "Ā !",
      "&&( &(",
      "$ $",
      "\" &&&&",
      "&&% &#",
      "% '&&&&",
      "Ā '",
      "ĀĀ \"",
      "( $",
      "&&$ &$",
      ", &&",
      "&&' &)",
      "%&& )",
      "( (",
      "& Ğ",
      "'&& )",
      "ĀĀ )",
      "* &&&&",
      "'&& #",
      "$ (",
      "ğ &&",
      "Ā +",
      "# '",
      "% )",
      "- &&",
      "&&' &&'",
      "ĀĀ !",
      "%&& #",
      "% #",
      "Ā ,",
      "' #",
      "&&% &&%",
      ") '",
      "(&& &'",
      "&& &",
      "&&' &&%",
      ") %",
      ") (",
      "ĀĀ *",
      "&&) &'",
      "$&& &%",
      "&&$ &)",
      "&&) &%",
      "& ĝ",
      "Ā -",
      "&&# &'",
      "&&% &*",
      ") $",
      "& /",
      "&& !",
      "&&% &&'",
      "&& +",
      "&&' &\"",
      "# %",
      "# $",
      "&# &&&&",
      "&&# &%",
      "&&( &#",
      "( #",
      "ĀĀ +",
      "! &&&&",
      "&&( &&",
      "Ā ğ",
      "ĀĀ ğ",
      "&) &&&&",
      "# (",
      "&&$ &#",
      "&&$ &&",
      "' )",
      "ĀĀ ,",
      "&&# &(",
      "%&& &'",
      "+ &&&&",
      "Ā .",
      "&&% &\"",
      "&&' &*",
      "$ #",
      "& Ĝ",
      "&&( &)",
      "'&& \"",
      "%&& \"",
      "'&& &%",
      "%&& *",
      "$ )",
      "&' %",
      "&&) &$",
      "ĀĀ% Ā",
      "ĀĀ -",
      "&'&&&& %",
      "' \"",
      "Ğ &&",
      "Ġ (",
      "Ġ &&&&",
      "'&& *",
      "&$ &'",
      "&'&&&& '",
      "$ %&&&&",
      "* %",
      "ĀĀ /",
      "* (",
      "ĀĀ& Ā",
      "\" '",
      "ĝ &&",
      "&' %&&&&",
      ")&& &'",
      "ĀĀ$ Ā",
      "\" $",
      "&&% &&&%",
      "% *",
      "&( &%",
      "% (&&&&",
      "( )",
      "&% '",
      "&&) &(",
      "&&( &&&&",
      ") #",
      "&&' &&&'",
      "* $",
      "* '",
      "+ ĀĀ",
      "&%&&&& '",
      "(&& \"",
      "&&&&&&&& &&&&",
      "% \"",
      "'&&&& &",
      "ĀĀ' Ā",
      "&' '",
      "&&$ &*",
      "&&# &",
      "&&) &",
      "# #",
      "&% %&&&&",
      "&&( &*",
      "&&( &\"",
      ". &&",
      "ĀĀ Ğ",
      "&&$ &\"",
      "\" (",
      "&( &'",
      "&&$ &&&&",
      "%&& &$",
      "$&& \"",
      "$&& *",
      "' *",
      "' $&&&&",
      "$ *",
      "( \"",
      "ĀĀ Ĝ",
      "&& &'&&&&",
      "&&%& !",
      "' (&&&&",
      "&&# &$",
      "%&& +",
      "# )",
      "&&%& +",
      "&&'& +",
      ")&& \"",
      "Ā Ğ",
      "ĀĀ .",
      "&&( &&'",
      "\" %",
      "$ '&&&&",
      "( %&&&&",
      "ĀĀ ě",
      "&&# &)",
      "$&& &$",
      "&&'& !",
      "( *",
      "( '&&&&",
      ") )",
      "&% &'",
      "ĀĀ ĝ",
      "&&' &&(",
      "(&& *",
      "&& ,",
      "&\" &&&&",
      "&%&&&& %",
      "$ \"",
      "Ġ %",
      "ĀĀ( Ā",
      "%&& !",
      "&&) &#",
      "&'&&&& &&",
      "#&& \"",
      "&&% &&&&&&&&",
      "&( &",
      "%&&&% &",
      "ĀĀ\" Ā",
      "% $&&&&",
      "Ġ $",
      "' !",
      "( +",
      "&' &%",
      "&%&&&& &&&&",
      "'&&&' &",
      "ĀĀ) Ā",
      ") *",
      "&% '&&&&",
      "&&% &&$",
      "&&$ &+",
      "ĀĀ# Ā",
      "ĀĀ Ě",
      "'&& +",
      "&' '&&&&",
      "'&& !",
      "* #",
      "+ (",
      ", &&&&",
      "#&& *",
      "Ġ '",
      "&% %",
      "&&% '",
      ")&& *",
      "Ġ !",
      "&% $",
      "# \"",
      "&&( &+",
      "&&# &*",
      "&&) &)",
      "&&' &&&&&&&&",
      "&&&% &",
      "&&&' &",
      "&%&&&& &&",
      "+ $",
      "Ġ #",
      "$&& !",
      "% !",
      "& ě",
      "Ġ &(",
      "&&% &&(",
      ") \"",
      "&' &'",
      "&&$ &&'",
      "&* &&&&",
      "(&& !",
      "#&& &%",
      "( (&&&&",
      "* )",
      "ĀĀ! Ā",
      "! %",
      "! '",
      "Ġ \"",
      "&&( &!",
      "%&&&& &",
      "&'&&&& &&&&",
      "+ #",
      "&$ %",
      "$&& +",
      "+ '",
      "- ĀĀ",
      "ğ &&&&",
      "&$ &%",
      "&&# &#",
      "ĀĀ* Ā",
      ", ĀĀ",
      "\"&& *",
      "$ !",
      "& ĀĀ",
      "&( &(",
      "\" )",
      "Ġ *",
      "&&&&&&&& &&&&&&&&",
      "&&%&&&& &",
      "! $",
      "Ġ &'",
      "&& ğ",
      "(&& +",
      "*&& \"",
      ", )",
      "&( '",
      "#&& !",
      "\" #",
      "&& -",
      "&% (",
      "&&% %",
      "#&& +",
      "Ġ )",
      "&$ '",
      "&&# &&",
      "Ġ &)",
      "&&% &&&'",
      "# +",
      "% +",
      "+ %",
      "&&) &&",
      "&&) &\"",
      "\" \"",
      "' ,",
      "&( &$",
      "&&$ &!",
      "% #&&&&",
      "+ )",
      "ĀĀ ę",
      "'&& &)",
      "*&& *",
      "! #",
      "! (",
      "* +",
      "Ĝ &&",
      "Ġ Ā",
      "&&&& %",
      "&&&& '",
      "&&%& ,",
      "\"&& \"",
      "&&'&&&& &",
      "&&' &&$",
      "ĀĀ+ Ā",
      "* \"",
      "Ġ &%",
      "&# &'",
      "'% &&'&",
      "# !",
      "# *",
      ") +",
      "&% &%",
      "&&# &\"",
      ". ĀĀ",
      "%&&&& '",
      "' )&&&&",
      ") ,",
      "&( $",
      "(&& &(",
      "' +",
      "/ ĀĀ",
      "Ġ &",
      "&& &%&&&&",
      "&' $",
      "&&( %",
      "'&&&& %",
      "\"&& +",
      "! )",
      "( ,",
      "&&# &+",
      "Ā ĝ",
      "ğ )",
      "&&( &&$",
      ")&& !",
      "% ,",
      "( !",
      "/ &&",
      "%&&&& %",
      ")&& +",
      "*&& &'",
      "$ +",
      ") !",
      "* *",
      "Ā /",
      "Ġ +",
      "&( (",
      "%&& ğ",
      "'&& &(",
      "'&&&& &&&&",
      "&&) &*",
      "'' &&'&",
      "&&$ &&%",
      "&&$ &&$",
      "'&& ,",
      "%&&&& &&&&",
      "Ġ &$",
      "Ġ &*",
      "&% &'&&&&",
      "&&' &&)",
      "&&$ &,",
      "%&&&& &&",
      "#&& &$",
      "& Ě",
      ", '",
      "Ġ &#",
      "&& Ğ",
      "&&' '",
      "&$ $",
      "&%&&&& (",
      ")&& &(",
      "&' (",
      "&&% &'&&&&",
      "&&' &&&%",
      "&$ (",
      "$&& ,",
      "$&& &#",
      "*&& !",
      "% &&'&",
      "( ĀĀ",
      "&% %'",
      "'&&&& '",
      "(&& ,",
      "&&%& -",
      "&&'& ğ",
      "#&& ,",
      "%&&&% &'",
      "$&&&% &",
      "ĀĀ, Ā",
      "\" !",
      "\" +",
      "' #&&&&",
      "- &&&&",
      "\" *",
      "* !",
      "- &",
      "Ġ ,",
      "&&( &&%",
      "&&$ &&(",
      "%&& ,",
      "&&* &%",
      "&&%&& &%&&&&",
      "ĀĀĞ Ā",
      "$ ,",
      "$ $&&&&",
      "' ğ",
      "* ĀĀ",
      "+ +",
      "&&% &&#",
      "&( %",
      "&# %",
      "(&& &%",
      "'&&&' &%",
      "ĀĀğ Ā",
      "( $&&&&",
      ") ĀĀ",
      "'&& ğ",
      "&+ &&&&",
      "&(&&&& %",
      "Ġ -",
      "&& .",
      "&&' %",
      "&&' &'&&&&",
      "&( #",
      "&$ &(",
      "&&) &!",
      "\"&& &%",
      "&&\" &%",
      "&$&&&& '",
      "! !",
      "$ ĀĀ",
      "' ĀĀ",
      "+ *",
      ", +",
      "&$ &",
      "%&& -",
      "&&) &+",
      ")&& &)",
      "#&& &#",
      "&! &&&&",
      "&' \"",
      "&&( &&(",
      "&&$ &&&%",
      "'&&&& &&",
      "'&&&& &%",
      "%% &&%&",
      "(&&&' &",
      "ĀĀ- Ā",
      "! \"",
      "% &'&&&&",
      "% )&&&&",
      "' -",
      "Ğ !",
      "ğ $",
      "&&% %&&&&",
      "&&% &%&&&&",
      "%&& Ğ",
      "&* &%",
      "&&'& ,",
      "( -",
      "( ğ",
      "&% #",
      "&$ &$",
      "!&& +",
      "ĀĀ/ Ā",
      "! +",
      "# ğ",
      "% -",
      ") ğ",
      ") %&&&&",
      ", *",
      "ě &&",
      "Ġ ğ",
      "&% &&'&",
      "&&' &%&&&&",
      "&&( &,",
      "'&&&& &'",
      ")&& ,",
      "*&& &)",
      "%' &&%&",
      "# ĀĀ",
      "% &&%&",
      "' &&'&",
      ". &",
      "&& &$",
      "&&% &&)",
      "&&( &&&'",
      "&) $",
      "%&& &#",
      "&\" &'",
      "&'&&&& (",
      "$&& -",
      "(&& -",
      "!&& !",
      "'&&&' &'",
      "&&'&& &'&&&&",
      "%&&) &%",
      "& ę",
      "' &&%&",
      "ğ (",
      "Ġ ĀĀ",
      "Ġ &&\"",
      "&& ĝ",
      "&&&& $",
      "&&' %&&&&",
      "&$ #",
      "'&& -",
      "\"&& &#",
      "'' &&'&%",
      "&&* &'",
      "+&& &)",
      "&&'&& &%&&&&",
      "ĀĀĜ Ā",
      "' &&%&'",
      ") '&&&&",
      "* ,",
      "Ğ \"",
      "Ġ &&*",
      "&%&&&& &",
      "(&& &)",
      "$&&&& %",
      "\"&& -",
      "'% &&'&'",
      "$% &&%&",
      "&&'&& &(",
      "ĀĀĝ Ā",
      "# ,",
      "% ĝ",
      "& Ę",
      ", %",
      "Ġ &+",
      "&&' &&#",
      "&# #",
      "&'&&&& &",
      "#&& ğ",
      "'% %&&&&",
      "'' &&'&'",
      "&&(& ğ",
      "&(&&&& '",
      "&&%&& &$",
      "\" ,",
      "$ #&&&&",
      "( #&&&&",
      "* -",
      "- )",
      "ğ %",
      "&' *",
      "&' (&&&&",
      "&% )",
      "&&' '&&&&",
      "&$ *",
      "&) '",
      "&&# &!",
      "$&& ğ",
      "&&%& .",
      "\"&& ,",
      "&&&' &'",
      "+&& !",
      "&&%&& &'&&&&",
      "+ \"",
      ", #",
      ", $",
      "- $",
      ". $",
      "&% &&%&",
      "&% $&&&&",
      "&( *",
      "&# '",
      "$&& /",
      "\"&& !",
      "&&'&% &'",
      "&&&' &%",
      "+&& &(",
      "( )&&&&",
      "+ !",
      ", (",
      "- *",
      ". .",
      "Ě &&",
      "Ğ &",
      "Ġ &\"",
      "&&% '&&&&",
      "ĀĀ ė",
      "%&& .",
      "&%&&&& $",
      "*&& ğ",
      "&&&% &'",
      "!&& &#",
      "Ġ&& !",
      ",&& !",
      "ĀĀ. Ā",
      "# -",
      "# $&&&&",
      ". (",
      ". /",
      "0 0",
      "ĝ $",
      "Ğ &&&&",
      "&% &&'&'",
      "&( )",
      "&) )",
      "%&&&& (",
      "&&# &,",
      "$&& &'",
      "&&%& ğ",
      ")&& -",
      "#&& -",
      "&&%&% &'",
      "\"&& ğ",
      "'' '&&&&",
      "%% &&%&'",
      "%' &&%&'",
      "&&(& Ğ",
      "+&& +",
      "%&&&% &%",
      "'&&) &",
      "! *",
      "$ (&&&&",
      "% &'",
      ", ,",
      "- %",
      "- '",
      ". &&&&",
      "Ĝ $",
      "Ġ 1",
      "Ġ ě",
      "&' )",
      "&% *",
      "ĀĀ Ė",
      "&( +",
      "&$ )",
      "'&& ĝ",
      "'&& Ğ",
      "(&& .",
      "(&& ğ",
      ")&& ğ",
      "'% &&'&(",
      "'' %&&&&",
      "%% '&&&&",
      "%' %&&&&",
      "&&\" &",
      "(% &&'&%",
      "&&'&& &$",
      "# '&&&&",
      "% \"&&&&",
      "( &&%&'",
      ") -",
      ", \"",
      "- (",
      "/ &&&&",
      "ĝ !",
      "ĝ #",
      "ĝ '",
      "Ğ $",
      "&$ &&",
      "&&( &-",
      "&&$ &-",
      "%&& &(",
      "%&& &)",
      "'% %",
      "*&& &*",
      "%' '&&&&",
      "&&\" &*",
      "'&&&' &$",
      "ĀĀ% Ā$",
      "&&'&&&' &",
      "ĀĀě Ā",
      "# %&&&&",
      "( &&%&%",
      ") )&&&&",
      ". %",
      "ğ \"",
      "Ġ ĝ",
      "Ġ &,",
      "&' &&'&",
      "ĀĀ ĕ",
      "&&$ &&#",
      "&) %",
      "'&& &$",
      "&\" (",
      "&'&&&& $",
      "(&& &*",
      "(&&&& &",
      "'( &&'&",
      "&$&&&& %",
      "&$&&&& (",
      "$' &&%&'",
      "+&& ,",
      "ĀĀ& Ā$",
      "'&&# &'",
      "%&&# &%",
      "%&&&' &",
      "&&%&&&% &",
      "ĀĀĚ Ā",
      "! ĀĀ",
      "\" ğ",
      "$ Ğ",
      "$ &&'&",
      "' &%&&&&",
      "' &&%&%",
      "* .",
      "- #",
      "ğ #",
      "Ġ .",
      "Ġ %&&",
      "&% &%&&&&",
      "&# *",
      "'% &&'&%",
      "*&& +",
      "&&$& ğ",
      "%&&) &",
      "&&$&& &$",
      "$ -",
      "$ &&'&%",
      "% &&'&'",
      "' &'",
      "( ĝ",
      "( Ğ",
      ") Ğ",
      "&' #",
      "&' &%&&&&",
      "&) \"",
      "&) (",
      "&) &&",
      "&# &$",
      "&\" #",
      "&&) &,",
      "$&& Ğ",
      "#&& .",
      "%% %&&&&",
      "!&& ,",
      "(' &&'&'",
      "ĀĀ% Ā(",
      "ĀĀ% Ā)",
      "Ġ&& ,",
      "(% &&'&",
      "ĀĀ( Ā$",
      "(&&&' &%",
      "&'&&&&' &",
      "$&&&$ &",
      "% ĀĀ",
      "% &%&&&&",
      "' *&&&&",
      "* ğ",
      "+ .",
      "/ &",
      "ğ *",
      "Ġ Ğ",
      "&' $&&&&",
      "&' %%&&&&",
      "&% !",
      "&% \"",
      "&% $'",
      "ĀĀ :",
      "&( \"",
      "&) *",
      "%&&&& &'",
      "&* (",
      "&&) &&&&",
      "&&) &&'",
      "&%&&&& &&&&&&&&",
      "$&& .",
      "&&'& Ğ",
      "#&& &'",
      "#&& &\"",
      "\"&& &\"",
      "&&\" &$",
      "&&* &$",
      "&&'&&' '",
      "&'&&&&% &",
      "%&&&$ &",
      "$ &&'&'",
      "' &'&&&&",
      ") (&&&&",
      ". +",
      "Ę Ā",
      "ę &&",
      "ĝ &",
      "ğ '",
      "Ġ /",
      "&% (&&&&",
      "&% ''",
      "&&% &&&&&&&&&&&&",
      "&&( '",
      "&&$ '",
      "'&&&& (",
      "&* '",
      "\"&& &$",
      "&&\" &'",
      "&&* &\"",
      "!&& &\"",
      "(' &&'&",
      "Ġ&& +",
      "ĀĀ& Ā\"",
      "ĀĀ$ Ā#",
      "ĀĀ# Ā(",
      "'&&) &$",
      "'&&# &%",
      "&&'&&% %",
      "&'%&&&& &",
      "&%%&&&& &",
      "! -",
      "$ )&&&&",
      "% ğ",
      "( &&'&'",
      "( \"&&&&",
      ") $&&&&",
      "ĝ &&&&",
      "Ğ (",
      "Ġ Ĝ",
      "&' &&%&",
      "&% &&%&%",
      "&% &&'&%",
      "&&% (",
      "&&% &&*",
      "&( &&%&",
      "&$ &&'&'",
      "&&$ &&)",
      "%&& /",
      "%&& ĝ",
      "'&& /",
      "%&&&& &%",
      "%&&&& &(",
      "%&&&& &&&&&&&&",
      "'&&&& &&&&&&&&",
      "&%&&&& &&%&&&&",
      "(&& Ğ",
      "(&& &(&",
      ")&& ĝ",
      "'% &&'&$",
      "'% &&(&%",
      "&&\" &#",
      "&&* &",
      "&&* &#",
      "'( &&'&'",
      "$% &&%&'",
      "$% &&%&%",
      "ĀĀ% Ā*",
      "ĀĀ$ Ā$",
      "ĀĀ$ Ā!",
      "ĀĀ' Ā(",
      "ĀĀ' Ā\"",
      "ĀĀ# Ā)",
      "&&%&&% '",
      "&&%&&' %",
      "&%&&&&' &",
      "! Ğ",
      "\" ĀĀ",
      "# %&&#",
      ") .",
      "+ -",
      "- \"",
      ". '",
      "/ '",
      "/ *",
      "1 1",
      "Ĝ &",
      "&' !",
      "&( !",
      "&( &#",
      "&) +",
      "%&& &\"",
      "'&& .",
      "'&&&& &$",
      "&* %",
      "&* &'",
      "&'&&&& &&'&&&&",
      "(&& ĝ",
      "(&& &$",
      "&+ )",
      ")&& .",
      ")&& Ğ",
      "#&& Ĝ",
      "&! $",
      "&! (",
      "%% &&'&",
      "%% &&%&$",
      "&&&% &%",
      "&&\" &\"",
      "%$ &&%&'",
      "!&& -",
      "&&$&% &'",
      "Ā( )",
      "ĀĀ$ Ā)",
      "ĀĀ' Ā)",
      "ĀĀ' Ā$",
      "ĀĀ( Ā'",
      "ĀĀ\" Ā'",
      ",&& ,",
      "(&&&' &'",
      "&%&&&&&&&& &&&",
      "! /",
      "\" $&&",
      "$ &&%&'",
      "' .",
      "( .",
      "( &&'&",
      ", /",
      "ĝ ĀĀ",
      "Ğ %",
      "Ġ &&'&'",
      "&% &&%&'",
      "&&% &&%&&&&",
      "&&' &&'&&&&",
      "&( &&",
      "&&( &&#",
      "&# &%",
      "%&& &$&'",
      "'&& Ĝ",
      "'&& &(&%",
      "&* $",
      "&&# &&&&",
      "&&# &-",
      "$&& &\"",
      "$&&&& &",
      "(&&&& %",
      "&&%&% &'&&&&",
      "&&%&% %'",
      "\"&& &'",
      "'% '",
      "'% '&&&&",
      "%% &&$&'",
      "&, &&&&",
      "!&& ğ",
      "&(&&&& (",
      "+&& -",
      "'&&&' &(",
      "ĀĀ% Ā%",
      "(% &&'&'",
      "ĀĀ& Ā)",
      "ĀĀ$ Ā(",
      "ĀĀ$ Ā%",
      "%%&&&& &",
      "ĀĀ( Ā#",
      "ĀĀ\" Ā$",
      "%&&) &(",
      "'&&# &",
      "%&&# &'",
      "&&%&&% '&&&&",
      "'&&&% &",
      ")&&&' &",
      "\" &&%&'",
      "# Ğ",
      "# $&&",
      "# &&'&'",
      "# #&&&&",
      "$ /",
      "% &&%&'",
      "' \"&&&&",
      "( &",
      "( /",
      "( &&%&",
      "/ )",
      "2 0",
      "Ĝ !",
      "Ğ *",
      "Ğ ğ",
      "Ğ ĀĀ",
      "Ġ 0",
      "Ġ &!",
      "&&&& \"",
      "&&&& &&&",
      "&' +",
      "&% &&",
      "&% &&%&$",
      "&&% &&'&&&&",
      "&&% &'&&&&&&",
      "&&' &%&&&&&&",
      "ĀĀ >",
      "&$ +",
      "&$ &&%&",
      "&$ &&'&%",
      "&&( &&)",
      "&&( &&&%",
      "&) &'",
      "&) &(",
      "'&& &#",
      "'&& &(&",
      "%&&&& &&%",
      "&&) &ğ",
      ")&& &%",
      ")&& &+",
      "$&&&& &%",
      "'' &&(&'",
      "&&\" &)",
      "&&* &*",
      "%$ &&%&",
      "(' &&'&%",
      "ĀĀ& Ā#",
      "ĀĀ& Ā!",
      "ĀĀ& Ā'",
      "ĀĀ' Ā%",
      "ĀĀ' Ā#",
      "ĀĀ# Ā$",
      "ĀĀ\" Ā(",
      "%&&) &'",
      "'&&) &%",
      "&&'&&' '&&&&",
      "&&'&&% %&&&&",
      "&&'&&% '&&&&",
      "$&&&% &'",
      "$&&&% &%",
      "'&&\" &(",
      "! .",
      "$ &(",
      "% /",
      "* Ğ",
      ", !",
      "- +",
      ". -",
      "ě $",
      "ě )",
      "Ĝ #",
      "ĝ ,",
      "ğ !",
      "Ġ &&'&",
      "Ġ \"&&",
      "Ġ &&&%",
      "&' &&",
      "&' &&'&%",
      "&' &&&'&",
      "&&' &&%&&&&",
      "ĀĀ ē",
      "&$ \"",
      "&$ &&%&'",
      "&$ %'",
      "&&( )",
      "&&( &&*",
      "&&$ &&&'",
      "&# $",
      "'&& &'&&&&&&&&",
      "&\" $",
      "&&) &&)",
      "&'&&&& &&%&&&&",
      "&%&&&& #",
      "(&& /",
      ")&& &*",
      "(&&&& '",
      "(&&&& (",
      "(&&&& &'",
      "\"&& .",
      "'% &&(&",
      "*&& -",
      "%% $&&&&",
      "!&& Ğ",
      "&&$& /",
      "$' &&%&",
      "$' &&%&%",
      "%( &&%&'",
      "$% &&$&'",
      "%&&&% &$",
      "'$ &&'&%",
      "ĀĀ& Ā(",
      "ĀĀ$ Ā*",
      "''&&&& &",
      "ĀĀ( Ā%",
      "ĀĀ( Ā\"",
      "ĀĀ# Ā#",
      "ĀĀ# Ā!",
      "'&&# &(",
      "ğ&& !",
      "-&& +",
      "&&'&&' %&&&&",
      "ĀĀ! Ā!",
      "(&&&' &$",
      "'&&&% &'",
      "! ,",
      "\" -",
      "# &&'&%",
      "$ ğ",
      "$ &&%&",
      "$ \"&&&&",
      "% Ğ",
      "% *&&&&",
      "& ė",
      "' &%",
      "' '&&)",
      "+ ,",
      "+ $&&&&",
      ". ,",
      "Ğ #",
      "Ğ '",
      "ğ &",
      "Ġ '&&",
      "Ġ $&&",
      "Ġ &-",
      "&' &&&'",
      "&&' (",
      "&&' &%&&&&'",
      "&&' &'&&&&&&",
      "ĀĀ Ĕ",
      "&( -",
      "&( ğ",
      "&( &%&&&&",
      "&( &&'&",
      "&( &&%&%",
      "&$ &&'&",
      "&$ &&%&%",
      "&&( '&&&&",
      "&# \"",
      "&# &&",
      "&\" '",
      "&\" &&",
      "&&# &&%",
      "&&# &.",
      "&&) &Ğ",
      "&+ *",
      "#&& &$&'",
      "$&&&& $",
      "$&&&& (",
      "\"&& &!",
      "'% &&%&%",
      "*&& ,",
      "*&& Ğ",
      "'' '",
      "%% &&%&%",
      "%% &&%&(",
      ")&&&& %",
      "%$ &&%&%",
      "&&$& .",
      "%( &&%&%",
      "&&'&& &$&&&&",
      "&&'&& &(&&&&",
      "ĀĀ( Ā(",
      "'%&&&& &",
      "'%&&&& '",
      "ĀĀ\" Ā#",
      "ĀĀ\" Ā*",
      ",&& +",
      "%&&) &$",
      "'&&# &$",
      "ğ&& +",
      "&&%&&' %&&&&",
      "&&(&& &(",
      "%&&&' &%",
      "&&&&&&&&&&&& &&",
      "&&&&&&&&&&&& &&&",
      "&%&&&&% &",
      "! ĝ",
      "! (&&",
      "\" .",
      "\" /",
      "\" %&&&&",
      "# Ĝ",
      "$ Ĝ",
      "' ĝ",
      ") ě",
      ") ĝ",
      "+ /",
      ". *",
      "/ +",
      "1 0",
      "Ā Ĝ",
      "Ě !",
      "ě ğ",
      "Ğ )",
      "Ğ ,",
      "Ğ &&+",
      "Ġ &&%&",
      "Ġ &&%&'",
      "&&&& (",
      "&&&& &&",
      "&' &&%&'",
      "&% ''&&&&",
      "&&' &&\"",
      "ĀĀ =",
      "&$ &)",
      "&&( &&&&&&&&",
      "&&( &&%%",
      "&&$ %",
      "&) &",
      "&) &&'&'",
      "&# (",
      "&# '(",
      "'&& &*",
      "'&& &(&'",
      "&&# '",
      "&&# &ğ",
      "&&) &-",
      "$&& ĝ",
      "$&& &!",
      "$&& &$&'",
      "#&& &!",
      "$&&&& &(",
      "*&& /",
      "%% &&'&'",
      "!&& &!",
      "%&&&% &(",
      "ĀĀ% Ā!",
      "Ġ&& Ğ",
      "Ġ&& &!",
      "ĀĀ& Ā%",
      "ĀĀ& Ā*",
      "ĀĀ$ Ā'",
      "ĀĀ' Ā*",
      "ĀĀ' Ā!",
      "&&%&& &$&&&&",
      "ĀĀ( Ā!",
      "ĀĀ( Ā+",
      "ĀĀ# Ā\"",
      "ĀĀ# Ā,",
      "ĀĀ\" Ā)",
      "ĀĀ\" Ā\"",
      "'&&) &'",
      "ĀĀ) Ā)",
      "ĀĀ) Ā!",
      "#' &&$&%",
      "ĀĀ! Ā*",
      "&&%&&% %&&&&",
      "Ā- '",
      "&&%&&' '&&&&",
      "'&&\" &'",
      "%&&* &'",
      "&'&&&&' &'",
      "! ğ",
      "! &&&%",
      "# ĝ",
      "$ ĝ",
      "$ &&%&$",
      "% &$&&&&",
      "' &",
      "' &&'&%",
      "( Ĝ",
      "( &&'&%",
      "+ Ě",
      "+ ğ",
      "- ,",
      "Ā &",
      "Ę &&",
      "ę ĀĀ",
      "Ĝ \"",
      "ĝ %",
      "&' &&%&%",
      "&% +",
      "ĀĀ <",
      "&( '&&&&",
      "&( &&%&'",
      "&( &&%&(",
      "&( &&'&(",
      "&$ ,",
      "&&$ &%&&&&",
      "&# +",
      "%&& Ĝ",
      "'&& &'&&&&",
      "%&&&& #",
      "'&&&& $",
      "&\" %",
      "&&# &&#",
      "&'&&&& )",
      "&'&&&& &&%",
      "&'&&&& &&'",
      "&&'& -",
      "#&& Ğ",
      "&! )",
      "&&%&% '(",
      "\"&& Ğ",
      "'% &&(&'",
      "'% &&(&$",
      "%' &&%&(",
      "&&\" &(",
      "#&&&& '",
      "(' &&(&%",
      "$' &&$&",
      "+&& ğ",
      "+&& &*",
      "%( &&%&(",
      "%( &&%&$",
      "ĀĀ% Ā\"",
      "'$ &&'&'",
      "&&%&& &#",
      "ĀĀ# Ā%",
      "%'&&&& &",
      "ĀĀ) Ā%",
      "ğ&& ,",
      "-&& !",
      "&&%&&% &&&%",
      "&#&&&& %",
      "%&&\" &$",
      "! &&*",
      "\" ĝ",
      "# '&&",
      "$ &'&&&&",
      "$ &&%&%",
      "% .",
      "% &&'&%",
      "% %&&#",
      "% !&&&&",
      "' &&(&%",
      "( &&$&'",
      ") &",
      ") /",
      ", -",
      "- -",
      "Ę ĀĀ",
      "ě &",
      "Ĝ ,",
      "Ĝ ĝ",
      "Ğ +",
      "Ğ Ğ",
      "Ġ Ě",
      "Ġ &&$&'",
      "Ġ &ğ",
      "Ġ &.",
      "&&&& &'",
      "&% ,",
      "&% '(",
      "&% '%&&&&",
      "&% &&&%&",
      "&&' &&*",
      "&&' &&%&&&&&",
      "&( ,",
      "&$ %&&&&",
      "&$ ''",
      "&&( (",
      "&&$ &&&&&&&&",
      "&) &%",
      "&) &)",
      "&) &#",
      "&# )",
      "%&& ě",
      "%&& &%&&&&&&&&",
      "%&&&& &&'",
      "&* #",
      "&* *",
      "&'&&&& #",
      "&'&&&& &&&&&&&&",
      "(&& Ĝ",
      "(&& &(&'",
      ")&& /",
      "#&& ĝ",
      "\"&& /",
      "'% $&&&&",
      "'% &&%&(",
      "*&& &(",
      "'' $&&&&",
      "'' &&%&%",
      "'' &&(&",
      "%% %",
      "%' &&'&'",
      "%' &&%&%",
      "&&* &&&&",
      "&$&&&& $",
      ")&&&& $",
      "%$ &&$&'",
      "(' &&(&",
      "$' &&%&(",
      "%( &&%&",
      "%&&&% &#",
      "&&'&&&& &&",
      "ĀĀ% Ā+",
      "(% &&(&%",
      "ĀĀ$ Ā+",
      "%%&&&& (",
      "ĀĀ# Ā-",
      "%'&&&& (",
      "Ā' \"",
      "'&&) &(",
      "'&&# &)",
      "ĀĀ! Ā(",
      "ĀĀ! Ā%",
      "ĀĀ! Ā#",
      "%&&# &)",
      "&&%&&% %",
      ")' &&'&'",
      ")% &&'&",
      "ĀĀ* Ā(",
      "ĀĀ+ Ā)",
      "ĀĀ+ Ā$",
      "&&$&& &#",
      "%&&&' &'",
      "&&&&&&&&&&&& &",
      "%&&&&&&&& &&&",
      "! '&&",
      "! $&&\"",
      "\" (&&",
      "# ě",
      "# (&&&&",
      "$ .",
      "$ &&'&$",
      "' &(",
      "' %&&*",
      "( &&%&(",
      ") &&'&%",
      "* '&&",
      "+ %&&*",
      "/ ,",
      "/ -",
      "/ .",
      "0 2",
      "ě !",
      "ĝ (",
      "ĝ &+",
      "Ġ )&&",
      "Ġ &&'&$",
      "Ġ &&%&$",
      "Ġ ,&&",
      "&& Ĝ",
      "&% &(",
      "&% &&&%",
      "&&% #",
      "&&% &&\"",
      "ĀĀ ď",
      "ĀĀ đ",
      "&$ &*",
      "&&( &&\"",
      "&&( &&%&&&%",
      "&&$ '&&&&",
      "&&$ &&%'",
      "&) #",
      "&) &$",
      "%&& &%&&&&",
      "&* .",
      "&\" \"",
      "&\" )",
      "&&) &&&'",
      "&%&&&& &&%",
      "(&& &(&%",
      "#&& &",
      "&! %",
      "&! '",
      "(&&&& )",
      "%% '",
      "%' &&%&$",
      "&&\" &+",
      "&&* &(",
      "&- %",
      "&&'&( '%&&&&",
      "&&(& .",
      "&$&&&& #",
      "%$ '",
      "!&& ĝ",
      "&(&&&& $",
      "$' &&%&$",
      "%( &&'&",
      "$% '&&&&",
      "ĀĀ% Ā#",
      "Ġ&& -",
      "Ġ&& &\"",
      "(% &&'&$",
      "ĀĀ& Ā,",
      "ĀĀ& Āğ",
      "''&&&& $",
      "ĀĀ( Ā*",
      "ĀĀ# Ā*",
      "$$ &&%&'",
      "%&&) &\"",
      "'&&) &\"",
      "ĀĀ) Ā$",
      "$( &&%&'",
      "ğ&& ğ",
      "#' &&%&%",
      "%) &&%&'",
      "ĀĀ! Ā)",
      "ĀĀ! Ā\"",
      "&&%&&% $",
      ")' &&'&",
      "(&&&' &(",
      ")% &&'&'",
      "ĀĀ* Ā)",
      "ĀĀ* Ā$",
      "#% &&%&'",
      "ĀĀğ Ā$",
      "ĀĀğ Ā'",
      "%&&\" &'",
      "ĝ&& ğ",
      "&&&&&&&&&&&&&&&& &&&&&&&&&&&&&&&&",
      "! Ĝ",
      "\" Ě",
      "\" ě",
      "# #&&",
      "$ %&&",
      "$ $&&",
      "% ě",
      "% &$",
      "' &$&&&&",
      "( '&&",
      ") &&'&'",
      ") #&&&&",
      "* /",
      "* %&&&&",
      "* '&&&&",
      "* &&'&'",
      "+ (&&",
      "- .",
      "Ā '%",
      "Ā %'",
      "Ė &&",
      "Ě #",
      "Ě $",
      "Ĝ *",
      "ĝ +",
      "ĝ .",
      "ĝ Ğ",
      "Ġ &&#",
      "Ġ &&$&%",
      "&&&& #",
      "&' ğ",
      "&% &$",
      "&% &&$&",
      "&&% $",
      "&&% &'&&&&%",
      "&&% &%&&&&'",
      "ĀĀ @",
      "ĀĀ Ē",
      "&( &&'&'",
      "&) ,",
      "&) &&%&%",
      "&# &*",
      "'&& ě",
      "%&&&& $",
      "%&&&& &$",
      "%&&&& &#",
      "%&&&& &&&'&&&&",
      "&* +",
      "&* ,",
      "$&& &(",
      "&&%& Ğ",
      "&+ '",
      ")&& Ĝ",
      "&! #",
      "$&&&& &&",
      "(&&&& $",
      "'% &&'&&'",
      "*&& &+",
      "'' &&%&'",
      "%% &&'&$",
      "%% &&$&",
      "&, %",
      "%' &&$&'",
      "&&'&( '%",
      "&&$&' (",
      "#&&&& $",
      "'( &&'&$",
      "'( &&'&(",
      "&&(& ĝ",
      "&$&&&& &&",
      "%$ %",
      "%$ &&'&'",
      "&(&&&& )",
      "&(&&&& &&",
      "$' &&$&%",
      "+&& .",
      "&&%&&&& &&'&",
      "ĀĀ& Ā+",
      "ĀĀ$ Āğ",
      "ĀĀ' Ā'",
      "ĀĀ' Ā+",
      "ĀĀ' Āğ",
      "''&&&& %",
      "ĀĀ( Ā)",
      "ĀĀ# Āğ",
      "Ā' )",
      "($ &&'&",
      ",&& ğ",
      "ĀĀ) Ā\"",
      "ĀĀ) Ā+",
      "*&&&& (",
      "$( &&%&%",
      "ğ&& -",
      "ĀĀ* Ā,",
      "ĀĀğ Ā)",
      "ĀĀğ Ā%",
      "%&&\" &(",
      "'&&&% &$",
      "&'% $&&&&",
      "ĀĀ- Ā(",
      "ĀĀ- Ā#",
      "'&&* &",
      "(&&* &",
      "&&%&&$ %",
      "&&$&&' %",
      "&&&&% &",
      "! '&&#",
      "\" Ĝ",
      "# .",
      "# &&%&",
      "# \"&&&&",
      "' Ğ",
      "' %&&",
      "' $&&",
      "' (&&",
      "' +&&&&",
      "' (&&*",
      "( ę",
      "( &&$&%",
      ") Ĝ",
      ") &&%&'",
      "* &'",
      "- !",
      "- Ĝ",
      "/ (",
      "0 4",
      "0 5",
      "2 2",
      "Ę ğ",
      "ę *",
      "ę &$",
      "Ě ě",
      "Ě ĀĀ",
      "ě ě",
      "Ĝ Ğ",
      "Ġ ė",
      "Ġ &&)",
      "Ġ &&$&",
      "Ġ Ā)",
      "Ġ &&(&$",
      "&' ,",
      "&' '&&&&&",
      "&% &&%&(",
      "&% #&&&&",
      "&% %&&&%",
      "&&% )",
      "&&' &'&&&&'",
      "&( %&&&&",
      "&( &&'&%",
      "&( '$",
      "&$ !",
      "&$ &&!",
      "&&( #",
      "&&$ $",
      "&&$ &&&%&",
      "&&$ &&%%",
      "&) .",
      "&) &&%&",
      "&) &&'&",
      "&) &&%&'",
      "'&&&& &(",
      "'&&&& &&'&&&&",
      "&* )",
      "&* &&",
      "&\" ,",
      "&&# &&&%",
      "&&) %",
      "$&& &",
      "(&& Ě",
      "&&%& /",
      "&&'& .",
      "&+ #",
      "&+ $",
      "&+ %",
      "'' (&&&&",
      "'' &&'&$",
      "'' &&'&(",
      "'' &&%&$",
      "%% &&$&%",
      "&, \"",
      "&, $",
      "&, &",
      "&, +",
      "&&&' &&",
      "&&$&' '",
      "'( %",
      "'( (",
      "'( &&'&%",
      ")&&&& (",
      "(' &&'&$",
      "(' &&(&(",
      "&&$& ĝ",
      "$' '&&&&",
      "&&%&&&& &'",
      "$% &&$&%",
      "&ğ &&&&",
      "ĀĀ% Ā,",
      "ĀĀ% Ā.",
      "'$ %&&&&",
      "Ġ&& ğ",
      "ĀĀ$ Ā\"",
      "ĀĀ$ Ā-",
      "ĀĀ' Ā,",
      "&&%&& &(&&&&",
      "&&%&& &#&&&&",
      "Ā% )",
      "'%&&&& (",
      "ĀĀ# Ā+",
      "$$ &&%&%",
      "$$ &&%&)",
      "\"&&&& %",
      "%'&&&& $",
      "($ &&'&'",
      "($ &&(&(",
      "'&&) &#",
      "ĀĀ) Ā(",
      "ĀĀ) Ā#",
      "-&& &+",
      "%&&# &(",
      "Ā, *",
      ")' &&'&$",
      "&&'&&% &&&%",
      "ĀĀ* Ā#",
      ")$ &&(&'",
      "&&! &\"",
      "&&%&&' '",
      "&&%&&' &&&'&",
      "&&+ &",
      "ĀĀ+ Ā!",
      "&&(&& &)",
      "ĀĀğ Ā(",
      "ĀĀğ Ā\"",
      "&)&&&& '",
      "&)&&&& (",
      "ĀĀ, Ā(",
      "ĀĀ, Ā%",
      "ĀĀ, Ā*",
      "'&&&% &(",
      "%(&&&& (",
      "&%' &&%&",
      "$&&\" &$",
      "$'&&&& (",
      "ĀĀĝ Ā(",
      "#&&\" &",
      "&*&&&& $",
      "! ę",
      "! )&&",
      "\" Ğ",
      "\" '&&",
      "# Ė",
      "# %&&",
      "# )&&&&",
      "# '&&\"",
      "% &",
      "% '&&)",
      "% ,&&&&",
      "' /",
      "' ě",
      "' &&'&'",
      "( Ę",
      "( *&&&&",
      "( %&&*",
      "* %&&",
      "* %&&)",
      "* *&&&&",
      "+ Ĝ",
      ", ğ",
      ". \"",
      "/ #",
      "0 1",
      "1 3",
      "3 4",
      "Ā ė",
      "Ā ę",
      "ė &&",
      "ę \"",
      "ě +",
      "ě Ĝ",
      "ě Ğ",
      "Ĝ /",
      "ĝ )",
      "ğ +",
      "ğ -",
      "ğ Ğ",
      "ğ '&&",
      "Ġ 2",
      "Ġ 4",
      "Ġ 5",
      "Ġ +&&",
      "Ġ Ā$",
      "Ġ Ā\"",
      "Ġ &&%&#",
      "Ġ &&)&'",
      "Ġ '&&\"",
      "Ġ )&&\"",
      "&&&& )",
      "&&&& &%",
      "&&&& &&&%",
      "&' -",
      "&' .",
      "&' Ğ",
      "&' &&'&$",
      "&' &&(&'",
      "&' $'",
      "&' ''&&&&",
      "&% &&$&'",
      "&&% &%&&&&%",
      "&&' &&%&",
      "&&' $&&&&",
      "&&' &&&&&&&&&&&&",
      "&$ (&&&&",
      "&$ &&'&$",
      "&$ %&&&&&",
      "&&( &%&&&&",
      "&&( &&%'",
      "&&$ &'&&&&",
      "&&$ &&'&&&'",
      "&&$ &&(%",
      "&# !",
      "&# &",
      "&# ,",
      "&# &(",
      "&# &&%&",
      "&# &&%&%",
      "&# &&'&$",
      "%&& &!",
      "'&& &(&$",
      "&&# &/",
      "&%&&&& )",
      "&%&&&& '&&&&",
      "$&& &)",
      "&+ (",
      "&+ ,",
      ")&& &,",
      ")&& &(&%",
      "#&& /",
      "#&& &ğ",
      "#&& &%&'",
      "&&%&' &%&&&&",
      "&&%&' ''&&&&",
      "&&'&' &'&&&&",
      "&&%&% %",
      "&&%&% &%",
      "\"&& Ĝ",
      "\"&& &(",
      "'% (",
      "'% &&(&(",
      "*&& ě",
      "*&& ĝ",
      "'' &&'&#",
      "%% &&'&(",
      "&, (",
      "%' &&'&%",
      "%' &&$&%",
      "&&&' &(",
      "&&\" &&&&",
      "&&\" &,",
      "&&%&( &%",
      "&&'&( %'",
      "&&(& Ĝ",
      "!&& &",
      "!&& .",
      "&&$& ě",
      "+&& &+",
      "%( %",
      "$% &&'&",
      "$% &&%&)",
      "'&&&' &)"
    ]
  }
}