{
  "version": "1.0",
  "truncation": null,
  "padding": null,
  "added_tokens": [],
  "normalizer": null,
  "pre_tokenizer": {
    "type": "ByteLevel",
    "add_prefix_space": false,
    "trim_offsets": true,
    "use_regex": true
  },
  "post_processor": {
    "type": "ByteLevel",
    "add_prefix_space": true,
    "trim_offsets": false,
    "use_regex": true
  },
  "decoder": {
    "type": "ByteLevel",
    "add_prefix_space": true,
    "trim_offsets": true,
    "use_regex": true
  },
  "model": {
    "type": "BPE",
    "dropout": null,
    "unk_token": null,
    "continuing_subword_prefix": null,
    "end_of_word_suffix": null,
    "fuse_unk": false,
    "byte_fallback": false,
    "ignore_merges": false,
    "vocab": {
      "\u0000": 0,
      "\u0001": 1,
      "\u0002": 2,
      "\u0003": 3,
      "\u0004": 4,
      "\u0005": 5,
      "\u0006": 6,
      "\u0007": 7,
      "\b": 8,
      "\t": 9,
      "\n": 10,
      "\u000b": 11,
      "\f": 12,
      "\r": 13,
      "\u000e": 14,
      "\u000f": 15,
      "\u0010": 16,
      "\u0011": 17,
      "\u0012": 18,
      "\u0013": 19,
      "\u0014": 20,
      "\u0015": 21,
      "\u0016": 22,
      "\u0017": 23,
      "\u0018": 24,
      "\u0019": 25,
      "\u001a": 26,
      "\u001b": 27,
      "\u001c": 28,
      "\u001d": 29,
      "\u001e": 30,
      "\u001f": 31,
      " ": 32,
      "!": 33,
      "\"": 34,
      "#": 35,
      "$": 36,
      "%": 37,
      "&": 38,
      "'": 39,
      "(": 40,
      ")": 41,
      "*": 42,
      "+": 43,
      ",": 44,
      "-": 45,
      ".": 46,
      "/": 47,
      "0": 48,
      "1": 49,
      "2": 50,
      "Ā": 51,
      "ā": 52,
      "Ă": 53,
      "ă": 54,
      "Ą": 55,
      "ą": 56,
      "Ć": 57,
      "ć": 58,
      "Ĉ": 59,
      "ĉ": 60,
      "Ċ": 61,
      "ċ": 62,
      "Č": 63,
      "č": 64,
      "Ď": 65,
      "ď": 66,
      "Đ": 67,
      "đ": 68,
      "Ē": 69,
      "ē": 70,
      "Ĕ": 71,
      "ĕ": 72,
      "Ė": 73,
      "ė": 74,
      "Ę": 75,
      "ę": 76,
      "Ě": 77,
      "ě": 78,
      "Ĝ": 79,
      "ĝ": 80,
      "Ğ": 81,
      "ğ": 82,
      "Ġ": 83,
      "ęę": 84,
      "ęęęę": 85,
      "ęĚ": 86,
      "ęĘ": 87,
      "ęęĘ": 88,
      "ęęĚ": 89,
      "ĀĀ": 90,
      "ęě": 91,
      "ęė": 92,
      "ęęęęęęęę": 93,
      "ęęė": 94,
      "ęęě": 95,
      "Ęęęęę": 96,
      "Ěęęęę": 97,
      "ęęęĘ": 98,
      "ęęęĚ": 99,
      "ęĜ": 100,
      "ęĖ": 101,
      "ęęĖ": 102,
      "ęęĜ": 103,
      "ęĚęęęę": 104,
      "ęĘęęęę": 105,
      "ęĝ": 106,
      "ęĕ": 107,
      "ĘęęĚ": 108,
      "ĚęęĘ": 109,
      "ĘęęĘ": 110,
      "ęĚĚ": 111,
      "ęęęęĘ": 112,
      "ĚęęĚ": 113,
      "ęĘĘ": 114,
      "ęęęęĚ": 115,
      "ęĚĘ": 116,
      "ęĘĚ": 117,
      "ęęĕ": 118,
      "ęęĝ": 119,
      "ęęęė": 120,
      "ęęęě": 121,
      "ęęę": 122,
      "ėęęęę": 123,
      "ěęęęę": 124,
      "ęęęęęęęęęęęę": 125,
      "ęĞ": 126,
      "ęęĚęęęę": 127,
      "ęęĘęęęę": 128,
      "ėęęĚ": 129,
      "ĀĚ": 130,
      "ęęĔ": 131,
      "ĀĘ": 132,
      "ěęęĘ": 133,
      "ęĔ": 134,
      "ęęĞ": 135,
      "ĀĀĘ": 136,
      "ĀĀę": 137,
      "ėęęĘ": 138,
      "ęĚě": 139,
      "Ęęęě": 140,
      "Ěęęė": 141,
      "Āě": 142,
      "Āė": 143,
      "ěęęĚ": 144,
      "ęěĚ": 145,
      "ęĘė": 146,
      "Ęęęė": 147,
      "ęĚė": 148,
      "ĀĀĚ": 149,
      "ęěĘ": 150,
      "ĀĀė": 151,
      "ęĘě": 152,
      "ęėĘ": 153,
      "Ěęęě": 154,
      "ęėĚ": 155,
      "ĀĖ": 156,
      "ęęęęęęęęęęęęęęęę": 157,
      "ęğ": 158,
      "ęęęĜ": 159,
      "ĀĜ": 160,
      "ęęē": 161,
      "ĀĀě": 162,
      "ęęęĖ": 163,
      "ĀĀĖ": 164,
      "ęęğ": 165,
      "ęęęĘęęęę": 166,
      "ęē": 167,
      "ęėė": 168,
      "ěęęė": 169,
      "ĘęęęęĘ": 170,
      "ęęęĚęęęę": 171,
      "ĖęęĚ": 172,
      "Āĕ": 173,
      "ėęęě": 174,
      "ęěě": 175,
      "ęęĘę": 176,
      "ęěęęęę": 177,
      "Ėęęęę": 178,
      "Āĝ": 179,
      "ĘęęęęĚ": 180,
      "Ĝęęęę": 181,
      "ĚęęęęĚ": 182,
      "ęėęęęę": 183,
      "ęĘęęĚ": 184,
      "ĚęęęęĘ": 185,
      "ĀĀĜ": 186,
      "ęęęĚę": 187,
      "ęěė": 188,
      "ĜęęĘ": 189,
      "ĖęęĘ": 190,
      "ęęęĘę": 191,
      "ěęęě": 192,
      "ĜęęĚ": 193,
      "ęĚęęĚ": 194,
      "ėęęė": 195,
      "ěĚ": 196,
      "ĀĀĕ": 197,
      "ęĚęęĘ": 198,
      "ęĚĚęęęę": 199,
      "ĘęęĜ": 200,
      "ęėě": 201,
      "ęĘĘęęęę": 202,
      "ęĚĜ": 203,
      "ĀĔ": 204,
      "ĀĀĝ": 205,
      "ęęĒ": 206,
      "ėĚ": 207,
      "ęĚęęęęĘ": 208,
      "ęĘęęĘ": 209,
      "ėĘ": 210,
      "ęĘęęęęĚ": 211,
      "ĀĞ": 212,
      "ęĘĖ": 213,
      "ęĜĚ": 214,
      "ęĘĜ": 215,
      "ęĖĘ": 216,
      "ęĖĚ": 217,
      "ęĜĘ": 218,
      "ęĘęęęęĘ": 219,
      "ĀĀĔ": 220,
      "ęĚĖ": 221,
      "ęĚęęęęĚ": 222,
      "ęęęęęęęęęęę": 223,
      "ęęĚęęęĚ": 224,
      "ęĚĘęęęę": 225,
      "ěĘ": 226,
      "ĘęęĖ": 227,
      "ĚęęĖ": 228,
      "ęĘĚęęęę": 229,
      "ęęĘęęęĘ": 230,
      "ęĒ": 231,
      "ęęęĕ": 232,
      "ĀĀĞ": 233,
      "ęěĜ": 234,
      "Ėęęě": 235,
      "ęęĚę": 236,
      "ĚęęĜ": 237,
      "ěě": 238,
      "Āē": 239,
      "ęęęĝ": 240,
      "ęėĖ": 241,
      "Ĝęęė": 242,
      "ęęęęĘĘ": 243,
      "ėęęĜ": 244,
      "ėě": 245,
      "ęĜě": 246,
      "ęęęęĘĚ": 247,
      "ęę!": 248,
      "ĀĀğ": 249,
      "ęĖė": 250,
      "ĕęęęę": 251,
      "Āğ": 252,
      "ęęęęĚĚ": 253,
      "ĀĀē": 254,
      "ęěĖ": 255,
      "ęėĜ": 256,
      "ĕęęĘ": 257,
      "ėė": 258,
      "ęęđ": 259,
      "ęęęęĚĘ": 260,
      "Ĝęęě": 261,
      "Ėęęė": 262,
      "ěęęĖ": 263,
      "ęęęĘęęĚ": 264,
      "ĜĚ": 265,
      "ĕęęĚ": 266,
      "ĝęęęę": 267,
      "ėęęĖ": 268,
      "ęęęĚęęĚ": 269,
      "ęĖě": 270,
      "ĝęęĘ": 271,
      "ęĜė": 272,
      "ĖĚ": 273,
      "ęęęĘęęĘ": 274,
      "ĀĀĒ": 275,
      "ĖĘ": 276,
      "ęęęĚęęĘ": 277,
      "Ĝě": 278,
      "ę!": 279,
      "ĀĒ": 280,
      "ĜĘ": 281,
      "ęđ": 282,
      "ĝęęĚ": 283,
      "ęĜĜ": 284,
      "ęĘęĚęęęę": 285,
      "ĚęęĘę": 286,
      "ęĖęęęę": 287,
      "ęĚĝ": 288,
      "ĘęęĚę": 289,
      "ĀĀĘĀ": 290,
      "ęĘĕ": 291,
      "ęĕĚ": 292,
      "ěęęĜ": 293,
      "ĀĀęĀ": 294,
      "ĀĀ!": 295,
      "ęĚęĘęęęę": 296,
      "ęĜęęęę": 297,
      "ęěęęĘ": 298,
      "ęĝĚ": 299,
      "ęĚęęęęęę": 300,
      "ĀĀđ": 301,
      "ĘĚ": 302,
      "ĕĚ": 303,
      "ęę\"": 304,
      "ěė": 305,
      "ęęěęęęę": 306,
      "ĝĚ": 307,
      "ěĜ": 308,
      "ęĕĘ": 309,
      "ęęęęęęęęęęęęę": 310,
      "ęĖĖ": 311,
      "ęĝĘ": 312,
      "ęĚęė": 313,
      "ĕĘ": 314,
      "ęĘęęęęęę": 315,
      "ęęėęęęę": 316,
      "ęĚĘęęęĘ": 317,
      "ęęĘĘęęęę": 318,
      "ęĘĝ": 319,
      "ĖęęĜ": 320,
      "ĀĀėĀ": 321,
      "ęęęĔ": 322,
      "Ėě": 323,
      "ĘęęĘę": 324,
      "ĜĜ": 325,
      "ęĚĕ": 326,
      "ęęęĞ": 327,
      "Ěęęęęę": 328,
      "ęĘĚęęęĚ": 329,
      "Ęęęĝ": 330,
      "ĜęęĖ": 331,
      "ĚęęĚę": 332,
      "ęĘĘęęęĘ": 333,
      "ęęĐ": 334,
      "ĀĀĚĀ": 335,
      "ĚĚ": 336,
      "ĝęęė": 337,
      "ęěĝ": 338,
      "ęĚĚęęęĚ": 339,
      "ĀĀĐ": 340,
      "ęěęęĚ": 341,
      "ėĖ": 342,
      "ėĜ": 343,
      "ęĘęęęęęęęę": 344,
      "ĕęęė": 345,
      "ĘĘ": 346,
      "ĕęęě": 347,
      "ĀĀ\"": 348,
      "ęĘęĚ": 349,
      "ęęĘęęęęę": 350,
      "ęĘęĘęęęę": 351,
      "ĀĀěĀ": 352,
      "ęęĚęęęęę": 353,
      "ęĝě": 354,
      "ęėĕ": 355,
      "ĀĀĖĀ": 356,
      "Ęęęęęę": 357,
      "Ėė": 358,
      "ęęĚĚęęęę": 359,
      "ĖęęĖ": 360,
      "ĝě": 361,
      "ęęęęęęĚ": 362,
      "ęĚęĚęęęę": 363,
      "ęęĚĚęęĚ": 364,
      "ęĕė": 365,
      "ęęĘĚęęĘ": 366,
      "ęĜĖ": 367,
      "ęęĚĘęęĚ": 368,
      "ęęęęęęĘ": 369,
      "ěĞ": 370,
      "ęĘęęė": 371,
      "Ęęęĕ": 372,
      "Ěęęĕ": 373,
      "ęėęęĚ": 374,
      "ěĝ": 375,
      "ĀĀď": 376,
      "ę\"": 377,
      "ĀĀ#": 378,
      "ĔęęĚ": 379,
      "Ĝĝ": 380,
      "ęĚęęęęęęęę": 381,
      "ėęęĝ": 382,
      "ęęĚĘęęęę": 383,
      "ęėęęĘ": 384,
      "ĔęęĘ": 385,
      "ėĝ": 386,
      "ęęĘĘęęĘ": 387,
      "ęęĘĚęęęę": 388,
      "ĞĚ": 389,
      "ęěĕ": 390,
      "ęėĝ": 391,
      "ěęęęęĘ": 392,
      "ęĘėęęęę": 393,
      "ęĘęęě": 394,
      "Ėĝ": 395,
      "ęĖĜ": 396,
      "ėęęęęĘ": 397,
      "ęěęęęęĘ": 398,
      "ěęęĕ": 399,
      "ĚĘ": 400,
      "ĜęęĜ": 401,
      "ĜĞ": 402,
      "ęĘĘĚęęĘ": 403,
      "ĀĀ$": 404,
      "Ěęęęęęę": 405,
      "ęĝė": 406,
      "ęĜĝ": 407,
      "Ĕęęęę": 408,
      "ęĚęĘęęĚ": 409,
      "ęĘęĚęęĚ": 410,
      "ęĚĚĘęęĚ": 411,
      "Ęęęęęęę": 412,
      "ęęęĘęęęęęęęę": 413,
      "ėęęĕ": 414,
      "ęęęĚęęęęęęęę": 415,
      "ęęĘęęęęęęęę": 416,
      "ĔĚ": 417,
      "ęę#": 418,
      "ĠĚ": 419,
      "ėęęęęĚ": 420,
      "ĝĝ": 421,
      "ęĘęęęęęęĚ": 422,
      "ĔĘ": 423,
      "ęĕě": 424,
      "ĞęęĘ": 425,
      "ĘĘęęęę": 426,
      "ęĚęęęęęęĚ": 427,
      "ěĖ": 428,
      "ęĚęęě": 429,
      "ęĚęęęęęęĘ": 430,
      "ęĚĘĚęęĘ": 431,
      "ęĘęĘęęĚ": 432,
      "ĀĀ%": 433,
      "ęĕĖ": 434,
      "ĀĀĘĀĘ": 435,
      "ĀĀĎ": 436,
      "ěęęęęĚ": 437,
      "ęĚĞ": 438,
      "ĀĀĜĀ": 439,
      "ęĖĕ": 440,
      "ęĝĜ": 441,
      "ęęęęęęęęęęęęęęę": 442,
      "ęęęē": 443,
      "ĀĚĚ": 444,
      "ĕė": 445,
      "ęėęęęęĚ": 446,
      "ęĚęęė": 447,
      "ĚęęęęęęĚ": 448,
      "ęĚěęęęę": 449,
      "ęĘĚĘęęĚ": 450,
      "ĀĀĕĀ": 451,
      "ĖĖ": 452,
      "ęĘĚĚęęĚ": 453,
      "Ġĝ": 454,
      "ĘęęęĘ": 455,
      "ęĚĚĘęęęę": 456,
      "ęĚĘĘęęĘ": 457,
      "ęĐ": 458,
      "ęęėęęęĘ": 459,
      "ęĞĚ": 460,
      "ĕě": 461,
      "ĕęęĖ": 462,
      "ęĘĞ": 463,
      "ęĘęęęęęęĘ": 464,
      "Ĝė": 465,
      "ęĚĔ": 466,
      "Ęęęęęęęęę": 467,
      "ęęď": 468,
      "ĀĀ&": 469,
      "ĕęęĜ": 470,
      "ĀĚĘ": 471,
      "ĖĞ": 472,
      "ĀĀęĀė": 473,
      "ĚĚęęęę": 474,
      "ęĘęĚęęĘ": 475,
      "ęĖęęĚ": 476,
      "ęęęğ": 477,
      "ĀĀęĀĘ": 478,
      "ĀĀĝĀ": 479,
      "ĕĜ": 480,
      "Ěęęĝ": 481,
      "ěğ": 482,
      "ĠĜ": 483,
      "ęĚęęęęę": 484,
      "ęĘęęęęę": 485,
      "ęĘĘĚęęęę": 486,
      "ěęęĝ": 487,
      "ęęěęęęĚ": 488,
      "ĕĝ": 489,
      "Ěęęęęęęęę": 490,
      "ęĘĚĚęęęę": 491,
      "ĘĚęęęę": 492,
      "ęĘĔ": 493,
      "ęěęęęęĚ": 494,
      "ĖĜ": 495,
      "ęĚęĘęęĘ": 496,
      "ęěĞ": 497,
      "ĀĀĘĀė": 498,
      "ęěĚęęęę": 499,
      "ęėĘęęęę": 500,
      "ēĚ": 501,
      "ĝĜ": 502,
      "ĝęęě": 503,
      "ęęĚęęęęęęęę": 504,
      "Ĕęęė": 505,
      "Ėęęĝ": 506,
      "ęėęęęęĘ": 507,
      "ėĞ": 508,
      "ęęęęęęęęęęęęęęęęęę": 509,
      "ęĘĘĘęęęę": 510,
      "ĀĀĔĀ": 511,
      "ęĞĘ": 512,
      "ĚĘęęęę": 513,
      "ęĚĚĚęęęę": 514,
      "Ĕęęě": 515,
      "ĚęęęĚ": 516,
      "ĝĘ": 517,
      "ęĜĕ": 518,
      "ęĘĘĘęęĘ": 519,
      "ęęęėęęęę": 520,
      "ęęęėę": 521,
      "ĞęęĚ": 522,
      "ęĜęęĘ": 523,
      "ėęęĞ": 524,
      "ęĝĖ": 525,
      "ęĕęęęę": 526,
      "ĀĀĘĀě": 527,
      "Ĕě": 528,
      "ęę$": 529,
      "ĘęęĞ": 530,
      "ęęęěęęęę": 531,
      "Ğęęęę": 532,
      "ĀĀĚĀĘ": 533,
      "ĘęęęęęęĘ": 534,
      "ęėĔ": 535,
      "ĀĀėĀĘ": 536,
      "ęĚęĘ": 537,
      "Ėęęĕ": 538,
      "ę#": 539,
      "ęĘęęęĘ": 540,
      "ĀĀęĀě": 541,
      "ęęęęęęęęęęęęęęęęęęęęęęęę": 542,
      "ęĚęĚęęĘ": 543,
      "Ġğ": 544,
      "ęęěĘęęĚ": 545,
      "ęĕĜ": 546,
      "ęĚĘĘęęęę": 547,
      "ęĖĝ": 548,
      "ĕĞ": 549,
      "ęĖęęĘ": 550,
      "ęęęěę": 551,
      "ĠĞ": 552,
      "ęĔĘ": 553,
      "ęęėĚęęĘ": 554,
      "ęęęėęęĚ": 555,
      "ęĀĀ": 556,
      "ęĝęęęę": 557,
      "Ĝğ": 558,
      "ĀĀĞĀ": 559,
      "ėğ": 560,
      "ęĚęęęęęęęęęęęę": 561,
      "ęĚęĚęęĚ": 562,
      "ĘęęęęęęĚ": 563,
      "ęĜęęĚ": 564,
      "ęĚěęęęĚ": 565,
      "Ĝęęĕ": 566,
      "ēĘ": 567,
      "ĕĖ": 568,
      "ęĚęęęĚ": 569,
      "ĀĀĘĀĖ": 570,
      "ęęĚęęęęęęĚ": 571,
      "ęĔĚ": 572,
      "ĀĀĘĀĚ": 573,
      "ėĘęęĘ": 574,
      "ęĘęě": 575,
      "ęĘėęęęĘ": 576,
      "ęĚĚĚęęĚ": 577,
      "ęĘĘęęęęę": 578,
      "ėęęęĘ": 579,
      "ĀĀęĀĚ": 580,
      "ęĚĚęęęęę": 581,
      "ĀĀ'": 582,
      "ēęęĚ": 583,
      "ęĘęęęęęęęęęęęę": 584,
      "ěęęęĚ": 585,
      "ĀĀğĀ": 586,
      "ēė": 587,
      "Ĕĝ": 588,
      "Ěĝ": 589,
      "ĠĘ": 590,
      "ęĚěĘęęĚ": 591,
      "ęĘęĘęęĘ": 592,
      "ēęęĘ": 593,
      "Ĕė": 594,
      "ęĘěęęęę": 595,
      "ęėęęě": 596,
      "ĀĀėĀė": 597,
      "ęĘěęęęĚ": 598,
      "ęęĎ": 599,
      "Ġě": 600,
      "ğĚ": 601,
      "ęėĞ": 602,
      "ĀĀĚĀė": 603,
      "ęėĚęęęę": 604,
      "ĀĀęĀĖ": 605,
      "ęĝĝ": 606,
      "ęęęěęęĘ": 607,
      "ęęĚęęęęęęĘ": 608,
      "ĀĀėĀě": 609,
      "ęěĔ": 610,
      "ęĖĔ": 611,
      "ęęęěęęĚ": 612,
      "ĀĀĚĀě": 613,
      "ęěĘęęęę": 614,
      "ęęĘęęęęęęĚ": 615,
      "ĀĀėĀĚ": 616,
      "ĘĚęęĘ": 617,
      "ęĘĘěęęĘ": 618,
      "ęĞě": 619,
      "ęęĘęęęęęęĘ": 620,
      "ĕęęĝ": 621,
      "ęĚėęęęę": 622,
      "ęĞĜ": 623,
      "ğĞ": 624,
      "ĚęęęęęęĘ": 625,
      "ĘęęęęĘĚ": 626,
      "ėĘęęęę": 627,
      "ęęęėęęĘ": 628,
      "ęęĘęęęęęę": 629,
      "ĀĀĖĀĚ": 630,
      "ĖęęęęĘ": 631,
      "Ęĝ": 632,
      "ęęěĚęęĚ": 633,
      "ęĘĚĘęęęę": 634,
      "ęęęęęęęęęęęęęęęęęęęę": 635,
      "ĀĀĚĀĖ": 636,
      "ĕęęĕ": 637,
      "ĞĞ": 638,
      "ęĘėĚęęĘ": 639,
      "ĀĀĚĀĚ": 640,
      "ĔĖ": 641,
      "Ěě": 642,
      "ĘĘęęĘ": 643,
      "ęĚğ": 644,
      "ęĜĞ": 645,
      "ęĘĚęęęęę": 646,
      "ĔęęĖ": 647,
      "ėĚęęĘ": 648,
      "ĖęęĞ": 649,
      "ĀĀ(": 650,
      "ęęėĘęęĘ": 651,
      "ęęęęęęęęęęęęęęęęęęę": 652,
      "ęęĚęęęęęę": 653,
      "ěĚęęęę": 654,
      "ęĚėęęęĘ": 655,
      "Ġė": 656,
      "ęĘęĘ": 657,
      "ęěęęė": 658,
      "ĕğ": 659,
      "ěĘęęĚ": 660,
      "ęğĚ": 661,
      "Ĝęęĝ": 662,
      "ĔĞ": 663,
      "ĘĞ": 664,
      "ĘęęĔ": 665,
      "ęď": 666,
      "ęĝĞ": 667,
      "ĀĀēĀ": 668,
      "ęėęĚęęĚ": 669,
      "ęęĚęęĘ": 670,
      "ęĘĘęęęĚ": 671,
      "ĔęęĜ": 672,
      "Ěğ": 673,
      "ęĘęěęęęę": 674,
      "ēęęęę": 675,
      "ēęęė": 676,
      "ęěğ": 677,
      "ĀĀęĀĕ": 678,
      "ĀĀěĀĘ": 679,
      "ęěĚęęęĚ": 680,
      "ĔĜ": 681,
      "ęĚĚėęęĚ": 682,
      "ĚęęęęĘĚ": 683,
      "ĕĕ": 684,
      "Ėğ": 685,
      "ėęęĔ": 686,
      "ĝęęĜ": 687,
      "ęęĚęęęĘ": 688,
      "ęęęĘęęė": 689,
      "ęęęĒ": 690,
      "ĀĀėĀĖ": 691,
      "ĚĞ": 692,
      "ęĘĚęęĘ": 693,
      "ęĚĚęęęě": 694,
      "ęĚĚęęęĘ": 695,
      "ĀĀĚĀĜ": 696,
      "ēě": 697,
      "ēĝ": 698,
      "ėęęĘę": 699,
      "ęęęęęęęęĚ": 700,
      "ęĕĕ": 701,
      "ęĔė": 702,
      "ĀĀęĀĜ": 703,
      "ĚęęęęĚĚ": 704,
      "ĜęęęęĚ": 705,
      "ęěęĘęęęę": 706,
      "ęĝĕ": 707,
      "ěęęĚę": 708,
      "ĚęęĔ": 709,
      "ęĚęĘęęęęĘ": 710,
      "ęęęęęęęęĘ": 711,
      "ęĚĘĚęęęę": 712,
      "ęĞė": 713,
      "ĀĀĖĀĘ": 714,
      "ęĚĘęęĚ": 715,
      "ęĚėĚęęĘ": 716,
      "ęĘğ": 717,
      "ėęęĚę": 718,
      "ęěĘęęęĘ": 719,
      "ĀĀĖĀė": 720,
      "ĚęęęęĘĘ": 721,
      "ěĘęęęę": 722,
      "ĀĀěĀĖ": 723,
      "ĖęęęęĚ": 724,
      "ĀĀ)": 725,
      "ęĚĘęęęęę": 726,
      "ĠĀ": 727,
      "ęę%": 728,
      "ęĚęęĘę": 729,
      "ęęĚęęĚ": 730,
      "ęěĘĘęęĘ": 731,
      "ĀĀěĀė": 732,
      "!ğ": 733,
      "ĀĀ*": 734,
      "ęėĚęęęĚ": 735,
      "ěĕ": 736,
      "ęěęęě": 737,
      "ęĔĖ": 738,
      "ęĚěĚęęĚ": 739,
      "ĘęęęęĘĘ": 740,
      "ĝğ": 741,
      "ĝęęĖ": 742,
      "Ġęęęę": 743,
      "ęĚęėęęęę": 744,
      "ęęĚęęęě": 745,
      "ĀĀĒĀ": 746,
      "ĜęęęęĘ": 747,
      "ĞĘ": 748,
      "ęėęęė": 749,
      "ęĚĘęęęė": 750,
      "ęĘĘęęęė": 751,
      "ĚęęęęĚĘ": 752,
      "!Ğ": 753,
      "ėĕ": 754,
      "ęęĘęęĘ": 755,
      "ēĖ": 756,
      "ěęęĔ": 757,
      "ęęĘęęęė": 758,
      "ęėęĚęęęę": 759,
      "ęĖĞ": 760,
      "ĀĀĘĀĕ": 761,
      "ęĚėĘęęĘ": 762,
      "ęėĘęęęĘ": 763,
      "ęėėęęęę": 764,
      "ęĜĔ": 765,
      "ęęęęęęęęęęęęęęęęęęęęęęęęęęęęęęęę": 766,
      "ĜĖ": 767,
      "ęęĚęęęĚę": 768,
      "ęęęĘęęě": 769,
      "ęĔě": 770,
      "ĀĀĘĀĜ": 771,
      "ĘęęęęĚĘ": 772,
      "ęěęĘęęĚ": 773,
      "ęėĚĚęęĚ": 774,
      "ĀĀĖĀě": 775,
      "ĘęęęęĚĚ": 776,
      "ēĞ": 777,
      "Ėĕ": 778,
      "ęĚęĘęęęęĚ": 779,
      "ęęęęęęęęęĘ": 780,
      "ęĚęęęęė": 781,
      "!Ě": 782,
      "ĒĘ": 783,
      "ēęęě": 784,
      "ęęĚėęęĚ": 785,
      "ĀĀěĀě": 786,
      "đĘ": 787,
      "ęěĚĘęęĚ": 788,
      "ęĘėĘęęĘ": 789,
      "ęĘěĘęęĚ": 790,
      "ęěęĘęęĘ": 791,
      "ęĞĖ": 792,
      "ěęęĘę": 793,
      "ęėĘĚęęĘ": 794,
      "ęĚęęęęĘę": 795,
      "ęĘęęęęě": 796,
      "ęĕĝ": 797,
      "ęĚĚĘęęĘ": 798,
      "ęĘĚęęęě": 799,
      "ėĚęęęę": 800,
      "ėęęğ": 801,
      "ęęĘęęęĚ": 802,
      "ęęĘęęęĘę": 803,
      "ęĞĝ": 804,
      "ěęęĞ": 805,
      "Ġ!": 806,
      "ĠĖ": 807,
      "ĀĀěĀĚ": 808,
      "ęęęĘęęęęę": 809,
      "ĀĀĜĀė": 810,
      "Ēė": 811,
      "ęĚęęĜ": 812,
      "ęĘęĚęęęęĘ": 813,
      "ęěěęęęę": 814,
      "ęěĚĘęęęę": 815,
      "ĀĀĜĀĘ": 816,
      "ĒĚ": 817,
      "Ęğ": 818,
      "ę$": 819,
      "Ğęęė": 820,
      "ęęĚĘęęě": 821,
      "ĀĀĖĀĖ": 822,
      "!Ĝ": 823,
      "đĚ": 824,
      "ęĘęĚęęęęĚ": 825,
      "ęěęĚęęĘ": 826,
      "ęĔĜ": 827,
      "ĀĀĚĀĕ": 828,
      "ĀĀėĀĝ": 829,
      "ęėĘĚęęęę": 830,
      "ęğě": 831,
      "ĝĞ": 832,
      "ęĘē": 833,
      "ęęĘěęęĘ": 834,
      "ĀĀ+": 835,
      "ęęęęęęęęęĚ": 836,
      "ęĚęęęęě": 837,
      "ęęę!": 838,
      "Ěęęėę": 839,
      "Ęęęėę": 840,
      "ęğĜ": 841,
      "ęęěęęęě": 842,
      "ęęęĚęęė": 843,
      "ęęĖęęęę": 844,
      "ęĚĘęęęĘę": 845,
      "ĀĀĘĀĝ": 846,
      "ĀĀėĀĕ": 847,
      "Ěęęěę": 848,
      "đė": 849,
      "ēĜ": 850,
      "Ġĕ": 851,
      "ęĘęęĖ": 852,
      "ęėęĚęęĘ": 853,
      "ęĜğ": 854,
      "ęĘęęęęė": 855,
      "ęĕęęĚ": 856,
      "ęĞęęęę": 857,
      "ęĘęęęęĚę": 858,
      "!ĝ": 859,
      "Ĕğ": 860,
      "ęĚē": 861,
      "ęęęĚęęęęĘ": 862,
      "ęęĜęęęę": 863,
      "ęĚĚęęĚ": 864,
      "ĀĀėĀĜ": 865,
      "ęĘěĚęęĚ": 866,
      "!ě": 867,
      "Ęęęğ": 868,
      "ěĚęęĚ": 869,
      "Ğğ": 870,
      "ęĘęěęęĘ": 871,
      "ęęėęęęė": 872,
      "ęĘĘęęęĘę": 873,
      "ĀĀĔĀĘ": 874,
      "ęĚęęęęĚę": 875,
      "ĀĀ!Ā": 876,
      "ĖęęĔ": 877,
      "ęėğ": 878,
      "ęĜęęęęĘ": 879,
      "ęĚĘėęęĘ": 880,
      "ĀĀđĀ": 881,
      "ęęęęęęęęęęęĘ": 882,
      "ęĘĚęęęĚę": 883,
      "ĀĀĕĀě": 884,
      "Ĕęęĝ": 885,
      "ĠęęĘ": 886,
      "ęęęĘęęęęĘ": 887,
      "ęĜęęė": 888,
      "ęĚĚęęęĚę": 889,
      "ęğĘ": 890,
      "ĀĀĕĀĘ": 891,
      "ĀĀĐĀ": 892,
      "Ĕĕ": 893,
      "ęęęĚęęě": 894,
      "ĀĀĘĀĔ": 895,
      "Ēě": 896,
      "ėęęęęĘĘ": 897,
      "ĠĀĀ": 898,
      "ęęęĚęęęęĚ": 899,
      "ęĖęęęęĚ": 900,
      "ęĚęėęęĘ": 901,
      "ęĘĘęęĘ": 902,
      "ĀĀęĀĝ": 903,
      "ĀĀĕĀĚ": 904,
      "ęĝęęĘ": 905,
      "ęĘĚęęęĘ": 906,
      "ęėĚĘęęĚ": 907,
      "ęęęĚęęęęę": 908,
      "ęĘęęęęĘę": 909,
      "đĖ": 910,
      "ėęę": 911,
      "ĚĚęęĚ": 912,
      "ęėē": 913,
      "ęęěĘęęě": 914,
      "ęĚĚĘęęě": 915,
      "ęĘĚěęęĚ": 916,
      "ęęęđ": 917,
      "ĀĀĜĀě": 918,
      "ĀĀĝĀĘ": 919,
      "\"Ě": 920,
      "ĠęęĚ": 921,
      "ęĖğ": 922,
      "ęĘĚėęęĚ": 923,
      "ęěĘĚęęĘ": 924,
      "ęėėęęęĘ": 925,
      "ėęęęęĚĚ": 926,
      "Ęě": 927,
      "Ĝĕ": 928,
      "ęĚęęĖ": 929,
      "ęĚĚėęęęę": 930,
      "ĀĀĖĀĜ": 931,
      "ĀĀ\"Ā": 932,
      "ĝĖ": 933,
      "ęęĚěęęĚ": 934,
      "ęĘĘĘęęĚ": 935,
      "Ēĕ": 936,
      "ĒęęĘ": 937,
      "Ĕęęĕ": 938,
      "ęęęĘęęęęĚ": 939,
      "ęĔĕ": 940,
      "ĀĀęĀĔ": 941,
      "ĜęęĔ": 942,
      "ęĚėęęęė": 943,
      "ĒĖ": 944,
      "ęĚĘęęęĚ": 945,
      "\"Ğ": 946,
      "ęęĘĚęęė": 947,
      "ęĖęęě": 948,
      "ęĚĘěęęĘ": 949,
      "ėěęęĘ": 950,
      "Ęęę": 951,
      "ĚĘęęĚ": 952,
      "ęĚęĚęęęęĘ": 953,
      "ęĘęėęęęę": 954,
      "ęĖęęęęĘ": 955,
      "ęĝğ": 956,
      "ĀĀĚĀĝ": 957,
      "ęěĘĘęęęę": 958,
      "Ĕę": 959,
      "ğęęĘ": 960,
      "ęĘęĘęęęęĘ": 961,
      "ęęĘėęęĘ": 962,
      "ęęęęęęęęęęęĚ": 963,
      "ęĚěęęęě": 964,
      "ęēĘ": 965,
      "đĕ": 966,
      "ĒĞ": 967,
      "ěěęęĚ": 968,
      "ęĘęęĘę": 969,
      "ęėęĘęęęę": 970,
      "ęęėĘęęęę": 971,
      "ęĜęęęęĚ": 972,
      "ęĚĘĘęęė": 973,
      "ĀĀěĀĜ": 974,
      "ĀĀ#Ā": 975,
      "ĚĜ": 976,
      "ęĚęěęęęę": 977,
      "ęĘęęĜ": 978,
      "ęĘęęęęęęęęęęę": 979,
      "ęęĘęęęęęęęęęęęę": 980,
      "ęęėĚęęė": 981,
      "ęęěę": 982,
      "ęēĚ": 983,
      "ĀĀĜĀĖ": 984,
      "ęĚęėęęĚ": 985,
      "ęĖęęė": 986,
      "ęĝęęĚ": 987,
      "ęęĘęęęęęęĘęęęę": 988,
      "ĀĀěĀĕ": 989,
      "ĀĀĕĀĖ": 990,
      "ĖęęęĘ": 991,
      "ėėęęĘ": 992,
      "ęęĜęęęĚ": 993,
      "ęĚĘėęęęę": 994,
      "ĀĀĚĀĔ": 995,
      "ĀĀěĀĝ": 996,
      "ĀĀĜĀĚ": 997,
      "ěĚęęĜ": 998,
      "ĀĀĝĀě": 999,
      "ĀĀĝĀė": 1000,
      "ēğ": 1001,
      "ęĚęęęęęęęęęęęęę": 1002,
      "ęĘęěęęĚ": 1003,
      "ęęĘėęęęę": 1004,
      "ęĘęęęęęęęĘ": 1005,
      "ęĕĞ": 1006,
      "ęĚĘĚęęė": 1007,
      "ęěĚĚęęĚ": 1008,
      "ęēė": 1009,
      "ęęęĚęęęęęęĘ": 1010,
      "Ēęęęę": 1011,
      "ĒęęĚ": 1012,
      "ęĘę": 1013,
      "ęĘęęęęęęęęęęęęę": 1014,
      "ęęĚĚęęĘ": 1015,
      "ęęĚĘęęĘ": 1016,
      "ęėęĘęęĚ": 1017,
      "ęĘėęęęė": 1018,
      "ęěěęęęĚ": 1019,
      "ėėęęęę": 1020,
      "Ęęęęęęęęęęęę": 1021,
      "ĜĘęęĚ": 1022,
      "Ğě": 1023
    },
    "merges": [
      "ę ę",
      "ęę ęę",
      "ę Ě",
      "ę Ę",
      "ęę Ę",
      "ęę Ě",
      "Ā Ā",
      "ę ě",
      "ę ė",
      "ęęęę ęęęę",
      "ęę ė",
      "ęę ě",
      "Ę ęęęę",
      "Ě ęęęę",
      "ęę ęĘ",
      "ęę ęĚ",
      "ę Ĝ",
      "ę Ė",
      "ęę Ė",
      "ęę Ĝ",
      "ęĚ ęęęę",
      "ęĘ ęęęę",
      "ę ĝ",
      "ę ĕ",
      "Ę ęęĚ",
      "Ě ęęĘ",
      "Ę ęęĘ",
      "ęĚ Ě",
      "ęęęę Ę",
      "Ě ęęĚ",
      "ęĘ Ę",
      "ęęęę Ě",
      "ęĚ Ę",
      "ęĘ Ě",
      "ęę ĕ",
      "ęę ĝ",
      "ęę ęė",
      "ęę ęě",
      "ęę ę",
      "ė ęęęę",
      "ě ęęęę",
      "ęęęęęęęę ęęęę",
      "ę Ğ",
      "ęęĚ ęęęę",
      "ęęĘ ęęęę",
      "ė ęęĚ",
      "Ā Ě",
      "ęę Ĕ",
      "Ā Ę",
      "ě ęęĘ",
      "ę Ĕ",
      "ęę Ğ",
      "ĀĀ Ę",
      "ĀĀ ę",
      "ė ęęĘ",
      "ęĚ ě",
      "Ę ęęě",
      "Ě ęęė",
      "Ā ě",
      "Ā ė",
      "ě ęęĚ",
      "ęě Ě",
      "ęĘ ė",
      "Ę ęęė",
      "ęĚ ė",
      "ĀĀ Ě",
      "ęě Ę",
      "ĀĀ ė",
      "ęĘ ě",
      "ęė Ę",
      "Ě ęęě",
      "ęė Ě",
      "Ā Ė",
      "ęęęęęęęę ęęęęęęęę",
      "ę ğ",
      "ęę ęĜ",
      "Ā Ĝ",
      "ęę ē",
      "ĀĀ ě",
      "ęę ęĖ",
      "ĀĀ Ė",
      "ęę ğ",
      "ęęęĘ ęęęę",
      "ę ē",
      "ęė ė",
      "ě ęęė",
      "Ęęęęę Ę",
      "ęęęĚ ęęęę",
      "Ė ęęĚ",
      "Ā ĕ",
      "ė ęęě",
      "ęě ě",
      "ęęĘ ę",
      "ęě ęęęę",
      "Ė ęęęę",
      "Ā ĝ",
      "Ęęęęę Ě",
      "Ĝ ęęęę",
      "Ěęęęę Ě",
      "ęė ęęęę",
      "ęĘ ęęĚ",
      "Ěęęęę Ę",
      "ĀĀ Ĝ",
      "ęęęĚ ę",
      "ęě ė",
      "Ĝ ęęĘ",
      "Ė ęęĘ",
      "ęęęĘ ę",
      "ě ęęě",
      "Ĝ ęęĚ",
      "ęĚ ęęĚ",
      "ė ęęė",
      "ě Ě",
      "ĀĀ ĕ",
      "ęĚ ęęĘ",
      "ęĚ Ěęęęę",
      "Ę ęęĜ",
      "ęė ě",
      "ęĘ Ęęęęę",
      "ęĚ Ĝ",
      "Ā Ĕ",
      "ĀĀ ĝ",
      "ęę Ē",
      "ė Ě",
      "ęĚęęęę Ę",
      "ęĘ ęęĘ",
      "ė Ę",
      "ęĘęęęę Ě",
      "Ā Ğ",
      "ęĘ Ė",
      "ęĜ Ě",
      "ęĘ Ĝ",
      "ęĖ Ę",
      "ęĖ Ě",
      "ęĜ Ę",
      "ęĘęęęę Ę",
      "ĀĀ Ĕ",
      "ęĚ Ė",
      "ęĚęęęę Ě",
      "ęęęęęęęę ęęę",
      "ęęĚ ęęęĚ",
      "ęĚ Ęęęęę",
      "ě Ę",
      "Ę ęęĖ",
      "Ě ęęĖ",
      "ęĘ Ěęęęę",
      "ęęĘ ęęęĘ",
      "ę Ē",
      "ęę ęĕ",
      "ĀĀ Ğ",
      "ęě Ĝ",
      "Ė ęęě",
      "ęęĚ ę",
      "Ě ęęĜ",
      "ě ě",
      "Ā ē",
      "ęę ęĝ",
      "ęė Ė",
      "Ĝ ęęė",
      "ęęęęĘ Ę",
      "ė ęęĜ",
      "ė ě",
      "ęĜ ě",
      "ęęęęĘ Ě",
      "ęę !",
      "ĀĀ ğ",
      "ęĖ ė",
      "ĕ ęęęę",
      "Ā ğ",
      "ęęęęĚ Ě",
      "ĀĀ ē",
      "ęě Ė",
      "ęė Ĝ",
      "ĕ ęęĘ",
      "ė ė",
      "ęę đ",
      "ęęęęĚ Ę",
      "Ĝ ęęě",
      "Ė ęęė",
      "ě ęęĖ",
      "ęęęĘ ęęĚ",
      "Ĝ Ě",
      "ĕ ęęĚ",
      "ĝ ęęęę",
      "ė ęęĖ",
      "ęęęĚ ęęĚ",
      "ęĖ ě",
      "ĝ ęęĘ",
      "ęĜ ė",
      "Ė Ě",
      "ęęęĘ ęęĘ",
      "ĀĀ Ē",
      "Ė Ę",
      "ęęęĚ ęęĘ",
      "Ĝ ě",
      "ę !",
      "Ā Ē",
      "Ĝ Ę",
      "ę đ",
      "ĝ ęęĚ",
      "ęĜ Ĝ",
      "ęĘ ęĚęęęę",
      "ĚęęĘ ę",
      "ęĖ ęęęę",
      "ęĚ ĝ",
      "ĘęęĚ ę",
      "ĀĀĘ Ā",
      "ęĘ ĕ",
      "ęĕ Ě",
      "ě ęęĜ",
      "ĀĀę Ā",
      "ĀĀ !",
      "ęĚ ęĘęęęę",
      "ęĜ ęęęę",
      "ęě ęęĘ",
      "ęĝ Ě",
      "ęĚęęęę ęę",
      "ĀĀ đ",
      "Ę Ě",
      "ĕ Ě",
      "ęę \"",
      "ě ė",
      "ęęě ęęęę",
      "ĝ Ě",
      "ě Ĝ",
      "ęĕ Ę",
      "ęęęęęęęęęęęę ę",
      "ęĖ Ė",
      "ęĝ Ę",
      "ęĚ ęė",
      "ĕ Ę",
      "ęĘęęęę ęę",
      "ęęė ęęęę",
      "ęĚĘ ęęęĘ",
      "ęęĘ Ęęęęę",
      "ęĘ ĝ",
      "Ė ęęĜ",
      "ĀĀė Ā",
      "ęęę Ĕ",
      "Ė ě",
      "ĘęęĘ ę",
      "Ĝ Ĝ",
      "ęĚ ĕ",
      "ęęę Ğ",
      "Ěęęęę ę",
      "ęĘĚ ęęęĚ",
      "Ę ęęĝ",
      "Ĝ ęęĖ",
      "ĚęęĚ ę",
      "ęĘĘ ęęęĘ",
      "ęę Đ",
      "ĀĀĚ Ā",
      "Ě Ě",
      "ĝ ęęė",
      "ęě ĝ",
      "ęĚĚ ęęęĚ",
      "ĀĀ Đ",
      "ęě ęęĚ",
      "ė Ė",
      "ė Ĝ",
      "ęĘ ęęęęęęęę",
      "ĕ ęęė",
      "Ę Ę",
      "ĕ ęęě",
      "ĀĀ \"",
      "ęĘ ęĚ",
      "ęęĘęęęę ę",
      "ęĘ ęĘęęęę",
      "ĀĀě Ā",
      "ęęĚęęęę ę",
      "ęĝ ě",
      "ęė ĕ",
      "ĀĀĖ Ā",
      "Ęęęęę ę",
      "Ė ė",
      "ęęĚ Ěęęęę",
      "Ė ęęĖ",
      "ĝ ě",
      "ęęęę ęęĚ",
      "ęĚ ęĚęęęę",
      "ęęĚ ĚęęĚ",
      "ęĕ ė",
      "ęęĘ ĚęęĘ",
      "ęĜ Ė",
      "ęęĚ ĘęęĚ",
      "ęęęę ęęĘ",
      "ě Ğ",
      "ęĘ ęęė",
      "Ę ęęĕ",
      "Ě ęęĕ",
      "ęė ęęĚ",
      "ě ĝ",
      "ĀĀ ď",
      "ę \"",
      "ĀĀ #",
      "Ĕ ęęĚ",
      "Ĝ ĝ",
      "ęĚ ęęęęęęęę",
      "ė ęęĝ",
      "ęęĚ Ęęęęę",
      "ęė ęęĘ",
      "Ĕ ęęĘ",
      "ė ĝ",
      "ęęĘ ĘęęĘ",
      "ęęĘ Ěęęęę",
      "Ğ Ě",
      "ęě ĕ",
      "ęė ĝ",
      "ě ęęęęĘ",
      "ęĘ ėęęęę",
      "ęĘ ęęě",
      "Ė ĝ",
      "ęĖ Ĝ",
      "ė ęęęęĘ",
      "ęě ęęęęĘ",
      "ě ęęĕ",
      "Ě Ę",
      "Ĝ ęęĜ",
      "Ĝ Ğ",
      "ęĘĘ ĚęęĘ",
      "ĀĀ $",
      "Ěęęęę ęę",
      "ęĝ ė",
      "ęĜ ĝ",
      "Ĕ ęęęę",
      "ęĚ ęĘęęĚ",
      "ęĘ ęĚęęĚ",
      "ęĚĚ ĘęęĚ",
      "Ęęęęę ęę",
      "ęęęĘ ęęęęęęęę",
      "ė ęęĕ",
      "ęęęĚ ęęęęęęęę",
      "ęęĘ ęęęęęęęę",
      "Ĕ Ě",
      "ęę #",
      "Ġ Ě",
      "ė ęęęęĚ",
      "ĝ ĝ",
      "ęĘęęęę ęęĚ",
      "Ĕ Ę",
      "ęĕ ě",
      "Ğ ęęĘ",
      "Ę Ęęęęę",
      "ęĚęęęę ęęĚ",
      "ě Ė",
      "ęĚ ęęě",
      "ęĚęęęę ęęĘ",
      "ęĚĘ ĚęęĘ",
      "ęĘ ęĘęęĚ",
      "ĀĀ %",
      "ęĕ Ė",
      "ĀĀĘ ĀĘ",
      "ĀĀ Ď",
      "ě ęęęęĚ",
      "ęĚ Ğ",
      "ĀĀĜ Ā",
      "ęĖ ĕ",
      "ęĝ Ĝ",
      "ęęęęęęęęęęęę ęęę",
      "ęęę ē",
      "ĀĚ Ě",
      "ĕ ė",
      "ęė ęęęęĚ",
      "ęĚ ęęė",
      "Ěęęęę ęęĚ",
      "ęĚ ěęęęę",
      "ęĘĚ ĘęęĚ",
      "ĀĀĕ Ā",
      "Ė Ė",
      "ęĘĚ ĚęęĚ",
      "Ġ ĝ",
      "Ę ęęęĘ",
      "ęĚĚ Ęęęęę",
      "ęĚĘ ĘęęĘ",
      "ę Đ",
      "ęęė ęęęĘ",
      "ęĞ Ě",
      "ĕ ě",
      "ĕ ęęĖ",
      "ęĘ Ğ",
      "ęĘęęęę ęęĘ",
      "Ĝ ė",
      "ęĚ Ĕ",
      "Ę ęęęęęęęę",
      "ęę ď",
      "ĀĀ &",
      "ĕ ęęĜ",
      "ĀĚ Ę",
      "Ė Ğ",
      "ĀĀę Āė",
      "Ě Ěęęęę",
      "ęĘ ęĚęęĘ",
      "ęĖ ęęĚ",
      "ęęę ğ",
      "ĀĀę ĀĘ",
      "ĀĀĝ Ā",
      "ĕ Ĝ",
      "Ě ęęĝ",
      "ě ğ",
      "Ġ Ĝ",
      "ęĚęęęę ę",
      "ęĘęęęę ę",
      "ęĘĘ Ěęęęę",
      "ě ęęĝ",
      "ęęě ęęęĚ",
      "ĕ ĝ",
      "Ě ęęęęęęęę",
      "ęĘĚ Ěęęęę",
      "Ę Ěęęęę",
      "ęĘ Ĕ",
      "ęě ęęęęĚ",
      "Ė Ĝ",
      "ęĚ ęĘęęĘ",
      "ęě Ğ",
      "ĀĀĘ Āė",
      "ęě Ěęęęę",
      "ęė Ęęęęę",
      "ē Ě",
      "ĝ Ĝ",
      "ĝ ęęě",
      "ęęĚ ęęęęęęęę",
      "Ĕ ęęė",
      "Ė ęęĝ",
      "ęė ęęęęĘ",
      "ė Ğ",
      "ęęęęęęęęęęęęęęęę ęę",
      "ęĘĘ Ęęęęę",
      "ĀĀĔ Ā",
      "ęĞ Ę",
      "Ě Ęęęęę",
      "ęĚĚ Ěęęęę",
      "Ĕ ęęě",
      "Ě ęęęĚ",
      "ĝ Ę",
      "ęĜ ĕ",
      "ęĘĘ ĘęęĘ",
      "ęęęė ęęęę",
      "ęęęė ę",
      "Ğ ęęĚ",
      "ęĜ ęęĘ",
      "ė ęęĞ",
      "ęĝ Ė",
      "ęĕ ęęęę",
      "ĀĀĘ Āě",
      "Ĕ ě",
      "ęę $",
      "Ę ęęĞ",
      "ęęęě ęęęę",
      "Ğ ęęęę",
      "ĀĀĚ ĀĘ",
      "Ęęęęę ęęĘ",
      "ęė Ĕ",
      "ĀĀė ĀĘ",
      "ęĚ ęĘ",
      "Ė ęęĕ",
      "ę #",
      "ęĘ ęęęĘ",
      "ĀĀę Āě",
      "ęęęęęęęęęęęęęęęę ęęęęęęęę",
      "ęĚ ęĚęęĘ",
      "Ġ ğ",
      "ęęě ĘęęĚ",
      "ęĕ Ĝ",
      "ęĚĘ Ęęęęę",
      "ęĖ ĝ",
      "ĕ Ğ",
      "ęĖ ęęĘ",
      "ęęęě ę",
      "Ġ Ğ",
      "ęĔ Ę",
      "ęęė ĚęęĘ",
      "ęęęė ęęĚ",
      "ę ĀĀ",
      "ęĝ ęęęę",
      "Ĝ ğ",
      "ĀĀĞ Ā",
      "ė ğ",
      "ęĚ ęęęęęęęęęęęę",
      "ęĚ ęĚęęĚ",
      "Ęęęęę ęęĚ",
      "ęĜ ęęĚ",
      "ęĚě ęęęĚ",
      "Ĝ ęęĕ",
      "ē Ę",
      "ĕ Ė",
      "ęĚ ęęęĚ",
      "ĀĀĘ ĀĖ",
      "ęęĚęęęę ęęĚ",
      "ęĔ Ě",
      "ĀĀĘ ĀĚ",
      "ė ĘęęĘ",
      "ęĘ ęě",
      "ęĘė ęęęĘ",
      "ęĚĚ ĚęęĚ",
      "ęĘĘęęęę ę",
      "ė ęęęĘ",
      "ĀĀę ĀĚ",
      "ęĚĚęęęę ę",
      "ĀĀ '",
      "ē ęęĚ",
      "ęĘ ęęęęęęęęęęęę",
      "ě ęęęĚ",
      "ĀĀğ Ā",
      "ē ė",
      "Ĕ ĝ",
      "Ě ĝ",
      "Ġ Ę",
      "ęĚě ĘęęĚ",
      "ęĘ ęĘęęĘ",
      "ē ęęĘ",
      "Ĕ ė",
      "ęĘ ěęęęę",
      "ęė ęęě",
      "ĀĀė Āė",
      "ęĘě ęęęĚ",
      "ęę Ď",
      "Ġ ě",
      "ğ Ě",
      "ęė Ğ",
      "ĀĀĚ Āė",
      "ęė Ěęęęę",
      "ĀĀę ĀĖ",
      "ęĝ ĝ",
      "ęęęě ęęĘ",
      "ęęĚęęęę ęęĘ",
      "ĀĀė Āě",
      "ęě Ĕ",
      "ęĖ Ĕ",
      "ęęęě ęęĚ",
      "ĀĀĚ Āě",
      "ęě Ęęęęę",
      "ęęĘęęęę ęęĚ",
      "ĀĀė ĀĚ",
      "Ę ĚęęĘ",
      "ęĘĘ ěęęĘ",
      "ęĞ ě",
      "ęęĘęęęę ęęĘ",
      "ĕ ęęĝ",
      "ęĚ ėęęęę",
      "ęĞ Ĝ",
      "ğ Ğ",
      "Ěęęęę ęęĘ",
      "ĘęęęęĘ Ě",
      "ė Ęęęęę",
      "ęęęė ęęĘ",
      "ęęĘęęęę ęę",
      "ĀĀĖ ĀĚ",
      "Ė ęęęęĘ",
      "Ę ĝ",
      "ęęě ĚęęĚ",
      "ęĘĚ Ęęęęę",
      "ęęęęęęęę ęęęęęęęęęęęę",
      "ĀĀĚ ĀĖ",
      "ĕ ęęĕ",
      "Ğ Ğ",
      "ęĘė ĚęęĘ",
      "ĀĀĚ ĀĚ",
      "Ĕ Ė",
      "Ě ě",
      "Ę ĘęęĘ",
      "ęĚ ğ",
      "ęĜ Ğ",
      "ęĘĚęęęę ę",
      "Ĕ ęęĖ",
      "ė ĚęęĘ",
      "Ė ęęĞ",
      "ĀĀ (",
      "ęęė ĘęęĘ",
      "ęęęęęęęęęęęęęęęę ęęę",
      "ęęĚęęęę ęę",
      "ě Ěęęęę",
      "ęĚė ęęęĘ",
      "Ġ ė",
      "ęĘ ęĘ",
      "ęě ęęė",
      "ĕ ğ",
      "ě ĘęęĚ",
      "ęğ Ě",
      "Ĝ ęęĝ",
      "Ĕ Ğ",
      "Ę Ğ",
      "Ę ęęĔ",
      "ę ď",
      "ęĝ Ğ",
      "ĀĀē Ā",
      "ęė ęĚęęĚ",
      "ęęĚ ęęĘ",
      "ęĘĘ ęęęĚ",
      "Ĕ ęęĜ",
      "Ě ğ",
      "ęĘ ęěęęęę",
      "ē ęęęę",
      "ē ęęė",
      "ęě ğ",
      "ĀĀę Āĕ",
      "ĀĀě ĀĘ",
      "ęěĚ ęęęĚ",
      "Ĕ Ĝ",
      "ęĚĚ ėęęĚ",
      "ĚęęęęĘ Ě",
      "ĕ ĕ",
      "Ė ğ",
      "ė ęęĔ",
      "ĝ ęęĜ",
      "ęęĚ ęęęĘ",
      "ęęęĘ ęęė",
      "ęęę Ē",
      "ĀĀė ĀĖ",
      "Ě Ğ",
      "ęĘ ĚęęĘ",
      "ęĚĚ ęęęě",
      "ęĚĚ ęęęĘ",
      "ĀĀĚ ĀĜ",
      "ē ě",
      "ē ĝ",
      "ėęęĘ ę",
      "ęęęęęęęę Ě",
      "ęĕ ĕ",
      "ęĔ ė",
      "ĀĀę ĀĜ",
      "ĚęęęęĚ Ě",
      "Ĝ ęęęęĚ",
      "ęě ęĘęęęę",
      "ęĝ ĕ",
      "ěęęĚ ę",
      "Ě ęęĔ",
      "ęĚ ęĘęęęęĘ",
      "ęęęęęęęę Ę",
      "ęĚĘ Ěęęęę",
      "ęĞ ė",
      "ĀĀĖ ĀĘ",
      "ęĚ ĘęęĚ",
      "ęĚė ĚęęĘ",
      "ęĘ ğ",
      "ėęęĚ ę",
      "ęěĘ ęęęĘ",
      "ĀĀĖ Āė",
      "ĚęęęęĘ Ę",
      "ě Ęęęęę",
      "ĀĀě ĀĖ",
      "Ė ęęęęĚ",
      "ĀĀ )",
      "ęĚĘęęęę ę",
      "Ġ Ā",
      "ęę %",
      "ęĚ ęęĘę",
      "ęęĚ ęęĚ",
      "ęěĘ ĘęęĘ",
      "ĀĀě Āė",
      "! ğ",
      "ĀĀ *",
      "ęėĚ ęęęĚ",
      "ě ĕ",
      "ęě ęęě",
      "ęĔ Ė",
      "ęĚě ĚęęĚ",
      "ĘęęęęĘ Ę",
      "ĝ ğ",
      "ĝ ęęĖ",
      "Ġ ęęęę",
      "ęĚ ęėęęęę",
      "ęęĚ ęęęě",
      "ĀĀĒ Ā",
      "Ĝ ęęęęĘ",
      "Ğ Ę",
      "ęė ęęė",
      "ęĚĘ ęęęė",
      "ęĘĘ ęęęė",
      "ĚęęęęĚ Ę",
      "! Ğ",
      "ė ĕ",
      "ęęĘ ęęĘ",
      "ē Ė",
      "ě ęęĔ",
      "ęęĘ ęęęė",
      "ęė ęĚęęęę",
      "ęĖ Ğ",
      "ĀĀĘ Āĕ",
      "ęĚė ĘęęĘ",
      "ęėĘ ęęęĘ",
      "ęė ėęęęę",
      "ęĜ Ĕ",
      "ęęęęęęęęęęęęęęęę ęęęęęęęęęęęęęęęę",
      "Ĝ Ė",
      "ęęĚ ęęęĚę",
      "ęęęĘ ęęě",
      "ęĔ ě",
      "ĀĀĘ ĀĜ",
      "ĘęęęęĚ Ę",
      "ęě ęĘęęĚ",
      "ęėĚ ĚęęĚ",
      "ĀĀĖ Āě",
      "ĘęęęęĚ Ě",
      "ē Ğ",
      "Ė ĕ",
      "ęĚ ęĘęęęęĚ",
      "ęęęęęęęę ęĘ",
      "ęĚęęęę ė",
      "! Ě",
      "Ē Ę",
      "ē ęęě",
      "ęęĚ ėęęĚ",
      "ĀĀě Āě",
      "đ Ę",
      "ęěĚ ĘęęĚ",
      "ęĘė ĘęęĘ",
      "ęĘě ĘęęĚ",
      "ęě ęĘęęĘ",
      "ęĞ Ė",
      "ěęęĘ ę",
      "ęėĘ ĚęęĘ",
      "ęĚęęęęĘ ę",
      "ęĘęęęę ě",
      "ęĕ ĝ",
      "ęĚĚ ĘęęĘ",
      "ęĘĚ ęęęě",
      "ė Ěęęęę",
      "ė ęęğ",
      "ęęĘ ęęęĚ",
      "ęęĘ ęęęĘę",
      "ęĞ ĝ",
      "ě ęęĞ",
      "Ġ !",
      "Ġ Ė",
      "ĀĀě ĀĚ",
      "ęęęĘęęęę ę",
      "ĀĀĜ Āė",
      "Ē ė",
      "ęĚ ęęĜ",
      "ęĘ ęĚęęęęĘ",
      "ęě ěęęęę",
      "ęěĚ Ęęęęę",
      "ĀĀĜ ĀĘ",
      "Ē Ě",
      "Ę ğ",
      "ę $",
      "Ğ ęęė",
      "ęęĚ Ęęęě",
      "ĀĀĖ ĀĖ",
      "! Ĝ",
      "đ Ě",
      "ęĘ ęĚęęęęĚ",
      "ęě ęĚęęĘ",
      "ęĔ Ĝ",
      "ĀĀĚ Āĕ",
      "ĀĀė Āĝ",
      "ęėĘ Ěęęęę",
      "ęğ ě",
      "ĝ Ğ",
      "ęĘ ē",
      "ęęĘ ěęęĘ",
      "ĀĀ +",
      "ęęęęęęęę ęĚ",
      "ęĚęęęę ě",
      "ęęę !",
      "Ěęęė ę",
      "Ęęęė ę",
      "ęğ Ĝ",
      "ęęě ęęęě",
      "ęęęĚ ęęė",
      "ęęĖ ęęęę",
      "ęĚĘ ęęęĘę",
      "ĀĀĘ Āĝ",
      "ĀĀė Āĕ",
      "Ěęęě ę",
      "đ ė",
      "ē Ĝ",
      "Ġ ĕ",
      "ęĘ ęęĖ",
      "ęė ęĚęęĘ",
      "ęĜ ğ",
      "ęĘęęęę ė",
      "ęĕ ęęĚ",
      "ęĞ ęęęę",
      "ęĘęęęęĚ ę",
      "! ĝ",
      "Ĕ ğ",
      "ęĚ ē",
      "ęęęĚ ęęęęĘ",
      "ęęĜ ęęęę",
      "ęĚĚ ęęĚ",
      "ĀĀė ĀĜ",
      "ęĘě ĚęęĚ",
      "! ě",
      "Ę ęęğ",
      "ě ĚęęĚ",
      "Ğ ğ",
      "ęĘ ęěęęĘ",
      "ęęė ęęęė",
      "ęĘĘ ęęęĘę",
      "ĀĀĔ ĀĘ",
      "ęĚęęęęĚ ę",
      "ĀĀ! Ā",
      "Ė ęęĔ",
      "ęė ğ",
      "ęĜ ęęęęĘ",
      "ęĚĘ ėęęĘ",
      "ĀĀđ Ā",
      "ęęęęęęęę ęęęĘ",
      "ęĘĚ ęęęĚę",
      "ĀĀĕ Āě",
      "Ĕ ęęĝ",
      "Ġ ęęĘ",
      "ęęęĘ ęęęęĘ",
      "ęĜ ęęė",
      "ęĚĚ ęęęĚę",
      "ęğ Ę",
      "ĀĀĕ ĀĘ",
      "ĀĀĐ Ā",
      "Ĕ ĕ",
      "ęęęĚ ęęě",
      "ĀĀĘ ĀĔ",
      "Ē ě",
      "ė ęęęęĘĘ",
      "Ġ ĀĀ",
      "ęęęĚ ęęęęĚ",
      "ęĖ ęęęęĚ",
      "ęĚęė ęęĘ",
      "ęĘ ĘęęĘ",
      "ĀĀę Āĝ",
      "ĀĀĕ ĀĚ",
      "ęĝ ęęĘ",
      "ęĘĚ ęęęĘ",
      "ęėĚ ĘęęĚ",
      "ęęęĚęęęę ę",
      "ęĘęęęęĘ ę",
      "đ Ė",
      "ė ęę",
      "Ě ĚęęĚ",
      "ęė ē",
      "ęęě Ęęęě",
      "ęĚĚ Ęęęě",
      "ęĘĚ ěęęĚ",
      "ęęę đ",
      "ĀĀĜ Āě",
      "ĀĀĝ ĀĘ",
      "\" Ě",
      "Ġ ęęĚ",
      "ęĖ ğ",
      "ęĘĚ ėęęĚ",
      "ęěĘ ĚęęĘ",
      "ęėė ęęęĘ",
      "ė ęęęęĚĚ",
      "Ę ě",
      "Ĝ ĕ",
      "ęĚ ęęĖ",
      "ęĚĚ ėęęęę",
      "ĀĀĖ ĀĜ",
      "ĀĀ\" Ā",
      "ĝ Ė",
      "ęęĚ ěęęĚ",
      "ęĘĘ ĘęęĚ",
      "Ē ĕ",
      "Ē ęęĘ",
      "Ĕ ęęĕ",
      "ęęęĘ ęęęęĚ",
      "ęĔ ĕ",
      "ĀĀę ĀĔ",
      "Ĝ ęęĔ",
      "ęĚė ęęęė",
      "Ē Ė",
      "ęĚĘ ęęęĚ",
      "\" Ğ",
      "ęęĘ Ěęęė",
      "ęĖ ęęě",
      "ęĚĘ ěęęĘ",
      "ė ěęęĘ",
      "Ę ęę",
      "Ě ĘęęĚ",
      "ęĚ ęĚęęęęĘ",
      "ęĘ ęėęęęę",
      "ęĖ ęęęęĘ",
      "ęĝ ğ",
      "ĀĀĚ Āĝ",
      "ęěĘ Ęęęęę",
      "Ĕ ę",
      "ğ ęęĘ",
      "ęĘ ęĘęęęęĘ",
      "ęęĘ ėęęĘ",
      "ęęęęęęęę ęęęĚ",
      "ęĚě ęęęě",
      "ęē Ę",
      "đ ĕ",
      "Ē Ğ",
      "ě ěęęĚ",
      "ęĘ ęęĘę",
      "ęė ęĘęęęę",
      "ęęė Ęęęęę",
      "ęĜ ęęęęĚ",
      "ęĚĘ Ęęęė",
      "ĀĀě ĀĜ",
      "ĀĀ# Ā",
      "Ě Ĝ",
      "ęĚ ęěęęęę",
      "ęĘ ęęĜ",
      "ęĘ ęęęęęęęęęęę",
      "ęęĘ ęęęęęęęęęęęę",
      "ęęė Ěęęė",
      "ęęě ę",
      "ęē Ě",
      "ĀĀĜ ĀĖ",
      "ęĚęė ęęĚ",
      "ęĖ ęęė",
      "ęĝ ęęĚ",
      "ęęĘęęęę ęęĘęęęę",
      "ĀĀě Āĕ",
      "ĀĀĕ ĀĖ",
      "Ė ęęęĘ",
      "ė ėęęĘ",
      "ęęĜ ęęęĚ",
      "ęĚĘ ėęęęę",
      "ĀĀĚ ĀĔ",
      "ĀĀě Āĝ",
      "ĀĀĜ ĀĚ",
      "ěĚ ęęĜ",
      "ĀĀĝ Āě",
      "ĀĀĝ Āė",
      "ē ğ",
      "ęĚ ęęęęęęęęęęęęę",
      "ęĘ ęěęęĚ",
      "ęęĘ ėęęęę",
      "ęĘęęęę ęęęĘ",
      "ęĕ Ğ",
      "ęĚĘ Ěęęė",
      "ęěĚ ĚęęĚ",
      "ęē ė",
      "ęęęĚęęęę ęęĘ",
      "Ē ęęęę",
      "Ē ęęĚ",
      "ęĘ ę",
      "ęĘ ęęęęęęęęęęęęę",
      "ęęĚ ĚęęĘ",
      "ęęĚ ĘęęĘ",
      "ęė ęĘęęĚ",
      "ęĘė ęęęė",
      "ęěě ęęęĚ",
      "ė ėęęęę",
      "Ę ęęęęęęęęęęę",
      "Ĝ ĘęęĚ",
      "Ğ ě"
    ]
  }
}