{
  "version": "1.0",
  "truncation": null,
  "padding": null,
  "added_tokens": [],
  "normalizer": null,
  "pre_tokenizer": {
    "type": "ByteLevel",
    "add_prefix_space": false,
    "trim_offsets": true,
    "use_regex": true
  },
  "post_processor": {
    "type": "ByteLevel",
    "add_prefix_space": true,
    "trim_offsets": false,
    "use_regex": true
  },
  "decoder": {
    "type": "ByteLevel",
    "add_prefix_space": true,
    "trim_offsets": true,
    "use_regex": true
  },
  "model": {
    "type": "BPE",
    "dropout": null,
    "unk_token": null,
    "continuing_subword_prefix": null,
    "end_of_word_suffix": null,
    "fuse_unk": false,
    "byte_fallback": false,
    "ignore_merges": false,
    "vocab": {
      "\u0000": 0,
      "\u0001": 1,
      "\u0002": 2,
      "\u0003": 3,
      "\u0004": 4,
      "\u0005": 5,
      "\u0006": 6,
      "\u0007": 7,
      "\b": 8,
      "\t": 9,
      "\n": 10,
      "\u000b": 11,
      "\f": 12,
      "\r": 13,
      "\u000e": 14,
      "\u000f": 15,
      "\u0010": 16,
      "\u0011": 17,
      "\u0012": 18,
      "\u0013": 19,
      "\u0014": 20,
      "\u0015": 21,
      "\u0016": 22,
      "\u0017": 23,
      "\u0018": 24,
      "\u0019": 25,
      "\u001a": 26,
      "\u001b": 27,
      "\u001c": 28,
      "\u001d": 29,
      "\u001e": 30,
      "\u001f": 31,
      " ": 32,
      "!": 33,
      "\"": 34,
      "#": 35,
      "$": 36,
      "%": 37,
      "&": 38,
      "'": 39,
      "(": 40,
      ")": 41,
      "*": 42,
      "+": 43,
      ",": 44,
      "-": 45,
      ".": 46,
      "/": 47,
      "0": 48,
      "1": 49,
      "2": 50,
      "3": 51,
      "4": 52,
      "5": 53,
      "6": 54,
      "7": 55,
      "8": 56,
      "9": 57,
      ":": 58,
      ";": 59,
      "<": 60,
      "=": 61,
      ">": 62,
      "?": 63,
      "@": 64,
      "A": 65,
      "B": 66,
      "Ā": 67,
      "Ą": 68,
      "Ć": 69,
      "Ĉ": 70,
      "ĉ": 71,
      "Ċ": 72,
      "ċ": 73,
      "Č": 74,
      "č": 75,
      "Ď": 76,
      "ď": 77,
      "Đ": 78,
      "đ": 79,
      "Ē": 80,
      "ē": 81,
      "Ĕ": 82,
      "ĕ": 83,
      "Ė": 84,
      "ė": 85,
      "Ę": 86,
      "ę": 87,
      "Ě": 88,
      "ě": 89,
      "Ĝ": 90,
      "ĝ": 91,
      "Ğ": 92,
      "ğ": 93,
      "Ġ": 94,
      "$$": 95,
      "$$$$": 96,
      "$%": 97,
      "$#": 98,
      "$$%": 99,
      "$$#": 100,
      "$&": 101,
      "$\"": 102,
      "$$&": 103,
      "$$\"": 104,
      "$$$$$$$$": 105,
      "#$$$$": 106,
      "ĀĀ": 107,
      "%$$$$": 108,
      "$$$%": 109,
      "$$$#": 110,
      "$'": 111,
      "$!": 112,
      "$$!": 113,
      "$$'": 114,
      "$%$$$$": 115,
      "$#$$$$": 116,
      "$(": 117,
      "%$$#": 118,
      "#$$%": 119,
      "%$$%": 120,
      "#$$": 121,
      "#$$#": 122,
      "$%%": 123,
      "\"$$$$": 124,
      "$#%": 125,
      "$##": 126,
      "%$$": 127,
      "&$$$$": 128,
      "$%#": 129,
      "\"$$": 130,
      "$)": 131,
      "$ğ": 132,
      "&$$": 133,
      "$$$$#": 134,
      "$$$$%": 135,
      "!$$": 136,
      "$$$&": 137,
      "\"$$%": 138,
      "&$$#": 139,
      "$*": 140,
      "$$%$$$$": 141,
      "#$$&": 142,
      "\"$$#": 143,
      "%$$\"": 144,
      "$%&": 145,
      "$Ğ": 146,
      "$$#$$$$": 147,
      "$&%": 148,
      "&$$%": 149,
      "$$(": 150,
      "#$$\"": 151,
      "%$$&": 152,
      "$$$$$$$$$$$$": 153,
      "$\"#": 154,
      "$#\"": 155,
      "$%\"": 156,
      "$#&": 157,
      "$&#": 158,
      "$$$\"": 159,
      "'$$": 160,
      "$\"%": 161,
      "$$$": 162,
      "#$$$$#": 163,
      "Ġ$$": 164,
      "\"$$&": 165,
      "%%": 166,
      "$%$$#": 167,
      "($$": 168,
      "$#$$#": 169,
      "%$$$$#": 170,
      "$ĝ": 171,
      "$\"$$$$": 172,
      "!$$$$": 173,
      "$$$%$$$$": 174,
      "$%$$%": 175,
      "$#$$%": 176,
      "%#": 177,
      "$+": 178,
      "$&&": 179,
      "$&$$$$": 180,
      "&$$\"": 181,
      "'$$$$": 182,
      "$\"\"": 183,
      "$$$#$$$$": 184,
      "!$$%": 185,
      "\"$$\"": 186,
      "!$$#": 187,
      "$%%$$$$": 188,
      "'$$%": 189,
      "#$$!": 190,
      "$&\"": 191,
      "$$$$$$$$$$$$$$$$": 192,
      "$##$$$$": 193,
      "'$$#": 194,
      "%$$!": 195,
      "&$$&": 196,
      "$%'": 197,
      "$!#": 198,
      "#$$'": 199,
      "ğ$$": 200,
      "$'%": 201,
      "&%": 202,
      "$%$$$$#": 203,
      "$'#": 204,
      "$$#$$$#": 205,
      "$#$$$$#": 206,
      "$\"&": 207,
      "Ġ$$$$": 208,
      "Ā#": 209,
      "ĀĀ#": 210,
      "Ā\"": 211,
      "$$ğ": 212,
      "#$$$$%": 213,
      "$%!": 214,
      "$$%$$$%": 215,
      "$#%$$$$": 216,
      "$#!": 217,
      "%$$'": 218,
      "Ā!": 219,
      "ĀĀ%": 220,
      "$!%": 221,
      "$%#$$$$": 222,
      "%$$$$%": 223,
      "\"$$'": 224,
      "$,": 225,
      "$#'": 226,
      "$#$$$$%": 227,
      ")$$": 228,
      "!$$&": 229,
      "$Ĝ": 230,
      "Ġ\"": 231,
      "Ġ$$#": 232,
      "ĀĀ$": 233,
      "Ā%": 234,
      "$%$$$$%": 235,
      "!$$\"": 236,
      "'$$\"": 237,
      "ĀĀ\"": 238,
      "Ġ#": 239,
      "Ġ$$%": 240,
      "ĀĀ!": 241,
      "ĀĀ&": 242,
      "'$$&": 243,
      "$\"'": 244,
      "Ā'": 245,
      "$$$%$": 246,
      "$\"!": 247,
      "&$$!": 248,
      "$&'": 249,
      "$$$'": 250,
      "Ā&": 251,
      "$$)": 252,
      "$'\"": 253,
      "$$$#$": 254,
      "$$$%$$#": 255,
      "$&!": 256,
      "$$$%$$%": 257,
      "$&$$#": 258,
      "\"#": 259,
      "($$#": 260,
      "$!\"": 261,
      "#$$$\"": 262,
      "Ġ%": 263,
      "$$$#$$%": 264,
      "$'&": 265,
      "&$$'": 266,
      "$$$!": 267,
      "&#": 268,
      "$%(": 269,
      "Ā(": 270,
      "$''": 271,
      "Ġ$$\"": 272,
      "$$Ğ": 273,
      "\"$$!": 274,
      "Ġ$$&": 275,
      "$\"$$%": 276,
      "$$$#$$#": 277,
      "ĀĀ'": 278,
      "$!&": 279,
      "$ě": 280,
      "\"%": 281,
      "Ġ!": 282,
      "Ġ&": 283,
      "#$$(": 284,
      "($$$$": 285,
      "&$$$$#": 286,
      "Āğ": 287,
      "$#$$$$$$$$": 288,
      "$-": 289,
      "$%$$$$$$$$": 290,
      "ĀĀğ": 291,
      "\"$$$$#": 292,
      "($$%": 293,
      "\"$$$\"": 294,
      "Ġ'": 295,
      "$&$$%": 296,
      "Ā)": 297,
      "ĀĞ": 298,
      "$&(": 299,
      "%$$(": 300,
      "$!!": 301,
      "$(%": 302,
      "!$$'": 303,
      "$!$$$$": 304,
      "$%#$$$#": 305,
      "$\"$$#": 306,
      "$#%$$$%": 307,
      "$(#": 308,
      "&$$$&": 309,
      "$(&": 310,
      "$#$%$$$$": 311,
      "$$$$##": 312,
      "$%$#$$$$": 313,
      "$#(": 314,
      "$$*": 315,
      "$#$#$$$$": 316,
      "$$#%$$#": 317,
      "$$$$#%": 318,
      "$(\"": 319,
      "'$$'": 320,
      "$$$$%%": 321,
      "($$\"": 322,
      "Ğ$$": 323,
      "$$\"$$$$": 324,
      "&&": 325,
      "ĀĀ(": 326,
      "$$$#$$$$$$$$": 327,
      "$%%#$$%": 328,
      "\"$$$$%": 329,
      "Ġ$": 330,
      "\"$$(": 331,
      "ĀĀ)": 332,
      "$$%%$$$$": 333,
      "$$%#$$%": 334,
      "Ġğ": 335,
      "Ġ$$!": 336,
      "$%$$&": 337,
      "$!'": 338,
      "!$$!": 339,
      "$%$%$$$$": 340,
      "#$$ğ": 341,
      "Āĝ": 342,
      "'$$!": 343,
      "Ġ$$'": 344,
      "%$$ğ": 345,
      "$##$$$#": 346,
      "\"\"": 347,
      "($$&": 348,
      "Ā*": 349,
      "ĀĀĝ": 350,
      "$'!": 351,
      "$#$%$$%": 352,
      "$%%$$$%": 353,
      "$$$$%#": 354,
      "Ġ(": 355,
      "$#$$$$$$#": 356,
      "Ġ$&": 357,
      "$%$$$$$$%": 358,
      "#$$)": 359,
      "$'$$$$": 360,
      "&\"": 361,
      "$$%%$$%": 362,
      "ĀĀĞ": 363,
      "#$$$$$$$$": 364,
      "ğ$$%": 365,
      "$#$%$$#": 366,
      "%$$$&": 367,
      "*$$": 368,
      "$%$#$$#": 369,
      "$$##$$$$": 370,
      "$#$$&": 371,
      "$'(": 372,
      "$##%$$#": 373,
      "$.": 374,
      "$#$$\"": 375,
      "$\"(": 376,
      "$('": 377,
      "$$%#$$$$": 378,
      "$#%#$$%": 379,
      "$##%$$$$": 380,
      "ğ$$#": 381,
      "&$$$$%": 382,
      "ĝ$$": 383,
      "$#\"$$$$": 384,
      "$$$$$$%": 385,
      "$%ğ": 386,
      "$%)": 387,
      "%$$$$$$#": 388,
      "$$$%$$$$$$$$": 389,
      "ĀĀ#Ā": 390,
      "$$%$": 391,
      "%$$%$": 392,
      "\"&": 393,
      "$&)": 394,
      "$%##$$#": 395,
      "$$##$$#": 396,
      "$\"$$$$%": 397,
      "$$&$$$$": 398,
      "$ğ#": 399,
      "ğ$$&": 400,
      "$#$#$$%": 401,
      "$&%$$$$": 402,
      "$\"ğ": 403,
      "$Ě": 404,
      "Ā+": 405,
      "$%$%$$#": 406,
      "$###$$#": 407,
      "!#": 408,
      "$#ğ": 409,
      "$$%$$$$$$$$": 410,
      "%$$#$": 411,
      "%$$)": 412,
      "%$$$$$$$$": 413,
      "&'": 414,
      "$$$$$$#": 415,
      "$%$$\"": 416,
      "!%": 417,
      "$%$#$$%": 418,
      "$!(": 419,
      "$#$$$$$$": 420,
      "#$$%$": 421,
      "#$$$$##": 422,
      "ĀĀ+": 423,
      "&$$(": 424,
      "Ġ)": 425,
      "'%": 426,
      "'$$(": 427,
      "ĠĞ": 428,
      "$$$$$$$$#": 429,
      "$(!": 430,
      "$((": 431,
      "$#%%$$$$": 432,
      "$$%$$#": 433,
      "$&$$$$%": 434,
      "ĀĀĜ": 435,
      "$%$$$$$$#": 436,
      "\"$$)": 437,
      "$)&": 438,
      "$&$$$$#": 439,
      "$#%%$$%": 440,
      "$)\"": 441,
      "!$$$\"": 442,
      "ĀĀ*": 443,
      "$!$$%": 444,
      "%$$$$##": 445,
      "'#": 446,
      "+$$": 447,
      "#$$$$$$#": 448,
      "ĀĀ,": 449,
      "!\"": 450,
      "Ġ$$(": 451,
      "#$$$$&": 452,
      "$#$$$$$$%": 453,
      "!$$(": 454,
      "ĀĀ%Ā": 455,
      "%$$$%": 456,
      ")$$%": 457,
      "$%$$$%": 458,
      "$#$$$$$$$$$$$$": 459,
      "$'$$#": 460,
      "$)#": 461,
      "ğ$$\"": 462,
      ")$$#": 463,
      "$%##$$$$": 464,
      "Ā,": 465,
      "$#)": 466,
      "$\"#$$$$": 467,
      "$$\"$$$#": 468,
      "%$$$$%%": 469,
      "$%#%$$#": 470,
      "$)%": 471,
      "$#$#$$#": 472,
      "$ğ\"": 473,
      "($$'": 474,
      "Ġ%$$": 475,
      "$$ĝ": 476,
      "$!$$#": 477,
      "#$$$&": 478,
      "\"$$ğ": 479,
      "$ğ%": 480,
      "$$#$$$$$$#": 481,
      "'&": 482,
      "Ġ$'": 483,
      "$')": 484,
      "$###$$$$": 485,
      "Ġ*": 486,
      "$\"$$$$#": 487,
      "%$$$$$": 488,
      "&$$$'": 489,
      "($$!": 490,
      "ğ$$$$": 491,
      "Ġ$%": 492,
      "#$$$$$$%": 493,
      "$%&$$$%": 494,
      "\"!": 495,
      ")$$$$": 496,
      "ğ$$'": 497,
      "Ġ$$$\"": 498,
      "$$&$$$%": 499,
      "#$$$$$": 500,
      "ĀĀ.": 501,
      "ĀĀ&Ā": 502,
      "Ġ#$$": 503,
      "$$$(": 504,
      "$%$%$$%": 505,
      "$$%$$$&": 506,
      "$\"$$&": 507,
      "%$$$$$$%": 508,
      "$$#$$$$$": 509,
      "#$$$$#%": 510,
      "$ę": 511,
      "Ğ$$#": 512,
      "ĠĀ": 513,
      "$%$$$$$$": 514,
      "&$$ğ": 515,
      "ĀĀ\"Ā": 516,
      "Ġ$$$#": 517,
      "$\")": 518,
      "$%%#$$$$": 519,
      "%$$*": 520,
      "&$$)": 521,
      "ĀĀ$Ā": 522,
      "ĀĀ!Ā": 523,
      "$%&$$$$": 524,
      "$#Ğ": 525,
      "$\"$$\"": 526,
      "$%%%$$%": 527,
      "$%Ğ": 528,
      "$##$$#": 529,
      "%$$$$&": 530,
      "$)'": 531,
      "$/": 532,
      "$ĀĀ": 533,
      "(%": 534,
      ")$$&": 535,
      ")$$\"": 536,
      "$$+": 537,
      "$#$$$#": 538,
      "$%%%$$$$": 539,
      "\"$$$!": 540,
      "$ğ!": 541,
      "$#\"$$$#": 542,
      "$&Ğ": 543,
      "$\"$%$$$$": 544,
      "$!ğ": 545,
      "$%%$$$#": 546,
      "$$%$$$$$$#": 547,
      "$$$$$$$$$$$$$$$$$$$$$$$$": 548,
      "Ġ#$$#": 549,
      "$&ğ": 550,
      "$&$$&": 551,
      "ĀĀ/": 552,
      "#$$*": 553,
      "#$$$!": 554,
      "$)!": 555,
      "!$$)": 556,
      "!$$$!": 557,
      "$#&$$$%": 558,
      "'$$ğ": 559,
      "&$$$%": 560,
      "Ġ#$$\"": 561,
      "$$,": 562,
      "$&#$$$$": 563,
      "$&$#$$$$": 564,
      "!!": 565,
      "Ġ%$$#": 566,
      "$%\"$$$$": 567,
      "$#&$$$$": 568,
      "$$%$$%": 569,
      "$$#%$$$$": 570,
      "$$#$$$%": 571,
      "ĀĀ-": 572,
      "$&%$$$%": 573,
      "Ġ\"$$": 574,
      "$%*": 575,
      "$$\"%$$#": 576,
      "\"$$#$": 577,
      "\"'": 578,
      "\"(": 579,
      "&)": 580,
      "ğ$$!": 581,
      "Ġ%$$\"": 582,
      "$\"Ğ": 583,
      "$$&%$$%": 584,
      "$$\"#$$#": 585,
      "ĀĀě": 586,
      "$'*": 587,
      "$##$$$%": 588,
      "$%&#$$%": 589,
      "$%\"$$$#": 590,
      "'$$$'": 591,
      "%$$$$#%": 592,
      "!'": 593,
      "&(": 594,
      "Ğ$$%": 595,
      "Ġĝ": 596,
      "$%$$$$$$$$$$$$": 597,
      "$%$\"$$$$": 598,
      "#$$$$%%": 599,
      "%$$$$$$": 600,
      "$$%$$$$$": 601,
      "ĀĀğĀ": 602,
      "$#$$!": 603,
      "$$#$$$\"": 604,
      "$&$$\"": 605,
      "$&$#$$#": 606,
      "$\"*": 607,
      "$$$$$$$$%": 608,
      "ĀĀĚ": 609,
      "$'ğ": 610,
      "$%$$$$&": 611,
      "$%%$$$&": 612,
      "$*#": 613,
      "'$$Ğ": 614,
      "!$$$$#": 615,
      "$%%$$%": 616,
      "$$&#$$%": 617,
      "#$$$$$$": 618,
      "$!$$&": 619,
      "#$$Ğ": 620,
      "$$$$%&": 621,
      "$*&": 622,
      "($$)": 623,
      "$$$#$$$$$$#": 624,
      "*$$#": 625,
      "$$Ĝ": 626,
      "$#*": 627,
      "$#%$$#": 628,
      "#$$$$%#": 629,
      "$'$$%": 630,
      "$!)": 631,
      "$()": 632,
      "$%%\"$$%": 633,
      "$$$$%\"": 634,
      "Ġ$$ğ": 635,
      "!&": 636,
      "##": 637,
      "'\"": 638,
      "Ğ$$$$": 639,
      "Ġ$\"": 640,
      "Ġ$)": 641,
      "Ġ#$$!": 642,
      "$%$": 643,
      "$$%%$$#": 644,
      "$&*": 645,
      "$\"$%$$#": 646,
      "%$$Ğ": 647,
      "$ğ&": 648,
      "$*%": 649,
      "$$$%$$$$$$#": 650,
      "Ğ$$!": 651,
      "Ġ$(": 652,
      "$%#$$$\"": 653,
      "$!Ğ": 654,
      "#$$+": 655,
      "$%%#$$#": 656,
      "ĀĀ(Ā": 657,
      "#$$$#": 658,
      "'(": 659,
      "Ġ&$$": 660,
      "$$$)": 661,
      "$$%$$$#": 662,
      "ĀĀę": 663,
      "&$$$$\"": 664,
      "\"$$*": 665,
      "$)(": 666,
      "$ğ'": 667,
      "$$$&$$$$": 668,
      "\"$$%$": 669,
      "$\"#%$$#": 670,
      "$%\"%$$#": 671,
      "$&##$$#": 672,
      "Ġ$$$!": 673,
      "ĀĀ'Ā": 674,
      "#%$$#": 675,
      "Ġ$#": 676,
      "$\"$%$$%": 677,
      "$$$%$$$$#": 678,
      "$#$$$$&": 679,
      "!$$*": 680,
      "$$$&$$#": 681,
      "$$%$$$$$$%": 682,
      "$$$\"$$$$": 683,
      "'*": 684,
      "$%#$$%": 685,
      "$#$#$$$$#": 686,
      "$($$$$": 687,
      "$&%#$$%": 688,
      "ĀĀ)Ā": 689,
      "ğ#": 690,
      "ğ%": 691,
      "$%$$'": 692,
      "$%$#$$$$#": 693,
      "$#$": 694,
      "$$$$$$$$$$$%": 695,
      "$%%%$$#": 696,
      "$$#$$$$$$%": 697,
      "$$$\"$$%": 698,
      "$##$$$$$": 699,
      "\"%$$$$": 700,
      "\"$$$#": 701,
      "''": 702,
      "(#": 703,
      "(&": 704,
      "*$$$$": 705,
      "Ġ&$$#": 706,
      "Ġ\"$$\"": 707,
      "$#$&$$$$": 708,
      "$$$$$$$$$#": 709,
      "$$$$$$$$$$#": 710,
      "$###$$%": 711,
      "%$$+": 712,
      "%$$ĝ": 713,
      "\"$$Ğ": 714,
      "\"$$$&": 715,
      "$Ğ#": 716,
      "$#\"#$$#": 717,
      "\"%$$#": 718,
      "$Ę": 719,
      "((": 720,
      "*ĀĀ": 721,
      "Ĝ$$": 722,
      "ğ!": 723,
      "Ġ%$$!": 724,
      "$%+": 725,
      "$%$\"$$#": 726,
      "$$%&$$$$": 727,
      "$&$#$$%": 728,
      "$'Ğ": 729,
      "$!ĝ": 730,
      "\"$$$$\"": 731,
      "\"$$$$&": 732,
      "$#\"%$$#": 733,
      "$\"%%$$%": 734,
      "&%$$'": 735,
      "'$$$$#": 736,
      "*$$%": 737,
      "Ğ%": 738,
      "Ğ$$&": 739,
      "Ġ&$$\"": 740,
      "$#+": 741,
      "$$#&$$#": 742,
      "#$$$$\"": 743,
      "$$$#$$$$#": 744,
      "\"$$$$%#": 745,
      "$#%$$$#": 746,
      "%$$$\"": 747,
      "$%#%$$$$": 748,
      "$%##$$\"": 749,
      "$ğ$$$$": 750,
      "$Ğ%": 751,
      "$%\"#$$#": 752,
      "$#&#$$%": 753,
      "Ġ$$)": 754,
      "Ġ,": 755,
      "Ġ$$$": 756,
      "$%$&$$#": 757,
      "$#$&$$#": 758,
      "$$%#$$#": 759,
      "$&$%$$$$": 760,
      "$$&$$$&": 761,
      "$$\"$$$\"": 762,
      "$'$$$$#": 763,
      "$Ğ!": 764,
      "$&%$$$#": 765,
      "&$$%$": 766,
      "$\"#&$$#": 767,
      "$#&%$$%": 768,
      "$&#$$$#": 769,
      "$%%$$$$$": 770,
      "\"#$$#": 771,
      "##$$$$": 772,
      "')": 773,
      "ĝ$$%": 774,
      "$&$%$$#": 775,
      "$\"%$$$$": 776,
      "$$$$$$$$$$$$#": 777,
      "$$$%$$&": 778,
      "$$$#$$\"": 779,
      "$!*": 780,
      "$#$$$$\"": 781,
      "$#%#$$&": 782,
      "$%#$$$%": 783,
      "!$$ğ": 784,
      "$%&%$$%": 785,
      "$&%%$$%": 786,
      "%$$&$": 787,
      "'$$*": 788,
      "$&\"$$$#": 789,
      ")$$$'": 790,
      "#&": 791,
      ",ĀĀ": 792,
      "Ġ+": 793,
      "Ġ$$$$#": 794,
      "$%$$!": 795,
      "$#$%$$$$#": 796,
      "$$##$$%": 797,
      "$$$#$$&": 798,
      "$!$$$$#": 799,
      "$%$$$$\"": 800,
      "$(ğ": 801,
      "$##&$$#": 802,
      "&$$$$&": 803,
      "&$$Ğ": 804,
      "'$$)": 805,
      "$\"%#$$%": 806,
      "%#$$%": 807,
      "&#$$$$": 808,
      "()": 809,
      ")%": 810,
      "*$$\"": 811,
      "Ġ$*": 812,
      "$%ĝ": 813,
      "$%&$$$&": 814,
      "$##$$$\"": 815,
      "$$$$$$$$$$$#": 816,
      "%$$$$%#": 817,
      "$%%#$$&": 818,
      "%$$$'": 819,
      "$%#\"$$$$": 820,
      "&$$ĝ": 821,
      "$$$%$$$$$$%": 822,
      "ĀĀĝĀ": 823,
      "ĀĀĞĀ": 824,
      "\"ĀĀ": 825,
      "ĝ$$&": 826,
      "Ġ$!": 827,
      "Ġ'$$#": 828,
      "$%$#": 829,
      "$%\"$$$\"": 830,
      "$$%\"$$%": 831,
      "$&&$$$$": 832,
      "$\"$#$$%": 833,
      "$$$$$$$$$$$": 834,
      "#$$ĝ": 835,
      "$#%#$$$$": 836,
      "$#%$$$&": 837,
      "$%#\"$$#": 838,
      "$ğ)": 839,
      "&$$*": 840,
      "$$$$$$$$$$$$$": 841,
      "$&#\"$$#": 842,
      "$\"%$$$%": 843,
      "$$$+": 844,
      "$$#$$$#$": 845,
      "!$$$$%": 846,
      "'!": 847,
      "'$$$$%": 848,
      "('": 849,
      ")$$!": 850,
      "Ě$$": 851,
      "ĠĀĀ": 852,
      "$#$&": 853,
      "$#\"$$$\"": 854,
      "$&ĝ": 855,
      "$$$$$$$$$$$$%": 856,
      "$%$$$$$": 857,
      "$#$$$$$": 858,
      "#$$#$": 859,
      "$##&$$$$": 860,
      "\"$$+": 861,
      "$ğ(": 862,
      "$ğĞ": 863,
      "#$$&$": 864,
      "$Ğ\"": 865,
      "$\"#$$$%": 866,
      "$$$\"$$#": 867,
      "$$%$$$%$": 868,
      "ĀĀ%Ā!": 869,
      "#%$$$$": 870,
      "&ĀĀ": 871,
      ")$$(": 872,
      "Ğ$$\"": 873,
      "ĠĜ": 874,
      "$$ě": 875,
      "$%Ĝ": 876,
      "$$#\"$$#": 877,
      "$\"ĝ": 878,
      "$!$$$$%": 879,
      "$#$$$$$$$#": 880,
      "#$$$'": 881,
      "$#%%$$#": 882,
      "%$$ě": 883,
      "$ğğ": 884,
      "$*\"": 885,
      "$*(": 886,
      "$*ğ": 887,
      "#$$\"$": 888,
      "$\"##$$#": 889,
      "$#\"&$$#": 890,
      "($$$(": 891,
      "$$$#$$$$$$%": 892,
      "&%$$$$": 893,
      "&#$$%": 894,
      "(*": 895,
      "+$$$$": 896,
      "ğ(": 897,
      "Ġě": 898,
      "$%$&$$$$": 899,
      "$#$&$$%": 900,
      "$#$%$$&": 901,
      "$$\"#$$$$": 902,
      "$'$$&": 903,
      "$%$$$$$$$%": 904,
      "$#$$$$$$%$$$$": 905,
      "#$$$": 906,
      "#$$Ĝ": 907,
      "$##%$$%": 908,
      "&$$$$%%": 909,
      "$%#&$$#": 910,
      "$)ğ": 911,
      "!$$$": 912,
      "$*!": 913,
      "$Ğ'": 914,
      "($$$'": 915,
      "ğ$$$!": 916,
      "+)": 917,
      "ĝ$$#": 918,
      "Ğ$$'": 919,
      "$#ĝ": 920,
      "$$#$": 921,
      "$&$$$%": 922,
      "$\"$$!": 923,
      "$\"\"$$$$": 924,
      "#$$$$$$#$$$$": 925,
      "$$$%$$$$%": 926,
      "$%$$$$$$&": 927,
      "$%$$$$$$$#": 928,
      "$#$$$$$$$%": 929,
      "$%##$$%": 930,
      "$)*": 931,
      "&$$+": 932,
      "&$$$\"": 933,
      "&$$$(": 934,
      "%$$\"$": 935,
      "$\"#%$$$$": 936,
      "$\"#$$$#": 937,
      "$#&&$$%": 938,
      "$$$,": 939,
      "($$+": 940,
      "$%'$$$%": 941,
      "$#!%$$#": 942,
      "!(": 943,
      "%%$$$$": 944,
      "%%$$%": 945,
      "&%$$%": 946,
      ")&": 947,
      "+$$&": 948,
      "Ĝ#": 949,
      "ĝ$$$$": 950,
      "Ġ$+": 951,
      "$%$$$$$$$$$$$$$$$$": 952,
      "$%$#$$\"": 953,
      "$#$#": 954,
      "$#$%$$$$%": 955,
      "$&$": 956,
      "$&\"$$$$": 957,
      "$&#$$$\"": 958,
      "$\"$$": 959,
      "$\"$#$$$$": 960,
      "$$&%$$&": 961,
      "$$\"$": 962,
      "$$$$$$$$$$$$$$$$$$$$": 963,
      "#$$$$'": 964,
      "$!$%$$%": 965,
      "$%$$$$$$#$$$$": 966,
      "$#$$$$$$&": 967,
      "$(+": 968,
      "$#%$$$%$": 969,
      "&$$$$%#": 970,
      "$%#%$$%": 971,
      "\"$$$": 972,
      "$))": 973,
      "&$$,": 974,
      "$%&#$$&": 975,
      "$\"$$$$$$%": 976,
      "'$$%$": 977,
      "ĀĀ#Ā!": 978,
      ")$$$(": 979,
      "\")": 980,
      "+ĀĀ": 981,
      "Ĝ%": 982,
      "ğğ": 983,
      "Ġ#$$$$": 984,
      "Ġ$%%": 985,
      "$#,": 986,
      "$$%#$$&": 987,
      "$$#$$#": 988,
      "$$#\"$$$$": 989,
      "#$$$$$%": 990,
      "$'ĝ": 991,
      "$(Ğ": 992,
      "$#%&$$%": 993,
      "\"$$,": 994,
      "\"$$ĝ": 995,
      "!$$+": 996,
      "!$$Ğ": 997,
      "$$%$$$$$$%$$$$": 998,
      "$Ğ&": 999,
      "$&%%$$$$": 1000,
      "$&#%$$#": 1001,
      "$&&$$$%": 1002,
      "ğ$$*": 1003,
      "Ā%!": 1004,
      "ĀĀ&Ā!": 1005,
      "ĀĀĜĀ": 1006,
      "ĀĀ*Ā": 1007,
      "!ĀĀ": 1008,
      "\"*": 1009,
      "##$$#": 1010,
      "($$(": 1011,
      "))": 1012,
      "+$$'": 1013,
      "Ĝ$$%": 1014,
      "Ğ#": 1015,
      "Ġ$%#": 1016,
      "Ġ!$$#": 1017,
      "Ġ&$$!": 1018,
      "$%%$$#": 1019,
      "$%$#$$$$%": 1020,
      "$#!$$$$": 1021,
      "$$%\"$$$$": 1022,
      "$$##$$\"": 1023,
      "$&$%$$%": 1024,
      "$\"+": 1025,
      "$$$$$$$$$$%": 1026,
      "%$$$$$#": 1027,
      "$'+": 1028,
      "$(*": 1029,
      "#$$,": 1030,
      "$#%%$$&": 1031,
      "%$$,": 1032,
      "\"$$Ĝ": 1033,
      "$%&\"$$&": 1034,
      "$&%#$$$$": 1035,
      "$&%%$$#": 1036,
      "$\"##$$$$": 1037,
      "$#&#$$&": 1038,
      "$#&%$$&": 1039,
      "$\"%$$$#": 1040,
      "Ġ$$*": 1041,
      "$\"$$$$&": 1042,
      "&$$\"$": 1043,
      "$&\"%$$#": 1044,
      "$%'#$$%": 1045,
      "ğ$$)": 1046,
      "ĀĀ#Ā#": 1047,
      "ĀĀ%Ā\"": 1048,
      "ĀĀ\"Ā#": 1049,
      "ĀĀ.Ā": 1050,
      "ĀĀ/Ā": 1051,
      "\"+": 1052,
      "#%": 1053,
      "#$$$$$$$$$$$$": 1054,
      "$ė": 1055,
      "*'": 1056,
      "ğ$$(": 1057,
      "Ġ%$$$$": 1058,
      "Ġ\"$$#": 1059,
      "$$$$$$\"": 1060,
      "$%$%$$$$#": 1061,
      "$%$\"$$%": 1062,
      "$#$$'": 1063,
      "$#&$$$&": 1064,
      "$$#%$$%": 1065,
      "$$&#$$&": 1066,
      "$$$$$$$$$%": 1067,
      "ĀĀĘ": 1068,
      "%$$$$\"": 1069,
      "$%$$$$%%": 1070,
      "$($$#": 1071,
      "$%%&$$$$": 1072,
      "$#%&$$$$": 1073,
      "$##%$$\"": 1074,
      "$)+": 1075,
      "&$$#$": 1076,
      "$*'": 1077,
      "$**": 1078,
      "$#\"#$$$$": 1079,
      "'$$+": 1080,
      "Ġ$$ĝ": 1081,
      "($$ğ": 1082,
      "%#$$'": 1083,
      "$&&#$$%": 1084,
      "$&$$$$\"": 1085,
      "'$$$$&": 1086,
      "$\"\"#$$#": 1087,
      "ğ$$Ğ": 1088,
      "ğ$$ğ": 1089,
      "ĀĀ\"Ā\"": 1090,
      "ĀĀ,Ā": 1091,
      "ĀĀěĀ": 1092,
      "!)": 1093,
      "\"%$$\"": 1094,
      ")$$'": 1095,
      "*$$&": 1096,
      ",$$": 1097,
      "ę$$": 1098,
      "ě$$": 1099,
      "Ĝğ": 1100,
      "ĝ#": 1101,
      "Ġ$&#": 1102,
      "Ġ!$$\"": 1103,
      "$%$$": 1104,
      "$%$$(": 1105,
      "$#$\"$$%": 1106,
      "$#$'$$#": 1107,
      "$$%%$$&": 1108,
      "$$#%$$\"": 1109,
      "$&+": 1110,
      "$&\"$$$\"": 1111,
      "$\"$#$$#": 1112,
      "$\"$&$$#": 1113,
      "$\"\"$$$\"": 1114,
      "$\"&$$$&": 1115,
      "$$$$$$$$#$$$$": 1116,
      "$$$%$$\"": 1117,
      "$$$#$$$$%": 1118,
      "$'Ĝ": 1119,
      "$'$$\"": 1120,
      "$$!%$$#": 1121,
      "$($$%": 1122,
      "%$$Ĝ": 1123,
      "!$$ĝ": 1124,
      "$$$&$": 1125,
      "$%\"&$$#": 1126,
      "$&#$$$%": 1127,
      "'$$$(": 1128,
      "Ġ$$+": 1129,
      "($$ĝ": 1130,
      "($$Ğ": 1131,
      "$ĝ!": 1132,
      "$ĝ\"": 1133,
      "$ĝ'": 1134,
      "$+!": 1135,
      "$+%": 1136,
      "$+&": 1137,
      "$\"\"%$$#": 1138,
      "!$$#$": 1139,
      "$$$$$$$$$$$$$$$$$$": 1140,
      "#$$'$": 1141,
      "$'##$$#": 1142,
      "$#%$$$$$": 1143,
      "$Ĝ!": 1144,
      "Ġ\"$$!": 1145,
      "ĀĀ$Ā#": 1146,
      "ĀĀ!Ā\"": 1147,
      "Ā&&": 1148,
      "\"$$$$##": 1149,
      "%#$$$$": 1150,
      ")#": 1151,
      ")'": 1152,
      "+$$%": 1153,
      "-$": 1154,
      "ğ\"": 1155,
      "ğ*": 1156,
      "Ġ.": 1157,
      "Ġ$$$$%": 1158,
      "$%$%$$$$%": 1159,
      "$#$\"": 1160,
      "$&$\"$$%": 1161,
      "$$&$$#": 1162,
      "$$\"$$%": 1163,
      "$$\"%$$$$": 1164,
      "%$$$$$$#$$$$": 1165,
      "%$$$$&%": 1166,
      "$$$#$$$$%#": 1167,
      "$#$$$$$$#$$$$": 1168,
      "$#$$$$$$$%$$$$": 1169,
      "%$$%$\"": 1170,
      "$%%%$$&": 1171,
      "$%%$$$%$": 1172,
      "\"$$$$%%": 1173,
      "$#%#$$#": 1174,
      "$##$$$#$": 1175,
      "$%#%$$\"": 1176,
      "$*)": 1177,
      "$Ğğ": 1178,
      "$%\"#$$\"": 1179,
      "$#&%$$$$": 1180,
      "Ġ$$Ğ": 1181,
      "$ĝ#": 1182,
      "$+#": 1183,
      "$%$$$$#$": 1184,
      "$\"&%$$%": 1185,
      "ĀĀ#Ā\"": 1186,
      "ĀĀ%Ā#": 1187,
      "ĀĀ$ĀĞ": 1188,
      "ĀĀ!Ā#": 1189,
      "Ġ!$$!": 1190,
      "$#$$$$$$$$$$$": 1191,
      "!ĝ": 1192,
      ")\"": 1193,
      "+$$#": 1194,
      "Ğ)": 1195,
      "Ġ!$$": 1196,
      "$%$&$$%": 1197,
      "$%$#$$&": 1198,
      "$%$%$$\"": 1199,
      "$#$#$$$$%": 1200,
      "$$%&$$%": 1201,
      "$$\"$$#": 1202,
      "$$\"%$$\"": 1203,
      "ĀĀė": 1204,
      "$$$%$\"": 1205,
      "$$$#$#%": 1206,
      "$'%$$$$": 1207,
      "#$$ě": 1208,
      "$#%\"$$%": 1209,
      "$###$$\"": 1210,
      "$ğ*": 1211,
      "&$$$)": 1212,
      "$%&#$$$$": 1213,
      "$%&\"$$%": 1214,
      "$$$$$$$$$$$$$%$$$$": 1215,
      "$$$$$$$$$$$$$$$": 1216,
      "$\"#%$$%": 1217,
      "$#\"%$$$$": 1218,
      "$%\"%$$\"": 1219,
      "'$$ĝ": 1220,
      "Ġ$$,": 1221,
      "\"$$&$": 1222,
      "$ĝĝ": 1223,
      "$&\"%$$\"": 1224,
      "ĀĀ#Ā'": 1225,
      "$#$$$$%$": 1226,
      "$Ĝ#": 1227,
      "ĀĀ$Ā'": 1228,
      "ĀĀ!Ā!": 1229,
      "Ġ'$$!": 1230,
      "#$$$$$$$$$$$": 1231,
      "\"ğ": 1232,
      "&,": 1233,
      "'#$$%": 1234,
      "'%$$%": 1235,
      "(!": 1236,
      "(ĀĀ": 1237,
      "($$$$#": 1238,
      "+%": 1239,
      "-$$": 1240,
      "ĝ\"": 1241,
      "ĝ&": 1242,
      "Ġ-": 1243,
      "$$$ğ": 1244,
      "$#$'": 1245,
      "$#$%$$$$$$$$": 1246,
      "$$%$$$\"": 1247,
      "$$%&$$&": 1248,
      "$&$\"$$#": 1249,
      "$\",": 1250,
      "$\"ě": 1251,
      "$\"#$$#": 1252,
      "$\"$&$$%": 1253,
      "$$$$$$$$%%": 1254,
      "#$$$$$$$%": 1255,
      "#$$$$$#$$$$": 1256,
      "$'$#$$$$": 1257,
      "$'#$$$\"": 1258,
      "$$'$": 1259,
      "$$'%$$&": 1260,
      "$%$$$$#$$%": 1261,
      "$($$\"": 1262,
      "\"$$$$!": 1263,
      "\"$$$$&#": 1264,
      "$##\"$$%": 1265,
      "$$$&$$%": 1266,
      "$$%$$$$$$#$$$$": 1267,
      "$%&%$$&": 1268,
      "$Ğ(": 1269,
      "$ĞĞ": 1270,
      "$&%\"$$%": 1271,
      "$%\"&$$\"": 1272,
      "$%\"!$$#": 1273,
      "$\"%%$$&": 1274,
      "#$$$$#$%$$$$": 1275,
      "Ġ$$Ĝ": 1276,
      "$ĝ&": 1277,
      "$\"$$$$$$#": 1278,
      "$&&#$$$$": 1279,
      "$&$$$$&": 1280,
      "$&$$$$$$%": 1281,
      "$&\"#$$#": 1282,
      "$!#%$$#": 1283,
      "$'%$$$%": 1284,
      "#$$$$%%$$$$": 1285,
      "$,\"": 1286,
      "$,%": 1287,
      ")$$Ğ": 1288,
      "$$$'$$$$": 1289,
      "&$$$$#%": 1290,
      "Āğ\"": 1291,
      "\"\"$$$$": 1292,
      "%$$$$$$$$$$$$": 1293,
      "+,": 1294,
      ",$$#": 1295,
      ".$$": 1296,
      "Ě$$$$": 1297,
      "ě$$$$": 1298,
      "Ğğ": 1299,
      "Ğ$$(": 1300,
      "Ġ%$$%": 1301,
      "$%$!$$$$": 1302,
      "$%$&$$&": 1303,
      "$$#$$%": 1304,
      "$&$\"$$$$": 1305,
      "$&%$$$&": 1306,
      "$\"$$'": 1307,
      "$\"%$$#": 1308,
      "$\"%$$$&": 1309,
      "$$&\"$$%": 1310,
      "$$&&$$%": 1311,
      "$$\"#$$\"": 1312,
      "#$$$$&%": 1313,
      "ĀĀĖ": 1314,
      "%$$$$$$%$$$$": 1315,
      "$$$%$#": 1316,
      "$$$%$$$$$$$$$$$$": 1317,
      "$'$": 1318,
      "$'#$$$$": 1319,
      "$!$$\"": 1320,
      "$$!$$$\"": 1321,
      "$#$$$$$$\"": 1322,
      "$#$$$$%#": 1323,
      "#$$$ğ": 1324,
      "$%%&$$%": 1325,
      "\"$$$$\"#": 1326,
      "$#%$$$'": 1327,
      "$%#$$$#$": 1328,
      "$$$$%%$$$$": 1329,
      "$\"##$$%": 1330,
      "$&##$$\"": 1331,
      "$\"%%$$$$": 1332,
      "$\"%%$$#": 1333,
      "$\"%\"$$%": 1334,
      "$\"%&$$%": 1335,
      "$$$ĝ": 1336,
      "($$*": 1337,
      "($$$)": 1338,
      "$#$$#$": 1339,
      "$+'": 1340,
      "$+)": 1341,
      "$&&#$$&": 1342,
      "$\"\"&$$#": 1343,
      "!$$%$": 1344,
      "#$$!$": 1345,
      "$&\"\"$$#": 1346,
      "Ā#(": 1347,
      "ĀĀ#Ā&": 1348,
      "#$$$$%$%$$$$": 1349,
      "Ā!#": 1350,
      "$%#$$$$$": 1351,
      "\"$$'$": 1352,
      "Ā%\"": 1353,
      "Ā%&": 1354,
      "Ā%)": 1355,
      "$\"!%$$#": 1356,
      "$$$%$$#$": 1357,
      "\"$$$$#%": 1358,
      "ĀĀ+Ā": 1359,
      "%*": 1360,
      ")ĀĀ": 1361,
      ")$$ğ": 1362,
      "*#": 1363,
      "*$$'": 1364,
      "+#": 1365,
      "+$$\"": 1366,
      "Ĝ$$$$": 1367,
      "ĝ$$\"": 1368,
      "ĝ$$!": 1369,
      "ğ&": 1370,
      "Ġ/": 1371,
      "Ġ$%&": 1372,
      "Ġ'$$": 1373,
      "Ġ$'%": 1374,
      "Ġ$'#": 1375,
      "Ġ$#!": 1376,
      "$%ě": 1377,
      "$#&$$": 1378,
      "$#$$$$$$$$$$$$$$$$": 1379,
      "$#$'$$$$": 1380,
      "$$#&$$$$": 1381,
      "$&#$$%": 1382,
      "$&%$$%": 1383,
      "$\"\"$$": 1384,
      "$$\"&$$#": 1385,
      "$$\"\"$$#": 1386,
      "$$$$$$$$%$$$$": 1387,
      "#$$$$!": 1388,
      "ĀĀĔ": 1389,
      "%$$$$'": 1390,
      "$$$#$\"": 1391,
      "$$$#$$$$##": 1392,
      "$'$#$$#": 1393,
      "$$!#$$#": 1394,
      "$$'$$$$": 1395,
      "$%$$$$'": 1396,
      "$#$$$$%$$%": 1397,
      "$($": 1398,
      "#$$#$\"": 1399,
      "$%%\"$$#": 1400,
      "$%%!$$%": 1401,
      "$#%&$$#": 1402,
      "$#%'$$%": 1403,
      "$##\"$$#": 1404,
      "\"$$-": 1405,
      "$*$": 1406,
      "$&%#$$#": 1407,
      "$%\"\"$$#": 1408,
      "$$$.": 1409,
      "#$$$$##$$$$": 1410,
      "$ĝğ": 1411,
      "$\"$$$$\"": 1412,
      "$\"$$$$'": 1413,
      "$+\"": 1414,
      "$&$$$$$$#": 1415,
      "$!#$$$%": 1416,
      "ğ$$Ĝ": 1417,
      "$\"&&$$%": 1418,
      "Ġ$$$$&": 1419,
      "$%!$$$#": 1420,
      "%$$$$%\"": 1421,
      "ĀĀ$Ā!": 1422,
      "ĀĀ$Ā(": 1423,
      "Ā%'": 1424,
      "Ā%*": 1425,
      "ĀĀ&Ā#": 1426,
      "Ā'&": 1427,
      "$'&$$$%": 1428,
      "$#$$$$$$$$$$$%": 1429,
      "$%$$$$$$$$$$$": 1430,
      "ĀĀĚĀ": 1431,
      "ĀĀęĀ": 1432,
      "!,": 1433,
      "!%$$#": 1434,
      "!#$$#": 1435,
      "#'": 1436,
      "%\"": 1437,
      "(,": 1438,
      "*,": 1439,
      "*$$!": 1440,
      "ě%": 1441,
      "Ĝ&": 1442,
      "Ğ$$ğ": 1443,
      "ğ'": 1444,
      "ğĞ": 1445,
      "Ġ$#\"": 1446,
      "Ġ$%\"": 1447,
      "Ġ$,": 1448,
      "Ġ'$$\"": 1449,
      "Ġ$$$$#%": 1450,
      "$%$&": 1451,
      "$%\"$$": 1452,
      "$%\"$$%": 1453,
      "$%#$$$&": 1454,
      "$%$\"$$&": 1455,
      "$#$(": 1456,
      "$##$$%": 1457,
      "$#$$(": 1458,
      "$#'$$$$": 1459,
      "$##$$$&": 1460,
      "$#$&$$&": 1461,
      "$$%$$$'": 1462,
      "$$#!$$$$": 1463,
      "$&$&$$#": 1464,
      "$&$#$$&": 1465,
      "$\"$$$#": 1466,
      "$$&$": 1467,
      "$$$#$&": 1468,
      "$$$#$%%": 1469,
      "$'$$!": 1470,
      "$'$\"$$%": 1471,
      "$!$&": 1472,
      "$!$$'": 1473,
      "$$!$": 1474,
      "$$'$$$%": 1475,
      "$%$$$$%$$%": 1476,
      "$%%\"$$$$": 1477,
      "$%%&$$#": 1478,
      "$#%%$$\"": 1479,
      "$##\"$$$$": 1480,
      "$##&$$%": 1481,
      "%$$$": 1482,
      "&$$$$'": 1483,
      "$ğĝ": 1484,
      "!$$-": 1485,
      "$%&$$%": 1486,
      "$%&$$$#": 1487,
      "$Ğ$$$$": 1488,
      "$&%#$$&": 1489,
      "$\"#%$$\"": 1490,
      "$#\"%$$\"": 1491,
      "($$ě": 1492,
      "%$$$$##$$$$": 1493,
      "$ĝ(": 1494,
      "!$$$$&": 1495,
      "$+ğ": 1496,
      "$&&%$$%": 1497,
      "\"$$\"$": 1498,
      "&$$&$": 1499,
      "&%#$$$$": 1500,
      "ĀĀ#Ā)": 1501,
      "Ā\"&": 1502,
      "Ā\")": 1503,
      "#$$$$%&": 1504,
      "%$$'$": 1505,
      "ĀĀ%Ā&": 1506,
      "$#'%$$%": 1507,
      "$#'$$$&": 1508,
      "$Ĝ\"": 1509,
      "ĀĀ\"Ā(": 1510,
      "$$$!$$%": 1511,
      "#$$($": 1512,
      "$%$$$$$$$$$$$$$$$$$$$$": 1513,
      "ĀĀğĀ#": 1514,
      "ĀĀğĀ!": 1515,
      "$$\"$$$$$$#": 1516,
      "*$$$(": 1517,
      "%$$$$$$$$$#": 1518,
      "!+": 1519,
      "\"Ĝ": 1520,
      "\"Ğ": 1521,
      "%&": 1522,
      "%$$$%$": 1523,
      "'ĀĀ": 1524,
      "'$$$%": 1525,
      "'$$$$#%": 1526,
      "*(": 1527,
      "-+": 1528,
      "-$$#": 1529,
      ".,": 1530,
      "ěĝ": 1531,
      "ěğ": 1532,
      "Ġ\"$$$$": 1533,
      "Ġ$ğ": 1534,
      "Ġğ$$": 1535,
      "Ġ($$#": 1536,
      "Ġ#$$ğ": 1537,
      "$$Ě": 1538,
      "$%$%": 1539,
      "$%$\"": 1540,
      "$%$!$$%": 1541,
      "$%&$$$'": 1542,
      "$#Ĝ": 1543,
      "$#$$": 1544,
      "$#$\"$$#": 1545,
      "$#$!$$%": 1546,
      "$&$!": 1547,
      "$&$#$$\"": 1548,
      "$\"&$$$$": 1549,
      "$\"$&$$$$": 1550,
      "$\"#$$$\"": 1551,
      "$\"$#$$&": 1552,
      "$$&#$$$$": 1553,
      "$$&\"$$&": 1554,
      "$$\"#$$%": 1555,
      "ĀĀē": 1556,
      "%$$$$$##$$$$": 1557,
      "$$$#$$$$%%": 1558,
      "$!+": 1559,
      "$!$%$$&": 1560,
      "$!%$$$&": 1561,
      "$$!#$$\"": 1562,
      "$$'%$$%": 1563,
      "$$'$$$&": 1564,
      "$%$$$$$$%$$$$": 1565,
      "$%$$$$$$$%$$$$": 1566,
      "$(,": 1567,
      "$(ĝ": 1568,
      "#$$-": 1569,
      "#$$.": 1570,
      "$%%$$$$$$$$$$$$": 1571,
      "$#%\"$$$$": 1572,
      "$#%%$$$$#": 1573,
      "$##%$$$$#": 1574,
      "$##&$$\"": 1575,
      "$##%$$$$%": 1576,
      "%$$Ě": 1577,
      "&$$$$(": 1578,
      "&$$$$$$%": 1579,
      "$%##$$&": 1580,
      "$%#\"$$\"": 1581,
      "$)$$$$": 1582,
      "&$$Ě": 1583,
      "$$$$##$$$$": 1584,
      "!$$,": 1585,
      "!$$$ğ": 1586,
      "$$$&$$\"": 1587,
      "$%&&$$%": 1588,
      "$%&!$$%": 1589,
      "$Ğ)": 1590,
      "$$#$$$$$$#$$$$": 1591,
      "$&%\"$$$$": 1592,
      "$\"#&$$$$": 1593,
      "$&##$$$$": 1594,
      "$$$\"$": 1595,
      "'$$Ĝ": 1596,
      "#$$$$#&": 1597,
      "%%$$'": 1598,
      "$\"$$$$!": 1599,
      "$\"$$$$$$&": 1600,
      "$#$$%$": 1601,
      "$&&&$$%": 1602,
      "$\"\"$$$#": 1603,
      "$\"\"%$$\"": 1604,
      "\"$$\"$\"": 1605,
      "$$$$$$$$$$$$$$$$$$$": 1606,
      "%$$!$": 1607,
      "$%'$$$&": 1608,
      "$!##$$$$": 1609,
      "$!#%$$%": 1610,
      "$!#\"$$#": 1611,
      "$\"&#$$%": 1612,
      "Ā##": 1613,
      "ĀĀ#Ā%": 1614,
      "Ā\"#": 1615,
      "Ā\"+": 1616,
      "#$$$$%$#$$$$": 1617,
      "$%!#$$\"": 1618,
      "ĀĀ%Āğ": 1619,
      "$!%%$$%": 1620,
      ")$$)": 1621,
      ")$$*": 1622,
      "ĀĀ\"Ā!": 1623,
      "$\"!$$$#": 1624,
      "$&'$$$%": 1625,
      "$&'#$$&": 1626,
      "Ā&#": 1627,
      "\"#%$$$$": 1628,
      "Ā(&": 1629,
      "$$$#$$#%$$#": 1630,
      "\"%%$$%": 1631,
      "$!$$$$&": 1632,
      "\"\"%$$#": 1633,
      "#$$$$$$$$$$$%": 1634,
      "$#$$$$$$$$$$$$$": 1635,
      "!$": 1636,
      "!*": 1637,
      "!Ğ": 1638,
      "!$$$#": 1639,
      "!$$$$#%": 1640,
      "\"#$$$$": 1641,
      "\"&$$#": 1642,
      "#Ğ": 1643,
      "$ĕ": 1644,
      "%)": 1645,
      "(ĝ": 1646,
      "*$$(": 1647,
      "*$$ğ": 1648,
      "+!": 1649,
      ",$$%": 1650,
      "Ā.": 1651,
      "ě$$%": 1652,
      "ě$$#": 1653,
      "Ğ$$)": 1654,
      "Ğ$$Ğ": 1655,
      "ĠĚ": 1656,
      "Ġ$$$&": 1657,
      "Ġ!$$$$": 1658,
      "Ġ$&&": 1659,
      "Ġ$&\"": 1660,
      "Ġ$#'": 1661,
      "$$.": 1662,
      "$%,": 1663,
      "$%$$$#": 1664,
      "$%'$$$$": 1665,
      "$%$#$$$$$$$$": 1666,
      "$%!$$$!": 1667,
      "$#$\"$$$$": 1668,
      "$#$#$$&": 1669,
      "$$%$$$$$$$$$$$$": 1670,
      "$$#\"$$%": 1671,
      "$$#\"$$\"": 1672,
      "$$#%$$$$%": 1673,
      "$$#$$$!": 1674,
      "$&ě": 1675,
      "$&Ĝ": 1676,
      "$$&%$$$$": 1677,
      "$$&&$$&": 1678,
      "$$\"$$$!": 1679,
      "$$$$$$$$%#": 1680,
      "%$$$$$&": 1681,
      "%$$$$&#": 1682,
      "$$$%$$$$%%": 1683,
      "$$$#$$$$#%": 1684,
      "$!#$$$$": 1685,
      "$!\"$$$$": 1686,
      "$!$&$$#": 1687,
      "$$!$$$$": 1688,
      "$$!$$$#": 1689,
      "$$!%$$\"": 1690,
      "$$'#$$%": 1691,
      "$$'#$$&": 1692,
      "$%$$$$$$\"": 1693,
      "$%$$$$#$$#": 1694,
      "$%$$$$$$$&": 1695,
      "$#$$$$%$$#": 1696,
      "\"$$$$'": 1697,
      "\"$$$$$$%": 1698,
      "\"$$$$$$#": 1699,
      "$#%\"$$&": 1700,
      "$#%!$$%": 1701,
      "$#%&$$&": 1702,
      "$#%#$$'": 1703,
      "$#%%$$'": 1704,
      "%$$.": 1705,
      "%$$$!": 1706,
      "$%#\"$$%": 1707,
      "\"$$.": 1708,
      "\"$$$Ğ": 1709,
      "&$$-": 1710,
      "&$$ě": 1711,
      "&$$Ĝ": 1712,
      "!$$ě": 1713,
      "!$$Ĝ": 1714,
      "!$$$&": 1715,
      "$*$$$$": 1716,
      "$$%$$$$$$$#$$$$": 1717,
      "$Ğ$$#": 1718,
      "$#\"\"$$#": 1719,
      "$#&\"$$%": 1720,
      "$&#%$$$$": 1721,
      "$&##$$%": 1722,
      "$&#%$$\"": 1723,
      "$&#&$$\"": 1724,
      "$$$\"$$$$#": 1725,
      "$$$ě": 1726,
      "%$$$$#&": 1727,
      "$\"\"$$$%": 1728,
      "$$$#$$$$$": 1729,
      "$!#&$$#": 1730,
      "ğ$$$ğ": 1731,
      "$'%$$$#": 1732,
      "$'%\"$$%": 1733,
      "&%#$$%": 1734,
      "$'#$$$#": 1735,
      "$$#$$$#$$#": 1736,
      "Ā#&": 1737,
      "Ā\"Ğ": 1738,
      "$%!#$$#": 1739,
      "$!%#$$%": 1740,
      "$,'": 1741,
      "$,(": 1742,
      "$#'&$$%": 1743,
      ")$$+": 1744,
      "$Ĝ%": 1745,
      "$Ĝ(": 1746,
      "ĀĀ$Ā%": 1747,
      "ĀĀ\"Ā'": 1748,
      "ĀĀ!Āĝ": 1749,
      "ĀĀ&Āğ": 1750,
      "ĀĀ&Ā)": 1751,
      "$\"'#$$&": 1752,
      "Ā'%": 1753,
      "$&'#$$%": 1754,
      "$$$'$$#": 1755,
      "Ā&!": 1756,
      "$&!#$$#": 1757,
      "$$$%$$%$": 1758,
      "\"#%$$#": 1759,
      "Ġ%$$$%": 1760,
      "$'&\"$$%": 1761,
      "$$$!$$$$": 1762,
      "$''%$$&": 1763,
      "$!&%$$%": 1764,
      "&$$$$##": 1765,
      "Ā)#": 1766,
      "Ğ$$,": 1767,
      "!#$$!": 1768,
      "!$$$$%#": 1769,
      "#%$$\"": 1770,
      "%ğ": 1771,
      "&ĝ": 1772,
      "&&$$%": 1773,
      "&\"$$&": 1774,
      "',": 1775,
      "'$$$$%%": 1776,
      "($$$$%": 1777,
      "),": 1778,
      "*)": 1779,
      "-\"": 1780,
      "-,": 1781,
      "-ĀĀ": 1782,
      "ě$$&": 1783,
      "Ĝ*": 1784,
      "ĝ$$(": 1785,
      "ĞĞ": 1786,
      "ğĝ": 1787,
      "ğ%$$\"": 1788,
      "ğ#$$\"": 1789,
      "Ġ&$$$$": 1790,
      "Ġ!$$%": 1791,
      "Ġ($$\"": 1792,
      "Ġ$(!": 1793,
      "$$-": 1794,
      "$$/": 1795,
      "$$$$$": 1796,
      "$%&$$": 1797,
      "$%$%$$$$$$$$": 1798,
      "$%$%$$&": 1799,
      "$%#$$%$": 1800,
      "$%!$$$\"": 1801,
      "$%$!$$&": 1802,
      "$#-": 1803,
      "$##$$$$#": 1804,
      "$#$$$#$": 1805,
      "$#$#$$\"": 1806,
      "$#$\"$$&": 1807,
      "$$%%$$\"": 1808,
      "$$%#$$$$#": 1809,
      "$$%\"$$&": 1810,
      "$$%'$$$$": 1811,
      "$$%%$$'": 1812,
      "$$%%$$$$%": 1813,
      "$$%($$%": 1814,
      "$$#$$$$$$$$$$$$": 1815,
      "$$#!$$#": 1816,
      "$$##$$$$%": 1817,
      "$&-": 1818,
      "$&$&$$$$": 1819,
      "$&$!$$%": 1820,
      "$\"Ĝ": 1821,
      "$$\"$$$%": 1822,
      "$$\"&$$\"": 1823,
      "#$$$$$$\"": 1824,
      "#$$$$'%": 1825,
      "%$$$$\"%": 1826,
      "$$$%$$%$$$%": 1827,
      "$',": 1828,
      "$'$$$$%": 1829,
      "$'$%$$#": 1830,
      "$'%$$$&": 1831,
      "$!Ĝ": 1832,
      "$%$$$$!": 1833,
      "$#$$$$'": 1834,
      "$#$$$$$%$$$$": 1835,
      "$#$$$$#$$#": 1836,
      "$(-": 1837,
      "%$$%$!": 1838,
      "$%%%$$\"": 1839,
      "$%%$$$'": 1840,
      "$#%$$$%$$#": 1841,
      "$#%&$$$$#": 1842,
      "$#%%$$%$": 1843,
      "$###$$&": 1844,
      "$###$$$$#": 1845,
      "%$$-": 1846,
      "&$$$$$\"": 1847,
      "&$$$$\"#": 1848,
      "$%#!$$$$": 1849,
      "$%#!$$#": 1850,
      "\"$$$'": 1851,
      "$ğ+": 1852,
      "&$$$": 1853,
      "&$$.": 1854,
      "$$$&$$&": 1855,
      "$$$&$$$$#": 1856,
      "$%&%$$$$": 1857,
      "$Ğ+": 1858,
      "$Ğĝ": 1859,
      "$$#$$$$$$%$$$$": 1860,
      "$&%\"$$#": 1861,
      "$&%%$$&": 1862,
      "$#\"%$$%": 1863,
      "$%\"$$$%": 1864,
      "$#&$$$#": 1865,
      "$#&%$$#": 1866,
      "$#&\"$$&": 1867,
      "$&#\"$$%": 1868,
      "$&#\"$$\"": 1869,
      "$&##$$!": 1870,
      "'$$.": 1871,
      "$\"%#$$$$": 1872,
      "$\"%'$$%": 1873,
      "Ġ$$$Ğ": 1874,
      "%%$$!": 1875,
      "%%#$$%": 1876,
      "%$$$$#\"": 1877,
      "%$$$$#$%$$$$": 1878,
      "$$$%$$$$&": 1879,
      "$$$%$$$$$$": 1880,
      "%#%$$#": 1881,
      "$+(": 1882,
      "$++": 1883,
      "$+Ğ": 1884,
      "$&$$$$$$&": 1885,
      "$&$$$$$$\"": 1886,
      "$\"\"%$$$$": 1887,
      "$%%$$$$%": 1888,
      "$%%$$$$$%%$$$$": 1889,
      "$$$$$$$$$$$$$$$$$$$$$$$$$$$$$$$$": 1890,
      "#$$'$\"": 1891,
      "$'%%$$$$": 1892,
      "$#$$$$#$": 1893,
      "$\"&%$$#": 1894,
      "$\"&#$$&": 1895,
      "$\"&%$$&": 1896,
      "ĀĀ#ĀĞ": 1897,
      "ĀĀ#Āĝ": 1898,
      "Ā\"!": 1899,
      "$%!%$$\"": 1900,
      "$#!$$$#": 1901,
      "$#!#$$#": 1902,
      "$#!%$$\"": 1903,
      "$,!": 1904,
      "$,ğ": 1905,
      "$#'$$$%": 1906,
      "$#'#$$&": 1907,
      "$#$$$$%%$$$$": 1908,
      "$Ĝ&": 1909,
      "Ġ$$#$": 1910,
      "!$$\"$&": 1911,
      "ĀĀ\"ĀĞ": 1912,
      "Ġ$$%$": 1913,
      "ĀĀ!Ā&": 1914,
      "ĀĀ!ĀĞ": 1915,
      "ĀĀ&Ā(": 1916,
      "'$$&$": 1917,
      "$$$'$$%": 1918,
      "Ā&\"": 1919,
      "$$)$": 1920,
      "$&!%$$#": 1921,
      "($$#$": 1922,
      "$$Ğ$": 1923,
      "ĀĀ'Ā'": 1924,
      "$!&$$$%": 1925,
      "$-#": 1926,
      "Ā)'": 1927,
      "$!!$$$#": 1928,
      "$(\"#$$#": 1929,
      "Ğ$$$ğ": 1930,
      "$$%#$$%$": 1931,
      "Ġğ$$#": 1932,
      "$#$%$$%$": 1933,
      "%$$$$$$#$$$$#": 1934,
      "$$##$$#$": 1935,
      "#$$$$##%$$$$": 1936,
      "%$$$$##%$$#": 1937,
      "$$$$$$$$$$$$$$$$$$$$$$$$$": 1938,
      "ĀĀĘĀ": 1939,
      "!Ě": 1940,
      "!ğ": 1941,
      "!&$$#": 1942,
      "!$$$$%%": 1943,
      "\"$%$$$$": 1944,
      "#ě": 1945,
      "#ğ": 1946,
      "%ĝ": 1947,
      "%$$$#": 1948,
      "&%$$&": 1949,
      "'$$$&": 1950,
      "*!": 1951,
      "+'": 1952,
      "+*": 1953,
      "+$$(": 1954,
      "-%": 1955,
      ".-": 1956,
      ".ĀĀ": 1957,
      "Ě$$%": 1958,
      "Ĝ$$#": 1959,
      "ĜĀĀ": 1960,
      "Ĝ$$!": 1961,
      "Ĝ$$'": 1962,
      "Ġ$$$%": 1963,
      "Ġ($$": 1964,
      "Ġ$%!": 1965,
      "Ġ$&$$#": 1966,
      "ĠĀğ": 1967,
      "Ġ$-": 1968,
      "Ġ$&$$%": 1969,
      "Ġ$$$$%%": 1970,
      "Ġ$\"(": 1971,
      "Ġ\"$$ğ": 1972,
      "$$$Ğ": 1973,
      "$%$!": 1974,
      "$%$$$%$": 1975,
      "$%$\"$$\"": 1976,
      "$#ě": 1977,
      "$#\"$$#": 1978,
      "$#$$$\"": 1979,
      "$#'$$$'": 1980,
      "$$%&$$#": 1981,
      "$$#&$$%": 1982,
      "$$##$$$$#": 1983,
      "$&$#$$$$#": 1984,
      "$&$%$$&": 1985,
      "$&#$$$!": 1986,
      "$&$#$$!": 1987,
      "$\"$&": 1988,
      "$\"$\"$$$$": 1989,
      "$\"$%$$$$#": 1990,
      "$\"$\"$$%": 1991,
      "$\"$\"$$#": 1992,
      "$\"$%$$&": 1993,
      "$$\"'$$#": 1994,
      "#$$$$$$&": 1995,
      "#$$$$$$$#": 1996,
      "#$$$$$%$$$$": 1997,
      "#$$$$$$$%$$$$": 1998,
      "#$$$$&#": 1999,
      "#$$$$\"&": 2000,
      "%$$$$$$\"": 2001,
      "$$$%$$#$$$$": 2002,
      "$$$%$$$$##": 2003,
      "$'&$$$$": 2004,
      "$!$%$$#": 2005,
      "$!!$$$$": 2006,
      "$$!$$$": 2007,
      "$$!&$$\"": 2008,
      "$$!#$$!": 2009,
      "$$'$$$'": 2010,
      "#$$%$$$$": 2011,
      "#$$ę": 2012,
      "#$$$Ğ": 2013,
      "$%%\"$$&": 2014,
      "$%%#$$'": 2015,
      "$%%#$$$$%": 2016,
      "$%%%$$$$%": 2017,
      "\"$$$$(": 2018,
      "$#%'$$#": 2019,
      "$##$$$$$$$$$$$$": 2020,
      "$##'$$$$": 2021,
      "&$$$$$$%$$$$": 2022,
      "$%#&$$$$": 2023,
      "$%#'$$#": 2024,
      "$%#%$$#$": 2025,
      "\"$$/": 2026,
      "$)Ğ": 2027,
      "!$$.": 2028,
      "!$$ę": 2029,
      "$$$&$$$$%": 2030,
      "$*+": 2031,
      "$*,": 2032,
      "$%&%$$#": 2033,
      "$Ğ*": 2034,
      "$&%\"$$&": 2035,
      "$$($": 2036,
      "$$($$$'": 2037,
      "#$$\"$$#": 2038,
      "%$$&$#&": 2039,
      "$$$$$$$$$$$$$$$#": 2040,
      "$\"#\"$$#": 2041,
      "$\"#&$$%": 2042,
      "$#\"#$$%": 2043,
      "$#\"'$$#": 2044,
      "$%\"#$$$$": 2045,
      "$%\"%$$$$": 2046,
      "$%\"#$$!": 2047,
      "$$$-": 2048,
      "Ġ$$-": 2049,
      "%%%$$%": 2050,
      "($$/": 2051,
      "$ĝ%": 2052,
      "$ĝ)": 2053,
      "%#$$$#": 2054,
      "$&&\"$$&": 2055,
      "$&$$$$'": 2056,
      "$\"\"#$$%": 2057,
      "$\"\"'$$$$": 2058,
      "$$$#$$$$$$#$$$$": 2059,
      "$%'%$$%": 2060,
      "$%'#$$&": 2061,
      "$!#$$$#": 2062,
      "$!##$$%": 2063,
      "ğ$$+": 2064,
      "ğ$$Ě": 2065,
      "ğ$$ĝ": 2066,
      "$'#%$$#": 2067,
      "$'##$$\"": 2068,
      "$#$$$$#$%$$$$": 2069,
      "ĀĀ#Āğ": 2070,
      "Ā\"ĝ": 2071,
      "$$%$$$%$$%": 2072,
      "$#'#$$%": 2073,
      "$#'#$$'": 2074,
      "ĀĀ$Āğ": 2075,
      "Ā%ğ": 2076,
      "$%$$$$%$": 2077,
      "Ġ#%$$%": 2078,
      "ĀĀ&ĀĞ": 2079,
      "ĀĀ&Āĝ": 2080,
      "$\"'&$$&": 2081,
      "$&'%$$%": 2082,
      "$$$%$$%#$$%": 2083,
      "\"#$$$#": 2084,
      "$''#$$%": 2085,
      "Ġ$$\"$": 2086,
      "$$$#$$#$": 2087,
      "ĀĀ'Ā!": 2088,
      "ĀĀ'Ā(": 2089,
      "\"%#$$%": 2090,
      "$#($$$&": 2091,
      "&&#$$%": 2092,
      "\"\"$$$#": 2093,
      "Ā*&": 2094,
      "ĀĀĝĀ'": 2095,
      "$$$$%#$$$#": 2096,
      "*$$,": 2097,
      "$#%#$$%$": 2098,
      "%$$$$$$$$$$$%": 2099,
      "%$$$$$$$$$$$": 2100,
      "$$$$$$#$": 2101,
      "%$$$$##%$$$$": 2102,
      "ĀĀ-Ā": 2103,
      "\"$$$$$$$$": 2104,
      "#)": 2105,
      "#,": 2106,
      "%Ğ": 2107,
      "&$": 2108,
      "&-": 2109,
      "&#$$&": 2110,
      "&$#$$#": 2111,
      "(ě": 2112,
      ")!": 2113,
      ")$$$$#": 2114,
      "*\"": 2115,
      "+(": 2116,
      "+$$ğ": 2117,
      ",,": 2118,
      ".)": 2119,
      ".*": 2120,
      ".+": 2121,
      "/#": 2122,
      "ĜĞ": 2123,
      "Ĝ$$&": 2124,
      "Ĝ$$\"": 2125,
      "Ĝ$$)": 2126,
      "ĝ$": 2127,
      "ĝĀĀ": 2128,
      "Ğ*": 2129,
      "ğ)": 2130,
      "ğĚ": 2131,
      "Ġę": 2132,
      "Ġ\"$$%": 2133,
      "Ġ$\"%": 2134,
      "Ġ$\"&": 2135,
      "Ġ$&!": 2136,
      "Ġ$'!": 2137,
      "$$$$$$&": 2138,
      "$%$'": 2139,
      "$%#$$#": 2140,
      "$%$\"$$$$%": 2141,
      "$%$!$$#": 2142,
      "$%$&$$\"": 2143,
      "$#%$$%": 2144,
      "$#&$$#": 2145,
      "$#&$$$'": 2146,
      "$#\"$$$!": 2147,
      "$##$$$!": 2148,
      "$#\"$$$&": 2149,
      "$$%\"$$#": 2150,
      "$$%!$$$$": 2151,
      "$$%#$$'": 2152,
      "$$%#$$$$%": 2153,
      "$$#$$$$$$$$": 2154,
      "$$#$$$$%": 2155,
      "$$#($$#": 2156,
      "$&$$!": 2157,
      "$&!$$": 2158,
      "$&&$$$&": 2159,
      "$&&$$$'": 2160,
      "$\"$": 2161,
      "$\"-": 2162,
      "$\"Ě": 2163,
      "$\"$\"": 2164,
      "$\"%$$": 2165,
      "$\"!$$$$": 2166,
      "$\"$#$$\"": 2167,
      "$\"&%$$'": 2168,
      "$$&&$$#": 2169,
      "$$&$$$'": 2170,
      "$$\"#$$&": 2171,
      "#$$$$$$%$$$$": 2172,
      "#$$$$$%%$$$$": 2173,
      "#$$$$$$%%$$$$": 2174,
      "#$$$$!#": 2175,
      "%$$$$$$$%": 2176,
      "%$$$$$$$#$$$$": 2177,
      "$$$#$$$$$$$$$$$$": 2178,
      "$'Ě": 2179,
      "$'$&$$#": 2180,
      "$'$%$$\"": 2181,
      "$!%$$$$": 2182,
      "$!$%$$$$": 2183,
      "$!\"$$$\"": 2184,
      "$$!\"$$#": 2185,
      "$$'&$$%": 2186,
      "$$'#$$'": 2187,
      "$$'!$$&": 2188,
      "$$'&$$'": 2189,
      "$#$$$$!": 2190,
      "$#$$$$$$%#$$$$": 2191,
      "$($$": 2192,
      "$(#$$$$": 2193,
      "$(&$$$$": 2194,
      "#$$/": 2195,
      "#$$Ě": 2196,
      "$%%%$$$$#": 2197,
      "$%%!$$$$": 2198,
      "$%%%$$'": 2199,
      "$%%$$$#$": 2200,
      "\"$$$$$\"": 2201,
      "\"$$$$$'": 2202,
      "\"$$$$!\"": 2203,
      "$#%$$$$$$$$$$$$": 2204,
      "$#%'$$$$": 2205,
      "$##%$$&": 2206,
      "$##($$#": 2207,
      "&$$$$$": 2208,
      "$%#$$&": 2209,
      "$%##$$$$#": 2210,
      "$%#&$$\"": 2211,
      "$%#!$$%": 2212,
      "$%#&$$!": 2213,
      "\"$$$ğ": 2214,
      "$)ĝ": 2215,
      "$ğě": 2216,
      "$ğĜ": 2217,
      "$ğ$$#": 2218,
      "$$$$%!": 2219,
      "!$$/": 2220,
      "$*ĝ": 2221,
      "$%&\"$$#": 2222,
      "$%&&$$&": 2223,
      "$ĞĜ": 2224,
      "$&%&$$$$": 2225,
      "$&%&$$%": 2226,
      "$&%!$$%": 2227,
      "$&%'$$#": 2228,
      "$$$$$$$$$$$$$%": 2229,
      "$\"##$$\"": 2230,
      "$\"#'$$#": 2231,
      "$#\"&$$$$": 2232,
      "$#\"&$$\"": 2233,
      "$#\"$$$#$": 2234,
      "$%\"\"$$\"": 2235,
      "$%\"'$$\"": 2236,
      "$#&'$$%": 2237,
      "$&#%$$!": 2238,
      "$$$ę": 2239,
      "Ġ$$Ě": 2240,
      "Ġ$$ě": 2241,
      "($$Ĝ": 2242,
      "$\"$$$$$$": 2243,
      "$\"$$$$$$\"": 2244,
      "$$$%$$$$$$#$$$$": 2245,
      "%#$$!": 2246,
      "$+ĝ": 2247,
      "$&&\"$$%": 2248,
      "$&$$$$$$\"$$$$": 2249,
      "'$$$$$": 2250,
      "'$$$$&#": 2251,
      "$\"\"&$$\"": 2252,
      "$\"\"'$$\"": 2253,
      "$%%$$$$$$#$$$$": 2254,
      "#$$!$%": 2255,
      "$&\"&$$\"": 2256,
      "$%'\"$$%": 2257,
      "$%'&$$%": 2258,
      "$%'%$$&": 2259,
      "$%'\"$$&": 2260,
      "$%'%$$'": 2261,
      "$!#\"$$%": 2262,
      "$'%%$$#": 2263,
      "$'%#$$%": 2264,
      "$'%%$$&": 2265,
      "&%%$$%": 2266,
      "$'##$$$$": 2267,
      "$'#&$$#": 2268,
      "$'#\"$$#": 2269,
      "$'#%$$\"": 2270,
      "$\"&$$$%": 2271,
      "Ā#!": 2272,
      "Ā#%": 2273,
      "ĀĀ#Ā(": 2274,
      "Ā\"%": 2275,
      "$%!%$$#": 2276,
      "$%!&$$#": 2277,
      "$$%$$$%$$$$$$$$": 2278,
      "$#!#$$\"": 2279,
      "$#!\"$$\"": 2280,
      "ĀĀ%Ā%": 2281,
      "ĀĀ%Āĝ": 2282,
      "ĀĀ%Ā+": 2283,
      "$!%&$$$$": 2284,
      "$!%&$$%": 2285,
      "%$$$$%%$$$$": 2286,
      "$,#": 2287,
      "$#$$$$%$$$$$$$$": 2288,
      ")$$ĝ": 2289,
      "!$$&$": 2290,
      "ĀĀ\"Āğ": 2291,
      "ĀĀ!Ā'": 2292,
      "ĀĀ!Āğ": 2293,
      "ĀĀ!Ā)": 2294,
      "$\"'$$$%": 2295,
      "$\"'%$$&": 2296,
      "$\"!%$$\"": 2297,
      "&$$!$": 2298,
      "$&'$$$&": 2299,
      "$&'&$$%": 2300,
      "$'\"$$$#": 2301,
      "$'\"%$$#": 2302,
      "$'\"#$$#": 2303,
      "$$$%$$%%$$$$": 2304,
      "$!\"$$$%": 2305,
      "$!\"%$$#": 2306,
      "$!\"%$$%": 2307,
      "Ġ%&$$%": 2308,
      "$'&#$$%": 2309,
      "$$$!$$#": 2310,
      "$%($$$&": 2311,
      "Ā()": 2312,
      "ĀĀ'ĀĞ": 2313,
      "$!&#$$&": 2314,
      "$ěğ": 2315,
      "\"%%$$$$": 2316,
      "\"%$$$%": 2317,
      "&$$$$#\"": 2318,
      "$#$$$$$$$$$$$$$$$$$$$$": 2319,
      "($$%$": 2320,
      "Ā)&": 2321,
      "$&(%$$%": 2322,
      "%$$($": 2323,
      "$$$$##%$$#": 2324,
      "$$*$": 2325,
      "$$$$#%$$$%": 2326,
      "Ğ$$+": 2327,
      "Ğ$$ĝ": 2328,
      "$$\"$$$$$": 2329,
      "$$$#$$$$$$$$$$$": 2330,
      "$%%#$$%$": 2331,
      "\"$$$$%\"": 2332,
      "ĀĀ)Ā&": 2333,
      "%$$ğ$": 2334,
      "($$&$": 2335,
      "ĀĀĝĀğ": 2336,
      "#$$)$": 2337,
      "$$%%$$%$": 2338,
      "ĀĀĞĀ!": 2339,
      "$#$%$$#$": 2340,
      "*$$-": 2341,
      "$.&": 2342,
      "&$$$$%\"": 2343,
      "$$&$$$$$": 2344,
      "+$$+": 2345,
      "$#$$$$$$%$$$$#": 2346,
      "Ā,\"": 2347,
      "Ġ%$$Ğ": 2348,
      "#$$$$#%#$$%": 2349,
      "$%$$$$$$$$$$$$$": 2350,
      "!#$$$$": 2351,
      "!$%$$$$": 2352,
      "!!$$#": 2353,
      "!$$$$%\"": 2354,
      "\"$": 2355,
      "\",": 2356,
      "\"ě": 2357,
      "\"\"$$#": 2358,
      "\"#$$\"": 2359,
      "#ĝ": 2360,
      "##$$\"": 2361,
      "##$$$$#": 2362,
      "#$$$#$$$$$$$$": 2363,
      "%#$$#": 2364,
      "%#$$&": 2365,
      "%&$$%": 2366,
      "%$$$$$$$$$$$$$$$$": 2367,
      "&ğ": 2368,
      "&$$$#": 2369,
      "&'$$%": 2370,
      "'$": 2371,
      "'-": 2372,
      "'%$$#": 2373,
      "'&$$$$": 2374,
      "(+": 2375,
      "(-": 2376,
      "($$$$%&": 2377,
      "*&": 2378,
      ",$$$$": 2379,
      "-#": 2380,
      "-Ğ": 2381,
      ".%": 2382,
      ".$$#": 2383,
      "ĀĚ": 2384,
      "Ę$$": 2385,
      "ęĚ": 2386,
      "ę$$\"": 2387,
      "ě$": 2388,
      "ě'": 2389,
      "ě$$'": 2390,
      "Ĝ\"": 2391,
      "ĜĚ": 2392,
      "Ĝ$$(": 2393,
      "Ĝ$$ğ": 2394,
      "ĝ$$'": 2395,
      "ĝ$$)": 2396,
      "Ğ!": 2397,
      "Ğ,": 2398,
      "ğ$$$$#": 2399,
      "ğ$$$": 2400,
      "ğ%$$!": 2401,
      "Ġ0": 2402,
      "Ġ$%$$%": 2403,
      "ĠĀ!": 2404,
      "Ġ)$$": 2405,
      "ĠĀ&": 2406,
      "Ġ$%(": 2407,
      "Ġ$''": 2408,
      "Ġ$ě": 2409,
      "Ġ&$$$&": 2410,
      "Ġ*$$": 2411,
      "$$Ę": 2412,
      "$$ę": 2413,
      "$%-": 2414,
      "$%$$$&": 2415,
      "$%\"$$#": 2416,
      "$%$$)": 2417,
      "$%$#$$!": 2418,
      "$#$ğ": 2419,
      "$#!$$": 2420,
      "$#$#$$$$$$$$": 2421,
      "$#$&$$$$%": 2422,
      "$#$&$$$$#": 2423,
      "$#!$$$\"": 2424,
      "$#$#$$!": 2425,
      "$#$'$$%": 2426,
      "$$%#$$\"": 2427,
      "$$%!$$%": 2428,
      "$$#$$$&": 2429,
      "$$#'$$\"": 2430,
      "$&,": 2431,
      "$&$$": 2432,
      "$&$\"": 2433,
      "$&$$$&": 2434,
      "$&$%$$$$#": 2435,
      "$&$%$$\"": 2436,
      "$&\"$$$!": 2437,
      "$&$&$$\"": 2438,
      "$\"$$$$$$$$": 2439,
      "$\"!$$$\"": 2440,
      "$\"%$$$'": 2441,
      "$$&%$$#": 2442,
      "$$&#$$#": 2443,
      "$$&%$$'": 2444,
      "$$\"$\"": 2445,
      "$$\"\"$$$$": 2446,
      "$$\"'$$\"": 2447,
      "$$$$$$$$$%$$$$": 2448,
      "$$$$$$$$$#$$$$": 2449,
      "#$$$$\"#": 2450,
      "#$$$$!!": 2451,
      "ĀĀĒ": 2452,
      "%$$$$$$$#": 2453,
      "%$$$$$#%$$$$": 2454,
      "%$$$$&\"": 2455,
      "%$$$$'&": 2456,
      "$$$#$$!": 2457,
      "$'$$$%": 2458,
      "$'%$$%": 2459,
      "$'$#$$%": 2460,
      "$!,": 2461,
      "$!-": 2462,
      "$!$#$$$$": 2463,
      "$!$#$$%": 2464,
      "$!$&$$$$": 2465,
      "$!$$ğ": 2466,
      "$$!$$&": 2467,
      "$$!$$$!": 2468,
      "$%$$$$%$$#": 2469,
      "$#$$$$(": 2470,
      "$#$$$$$$%%$$$$": 2471,
      "$($#$$\"": 2472,
      "$%%#$$\"": 2473,
      "$%%$$$%$$#": 2474,
      "\"$$$$$&": 2475,
      "\"$$$$$$&": 2476,
      "$#%$$$\"": 2477,
      "$#%#$$$$#": 2478,
      "$#%#$$$$##": 2479,
      "$##$$\"": 2480,
      "$##$$$$$$$$": 2481,
      "$##%$$": 2482,
      "$##!$$%": 2483,
      "$##'$$#": 2484,
      "$##%$$!": 2485,
      "$##$$$#$$$$$$$$": 2486,
      "&$$$$)": 2487,
      "&$$$$$##$$$$": 2488,
      "$%#&$$%": 2489,
      "$%#%$$&": 2490,
      "$%#$$$$$$$$$$$$": 2491,
      "$%#'$$$$": 2492,
      "$%##$$!": 2493,
      "$%#%$$!": 2494,
      "$%#\"$$$$%": 2495,
      "\"$$Ě": 2496,
      "$),": 2497,
      "$)ę": 2498,
      "$ğ-": 2499,
      "&$$$!": 2500,
      "$$$$%$": 2501,
      "$$$$%#$$$$": 2502,
      "$$$$%$$$$$$$$$$$$": 2503,
      "\"$$%$!": 2504,
      "$$%$$$$$%#$$$$": 2505,
      "$%&#$$#": 2506,
      "$%&\"$$$$": 2507,
      "$%&'$$$$": 2508,
      "$%&!$$&": 2509,
      "$%&$$$%$": 2510,
      "$%&!$$'": 2511,
      "$Ğ,": 2512,
      "$&%$$&": 2513,
      "$&%&$$#": 2514,
      "$&%#$$$$#": 2515,
      "$&%%$$$$%": 2516,
      "$$($$$&": 2517,
      "$$(%$$&": 2518,
      "#$$\"$%": 2519,
      "$$$$$$$$$$$$$#$$$$": 2520,
      "$\"#'$$$$": 2521,
      "$#\"\"$$%": 2522,
      "$#\"#$$\"": 2523,
      "$#\"#$$!": 2524,
      "$%\"%$$%": 2525,
      "$%\"%$$": 2526,
      "$#&#$$\"": 2527,
      "$#&&$$&": 2528,
      "$&#%$$%": 2529,
      "$&#!$$$$": 2530,
      "$&#!$$#": 2531,
      "$&#($$#": 2532,
      "$$$\"$$&": 2533,
      "'$$,": 2534,
      "'$$Ě": 2535,
      "'$$ě": 2536,
      "'$$$*": 2537,
      "$\"%%$$$$#": 2538,
      "$\"%'$$#": 2539,
      "$$$/": 2540,
      "Ġ$$.": 2541,
      "\"$$&$#%": 2542,
      "($$,": 2543,
      "($$-": 2544,
      "$ĝ*": 2545,
      "$ĝĞ": 2546,
      "$ĝ$$$$": 2547,
      "!$$$$!": 2548,
      "!$$$$\"": 2549,
      "$$$%$$$$$": 2550,
      "$$$%$$$$$$%$$$$": 2551,
      "$$$%$$$$$$%$$$$$$$$": 2552,
      "$%$$%$": 2553,
      "%##$$$$": 2554,
      "$+$$$$": 2555,
      "$&&%$$#": 2556,
      "$&&!$$%": 2557,
      "$&$$$$$$": 2558,
      "$\"\"\"$$%": 2559,
      "$\"\"\"$$#": 2560,
      "$\"\"%$$&": 2561,
      "$\"\"%$$!": 2562,
      "$$$#$$$$$%%$$$$": 2563,
      "$$$#$$$$$$%$$$$$$$$": 2564,
      "!$$#$(": 2565,
      "$%%$$$$$$%$$$$": 2566,
      "$&\"#$$\"": 2567,
      "$&\"!$$\"": 2568,
      "$##$$$$%": 2569,
      "'$$#$&": 2570,
      "$%'#$$'": 2571,
      "$!#%$$\"": 2572,
      "$!#&$$%": 2573,
      "$!#'$$$$": 2574,
      "ğ$$.": 2575,
      "$'%#$$$$": 2576,
      "$'%#$$#": 2577,
      "$'%#$$&": 2578,
      "$'%!$$%": 2579,
      "&%\"$$%": 2580,
      "$'#$$$%": 2581,
      "Ġ$$$$!": 2582,
      "Ġ$$$$'": 2583,
      "Ā\"\"": 2584,
      "#$$$$%$": 2585,
      "$%!'$$#": 2586,
      "$%!%$$!": 2587,
      "$#!&$$\"": 2588,
      "ĀĀ%Ā(": 2589,
      "$!%\"$$%": 2590,
      "$,&": 2591,
      "$,*": 2592,
      "$#'%$$&": 2593,
      "$#$$$$%$%$$$$": 2594,
      ")$$$*": 2595,
      "$Ĝ)": 2596,
      "Ġ\"#$$#": 2597,
      "Ġ\"#$$\"": 2598,
      "ĀĀ$Ā,": 2599,
      "$%$$$$%$%$$$$": 2600,
      "ĀĀ&Ā'": 2601,
      "$\"'$$$&": 2602,
      "$\"''$$%": 2603,
      "$'\"&$$#": 2604,
      "$'\"\"$$#": 2605,
      "$'\"!$$\"": 2606,
      "$&!\"$$#": 2607,
      "\"#&$$$$": 2608,
      "&#$$$#": 2609,
      "$%(%$$%": 2610,
      "$%(#$$&": 2611,
      "$''$$$&": 2612,
      "$$$#$$##$$#": 2613,
      "ĀĀ'Āğ": 2614,
      "$!&%$$&": 2615,
      "$ě(": 2616,
      "Ġ!%$$\"": 2617,
      "Ġ&%$$%": 2618,
      "$-(": 2619,
      "$%$$$$$$$$$$$%": 2620,
      "ĀĞ#": 2621,
      "$&(#$$&": 2622,
      "$&(\"$$'": 2623,
      "$!!%$$#": 2624,
      "$!$$$$\"": 2625,
      "$(&$$$%": 2626,
      "$#($$$%": 2627,
      "$#$#$$$$%%": 2628,
      "$$$$#%%$$%": 2629,
      "($$\"$": 2630,
      "ĀĀ(Ā!": 2631,
      "ĀĀ)Āğ": 2632,
      "ĀĀ)ĀĞ": 2633,
      "$%$%$$$$%%": 2634,
      "\"\"#$$#": 2635,
      "Ā*#": 2636,
      "Ā*(": 2637,
      "ĀĀĝĀ!": 2638,
      "$%$$$$$$%#": 2639,
      "#$$$$$$$$$%": 2640,
      "#$$$$$$$$$#": 2641,
      "$'(#$$%": 2642,
      "ĝ$$ę": 2643,
      "ĝ$$Ĝ": 2644,
      "ĝ$$$ğ": 2645,
      "$#\"$$$$$": 2646,
      "ĀĀ#ĀĚ": 2647,
      "$%##$$#$": 2648,
      "$#$#$$%$": 2649,
      "Ā+#": 2650,
      "#$$$$##$$$#": 2651,
      "'$$($": 2652,
      "%$$$$###$$$$": 2653,
      "%$$$$%%#$$%": 2654,
      "\"!%$$#": 2655,
      "Ġ#$$ĝ": 2656,
      "$%$%$$%$": 2657,
      "%$$*$": 2658,
      "$$$$$$$$$$$$$$$$$$$$$$$$$$": 2659,
      "$$$$$$$$$$$$$$$$$$$$$$$$$$$": 2660,
      "#$$$$%%#$$$$": 2661,
      "ğ%ĀĀ": 2662,
      "ĀĀėĀ": 2663,
      "!\"$$#": 2664,
      "!%$$\"": 2665,
      "!$$$$##": 2666,
      "!$$$$%&": 2667,
      "\"ĝ": 2668,
      "#(": 2669,
      "#%$$%": 2670,
      "%ĀĀ": 2671,
      "%%$$&": 2672,
      "&+": 2673,
      "'ğ": 2674,
      "'$%": 2675,
      "'$$$$%&": 2676,
      "'$$$$%\"": 2677,
      "(.": 2678,
      "(/": 2679,
      "(#$$&": 2680,
      "($$$$%%": 2681,
      "*%": 2682,
      "*Ğ": 2683,
      "+/": 2684,
      ",$$\"": 2685,
      "-*": 2686,
      "-Ĝ": 2687,
      "-ğ": 2688,
      "-$$$$": 2689,
      "-$$%": 2690,
      "Ę$": 2691,
      "ę$$%": 2692,
      "Ě$$'": 2693,
      "ěĞ": 2694,
      "ĝĝ": 2695,
      "ĝ$$*": 2696,
      "Ğě": 2697,
      "Ğ&$$": 2698,
      "Ğ$$$": 2699,
      "ğě": 2700,
      "ğ$$$$%": 2701,
      "ğ&)": 2702,
      "Ġ1": 2703,
      "Ġ#$$%": 2704,
      "Ġ#$$&": 2705,
      "Ġ$%$$#": 2706,
      "Ġ$#$$%": 2707,
      "Ġ$&$$$$": 2708,
      "Ġ'$$$$": 2709,
      "ĠĀ#": 2710,
      "ĠĀ%": 2711,
      "Ġ'$$&": 2712,
      "Ġ$!\"": 2713,
      "Ġ$\"$$%": 2714,
      "ĠĀĞ": 2715,
      "Ġ$(%": 2716,
      "Ġ$(#": 2717,
      "Ġ$(\"": 2718,
      "ĠĞ$$": 2719,
      "Ġ$!'": 2720,
      "Ġ%$$ğ": 2721,
      "ĠĀ*": 2722,
      "Ġ$'$$$$": 2723,
      "Ġ$%ğ": 2724,
      "ĠĀĀ#Ā": 2725,
      "Ġ&$$ğ": 2726,
      "Ġ'$$ğ": 2727,
      "Ġ$$$$%\"": 2728,
      "$%&$$#": 2729,
      "$%$$$%$$#": 2730,
      "$%'$$$'": 2731,
      "$%$%$$(": 2732,
      "$#Ě": 2733,
      "$#$%": 2734,
      "$##$$": 2735,
      "$#\"$$": 2736,
      "$#$$)": 2737,
      "$#$!$$$$": 2738,
      "$#$$$#$$$$$$$$": 2739,
      "$#$%$$\"": 2740,
      "$#$\"$$\"": 2741,
      "$#$'$$&": 2742,
      "$$#$$$$#": 2743,
      "$$#$$$": 2744,
      "$&.": 2745,
      "$&Ě": 2746,
      "$&%$$": 2747,
      "$&\"$$%": 2748,
      "$&$$$$%%": 2749,
      "$&%$$$\"": 2750,
      "$\"&$$#": 2751,
      "$\"\"$$#": 2752,
      "$\"$!$$%": 2753,
      "$\"&$$$'": 2754,
      "$\"\"$$$!": 2755,
      "$$&$'": 2756,
      "$$&$$$$#": 2757,
      "$$&'$$%": 2758,
      "$$&$$$(": 2759,
      "$$\"%$$": 2760,
      "$$\"$$$$%": 2761,
      "$$\"\"$$%": 2762,
      "$$\"#$$!": 2763,
      "$$\"%$$!": 2764,
      "$$\"!$$\"": 2765,
      "$$$$$$$$$$%$$$$": 2766,
      "$$$$$$$$$%%$$$$": 2767,
      "$$$$$$$$$$$$##": 2768,
      "#$$$$$$##$$$$": 2769,
      "ĀĀ<": 2770,
      "ĀĀĕ": 2771,
      "%$$$$Ğ": 2772,
      "%$$$$$%%$$$$": 2773,
      "$$$%$\"#": 2774,
      "$$$#$$%$$$$": 2775,
      "$$$#$&\"": 2776,
      "$$$#$$#$$$#": 2777,
      "$'$!": 2778,
      "$'!$$": 2779,
      "$'$#$$&": 2780,
      "$'\"$$$!": 2781,
      "$'%$$$\"": 2782,
      "$!$": 2783,
      "$!ĀĀ": 2784,
      "$!$!": 2785,
      "$!\"$$": 2786,
      "$!$#$$#": 2787,
      "$!#$$$\"": 2788,
      "$!$\"$$%": 2789,
      "$!$&$$%": 2790,
      "$!$%$$\"": 2791,
      "$!$'$$#": 2792,
      "$!'$$$'": 2793,
      "$$!\"$$!": 2794,
      "$%$$$$ğ": 2795,
      "$%$$$$$$$\"": 2796,
      "$#$$$$#$$%": 2797,
      "$#$$$$%%": 2798,
      "$#$$$$&%": 2799,
      "$($$!": 2800,
      "$($$'": 2801,
      "$($%$$#": 2802,
      "$('$$$$": 2803,
      "$(%$$$&": 2804,
      "$%%#$$$$#": 2805,
      "$%%\"$$\"": 2806,
      "$%%#$$!": 2807,
      "$%%$$$!": 2808,
      "$%%\"$$$$#": 2809,
      "$%%%$$%$": 2810,
      "\"$$$$$": 2811,
      "\"$$$$&%": 2812,
      "\"$$$$\"%": 2813,
      "$#%\"$$#": 2814,
      "$#%!$$$$": 2815,
      "$#%%$$$$%": 2816,
      "$#%'$$&": 2817,
      "$#%$$$!": 2818,
      "$##\"$$\"": 2819,
      "$##!$$#": 2820,
      "$##&$$&": 2821,
      "$##&$$!": 2822,
      "$##$$$%$$$$$$$$": 2823,
      "%$$$(": 2824,
      "$%##$$$$%": 2825,
      "$%#\"$$!": 2826,
      "\"$$ě": 2827,
      "$)$": 2828,
      "$)ě": 2829,
      "$)$!": 2830,
      "$)$$!": 2831,
      "$)$$$$#": 2832,
      "$ğ,": 2833,
      "!$$Ę": 2834,
      "!$$Ě": 2835,
      "$*-": 2836,
      "$$%$$$$$$\"": 2837,
      "$%&#$$'": 2838,
      "$%&%$$'": 2839,
      "$%&($$%": 2840,
      "$Ğ$$%": 2841,
      "$$#$$$$$$$#$$$$": 2842,
      "$&%!$$#": 2843,
      "$$(#$$&": 2844,
      "$\"##$$&": 2845,
      "$\"#%$$&": 2846,
      "$\"##$$!": 2847,
      "$\"#($$#": 2848,
      "$#\"%$$": 2849,
      "$#\"%$$!": 2850,
      "$%\"#$$%": 2851,
      "$%\"!$$": 2852,
      "$%\"%$$!": 2853,
      "$#&#$$'": 2854,
      "$#&\"$$'": 2855,
      "$#&'$$&": 2856,
      "$&#\"$$$$": 2857,
      "$&#\"$$&": 2858,
      "$&#!$$%": 2859,
      "$$$\"$$\"": 2860,
      "'$$$": 2861,
      "'$$$)": 2862,
      "'$$$+": 2863,
      "$\"%#$$#": 2864,
      "$\"%#$$&": 2865,
      "$\"%\"$$#": 2866,
      "$\"%!$$%": 2867,
      "$\"%%$$'": 2868,
      "$$$Ĝ": 2869,
      "#$$$$#$": 2870,
      "#$$$$#%$$$%": 2871,
      "Ġ$$$ğ": 2872,
      "\"$$&$\"": 2873,
      "%%$$$%": 2874,
      "$%$$#$": 2875,
      "($$$!": 2876,
      "($$$*": 2877,
      "%$$$$#$": 2878,
      "%$$$$#$#$$$$": 2879,
      "%$$$$#$%$$%": 2880,
      "$ĝ+": 2881,
      "$ĝĚ": 2882,
      "!$$$$&%": 2883,
      "$$$%$$$$$$\"": 2884,
      "%#%$$$$": 2885,
      "%#&$$#": 2886,
      "$&&%$$$$": 2887,
      "$&&$$$#": 2888,
      "$&&%$$&": 2889,
      "$&&!$$$$": 2890,
      "$&&&$$&": 2891,
      "$&$$$$$$$#": 2892,
      "$$$#$$$$&": 2893,
      "$$$#$$$$$$": 2894,
      "$$$#$$$$$$%$$$$": 2895,
      "$&\"\"$$%": 2896,
      "$##$$$$$$%$$$$": 2897,
      "$##$$$$$$%$$$%": 2898,
      "'$$#$": 2899,
      "ğ$$,": 2900,
      "ğ$$-": 2901,
      "ğ$$$'": 2902,
      "$'%\"$$$$": 2903,
      "$'%\"$$$$%": 2904,
      "$%$$$$#%": 2905,
      "$%$$$$#$#$$$$": 2906,
      "$'#!$$%": 2907,
      "$'#!$$#": 2908,
      "$$#$$$#$##$$$$": 2909,
      "$\"&\"$$%": 2910,
      "$\"&'$$$$": 2911,
      "Ġ$$$$!!": 2912,
      "Ā#)": 2913,
      "Ā\"'": 2914,
      "Ā\"ğ": 2915,
      "$$ğ$": 2916,
      "$$ğ\"$$!": 2917,
      "$%!\"$$#": 2918,
      "$%!#$$!": 2919,
      "$$%$$$%$$#": 2920,
      "$#%$$$$$$%$$$$": 2921,
      "$#!#$$!": 2922,
      "ĀĀ%Ā'": 2923,
      "ĀĀ%ĀĞ": 2924,
      "ĀĀ%Ā*": 2925,
      "$!%$$$%": 2926,
      "$!%%$$&": 2927,
      "%$$$$%$$$$$$$$": 2928,
      "%$$$$%$%$$$$": 2929,
      "$,)": 2930,
      "$,,": 2931,
      "$,-": 2932,
      "$#$$$$%&": 2933,
      ")$$Ĝ": 2934,
      "Ġ\"%$$#": 2935,
      "Ġ\"#$$%": 2936,
      "ĀĀ$Ā&": 2937,
      "Ā%,": 2938,
      "ĀĀ\"Ā&": 2939,
      "ĀĀ\"Āĝ": 2940,
      "ĀĀ\"Ā,": 2941,
      "Ġ##$$$$": 2942,
      "Ġ#%$$$$": 2943,
      "Ġ#$$$%": 2944,
      "ĀĀ!Ā%": 2945,
      "ĀĀ&Ā&": 2946,
      "$\"'#$$%": 2947,
      "$\"'#$$'": 2948,
      "Ā''": 2949,
      "Ā'(": 2950,
      "$\"!&$$#": 2951,
      "$&'\"$$%": 2952,
      "$&'\"$$&": 2953,
      "$&'!$$%": 2954,
      "$'\"!$$#": 2955,
      "$'\"#$$!": 2956,
      "$'\"%$$!": 2957,
      "$&!%$$\"": 2958,
      "$&!#$$\"": 2959,
      "$$$%$$%%$$%": 2960,
      "$!\"$$$#": 2961,
      "$!\"&$$#": 2962,
      "#$$$\"$": 2963,
      "Ġ%#$$%": 2964,
      "Ġ%%$$%": 2965,
      "$$$#$$%%$$%": 2966,
      "$'&#$$$$": 2967,
      "$'&#$$&": 2968,
      "$'&&$$%": 2969,
      "$%($$$$": 2970,
      "$%(#$$%": 2971,
      "Ā(#": 2972,
      "Ā(%": 2973,
      "$''&$$%": 2974,
      "ĀĀ'Ā\"": 2975,
      "ĀĀ'Ā&": 2976,
      "ĀĀ'Ā)": 2977,
      "ĀĀ'Āĝ": 2978,
      "$!&#$$%": 2979,
      "$!&&$$%": 2980,
      "$ěĞ": 2981,
      "Ġ&'$$&": 2982,
      "($$$$&": 2983,
      "$#$$$$$$$$%$$$$": 2984,
      "$#$$$$$$$$$$$#": 2985,
      "$-'": 2986,
      "$-)": 2987,
      "ĀĀğĀğ": 2988,
      "ĀĀğĀĞ": 2989,
      "Ā)(": 2990,
      "$!!#$$#": 2991,
      "$!!&$$#": 2992,
      "$!!%$$\"": 2993,
      "!$$'$$&": 2994,
      "$!$$$$$$#": 2995,
      "$(#$$$#": 2996,
      "$(#\"$$%": 2997,
      "$(#\"$$#": 2998,
      "$(&\"$$%": 2999,
      "$%$#$$$$%#": 3000,
      "$#(#$$&": 3001,
      "$(\"%$$\"": 3002,
      "Ğ$$Ĝ": 3003,
      "&&$$$%": 3004,
      "$!'$$$&": 3005,
      "$!''$$&": 3006,
      "Ā*\"": 3007,
      "ĀĀĝĀ&": 3008,
      "Ġ$&$$&": 3009,
      "ğ$$%$": 3010,
      "$'($$$%": 3011,
      "$.,": 3012,
      "ğ$$#$": 3013,
      "ĝ$$ĝ": 3014,
      "$$$%$$$$$$$$$$$": 3015,
      "$&)\"$$'": 3016,
      "Ā+%": 3017,
      "$%$%$$#$": 3018,
      "#$$$$##%$$#": 3019,
      "ĀĀ+Ā#": 3020,
      "$$%$$#$": 3021,
      "$%$$$$$$##": 3022,
      "+$$$)": 3023,
      "ĀĀ%ĀĘ": 3024,
      "ğ$$\"$": 3025,
      "$#$#$$#$": 3026,
      "($$'$": 3027,
      "%$$$$$$%$$$$#": 3028,
      "Ğ$$#$": 3029,
      "$ĀĀĚ": 3030,
      "$$%$$$$$$#$": 3031,
      "Ġ\"$$Ğ": 3032,
      "#$$$$%##$$#": 3033,
      "$%#$$$\"$": 3034,
      "!$$*$": 3035,
      "$#$#$$$$##$$$$": 3036,
      "Ĝ$$ě": 3037,
      "$#$&$$'": 3038,
      "$$$$$$$$$$$$%%$$$$": 3039,
      "$#$$$$$$$#$$$#": 3040,
      "!ě": 3041,
      "!'$$#": 3042,
      "!$%$$&": 3043,
      "\"-": 3044,
      "\"$%$$#": 3045,
      "\"$%$$%": 3046,
      "#\"": 3047,
      "#$": 3048,
      "#\"$$$$": 3049,
      "#$$$$$$$$$$$$$$$$": 3050,
      "%!$$%": 3051,
      "&/": 3052,
      "&$\"": 3053,
      "&$$$%$": 3054,
      "&!#": 3055,
      "'%$$$$": 3056,
      "'$)": 3057,
      "'\"$$%": 3058,
      "'#$$'": 3059,
      "'$$$$##": 3060,
      "'$$$$%#": 3061,
      "(ğ": 3062,
      "($$$%": 3063,
      "($$$&": 3064,
      "($$$$#%": 3065,
      ")-": 3066,
      ")Ğ": 3067,
      ")$$$&": 3068,
      ")&)": 3069,
      "+\"": 3070,
      "+.": 3071,
      "+$$)": 3072,
      ",$$&": 3073,
      "--": 3074,
      "-$$!": 3075,
      ".$$%": 3076,
      "/(": 3077,
      "/ĀĀ": 3078,
      "Ā$%": 3079,
      "Ā$\"": 3080,
      "Ā%#": 3081,
      "ėĝ": 3082,
      "ėğ": 3083,
      "Ę$$&": 3084,
      "ęĞ": 3085,
      "ę$$&": 3086,
      "ę$$ğ": 3087,
      "ě&$$": 3088,
      "Ĝ!": 3089,
      "Ĝ)": 3090,
      "Ĝ,": 3091,
      "Ĝě": 3092,
      "Ĝ#$$": 3093,
      "Ĝ&$$": 3094,
      "Ĝ$$Ğ": 3095,
      "Ĝĝ$$": 3096,
      "Ĝ$$ĝ": 3097,
      "ĝ!": 3098,
      "ĝ'": 3099,
      "ĝ(": 3100,
      "ĝ&$$": 3101,
      "ĝ$$ğ": 3102,
      "Ğ#$$\"": 3103,
      "Ğ$$%$": 3104,
      "ğ#$$$$": 3105,
      "ğ%$$#": 3106,
      "ğ&$$": 3107,
      "Ġė": 3108,
      "ĠĘ": 3109,
      "ĠĠ": 3110,
      "Ġ$#$$$$": 3111,
      "Ġ$##": 3112,
      "Ġ$Ğ": 3113,
      "Ġ$&%": 3114,
      "Ġ&$$%": 3115,
      "Ġ%$$&": 3116,
      "Ġ$#&": 3117,
      "Ġ\"$$&": 3118,
      "Ġ$#$$#": 3119,
      "Ġ'$$%": 3120,
      "Ġ&$$&": 3121,
      "Ġ!$$&": 3122,
      "Ġ$Ĝ": 3123,
      "Ġ$\"!": 3124,
      "Ġ$'&": 3125,
      "Ġ&$$$$#": 3126,
      "Ġ%$$(": 3127,
      "Ġ$\"$$#": 3128,
      "Ġ$(&": 3129,
      "Ġ$)&": 3130,
      "Ġ$)#": 3131,
      "Ġ'$$Ğ": 3132,
      "Ġ!$$ğ": 3133,
      "$$$*": 3134,
      "$$$$$$!": 3135,
      "$%#$$": 3136,
      "$%!$$$$": 3137,
      "$%#$$$$%": 3138,
      "$%$'$$#": 3139,
      "$%#$$$$#%": 3140,
      "$%!$$$": 3141,
      "$%$\"$$!": 3142,
      "$#$$$%": 3143,
      "$#$!": 3144,
      "$#\"$$$$%": 3145,
      "$#$!$$#": 3146,
      "$#$($$$$": 3147,
      "$#$%$$'": 3148,
      "$$%$$$$#": 3149,
      "$$%&$$\"": 3150,
      "$$%!$$&": 3151,
      "$$%'$$&": 3152,
      "$$%$$$#$": 3153,
      "$$%($$$$": 3154,
      "$$%\"$$$$#": 3155,
      "$$%$$$(": 3156,
      "$$%$$$%$$$$$$%": 3157,
      "$$#%$$&": 3158,
      "$$#\"$$&": 3159,
      "$$#'$$#": 3160,
      "$$#$$$$##": 3161,
      "$$#%$$$$$$$$": 3162,
      "$$#$$$#$$$$$$#": 3163,
      "$&$$'": 3164,
      "$&#$$": 3165,
      "$&'$$$$": 3166,
      "$&($$$$": 3167,
      "$&$&$$%": 3168,
      "$&$!$$$$": 3169,
      "$&$\"$$$$%": 3170,
      "$&!$$$\"": 3171,
      "$&$!$$#": 3172,
      "$&$\"$$&": 3173,
      "$&$\"$$\"": 3174,
      "$&!$$$!": 3175,
      "$&$%$$!": 3176,
      "$&%$$$'": 3177,
      "$\"$#": 3178,
      "$\"$'": 3179,
      "$\"$ğ": 3180,
      "$\"%$$\"": 3181,
      "$\"$$$$$$$$$$$$": 3182,
      "$\"$%$$\"": 3183,
      "$\"$#$$!": 3184,
      "$\"$!$$&": 3185,
      "$\"%$$$\"": 3186,
      "$\")$$$'": 3187,
      "$$&$$$#": 3188,
      "$$&#$$'": 3189,
      "$$&!$$&": 3190,
      "$$&$$$%$$%": 3191,
      "$$\"'$$$$": 3192,
      "$$\"!$$#": 3193,
      "$$\"$$$#$": 3194,
      "$$$$$$$$$$$&": 3195,
      "$$$$$$$$#$$$$#": 3196,
      "$$$$$$$$$##$$$$": 3197,
      "$$$$$$$$$%$$$%": 3198,
      "#$$$$$'": 3199,
      "#$$$$%$$%": 3200,
      "#$$$$$%#$$$$": 3201,
      "#$$$$$$#$$$$$$#": 3202,
      "ĀĀ:": 3203,
      "ĀĀ;": 3204,
      "%$$$$$$&": 3205,
      "%$$$$%$$$$": 3206,
      "%$$$$$!": 3207,
      "%$$$$$%$$$$": 3208,
      "%$$$$$$$%$$$$": 3209,
      "%$$$$$%#$$$$": 3210,
      "%$$$$$$##$$$$": 3211,
      "%$$$$$$%$$$$$$$$": 3212,
      "%$$$$&'": 3213,
      "%$$$$$#$$$$$$": 3214,
      "$$$%$$!": 3215,
      "$$$#$ğ": 3216,
      "$$$#$%#$$$$": 3217,
      "$$$##$$$#": 3218,
      "$'-": 3219,
      "$'$%$$$$": 3220,
      "$'#$$%": 3221,
      "$'#$$&": 3222,
      "$''$$$$": 3223,
      "$'\"$$$\"": 3224,
      "$'$!$$$$": 3225,
      "$'$\"$$#": 3226,
      "$'!$$$\"": 3227,
      "$'$!$$#": 3228,
      "$'!$$$!": 3229,
      "$'&$$$)": 3230,
      "$!.": 3231,
      "$!ě": 3232,
      "$!%$$#": 3233,
      "$!&$$$$": 3234,
      "$!$#$$&": 3235,
      "$!&%$$'": 3236,
      "$$!$$#": 3237,
      "$$!#$$$$": 3238,
      "$$!$$$%": 3239,
      "$$!%$$%": 3240,
      "$$!!$$\"": 3241,
      "$$'#$$$$": 3242,
      "$$'%$$$$": 3243,
      "$$'\"$$%": 3244,
      "$$'!$$%": 3245,
      "$$''$$%": 3246,
      "$$'$%!": 3247,
      "$%$$$$$$!": 3248,
      "$%$$$$$$$#$$$$": 3249,
      "$#$$$$$$!": 3250,
      "$#$$$$$$$&": 3251,
      "$#$$$$#$$$$$$#": 3252,
      "$#$$$$%$$$$$$%": 3253,
      "$(.": 3254,
      "$(Ě": 3255,
      "$($$$$%": 3256,
      "$(!$$": 3257,
      "$($#$$%": 3258,
      "$($\"$$%": 3259,
      "%$$#$(": 3260,
      "#$$%$$%$$$$": 3261,
      "%$$%$$&": 3262,
      "#$$Ę": 3263,
      "$%%'$$%": 3264,
      "$%%!$$&": 3265,
      "$%%&$$'": 3266,
      "$%%$$$#$$$$$$$$": 3267,
      "$%%#$$$$##": 3268,
      "$%%#$$$$$$#": 3269,
      "\"$$$$$#%$$$$": 3270,
      "$#%#$$!": 3271,
      "$#%!$$&": 3272,
      "$#%&$$'": 3273,
      "$#%\"$$$$#": 3274,
      "$##\"$$&": 3275,
      "$###$$$$%": 3276,
      "$##$$$%$": 3277,
      "%$$ę": 3278,
      "&$$$$$%%$$$$": 3279,
      "&$$$$&%": 3280,
      "&$$$$&#": 3281,
      "&$$$$&\"": 3282,
      "$%#'$$\"": 3283,
      "$%#\"$$$$#": 3284,
      "\"$$ę": 3285,
      "$)$$\"": 3286,
      "$)&$$$&": 3287,
      "$ğ$$\"": 3288,
      "$ğ$%$$%": 3289,
      "$ğ%$$$&": 3290,
      "$$$$%$%$$$$": 3291,
      "$$$&$$$$$$%": 3292,
      "$*.": 3293,
      "$*Ĝ": 3294,
      "$*Ğ": 3295,
      "$$%$$$$$$#$$$#": 3296,
      "%$$\"$#\"": 3297,
      "$%&&$$#": 3298,
      "$%&%$$$$#": 3299,
      "$%&&$$\"": 3300,
      "$%&\"$$'": 3301,
      "$%&#$$(": 3302,
      "$Ğ-": 3303,
      "$Ğě": 3304,
      "$Ğ$$\"": 3305,
      "$$#$$$$$$": 3306,
      "$$#$$$$$$&": 3307,
      "$$#$$$$$##": 3308,
      "$$#$$$$$#%$$$%": 3309,
      "$&%#$$\"": 3310,
      "$&%#$$'": 3311,
      "#$$\"$!'": 3312,
      "$$$$$$$$$$$$#$$$$": 3313,
      "$$$$$$$$$$$$$$$%": 3314,
      "$$$$$$$$$$$$$$%$$$$$": 3315,
      "$\"#\"$$%": 3316,
      "$\"#\"$$&": 3317,
      "$\"#\"$$\"": 3318,
      "$\"#%$$'": 3319,
      "$\"#'$$\"": 3320,
      "$\"#ĝ$$%": 3321,
      "$#\"$$$%": 3322,
      "$#\"&$$%": 3323,
      "$#\"%$$&": 3324,
      "$#\"!$$#": 3325,
      "$#\"#$$$$%": 3326,
      "$%\"\"$$$$": 3327,
      "$%\"!$$%": 3328,
      "$%\"'$$#": 3329,
      "$%\"#$$$$%": 3330,
      "$#&#$$$$": 3331,
      "$#&!$$%": 3332,
      "$#&!$$&": 3333,
      "$#&&$$'": 3334,
      "$#&%$$%$": 3335,
      "$&#&$$$$": 3336,
      "$&#&$$#": 3337,
      "'$$-": 3338,
      "'$$$!": 3339,
      "$\"%&$$$$": 3340,
      "$$$Ě": 3341,
      "#$$$$#\"": 3342,
      "#$$$$#%$$$$": 3343,
      "Ġ$$ę": 3344,
      "Ġ$$$'": 3345,
      "\"$$&$!!": 3346,
      "($$Ě": 3347,
      "%$$$$#'": 3348,
      "%$$$$#$$$$$$$$": 3349,
      "$ĝ$": 3350,
      "$ĝ-": 3351,
      "$ĝ.": 3352,
      "$ĝĜ": 3353,
      "$ĝ$$%": 3354,
      "$\"$$$$$$$#": 3355,
      "!$$$$ğ": 3356,
      "!$$$$$\"": 3357,
      "!$$$$!%": 3358,
      "$&&&$$#": 3359,
      "$&$$$$#$$%": 3360,
      "'$$$$!": 3361,
      "'$$$$$$%": 3362,
      "$\"\"%$$%": 3363,
      "!$$#$&#": 3364,
      "'$$%$%": 3365,
      "$&\"#$$%": 3366,
      "$&\"%$$%": 3367,
      "$&\"#$$!": 3368,
      "$&\"%$$!": 3369,
      "$##$$$$$##$$$$": 3370,
      "%$$!$&": 3371,
      "$%'%$$#": 3372,
      "$%'!$$%": 3373,
      "$%'\"$$'": 3374,
      "$!#%$$$$": 3375,
      "$!#!$$$$": 3376,
      "$'%%$$%": 3377,
      "$'%\"$$#": 3378,
      "$'%%$$\"": 3379,
      "$'%&$$%": 3380,
      "$'%\"$$&": 3381,
      "$'%\"$$\"": 3382,
      "&%$$$%": 3383,
      "$%$$$$#$%$$$$": 3384,
      "$%$$$$#$%%$$$$": 3385,
      "$'#\"$$$$": 3386,
      "$$#$$$#$$$$$$$$": 3387,
      "$$#$$$#$$%$$$$": 3388,
      "$#$$$$#%": 3389,
      "$\"&#$$$$": 3390,
      "$\"&&$$&": 3391,
      "Ġ$$$$$$!": 3392,
      "$#%$$$$%": 3393,
      "$#%$$$$$$#": 3394,
      "$#!&$$": 3395,
      "$#!&$$!": 3396,
      "Ā!&": 3397,
      "$!%'$$$$": 3398,
      "$!%'$$%": 3399,
      "$!%&$$&": 3400,
      "$%#$$$$$$%$$$$": 3401,
      "%$$$$%$": 3402,
      "%$$$$%&": 3403,
      "$,.": 3404,
      "$,Ğ": 3405,
      "$,$$$$": 3406,
      "$#'\"$$#": 3407,
      "$#''$$'": 3408,
      ")$$/": 3409,
      "!$$&$$#": 3410,
      "$Ĝ*": 3411,
      "Ġ\"$$$%": 3412,
      "Ġ\"&$$#": 3413,
      "Ġ\"\"$$#": 3414,
      "Ġ$$#$#ğ": 3415,
      "ĀĀ$Ā)": 3416,
      "ĀĀ$Ā*": 3417,
      "'$$\"$": 3418,
      "ĀĀ\"Ā*": 3419,
      "Ġ#$$$#": 3420,
      "$\"'%$$%": 3421,
      "$\"'\"$$%": 3422,
      "$\"'&$$%": 3423,
      "$\"'%$$'": 3424,
      "$\"!#$$#": 3425,
      "$$$'$": 3426,
      "$$)$$$&": 3427,
      "$'\"%$$\"": 3428,
      "$'\"\"$$\"": 3429,
      "$$$%$$#%$$#": 3430,
      "$&!\"$$\"": 3431,
      "$&!'$$!": 3432,
      "\"##$$$$": 3433,
      "$!\"#$$\"": 3434,
      "Ġ%'$$%": 3435,
      "$$$#$$%$": 3436,
      "$$$#$$%#$$$$": 3437,
      "$'&%$$$$": 3438,
      "&#&": 3439,
      "\"$$!$": 3440,
      "Ġ$$&$": 3441,
      "Ġ$$&$#!": 3442,
      "ĀĀ'Ā%": 3443,
      "$!&%$$$$": 3444,
      "$!&&$$$$": 3445,
      "$!&'$$&": 3446,
      "$ě\"": 3447,
      "$ě#": 3448,
      "$ě&": 3449,
      "$ě'": 3450,
      "$ě)": 3451,
      "Ġ!\"$$%": 3452,
      "Ġ&$$$%": 3453,
      "Ġ&%$$#": 3454,
      "($$$$'": 3455,
      "($$$$$!": 3456,
      "Āğ+": 3457,
      "$#$$$$$$$$%$$%": 3458,
      "$#$$$$$$$$$$$$%": 3459,
      "$-.": 3460,
      "$%$$$$$$$$$$#": 3461,
      "$%$$$$$$$$#$$%": 3462,
      "ĀĀğĀ)": 3463,
      "ĀĀğĀ,": 3464,
      "($$%$\"%": 3465,
      "Ā)*": 3466,
      "$(%$$$%": 3467,
      "$(%%$$#": 3468,
      "$#%$$$%$#%$$$%": 3469,
      "$(##$$#": 3470,
      "$(#&$$\"": 3471,
      "$(&&$$#": 3472,
      "$(&!$$#": 3473,
      "$#$%$$$$%$$$$": 3474,
      "$#(%$$'": 3475,
      "$$*#$$(": 3476,
      "$#$#$$$$&": 3477,
      "'$$'$": 3478,
      "$$$$%%%$$%": 3479,
      "Ğ$$-": 3480,
      "Ğ$$ę": 3481,
      "ĀĀ(Ā%": 3482,
      "ĀĀ(Ā'": 3483,
      "ĀĀ(Ā&": 3484,
      "Ġ$.": 3485,
      "\"$$($": 3486,
      "$$%%$$$$%%": 3487,
      "Ġğ$$$$": 3488,
      "Ġğ$$%": 3489,
      "#$$ğ$": 3490,
      "Ā*%": 3491,
      "$'!%$$!": 3492,
      "$$$$%#%$$#": 3493,
      "$$$$%##$$#": 3494,
      "Ġ($$!": 3495,
      "$#$$$$$$#$$$$%": 3496,
      "Ġ$&$$'": 3497,
      "$'$$$$!": 3498,
      "$'$$$$\"": 3499,
      "ĀĀĞĀ#": 3500,
      "#$$$$$$$$$$$$#": 3501,
      "$%$#$$#$": 3502,
      "$$##$$$$%%": 3503,
      "$.%": 3504,
      "$.)": 3505,
      "$.ğ": 3506,
      "$#$$\"$": 3507,
      "$('\"$$&": 3508,
      "&$$$$%&": 3509,
      "ĝ$$+": 3510,
      "$$$%$$$$$$$$$$$%": 3511,
      "ĀĀ#ĀĘ": 3512,
      "\"&%$$&": 3513,
      "$&%$$$$$": 3514,
      "$Ě(": 3515,
      "Ā+&": 3516,
      "Ā+ĝ": 3517,
      "$#ğ$$$\"": 3518,
      "%$$)$": 3519,
      "%$$$$$$$$$$$#": 3520,
      "$%$#$$%$": 3521,
      "&$$($": 3522,
      "$$$$$$$$#%": 3523,
      "$$$$$$$$#%$$$%": 3524,
      "$$$$$$$$##$$$#": 3525,
      "ĀĀĜĀ'": 3526,
      "$)\"%$$%": 3527,
      "ĀĀ*Ā%": 3528,
      "ĀĀ*Ā+": 3529,
      "%$$$$##$$$#": 3530,
      "+$$,": 3531,
      "+$$Ĝ": 3532,
      "+$$$(": 3533,
      "!\"&$$#": 3534,
      "#$$$$&$#$$$$": 3535,
      "!$$($": 3536,
      "ĀĀ%ĀĚ": 3537,
      "$%##$$$$&#": 3538,
      "$#)$$$$": 3539,
      "Ġ$'$$%": 3540,
      "$')#$$%": 3541,
      "Ġ$%Ğ": 3542,
      "$$$($$$$": 3543,
      "#$$$$#%%$$%": 3544,
      "$ę!": 3545,
      "ĠĀě": 3546,
      "$\")%$$(": 3547,
      "$##$$#$": 3548,
      "$!ğ#$$!": 3549,
      "#$$*$": 3550,
      "!!%$$#": 3551,
      "$#&$$$$$": 3552,
      "$$#%$$$$%#": 3553,
      "ĀĀ-Ā&": 3554,
      "%$$$$#%%$$$$": 3555,
      "$$$$$$$$%#$$$$": 3556,
      "$$$%$$$$$$#$": 3557,
      "$$$)$$#": 3558,
      "$\"$%$$%$": 3559,
      "$$$#$$$$##$$$$": 3560,
      "Ě$$.": 3561,
      "$#$#$$": 3562,
      "$%$$$$$$#$$$$$$": 3563,
      "\"$$$$%%$$$%": 3564,
      "$%$$$$#$$%$$$$": 3565,
      "!\"$$\"": 3566,
      "\"$&": 3567,
      "\"$)": 3568,
      "\"!$$$$": 3569,
      "\"'$$#": 3570,
      "\"$#$$$$%": 3571,
      "\"!$$\"": 3572,
      "#!": 3573,
      "#*": 3574,
      "#$'": 3575,
      "#&$$#": 3576,
      "#$$$#$$%": 3577,
      "#(*": 3578,
      "%$": 3579,
      "%Ě": 3580,
      "%%$$": 3581,
      "%\"$$": 3582,
      "%'$$%": 3583,
      "%#$$%$": 3584,
      "%&(": 3585,
      "%((": 3586,
      "&$$$$$$$$": 3587,
      "&$#$$$$": 3588,
      "&&$$$$": 3589,
      "&\"$$%": 3590,
      "&#$$\"": 3591,
      "&($$$$": 3592,
      "&(%": 3593,
      "&ĀĀĞĀ": 3594,
      "'Ę": 3595,
      "'Ě": 3596,
      "'#$$": 3597,
      "'&$$&": 3598,
      "'%$$'": 3599,
      "(\"": 3600,
      "($%": 3601,
      "($\"": 3602,
      "(#$$%": 3603,
      "(%$$&": 3604,
      "($$$\"": 3605,
      "(($$": 3606,
      "(ĀĀ&Ā": 3607,
      ")*": 3608,
      ")+": 3609,
      ")ğ": 3610,
      ")#$$&": 3611,
      ")&#": 3612,
      ")ĀĀğ": 3613,
      ")ĀĀ#Ā": 3614,
      "*%$$&": 3615,
      "*$$)": 3616,
      "*\"#": 3617,
      "*$$*": 3618,
      "*ĀĀ(Ā": 3619,
      "*#&": 3620,
      "*)$$(": 3621,
      "+Ĝ": 3622,
      "+ĝ": 3623,
      "+&$$%": 3624,
      "+($$": 3625,
      "+$$Ğ": 3626,
      "+ĀĀ(": 3627,
      "+ĀĀ$Ā": 3628,
      "+ĀĀę": 3629,
      ",&": 3630,
      ",+": 3631,
      ",$$'": 3632,
      ",$$(": 3633,
      ",ĀĀ#Ā": 3634,
      ",$$+": 3635,
      "-(": 3636,
      "-)": 3637,
      "-ĝ": 3638,
      "-$$\"": 3639,
      "-$$ğ": 3640,
      "-ĀĀ#Ā": 3641,
      "-$$+": 3642,
      ".$$\"": 3643,
      "/$$": 3644,
      "/$$&": 3645,
      "/$$\"": 3646,
      "00": 3647,
      "Ā/": 3648,
      "Āě": 3649,
      "Ĕ$$": 3650,
      "ĕ$$%": 3651,
      "Ė$$": 3652,
      "Ę!": 3653,
      "ĘĞ": 3654,
      "Ę$$#": 3655,
      "Ę$$ğ": 3656,
      "ę!": 3657,
      "ę\"": 3658,
      "ę#": 3659,
      "ę$$#": 3660,
      "Ě!": 3661,
      "Ě%": 3662,
      "Ě*": 3663,
      "Ěğ": 3664,
      "Ě$$&": 3665,
      "ěě": 3666,
      "ěĜ": 3667,
      "ěĀĀ": 3668,
      "Ĝ'": 3669,
      "Ĝ/": 3670,
      "Ĝĝ": 3671,
      "Ĝ$$$\"": 3672,
      "Ĝ$$*": 3673,
      "ĝ\"$$": 3674,
      "Ğ&": 3675,
      "Ğ'$$\"": 3676,
      "ğĀĀ": 3677,
      "ğ#$$%": 3678,
      "ğ!$$#": 3679,
      "Ġ2": 3680,
      "Ġ$%$$$$": 3681,
      "Ġ$#%": 3682,
      "Ġ$\"$$$$": 3683,
      "Ġ$\"\"": 3684,
      "Ġ#$$'": 3685,
      "Ġ$&'": 3686,
      "ĠĀ(": 3687,
      "ĠĀĝ": 3688,
      "Ġ$'(": 3689,
      "Ġ$%)": 3690,
      "ĠĀ+": 3691,
      "Ġ$#ğ": 3692,
      "Ġ$!(": 3693,
      "Ġ$'$$#": 3694,
      "Ġ$ğ!": 3695,
      "Ġ$*#": 3696,
      "Ġ$*&": 3697,
      "Ġ$!Ğ": 3698,
      "ĠĀĀ'Ā": 3699,
      "$$$$&": 3700,
      "$$$$$$(": 3701,
      "$%.": 3702,
      "$%/": 3703,
      "$%$ğ": 3704,
      "$%$ĝ": 3705,
      "$%$$ğ": 3706,
      "$%$$$'": 3707,
      "$%$$$%$$%": 3708,
      "$%$'$$$$": 3709,
      "$%$&$$$$%": 3710,
      "$%\"$$$!": 3711,
      "$%#$$$!": 3712,
      "$%$ğ$$$$": 3713,
      "$%$%$$!": 3714,
      "$%$!$$$$#": 3715,
      "$%$($$\"": 3716,
      "$#.": 3717,
      "$#/": 3718,
      "$#$+": 3719,
      "$#!$$%": 3720,
      "$#!$$#": 3721,
      "$#$$*": 3722,
      "$#ğ$$#": 3723,
      "$##$$$$##": 3724,
      "$#!$$$!": 3725,
      "$#$&$$\"": 3726,
      "$#$%$$!": 3727,
      "$#($$$'": 3728,
      "$#ğ$$$!": 3729,
      "$#&$$$(": 3730,
      "$#$\"$$": 3731,
      "$#\"$$$": 3732,
      "$$%\"$$\"": 3733,
      "$$%'$$%": 3734,
      "$$%$$$$$$$$$$$$$$$$": 3735,
      "$$%$$$#$$#": 3736,
      "$$%$$$$##": 3737,
      "$$%$$$$%%": 3738,
      "$$#%$$": 3739,
      "$$#&$$\"": 3740,
      "$$#$$$#$$$$": 3741,
      "$$#!$$%": 3742,
      "$$#$$$%$": 3743,
      "$$#&$$$$#": 3744,
      "$$#$$$$%#": 3745,
      "$$#$$$$$$$$$$#": 3746,
      "$&$$(": 3747,
      "$&%$$$$#": 3748,
      "$&#$$$$%": 3749,
      "$&$$$%$": 3750,
      "$&$$$$##": 3751,
      "$&%$$$$$$#": 3752,
      "$&$\"$$$$#": 3753,
      "$&$!$$&": 3754,
      "$&$ğ$$$$": 3755,
      "$&#$$$": 3756,
      "$&$\"$$!": 3757,
      "$\"Ė": 3758,
      "$\"#$$": 3759,
      "$\"$Ğ": 3760,
      "$\"#$$\"": 3761,
      "$\"!$$#": 3762,
      "$\"$#$$$$#": 3763,
      "$\"%$$#$": 3764,
      "$\"$&$$$$%": 3765,
      "$\"!$$$!": 3766,
      "$\"'$$$'": 3767,
      "$\"$&$$\"": 3768,
      "$\"$'$$%": 3769,
      "$\"$%$$'": 3770,
      "$\"#$$$'": 3771,
      "$\"$'$$&": 3772,
      "$\"$%$$(": 3773,
      "$\"$($$%": 3774,
      "$$&$$%": 3775,
      "$$&'$$$$": 3776,
      "$$&!$$%": 3777,
      "$$&\"$$'": 3778,
      "$$&$$$%$": 3779,
      "$$&$$$%$$#": 3780,
      "$$&%$$(": 3781,
      "$$&!$$'": 3782,
      "$$\"$$": 3783,
      "$$\"%$$%": 3784,
      "$$\"$$$": 3785,
      "$$\"&$$!": 3786,
      "$$\"($$#": 3787,
      "$$\"#$$\"$": 3788,
      "$$\"$$$ğ": 3789,
      "$$\"\"$$$$#%": 3790,
      "$$$$$$$$$\"": 3791,
      "$$$$$$$$$$$\"": 3792,
      "$$$$$$$$#$$$$%": 3793,
      "$$$$$$$$$$$$#%": 3794,
      "$$$$$$$$$##$$#": 3795,
      "$$$$$$$$$#%$$#": 3796,
      "#$$$$$\"": 3797,
      "#$$$$$$!": 3798,
      "#$$$$$$$#$$$$": 3799,
      "#$$$$$##$$$$": 3800,
      "#$$$$&&": 3801,
      "#$$$$&\"": 3802,
      "#$$$$$#$$$$$$": 3803,
      "#$$$$$$%$$$$$$#": 3804,
      "#$$$$$$$#$$$$$": 3805,
      "ĀĀ>": 3806,
      "ĀĀĐ": 3807,
      "%$$$$#$$#": 3808,
      "%$$$$$%%": 3809,
      "%$$$$$&$$$$": 3810,
      "%$$$$\"#": 3811,
      "%$$$$$%$$$%": 3812,
      "%$$$$$$%$$$$$$#": 3813,
      "%$$$$#$$$$$$": 3814,
      "$$$%$%": 3815,
      "$$$%$$$%": 3816,
      "$$$%$$'": 3817,
      "$$$%$$%$$$$": 3818,
      "$$$%$$#$$$#": 3819,
      "$$$#$$": 3820,
      "$$$#$#$$$$": 3821,
      "$$$#$%#": 3822,
      "$'.": 3823,
      "$'ė": 3824,
      "$'$'": 3825,
      "$'$&$$$$": 3826,
      "$'$%$$$$#": 3827,
      "$'$$Ğ": 3828,
      "$'&$$$&": 3829,
      "$'$%$$&": 3830,
      "$'$#$$\"": 3831,
      "$'$!$$%": 3832,
      "$'$'$$#": 3833,
      "$'$\"$$&": 3834,
      "$'$\"$$\"": 3835,
      "$'$%$$'": 3836,
      "$'$$$$$$$$$$$%": 3837,
      "$'&%$$'": 3838,
      "$'&$$$(": 3839,
      "$'%#$$'": 3840,
      "$''$$$(": 3841,
      "$'%%$$!": 3842,
      "$!/": 3843,
      "$!Ě": 3844,
      "$!%$$": 3845,
      "$!$*": 3846,
      "$!\"$$#": 3847,
      "$!$%$$$$%": 3848,
      "$!)$$$'": 3849,
      "$!%$$$'": 3850,
      "$!$#$$'": 3851,
      "$!#$$$ğ": 3852,
      "$$!$\"": 3853,
      "$$!%$$$$": 3854,
      "$$!&$$": 3855,
      "$$!'$$\"": 3856,
      "$$!$$$#$": 3857,
      "$$'\"$$&": 3858,
      "$$'$$$(": 3859,
      "$%$$$$%$$&": 3860,
      "$%$$$$$%%$$$$": 3861,
      "$%$$$$$$%%$$$$": 3862,
      "$%$$$$$$##$$$$": 3863,
      "$%$$$$#$$$$$$#": 3864,
      "$#$$$$)": 3865,
      "$#$$$$$%": 3866,
      "$#$$$$$$$\"": 3867,
      "$#$$$$$$%$$$$$$$$": 3868,
      "$#$$$$'%": 3869,
      "$#$$$$$%$$$%": 3870,
      "$#$$$$$%$$$$$$": 3871,
      "$#$$$$%$$$$$$": 3872,
      "$(ě": 3873,
      "$($$&": 3874,
      "$(%$$$$": 3875,
      "$($$$$#": 3876,
      "$($&$$$$": 3877,
      "$(\"$$$\"": 3878,
      "$($\"$$#": 3879,
      "$(!$$$\"": 3880,
      "$($\"$$&": 3881,
      "$($&$$\"": 3882,
      "$(!$$$ğ": 3883,
      "%$$##$$#": 3884,
      "%$$#$&%": 3885,
      "#$$%$''": 3886,
      "%$$%$$$$": 3887,
      "%$$%$)": 3888,
      "%$$%$\"#": 3889,
      "#$$$)": 3890,
      "#$$#$ğ": 3891,
      "$%%$$&": 3892,
      "$%%$$$$$$$$": 3893,
      "$%%!$$#": 3894,
      "$%%&$$&": 3895,
      "$%%\"$$'": 3896,
      "$%%'$$&": 3897,
      "$%%$$$%$$%": 3898,
      "$%%ğ$$%": 3899,
      "$%%ğ$$'": 3900,
      "$%%$$$$$$$$$$$$#": 3901,
      "\"$$$$\"\"": 3902,
      "\"$$$$&\"": 3903,
      "\"$$$$'#": 3904,
      "\"$$$$(&": 3905,
      "$#%$$\"": 3906,
      "$#%$$$$$$$$": 3907,
      "$#%$$!": 3908,
      "$#%\"$$\"": 3909,
      "$#%!$$#": 3910,
      "$#%#$$$$%": 3911,
      "$#%\"$$'": 3912,
      "$#%%$$$$##": 3913,
      "$#%&$$$$#%": 3914,
      "$###$$!": 3915,
      "$##$$$$$$$$$$$$$$$$": 3916,
      "$##'$$\"": 3917,
      "$##$$$#$$%": 3918,
      "$##\"$$!": 3919,
      "$##\"$$$$#": 3920,
      "$##$$$$$$$$$$#": 3921,
      "$##\"$$$$%#": 3922,
      "%$$Ę": 3923,
      "&$$$$!": 3924,
      "&$$$$$$\"": 3925,
      "&$$$$\"%": 3926,
      "&$$$$$$%%$$$$": 3927,
      "$%#%$$": 3928,
      "$%#($$#": 3929,
      "$%#$$$#$$%": 3930,
      "$%#ğ$$#": 3931,
      "$%##$$$$$$#": 3932,
      "$)-": 3933,
      "$)$$%": 3934,
      "$)$ğ": 3935,
      "$)$%$$#": 3936,
      "$)$%$$\"": 3937,
      "$)$!$$#": 3938,
      "$)$\"$$\"": 3939,
      "$ğ$$'": 3940,
      "$ğ&$$$%": 3941,
      "$ğ$'$$%": 3942,
      "&$$Ę": 3943,
      "!$$$(": 3944,
      "!$$$-": 3945,
      "\"$$%$$": 3946,
      "\"$$%$%&": 3947,
      "\"$$%$#'": 3948,
      "\"$$%$!'": 3949,
      "&$$#$#": 3950,
      "$*Ě": 3951,
      "$*ĀĀ": 3952,
      "$$%$$$$$$": 3953,
      "$$%$$$$$%#": 3954,
      "$$%$$$$$$$%$$$$": 3955,
      "$$%$$$$$%%$$$$": 3956,
      "$$%$$$$$$%$$$$$$$$": 3957,
      "$$%$$$$$#$$$$$$": 3958,
      "#$$&$+": 3959,
      "%$$\"$#%": 3960,
      "%$$\"$%!": 3961,
      "$%&!$$#": 3962,
      "$%&'$$%": 3963,
      "$%&'$$&": 3964,
      "$%&#$$%$": 3965,
      "$%&ğ$$'": 3966,
      "$Ğ$&$$%": 3967,
      "$$#$$$$$$%$$$%": 3968,
      "$$#$$$$$%#$$$$": 3969,
      "$$#$$$$$%$$$$$$%": 3970,
      "$&%\"$$\"": 3971,
      "$&%%$$!": 3972,
      "&$$%$$\"": 3973,
      "$$($$$$": 3974,
      "$$($$$%": 3975,
      "$$(#$$%": 3976,
      "$$(%$$%": 3977,
      "$$(\"$$&": 3978,
      "$$(!$$&": 3979,
      "$$(%$$(": 3980,
      "$$(!$$(": 3981,
      "#$$\"$\"#": 3982,
      "%$$&$$%": 3983,
      "%$$&$#(": 3984,
      "$$$$$$$$$$$$$$": 3985,
      "$$$$$$$$$$$$$%$$$$$$$$": 3986,
      "$$$$$$$$$$$$$#$$$$$": 3987,
      "$\"##$$$$#": 3988,
      "$\"#!$$#": 3989,
      "$\"#'$$%": 3990,
      "$\"#&$$&": 3991,
      "$\"#($$$$": 3992,
      "$#\"#$$": 3993,
      "$#\"\"$$$$": 3994,
      "$#\"#$$&": 3995,
      "$#\"\"$$&": 3996,
      "$#\"!$$%": 3997,
      "$#\"'$$%": 3998,
      "$#\"'$$\"": 3999,
      "$#\"&$$!": 4000,
      "$#\"($$\"": 4001,
      "$#\"#$$$$%%": 4002,
      "$%\"($$#": 4003,
      "$%\"($$!": 4004,
      "$%\"#$$$$%#": 4005,
      "$#&$$\"": 4006,
      "$#&#$$#": 4007,
      "$#&&$$$$": 4008,
      "$#&&$$#": 4009,
      "$#&%$$\"": 4010,
      "$#&%$$'": 4011,
      "$#&$$$%$": 4012,
      "$#&)$$%": 4013,
      "$&##$$": 4014,
      "$&#&$$%": 4015,
      "$&#%$$&": 4016,
      "$&#'$$#": 4017,
      "$&##$$$$%": 4018,
      "$$$\"$$'": 4019,
      "'$$$Ğ": 4020,
      "$\"%\"$$$$": 4021,
      "$\"%&$$#": 4022,
      "$\"%%$$\"": 4023,
      "$\"%'$$$$": 4024,
      "$\"%&$$&": 4025,
      "$\"%#$$'": 4026,
      "$\"%&$$'": 4027,
      "$\"%%$$%$": 4028,
      "$\"%($$'": 4029,
      "Ġ$$/": 4030,
      "Ġ$$Ė": 4031,
      "Ġ$$$(": 4032,
      "\"$$&$$%": 4033,
      "\"$$&$$#": 4034,
      "$#$$#$$$#$$#": 4035,
      "%$$$$#$&$$#": 4036,
      "%$$$$#%$$$$$": 4037,
      "!$$$$&#": 4038,
      "!$$$$\"%": 4039,
      "!$$$$'#": 4040,
      "$$$%$$$$$%$$$%": 4041,
      "%#$$$%": 4042,
      "%#\"$$%": 4043,
      "$+$": 4044,
      "$+*": 4045,
      "$+,": 4046,
      "$&&$$&": 4047,
      "$&&\"$$#": 4048,
      "$&&'$$%": 4049,
      "$&&%$$'": 4050,
      "$&&\"$$'": 4051,
      "$&&\"$$(": 4052,
      "'$$$$&&": 4053,
      "'$$$$&\"": 4054,
      "$\"\"&$$$$": 4055,
      "$\"\"&$$%": 4056,
      "$\"\"#$$$$#": 4057,
      "$\"\"!$$$$": 4058,
      "$\"\"%$$$$%": 4059,
      "$\"\"($$#": 4060,
      "$$$#$$$$$$%$$%": 4061,
      "$$$#$$$$$%$$$$$": 4062,
      "$%%$$$$$$$#$$$$": 4063,
      "$&\"&$$#": 4064,
      "$&\"!$$#": 4065,
      "$$$$$$$$$$$$$$$$$$$$$$$$$$$$$": 4066,
      "'$$#$)": 4067,
      "&$$&$%": 4068,
      "$%'#$$$$": 4069,
      "$%'$$$#": 4070,
      "$%'\"$$$$": 4071,
      "$%''$$%": 4072,
      "$%'!$$&": 4073,
      "$%'ğ$$%": 4074,
      "$!#%$$&": 4075,
      "$!#'$$%": 4076,
      "#$$'$)(": 4077,
      "$'%&$$#": 4078,
      "$'%#$$\"": 4079,
      "$'%!$$#": 4080,
      "$'%!$$&": 4081,
      "&%$$$#": 4082,
      "&%#$$#": 4083,
      "$%$$$$#$#%$$$%": 4084,
      "$'##$$%": 4085,
      "$$#$$$#$$%": 4086,
      "$$#$$$#$$#$$$#": 4087,
      "$$#$$$#$##$$$#": 4088,
      "$#$$$$#$%$$%": 4089,
      "$#$$$$#$#%$$$$": 4090,
      "$\"&%$$$$": 4091,
      "$\"&\"$$$$": 4092,
      "$\"&&$$$$": 4093,
      "$\"&\"$$&": 4094,
      "Ġ$$$$\"": 4095
    },
    "merges": [
      "$ $",
      "$$ $$",
      "$ %",
      "$ #",
      "$$ %",
      "$$ #",
      "$ &",
      "$ \"",
      "$$ &",
      "$$ \"",
      "$$$$ $$$$",
      "# $$$$",
      "Ā Ā",
      "% $$$$",
      "$$ $%",
      "$$ $#",
      "$ '",
      "$ !",
      "$$ !",
      "$$ '",
      "$% $$$$",
      "$# $$$$",
      "$ (",
      "% $$#",
      "# $$%",
      "% $$%",
      "# $$",
      "# $$#",
      "$% %",
      "\" $$$$",
      "$# %",
      "$# #",
      "% $$",
      "& $$$$",
      "$% #",
      "\" $$",
      "$ )",
      "$ ğ",
      "& $$",
      "$$$$ #",
      "$$$$ %",
      "! $$",
      "$$ $&",
      "\" $$%",
      "& $$#",
      "$ *",
      "$$% $$$$",
      "# $$&",
      "\" $$#",
      "% $$\"",
      "$% &",
      "$ Ğ",
      "$$# $$$$",
      "$& %",
      "& $$%",
      "$$ (",
      "# $$\"",
      "% $$&",
      "$$$$$$$$ $$$$",
      "$\" #",
      "$# \"",
      "$% \"",
      "$# &",
      "$& #",
      "$$ $\"",
      "' $$",
      "$\" %",
      "$$ $",
      "#$$$$ #",
      "Ġ $$",
      "\" $$&",
      "% %",
      "$% $$#",
      "( $$",
      "$# $$#",
      "%$$$$ #",
      "$ ĝ",
      "$\" $$$$",
      "! $$$$",
      "$$$% $$$$",
      "$% $$%",
      "$# $$%",
      "% #",
      "$ +",
      "$& &",
      "$& $$$$",
      "& $$\"",
      "' $$$$",
      "$\" \"",
      "$$$# $$$$",
      "! $$%",
      "\" $$\"",
      "! $$#",
      "$% %$$$$",
      "' $$%",
      "# $$!",
      "$& \"",
      "$$$$$$$$ $$$$$$$$",
      "$# #$$$$",
      "' $$#",
      "% $$!",
      "& $$&",
      "$% '",
      "$! #",
      "# $$'",
      "ğ $$",
      "$' %",
      "& %",
      "$%$$$$ #",
      "$' #",
      "$$# $$$#",
      "$#$$$$ #",
      "$\" &",
      "Ġ $$$$",
      "Ā #",
      "ĀĀ #",
      "Ā \"",
      "$$ ğ",
      "#$$$$ %",
      "$% !",
      "$$% $$$%",
      "$# %$$$$",
      "$# !",
      "% $$'",
      "Ā !",
      "ĀĀ %",
      "$! %",
      "$% #$$$$",
      "%$$$$ %",
      "\" $$'",
      "$ ,",
      "$# '",
      "$#$$$$ %",
      ") $$",
      "! $$&",
      "$ Ĝ",
      "Ġ \"",
      "Ġ $$#",
      "ĀĀ $",
      "Ā %",
      "$%$$$$ %",
      "! $$\"",
      "' $$\"",
      "ĀĀ \"",
      "Ġ #",
      "Ġ $$%",
      "ĀĀ !",
      "ĀĀ &",
      "' $$&",
      "$\" '",
      "Ā '",
      "$$$% $",
      "$\" !",
      "& $$!",
      "$& '",
      "$$ $'",
      "Ā &",
      "$$ )",
      "$' \"",
      "$$$# $",
      "$$$% $$#",
      "$& !",
      "$$$% $$%",
      "$& $$#",
      "\" #",
      "( $$#",
      "$! \"",
      "#$$ $\"",
      "Ġ %",
      "$$$# $$%",
      "$' &",
      "& $$'",
      "$$ $!",
      "& #",
      "$% (",
      "Ā (",
      "$' '",
      "Ġ $$\"",
      "$$ Ğ",
      "\" $$!",
      "Ġ $$&",
      "$\" $$%",
      "$$$# $$#",
      "ĀĀ '",
      "$! &",
      "$ ě",
      "\" %",
      "Ġ !",
      "Ġ &",
      "#$$ (",
      "( $$$$",
      "&$$$$ #",
      "Ā ğ",
      "$# $$$$$$$$",
      "$ -",
      "$% $$$$$$$$",
      "ĀĀ ğ",
      "\"$$$$ #",
      "( $$%",
      "\"$$ $\"",
      "Ġ '",
      "$& $$%",
      "Ā )",
      "Ā Ğ",
      "$& (",
      "%$$ (",
      "$! !",
      "$( %",
      "! $$'",
      "$! $$$$",
      "$%# $$$#",
      "$\" $$#",
      "$#% $$$%",
      "$( #",
      "&$$ $&",
      "$( &",
      "$# $%$$$$",
      "$$$$# #",
      "$% $#$$$$",
      "$# (",
      "$$ *",
      "$# $#$$$$",
      "$$# %$$#",
      "$$$$# %",
      "$( \"",
      "' $$'",
      "$$$$% %",
      "( $$\"",
      "Ğ $$",
      "$$\" $$$$",
      "& &",
      "ĀĀ (",
      "$$$# $$$$$$$$",
      "$%% #$$%",
      "\"$$$$ %",
      "Ġ $",
      "\"$$ (",
      "ĀĀ )",
      "$$% %$$$$",
      "$$% #$$%",
      "Ġ ğ",
      "Ġ $$!",
      "$% $$&",
      "$! '",
      "! $$!",
      "$% $%$$$$",
      "#$$ ğ",
      "Ā ĝ",
      "' $$!",
      "Ġ $$'",
      "%$$ ğ",
      "$## $$$#",
      "\" \"",
      "( $$&",
      "Ā *",
      "ĀĀ ĝ",
      "$' !",
      "$# $%$$%",
      "$%% $$$%",
      "$$$$% #",
      "Ġ (",
      "$#$$$$ $$#",
      "Ġ $&",
      "$%$$$$ $$%",
      "#$$ )",
      "$' $$$$",
      "& \"",
      "$$% %$$%",
      "ĀĀ Ğ",
      "# $$$$$$$$",
      "ğ $$%",
      "$# $%$$#",
      "%$$ $&",
      "* $$",
      "$% $#$$#",
      "$$# #$$$$",
      "$# $$&",
      "$' (",
      "$## %$$#",
      "$ .",
      "$# $$\"",
      "$\" (",
      "$( '",
      "$$% #$$$$",
      "$#% #$$%",
      "$## %$$$$",
      "ğ $$#",
      "&$$$$ %",
      "ĝ $$",
      "$# \"$$$$",
      "$$$$ $$%",
      "$% ğ",
      "$% )",
      "%$$$$ $$#",
      "$$$% $$$$$$$$",
      "ĀĀ# Ā",
      "$$% $",
      "%$$% $",
      "\" &",
      "$& )",
      "$%# #$$#",
      "$$# #$$#",
      "$\" $$$$%",
      "$$& $$$$",
      "$ğ #",
      "ğ $$&",
      "$# $#$$%",
      "$& %$$$$",
      "$\" ğ",
      "$ Ě",
      "Ā +",
      "$% $%$$#",
      "$## #$$#",
      "! #",
      "$# ğ",
      "$$% $$$$$$$$",
      "%$$# $",
      "%$$ )",
      "% $$$$$$$$",
      "& '",
      "$$$$ $$#",
      "$% $$\"",
      "! %",
      "$% $#$$%",
      "$! (",
      "$#$$$$ $$",
      "#$$% $",
      "#$$$$# #",
      "ĀĀ +",
      "&$$ (",
      "Ġ )",
      "' %",
      "' $$(",
      "Ġ Ğ",
      "$$$$$$$$ #",
      "$( !",
      "$( (",
      "$#% %$$$$",
      "$$% $$#",
      "$& $$$$%",
      "ĀĀ Ĝ",
      "$%$$$$ $$#",
      "\"$$ )",
      "$) &",
      "$& $$$$#",
      "$#% %$$%",
      "$) \"",
      "!$$ $\"",
      "ĀĀ *",
      "$! $$%",
      "%$$$$# #",
      "' #",
      "+ $$",
      "#$$$$ $$#",
      "ĀĀ ,",
      "! \"",
      "Ġ $$(",
      "#$$$$ &",
      "$#$$$$ $$%",
      "!$$ (",
      "ĀĀ% Ā",
      "% $$$%",
      ") $$%",
      "$% $$$%",
      "$# $$$$$$$$$$$$",
      "$' $$#",
      "$) #",
      "ğ $$\"",
      ") $$#",
      "$%# #$$$$",
      "Ā ,",
      "$# )",
      "$\" #$$$$",
      "$$\" $$$#",
      "%$$$$ %%",
      "$%# %$$#",
      "$) %",
      "$# $#$$#",
      "$ğ \"",
      "( $$'",
      "Ġ %$$",
      "$$ ĝ",
      "$! $$#",
      "#$$ $&",
      "\"$$ ğ",
      "$ğ %",
      "$$#$$$$ $$#",
      "' &",
      "Ġ $'",
      "$' )",
      "$## #$$$$",
      "Ġ *",
      "$\" $$$$#",
      "%$$$$ $",
      "&$$ $'",
      "( $$!",
      "ğ $$$$",
      "Ġ $%",
      "#$$$$ $$%",
      "$%& $$$%",
      "\" !",
      ") $$$$",
      "ğ $$'",
      "Ġ $$$\"",
      "$$& $$$%",
      "#$$$$ $",
      "ĀĀ .",
      "ĀĀ& Ā",
      "Ġ #$$",
      "$$ $(",
      "$% $%$$%",
      "$$% $$$&",
      "$\" $$&",
      "%$$$$ $$%",
      "$$#$$$$ $",
      "#$$$$# %",
      "$ ę",
      "Ğ $$#",
      "Ġ Ā",
      "$%$$$$ $$",
      "&$$ ğ",
      "ĀĀ\" Ā",
      "Ġ $$$#",
      "$\" )",
      "$%% #$$$$",
      "%$$ *",
      "&$$ )",
      "ĀĀ$ Ā",
      "ĀĀ! Ā",
      "$% &$$$$",
      "$# Ğ",
      "$\" $$\"",
      "$%% %$$%",
      "$% Ğ",
      "$# #$$#",
      "%$$$$ &",
      "$) '",
      "$ /",
      "$ ĀĀ",
      "( %",
      ") $$&",
      ") $$\"",
      "$$ +",
      "$# $$$#",
      "$%% %$$$$",
      "\"$$ $!",
      "$ğ !",
      "$#\" $$$#",
      "$& Ğ",
      "$\" $%$$$$",
      "$! ğ",
      "$%% $$$#",
      "$$%$$$$ $$#",
      "$$$$$$$$$$$$$$$$ $$$$$$$$",
      "Ġ #$$#",
      "$& ğ",
      "$& $$&",
      "ĀĀ /",
      "#$$ *",
      "#$$ $!",
      "$) !",
      "!$$ )",
      "!$$ $!",
      "$#& $$$%",
      "'$$ ğ",
      "& $$$%",
      "Ġ #$$\"",
      "$$ ,",
      "$& #$$$$",
      "$& $#$$$$",
      "! !",
      "Ġ %$$#",
      "$% \"$$$$",
      "$# &$$$$",
      "$$% $$%",
      "$$# %$$$$",
      "$$# $$$%",
      "ĀĀ -",
      "$&% $$$%",
      "Ġ \"$$",
      "$% *",
      "$$\" %$$#",
      "\"$$# $",
      "\" '",
      "\" (",
      "& )",
      "ğ $$!",
      "Ġ %$$\"",
      "$\" Ğ",
      "$$& %$$%",
      "$$\" #$$#",
      "ĀĀ ě",
      "$' *",
      "$## $$$%",
      "$%& #$$%",
      "$%\" $$$#",
      "'$$ $'",
      "%$$$$# %",
      "! '",
      "& (",
      "Ğ $$%",
      "Ġ ĝ",
      "$% $$$$$$$$$$$$",
      "$% $\"$$$$",
      "#$$$$ %%",
      "%$$$$ $$",
      "$$%$$$$ $",
      "ĀĀğ Ā",
      "$# $$!",
      "$$# $$$\"",
      "$& $$\"",
      "$& $#$$#",
      "$\" *",
      "$$$$$$$$ %",
      "ĀĀ Ě",
      "$' ğ",
      "$%$$$$ &",
      "$%% $$$&",
      "$* #",
      "'$$ Ğ",
      "! $$$$#",
      "$% %$$%",
      "$$& #$$%",
      "#$$$$ $$",
      "$! $$&",
      "#$$ Ğ",
      "$$$$% &",
      "$* &",
      "($$ )",
      "$$$#$$$$ $$#",
      "* $$#",
      "$$ Ĝ",
      "$# *",
      "$# %$$#",
      "#$$$$ %#",
      "$' $$%",
      "$! )",
      "$( )",
      "$%% \"$$%",
      "$$$$% \"",
      "Ġ$$ ğ",
      "! &",
      "# #",
      "' \"",
      "Ğ $$$$",
      "Ġ $\"",
      "Ġ $)",
      "Ġ #$$!",
      "$% $",
      "$$% %$$#",
      "$& *",
      "$\" $%$$#",
      "%$$ Ğ",
      "$ğ &",
      "$* %",
      "$$$%$$$$ $$#",
      "Ğ $$!",
      "Ġ $(",
      "$% #$$$\"",
      "$! Ğ",
      "#$$ +",
      "$%% #$$#",
      "ĀĀ( Ā",
      "# $$$#",
      "' (",
      "Ġ &$$",
      "$$ $)",
      "$$% $$$#",
      "ĀĀ ę",
      "&$$$$ \"",
      "\"$$ *",
      "$) (",
      "$ğ '",
      "$$$& $$$$",
      "\"$$% $",
      "$\"# %$$#",
      "$%\" %$$#",
      "$&# #$$#",
      "Ġ$$ $!",
      "ĀĀ' Ā",
      "# %$$#",
      "Ġ $#",
      "$\" $%$$%",
      "$$$% $$$$#",
      "$#$$$$ &",
      "!$$ *",
      "$$$& $$#",
      "$$%$$$$ $$%",
      "$$$\" $$$$",
      "' *",
      "$% #$$%",
      "$# $#$$$$#",
      "$( $$$$",
      "$&% #$$%",
      "ĀĀ) Ā",
      "ğ #",
      "ğ %",
      "$% $$'",
      "$% $#$$$$#",
      "$# $",
      "$$$$$$$$ $$$%",
      "$%% %$$#",
      "$$#$$$$ $$%",
      "$$$\" $$%",
      "$##$$$$ $",
      "\" %$$$$",
      "\" $$$#",
      "' '",
      "( #",
      "( &",
      "* $$$$",
      "Ġ &$$#",
      "Ġ \"$$\"",
      "$# $&$$$$",
      "$$$$$$$$ $#",
      "$$$$$$$$ $$#",
      "$## #$$%",
      "%$$ +",
      "%$$ ĝ",
      "\"$$ Ğ",
      "\"$$ $&",
      "$Ğ #",
      "$#\" #$$#",
      "\" %$$#",
      "$ Ę",
      "( (",
      "* ĀĀ",
      "Ĝ $$",
      "ğ !",
      "Ġ %$$!",
      "$% +",
      "$% $\"$$#",
      "$$% &$$$$",
      "$& $#$$%",
      "$' Ğ",
      "$! ĝ",
      "\"$$$$ \"",
      "\"$$$$ &",
      "$#\" %$$#",
      "$\"% %$$%",
      "&% $$'",
      "' $$$$#",
      "* $$%",
      "Ğ %",
      "Ğ $$&",
      "Ġ &$$\"",
      "$# +",
      "$$# &$$#",
      "#$$$$ \"",
      "$$$# $$$$#",
      "\"$$$$ %#",
      "$#% $$$#",
      "%$$ $\"",
      "$%# %$$$$",
      "$%# #$$\"",
      "$ğ $$$$",
      "$Ğ %",
      "$%\" #$$#",
      "$#& #$$%",
      "Ġ$$ )",
      "Ġ ,",
      "Ġ $$$",
      "$% $&$$#",
      "$# $&$$#",
      "$$% #$$#",
      "$& $%$$$$",
      "$$& $$$&",
      "$$\" $$$\"",
      "$' $$$$#",
      "$Ğ !",
      "$&% $$$#",
      "&$$% $",
      "$\"# &$$#",
      "$#& %$$%",
      "$&# $$$#",
      "$%%$$$$ $",
      "\" #$$#",
      "# #$$$$",
      "' )",
      "ĝ $$%",
      "$& $%$$#",
      "$\" %$$$$",
      "$$$$$$$$ $$$$#",
      "$$$% $$&",
      "$$$# $$\"",
      "$! *",
      "$#$$$$ \"",
      "$#% #$$&",
      "$%# $$$%",
      "!$$ ğ",
      "$%& %$$%",
      "$&% %$$%",
      "%$$& $",
      "'$$ *",
      "$&\" $$$#",
      ")$$ $'",
      "# &",
      ", ĀĀ",
      "Ġ +",
      "Ġ $$$$#",
      "$% $$!",
      "$# $%$$$$#",
      "$$# #$$%",
      "$$$# $$&",
      "$! $$$$#",
      "$%$$$$ \"",
      "$( ğ",
      "$## &$$#",
      "&$$$$ &",
      "&$$ Ğ",
      "'$$ )",
      "$\"% #$$%",
      "% #$$%",
      "& #$$$$",
      "( )",
      ") %",
      "* $$\"",
      "Ġ $*",
      "$% ĝ",
      "$% &$$$&",
      "$# #$$$\"",
      "$$$$$$$$ $$$#",
      "%$$$$ %#",
      "$%% #$$&",
      "%$$ $'",
      "$%# \"$$$$",
      "&$$ ĝ",
      "$$$%$$$$ $$%",
      "ĀĀĝ Ā",
      "ĀĀĞ Ā",
      "\" ĀĀ",
      "ĝ $$&",
      "Ġ $!",
      "Ġ '$$#",
      "$% $#",
      "$% \"$$$\"",
      "$$% \"$$%",
      "$& &$$$$",
      "$\" $#$$%",
      "$$$$$$$$ $$$",
      "#$$ ĝ",
      "$#% #$$$$",
      "$#% $$$&",
      "$%# \"$$#",
      "$ğ )",
      "&$$ *",
      "$$$$$$$$$$$$ $",
      "$&# \"$$#",
      "$\"% $$$%",
      "$$$ +",
      "$$#$$$# $",
      "! $$$$%",
      "' !",
      "' $$$$%",
      "( '",
      ") $$!",
      "Ě $$",
      "Ġ ĀĀ",
      "$# $&",
      "$# \"$$$\"",
      "$& ĝ",
      "$$$$$$$$ $$$$%",
      "$%$$$$ $",
      "$#$$$$ $",
      "#$$# $",
      "$## &$$$$",
      "\"$$ +",
      "$ğ (",
      "$ğ Ğ",
      "#$$& $",
      "$Ğ \"",
      "$\"# $$$%",
      "$$$\" $$#",
      "$$%$$$% $",
      "ĀĀ% Ā!",
      "# %$$$$",
      "& ĀĀ",
      ") $$(",
      "Ğ $$\"",
      "Ġ Ĝ",
      "$$ ě",
      "$% Ĝ",
      "$$# \"$$#",
      "$\" ĝ",
      "$! $$$$%",
      "$#$$$$ $$$#",
      "#$$ $'",
      "$#% %$$#",
      "%$$ ě",
      "$ğ ğ",
      "$* \"",
      "$* (",
      "$* ğ",
      "#$$\" $",
      "$\"# #$$#",
      "$#\" &$$#",
      "($$ $(",
      "$$$#$$$$ $$%",
      "& %$$$$",
      "& #$$%",
      "( *",
      "+ $$$$",
      "ğ (",
      "Ġ ě",
      "$% $&$$$$",
      "$# $&$$%",
      "$# $%$$&",
      "$$\" #$$$$",
      "$' $$&",
      "$%$$$$ $$$%",
      "$#$$$$ $$%$$$$",
      "#$$ $",
      "#$$ Ĝ",
      "$## %$$%",
      "&$$$$ %%",
      "$%# &$$#",
      "$) ğ",
      "!$$ $",
      "$* !",
      "$Ğ '",
      "($$ $'",
      "ğ$$ $!",
      "+ )",
      "ĝ $$#",
      "Ğ $$'",
      "$# ĝ",
      "$$# $",
      "$& $$$%",
      "$\" $$!",
      "$\" \"$$$$",
      "#$$$$ $$#$$$$",
      "$$$% $$$$%",
      "$%$$$$ $$&",
      "$%$$$$ $$$#",
      "$#$$$$ $$$%",
      "$%# #$$%",
      "$) *",
      "&$$ +",
      "&$$ $\"",
      "&$$ $(",
      "%$$\" $",
      "$\"# %$$$$",
      "$\"# $$$#",
      "$#& &$$%",
      "$$$ ,",
      "($$ +",
      "$%' $$$%",
      "$#! %$$#",
      "! (",
      "% %$$$$",
      "% %$$%",
      "& %$$%",
      ") &",
      "+ $$&",
      "Ĝ #",
      "ĝ $$$$",
      "Ġ $+",
      "$% $$$$$$$$$$$$$$$$",
      "$% $#$$\"",
      "$# $#",
      "$# $%$$$$%",
      "$& $",
      "$& \"$$$$",
      "$& #$$$\"",
      "$\" $$",
      "$\" $#$$$$",
      "$$& %$$&",
      "$$\" $",
      "$$$$$$$$ $$$$$$$$$$$$",
      "#$$$$ '",
      "$! $%$$%",
      "$%$$$$ $$#$$$$",
      "$#$$$$ $$&",
      "$( +",
      "$#% $$$%$",
      "&$$$$ %#",
      "$%# %$$%",
      "\"$$ $",
      "$) )",
      "&$$ ,",
      "$%& #$$&",
      "$\"$$$$ $$%",
      "'$$% $",
      "ĀĀ# Ā!",
      ")$$ $(",
      "\" )",
      "+ ĀĀ",
      "Ĝ %",
      "ğ ğ",
      "Ġ #$$$$",
      "Ġ $%%",
      "$# ,",
      "$$% #$$&",
      "$$# $$#",
      "$$# \"$$$$",
      "#$$$$ $%",
      "$' ĝ",
      "$( Ğ",
      "$#% &$$%",
      "\"$$ ,",
      "\"$$ ĝ",
      "!$$ +",
      "!$$ Ğ",
      "$$%$$$$ $$%$$$$",
      "$Ğ &",
      "$&% %$$$$",
      "$&# %$$#",
      "$&& $$$%",
      "ğ$$ *",
      "Ā% !",
      "ĀĀ& Ā!",
      "ĀĀĜ Ā",
      "ĀĀ* Ā",
      "! ĀĀ",
      "\" *",
      "# #$$#",
      "( $$(",
      ") )",
      "+ $$'",
      "Ĝ $$%",
      "Ğ #",
      "Ġ $%#",
      "Ġ !$$#",
      "Ġ &$$!",
      "$% %$$#",
      "$% $#$$$$%",
      "$# !$$$$",
      "$$% \"$$$$",
      "$$# #$$\"",
      "$& $%$$%",
      "$\" +",
      "$$$$$$$$ $$%",
      "%$$$$ $#",
      "$' +",
      "$( *",
      "#$$ ,",
      "$#% %$$&",
      "%$$ ,",
      "\"$$ Ĝ",
      "$%& \"$$&",
      "$&% #$$$$",
      "$&% %$$#",
      "$\"# #$$$$",
      "$#& #$$&",
      "$#& %$$&",
      "$\"% $$$#",
      "Ġ$$ *",
      "$\"$$$$ &",
      "&$$\" $",
      "$&\" %$$#",
      "$%' #$$%",
      "ğ$$ )",
      "ĀĀ# Ā#",
      "ĀĀ% Ā\"",
      "ĀĀ\" Ā#",
      "ĀĀ. Ā",
      "ĀĀ/ Ā",
      "\" +",
      "# %",
      "# $$$$$$$$$$$$",
      "$ ė",
      "* '",
      "ğ $$(",
      "Ġ %$$$$",
      "Ġ \"$$#",
      "$$$$ $$\"",
      "$% $%$$$$#",
      "$% $\"$$%",
      "$# $$'",
      "$# &$$$&",
      "$$# %$$%",
      "$$& #$$&",
      "$$$$$$$$ $%",
      "ĀĀ Ę",
      "%$$$$ \"",
      "$%$$$$ %%",
      "$( $$#",
      "$%% &$$$$",
      "$#% &$$$$",
      "$## %$$\"",
      "$) +",
      "&$$# $",
      "$* '",
      "$* *",
      "$#\" #$$$$",
      "'$$ +",
      "Ġ$$ ĝ",
      "($$ ğ",
      "%# $$'",
      "$&& #$$%",
      "$&$$$$ \"",
      "'$$$$ &",
      "$\"\" #$$#",
      "ğ$$ Ğ",
      "ğ$$ ğ",
      "ĀĀ\" Ā\"",
      "ĀĀ, Ā",
      "ĀĀě Ā",
      "! )",
      "\" %$$\"",
      ") $$'",
      "* $$&",
      ", $$",
      "ę $$",
      "ě $$",
      "Ĝ ğ",
      "ĝ #",
      "Ġ $&#",
      "Ġ !$$\"",
      "$% $$",
      "$% $$(",
      "$# $\"$$%",
      "$# $'$$#",
      "$$% %$$&",
      "$$# %$$\"",
      "$& +",
      "$& \"$$$\"",
      "$\" $#$$#",
      "$\" $&$$#",
      "$\" \"$$$\"",
      "$\" &$$$&",
      "$$$$$$$$ #$$$$",
      "$$$% $$\"",
      "$$$# $$$$%",
      "$' Ĝ",
      "$' $$\"",
      "$$! %$$#",
      "$( $$%",
      "%$$ Ĝ",
      "!$$ ĝ",
      "$$$& $",
      "$%\" &$$#",
      "$&# $$$%",
      "'$$ $(",
      "Ġ$$ +",
      "($$ ĝ",
      "($$ Ğ",
      "$ĝ !",
      "$ĝ \"",
      "$ĝ '",
      "$+ !",
      "$+ %",
      "$+ &",
      "$\"\" %$$#",
      "!$$# $",
      "$$$$$$$$$$$$$$$$ $$",
      "#$$' $",
      "$'# #$$#",
      "$#%$$$$ $",
      "$Ĝ !",
      "Ġ\" $$!",
      "ĀĀ$ Ā#",
      "ĀĀ! Ā\"",
      "Ā& &",
      "\"$$$$# #",
      "% #$$$$",
      ") #",
      ") '",
      "+ $$%",
      "- $",
      "ğ \"",
      "ğ *",
      "Ġ .",
      "Ġ $$$$%",
      "$% $%$$$$%",
      "$# $\"",
      "$& $\"$$%",
      "$$& $$#",
      "$$\" $$%",
      "$$\" %$$$$",
      "%$$$$ $$#$$$$",
      "%$$$$ &%",
      "$$$# $$$$%#",
      "$#$$$$ $$#$$$$",
      "$#$$$$ $$$%$$$$",
      "%$$% $\"",
      "$%% %$$&",
      "$%% $$$%$",
      "\"$$$$ %%",
      "$#% #$$#",
      "$## $$$#$",
      "$%# %$$\"",
      "$* )",
      "$Ğ ğ",
      "$%\" #$$\"",
      "$#& %$$$$",
      "Ġ$$ Ğ",
      "$ĝ #",
      "$+ #",
      "$%$$$$# $",
      "$\"& %$$%",
      "ĀĀ# Ā\"",
      "ĀĀ% Ā#",
      "ĀĀ$ ĀĞ",
      "ĀĀ! Ā#",
      "Ġ! $$!",
      "$#$$$$$$$$ $$$",
      "! ĝ",
      ") \"",
      "+ $$#",
      "Ğ )",
      "Ġ !$$",
      "$% $&$$%",
      "$% $#$$&",
      "$% $%$$\"",
      "$# $#$$$$%",
      "$$% &$$%",
      "$$\" $$#",
      "$$\" %$$\"",
      "ĀĀ ė",
      "$$$% $\"",
      "$$$# $#%",
      "$' %$$$$",
      "#$$ ě",
      "$#% \"$$%",
      "$## #$$\"",
      "$ğ *",
      "&$$ $)",
      "$%& #$$$$",
      "$%& \"$$%",
      "$$$$$$$$$$$$ $%$$$$",
      "$$$$$$$$$$$$ $$$",
      "$\"# %$$%",
      "$#\" %$$$$",
      "$%\" %$$\"",
      "'$$ ĝ",
      "Ġ$$ ,",
      "\"$$& $",
      "$ĝ ĝ",
      "$&\" %$$\"",
      "ĀĀ# Ā'",
      "$#$$$$% $",
      "$Ĝ #",
      "ĀĀ$ Ā'",
      "ĀĀ! Ā!",
      "Ġ' $$!",
      "#$$$$$$$$ $$$",
      "\" ğ",
      "& ,",
      "' #$$%",
      "' %$$%",
      "( !",
      "( ĀĀ",
      "( $$$$#",
      "+ %",
      "- $$",
      "ĝ \"",
      "ĝ &",
      "Ġ -",
      "$$ $ğ",
      "$# $'",
      "$# $%$$$$$$$$",
      "$$% $$$\"",
      "$$% &$$&",
      "$& $\"$$#",
      "$\" ,",
      "$\" ě",
      "$\" #$$#",
      "$\" $&$$%",
      "$$$$$$$$ %%",
      "#$$$$ $$$%",
      "#$$$$ $#$$$$",
      "$' $#$$$$",
      "$' #$$$\"",
      "$$' $",
      "$$' %$$&",
      "$%$$$$ #$$%",
      "$( $$\"",
      "\"$$$$ !",
      "\"$$$$ &#",
      "$## \"$$%",
      "$$$& $$%",
      "$$%$$$$ $$#$$$$",
      "$%& %$$&",
      "$Ğ (",
      "$Ğ Ğ",
      "$&% \"$$%",
      "$%\" &$$\"",
      "$%\" !$$#",
      "$\"% %$$&",
      "#$$$$# $%$$$$",
      "Ġ$$ Ĝ",
      "$ĝ &",
      "$\"$$$$ $$#",
      "$&& #$$$$",
      "$&$$$$ &",
      "$&$$$$ $$%",
      "$&\" #$$#",
      "$!# %$$#",
      "$'% $$$%",
      "#$$$$% %$$$$",
      "$, \"",
      "$, %",
      ")$$ Ğ",
      "$$$' $$$$",
      "&$$$$# %",
      "Āğ \"",
      "\" \"$$$$",
      "% $$$$$$$$$$$$",
      "+ ,",
      ", $$#",
      ". $$",
      "Ě $$$$",
      "ě $$$$",
      "Ğ ğ",
      "Ğ $$(",
      "Ġ %$$%",
      "$% $!$$$$",
      "$% $&$$&",
      "$$# $$%",
      "$& $\"$$$$",
      "$& %$$$&",
      "$\" $$'",
      "$\" %$$#",
      "$\" %$$$&",
      "$$& \"$$%",
      "$$& &$$%",
      "$$\" #$$\"",
      "#$$$$ &%",
      "ĀĀ Ė",
      "%$$$$ $$%$$$$",
      "$$$% $#",
      "$$$% $$$$$$$$$$$$",
      "$' $",
      "$' #$$$$",
      "$! $$\"",
      "$$! $$$\"",
      "$#$$$$ $$\"",
      "$#$$$$ %#",
      "#$$ $ğ",
      "$%% &$$%",
      "\"$$$$ \"#",
      "$#% $$$'",
      "$%# $$$#$",
      "$$$$% %$$$$",
      "$\"# #$$%",
      "$&# #$$\"",
      "$\"% %$$$$",
      "$\"% %$$#",
      "$\"% \"$$%",
      "$\"% &$$%",
      "$$$ ĝ",
      "($$ *",
      "($$ $)",
      "$#$$# $",
      "$+ '",
      "$+ )",
      "$&& #$$&",
      "$\"\" &$$#",
      "!$$% $",
      "#$$! $",
      "$&\" \"$$#",
      "Ā# (",
      "ĀĀ# Ā&",
      "#$$$$% $%$$$$",
      "Ā! #",
      "$%#$$$$ $",
      "\"$$' $",
      "Ā% \"",
      "Ā% &",
      "Ā% )",
      "$\"! %$$#",
      "$$$%$$# $",
      "\"$$$$# %",
      "ĀĀ+ Ā",
      "% *",
      ") ĀĀ",
      ") $$ğ",
      "* #",
      "* $$'",
      "+ #",
      "+ $$\"",
      "Ĝ $$$$",
      "ĝ $$\"",
      "ĝ $$!",
      "ğ &",
      "Ġ /",
      "Ġ $%&",
      "Ġ '$$",
      "Ġ $'%",
      "Ġ $'#",
      "Ġ $#!",
      "$% ě",
      "$# &$$",
      "$# $$$$$$$$$$$$$$$$",
      "$# $'$$$$",
      "$$# &$$$$",
      "$& #$$%",
      "$& %$$%",
      "$\" \"$$",
      "$$\" &$$#",
      "$$\" \"$$#",
      "$$$$$$$$ %$$$$",
      "#$$$$ !",
      "ĀĀ Ĕ",
      "%$$$$ '",
      "$$$# $\"",
      "$$$# $$$$##",
      "$' $#$$#",
      "$$! #$$#",
      "$$' $$$$",
      "$%$$$$ '",
      "$#$$$$ %$$%",
      "$( $",
      "#$$# $\"",
      "$%% \"$$#",
      "$%% !$$%",
      "$#% &$$#",
      "$#% '$$%",
      "$## \"$$#",
      "\"$$ -",
      "$* $",
      "$&% #$$#",
      "$%\" \"$$#",
      "$$$ .",
      "#$$$$# #$$$$",
      "$ĝ ğ",
      "$\"$$$$ \"",
      "$\"$$$$ '",
      "$+ \"",
      "$&$$$$ $$#",
      "$!# $$$%",
      "ğ$$ Ĝ",
      "$\"& &$$%",
      "Ġ$$$$ &",
      "$%! $$$#",
      "%$$$$% \"",
      "ĀĀ$ Ā!",
      "ĀĀ$ Ā(",
      "Ā% '",
      "Ā% *",
      "ĀĀ& Ā#",
      "Ā' &",
      "$'& $$$%",
      "$#$$$$$$$$ $$$%",
      "$%$$$$$$$$ $$$",
      "ĀĀĚ Ā",
      "ĀĀę Ā",
      "! ,",
      "! %$$#",
      "! #$$#",
      "# '",
      "% \"",
      "( ,",
      "* ,",
      "* $$!",
      "ě %",
      "Ĝ &",
      "Ğ $$ğ",
      "ğ '",
      "ğ Ğ",
      "Ġ $#\"",
      "Ġ $%\"",
      "Ġ $,",
      "Ġ '$$\"",
      "Ġ $$$$#%",
      "$% $&",
      "$% \"$$",
      "$% \"$$%",
      "$% #$$$&",
      "$% $\"$$&",
      "$# $(",
      "$# #$$%",
      "$# $$(",
      "$# '$$$$",
      "$# #$$$&",
      "$# $&$$&",
      "$$% $$$'",
      "$$# !$$$$",
      "$& $&$$#",
      "$& $#$$&",
      "$\" $$$#",
      "$$& $",
      "$$$# $&",
      "$$$# $%%",
      "$' $$!",
      "$' $\"$$%",
      "$! $&",
      "$! $$'",
      "$$! $",
      "$$' $$$%",
      "$%$$$$ %$$%",
      "$%% \"$$$$",
      "$%% &$$#",
      "$#% %$$\"",
      "$## \"$$$$",
      "$## &$$%",
      "%$$ $",
      "&$$$$ '",
      "$ğ ĝ",
      "!$$ -",
      "$%& $$%",
      "$%& $$$#",
      "$Ğ $$$$",
      "$&% #$$&",
      "$\"# %$$\"",
      "$#\" %$$\"",
      "($$ ě",
      "%$$$$# #$$$$",
      "$ĝ (",
      "!$$$$ &",
      "$+ ğ",
      "$&& %$$%",
      "\"$$\" $",
      "&$$& $",
      "&% #$$$$",
      "ĀĀ# Ā)",
      "Ā\" &",
      "Ā\" )",
      "#$$$$% &",
      "%$$' $",
      "ĀĀ% Ā&",
      "$#' %$$%",
      "$#' $$$&",
      "$Ĝ \"",
      "ĀĀ\" Ā(",
      "$$$! $$%",
      "#$$( $",
      "$%$$$$$$$$ $$$$$$$$$$$$",
      "ĀĀğ Ā#",
      "ĀĀğ Ā!",
      "$$\"$$$$ $$#",
      "*$$ $(",
      "%$$$$$$$$ $#",
      "! +",
      "\" Ĝ",
      "\" Ğ",
      "% &",
      "% $$$%$",
      "' ĀĀ",
      "' $$$%",
      "' $$$$#%",
      "* (",
      "- +",
      "- $$#",
      ". ,",
      "ě ĝ",
      "ě ğ",
      "Ġ \"$$$$",
      "Ġ $ğ",
      "Ġ ğ$$",
      "Ġ ($$#",
      "Ġ #$$ğ",
      "$$ Ě",
      "$% $%",
      "$% $\"",
      "$% $!$$%",
      "$% &$$$'",
      "$# Ĝ",
      "$# $$",
      "$# $\"$$#",
      "$# $!$$%",
      "$& $!",
      "$& $#$$\"",
      "$\" &$$$$",
      "$\" $&$$$$",
      "$\" #$$$\"",
      "$\" $#$$&",
      "$$& #$$$$",
      "$$& \"$$&",
      "$$\" #$$%",
      "ĀĀ ē",
      "%$$$$ $##$$$$",
      "$$$# $$$$%%",
      "$! +",
      "$! $%$$&",
      "$! %$$$&",
      "$$! #$$\"",
      "$$' %$$%",
      "$$' $$$&",
      "$%$$$$ $$%$$$$",
      "$%$$$$ $$$%$$$$",
      "$( ,",
      "$( ĝ",
      "#$$ -",
      "#$$ .",
      "$%% $$$$$$$$$$$$",
      "$#% \"$$$$",
      "$#% %$$$$#",
      "$## %$$$$#",
      "$## &$$\"",
      "$## %$$$$%",
      "%$$ Ě",
      "&$$$$ (",
      "&$$$$ $$%",
      "$%# #$$&",
      "$%# \"$$\"",
      "$) $$$$",
      "&$$ Ě",
      "$$$$# #$$$$",
      "!$$ ,",
      "!$$ $ğ",
      "$$$& $$\"",
      "$%& &$$%",
      "$%& !$$%",
      "$Ğ )",
      "$$#$$$$ $$#$$$$",
      "$&% \"$$$$",
      "$\"# &$$$$",
      "$&# #$$$$",
      "$$$\" $",
      "'$$ Ĝ",
      "#$$$$# &",
      "%% $$'",
      "$\"$$$$ !",
      "$\"$$$$ $$&",
      "$#$$% $",
      "$&& &$$%",
      "$\"\" $$$#",
      "$\"\" %$$\"",
      "\"$$\" $\"",
      "$$$$$$$$$$$$$$$$ $$$",
      "%$$! $",
      "$%' $$$&",
      "$!# #$$$$",
      "$!# %$$%",
      "$!# \"$$#",
      "$\"& #$$%",
      "Ā# #",
      "ĀĀ# Ā%",
      "Ā\" #",
      "Ā\" +",
      "#$$$$% $#$$$$",
      "$%! #$$\"",
      "ĀĀ% Āğ",
      "$!% %$$%",
      ")$$ )",
      ")$$ *",
      "ĀĀ\" Ā!",
      "$\"! $$$#",
      "$&' $$$%",
      "$&' #$$&",
      "Ā& #",
      "\"# %$$$$",
      "Ā( &",
      "$$$#$$# %$$#",
      "\"% %$$%",
      "$!$$$$ &",
      "\"\" %$$#",
      "#$$$$$$$$ $$$%",
      "$#$$$$$$$$$$$$ $",
      "! $",
      "! *",
      "! Ğ",
      "! $$$#",
      "! $$$$#%",
      "\" #$$$$",
      "\" &$$#",
      "# Ğ",
      "$ ĕ",
      "% )",
      "( ĝ",
      "* $$(",
      "* $$ğ",
      "+ !",
      ", $$%",
      "Ā .",
      "ě $$%",
      "ě $$#",
      "Ğ $$)",
      "Ğ $$Ğ",
      "Ġ Ě",
      "Ġ $$$&",
      "Ġ !$$$$",
      "Ġ $&&",
      "Ġ $&\"",
      "Ġ $#'",
      "$$ .",
      "$% ,",
      "$% $$$#",
      "$% '$$$$",
      "$% $#$$$$$$$$",
      "$% !$$$!",
      "$# $\"$$$$",
      "$# $#$$&",
      "$$% $$$$$$$$$$$$",
      "$$# \"$$%",
      "$$# \"$$\"",
      "$$# %$$$$%",
      "$$# $$$!",
      "$& ě",
      "$& Ĝ",
      "$$& %$$$$",
      "$$& &$$&",
      "$$\" $$$!",
      "$$$$$$$$ %#",
      "%$$$$ $&",
      "%$$$$ &#",
      "$$$% $$$$%%",
      "$$$# $$$$#%",
      "$! #$$$$",
      "$! \"$$$$",
      "$! $&$$#",
      "$$! $$$$",
      "$$! $$$#",
      "$$! %$$\"",
      "$$' #$$%",
      "$$' #$$&",
      "$%$$$$ $$\"",
      "$%$$$$ #$$#",
      "$%$$$$ $$$&",
      "$#$$$$ %$$#",
      "\"$$$$ '",
      "\"$$$$ $$%",
      "\"$$$$ $$#",
      "$#% \"$$&",
      "$#% !$$%",
      "$#% &$$&",
      "$#% #$$'",
      "$#% %$$'",
      "%$$ .",
      "%$$ $!",
      "$%# \"$$%",
      "\"$$ .",
      "\"$$ $Ğ",
      "&$$ -",
      "&$$ ě",
      "&$$ Ĝ",
      "!$$ ě",
      "!$$ Ĝ",
      "!$$ $&",
      "$* $$$$",
      "$$%$$$$ $$$#$$$$",
      "$Ğ $$#",
      "$#\" \"$$#",
      "$#& \"$$%",
      "$&# %$$$$",
      "$&# #$$%",
      "$&# %$$\"",
      "$&# &$$\"",
      "$$$\" $$$$#",
      "$$$ ě",
      "%$$$$# &",
      "$\"\" $$$%",
      "$$$#$$$$ $",
      "$!# &$$#",
      "ğ$$ $ğ",
      "$'% $$$#",
      "$'% \"$$%",
      "&% #$$%",
      "$'# $$$#",
      "$$#$$$# $$#",
      "Ā# &",
      "Ā\" Ğ",
      "$%! #$$#",
      "$!% #$$%",
      "$, '",
      "$, (",
      "$#' &$$%",
      ")$$ +",
      "$Ĝ %",
      "$Ĝ (",
      "ĀĀ$ Ā%",
      "ĀĀ\" Ā'",
      "ĀĀ! Āĝ",
      "ĀĀ& Āğ",
      "ĀĀ& Ā)",
      "$\"' #$$&",
      "Ā' %",
      "$&' #$$%",
      "$$$' $$#",
      "Ā& !",
      "$&! #$$#",
      "$$$%$$% $",
      "\"# %$$#",
      "Ġ% $$$%",
      "$'& \"$$%",
      "$$$! $$$$",
      "$'' %$$&",
      "$!& %$$%",
      "&$$$$# #",
      "Ā) #",
      "Ğ$$ ,",
      "! #$$!",
      "! $$$$%#",
      "# %$$\"",
      "% ğ",
      "& ĝ",
      "& &$$%",
      "& \"$$&",
      "' ,",
      "' $$$$%%",
      "( $$$$%",
      ") ,",
      "* )",
      "- \"",
      "- ,",
      "- ĀĀ",
      "ě $$&",
      "Ĝ *",
      "ĝ $$(",
      "Ğ Ğ",
      "ğ ĝ",
      "ğ %$$\"",
      "ğ #$$\"",
      "Ġ &$$$$",
      "Ġ !$$%",
      "Ġ ($$\"",
      "Ġ $(!",
      "$$ -",
      "$$ /",
      "$$$$ $",
      "$% &$$",
      "$% $%$$$$$$$$",
      "$% $%$$&",
      "$% #$$%$",
      "$% !$$$\"",
      "$% $!$$&",
      "$# -",
      "$# #$$$$#",
      "$# $$$#$",
      "$# $#$$\"",
      "$# $\"$$&",
      "$$% %$$\"",
      "$$% #$$$$#",
      "$$% \"$$&",
      "$$% '$$$$",
      "$$% %$$'",
      "$$% %$$$$%",
      "$$% ($$%",
      "$$# $$$$$$$$$$$$",
      "$$# !$$#",
      "$$# #$$$$%",
      "$& -",
      "$& $&$$$$",
      "$& $!$$%",
      "$\" Ĝ",
      "$$\" $$$%",
      "$$\" &$$\"",
      "#$$$$ $$\"",
      "#$$$$ '%",
      "%$$$$ \"%",
      "$$$% $$%$$$%",
      "$' ,",
      "$' $$$$%",
      "$' $%$$#",
      "$' %$$$&",
      "$! Ĝ",
      "$%$$$$ !",
      "$#$$$$ '",
      "$#$$$$ $%$$$$",
      "$#$$$$ #$$#",
      "$( -",
      "%$$% $!",
      "$%% %$$\"",
      "$%% $$$'",
      "$#% $$$%$$#",
      "$#% &$$$$#",
      "$#% %$$%$",
      "$## #$$&",
      "$## #$$$$#",
      "%$$ -",
      "&$$$$ $\"",
      "&$$$$ \"#",
      "$%# !$$$$",
      "$%# !$$#",
      "\"$$ $'",
      "$ğ +",
      "&$$ $",
      "&$$ .",
      "$$$& $$&",
      "$$$& $$$$#",
      "$%& %$$$$",
      "$Ğ +",
      "$Ğ ĝ",
      "$$#$$$$ $$%$$$$",
      "$&% \"$$#",
      "$&% %$$&",
      "$#\" %$$%",
      "$%\" $$$%",
      "$#& $$$#",
      "$#& %$$#",
      "$#& \"$$&",
      "$&# \"$$%",
      "$&# \"$$\"",
      "$&# #$$!",
      "'$$ .",
      "$\"% #$$$$",
      "$\"% '$$%",
      "Ġ$$ $Ğ",
      "%% $$!",
      "%% #$$%",
      "%$$$$# \"",
      "%$$$$# $%$$$$",
      "$$$%$$$$ &",
      "$$$%$$$$ $$",
      "%# %$$#",
      "$+ (",
      "$+ +",
      "$+ Ğ",
      "$&$$$$ $$&",
      "$&$$$$ $$\"",
      "$\"\" %$$$$",
      "$%%$$$$ %",
      "$%%$$$$ $%%$$$$",
      "$$$$$$$$$$$$$$$$ $$$$$$$$$$$$$$$$",
      "#$$' $\"",
      "$'% %$$$$",
      "$#$$$$# $",
      "$\"& %$$#",
      "$\"& #$$&",
      "$\"& %$$&",
      "ĀĀ# ĀĞ",
      "ĀĀ# Āĝ",
      "Ā\" !",
      "$%! %$$\"",
      "$#! $$$#",
      "$#! #$$#",
      "$#! %$$\"",
      "$, !",
      "$, ğ",
      "$#' $$$%",
      "$#' #$$&",
      "$#$$$$% %$$$$",
      "$Ĝ &",
      "Ġ$$# $",
      "!$$\" $&",
      "ĀĀ\" ĀĞ",
      "Ġ$$% $",
      "ĀĀ! Ā&",
      "ĀĀ! ĀĞ",
      "ĀĀ& Ā(",
      "'$$& $",
      "$$$' $$%",
      "Ā& \"",
      "$$) $",
      "$&! %$$#",
      "($$# $",
      "$$Ğ $",
      "ĀĀ' Ā'",
      "$!& $$$%",
      "$- #",
      "Ā) '",
      "$!! $$$#",
      "$(\" #$$#",
      "Ğ$$ $ğ",
      "$$%#$$% $",
      "Ġğ $$#",
      "$#$%$$% $",
      "%$$$$$$# $$$$#",
      "$$##$$# $",
      "#$$$$## %$$$$",
      "%$$$$## %$$#",
      "$$$$$$$$$$$$$$$$$$$$$$$$ $",
      "ĀĀĘ Ā",
      "! Ě",
      "! ğ",
      "! &$$#",
      "! $$$$%%",
      "\" $%$$$$",
      "# ě",
      "# ğ",
      "% ĝ",
      "% $$$#",
      "& %$$&",
      "' $$$&",
      "* !",
      "+ '",
      "+ *",
      "+ $$(",
      "- %",
      ". -",
      ". ĀĀ",
      "Ě $$%",
      "Ĝ $$#",
      "Ĝ ĀĀ",
      "Ĝ $$!",
      "Ĝ $$'",
      "Ġ $$$%",
      "Ġ ($$",
      "Ġ $%!",
      "Ġ $&$$#",
      "Ġ Āğ",
      "Ġ $-",
      "Ġ $&$$%",
      "Ġ $$$$%%",
      "Ġ $\"(",
      "Ġ \"$$ğ",
      "$$ $Ğ",
      "$% $!",
      "$% $$$%$",
      "$% $\"$$\"",
      "$# ě",
      "$# \"$$#",
      "$# $$$\"",
      "$# '$$$'",
      "$$% &$$#",
      "$$# &$$%",
      "$$# #$$$$#",
      "$& $#$$$$#",
      "$& $%$$&",
      "$& #$$$!",
      "$& $#$$!",
      "$\" $&",
      "$\" $\"$$$$",
      "$\" $%$$$$#",
      "$\" $\"$$%",
      "$\" $\"$$#",
      "$\" $%$$&",
      "$$\" '$$#",
      "#$$$$ $$&",
      "#$$$$ $$$#",
      "#$$$$ $%$$$$",
      "#$$$$ $$$%$$$$",
      "#$$$$ &#",
      "#$$$$ \"&",
      "%$$$$ $$\"",
      "$$$% $$#$$$$",
      "$$$% $$$$##",
      "$' &$$$$",
      "$! $%$$#",
      "$! !$$$$",
      "$$! $$$",
      "$$! &$$\"",
      "$$! #$$!",
      "$$' $$$'",
      "#$$% $$$$",
      "#$$ ę",
      "#$$ $Ğ",
      "$%% \"$$&",
      "$%% #$$'",
      "$%% #$$$$%",
      "$%% %$$$$%",
      "\"$$$$ (",
      "$#% '$$#",
      "$## $$$$$$$$$$$$",
      "$## '$$$$",
      "&$$$$ $$%$$$$",
      "$%# &$$$$",
      "$%# '$$#",
      "$%# %$$#$",
      "\"$$ /",
      "$) Ğ",
      "!$$ .",
      "!$$ ę",
      "$$$& $$$$%",
      "$* +",
      "$* ,",
      "$%& %$$#",
      "$Ğ *",
      "$&% \"$$&",
      "$$( $",
      "$$( $$$'",
      "#$$\" $$#",
      "%$$& $#&",
      "$$$$$$$$$$$$ $$$#",
      "$\"# \"$$#",
      "$\"# &$$%",
      "$#\" #$$%",
      "$#\" '$$#",
      "$%\" #$$$$",
      "$%\" %$$$$",
      "$%\" #$$!",
      "$$$ -",
      "Ġ$$ -",
      "%% %$$%",
      "($$ /",
      "$ĝ %",
      "$ĝ )",
      "%# $$$#",
      "$&& \"$$&",
      "$&$$$$ '",
      "$\"\" #$$%",
      "$\"\" '$$$$",
      "$$$#$$$$ $$#$$$$",
      "$%' %$$%",
      "$%' #$$&",
      "$!# $$$#",
      "$!# #$$%",
      "ğ$$ +",
      "ğ$$ Ě",
      "ğ$$ ĝ",
      "$'# %$$#",
      "$'# #$$\"",
      "$#$$$$# $%$$$$",
      "ĀĀ# Āğ",
      "Ā\" ĝ",
      "$$%$$$% $$%",
      "$#' #$$%",
      "$#' #$$'",
      "ĀĀ$ Āğ",
      "Ā% ğ",
      "$%$$$$% $",
      "Ġ# %$$%",
      "ĀĀ& ĀĞ",
      "ĀĀ& Āĝ",
      "$\"' &$$&",
      "$&' %$$%",
      "$$$%$$% #$$%",
      "\"# $$$#",
      "$'' #$$%",
      "Ġ$$\" $",
      "$$$#$$# $",
      "ĀĀ' Ā!",
      "ĀĀ' Ā(",
      "\"% #$$%",
      "$#( $$$&",
      "&& #$$%",
      "\"\" $$$#",
      "Ā* &",
      "ĀĀĝ Ā'",
      "$$$$%# $$$#",
      "*$$ ,",
      "$#%#$$% $",
      "%$$$$$$$$ $$$%",
      "%$$$$$$$$ $$$",
      "$$$$$$# $",
      "%$$$$## %$$$$",
      "ĀĀ- Ā",
      "\" $$$$$$$$",
      "# )",
      "# ,",
      "% Ğ",
      "& $",
      "& -",
      "& #$$&",
      "& $#$$#",
      "( ě",
      ") !",
      ") $$$$#",
      "* \"",
      "+ (",
      "+ $$ğ",
      ", ,",
      ". )",
      ". *",
      ". +",
      "/ #",
      "Ĝ Ğ",
      "Ĝ $$&",
      "Ĝ $$\"",
      "Ĝ $$)",
      "ĝ $",
      "ĝ ĀĀ",
      "Ğ *",
      "ğ )",
      "ğ Ě",
      "Ġ ę",
      "Ġ \"$$%",
      "Ġ $\"%",
      "Ġ $\"&",
      "Ġ $&!",
      "Ġ $'!",
      "$$$$ $$&",
      "$% $'",
      "$% #$$#",
      "$% $\"$$$$%",
      "$% $!$$#",
      "$% $&$$\"",
      "$# %$$%",
      "$# &$$#",
      "$# &$$$'",
      "$# \"$$$!",
      "$# #$$$!",
      "$# \"$$$&",
      "$$% \"$$#",
      "$$% !$$$$",
      "$$% #$$'",
      "$$% #$$$$%",
      "$$# $$$$$$$$",
      "$$# $$$$%",
      "$$# ($$#",
      "$& $$!",
      "$& !$$",
      "$& &$$$&",
      "$& &$$$'",
      "$\" $",
      "$\" -",
      "$\" Ě",
      "$\" $\"",
      "$\" %$$",
      "$\" !$$$$",
      "$\" $#$$\"",
      "$\" &%$$'",
      "$$& &$$#",
      "$$& $$$'",
      "$$\" #$$&",
      "#$$$$ $$%$$$$",
      "#$$$$ $%%$$$$",
      "#$$$$ $$%%$$$$",
      "#$$$$ !#",
      "%$$$$ $$$%",
      "%$$$$ $$$#$$$$",
      "$$$# $$$$$$$$$$$$",
      "$' Ě",
      "$' $&$$#",
      "$' $%$$\"",
      "$! %$$$$",
      "$! $%$$$$",
      "$! \"$$$\"",
      "$$! \"$$#",
      "$$' &$$%",
      "$$' #$$'",
      "$$' !$$&",
      "$$' &$$'",
      "$#$$$$ !",
      "$#$$$$ $$%#$$$$",
      "$( $$",
      "$( #$$$$",
      "$( &$$$$",
      "#$$ /",
      "#$$ Ě",
      "$%% %$$$$#",
      "$%% !$$$$",
      "$%% %$$'",
      "$%% $$$#$",
      "\"$$$$ $\"",
      "\"$$$$ $'",
      "\"$$$$ !\"",
      "$#% $$$$$$$$$$$$",
      "$#% '$$$$",
      "$## %$$&",
      "$## ($$#",
      "&$$$$ $",
      "$%# $$&",
      "$%# #$$$$#",
      "$%# &$$\"",
      "$%# !$$%",
      "$%# &$$!",
      "\"$$ $ğ",
      "$) ĝ",
      "$ğ ě",
      "$ğ Ĝ",
      "$ğ $$#",
      "$$$$% !",
      "!$$ /",
      "$* ĝ",
      "$%& \"$$#",
      "$%& &$$&",
      "$Ğ Ĝ",
      "$&% &$$$$",
      "$&% &$$%",
      "$&% !$$%",
      "$&% '$$#",
      "$$$$$$$$$$$$ $%",
      "$\"# #$$\"",
      "$\"# '$$#",
      "$#\" &$$$$",
      "$#\" &$$\"",
      "$#\" $$$#$",
      "$%\" \"$$\"",
      "$%\" '$$\"",
      "$#& '$$%",
      "$&# %$$!",
      "$$$ ę",
      "Ġ$$ Ě",
      "Ġ$$ ě",
      "($$ Ĝ",
      "$\"$$$$ $$",
      "$\"$$$$ $$\"",
      "$$$%$$$$ $$#$$$$",
      "%# $$!",
      "$+ ĝ",
      "$&& \"$$%",
      "$&$$$$ $$\"$$$$",
      "'$$$$ $",
      "'$$$$ &#",
      "$\"\" &$$\"",
      "$\"\" '$$\"",
      "$%%$$$$ $$#$$$$",
      "#$$! $%",
      "$&\" &$$\"",
      "$%' \"$$%",
      "$%' &$$%",
      "$%' %$$&",
      "$%' \"$$&",
      "$%' %$$'",
      "$!# \"$$%",
      "$'% %$$#",
      "$'% #$$%",
      "$'% %$$&",
      "&% %$$%",
      "$'# #$$$$",
      "$'# &$$#",
      "$'# \"$$#",
      "$'# %$$\"",
      "$\"& $$$%",
      "Ā# !",
      "Ā# %",
      "ĀĀ# Ā(",
      "Ā\" %",
      "$%! %$$#",
      "$%! &$$#",
      "$$%$$$% $$$$$$$$",
      "$#! #$$\"",
      "$#! \"$$\"",
      "ĀĀ% Ā%",
      "ĀĀ% Āĝ",
      "ĀĀ% Ā+",
      "$!% &$$$$",
      "$!% &$$%",
      "%$$$$% %$$$$",
      "$, #",
      "$#$$$$% $$$$$$$$",
      ")$$ ĝ",
      "!$$& $",
      "ĀĀ\" Āğ",
      "ĀĀ! Ā'",
      "ĀĀ! Āğ",
      "ĀĀ! Ā)",
      "$\"' $$$%",
      "$\"' %$$&",
      "$\"! %$$\"",
      "&$$! $",
      "$&' $$$&",
      "$&' &$$%",
      "$'\" $$$#",
      "$'\" %$$#",
      "$'\" #$$#",
      "$$$%$$% %$$$$",
      "$!\" $$$%",
      "$!\" %$$#",
      "$!\" %$$%",
      "Ġ% &$$%",
      "$'& #$$%",
      "$$$! $$#",
      "$%( $$$&",
      "Ā( )",
      "ĀĀ' ĀĞ",
      "$!& #$$&",
      "$ě ğ",
      "\"% %$$$$",
      "\"% $$$%",
      "&$$$$# \"",
      "$#$$$$$$$$ $$$$$$$$$$$$",
      "($$% $",
      "Ā) &",
      "$&( %$$%",
      "%$$( $",
      "$$$$## %$$#",
      "$$* $",
      "$$$$#% $$$%",
      "Ğ$$ +",
      "Ğ$$ ĝ",
      "$$\"$$$$ $",
      "$$$#$$$$$$$$ $$$",
      "$%%#$$% $",
      "\"$$$$% \"",
      "ĀĀ) Ā&",
      "%$$ğ $",
      "($$& $",
      "ĀĀĝ Āğ",
      "#$$) $",
      "$$%%$$% $",
      "ĀĀĞ Ā!",
      "$#$%$$# $",
      "*$$ -",
      "$. &",
      "&$$$$% \"",
      "$$&$$$$ $",
      "+$$ +",
      "$#$$$$$$% $$$$#",
      "Ā, \"",
      "Ġ%$$ Ğ",
      "#$$$$#% #$$%",
      "$%$$$$$$$$$$$$ $",
      "! #$$$$",
      "! $%$$$$",
      "! !$$#",
      "! $$$$%\"",
      "\" $",
      "\" ,",
      "\" ě",
      "\" \"$$#",
      "\" #$$\"",
      "# ĝ",
      "# #$$\"",
      "# #$$$$#",
      "# $$$#$$$$$$$$",
      "% #$$#",
      "% #$$&",
      "% &$$%",
      "% $$$$$$$$$$$$$$$$",
      "& ğ",
      "& $$$#",
      "& '$$%",
      "' $",
      "' -",
      "' %$$#",
      "' &$$$$",
      "( +",
      "( -",
      "( $$$$%&",
      "* &",
      ", $$$$",
      "- #",
      "- Ğ",
      ". %",
      ". $$#",
      "Ā Ě",
      "Ę $$",
      "ę Ě",
      "ę $$\"",
      "ě $",
      "ě '",
      "ě $$'",
      "Ĝ \"",
      "Ĝ Ě",
      "Ĝ $$(",
      "Ĝ $$ğ",
      "ĝ $$'",
      "ĝ $$)",
      "Ğ !",
      "Ğ ,",
      "ğ $$$$#",
      "ğ $$$",
      "ğ %$$!",
      "Ġ 0",
      "Ġ $%$$%",
      "Ġ Ā!",
      "Ġ )$$",
      "Ġ Ā&",
      "Ġ $%(",
      "Ġ $''",
      "Ġ $ě",
      "Ġ &$$$&",
      "Ġ *$$",
      "$$ Ę",
      "$$ ę",
      "$% -",
      "$% $$$&",
      "$% \"$$#",
      "$% $$)",
      "$% $#$$!",
      "$# $ğ",
      "$# !$$",
      "$# $#$$$$$$$$",
      "$# $&$$$$%",
      "$# $&$$$$#",
      "$# !$$$\"",
      "$# $#$$!",
      "$# $'$$%",
      "$$% #$$\"",
      "$$% !$$%",
      "$$# $$$&",
      "$$# '$$\"",
      "$& ,",
      "$& $$",
      "$& $\"",
      "$& $$$&",
      "$& $%$$$$#",
      "$& $%$$\"",
      "$& \"$$$!",
      "$& $&$$\"",
      "$\" $$$$$$$$",
      "$\" !$$$\"",
      "$\" %$$$'",
      "$$& %$$#",
      "$$& #$$#",
      "$$& %$$'",
      "$$\" $\"",
      "$$\" \"$$$$",
      "$$\" '$$\"",
      "$$$$$$$$ $%$$$$",
      "$$$$$$$$ $#$$$$",
      "#$$$$ \"#",
      "#$$$$ !!",
      "ĀĀ Ē",
      "%$$$$ $$$#",
      "%$$$$ $#%$$$$",
      "%$$$$ &\"",
      "%$$$$ '&",
      "$$$# $$!",
      "$' $$$%",
      "$' %$$%",
      "$' $#$$%",
      "$! ,",
      "$! -",
      "$! $#$$$$",
      "$! $#$$%",
      "$! $&$$$$",
      "$! $$ğ",
      "$$! $$&",
      "$$! $$$!",
      "$%$$$$ %$$#",
      "$#$$$$ (",
      "$#$$$$ $$%%$$$$",
      "$( $#$$\"",
      "$%% #$$\"",
      "$%% $$$%$$#",
      "\"$$$$ $&",
      "\"$$$$ $$&",
      "$#% $$$\"",
      "$#% #$$$$#",
      "$#% #$$$$##",
      "$## $$\"",
      "$## $$$$$$$$",
      "$## %$$",
      "$## !$$%",
      "$## '$$#",
      "$## %$$!",
      "$## $$$#$$$$$$$$",
      "&$$$$ )",
      "&$$$$ $##$$$$",
      "$%# &$$%",
      "$%# %$$&",
      "$%# $$$$$$$$$$$$",
      "$%# '$$$$",
      "$%# #$$!",
      "$%# %$$!",
      "$%# \"$$$$%",
      "\"$$ Ě",
      "$) ,",
      "$) ę",
      "$ğ -",
      "&$$ $!",
      "$$$$% $",
      "$$$$% #$$$$",
      "$$$$% $$$$$$$$$$$$",
      "\"$$% $!",
      "$$%$$$$ $%#$$$$",
      "$%& #$$#",
      "$%& \"$$$$",
      "$%& '$$$$",
      "$%& !$$&",
      "$%& $$$%$",
      "$%& !$$'",
      "$Ğ ,",
      "$&% $$&",
      "$&% &$$#",
      "$&% #$$$$#",
      "$&% %$$$$%",
      "$$( $$$&",
      "$$( %$$&",
      "#$$\" $%",
      "$$$$$$$$$$$$ $#$$$$",
      "$\"# '$$$$",
      "$#\" \"$$%",
      "$#\" #$$\"",
      "$#\" #$$!",
      "$%\" %$$%",
      "$%\" %$$",
      "$#& #$$\"",
      "$#& &$$&",
      "$&# %$$%",
      "$&# !$$$$",
      "$&# !$$#",
      "$&# ($$#",
      "$$$\" $$&",
      "'$$ ,",
      "'$$ Ě",
      "'$$ ě",
      "'$$ $*",
      "$\"% %$$$$#",
      "$\"% '$$#",
      "$$$ /",
      "Ġ$$ .",
      "\"$$& $#%",
      "($$ ,",
      "($$ -",
      "$ĝ *",
      "$ĝ Ğ",
      "$ĝ $$$$",
      "!$$$$ !",
      "!$$$$ \"",
      "$$$%$$$$ $",
      "$$$%$$$$ $$%$$$$",
      "$$$%$$$$ $$%$$$$$$$$",
      "$%$$% $",
      "%# #$$$$",
      "$+ $$$$",
      "$&& %$$#",
      "$&& !$$%",
      "$&$$$$ $$",
      "$\"\" \"$$%",
      "$\"\" \"$$#",
      "$\"\" %$$&",
      "$\"\" %$$!",
      "$$$#$$$$ $%%$$$$",
      "$$$#$$$$ $$%$$$$$$$$",
      "!$$# $(",
      "$%%$$$$ $$%$$$$",
      "$&\" #$$\"",
      "$&\" !$$\"",
      "$##$$$$ %",
      "'$$# $&",
      "$%' #$$'",
      "$!# %$$\"",
      "$!# &$$%",
      "$!# '$$$$",
      "ğ$$ .",
      "$'% #$$$$",
      "$'% #$$#",
      "$'% #$$&",
      "$'% !$$%",
      "&% \"$$%",
      "$'# $$$%",
      "Ġ$$$$ !",
      "Ġ$$$$ '",
      "Ā\" \"",
      "#$$$$% $",
      "$%! '$$#",
      "$%! %$$!",
      "$#! &$$\"",
      "ĀĀ% Ā(",
      "$!% \"$$%",
      "$, &",
      "$, *",
      "$#' %$$&",
      "$#$$$$% $%$$$$",
      ")$$ $*",
      "$Ĝ )",
      "Ġ\" #$$#",
      "Ġ\" #$$\"",
      "ĀĀ$ Ā,",
      "$%$$$$% $%$$$$",
      "ĀĀ& Ā'",
      "$\"' $$$&",
      "$\"' '$$%",
      "$'\" &$$#",
      "$'\" \"$$#",
      "$'\" !$$\"",
      "$&! \"$$#",
      "\"# &$$$$",
      "&# $$$#",
      "$%( %$$%",
      "$%( #$$&",
      "$'' $$$&",
      "$$$#$$# #$$#",
      "ĀĀ' Āğ",
      "$!& %$$&",
      "$ě (",
      "Ġ! %$$\"",
      "Ġ& %$$%",
      "$- (",
      "$%$$$$$$$$ $$$%",
      "ĀĞ #",
      "$&( #$$&",
      "$&( \"$$'",
      "$!! %$$#",
      "$!$$$$ \"",
      "$(& $$$%",
      "$#( $$$%",
      "$#$#$$$$ %%",
      "$$$$#% %$$%",
      "($$\" $",
      "ĀĀ( Ā!",
      "ĀĀ) Āğ",
      "ĀĀ) ĀĞ",
      "$%$%$$$$ %%",
      "\"\" #$$#",
      "Ā* #",
      "Ā* (",
      "ĀĀĝ Ā!",
      "$%$$$$$$% #",
      "#$$$$$$$$ $%",
      "#$$$$$$$$ $#",
      "$'( #$$%",
      "ĝ$$ ę",
      "ĝ$$ Ĝ",
      "ĝ$$ $ğ",
      "$#\"$$$$ $",
      "ĀĀ#Ā Ě",
      "$%##$$# $",
      "$#$#$$% $",
      "Ā+ #",
      "#$$$$## $$$#",
      "'$$( $",
      "%$$$$## #$$$$",
      "%$$$$%% #$$%",
      "\"! %$$#",
      "Ġ#$$ ĝ",
      "$%$%$$% $",
      "%$$* $",
      "$$$$$$$$$$$$$$$$$$$$$$$$ $$",
      "$$$$$$$$$$$$$$$$$$$$$$$$ $$$",
      "#$$$$%% #$$$$",
      "ğ% ĀĀ",
      "ĀĀė Ā",
      "! \"$$#",
      "! %$$\"",
      "! $$$$##",
      "! $$$$%&",
      "\" ĝ",
      "# (",
      "# %$$%",
      "% ĀĀ",
      "% %$$&",
      "& +",
      "' ğ",
      "' $%",
      "' $$$$%&",
      "' $$$$%\"",
      "( .",
      "( /",
      "( #$$&",
      "( $$$$%%",
      "* %",
      "* Ğ",
      "+ /",
      ", $$\"",
      "- *",
      "- Ĝ",
      "- ğ",
      "- $$$$",
      "- $$%",
      "Ę $",
      "ę $$%",
      "Ě $$'",
      "ě Ğ",
      "ĝ ĝ",
      "ĝ $$*",
      "Ğ ě",
      "Ğ &$$",
      "Ğ $$$",
      "ğ ě",
      "ğ $$$$%",
      "ğ &)",
      "Ġ 1",
      "Ġ #$$%",
      "Ġ #$$&",
      "Ġ $%$$#",
      "Ġ $#$$%",
      "Ġ $&$$$$",
      "Ġ '$$$$",
      "Ġ Ā#",
      "Ġ Ā%",
      "Ġ '$$&",
      "Ġ $!\"",
      "Ġ $\"$$%",
      "Ġ ĀĞ",
      "Ġ $(%",
      "Ġ $(#",
      "Ġ $(\"",
      "Ġ Ğ$$",
      "Ġ $!'",
      "Ġ %$$ğ",
      "Ġ Ā*",
      "Ġ $'$$$$",
      "Ġ $%ğ",
      "Ġ ĀĀ#Ā",
      "Ġ &$$ğ",
      "Ġ '$$ğ",
      "Ġ $$$$%\"",
      "$% &$$#",
      "$% $$$%$$#",
      "$% '$$$'",
      "$% $%$$(",
      "$# Ě",
      "$# $%",
      "$# #$$",
      "$# \"$$",
      "$# $$)",
      "$# $!$$$$",
      "$# $$$#$$$$$$$$",
      "$# $%$$\"",
      "$# $\"$$\"",
      "$# $'$$&",
      "$$# $$$$#",
      "$$# $$$",
      "$& .",
      "$& Ě",
      "$& %$$",
      "$& \"$$%",
      "$& $$$$%%",
      "$& %$$$\"",
      "$\" &$$#",
      "$\" \"$$#",
      "$\" $!$$%",
      "$\" &$$$'",
      "$\" \"$$$!",
      "$$& $'",
      "$$& $$$$#",
      "$$& '$$%",
      "$$& $$$(",
      "$$\" %$$",
      "$$\" $$$$%",
      "$$\" \"$$%",
      "$$\" #$$!",
      "$$\" %$$!",
      "$$\" !$$\"",
      "$$$$$$$$ $$%$$$$",
      "$$$$$$$$ $%%$$$$",
      "$$$$$$$$ $$$$##",
      "#$$$$ $$##$$$$",
      "ĀĀ <",
      "ĀĀ ĕ",
      "%$$$$ Ğ",
      "%$$$$ $%%$$$$",
      "$$$% $\"#",
      "$$$# $$%$$$$",
      "$$$# $&\"",
      "$$$# $$#$$$#",
      "$' $!",
      "$' !$$",
      "$' $#$$&",
      "$' \"$$$!",
      "$' %$$$\"",
      "$! $",
      "$! ĀĀ",
      "$! $!",
      "$! \"$$",
      "$! $#$$#",
      "$! #$$$\"",
      "$! $\"$$%",
      "$! $&$$%",
      "$! $%$$\"",
      "$! $'$$#",
      "$! '$$$'",
      "$$! \"$$!",
      "$%$$$$ ğ",
      "$%$$$$ $$$\"",
      "$#$$$$ #$$%",
      "$#$$$$ %%",
      "$#$$$$ &%",
      "$( $$!",
      "$( $$'",
      "$( $%$$#",
      "$( '$$$$",
      "$( %$$$&",
      "$%% #$$$$#",
      "$%% \"$$\"",
      "$%% #$$!",
      "$%% $$$!",
      "$%% \"$$$$#",
      "$%% %$$%$",
      "\"$$$$ $",
      "\"$$$$ &%",
      "\"$$$$ \"%",
      "$#% \"$$#",
      "$#% !$$$$",
      "$#% %$$$$%",
      "$#% '$$&",
      "$#% $$$!",
      "$## \"$$\"",
      "$## !$$#",
      "$## &$$&",
      "$## &$$!",
      "$## $$$%$$$$$$$$",
      "%$$ $(",
      "$%# #$$$$%",
      "$%# \"$$!",
      "\"$$ ě",
      "$) $",
      "$) ě",
      "$) $!",
      "$) $$!",
      "$) $$$$#",
      "$ğ ,",
      "!$$ Ę",
      "!$$ Ě",
      "$* -",
      "$$%$$$$ $$\"",
      "$%& #$$'",
      "$%& %$$'",
      "$%& ($$%",
      "$Ğ $$%",
      "$$#$$$$ $$$#$$$$",
      "$&% !$$#",
      "$$( #$$&",
      "$\"# #$$&",
      "$\"# %$$&",
      "$\"# #$$!",
      "$\"# ($$#",
      "$#\" %$$",
      "$#\" %$$!",
      "$%\" #$$%",
      "$%\" !$$",
      "$%\" %$$!",
      "$#& #$$'",
      "$#& \"$$'",
      "$#& '$$&",
      "$&# \"$$$$",
      "$&# \"$$&",
      "$&# !$$%",
      "$$$\" $$\"",
      "'$$ $",
      "'$$ $)",
      "'$$ $+",
      "$\"% #$$#",
      "$\"% #$$&",
      "$\"% \"$$#",
      "$\"% !$$%",
      "$\"% %$$'",
      "$$$ Ĝ",
      "#$$$$# $",
      "#$$$$# %$$$%",
      "Ġ$$ $ğ",
      "\"$$& $\"",
      "%% $$$%",
      "$%$$# $",
      "($$ $!",
      "($$ $*",
      "%$$$$# $",
      "%$$$$# $#$$$$",
      "%$$$$# $%$$%",
      "$ĝ +",
      "$ĝ Ě",
      "!$$$$ &%",
      "$$$%$$$$ $$\"",
      "%# %$$$$",
      "%# &$$#",
      "$&& %$$$$",
      "$&& $$$#",
      "$&& %$$&",
      "$&& !$$$$",
      "$&& &$$&",
      "$&$$$$ $$$#",
      "$$$#$$$$ &",
      "$$$#$$$$ $$",
      "$$$#$$$$ $$%$$$$",
      "$&\" \"$$%",
      "$##$$$$ $$%$$$$",
      "$##$$$$ $$%$$$%",
      "'$$# $",
      "ğ$$ ,",
      "ğ$$ -",
      "ğ$$ $'",
      "$'% \"$$$$",
      "$'% \"$$$$%",
      "$%$$$$# %",
      "$%$$$$# $#$$$$",
      "$'# !$$%",
      "$'# !$$#",
      "$$#$$$# $##$$$$",
      "$\"& \"$$%",
      "$\"& '$$$$",
      "Ġ$$$$ !!",
      "Ā# )",
      "Ā\" '",
      "Ā\" ğ",
      "$$ğ $",
      "$$ğ \"$$!",
      "$%! \"$$#",
      "$%! #$$!",
      "$$%$$$% $$#",
      "$#%$$$$ $$%$$$$",
      "$#! #$$!",
      "ĀĀ% Ā'",
      "ĀĀ% ĀĞ",
      "ĀĀ% Ā*",
      "$!% $$$%",
      "$!% %$$&",
      "%$$$$% $$$$$$$$",
      "%$$$$% $%$$$$",
      "$, )",
      "$, ,",
      "$, -",
      "$#$$$$% &",
      ")$$ Ĝ",
      "Ġ\" %$$#",
      "Ġ\" #$$%",
      "ĀĀ$ Ā&",
      "Ā% ,",
      "ĀĀ\" Ā&",
      "ĀĀ\" Āĝ",
      "ĀĀ\" Ā,",
      "Ġ# #$$$$",
      "Ġ# %$$$$",
      "Ġ# $$$%",
      "ĀĀ! Ā%",
      "ĀĀ& Ā&",
      "$\"' #$$%",
      "$\"' #$$'",
      "Ā' '",
      "Ā' (",
      "$\"! &$$#",
      "$&' \"$$%",
      "$&' \"$$&",
      "$&' !$$%",
      "$'\" !$$#",
      "$'\" #$$!",
      "$'\" %$$!",
      "$&! %$$\"",
      "$&! #$$\"",
      "$$$%$$% %$$%",
      "$!\" $$$#",
      "$!\" &$$#",
      "#$$$\" $",
      "Ġ% #$$%",
      "Ġ% %$$%",
      "$$$#$$% %$$%",
      "$'& #$$$$",
      "$'& #$$&",
      "$'& &$$%",
      "$%( $$$$",
      "$%( #$$%",
      "Ā( #",
      "Ā( %",
      "$'' &$$%",
      "ĀĀ' Ā\"",
      "ĀĀ' Ā&",
      "ĀĀ' Ā)",
      "ĀĀ' Āĝ",
      "$!& #$$%",
      "$!& &$$%",
      "$ě Ğ",
      "Ġ& '$$&",
      "($$$$ &",
      "$#$$$$$$$$ %$$$$",
      "$#$$$$$$$$ $$$#",
      "$- '",
      "$- )",
      "ĀĀğ Āğ",
      "ĀĀğ ĀĞ",
      "Ā) (",
      "$!! #$$#",
      "$!! &$$#",
      "$!! %$$\"",
      "!$$' $$&",
      "$!$$$$ $$#",
      "$(# $$$#",
      "$(# \"$$%",
      "$(# \"$$#",
      "$(& \"$$%",
      "$%$#$$$$ %#",
      "$#( #$$&",
      "$(\" %$$\"",
      "Ğ$$ Ĝ",
      "&& $$$%",
      "$!' $$$&",
      "$!' '$$&",
      "Ā* \"",
      "ĀĀĝ Ā&",
      "Ġ$& $$&",
      "ğ$$% $",
      "$'( $$$%",
      "$. ,",
      "ğ$$# $",
      "ĝ$$ ĝ",
      "$$$%$$$$$$$$ $$$",
      "$&) \"$$'",
      "Ā+ %",
      "$%$%$$# $",
      "#$$$$## %$$#",
      "ĀĀ+ Ā#",
      "$$%$$# $",
      "$%$$$$$$# #",
      "+$$ $)",
      "ĀĀ%Ā Ę",
      "ğ$$\" $",
      "$#$#$$# $",
      "($$' $",
      "%$$$$$$% $$$$#",
      "Ğ$$# $",
      "$ĀĀ Ě",
      "$$%$$$$$$# $",
      "Ġ\"$$ Ğ",
      "#$$$$%# #$$#",
      "$%#$$$\" $",
      "!$$* $",
      "$#$#$$$$# #$$$$",
      "Ĝ$$ ě",
      "$#$& $$'",
      "$$$$$$$$$$$$% %$$$$",
      "$#$$$$$$$# $$$#",
      "! ě",
      "! '$$#",
      "! $%$$&",
      "\" -",
      "\" $%$$#",
      "\" $%$$%",
      "# \"",
      "# $",
      "# \"$$$$",
      "# $$$$$$$$$$$$$$$$",
      "% !$$%",
      "& /",
      "& $\"",
      "& $$$%$",
      "& !#",
      "' %$$$$",
      "' $)",
      "' \"$$%",
      "' #$$'",
      "' $$$$##",
      "' $$$$%#",
      "( ğ",
      "( $$$%",
      "( $$$&",
      "( $$$$#%",
      ") -",
      ") Ğ",
      ") $$$&",
      ") &)",
      "+ \"",
      "+ .",
      "+ $$)",
      ", $$&",
      "- -",
      "- $$!",
      ". $$%",
      "/ (",
      "/ ĀĀ",
      "Ā $%",
      "Ā $\"",
      "Ā %#",
      "ė ĝ",
      "ė ğ",
      "Ę $$&",
      "ę Ğ",
      "ę $$&",
      "ę $$ğ",
      "ě &$$",
      "Ĝ !",
      "Ĝ )",
      "Ĝ ,",
      "Ĝ ě",
      "Ĝ #$$",
      "Ĝ &$$",
      "Ĝ $$Ğ",
      "Ĝ ĝ$$",
      "Ĝ $$ĝ",
      "ĝ !",
      "ĝ '",
      "ĝ (",
      "ĝ &$$",
      "ĝ $$ğ",
      "Ğ #$$\"",
      "Ğ $$%$",
      "ğ #$$$$",
      "ğ %$$#",
      "ğ &$$",
      "Ġ ė",
      "Ġ Ę",
      "Ġ Ġ",
      "Ġ $#$$$$",
      "Ġ $##",
      "Ġ $Ğ",
      "Ġ $&%",
      "Ġ &$$%",
      "Ġ %$$&",
      "Ġ $#&",
      "Ġ \"$$&",
      "Ġ $#$$#",
      "Ġ '$$%",
      "Ġ &$$&",
      "Ġ !$$&",
      "Ġ $Ĝ",
      "Ġ $\"!",
      "Ġ $'&",
      "Ġ &$$$$#",
      "Ġ %$$(",
      "Ġ $\"$$#",
      "Ġ $(&",
      "Ġ $)&",
      "Ġ $)#",
      "Ġ '$$Ğ",
      "Ġ !$$ğ",
      "$$ $*",
      "$$$$ $$!",
      "$% #$$",
      "$% !$$$$",
      "$% #$$$$%",
      "$% $'$$#",
      "$% #$$$$#%",
      "$% !$$$",
      "$% $\"$$!",
      "$# $$$%",
      "$# $!",
      "$# \"$$$$%",
      "$# $!$$#",
      "$# $($$$$",
      "$# $%$$'",
      "$$% $$$$#",
      "$$% &$$\"",
      "$$% !$$&",
      "$$% '$$&",
      "$$% $$$#$",
      "$$% ($$$$",
      "$$% \"$$$$#",
      "$$% $$$(",
      "$$% $$$%$$$$$$%",
      "$$# %$$&",
      "$$# \"$$&",
      "$$# '$$#",
      "$$# $$$$##",
      "$$# %$$$$$$$$",
      "$$# $$$#$$$$$$#",
      "$& $$'",
      "$& #$$",
      "$& '$$$$",
      "$& ($$$$",
      "$& $&$$%",
      "$& $!$$$$",
      "$& $\"$$$$%",
      "$& !$$$\"",
      "$& $!$$#",
      "$& $\"$$&",
      "$& $\"$$\"",
      "$& !$$$!",
      "$& $%$$!",
      "$& %$$$'",
      "$\" $#",
      "$\" $'",
      "$\" $ğ",
      "$\" %$$\"",
      "$\" $$$$$$$$$$$$",
      "$\" $%$$\"",
      "$\" $#$$!",
      "$\" $!$$&",
      "$\" %$$$\"",
      "$\" )$$$'",
      "$$& $$$#",
      "$$& #$$'",
      "$$& !$$&",
      "$$& $$$%$$%",
      "$$\" '$$$$",
      "$$\" !$$#",
      "$$\" $$$#$",
      "$$$$$$$$ $$$&",
      "$$$$$$$$ #$$$$#",
      "$$$$$$$$ $##$$$$",
      "$$$$$$$$ $%$$$%",
      "#$$$$ $'",
      "#$$$$ %$$%",
      "#$$$$ $%#$$$$",
      "#$$$$ $$#$$$$$$#",
      "ĀĀ :",
      "ĀĀ ;",
      "%$$$$ $$&",
      "%$$$$ %$$$$",
      "%$$$$ $!",
      "%$$$$ $%$$$$",
      "%$$$$ $$$%$$$$",
      "%$$$$ $%#$$$$",
      "%$$$$ $$##$$$$",
      "%$$$$ $$%$$$$$$$$",
      "%$$$$ &'",
      "%$$$$ $#$$$$$$",
      "$$$% $$!",
      "$$$# $ğ",
      "$$$# $%#$$$$",
      "$$$# #$$$#",
      "$' -",
      "$' $%$$$$",
      "$' #$$%",
      "$' #$$&",
      "$' '$$$$",
      "$' \"$$$\"",
      "$' $!$$$$",
      "$' $\"$$#",
      "$' !$$$\"",
      "$' $!$$#",
      "$' !$$$!",
      "$' &$$$)",
      "$! .",
      "$! ě",
      "$! %$$#",
      "$! &$$$$",
      "$! $#$$&",
      "$! &%$$'",
      "$$! $$#",
      "$$! #$$$$",
      "$$! $$$%",
      "$$! %$$%",
      "$$! !$$\"",
      "$$' #$$$$",
      "$$' %$$$$",
      "$$' \"$$%",
      "$$' !$$%",
      "$$' '$$%",
      "$$' $%!",
      "$%$$$$ $$!",
      "$%$$$$ $$$#$$$$",
      "$#$$$$ $$!",
      "$#$$$$ $$$&",
      "$#$$$$ #$$$$$$#",
      "$#$$$$ %$$$$$$%",
      "$( .",
      "$( Ě",
      "$( $$$$%",
      "$( !$$",
      "$( $#$$%",
      "$( $\"$$%",
      "%$$# $(",
      "#$$% $$%$$$$",
      "%$$% $$&",
      "#$$ Ę",
      "$%% '$$%",
      "$%% !$$&",
      "$%% &$$'",
      "$%% $$$#$$$$$$$$",
      "$%% #$$$$##",
      "$%% #$$$$$$#",
      "\"$$$$ $#%$$$$",
      "$#% #$$!",
      "$#% !$$&",
      "$#% &$$'",
      "$#% \"$$$$#",
      "$## \"$$&",
      "$## #$$$$%",
      "$## $$$%$",
      "%$$ ę",
      "&$$$$ $%%$$$$",
      "&$$$$ &%",
      "&$$$$ &#",
      "&$$$$ &\"",
      "$%# '$$\"",
      "$%# \"$$$$#",
      "\"$$ ę",
      "$) $$\"",
      "$) &$$$&",
      "$ğ $$\"",
      "$ğ $%$$%",
      "$ğ %$$$&",
      "$$$$% $%$$$$",
      "$$$& $$$$$$%",
      "$* .",
      "$* Ĝ",
      "$* Ğ",
      "$$%$$$$ $$#$$$#",
      "%$$\" $#\"",
      "$%& &$$#",
      "$%& %$$$$#",
      "$%& &$$\"",
      "$%& \"$$'",
      "$%& #$$(",
      "$Ğ -",
      "$Ğ ě",
      "$Ğ $$\"",
      "$$#$$$$ $$",
      "$$#$$$$ $$&",
      "$$#$$$$ $##",
      "$$#$$$$ $#%$$$%",
      "$&% #$$\"",
      "$&% #$$'",
      "#$$\" $!'",
      "$$$$$$$$$$$$ #$$$$",
      "$$$$$$$$$$$$ $$$%",
      "$$$$$$$$$$$$ $$%$$$$$",
      "$\"# \"$$%",
      "$\"# \"$$&",
      "$\"# \"$$\"",
      "$\"# %$$'",
      "$\"# '$$\"",
      "$\"# ĝ$$%",
      "$#\" $$$%",
      "$#\" &$$%",
      "$#\" %$$&",
      "$#\" !$$#",
      "$#\" #$$$$%",
      "$%\" \"$$$$",
      "$%\" !$$%",
      "$%\" '$$#",
      "$%\" #$$$$%",
      "$#& #$$$$",
      "$#& !$$%",
      "$#& !$$&",
      "$#& &$$'",
      "$#& %$$%$",
      "$&# &$$$$",
      "$&# &$$#",
      "'$$ -",
      "'$$ $!",
      "$\"% &$$$$",
      "$$$ Ě",
      "#$$$$# \"",
      "#$$$$# %$$$$",
      "Ġ$$ ę",
      "Ġ$$ $'",
      "\"$$& $!!",
      "($$ Ě",
      "%$$$$# '",
      "%$$$$# $$$$$$$$",
      "$ĝ $",
      "$ĝ -",
      "$ĝ .",
      "$ĝ Ĝ",
      "$ĝ $$%",
      "$\"$$$$ $$$#",
      "!$$$$ ğ",
      "!$$$$ $\"",
      "!$$$$ !%",
      "$&& &$$#",
      "$&$$$$ #$$%",
      "'$$$$ !",
      "'$$$$ $$%",
      "$\"\" %$$%",
      "!$$# $&#",
      "'$$% $%",
      "$&\" #$$%",
      "$&\" %$$%",
      "$&\" #$$!",
      "$&\" %$$!",
      "$##$$$$ $##$$$$",
      "%$$! $&",
      "$%' %$$#",
      "$%' !$$%",
      "$%' \"$$'",
      "$!# %$$$$",
      "$!# !$$$$",
      "$'% %$$%",
      "$'% \"$$#",
      "$'% %$$\"",
      "$'% &$$%",
      "$'% \"$$&",
      "$'% \"$$\"",
      "&% $$$%",
      "$%$$$$# $%$$$$",
      "$%$$$$# $%%$$$$",
      "$'# \"$$$$",
      "$$#$$$# $$$$$$$$",
      "$$#$$$# $$%$$$$",
      "$#$$$$# %",
      "$\"& #$$$$",
      "$\"& &$$&",
      "Ġ$$$$ $$!",
      "$#%$$$$ %",
      "$#%$$$$ $$#",
      "$#! &$$",
      "$#! &$$!",
      "Ā! &",
      "$!% '$$$$",
      "$!% '$$%",
      "$!% &$$&",
      "$%#$$$$ $$%$$$$",
      "%$$$$% $",
      "%$$$$% &",
      "$, .",
      "$, Ğ",
      "$, $$$$",
      "$#' \"$$#",
      "$#' '$$'",
      ")$$ /",
      "!$$& $$#",
      "$Ĝ *",
      "Ġ\" $$$%",
      "Ġ\" &$$#",
      "Ġ\" \"$$#",
      "Ġ$$# $#ğ",
      "ĀĀ$ Ā)",
      "ĀĀ$ Ā*",
      "'$$\" $",
      "ĀĀ\" Ā*",
      "Ġ# $$$#",
      "$\"' %$$%",
      "$\"' \"$$%",
      "$\"' &$$%",
      "$\"' %$$'",
      "$\"! #$$#",
      "$$$' $",
      "$$) $$$&",
      "$'\" %$$\"",
      "$'\" \"$$\"",
      "$$$%$$# %$$#",
      "$&! \"$$\"",
      "$&! '$$!",
      "\"# #$$$$",
      "$!\" #$$\"",
      "Ġ% '$$%",
      "$$$#$$% $",
      "$$$#$$% #$$$$",
      "$'& %$$$$",
      "&# &",
      "\"$$! $",
      "Ġ$$& $",
      "Ġ$$& $#!",
      "ĀĀ' Ā%",
      "$!& %$$$$",
      "$!& &$$$$",
      "$!& '$$&",
      "$ě \"",
      "$ě #",
      "$ě &",
      "$ě '",
      "$ě )",
      "Ġ! \"$$%",
      "Ġ& $$$%",
      "Ġ& %$$#",
      "($$$$ '",
      "($$$$ $!",
      "Āğ +",
      "$#$$$$$$$$ %$$%",
      "$#$$$$$$$$ $$$$%",
      "$- .",
      "$%$$$$$$$$ $$#",
      "$%$$$$$$$$ #$$%",
      "ĀĀğ Ā)",
      "ĀĀğ Ā,",
      "($$% $\"%",
      "Ā) *",
      "$(% $$$%",
      "$(% %$$#",
      "$#%$$$% $#%$$$%",
      "$(# #$$#",
      "$(# &$$\"",
      "$(& &$$#",
      "$(& !$$#",
      "$#$%$$$$ %$$$$",
      "$#( %$$'",
      "$$* #$$(",
      "$#$#$$$$ &",
      "'$$' $",
      "$$$$%% %$$%",
      "Ğ$$ -",
      "Ğ$$ ę",
      "ĀĀ( Ā%",
      "ĀĀ( Ā'",
      "ĀĀ( Ā&",
      "Ġ$ .",
      "\"$$( $",
      "$$%%$$$$ %%",
      "Ġğ $$$$",
      "Ġğ $$%",
      "#$$ğ $",
      "Ā* %",
      "$'! %$$!",
      "$$$$%# %$$#",
      "$$$$%# #$$#",
      "Ġ( $$!",
      "$#$$$$$$# $$$$%",
      "Ġ$& $$'",
      "$'$$$$ !",
      "$'$$$$ \"",
      "ĀĀĞ Ā#",
      "#$$$$$$$$ $$$$#",
      "$%$#$$# $",
      "$$##$$$$ %%",
      "$. %",
      "$. )",
      "$. ğ",
      "$#$$\" $",
      "$(' \"$$&",
      "&$$$$% &",
      "ĝ$$ +",
      "$$$%$$$$$$$$ $$$%",
      "ĀĀ#Ā Ę",
      "\"& %$$&",
      "$&%$$$$ $",
      "$Ě (",
      "Ā+ &",
      "Ā+ ĝ",
      "$#ğ $$$\"",
      "%$$) $",
      "%$$$$$$$$ $$$#",
      "$%$#$$% $",
      "&$$( $",
      "$$$$$$$$# %",
      "$$$$$$$$# %$$$%",
      "$$$$$$$$# #$$$#",
      "ĀĀĜ Ā'",
      "$)\" %$$%",
      "ĀĀ* Ā%",
      "ĀĀ* Ā+",
      "%$$$$## $$$#",
      "+$$ ,",
      "+$$ Ĝ",
      "+$$ $(",
      "!\" &$$#",
      "#$$$$& $#$$$$",
      "!$$( $",
      "ĀĀ%Ā Ě",
      "$%##$$$$ &#",
      "$#) $$$$",
      "Ġ$' $$%",
      "$') #$$%",
      "Ġ$% Ğ",
      "$$$( $$$$",
      "#$$$$#% %$$%",
      "$ę !",
      "ĠĀ ě",
      "$\") %$$(",
      "$##$$# $",
      "$!ğ #$$!",
      "#$$* $",
      "!! %$$#",
      "$#&$$$$ $",
      "$$#%$$$$ %#",
      "ĀĀ- Ā&",
      "%$$$$#% %$$$$",
      "$$$$$$$$% #$$$$",
      "$$$%$$$$$$# $",
      "$$$) $$#",
      "$\"$%$$% $",
      "$$$#$$$$# #$$$$",
      "Ě$$ .",
      "$#$# $$",
      "$%$$$$$$#$$$$ $$",
      "\"$$$$%% $$$%",
      "$%$$$$#$$% $$$$",
      "! \"$$\"",
      "\" $&",
      "\" $)",
      "\" !$$$$",
      "\" '$$#",
      "\" $#$$$$%",
      "\" !$$\"",
      "# !",
      "# *",
      "# $'",
      "# &$$#",
      "# $$$#$$%",
      "# (*",
      "% $",
      "% Ě",
      "% %$$",
      "% \"$$",
      "% '$$%",
      "% #$$%$",
      "% &(",
      "% ((",
      "& $$$$$$$$",
      "& $#$$$$",
      "& &$$$$",
      "& \"$$%",
      "& #$$\"",
      "& ($$$$",
      "& (%",
      "& ĀĀĞĀ",
      "' Ę",
      "' Ě",
      "' #$$",
      "' &$$&",
      "' %$$'",
      "( \"",
      "( $%",
      "( $\"",
      "( #$$%",
      "( %$$&",
      "( $$$\"",
      "( ($$",
      "( ĀĀ&Ā",
      ") *",
      ") +",
      ") ğ",
      ") #$$&",
      ") &#",
      ") ĀĀğ",
      ") ĀĀ#Ā",
      "* %$$&",
      "* $$)",
      "* \"#",
      "* $$*",
      "* ĀĀ(Ā",
      "* #&",
      "* )$$(",
      "+ Ĝ",
      "+ ĝ",
      "+ &$$%",
      "+ ($$",
      "+ $$Ğ",
      "+ ĀĀ(",
      "+ ĀĀ$Ā",
      "+ ĀĀę",
      ", &",
      ", +",
      ", $$'",
      ", $$(",
      ", ĀĀ#Ā",
      ", $$+",
      "- (",
      "- )",
      "- ĝ",
      "- $$\"",
      "- $$ğ",
      "- ĀĀ#Ā",
      "- $$+",
      ". $$\"",
      "/ $$",
      "/ $$&",
      "/ $$\"",
      "0 0",
      "Ā /",
      "Ā ě",
      "Ĕ $$",
      "ĕ $$%",
      "Ė $$",
      "Ę !",
      "Ę Ğ",
      "Ę $$#",
      "Ę $$ğ",
      "ę !",
      "ę \"",
      "ę #",
      "ę $$#",
      "Ě !",
      "Ě %",
      "Ě *",
      "Ě ğ",
      "Ě $$&",
      "ě ě",
      "ě Ĝ",
      "ě ĀĀ",
      "Ĝ '",
      "Ĝ /",
      "Ĝ ĝ",
      "Ĝ $$$\"",
      "Ĝ $$*",
      "ĝ \"$$",
      "Ğ &",
      "Ğ '$$\"",
      "ğ ĀĀ",
      "ğ #$$%",
      "ğ !$$#",
      "Ġ 2",
      "Ġ $%$$$$",
      "Ġ $#%",
      "Ġ $\"$$$$",
      "Ġ $\"\"",
      "Ġ #$$'",
      "Ġ $&'",
      "Ġ Ā(",
      "Ġ Āĝ",
      "Ġ $'(",
      "Ġ $%)",
      "Ġ Ā+",
      "Ġ $#ğ",
      "Ġ $!(",
      "Ġ $'$$#",
      "Ġ $ğ!",
      "Ġ $*#",
      "Ġ $*&",
      "Ġ $!Ğ",
      "Ġ ĀĀ'Ā",
      "$$$$ &",
      "$$$$ $$(",
      "$% .",
      "$% /",
      "$% $ğ",
      "$% $ĝ",
      "$% $$ğ",
      "$% $$$'",
      "$% $$$%$$%",
      "$% $'$$$$",
      "$% $&$$$$%",
      "$% \"$$$!",
      "$% #$$$!",
      "$% $ğ$$$$",
      "$% $%$$!",
      "$% $!$$$$#",
      "$% $($$\"",
      "$# .",
      "$# /",
      "$# $+",
      "$# !$$%",
      "$# !$$#",
      "$# $$*",
      "$# ğ$$#",
      "$# #$$$$##",
      "$# !$$$!",
      "$# $&$$\"",
      "$# $%$$!",
      "$# ($$$'",
      "$# ğ$$$!",
      "$# &$$$(",
      "$# $\"$$",
      "$# \"$$$",
      "$$% \"$$\"",
      "$$% '$$%",
      "$$% $$$$$$$$$$$$$$$$",
      "$$% $$$#$$#",
      "$$% $$$$##",
      "$$% $$$$%%",
      "$$# %$$",
      "$$# &$$\"",
      "$$# $$$#$$$$",
      "$$# !$$%",
      "$$# $$$%$",
      "$$# &$$$$#",
      "$$# $$$$%#",
      "$$# $$$$$$$$$$#",
      "$& $$(",
      "$& %$$$$#",
      "$& #$$$$%",
      "$& $$$%$",
      "$& $$$$##",
      "$& %$$$$$$#",
      "$& $\"$$$$#",
      "$& $!$$&",
      "$& $ğ$$$$",
      "$& #$$$",
      "$& $\"$$!",
      "$\" Ė",
      "$\" #$$",
      "$\" $Ğ",
      "$\" #$$\"",
      "$\" !$$#",
      "$\" $#$$$$#",
      "$\" %$$#$",
      "$\" $&$$$$%",
      "$\" !$$$!",
      "$\" '$$$'",
      "$\" $&$$\"",
      "$\" $'$$%",
      "$\" $%$$'",
      "$\" #$$$'",
      "$\" $'$$&",
      "$\" $%$$(",
      "$\" $($$%",
      "$$& $$%",
      "$$& '$$$$",
      "$$& !$$%",
      "$$& \"$$'",
      "$$& $$$%$",
      "$$& $$$%$$#",
      "$$& %$$(",
      "$$& !$$'",
      "$$\" $$",
      "$$\" %$$%",
      "$$\" $$$",
      "$$\" &$$!",
      "$$\" ($$#",
      "$$\" #$$\"$",
      "$$\" $$$ğ",
      "$$\" \"$$$$#%",
      "$$$$$$$$ $\"",
      "$$$$$$$$ $$$\"",
      "$$$$$$$$ #$$$$%",
      "$$$$$$$$ $$$$#%",
      "$$$$$$$$ $##$$#",
      "$$$$$$$$ $#%$$#",
      "#$$$$ $\"",
      "#$$$$ $$!",
      "#$$$$ $$$#$$$$",
      "#$$$$ $##$$$$",
      "#$$$$ &&",
      "#$$$$ &\"",
      "#$$$$ $#$$$$$$",
      "#$$$$ $$%$$$$$$#",
      "#$$$$ $$$#$$$$$",
      "ĀĀ >",
      "ĀĀ Đ",
      "%$$$$ #$$#",
      "%$$$$ $%%",
      "%$$$$ $&$$$$",
      "%$$$$ \"#",
      "%$$$$ $%$$$%",
      "%$$$$ $$%$$$$$$#",
      "%$$$$ #$$$$$$",
      "$$$% $%",
      "$$$% $$$%",
      "$$$% $$'",
      "$$$% $$%$$$$",
      "$$$% $$#$$$#",
      "$$$# $$",
      "$$$# $#$$$$",
      "$$$# $%#",
      "$' .",
      "$' ė",
      "$' $'",
      "$' $&$$$$",
      "$' $%$$$$#",
      "$' $$Ğ",
      "$' &$$$&",
      "$' $%$$&",
      "$' $#$$\"",
      "$' $!$$%",
      "$' $'$$#",
      "$' $\"$$&",
      "$' $\"$$\"",
      "$' $%$$'",
      "$' $$$$$$$$$$$%",
      "$' &%$$'",
      "$' &$$$(",
      "$' %#$$'",
      "$' '$$$(",
      "$' %%$$!",
      "$! /",
      "$! Ě",
      "$! %$$",
      "$! $*",
      "$! \"$$#",
      "$! $%$$$$%",
      "$! )$$$'",
      "$! %$$$'",
      "$! $#$$'",
      "$! #$$$ğ",
      "$$! $\"",
      "$$! %$$$$",
      "$$! &$$",
      "$$! '$$\"",
      "$$! $$$#$",
      "$$' \"$$&",
      "$$' $$$(",
      "$%$$$$ %$$&",
      "$%$$$$ $%%$$$$",
      "$%$$$$ $$%%$$$$",
      "$%$$$$ $$##$$$$",
      "$%$$$$ #$$$$$$#",
      "$#$$$$ )",
      "$#$$$$ $%",
      "$#$$$$ $$$\"",
      "$#$$$$ $$%$$$$$$$$",
      "$#$$$$ '%",
      "$#$$$$ $%$$$%",
      "$#$$$$ $%$$$$$$",
      "$#$$$$ %$$$$$$",
      "$( ě",
      "$( $$&",
      "$( %$$$$",
      "$( $$$$#",
      "$( $&$$$$",
      "$( \"$$$\"",
      "$( $\"$$#",
      "$( !$$$\"",
      "$( $\"$$&",
      "$( $&$$\"",
      "$( !$$$ğ",
      "%$$# #$$#",
      "%$$# $&%",
      "#$$% $''",
      "%$$% $$$$",
      "%$$% $)",
      "%$$% $\"#",
      "#$$ $)",
      "#$$# $ğ",
      "$%% $$&",
      "$%% $$$$$$$$",
      "$%% !$$#",
      "$%% &$$&",
      "$%% \"$$'",
      "$%% '$$&",
      "$%% $$$%$$%",
      "$%% ğ$$%",
      "$%% ğ$$'",
      "$%% $$$$$$$$$$$$#",
      "\"$$$$ \"\"",
      "\"$$$$ &\"",
      "\"$$$$ '#",
      "\"$$$$ (&",
      "$#% $$\"",
      "$#% $$$$$$$$",
      "$#% $$!",
      "$#% \"$$\"",
      "$#% !$$#",
      "$#% #$$$$%",
      "$#% \"$$'",
      "$#% %$$$$##",
      "$#% &$$$$#%",
      "$## #$$!",
      "$## $$$$$$$$$$$$$$$$",
      "$## '$$\"",
      "$## $$$#$$%",
      "$## \"$$!",
      "$## \"$$$$#",
      "$## $$$$$$$$$$#",
      "$## \"$$$$%#",
      "%$$ Ę",
      "&$$$$ !",
      "&$$$$ $$\"",
      "&$$$$ \"%",
      "&$$$$ $$%%$$$$",
      "$%# %$$",
      "$%# ($$#",
      "$%# $$$#$$%",
      "$%# ğ$$#",
      "$%# #$$$$$$#",
      "$) -",
      "$) $$%",
      "$) $ğ",
      "$) $%$$#",
      "$) $%$$\"",
      "$) $!$$#",
      "$) $\"$$\"",
      "$ğ $$'",
      "$ğ &$$$%",
      "$ğ $'$$%",
      "&$$ Ę",
      "!$$ $(",
      "!$$ $-",
      "\"$$% $$",
      "\"$$% $%&",
      "\"$$% $#'",
      "\"$$% $!'",
      "&$$# $#",
      "$* Ě",
      "$* ĀĀ",
      "$$%$$$$ $$",
      "$$%$$$$ $%#",
      "$$%$$$$ $$$%$$$$",
      "$$%$$$$ $%%$$$$",
      "$$%$$$$ $$%$$$$$$$$",
      "$$%$$$$ $#$$$$$$",
      "#$$& $+",
      "%$$\" $#%",
      "%$$\" $%!",
      "$%& !$$#",
      "$%& '$$%",
      "$%& '$$&",
      "$%& #$$%$",
      "$%& ğ$$'",
      "$Ğ $&$$%",
      "$$#$$$$ $$%$$$%",
      "$$#$$$$ $%#$$$$",
      "$$#$$$$ $%$$$$$$%",
      "$&% \"$$\"",
      "$&% %$$!",
      "&$$% $$\"",
      "$$( $$$$",
      "$$( $$$%",
      "$$( #$$%",
      "$$( %$$%",
      "$$( \"$$&",
      "$$( !$$&",
      "$$( %$$(",
      "$$( !$$(",
      "#$$\" $\"#",
      "%$$& $$%",
      "%$$& $#(",
      "$$$$$$$$$$$$ $$",
      "$$$$$$$$$$$$ $%$$$$$$$$",
      "$$$$$$$$$$$$ $#$$$$$",
      "$\"# #$$$$#",
      "$\"# !$$#",
      "$\"# '$$%",
      "$\"# &$$&",
      "$\"# ($$$$",
      "$#\" #$$",
      "$#\" \"$$$$",
      "$#\" #$$&",
      "$#\" \"$$&",
      "$#\" !$$%",
      "$#\" '$$%",
      "$#\" '$$\"",
      "$#\" &$$!",
      "$#\" ($$\"",
      "$#\" #$$$$%%",
      "$%\" ($$#",
      "$%\" ($$!",
      "$%\" #$$$$%#",
      "$#& $$\"",
      "$#& #$$#",
      "$#& &$$$$",
      "$#& &$$#",
      "$#& %$$\"",
      "$#& %$$'",
      "$#& $$$%$",
      "$#& )$$%",
      "$&# #$$",
      "$&# &$$%",
      "$&# %$$&",
      "$&# '$$#",
      "$&# #$$$$%",
      "$$$\" $$'",
      "'$$ $Ğ",
      "$\"% \"$$$$",
      "$\"% &$$#",
      "$\"% %$$\"",
      "$\"% '$$$$",
      "$\"% &$$&",
      "$\"% #$$'",
      "$\"% &$$'",
      "$\"% %$$%$",
      "$\"% ($$'",
      "Ġ$$ /",
      "Ġ$$ Ė",
      "Ġ$$ $(",
      "\"$$& $$%",
      "\"$$& $$#",
      "$#$$# $$$#$$#",
      "%$$$$# $&$$#",
      "%$$$$# %$$$$$",
      "!$$$$ &#",
      "!$$$$ \"%",
      "!$$$$ '#",
      "$$$%$$$$ $%$$$%",
      "%# $$$%",
      "%# \"$$%",
      "$+ $",
      "$+ *",
      "$+ ,",
      "$&& $$&",
      "$&& \"$$#",
      "$&& '$$%",
      "$&& %$$'",
      "$&& \"$$'",
      "$&& \"$$(",
      "'$$$$ &&",
      "'$$$$ &\"",
      "$\"\" &$$$$",
      "$\"\" &$$%",
      "$\"\" #$$$$#",
      "$\"\" !$$$$",
      "$\"\" %$$$$%",
      "$\"\" ($$#",
      "$$$#$$$$ $$%$$%",
      "$$$#$$$$ $%$$$$$",
      "$%%$$$$ $$$#$$$$",
      "$&\" &$$#",
      "$&\" !$$#",
      "$$$$$$$$$$$$$$$$ $$$$$$$$$$$$$",
      "'$$# $)",
      "&$$& $%",
      "$%' #$$$$",
      "$%' $$$#",
      "$%' \"$$$$",
      "$%' '$$%",
      "$%' !$$&",
      "$%' ğ$$%",
      "$!# %$$&",
      "$!# '$$%",
      "#$$' $)(",
      "$'% &$$#",
      "$'% #$$\"",
      "$'% !$$#",
      "$'% !$$&",
      "&% $$$#",
      "&% #$$#",
      "$%$$$$# $#%$$$%",
      "$'# #$$%",
      "$$#$$$# $$%",
      "$$#$$$# $$#$$$#",
      "$$#$$$# $##$$$#",
      "$#$$$$# $%$$%",
      "$#$$$$# $#%$$$$",
      "$\"& %$$$$",
      "$\"& \"$$$$",
      "$\"& &$$$$",
      "$\"& \"$$&",
      "Ġ$$$$ \""
    ]
  }
}