{
  "version": "1.0",
  "truncation": null,
  "padding": null,
  "added_tokens": [],
  "normalizer": null,
  "pre_tokenizer": {
    "type": "ByteLevel",
    "add_prefix_space": false,
    "trim_offsets": true,
    "use_regex": true
  },
  "post_processor": {
    "type": "ByteLevel",
    "add_prefix_space": true,
    "trim_offsets": false,
    "use_regex": true
  },
  "decoder": {
    "type": "ByteLevel",
    "add_prefix_space": true,
    "trim_offsets": true,
    "use_regex": true
  },
  "model": {
    "type": "BPE",
    "dropout": null,
    "unk_token": null,
    "continuing_subword_prefix": null,
    "end_of_word_suffix": null,
    "fuse_unk": false,
    "byte_fallback": false,
    "ignore_merges": false,
    "vocab": {
      "\u0000": 0,
      "\u0001": 1,
      "\u0002": 2,
      "\u0003": 3,
      "\u0004": 4,
      "\u0005": 5,
      "\u0006": 6,
      "\u0007": 7,
      "\b": 8,
      "\t": 9,
      "\n": 10,
      "\u000b": 11,
      "\f": 12,
      "\r": 13,
      "\u000e": 14,
      "\u000f": 15,
      "\u0010": 16,
      "\u0011": 17,
      "\u0012": 18,
      "\u0013": 19,
      "\u0014": 20,
      "\u0015": 21,
      "\u0016": 22,
      "\u0017": 23,
      "\u0018": 24,
      "\u0019": 25,
      "\u001a": 26,
      "\u001b": 27,
      "\u001c": 28,
      "\u001d": 29,
      "\u001e": 30,
      "\u001f": 31,
      " ": 32,
      "!": 33,
      "\"": 34,
      "#": 35,
      "$": 36,
      "%": 37,
      "&": 38,
      "'": 39,
      "(": 40,
      ")": 41,
      "*": 42,
      "+": 43,
      ",": 44,
      "-": 45,
      ".": 46,
      "/": 47,
      "0": 48,
      "1": 49,
      "2": 50,
      "3": 51,
      "4": 52,
      "5": 53,
      "6": 54,
      "7": 55,
      "8": 56,
      "9": 57,
      ":": 58,
      ";": 59,
      "<": 60,
      "=": 61,
      ">": 62,
      "?": 63,
      "@": 64,
      "Ā": 65,
      "ā": 66,
      "Ă": 67,
      "ă": 68,
      "Ą": 69,
      "ą": 70,
      "Ć": 71,
      "ć": 72,
      "Ĉ": 73,
      "ĉ": 74,
      "Ċ": 75,
      "ċ": 76,
      "Č": 77,
      "č": 78,
      "Ď": 79,
      "ď": 80,
      "Đ": 81,
      "đ": 82,
      "Ē": 83,
      "ē": 84,
      "Ĕ": 85,
      "ĕ": 86,
      "Ė": 87,
      "ė": 88,
      "Ę": 89,
      "ę": 90,
      "Ě": 91,
      "ě": 92,
      "Ĝ": 93,
      "ĝ": 94,
      "Ğ": 95,
      "ğ": 96,
      "Ġ": 97,
      "ĠĠ": 98,
      "Ġğ": 99,
      "Ġ!": 100,
      "ĠĠĠĠ": 101,
      "ĠĞ": 102,
      "Ġ\"": 103,
      "ĠĠĠ": 104,
      "ĀĀ": 105,
      "Ġĝ": 106,
      "Ġ#": 107,
      "Ġ$": 108,
      "ĠĠĠĠĠ": 109,
      "ĠĜ": 110,
      "Ġ!!": 111,
      "Ġğğ": 112,
      "Ġě": 113,
      "ĠĠĠĠĠĠĠĠ": 114,
      "Ġ%": 115,
      "Ġ!ğ": 116,
      "Ġğ!": 117,
      "Ġ&": 118,
      "ĠĚ": 119,
      "ĠĞğ": 120,
      "Ġ\"!": 121,
      "ĠğĞ": 122,
      "Ġ'": 123,
      "Ġ!\"": 124,
      "Ġ\"ğ": 125,
      "ĠĞ!": 126,
      "Ġę": 127,
      "ĠĠĠĠĠĠ": 128,
      "Ġğ\"": 129,
      "Ġ!Ğ": 130,
      "Ġ(": 131,
      "ĠĘ": 132,
      "Ġ\"\"": 133,
      "Ā!": 134,
      "ĠĞĞ": 135,
      "Āğ": 136,
      "ĀĀğ": 137,
      "Ġ\"Ğ": 138,
      "ĠĞ\"": 139,
      "Ā\"": 140,
      "ĀĞ": 141,
      "ĀĀĞ": 142,
      "Āĝ": 143,
      "Ġ#!": 144,
      "#ğ": 145,
      "Ġĝğ": 146,
      "ĀĀ!": 147,
      "Ġ)": 148,
      "Ġğĝ": 149,
      "Ġĝ!": 150,
      "Ġ#ğ": 151,
      "#!": 152,
      "Ġ!ĝ": 153,
      "Ġė": 154,
      "ĀĀĝ": 155,
      "ĀĀ\"": 156,
      "ĀĜ": 157,
      "Ġ!!ğ": 158,
      "Ġğğ!": 159,
      "ĠĠĠĠĠĠĠ": 160,
      "Ā#": 161,
      "Ā$": 162,
      "Ġ!#": 163,
      "Ġ#\"": 164,
      "Ġğ!!": 165,
      "ĠĞĝ": 166,
      "Ġ!ğğ": 167,
      "ĠĝĞ": 168,
      "ĀĀĜ": 169,
      "Ġ*": 170,
      "Ġğ#": 171,
      "ĀĀ#": 172,
      "Ġğğğ": 173,
      "Ġ!!!": 174,
      "Āě": 175,
      "ĠĠĠĠĠĠĠĠĠĠĠ": 176,
      "ĠĖ": 177,
      "Ġ#Ğ": 178,
      "Ġğ!ğ": 179,
      "Ā%": 180,
      "Ġ\"ĝ": 181,
      "Ġĝ\"": 182,
      "Ġ!ğ!": 183,
      "Ĝ!": 184,
      "$ğ": 185,
      "ĠĠĠĠĠĠĠĠĠĠĠĠ": 186,
      "ĀĀ$": 187,
      "$!": 188,
      "ĀĀě": 189,
      "Ĝğ": 190,
      "Ġ\"#": 191,
      "ĀĚ": 192,
      "Ā&": 193,
      "Ġ$ğ": 194,
      "Ġĝĝ": 195,
      "Ġ$!": 196,
      "ĠĜğ": 197,
      "ĀĀ%": 198,
      "Ġ+": 199,
      "ĠĜ!": 200,
      "Ĝ\"": 201,
      "ĀĀĚ": 202,
      "$\"": 203,
      "Ğ!": 204,
      "Ġ$\"": 205,
      "#\"": 206,
      "$Ğ": 207,
      "Ġ#ĝ": 208,
      "Ğğ": 209,
      "Āę": 210,
      "ĠĠĠĠĠĠĠĠĠĠ": 211,
      "ĜĞ": 212,
      "Ġĕ": 213,
      "#ĀĀ": 214,
      "$ĀĀ": 215,
      "#Ğ": 216,
      "ěğ": 217,
      "ĠĜ\"": 218,
      "Ā'": 219,
      "ĠĞğ!": 220,
      "ĠĀĀ": 221,
      "Ġ\"!ğ": 222,
      "%ĀĀ": 223,
      "Ğ\"": 224,
      "ĝğ": 225,
      "ě!": 226,
      "Ġ!\"ğ": 227,
      "ğğ": 228,
      "&ĀĀ": 229,
      "ĠğĞ!": 230,
      "%!": 231,
      "%ğ": 232,
      "Ġ!!Ğ": 233,
      "Ġğ!\"": 234,
      "Ġ!ğĞ": 235,
      "ĠĞ#": 236,
      "ğ!": 237,
      "ĀĘ": 238,
      "ě\"": 239,
      "ĝ!": 240,
      "'ĀĀ": 241,
      "Ġ,": 242,
      "ĞĞ": 243,
      "Ġ\"ğğ": 244,
      "$#": 245,
      "\"!": 246,
      "Ġğğ\"": 247,
      "!!": 248,
      "Ĝ#": 249,
      "!ğ": 250,
      "(ĀĀ": 251,
      "Ĝĝ": 252,
      "\"ğ": 253,
      "%\"": 254,
      "ĠğĞğ": 255,
      "ĝ\"": 256,
      "Ġğ\"!": 257,
      "ĠĞ!!": 258,
      "Ġ!Ğğ": 259,
      "ĠĠĠĠĠĠĠĠĠĠĠĠĠĠĠĠ": 260,
      "ĠĔ": 261,
      "Ā(": 262,
      "$ĝ": 263,
      "%Ğ": 264,
      "ĝĞ": 265,
      "ğĞ": 266,
      "!Ğ": 267,
      "ěĞ": 268,
      "##": 269,
      "Ġ\"!!": 270,
      ")ĀĀ": 271,
      "Ěğ": 272,
      "\"\"": 273,
      "Ġğ\"ğ": 274,
      "ĠğğĞ": 275,
      "ĠĞğğ": 276,
      "ĠĞ!ğ": 277,
      "Ġ!\"!": 278,
      "!\"": 279,
      "ĠğĜ": 280,
      "Ġ!!\"": 281,
      "Āė": 282,
      "#ĝ": 283,
      "Ġ!Ğ!": 284,
      "Ě\"": 285,
      "ğ\"": 286,
      "ěĝ": 287,
      "\"Ğ": 288,
      "Ġ\"\"ğ": 289,
      "Ā)": 290,
      "&!": 291,
      "Ě!": 292,
      "$$": 293,
      "ĠĜĞ": 294,
      "ĠĞğ\"": 295,
      "Ġğ!Ğ": 296,
      "*ĀĀ": 297,
      "Ġ!Ĝ": 298,
      "Ġ!ğ\"": 299,
      "Ġ-": 300,
      "ĝ#": 301,
      "ĝĀĀ": 302,
      "Ġ$Ğ": 303,
      "Ġ\"ğ!": 304,
      "Ġ\"!Ğ": 305,
      "&ğ": 306,
      "ě#": 307,
      "ĠĞĞ!": 308,
      "!#": 309,
      "%#": 310,
      "Ġ!$": 311,
      "Ġ##": 312,
      "ĜĀĀ": 313,
      "\"ĀĀ": 314,
      "ĀĀğĀ": 315,
      "%ĝ": 316,
      "ğ#": 317,
      "ĠĠĠĠĠĠĠĠĠĠĠĠĠ": 318,
      "ĠĠĠĠĠĠĠĠĠ": 319,
      "ĠĀ": 320,
      "ĞĀĀ": 321,
      "Ġĝ#": 322,
      "Ġ\"ğĞ": 323,
      "Ġ\"$": 324,
      "ĀĀĞĀ": 325,
      "Ġğ$": 326,
      "!ĝ": 327,
      "%$": 328,
      "&\"": 329,
      "ĝĝ": 330,
      "Ġ\"Ğğ": 331,
      "+ĀĀ": 332,
      "Ĝ$": 333,
      "\"ĝ": 334,
      "ĜĜ": 335,
      "Ġē": 336,
      "ĠğĞ\"": 337,
      "ĠĞ!\"": 338,
      "ĀĀ\"Ā": 339,
      "Ġğ\"\"": 340,
      "\"#": 341,
      "Ġ!\"Ğ": 342,
      "ĠĞ\"!": 343,
      "Ġ#!ğ": 344,
      "ĚĞ": 345,
      "Ġ!ĞĞ": 346,
      "ęğ": 347,
      "'!": 348,
      "Ěĝ": 349,
      "Ğ#": 350,
      "Ě#": 351,
      "Ğĝ": 352,
      "ğĝ": 353,
      "Ġĝğ!": 354,
      "ĀĀĝĀ": 355,
      "ě$": 356,
      "ĀĀ!Ā": 357,
      "ĠĞĞğ": 358,
      "#$": 359,
      "ę!": 360,
      "Ġ.": 361,
      "ěĜ": 362,
      "'ğ": 363,
      "Ġ!#ğ": 364,
      "&Ğ": 365,
      "\"$": 366,
      "Ġ#ğğ": 367,
      "ĠĞ\"ğ": 368,
      "ĠĞĜ": 369,
      "Ġĝ!!": 370,
      "ĠĞ$": 371,
      "Ġ!!ĝ": 372,
      "ĀĀ&": 373,
      "Ġ!ğĝ": 374,
      "Ġ\"\"!": 375,
      "ĝ$": 376,
      "!$": 377,
      "Ġ\"Ğ!": 378,
      "Ġğĝ!": 379,
      "ĀĀę": 380,
      "ĝĜ": 381,
      "ĀĀ'": 382,
      "Ġ!\"\"": 383,
      "Ġ%ğ": 384,
      "&#": 385,
      "ěě": 386,
      "Ġğ!#": 387,
      "&ĝ": 388,
      "Ġğğ#": 389,
      "ĠğĞĞ": 390,
      "'\"": 391,
      "ĀĀĘ": 392,
      "ęĞ": 393,
      "Ġ\"\"Ğ": 394,
      "ę\"": 395,
      "Ġ$#": 396,
      "Ġ!Ğ\"": 397,
      "&$": 398,
      "ĠěĞ": 399,
      "!Ĝ": 400,
      "ĠĞĞ\"": 401,
      "%%": 402,
      "ĠĒ": 403,
      "ĀĀĜĀ": 404,
      "Ġğ\"Ğ": 405,
      "Ġ#\"ğ": 406,
      "Ġ#$": 407,
      "ĠĞĝ!": 408,
      "Ġěğ": 409,
      "Ġĝğğ": 410,
      "%Ĝ": 411,
      "Ġ\"!\"": 412,
      "ĀĀ#Ā": 413,
      "Ġ\"ğ\"": 414,
      "Ġ#!!": 415,
      "'Ğ": 416,
      "ĠĝĞ!": 417,
      "Ġ\"Ĝ": 418,
      "ĠĞ!Ğ": 419,
      "Ġğ#ğ": 420,
      "!%": 421,
      "ĚĜ": 422,
      "Ğ$": 423,
      "ĀĀ(": 424,
      "Ġğě": 425,
      "\"%": 426,
      "ęĝ": 427,
      "ĠĞğĞ": 428,
      "ĀĀė": 429,
      "(!": 430,
      "ę#": 431,
      "ĞĜ": 432,
      "'#": 433,
      "ĠĝĜ": 434,
      "Ġ#!Ğ": 435,
      "Ġ!ĝğ": 436,
      "Ę!": 437,
      "Ġ\"ĞĞ": 438,
      "Ġğĝğ": 439,
      "Ġ\"#ğ": 440,
      "Ġ!ĝ!": 441,
      "\"Ĝ": 442,
      "Ęğ": 443,
      "ğ$": 444,
      "Ġ!%": 445,
      "Ġĝ$": 446,
      "Ġ$ĝ": 447,
      "ĠĜĝ": 448,
      "#Ĝ": 449,
      "Ġğğĝ": 450,
      "!ě": 451,
      "ĠĀ!": 452,
      "ĀĀěĀ": 453,
      "ĠĠĠĠĠĠĠĠĠĠĠĠĠĠĠ": 454,
      "Ġ#ğĞ": 455,
      "Ġ/": 456,
      "ğĜ": 457,
      "ĀĀğĀğ": 458,
      "Ġĝğ\"": 459,
      "(\"": 460,
      "ě%": 461,
      "Ġ!#!": 462,
      "(ğ": 463,
      "ĘĞ": 464,
      "Ġ\"!ĝ": 465,
      "Ġ#ğ!": 466,
      "Ġ#Ĝ": 467,
      "ĠĀĞ": 468,
      "Ġ!ğ#": 469,
      "ĠĞğ#": 470,
      "#%": 471,
      "&&": 472,
      "ĀĀ)": 473,
      "'$": 474,
      "Ě$": 475,
      "ĠĞ\"\"": 476,
      "ĠğĞ#": 477,
      "Ġě!": 478,
      "Ġĝ!ğ": 479,
      "Ġĝ!\"": 480,
      "Ğ%": 481,
      "ĠĀğ": 482,
      "ĀĀĕ": 483,
      "ĀĀğĀ!": 484,
      "ĀĀ$Ā": 485,
      "Ęĝ": 486,
      "ĀĀĖ": 487,
      "ĀĀğĀĞ": 488,
      "Ġ!#Ğ": 489,
      "Ġğ#!": 490,
      "ĀĀ%Ā": 491,
      "Ġğ\"#": 492,
      "Ġ!Ğĝ": 493,
      "Ġğ%": 494,
      "ĠĠĠĠĠĠĠĠĠĠĠĠĠĠĠĠĠĠ": 495,
      "ĠĞ!#": 496,
      "Ġ!!#": 497,
      "Ġ%!": 498,
      "&Ĝ": 499,
      "Ġ\"ğĝ": 500,
      "Ě%": 501,
      "ĝ%": 502,
      "ĀĀĝĀ!": 503,
      "ĠĀĝ": 504,
      "Ġ!ě": 505,
      "Ġğ!ĝ": 506,
      "\"ě": 507,
      "ĝě": 508,
      "ĀĀĞĀğ": 509,
      "ĀĀ!Ā!": 510,
      "ğ%": 511,
      "ĀĀĞĀ!": 512,
      "#&": 513,
      "Ġ$$": 514,
      "Ę\"": 515,
      "ęĜ": 516,
      "Ġğĝ\"": 517,
      "Ġ%Ğ": 518,
      "$%": 519,
      "ĠĀ\"": 520,
      "ĀĀ*": 521,
      "ĀĀ!Āğ": 522,
      "(#": 523,
      "ėĞ": 524,
      "Ěě": 525,
      "Ĝě": 526,
      "ĠĞě": 527,
      "Ġ\"\"ĝ": 528,
      ")!": 529,
      "ĠĞ#!": 530,
      "&%": 531,
      "Ġ\"#!": 532,
      "ĀĀğĀ\"": 533,
      "#ě": 534,
      "Ġ!ĝĞ": 535,
      "Ġ\"ĝğ": 536,
      "Ĝ%": 537,
      "Ġđ": 538,
      "Ġ##ğ": 539,
      "ĀĀĚĀ": 540,
      "ğě": 541,
      "Ġ\"%": 542,
      "ĠĞĞĞ": 543,
      "ĀĀĞĀĞ": 544,
      "ĀĀ!Ā\"": 545,
      "ė!": 546,
      "ę$": 547,
      "ęě": 548,
      "Ġ!#\"": 549,
      "Ġ#Ğğ": 550,
      "ĀĀĞĀĝ": 551,
      "Ġ!\"ĝ": 552,
      "'&": 553,
      "Ġ#\"!": 554,
      "\"&": 555,
      "Ġ\"ě": 556,
      "ĀĀĞĀ\"": 557,
      "ĠĞĝğ": 558,
      ")ğ": 559,
      "ĀĀ+": 560,
      "Ġ!!Ĝ": 561,
      "ĀĀğĀĜ": 562,
      "Ġĝ\"!": 563,
      "Ġ\"#Ğ": 564,
      "'%": 565,
      "($": 566,
      "Ġ\"\"\"": 567,
      "ĀĀĝĀğ": 568,
      "'ĝ": 569,
      "Ġ#\"Ğ": 570,
      "ĠĝĞ\"": 571,
      "ĠĝĞğ": 572,
      "Ġ$!ğ": 573,
      "Ę#": 574,
      "ĠĠĠĠĠĠĠĠĠĠĠĠĠĠĠĠĠĠĠĠ": 575,
      "ĀĀ!ĀĞ": 576,
      "ėğ": 577,
      "ĠĜ!!": 578,
      "ę%": 579,
      "ĀĀğĀĝ": 580,
      "Ġğ#\"": 581,
      "Ġğ#Ğ": 582,
      ",ĀĀ": 583,
      "ĠğĝĞ": 584,
      "Ġĝĝ!": 585,
      "ĠĜğ!": 586,
      "ĠĜ#": 587,
      "(Ğ": 588,
      "Ġ!ğĜ": 589,
      "Ġ#ĞĞ": 590,
      "Ġ\"Ğ\"": 591,
      "Ġ!ĝ\"": 592,
      "ĀĀĜĀ!": 593,
      "!&": 594,
      "ė\"": 595,
      "Ġ\"Ğĝ": 596,
      "ĀĀĝĀ\"": 597,
      "Ġ$ğğ": 598,
      "$Ĝ": 599,
      "ĘĜ": 600,
      "ĀĀ,": 601,
      "ĀĀ-": 602,
      "ĠĞ\"#": 603,
      "*!": 604,
      "Ğě": 605,
      "ĠĞ%": 606,
      "ĠĠĠĠĠĠĠĠĠĠĠĠĠĠĠĠĠĠĠ": 607,
      "Ġ\"ĝ!": 608,
      "\"Ě": 609,
      "(%": 610,
      "Ġ0": 611,
      "Ġ!$ğ": 612,
      "ĀĀ\"Āĝ": 613,
      "Ġěĝ": 614,
      "ĀĀĝĀĝ": 615,
      "ğĚ": 616,
      "ĀĀ!Āĝ": 617,
      "Ġĝĝğ": 618,
      "'Ĝ": 619,
      "Ğ&": 620,
      "Ġ!Ğ#": 621,
      "ĠĞ\"Ğ": 622,
      "Ġ#!ĝ": 623,
      "ĜĚ": 624,
      "ĀĀĔ": 625,
      "ĠĞĝ\"": 626,
      "(ĝ": 627,
      "Ġ#Ğ!": 628,
      "Ā*": 629,
      "ęĚ": 630,
      "Ġ#%": 631,
      "Ġğ!$": 632,
      "ĀĀ\"Āğ": 633,
      "$&": 634,
      "$ě": 635,
      "ĀĖ": 636,
      "Ġĝ#!": 637,
      "&ě": 638,
      "ĠĞĞ#": 639,
      "!Ě": 640,
      "Ġĝě": 641,
      "Ġě\"": 642,
      "ĠĝğĞ": 643,
      "ĀĀ\"ĀĞ": 644,
      "Ę$": 645,
      "Ġğ$ğ": 646,
      "Ġğğ$": 647,
      "Ġ\"!Ĝ": 648,
      "ĠĞ#ğ": 649,
      "ĠğĞĝ": 650,
      "Ġĝ\"ğ": 651,
      ")\"": 652,
      "ĝ&": 653,
      "ĠğĜ!": 654,
      "ĠĜĜ": 655,
      "Ġ%\"": 656,
      "ĞĚ": 657,
      "ğ&": 658,
      "Ġ\"!#": 659,
      "ĀĀ!ĀĜ": 660,
      "Ęě": 661,
      "ĠĐ": 662,
      "Ġ\"$ğ": 663,
      "Ġğ\"ĝ": 664,
      "Ġ$\"ğ": 665,
      "ĀĀ\"Ā!": 666,
      "Ė!": 667,
      "#Ě": 668,
      ")$": 669,
      "Ġ!\"#": 670,
      "''": 671,
      "ėĝ": 672,
      "ĝĚ": 673,
      "ĠĀĜ": 674,
      "ĠĞ!$": 675,
      "Ġ\"ĝĞ": 676,
      "ĠĜğ\"": 677,
      "Ĝ&": 678,
      "ĠĞğ$": 679,
      "Ġ\"ğĜ": 680,
      "ĠĞ!ĝ": 681,
      "Ġ#!\"": 682,
      "ğ'": 683,
      "ĠĀě": 684,
      "ĀĀē": 685,
      "Ġ$Ğğ": 686,
      "ĠĞğĝ": 687,
      "ĀĀğĀ#": 688,
      "ě&": 689,
      "Ġĝğ#": 690,
      "Ġ#ğ\"": 691,
      "Ġ$!Ğ": 692,
      "(&": 693,
      "Ā+": 694,
      "Ě&": 695,
      "ĀĀ/": 696,
      "Ğę": 697,
      "Ġğ$!": 698,
      "ĠĞ#\"": 699,
      "Ġ\"ğ#": 700,
      "Ġ!#ĝ": 701,
      "Ėğ": 702,
      "ę&": 703,
      "ĚĚ": 704,
      "ěĚ": 705,
      "ĠĜĞ!": 706,
      "Ġ$!!": 707,
      "Ġ#ğĝ": 708,
      "Ġĝ\"\"": 709,
      "Ġĝĝ\"": 710,
      "Ġ!Ĝ!": 711,
      "ĀĀĒ": 712,
      "ĀĀĝĀĞ": 713,
      "ĀĀĝĀĜ": 714,
      "Ā,": 715,
      "ĠğĜğ": 716,
      "ĀĀ#Ā!": 717,
      "Ġ$\"!": 718,
      ")#": 719,
      "ĠĀ#": 720,
      "ĠĀ$": 721,
      "Ġ!Ĝğ": 722,
      "ĀĀ\"ĀĜ": 723,
      "ĀĀĜĀğ": 724,
      "Ġ#Ğĝ": 725,
      "Ġ##!": 726,
      "Ġĝ!#": 727,
      "ĀĀ\"Ā\"": 728,
      "Ġ\"ĝ\"": 729,
      "ėĜ": 730,
      "Ġ!ĝĝ": 731,
      "ĀĀĜĀ\"": 732,
      "\"'": 733,
      "ęę": 734,
      "Ġě#": 735,
      "ĀĀ#Āğ": 736,
      "Ġ\"#\"": 737,
      "Ġ\"#ĝ": 738,
      "Ėĝ": 739,
      "Ġ!$!": 740,
      "Ġ#ě": 741,
      "Ġ%#": 742,
      "ĠĞĝĞ": 743,
      "ĠĜ\"!": 744,
      "'ě": 745,
      "ė#": 746,
      "ĠĞĜ!": 747,
      "ĀĀ.": 748,
      "Ġ%ĝ": 749,
      "Ġ!ğ$": 750,
      "ĠĚğ": 751,
      "ĀĀĞĀĜ": 752,
      "ĀĀ#Ā\"": 753,
      "%&": 754,
      "ĘĚ": 755,
      "Ġ!&": 756,
      "ĠĜ$": 757,
      "ĠğğĜ": 758,
      "Ġ%$": 759,
      "ĀĀ!Ā#": 760,
      "Ġĝ!Ğ": 761,
      "ĠĜğğ": 762,
      "ĠĜ!ğ": 763,
      "ĖĞ": 764,
      "ĀĀ#Āĝ": 765,
      "Ġ$\"Ğ": 766,
      "*#": 767,
      "Ę%": 768,
      "Ġ1": 769,
      "Ġ!Ě": 770,
      "Ġ$Ĝ": 771,
      "ĀĀğĀ%": 772,
      "ĀĀĞĀ#": 773,
      "ĀĀĞĀě": 774,
      "Ġğ##": 775,
      "ĠğĚ": 776,
      "Ġ\"Ĝğ": 777,
      "ĀĀĞĀ%": 778,
      "ĠĜ!\"": 779,
      "%ě": 780,
      "Ġ##Ğ": 781,
      "ĠĠĠĠĠĠĠĠĠĠĠĠĠĠ": 782,
      "ĠĞ\"ĝ": 783,
      "ĀĀ!Ā$": 784,
      "Ġ#\"\"": 785,
      "ĠĝĞ#": 786,
      "ĀĀĜĀĝ": 787,
      "Ġ$ğĞ": 788,
      "('": 789,
      "Ėě": 790,
      "Ęę": 791,
      "Ĝę": 792,
      "ĀĀđ": 793,
      "Ġ&!": 794,
      "ĀĀ!Āě": 795,
      "Ġĝ!$": 796,
      "&'": 797,
      ")%": 798,
      "Ġğ$\"": 799,
      "Ġ\"Ĝ!": 800,
      "ĠĜĞ\"": 801,
      "Ġğ!%": 802,
      "Ġğ!Ĝ": 803,
      "ĠĞĞĝ": 804,
      "ĀĀğĀ$": 805,
      "ĀĀğĀě": 806,
      "ĀĀĜĀĞ": 807,
      ")Ğ": 808,
      "*\"": 809,
      "ėě": 810,
      "ĠĞ#Ğ": 811,
      "Ġ#\"ĝ": 812,
      "Ġğ#ĝ": 813,
      "Ġĝ\"#": 814,
      "Ġ$ğ!": 815,
      "Ġ#ĝ!": 816,
      "Ġ!!$": 817,
      "ĠĚ!": 818,
      "ĀĀğĀĚ": 819,
      "ĀĀĚĀ!": 820,
      "ĠĠĠĠĠĠĠĠĠĠĠĠĠĠĠĠĠĠĠĠĠĠĠĠĠĠĠĠĠĠĠĠ": 821,
      "*ğ": 822,
      "ĕ!": 823,
      "Ġ$Ğ!": 824,
      "Ġ#Ğ\"": 825,
      "ĀĀ%Āğ": 826,
      "Ġ#ĝğ": 827,
      "#(": 828,
      "%'": 829,
      "ėĚ": 830,
      "Ěę": 831,
      "Ğ'": 832,
      "Ġ!\"Ĝ": 833,
      "Ġ#ğĜ": 834,
      "ĀĀĝĀ#": 835,
      "Ġ\"ĝĝ": 836,
      "ĠĞ$!": 837,
      "ĠĞĜğ": 838,
      "ĠĜĞğ": 839,
      "Ġ\"Ğ#": 840,
      "Ġğĝ#": 841,
      "ĀĀ#ĀĞ": 842,
      "*$": 843,
      "ĠğĜ\"": 844,
      "Ġğ\"$": 845,
      "ĀĀěĀğ": 846,
      "ĀĀěĀ\"": 847,
      "+!": 848,
      "ğę": 849,
      "ĀĀĞĀ$": 850,
      "Ġ!ĝ#": 851,
      "ĀĀ\"Ā$": 852,
      "ĀĀ$ĀĞ": 853,
      "(Ĝ": 854,
      "ĝę": 855,
      "Ġĝ#\"": 856,
      "Ġ$%": 857,
      "Ġ!!ě": 858,
      "ĠĞĝ#": 859,
      "ě'": 860,
      "Ġğ&": 861,
      "Ġ!$Ğ": 862,
      "Ġ\"$Ğ": 863,
      "Ġ$ĞĞ": 864,
      "ĠěĜ": 865,
      "ĠğĞ$": 866,
      "Ġ\"ĞĜ": 867,
      "ĠĝĞĞ": 868,
      "ĀĀĚĀğ": 869,
      "Ġ#ĝĞ": 870,
      ")&": 871,
      "Ā-": 872,
      "Ġ\"Ě": 873,
      "ĠĜĝğ": 874,
      "ĠğĞĜ": 875,
      "Ġ#!Ĝ": 876,
      "ĀĀ$Āğ": 877,
      "ĀĀěĀ!": 878,
      "ĠĜ\"\"": 879,
      "!'": 880,
      "Ġğ$Ğ": 881,
      "Ġ&\"": 882,
      "Ġ!ĞĜ": 883,
      "ĀĀ!Ā%": 884,
      "Ġĝ\"Ğ": 885,
      "Āĕ": 886,
      "ĝ'": 887,
      "Ġď": 888,
      "ĠĀĚ": 889,
      "Ġĝ#ğ": 890,
      "Ġ$#ğ": 891,
      "Ġ\"\"#": 892,
      "ĀĀ$Ā\"": 893,
      "ĠĝĝĞ": 894,
      "Ĝ'": 895,
      "ĠĞĜ\"": 896,
      "Ġ\"ĜĞ": 897,
      "Ġ#$ğ": 898,
      "Ġ#$Ğ": 899,
      "Ġ$#!": 900,
      "ĀĀ$Ā!": 901,
      "#'": 902,
      "&(": 903,
      ")'": 904,
      "ğĘ": 905,
      "Ġ!Ĝ\"": 906,
      "Ġĝ%": 907,
      "ĠĝĜ!": 908,
      "Ġ#$!": 909,
      "Ġ#!#": 910,
      "ĀĀ\"Ā%": 911,
      "ĀĀ#ĀĜ": 912,
      "ĠĜ\"ğ": 913,
      "\"ę": 914,
      "Ġ!$\"": 915,
      "ĀĀ\"Ā#": 916,
      "ĀĀ$Āĝ": 917,
      "*(": 918,
      "ė$": 919,
      "ėę": 920,
      "Ğ(": 921,
      "ĀĀĞĀ&": 922,
      "Ġğĝĝ": 923,
      "ĀĀ%Ā\"": 924,
      "!ę": 925,
      "))": 926,
      "ĀĔ": 927,
      "Ė\"": 928,
      "ěę": 929,
      "Ġ2": 930,
      "Ġ##\"": 931,
      "Ġğ\"Ĝ": 932,
      "ĀĀ!ĀĚ": 933,
      "ĀĀ#Ā$": 934,
      ")(": 935,
      ")ĝ": 936,
      "Ę&": 937,
      "ĠĝĜğ": 938,
      "Ġ##ĝ": 939,
      "Ġ!##": 940,
      "ĠĜ!Ğ": 941,
      "+\"": 942,
      "Ġ\"&": 943,
      "Ġ%!ğ": 944,
      "ĠĚĞ": 945,
      "Ġ\"ğě": 946,
      "Ġ$ğĝ": 947,
      "Ġ$!ĝ": 948,
      "ĕĝ": 949,
      "ĖĚ": 950,
      "Ę'": 951,
      "ĠĀ&": 952,
      "ĠĞ$ğ": 953,
      "Ġ$ě": 954,
      "Ġě!!": 955,
      "Ġ&$": 956,
      "ĀĀĝĀě": 957,
      "ĀĀ\"ĀĚ": 958,
      "Ġ$ğ\"": 959,
      "ĠĜğ#": 960,
      "%Ě": 961,
      "*Ğ": 962,
      "-ĀĀ": 963,
      "ĕĜ": 964,
      "ĖĜ": 965,
      "ĠĀę": 966,
      "ĠğĜĞ": 967,
      "Ġ!'": 968,
      "ĠĞĚ": 969,
      "ĠĜě": 970,
      "Ġ!ğě": 971,
      "ĀĀ\"Āě": 972,
      "ĀĀĜĀĜ": 973,
      "ĀĀ%ĀĞ": 974,
      "Ġ$\"ĝ": 975,
      "ĠĞ##": 976,
      "$'": 977,
      "'Ā": 978,
      "ĕğ": 979,
      "ěĀĀ": 980,
      "Ġĝ$!": 981,
      "Ġ$#Ğ": 982,
      "Ġěğ\"": 983,
      "Ġ\"ğ$": 984,
      "Ġ\"\"Ĝ": 985,
      "ĀĀğĀę": 986,
      "ĀĀ#Ā#": 987,
      "Ġĝ\"$": 988,
      "ĀĀěĀĞ": 989,
      "!(": 990,
      "%ę": 991,
      "ĕĞ": 992,
      "Ġ!ĜĞ": 993,
      "Ġ!Ĝĝ": 994,
      "ĀĀĜĀ#": 995,
      "\"(": 996,
      "*&": 997,
      "ĘĀĀ": 998,
      "ĠĞ$Ğ": 999,
      "ĠĜĝ!": 1000,
      "Ġěğğ": 1001,
      "Ġ\"!ě": 1002,
      "Ġĝ!ĝ": 1003,
      "ĕ#": 1004,
      "ęĀĀ": 1005,
      "Ġ!ěğ": 1006,
      "Ġ!$ĝ": 1007,
      "Ġ%\"ğ": 1008,
      "Ġ#ğ#": 1009,
      "ĀĀĝĀ$": 1010,
      "Ġ#\"#": 1011,
      "ĀĀĜĀě": 1012,
      "Ġ$!\"": 1013,
      "ĠĜ\"#": 1014,
      "$Ě": 1015,
      "Ġ!%ğ": 1016,
      "Ġ#&": 1017,
      "Ġ#Ĝ!": 1018,
      "Ġğğ%": 1019,
      "ĠěĞğ": 1020,
      "ĠĞĞ$": 1021,
      "ĠĞ\"$": 1022,
      "ĀĀ%Ā!": 1023,
      "Ġ#ĝ\"": 1024,
      "$ę": 1025,
      "*%": 1026,
      "Ā#ğ": 1027,
      "Ā#!": 1028,
      "Ġ!\"$": 1029,
      "Ġ#\"Ĝ": 1030,
      "ĀĀěĀĝ": 1031,
      "ĀĀěĀĜ": 1032,
      "ĠĞ#ĝ": 1033,
      "ĜĘ": 1034,
      "ĝĘ": 1035,
      "Ġ\"$!": 1036,
      "Ġ\"$\"": 1037,
      "Ġĝ#Ğ": 1038,
      "Ġ$$Ğ": 1039,
      "Ġ%Ĝ": 1040,
      "Ġ&Ğ": 1041,
      "Ġ!Ğ$": 1042,
      "Ġ!Ğě": 1043,
      "ĀĀĞĀĚ": 1044,
      "Ġĝğĝ": 1045,
      "Ġ!#Ĝ": 1046,
      "ĀĀĜĀ$": 1047,
      "Ġĝ\"ĝ": 1048,
      "ĠĜğĞ": 1049,
      "!ĀĀ": 1050,
      "$(": 1051,
      "+%": 1052,
      "ĔĜ": 1053,
      "Ġ\"Ĝ\"": 1054,
      "Ġ$&": 1055,
      "Ġ%ğ!": 1056,
      "ĀĀğĀĘ": 1057,
      "Ġĝğ$": 1058,
      "Ġ!ĝĜ": 1059,
      "Ġ#ĝĝ": 1060,
      "+#": 1061,
      "+ğ": 1062,
      "Ė#": 1063,
      "ė%": 1064,
      "Ě'": 1065,
      "Ě(": 1066,
      "ĚĘ": 1067,
      "ĠĀ%": 1068,
      "ĠĀ'": 1069,
      "Ġ#Ĝğ": 1070,
      "ĠĜĜ!": 1071,
      "ĠĚ\"": 1072,
      "Ġę!": 1073,
      "ĀĀ$ĀĜ": 1074,
      "ĀĀ%Āĝ": 1075,
      "ĀĀĚĀĝ": 1076,
      "*'": 1077,
      "ĕ\"": 1078,
      "Ė$": 1079,
      "Ġ!%Ğ": 1080,
      "ĠĝĜ\"": 1081,
      "Ġě!ğ": 1082,
      "Ġ%Ğğ": 1083,
      "Ġ&ğ": 1084,
      "ĀĀ%Āě": 1085,
      "*ĝ": 1086,
      "ĔĞ": 1087,
      "ėĘ": 1088,
      "Ġğ%!": 1089,
      "Ġğ$#": 1090,
      "Ġ!ě\"": 1091,
      "Ġ$$ğ": 1092,
      "ĠĜ%": 1093,
      "ĠĜĝ\"": 1094,
      "Ġěğ!": 1095,
      "Ġ%ğĞ": 1096,
      "Ġ\"!$": 1097,
      "ĀĀğĀ&": 1098,
      "ĀĀ\"Āę": 1099,
      "Ġğ#Ĝ": 1100,
      "ĀĀ$Ā#": 1101,
      "Ā.": 1102,
      "Ĕğ": 1103,
      "ĀĀĐ": 1104,
      "Ġě$": 1105,
      "ĠĚ#": 1106,
      "ĠĚĝ": 1107,
      "ĠĞğĜ": 1108,
      "Ġ'!": 1109,
      "ĠęĞ": 1110,
      "Ġğĝ$": 1111,
      "ĀĀěĀ$": 1112,
      "ĠĜ!#": 1113,
      "\"Ę": 1114,
      "(ě": 1115,
      "+&": 1116,
      "ĝ(": 1117,
      "ĠĎ": 1118,
      "ĠĞ&": 1119,
      "ĠĜ#!": 1120,
      "ĠěĞ!": 1121,
      "Ġ%ğğ": 1122,
      "ĠĞğ%": 1123,
      "ĀĀğĀ'": 1124,
      "ĀĀĝĀ%": 1125,
      "ĀĀ$Āě": 1126,
      "ĀĀěĀ#": 1127,
      "Ġ$Ğĝ": 1128,
      "Ġğ%Ğ": 1129,
      "Ġğğě": 1130,
      "ĠěĞ\"": 1131,
      "Ġ%\"Ğ": 1132,
      "ĠĞ!Ĝ": 1133,
      "Ġğ\"ě": 1134,
      "ĀĀ%Ā$": 1135,
      "ĀĀĚĀĞ": 1136,
      "\")": 1137,
      "+'": 1138,
      "ĕĚ": 1139,
      "ĕě": 1140,
      "ė&": 1141,
      "ĘĘ": 1142,
      "ĠĝĚ": 1143,
      "Ġ#ĜĞ": 1144,
      "Ġ$ĝğ": 1145,
      "ĠĜ#ğ": 1146,
      "Ġ%!!": 1147,
      "Ġ&ĝ": 1148,
      "ĀĀĞĀę": 1149,
      "Ġ#ĞĜ": 1150,
      "Ġ$ğ#": 1151,
      "Ġĝĝ#": 1152,
      "'(": 1153,
      "+$": 1154,
      "ĚĀĀ": 1155,
      "ě(": 1156,
      "ĝ)": 1157,
      "Ġğ%ğ": 1158,
      "ĠğĜĝ": 1159,
      "Ġ!$#": 1160,
      "ĠĚĜ": 1161,
      "Ġ'\"": 1162,
      "ĠĞĞĜ": 1163,
      "ĠĞ\"Ĝ": 1164,
      "ĀĀĝĀ&": 1165,
      "ĀĀ%Ā#": 1166,
      "#ĀĀ)": 1167,
      "ĠĜĞ#": 1168,
      "%(": 1169,
      "'ę": 1170,
      "'Ě": 1171,
      ",#": 1172,
      ".ĀĀ": 1173,
      "Ėę": 1174,
      "Ġğě!": 1175,
      "ĠğĜ#": 1176,
      "Ġ!%\"": 1177,
      "ĠĞ$\"": 1178,
      "ĠĞĜĞ": 1179,
      "Ġ\"$ĝ": 1180,
      "Ġ\"%Ğ": 1181,
      "Ġĝ##": 1182,
      "ĠĜĚ": 1183,
      "Ġěĝ\"": 1184,
      "Ġ\"\"$": 1185,
      "ĀĀ!Ā&": 1186,
      "ĀĀĜĀ%": 1187,
      "Ġ\"##": 1188,
      "ĀĀĚĀ\"": 1189,
      "Ġ$\"Ĝ": 1190,
      "Ġ#ĝĜ": 1191,
      "$ĀĀę": 1192,
      "(ĀĀ&": 1193,
      "$Ę": 1194,
      "ėĀĀ": 1195,
      "Ġ!ě!": 1196,
      "ĠĞěğ": 1197,
      "Ġ$ĝ!": 1198,
      "Ġ$#ĝ": 1199,
      "Ġ%#Ğ": 1200,
      "Ġ%ğĝ": 1201,
      "Ġğ!ě": 1202,
      "Ġęğ": 1203,
      "ĀĀĞĀ'": 1204,
      "ĠĞĝĝ": 1205,
      "ĠĝĞĝ": 1206,
      "ĀĀ#Ā&": 1207,
      "Ġ$ğĜ": 1208,
      "ĠĜğ$": 1209,
      "#ę": 1210,
      "Ęė": 1211,
      "ĠĞ$#": 1212,
      "Ġ\"ě!": 1213,
      "Ġ$Ğ\"": 1214,
      "Ġ$%ğ": 1215,
      "Ġěě": 1216,
      "Ġ%#ğ": 1217,
      "Ġ%!ĝ": 1218,
      "Ġ&#": 1219,
      "Ġ'ğ": 1220,
      "ĀĀĜĀĚ": 1221,
      "ĀĀ#Āě": 1222,
      "ĠĠĠĠĠĠĠĠĠĠĠĠĠĠĠĠĠ": 1223,
      "Ġ\"#Ĝ": 1224,
      "ĀĀĚĀ$": 1225,
      "$ĀĀ&": 1226,
      "ĀĀ&Ā": 1227,
      "Ĕ\"": 1228,
      "ĞĘ": 1229,
      "ğ(": 1230,
      "ĠĀĘ": 1231,
      "Ġ!Ĝ#": 1232,
      "ĠĞě!": 1233,
      "Ġ\"ěğ": 1234,
      "Ġ#$ĝ": 1235,
      "ĠĜĜ\"": 1236,
      "Ġ!!%": 1237,
      "Ġě\"ğ": 1238,
      "ĀĀĞĀĘ": 1239,
      "ĀĀĝĀ'": 1240,
      "ĀĀ\"Ā&": 1241,
      "ĀĀĜĀ&": 1242,
      "ĀĀ#Ā%": 1243,
      "Ġ\"ĝ#": 1244,
      "Ġĝĝĝ": 1245,
      "Ġ$!Ĝ": 1246,
      "ĀĀ%ĀĜ": 1247,
      "ĀĀĚĀ#": 1248,
      "Ġ$\"\"": 1249,
      "#ĀĀ&": 1250,
      "%ĀĀ&": 1251,
      "ĠĞ#$": 1252,
      "Ġğěğ": 1253,
      "Ġ\"%ğ": 1254,
      "Ġ%!Ğ": 1255,
      "ĀĀ!Āę": 1256,
      "ĀĀĝĀĚ": 1257,
      "Ġğ#$": 1258,
      "ĀĀ#ĀĚ": 1259,
      "ĀĀ#Āę": 1260,
      "ĀĀěĀ%": 1261,
      "ĠĜ\"Ğ": 1262,
      "&ĀĀ&": 1263,
      "ĠĠĠĠĠĠĠĠĠĠĠĠĠĠĠĠĠĠĠĠĠĠĠĠĠ": 1264,
      "Ĕě": 1265,
      "ėė": 1266,
      "ěĘ": 1267,
      "Ĝ(": 1268,
      "Ĝė": 1269,
      "Ğ)": 1270,
      "ĠĜ#\"": 1271,
      "Ġěĝ!": 1272,
      "Ġě!\"": 1273,
      "Ġ%Ğ!": 1274,
      "Ġę#": 1275,
      "ĀĀ!ĀĘ": 1276,
      "ĠğĝĜ": 1277,
      "ĀĀ\"ĀĘ": 1278,
      "ĀĀ$Ā%": 1279,
      "ĠĜğĝ": 1280,
      ")Ĝ": 1281,
      "+Ğ": 1282,
      ",!": 1283,
      "ēĝ": 1284,
      "ę'": 1285,
      "Ğ*": 1286,
      "ğ)": 1287,
      "Ġğ'": 1288,
      "ĠĞě\"": 1289,
      "Ġĝ&": 1290,
      "Ġ$ĝĞ": 1291,
      "Ġě\"\"": 1292,
      "Ġ%#!": 1293,
      "Ġ\"Ğ$": 1294,
      "ĀĀ#ĀĘ": 1295,
      "Ġ#Ğ#": 1296,
      "Ġ\"ĝĜ": 1297,
      "ĀĀ%ĀĚ": 1298,
      "%ĀĀę": 1299,
      "'ĀĀ&": 1300,
      "ĠĠĠĠĠĠĠĠĠĠĠĠĠĠĠĠĠĠĠĠĠĠ": 1301,
      "((": 1302,
      "(Ā": 1303,
      "(Ě": 1304,
      "Ė%": 1305,
      "ĖĀĀ": 1306,
      "Ĝĕ": 1307,
      "ĠĞěĞ": 1308,
      "Ġ$$!": 1309,
      "ĠĜĞĞ": 1310,
      "ĠĜĝĞ": 1311,
      "Ġ%$ğ": 1312,
      "Ġ%ĞĞ": 1313,
      "Ġ&ğğ": 1314,
      "Ġ'Ğ": 1315,
      "ĠĞ!%": 1316,
      "Ġ\"Ğě": 1317,
      "ĀĀ!Ā'": 1318,
      "Ġ!#$": 1319,
      "ĠĞĝ$": 1320,
      "Ġ\"ĝ$": 1321,
      "ĀĀ$Ā&": 1322,
      "ĀĀĚĀ%": 1323,
      "Ġ\"$Ĝ": 1324,
      "ē!": 1325,
      "Ĕ#": 1326,
      "Ĕĝ": 1327,
      "Ġğę": 1328,
      "Ġğ%\"": 1329,
      "Ġ\"$#": 1330,
      "Ġĝě\"": 1331,
      "ĠĝĜ#": 1332,
      "Ġ#Ĝ\"": 1333,
      "Ġě!#": 1334,
      "Ġ%\"!": 1335,
      "Ġ&ğ!": 1336,
      "Ġ'#": 1337,
      "Ġğ\"%": 1338,
      "ĀĀĞĀė": 1339,
      "ĀĀ$ĀĚ": 1340,
      "ĠĜ\"$": 1341,
      "ĠĠĠĠĠĠĠĠĠĠĠĠĠĠĠĠĠĠĠĠĠĠĠĠĠĠ": 1342,
      "!)": 1343,
      "#Ę": 1344,
      "ēĞ": 1345,
      "ĕ$": 1346,
      "Ěė": 1347,
      "Ġ\"ę": 1348,
      "Ġğğ&": 1349,
      "Ġě\"!": 1350,
      "ĠěğĞ": 1351,
      "Ġ!\"ě": 1352,
      "Ġę\"": 1353,
      "Ġęĝ": 1354,
      "ĠĞ\"%": 1355,
      "Ġĝ!%": 1356,
      "ĀĀěĀ&": 1357,
      "ĠĜ!$": 1358,
      "#)": 1359,
      "')": 1360,
      "Ė&": 1361,
      "Ėė": 1362,
      "ęĀ": 1363,
      "Ě)": 1364,
      "Ġ!%!": 1365,
      "Ġ\"'": 1366,
      "Ġĝ$ğ": 1367,
      "Ġě%": 1368,
      "ĠěĜ!": 1369,
      "ĠĚĞ!": 1370,
      "ĠĘ!": 1371,
      "Ġ#!ě": 1372,
      "ĠĝğĜ": 1373,
      "ĀĀ$Āę": 1374,
      "ĀĀěĀě": 1375,
      "ĀĀĚĀě": 1376,
      "ĠĜĞĝ": 1377,
      "ĀĀ'Ā": 1378,
      "$)": 1379,
      "&)": 1380,
      "()": 1381,
      "(ę": 1382,
      ",ğ": 1383,
      "Ĕ!": 1384,
      "ĖĘ": 1385,
      "ĘĀ": 1386,
      "Ġğ$ĝ": 1387,
      "Ġ!ěĞ": 1388,
      "Ġ!%ĝ": 1389,
      "ĠĞĜ#": 1390,
      "Ġĝę": 1391,
      "Ġĝ$\"": 1392,
      "ĠĝĜĞ": 1393,
      "Ġĝ%ğ": 1394,
      "Ġ#'": 1395,
      "Ġ#ěğ": 1396,
      "Ġ#%!": 1397,
      "ĠĜĜğ": 1398,
      "ĠĜĝ#": 1399,
      "Ġ%%": 1400,
      "Ġ!ğ%": 1401,
      "Ġ&Ĝ": 1402,
      "Ġ&!ğ": 1403,
      "ĠĞğě": 1404,
      "Ġ!\"%": 1405,
      "ĀĀğĀ(": 1406,
      "Ġ!ĝě": 1407,
      "ĀĀĚĀ&": 1408,
      "Ġ$\"#": 1409,
      ")ĀĀ&": 1410,
      "&ę": 1411,
      "*ě": 1412,
      "ėĖ": 1413,
      "ĠğěĞ": 1414,
      "Ġ!Ě!": 1415,
      "ĠĞ'": 1416,
      "ĠĞ%ğ": 1417,
      "Ġ\"%!": 1418,
      "Ġĝ#ĝ": 1419,
      "Ġěĝ#": 1420,
      "Ġ%ĝğ": 1421,
      "Ġ&%": 1422,
      "ĠĚĞ\"": 1423,
      "ĠĚğ\"": 1424,
      "Ġ\"!Ě": 1425,
      "ĠĞ!ě": 1426,
      "Ġ(!": 1427,
      "ĠĘğ": 1428,
      "ĀĀğĀė": 1429,
      "ĀĀĞĀ(": 1430,
      "Ġ#ğě": 1431,
      "ĀĀ$ĀĘ": 1432,
      "Ġ$ğě": 1433,
      "ĀĀĚĀĜ": 1434,
      "&ĀĀ'": 1435,
      "ĀĀ(Ā": 1436,
      "\"ė": 1437,
      "*Ĝ": 1438,
      ",$": 1439,
      "ĘĀğ": 1440,
      "ęĖ": 1441,
      "ěė": 1442,
      "ĝĖ": 1443,
      "ĝė": 1444,
      "Ğĕ": 1445,
      "Ğė": 1446,
      "ğė": 1447,
      "ĠĞĚğ": 1448,
      "Ġ#Ě": 1449,
      "Ġ#$\"": 1450,
      "Ġ$$\"": 1451,
      "ĠĜ$!": 1452,
      "ĠĜĜĞ": 1453,
      "ĠĜĝĝ": 1454,
      "Ġě!Ğ": 1455,
      "Ġěğ#": 1456,
      "Ġ%&": 1457,
      "ĠğĞ%": 1458,
      "ĠğĞě": 1459,
      "Ġ!Ğ%": 1460,
      "Ġ#!$": 1461,
      "ĠĝĞ$": 1462,
      "ĀĀ$Ā$": 1463,
      "ĀĀĚĀę": 1464,
      "Ġ##Ĝ": 1465,
      "ĀĀęĀ": 1466,
      "$Ė": 1467,
      "ēğ": 1468,
      "ĕĀĀ": 1469,
      "ęĀğ": 1470,
      "ěĖ": 1471,
      "ĜĖ": 1472,
      "ğ*": 1473,
      "ĠĀ(": 1474,
      "Ġğě\"": 1475,
      "Ġğ%ĝ": 1476,
      "Ġ!$$": 1477,
      "ĠĞę": 1478,
      "Ġ\"%\"": 1479,
      "ĀĀĎ": 1480,
      "Ġ$Ĝ!": 1481,
      "ĠĜěğ": 1482,
      "ĠěĞĞ": 1483,
      "Ġě\"ĝ": 1484,
      "Ġ%$Ğ": 1485,
      "Ġ%ĝĞ": 1486,
      "Ġ!ğĚ": 1487,
      "Ġ(\"": 1488,
      "ĠĘĝ": 1489,
      "Ġĝ!Ĝ": 1490,
      "ĀĀĝĀĘ": 1491,
      "ĠĞĝĜ": 1492,
      "Ġ#Ğě": 1493,
      "Ġĝ\"Ĝ": 1494,
      "Ġĝĝ$": 1495,
      "ĠĀĀ)": 1496,
      "\"*": 1497,
      "%)": 1498,
      "%Ę": 1499,
      "'*": 1500,
      ")ě": 1501,
      "+ĝ": 1502,
      ",\"": 1503,
      "-\"": 1504,
      "Ġ3": 1505,
      "Ġ!ę": 1506,
      "Ġ!&ğ": 1507,
      "Ġ\"(": 1508,
      "Ġ\"ě\"": 1509,
      "Ġ#%Ğ": 1510,
      "Ġ$#\"": 1511,
      "Ġ$ĜĞ": 1512,
      "Ġ$ěğ": 1513,
      "Ġ$$ĝ": 1514,
      "ĠĜ&": 1515,
      "ĠĜ##": 1516,
      "Ġ!!Ě": 1517,
      "Ġ%\"\"": 1518,
      "Ġ\"\"ě": 1519,
      "ĠĞĞ%": 1520,
      "ĀĀěĀĚ": 1521,
      "ĀĀěĀ'": 1522,
      "%ĀĀė": 1523,
      "Ġ$ĞĜ": 1524,
      "Ġ%ğĜ": 1525,
      "!+": 1526,
      "!Ę": 1527,
      ",(": 1528,
      "ĔĀĀ": 1529,
      "ĕĘ": 1530,
      "ę(": 1531,
      "ęĀ!": 1532,
      "ğ+": 1533,
      "Ġ4": 1534,
      "ĠĞ%!": 1535,
      "ĠĞ$ĝ": 1536,
      "Ġ$Ĝğ": 1537,
      "Ġ$%!": 1538,
      "Ġ$Ĝĝ": 1539,
      "Ġ%#ĝ": 1540,
      "Ġ&#ğ": 1541,
      "Ġ&ğĞ": 1542,
      "Ġ(#": 1543,
      "ĀĀĝĀė": 1544,
      "Ġ#ĝ#": 1545,
      "#ĀĀ(": 1546,
      "#ĀĀ+": 1547,
      "ĠĀĀ*": 1548,
      "%ĀĀĖ": 1549,
      "'ĀĀ'": 1550,
      ")ĀĀ)": 1551,
      "*ĀĀ'": 1552,
      "Ġ!ĜĜ": 1553,
      "Ġ$#Ĝ": 1554,
      "!ė": 1555,
      "\"+": 1556,
      "#ė": 1557,
      ",%": 1558,
      ",&": 1559,
      "-%": 1560,
      "ĞĖ": 1561,
      "Ġ!ěĝ": 1562,
      "Ġ\"&ğ": 1563,
      "Ġĝ$#": 1564,
      "Ġ#%\"": 1565,
      "ĠĜ$ğ": 1566,
      "ĠěĜğ": 1567,
      "Ġğ!&": 1568,
      "Ġ&Ğğ": 1569,
      "Ġ&\"!": 1570,
      "Ġ&\"ğ": 1571,
      "ĠĚ$": 1572,
      "ĠĚĞğ": 1573,
      "ĀĀ!Ā(": 1574,
      "ĀĀĝĀę": 1575,
      "ĀĀ\"Ā'": 1576,
      "ĀĀĜĀ(": 1577,
      "ĀĀ#Āė": 1578,
      "Ġĝ\"%": 1579,
      "ĀĀ%Āę": 1580,
      "ĠĜ\"ĝ": 1581,
      "ĠĀĀ+": 1582,
      "&ĀĀĘ": 1583,
      "ĠĠĠĠĠĠĠĠĠĠĠĠĠĠĠĠĠĠĠĠĠĠĠĠĠĠĠ": 1584,
      ",ĝ": 1585,
      "Āē": 1586,
      "Ē!": 1587,
      "ĔĚ": 1588,
      "ė'": 1589,
      "ęĘ": 1590,
      "Ě*": 1591,
      "ğĕ": 1592,
      "Ġğě#": 1593,
      "Ġğ&Ğ": 1594,
      "Ġ!Ěğ": 1595,
      "Ġ\"ĀĀ": 1596,
      "Ġ\"ĜĜ": 1597,
      "Ġĝ$Ğ": 1598,
      "Ġĝě!": 1599,
      "ĠĝĜĝ": 1600,
      "Ġĝ%\"": 1601,
      "Ġ#%ğ": 1602,
      "Ġ#$#": 1603,
      "Ġ$Ě": 1604,
      "ĠĜ$\"": 1605,
      "Ġě#ğ": 1606,
      "Ġě#!": 1607,
      "ĠěĝĞ": 1608,
      "Ġě\"#": 1609,
      "Ġ%ě": 1610,
      "Ġ%Ĝ!": 1611,
      "Ġ%ĝ!": 1612,
      "Ġ&Ğ!": 1613,
      "ĠĞĞě": 1614,
      "ĀĀĞĀ)": 1615,
      "Ġĝğ%": 1616,
      "ĀĀ!Āė": 1617,
      "Ġ#ğ$": 1618,
      "Ġ!ĝ$": 1619,
      "Ġĝĝ%": 1620,
      "ĀĀ%ĀĘ": 1621,
      "#ĀĀė": 1622,
      "$ĀĀ)": 1623,
      "ĠĀĀ&": 1624,
      "ĠĀĀ(": 1625,
      "%ĀĀ*": 1626,
      "+(": 1627,
      "-'": 1628,
      "-(": 1629,
      "Ēğ": 1630,
      "Ė'": 1631,
      "ęė": 1632,
      "ě)": 1633,
      "ĝ*": 1634,
      "ĠğĚĞ": 1635,
      "ĠĞĜĝ": 1636,
      "ĠĞ%Ğ": 1637,
      "Ġ\"Ĝ#": 1638,
      "Ġ\"ěĞ": 1639,
      "Ġ\"Ěğ": 1640,
      "Ġ#ĀĀ": 1641,
      "Ġ$ĝ\"": 1642,
      "ĠĜĜ#": 1643,
      "ĠěĜĞ": 1644,
      "ĠěĞ#": 1645,
      "Ġ%$!": 1646,
      "Ġ%\"ĝ": 1647,
      "Ġ%Ğĝ": 1648,
      "Ġ%!Ĝ": 1649,
      "ĠĚĝğ": 1650,
      "ĠĝĞĜ": 1651,
      "ĀĀĜĀę": 1652,
      "ĀĀĜĀĘ": 1653,
      "Ġ$!#": 1654,
      "ĀĀ%Ā&": 1655,
      "ĠĀĀ'": 1656,
      "ĠĀĀ-": 1657,
      "%ĀĀĘ": 1658,
      "ĠğĜ$": 1659,
      "ĠğĜĜ": 1660,
      "Ġĝ#$": 1661,
      "ĀĀ&Ā!": 1662,
      ",Ā": 1663,
      ",Ğ": 1664,
      "-!": 1665,
      "ĘĖ": 1666,
      "Ĝ)": 1667,
      "Ġ!Ě\"": 1668,
      "Ġ!ěĜ": 1669,
      "ĠĞ%\"": 1670,
      "ĠĞěĝ": 1671,
      "ĠĞ$$": 1672,
      "ĠĞ%ĝ": 1673,
      "Ġ\"Ĝĝ": 1674,
      "Ġ###": 1675,
      "Ġ#%ĝ": 1676,
      "Ġ$ě!": 1677,
      "Ġ$##": 1678,
      "Ġ$ĝĝ": 1679,
      "ĠĜ#Ğ": 1680,
      "ĠĜ%!": 1681,
      "ĠěĜ\"": 1682,
      "Ġě\"Ğ": 1683,
      "Ġě!$": 1684,
      "Ġ%Ě": 1685,
      "Ġ&!Ğ": 1686,
      "Ġ&!ĝ": 1687,
      "ĠĚě": 1688,
      "ĠĚğğ": 1689,
      "Ġ\"Ğ%": 1690,
      "ĀĀ\"Āė": 1691,
      "ĠĞĝ%": 1692,
      "Ġ$!$": 1693,
      "ĀĀĚĀ'": 1694,
      "Ġ#ĝě": 1695,
      "$ĀĀė": 1696,
      "ĠĀĀė": 1697,
      "%ĀĀ(": 1698,
      "ĠĜĞ$": 1699,
      "ĠĞ$Ĝ": 1700,
      "#*": 1701,
      "#ĕ": 1702,
      ".%": 1703,
      "ēĘ": 1704,
      "Ĕ%": 1705,
      "ėĕ": 1706,
      "ğĖ": 1707,
      "ğĀĀ": 1708,
      "ĠğĚğ": 1709,
      "Ġğěĝ": 1710,
      "Ġğ%$": 1711,
      "ĠĞĚ!": 1712,
      "ĠĞ&ğ": 1713,
      "Ġ\"%#": 1714,
      "Ġĝ$ĝ": 1715,
      "Ġ#Ĝĝ": 1716,
      "Ġ#&ğ": 1717,
      "Ġ#ĜĜ": 1718,
      "Ġ$Ĝ\"": 1719,
      "Ġ$%Ğ": 1720,
      "Ġ$Ěğ": 1721,
      "Ġ$ĝĜ": 1722,
      "ĠĜě!": 1723,
      "Ġ!!&": 1724,
      "Ġ%ĝ\"": 1725,
      "Ġ%!\"": 1726,
      "Ġ%ğ\"": 1727,
      "Ġ&\"Ğ": 1728,
      "ĠĚğ!": 1729,
      "ĠĚ!!": 1730,
      "Ġ\"!%": 1731,
      "Ġ\"ğ%": 1732,
      "ĠĘ#": 1733,
      "ĀĀĝĀ)": 1734,
      "Ġ!#%": 1735,
      "ĠĝĞ%": 1736,
      "Ġ\"ĝě": 1737,
      "ĠĜ!ĝ": 1738,
      "#ĀĀ'": 1739,
      "$ĀĀ(": 1740,
      "$ĀĀ*": 1741,
      "$ĀĀĕ": 1742,
      "&ĀĀė": 1743,
      "ĠĞ#Ĝ": 1744,
      "ĀĀĘĀ": 1745,
      "Ġ#$Ĝ": 1746,
      "ĀĀ#ĀĖ": 1747,
      "+ě": 1748,
      "+Ĝ": 1749,
      "-)": 1750,
      "-*": 1751,
      "/ĀĀ": 1752,
      "Ēĝ": 1753,
      "ē#": 1754,
      "ēę": 1755,
      "ĕę": 1756,
      "Ę(": 1757,
      "ęĀ\"": 1758,
      "Ġ!&Ğ": 1759,
      "ĠĞě#": 1760,
      "ĠĞĜĜ": 1761,
      "Ġ\"ě#": 1762,
      "Ġ\"&Ğ": 1763,
      "Ġĝ(": 1764,
      "Ġĝ%!": 1765,
      "Ġ#Ĝ#": 1766,
      "ĠĜĝ$": 1767,
      "Ġěĝğ": 1768,
      "Ġğ!Ě": 1769,
      "Ġ&&": 1770,
      "Ġ&#!": 1771,
      "ĠĚ&": 1772,
      "ĠĚ!ğ": 1773,
      "Ġ'Ĝ": 1774,
      "Ġ'ĝ": 1775,
      "Ġğĝě": 1776,
      "Ġ#ğĚ": 1777,
      "ĀĀ\"Ā(": 1778,
      "Ġ!#ě": 1779,
      "ĀĀĜĀė": 1780,
      "ĀĀ#Ā'": 1781,
      "ĀĀ%Ā%": 1782,
      "Ġ$\"$": 1783,
      "$ĀĀ'": 1784,
      "%ĀĀ'": 1785,
      "(ĀĀ(": 1786,
      "ĠğĜě": 1787,
      "ĠĜĞ%": 1788,
      "Ġ$Ğě": 1789,
      "+ĀĀ&": 1790,
      "ĀĀęĀ!": 1791,
      "!*": 1792,
      "\"Ė": 1793,
      "$ė": 1794,
      "&Ě": 1795,
      "'ė": 1796,
      "(ĕ": 1797,
      ".ğ": 1798,
      "ĒĚ": 1799,
      "ēě": 1800,
      "ēĀĀ": 1801,
      "ĕĀ": 1802,
      "Ęĕ": 1803,
      "Ĝ+": 1804,
      "ĠĀ)": 1805,
      "ĠğĚ\"": 1806,
      "Ġğ$$": 1807,
      "ĠğĚĝ": 1808,
      "Ġ\"&!": 1809,
      "Ġ\"%ĝ": 1810,
      "Ġĝ'": 1811,
      "Ġĝěğ": 1812,
      "ĠĜ$#": 1813,
      "Ġ%Ĝğ": 1814,
      "Ġ%ĜĞ": 1815,
      "Ġ&#Ğ": 1816,
      "Ġ!\"Ě": 1817,
      "ĠĘĞ": 1818,
      "ĠĞ\"ě": 1819,
      "ĀĀ\"Ā)": 1820,
      "Ġ#\"ě": 1821,
      "ĠĞĝě": 1822,
      "ĀĀĜĀ'": 1823,
      "ĀĀĜĀ)": 1824,
      "ĀĀěĀę": 1825,
      "$ĀĀē": 1826,
      "(ĀĀĖ": 1827,
      "Ġ!Ĝ$": 1828,
      "Ġ!$Ĝ": 1829,
      "ĀĀęĀğ": 1830,
      "#Ė": 1831,
      ".!": 1832,
      "ē$": 1833,
      "ēĚ": 1834,
      "ĕ%": 1835,
      "Ė)": 1836,
      "ęĀĞ": 1837,
      "Ġğ(": 1838,
      "Ġ!%#": 1839,
      "ĠĞĚ\"": 1840,
      "ĠĞ&!": 1841,
      "ĠĝĚğ": 1842,
      "Ġ#Ěğ": 1843,
      "Ġ#Ě!": 1844,
      "Ġ$ĝ#": 1845,
      "Ġě$ğ": 1846,
      "Ġě$!": 1847,
      "Ġě#\"": 1848,
      "ĠěĜ#": 1849,
      "Ġě##": 1850,
      "Ġ%ĝĝ": 1851,
      "Ġ%!ě": 1852,
      "Ġ&ě": 1853,
      "Ġ&!!": 1854,
      "ĠĚ!\"": 1855,
      "ĠĚ\"Ğ": 1856,
      "ĠĞğ&": 1857,
      "Ġ(ğ": 1858,
      "Ġ\"\"Ě": 1859,
      "ĀĀğĀ)": 1860,
      "Ġğ#ě": 1861,
      "Ġ\"#$": 1862,
      "Ġ#ĝ$": 1863,
      "$ĀĀĘ": 1864,
      "&ĀĀ(": 1865,
      "ĠğĜ%": 1866,
      "Ġ$Ğ#": 1867,
      "\"ĀĀ&": 1868,
      "ĀĀ&Ā\"": 1869,
      "ĀĀęĀĞ": 1870,
      "&,": 1871,
      "*ę": 1872,
      ",'": 1873,
      ",)": 1874,
      ".&": 1875,
      "ĒĞ": 1876,
      "ēĜ": 1877,
      "Ĕė": 1878,
      "ĕ'": 1879,
      "Ę)": 1880,
      "ę*": 1881,
      "ěĕ": 1882,
      "Ġ5": 1883,
      "ĠĀė": 1884,
      "Ġğ&ĝ": 1885,
      "Ġ!Ę": 1886,
      "Ġ!&!": 1887,
      "Ġ\"ěĜ": 1888,
      "ĀĀď": 1889,
      "Ġĝ%Ğ": 1890,
      "Ġĝ&!": 1891,
      "Ġĝě#": 1892,
      "Ġ#Ę": 1893,
      "Ġ$'": 1894,
      "Ġ$$#": 1895,
      "Ġě#Ğ": 1896,
      "ĠěĞĝ": 1897,
      "Ġ%#\"": 1898,
      "Ġ%Ğ\"": 1899,
      "Ġ%%ğ": 1900,
      "Ġ%&!": 1901,
      "Ġ&ĀĀ": 1902,
      "Ġ&$Ğ": 1903,
      "Ġ&ĝğ": 1904,
      "Ġ&ĞĞ": 1905,
      "ĠĚ!Ğ": 1906,
      "ĠĞğĚ": 1907,
      "ĠğĞĚ": 1908,
      "Ġ'!Ğ": 1909,
      "Ġęě": 1910,
      "ĠęĜ": 1911,
      "Ġ!ĞĚ": 1912,
      "Ġ(ĝ": 1913,
      "Ġğĝ%": 1914,
      "Ġ#\"$": 1915,
      "Ġ#\"%": 1916,
      "Ġ#Ğ$": 1917,
      "ĀĀ$Ā(": 1918,
      "ĠĜ!%": 1919,
      "#ĀĀĖ": 1920,
      "$ĀĀ+": 1921,
      "%ĀĀ+": 1922,
      "&ĀĀ)": 1923,
      "&ĀĀ*": 1924,
      "'ĀĀ(": 1925,
      "'ĀĀ*": 1926,
      "(ĀĀ'": 1927,
      "(ĀĀ)": 1928,
      "%\"ĀĀ": 1929,
      ")ĀĀ(": 1930,
      ")ĀĀĘ": 1931,
      "ĜĀĀę": 1932,
      "ĞĀĀ&": 1933,
      "Ġğ$Ĝ": 1934,
      "ĀĀ'Āğ": 1935,
      "Ġ$#ě": 1936,
      "ĠěĞ%": 1937,
      "\"ĕ": 1938,
      ")*": 1939,
      ")Ě": 1940,
      "++": 1941,
      ",*": 1942,
      "-&": 1943,
      "Ēě": 1944,
      "ĔĀ": 1945,
      "ĕĀ!": 1946,
      "Ė(": 1947,
      "Ĝē": 1948,
      "Ġğ%#": 1949,
      "Ġ!(": 1950,
      "Ġ!ĀĀ": 1951,
      "Ġ!%$": 1952,
      "ĠĞĘ": 1953,
      "ĠĞ'ğ": 1954,
      "Ġ\"Ě\"": 1955,
      "Ġ\"Ĝ$": 1956,
      "ĠĝěĞ": 1957,
      "ĠĝĚ\"": 1958,
      "Ġ#ě!": 1959,
      "Ġ$&!": 1960,
      "Ġ$&ğ": 1961,
      "ĠĜ%Ğ": 1962,
      "ĠĜĚ!": 1963,
      "Ġě\"$": 1964,
      "Ġ%ğ#": 1965,
      "Ġ&$ğ": 1966,
      "Ġ&Ğĝ": 1967,
      "Ġ&ğě": 1968,
      "ĠĚ%": 1969,
      "ĠĚĝ!": 1970,
      "ĠĚ\"#": 1971,
      "Ġ'\"!": 1972,
      "Ġ'!ğ": 1973,
      "Ġ(Ğ": 1974,
      "Ġ\"ĞĚ": 1975,
      "ĠĞ\"&": 1976,
      "Ġ!ĝĚ": 1977,
      "ĀĀĝĀ(": 1978,
      "Ġğ#%": 1979,
      "ĀĀ$Ā'": 1980,
      "ĠĜ\"%": 1981,
      ")ĀĀ'": 1982,
      "*ĀĀ)": 1983,
      "Ġ!Ĝě": 1984,
      "ĝĀĀ+": 1985,
      "Ġ##$": 1986,
      "\"ĀĀ(": 1987,
      "ĀĀ'Ā\"": 1988,
      "Ġěğ$": 1989,
      "ĀĀ)Ā": 1990,
      "Ġ%Ğě": 1991,
      "%ė": 1992,
      "+*": 1993,
      "-#": 1994,
      "-ğ": 1995,
      "Ĕ&": 1996,
      "ĔĘ": 1997,
      "Ě+": 1998,
      "ğ,": 1999,
      "ĠğĚ!": 2000,
      "Ġğ&#": 2001,
      "ĠĞě$": 2002,
      "Ġ\"Ę": 2003,
      "Ġ\"ěĝ": 2004,
      "Ġ\"Ě!": 2005,
      "Ġ#(": 2006,
      "Ġ#ě\"": 2007,
      "Ġ#$$": 2008,
      "Ġ$Ĝ#": 2009,
      "Ġ$ěĝ": 2010,
      "ĠĜě\"": 2011,
      "Ġě!%": 2012,
      "Ġ%ěğ": 2013,
      "Ġ%!#": 2014,
      "Ġ%#Ĝ": 2015,
      "Ġ&$!": 2016,
      "Ġ&Ĝĝ": 2017,
      "Ġ&!\"": 2018,
      "Ġ&ğ\"": 2019,
      "Ġ&ğĝ": 2020,
      "Ġ'ğğ": 2021,
      "Ġęğ!": 2022,
      "Ġ\"\"%": 2023,
      "Ġĝğ&": 2024,
      "Ġĝ!ě": 2025,
      "#!ĀĀ": 2026,
      "Ġğ#Ě": 2027,
      "Ġ$ğ$": 2028,
      "ĀĀĚĀĚ": 2029,
      "ĀĀĚĀ(": 2030,
      "#ĀĀ*": 2031,
      "#ĀĀē": 2032,
      "#ĀĀĘ": 2033,
      "ĠĜ\"Ĝ": 2034,
      "ĠĀĀĘ": 2035,
      "'ĀĀė": 2036,
      "(ĀĀĘ": 2037,
      "ĠĜĞĜ": 2038,
      "*ĀĀ(": 2039,
      "ĝĀĀ'": 2040,
      "ĀĀĞĀ*": 2041,
      "ĀĀĞĀĖ": 2042,
      "ĀĀĞĀ#ğ": 2043,
      "ĀĀĝĀ*": 2044,
      "ĠĞĜě": 2045,
      "ĀĀ&ĀĞ": 2046,
      "ĠĝĜ%": 2047,
      "!Ė": 2048,
      "$,": 2049,
      "+,": 2050,
      "-Ğ": 2051,
      "ĀĒ": 2052,
      "đĞ": 2053,
      "Ĕę": 2054,
      "ĔĀĞ": 2055,
      "ę)": 2056,
      "ěĔ": 2057,
      "ĜĔ": 2058,
      "ĝĕ": 2059,
      "ĞĔ": 2060,
      "Ġ!ĚĞ": 2061,
      "Ġ!'ğ": 2062,
      "Ġ!&#": 2063,
      "Ġ!%Ĝ": 2064,
      "ĠĞĚĞ": 2065,
      "ĠĞęğ": 2066,
      "ĠĞĚ#": 2067,
      "ĀĀ:": 2068,
      "ĠĝĘ": 2069,
      "ĠĝĜĜ": 2070,
      "ĠĝĚĞ": 2071,
      "Ġ#Ě\"": 2072,
      "Ġ#ě#": 2073,
      "Ġ#&\"": 2074,
      "ĠĜ%ğ": 2075,
      "ĠĜĜĝ": 2076,
      "ĠĜĚğ": 2077,
      "ĠĜě#": 2078,
      "ĠĜĝĜ": 2079,
      "ĠĜ#Ĝ": 2080,
      "ĠğğĚ": 2081,
      "Ġě$Ğ": 2082,
      "Ġě&!": 2083,
      "Ġ%ĀĀ": 2084,
      "Ġ&Ĝğ": 2085,
      "Ġ&ĜĞ": 2086,
      "ĠĚ#!": 2087,
      "ĠĚğĞ": 2088,
      "Ġ'$": 2089,
      "ĠĞ!&": 2090,
      "ĠęĜ\"": 2091,
      "Ġğ\"&": 2092,
      "ĠĘĜ": 2093,
      "Ġ)\"": 2094,
      "Ġ)ğ": 2095,
      "ĀĀ#Ā(": 2096,
      "ĠĜğě": 2097,
      "ĀĀ%Ā'": 2098,
      "Ġ$\"ě": 2099,
      "Ġ#ĝ%": 2100,
      "ĠĀĀĖ": 2101,
      "ĠĞ#%": 2102,
      "ĠĞ#ě": 2103,
      "'ĀĀę": 2104,
      "$ĝĀĀ": 2105,
      "Ġ!Ĝ%": 2106,
      "ĜĀĀ(": 2107,
      "Ġĝ#%": 2108,
      "ĀĀ!Ā*": 2109,
      "ĀĀęĀ$": 2110,
      "ĀĀ)Āğ": 2111,
      "!ĕ": 2112,
      "#,": 2113,
      "$*": 2114,
      "%+": 2115,
      "&ė": 2116,
      "&Ę": 2117,
      "*Ě": 2118,
      ".#": 2119,
      "Ā/": 2120,
      "čĠ": 2121,
      "đĚ": 2122,
      "ĕĀğ": 2123,
      "Ġğė": 2124,
      "ĠğĘ": 2125,
      "Ġğ&!": 2126,
      "Ġğ&ğ": 2127,
      "ĠğĚ#": 2128,
      "Ġ!ė": 2129,
      "Ġ!&ĝ": 2130,
      "ĠĞ%#": 2131,
      "ĠĞĜ$": 2132,
      "ĠĞĚĝ": 2133,
      "ĠĞę!": 2134,
      "ĠĞ%Ĝ": 2135,
      "Ġ\"&\"": 2136,
      "Ġĝěĝ": 2137,
      "Ġ#ę": 2138,
      "Ġ#ěĞ": 2139,
      "Ġ$ĀĀ": 2140,
      "Ġ$ěĞ": 2141,
      "Ġ$%ĝ": 2142,
      "ĠĜěĞ": 2143,
      "ĠĜ#ĝ": 2144,
      "Ġğğę": 2145,
      "Ġěě!": 2146,
      "Ġě#ĝ": 2147,
      "Ġ%\"Ĝ": 2148,
      "Ġ%\"ě": 2149,
      "Ġ&'": 2150,
      "Ġ&%ğ": 2151,
      "Ġ&\"ĝ": 2152,
      "ĠĚ$ğ": 2153,
      "ĠĚ\"!": 2154,
      "ĠĚ!#": 2155,
      "ĠĚĞ$": 2156,
      "Ġ'#ğ": 2157,
      "ĠęĞ\"": 2158,
      "Ġę\"!": 2159,
      "Ġę!!": 2160,
      "ĠĞĞĚ": 2161,
      "Ġĝ\"ě": 2162,
      "ĀĀĚĀ)": 2163,
      "#\"ĀĀ": 2164,
      "ĠĀĀē": 2165,
      "&ĀĀē": 2166,
      "\"!ĀĀ": 2167,
      "ĠĠĠĠĠĠĠĠĠĠĠĠĠĠĠĠĠĠĠĠĠ": 2168,
      "*ĀĀ+": 2169,
      "ĝĀĀ(": 2170,
      "ĝĀĀ*": 2171,
      "ĝĀĀĘ": 2172,
      "Ġ##Ě": 2173,
      "ĜĀĀ'": 2174,
      "ĞĀĀ(": 2175,
      "+ĀĀė": 2176,
      "ĀĀ\"Āĕ": 2177,
      "ĀĀ!ĀĖ": 2178,
      "ĠĞ$%": 2179,
      "ĀĀ&Āĝ": 2180,
      "ĀĀ'Ā!": 2181,
      "ĀĀ'Ā#": 2182,
      "ĀĀĘĀ\"": 2183,
      "ĀĀĘĀĜ": 2184,
      "ĀĀĘĀ#": 2185,
      "Ġ\"Ĝě": 2186,
      "Ġğě%": 2187,
      "ĀĀėĀğ": 2188,
      "#ĀĀğĀ": 2189,
      "'+": 2190,
      "(*": 2191,
      "(,": 2192,
      "(Ę": 2193,
      "*+": 2194,
      "+Ě": 2195,
      ".\"": 2196,
      ".)": 2197,
      "ďĀ!": 2198,
      "đ!": 2199,
      "Ē\"": 2200,
      "ĒĀĀ": 2201,
      "Ĕ$": 2202,
      "ĕ&": 2203,
      "ĕ(": 2204,
      "ĕĀ\"": 2205,
      "Ėĕ": 2206,
      "ĖĖ": 2207,
      "ě*": 2208,
      "ğē": 2209,
      "ĠĀĀĝĀ": 2210,
      "Ġğ&\"": 2211,
      "Ġğę!": 2212,
      "ĠğęĞ": 2213,
      "Ġ!ě#": 2214,
      "Ġ!'!": 2215,
      "Ġ!'Ğ": 2216,
      "ĠĞ%$": 2217,
      "Ġ\"'!": 2218,
      "Ġ\"Ěĝ": 2219,
      "Ġ\"%Ĝ": 2220,
      "ĀĀ<": 2221,
      "Ġĝė": 2222,
      "ĠĝĜ$": 2223,
      "Ġ#ěĝ": 2224,
      "Ġ$ę": 2225,
      "ĠĜ'": 2226,
      "ĠĜĚ\"": 2227,
      "ĠĜěĝ": 2228,
      "ĠĜęğ": 2229,
      "ĠěĚ": 2230,
      "Ġ%ĝ#": 2231,
      "Ġ!ğ&": 2232,
      "Ġ!ğę": 2233,
      "Ġ&#\"": 2234,
      "Ġ&Ğ\"": 2235,
      "Ġ&#ĝ": 2236,
      "ĠĚ#ğ": 2237,
      "ĠĚĜ!": 2238,
      "ĠĚě!": 2239,
      "ĠğĞ&": 2240,
      "Ġ'Ğğ": 2241,
      "Ġ'#Ğ": 2242,
      "Ġ'!!": 2243,
      "Ġ'\"ğ": 2244,
      "Ġ'ğĞ": 2245,
      "Ġ'\"Ğ": 2246,
      "Ġęĝğ": 2247,
      "Ġę!\"": 2248,
      "Ġ(%": 2249,
      "ĠĘ\"": 2250,
      "Ġ\"Ğ&": 2251,
      "Ġ#!Ě": 2252,
      "#ğğ": 2253,
      "Ġĝğě": 2254,
      "Ġĝ!&": 2255,
      "#!\"": 2256,
      "Ġ!ĝ%": 2257,
      "Ġėĝ": 2258,
      "ĠĝĞě": 2259,
      "Ġğ#&": 2260,
      "ĀĀ#Ā)": 2261,
      "Ġ\"ĝ%": 2262,
      "ĀĀěĀ(": 2263,
      "ĀĀěĀ)": 2264,
      "Ġ\"#Ě": 2265,
      "Ġ\"#ě": 2266,
      "Ġĝĝě": 2267,
      "Ġ$\"Ě": 2268,
      "$ĀĀĖ": 2269,
      "*ĀĀ&": 2270,
      "Ġ$Ğ$": 2271,
      "Ġ##ě": 2272,
      "ĜĀĀ)": 2273,
      "ĠĀĖ": 2274,
      "Ġ\"$ě": 2275,
      "Ġ%ğě": 2276,
      "ĠěĞ$": 2277,
      "ĀĀėĀ!": 2278,
      "ĀĀėĀĞ": 2279,
      "Ġĝ$%": 2280,
      "ĀĀ*Ā\"": 2281,
      "ĀĀ+Ā": 2282,
      "\",": 2283,
      "&*": 2284,
      ")ę": 2285,
      "-Ā": 2286,
      ".(": 2287,
      "/!": 2288,
      "/\"": 2289,
      "/Ğ": 2290,
      ";Ā": 2291,
      "Đĝ": 2292,
      "ĒĜ": 2293,
      "ĔĖ": 2294,
      "ĕė": 2295,
      "ė)": 2296,
      "ę+": 2297,
      "ěē": 2298,
      "Ĝ,": 2299,
      "Ġğ'Ğ": 2300,
      "Ġ!&\"": 2301,
      "Ġ!Ě#": 2302,
      "Ġĝ&\"": 2303,
      "ĠĝĚĝ": 2304,
      "Ġ#&!": 2305,
      "Ġ#ĚĞ": 2306,
      "Ġ#ěĜ": 2307,
      "Ġ$%\"": 2308,
      "Ġ$%#": 2309,
      "ĠĜ$Ğ": 2310,
      "ĠĜ&!": 2311,
      "ĠĜ#$": 2312,
      "Ġ!!'": 2313,
      "Ġěěğ": 2314,
      "ĠěĚ\"": 2315,
      "Ġěğĝ": 2316,
      "Ġě#$": 2317,
      "Ġěĝ$": 2318,
      "Ġě!ě": 2319,
      "Ġ%$\"": 2320,
      "Ġ%&Ğ": 2321,
      "Ġ%ĝě": 2322,
      "Ġ&ę": 2323,
      "Ġ&ĝĞ": 2324,
      "Ġ&ĝĜ": 2325,
      "Ġ&!Ĝ": 2326,
      "ĠĚĜĞ": 2327,
      "ĠĚĝ\"": 2328,
      "ĠĚĞ#": 2329,
      "Ġ'&": 2330,
      "Ġ'ě": 2331,
      "Ġ'ğ!": 2332,
      "Ġ'!\"": 2333,
      "Ġ!\"&": 2334,
      "Ġ\"ğ&": 2335,
      "Ġ\"ğĚ": 2336,
      "Ġę$": 2337,
      "ĠęĜ!": 2338,
      "Ġğ\"Ě": 2339,
      "Ā\"!": 2340,
      "Ġğĝ&": 2341,
      "Ġė\"": 2342,
      "Ġėğ": 2343,
      "Ġ#\"Ě": 2344,
      "ĠĜğĜ": 2345,
      "ĠĜ!&": 2346,
      "ĀĀĚĀĘ": 2347,
      "Ġ#ĝĚ": 2348,
      "#ĀĀ,": 2349,
      "#ĀĀĐ": 2350,
      "#ĀĀę": 2351,
      "%ĀĀ.": 2352,
      "&ĀĀ,": 2353,
      "&ĀĀĖ": 2354,
      "(ĀĀ+": 2355,
      ")ĀĀ*": 2356,
      ")ĀĀ+": 2357,
      ")ĀĀĖ": 2358,
      "ĝĀĀ)": 2359,
      "Ġ!$ě": 2360,
      "ĜĀĀė": 2361,
      "\"ĀĀ)": 2362,
      "\"ĀĀĖ": 2363,
      "\"ĀĀĘ": 2364,
      "ĠĀ*": 2365,
      "ĞĀĀ'": 2366,
      "ĞĀĀĘ": 2367,
      "+ĀĀ'": 2368,
      "ĀĀ\"ĀĖ": 2369,
      "ĀĀ!Āĕ": 2370,
      "ĀĀ&Āğ": 2371,
      "ĀĀ'ĀĞ": 2372,
      "ĀĀĘĀğ": 2373,
      "ĀĀĘĀĝ": 2374,
      "ĀĀĜĀ*": 2375,
      "ĀĀ(Ā!": 2376,
      "ĀĀėĀ": 2377,
      "ĀĀ)Ā\"": 2378,
      "ĀĀĕĀğ": 2379,
      "Ġ$$Ĝ": 2380,
      "ĀĀ,Ā\"": 2381,
      "ĀĀ-Ā": 2382,
      "\"Ĝ!": 2383,
      "$+": 2384,
      "&ĀĀĝĀ!": 2385,
      ")ė": 2386,
      "**": 2387,
      "-$": 2388,
      "/#": 2389,
      "/Ā#": 2390,
      "ĒĀ": 2391,
      "ē\"": 2392,
      "Ĕĕ": 2393,
      "ĔĀ!": 2394,
      "ęĔ": 2395,
      "ĚĔ": 2396,
      "ĚĖ": 2397,
      "ĠĀĀ\"Ā": 2398,
      "Ġğ'ğ": 2399,
      "Ġğěě": 2400,
      "Ġğ'#": 2401,
      "Ġ!ęğ": 2402,
      "Ġ!Ěĝ": 2403,
      "Ġ!ě$": 2404,
      "Ġ!ę!": 2405,
      "ĠĞ(": 2406,
      "ĠĞė": 2407,
      "ĠĞ&$": 2408,
      "Ġ\"ĚĞ": 2409,
      "Ġ\"ęğ": 2410,
      "Ġ\"'Ğ": 2411,
      "Ġĝ$$": 2412,
      "Ġĝ%#": 2413,
      "Ġĝę!": 2414,
      "Ġ$Ě!": 2415,
      "Ġ$#$": 2416,
      "ĠĜę": 2417,
      "ĠĜ%\"": 2418,
      "ĠĜ$$": 2419,
      "Ġ!!ę": 2420,
      "Ġě%ğ": 2421,
      "Ġě$#": 2422,
      "Ġěě#": 2423,
      "Ġě!ĝ": 2424,
      "Ġ%(": 2425,
      "Ġ%)": 2426,
      "Ġ%ě\"": 2427,
      "Ġ%Ĝĝ": 2428,
      "Ġ%%Ğ": 2429,
      "Ġ%\"#": 2430,
      "Ġ%Ğ#": 2431,
      "Ġ%'ğ": 2432,
      "Ġ%ĝĜ": 2433,
      "Ġ%ĞĜ": 2434,
      "ĠĚ\"ğ": 2435,
      "ĠĚğ#": 2436,
      "Ġ''": 2437,
      "Ġ'$ğ": 2438,
      "Ġ'Ğ!": 2439,
      "Ġ'ěğ": 2440,
      "ĠĞ!Ě": 2441,
      "Ġ\"Ğę": 2442,
      "ĠĞ\"'": 2443,
      "#ğ\"": 2444,
      "ĀĀ!Ā)": 2445,
      "Ġ)$": 2446,
      "Ġ#ğę": 2447,
      "#!ğ": 2448,
      "Ġ!ĝ&": 2449,
      "ĀĀ$Āė": 2450,
      "ĀĀ$Ā)": 2451,
      "ĀĀěĀĘ": 2452,
      "Ġ$!ě": 2453,
      "ĠĜğ%": 2454,
      "ĀĀĚĀė": 2455,
      "ĠĀĀĒ": 2456,
      "%ĀĀ)": 2457,
      "'ĀĀĘ": 2458,
      "ĠĠĠĠĠĠĠĠĠĠĠĠĠĠĠĠĠĠĠĠĠĠĠĠĠĠĠĠĠ": 2459,
      "ĠĠĠĠĠĠĠĠĠĠĠĠĠĠĠĠĠĠĠĠĠĠĠĠĠĠĠĠĠĠĠĠĠ": 2460,
      ")ĀĀ,": 2461,
      ")ĀĀ-": 2462,
      "ĝĀĀ&": 2463,
      "ĜĀĀ&": 2464,
      "\"ĀĀė": 2465,
      "ĀĀğĀĖ": 2466,
      "ĞĀĀ)": 2467,
      "ĀĀĞĀ,": 2468,
      "ĀĀĞĀĕ": 2469,
      "ĀĀ'Ā$": 2470,
      "ĀĀ(Ā\"": 2471,
      "ĀĀ(ĀĜ": 2472,
      "ĀĀėĀ\"": 2473,
      "Ġĝ$Ĝ": 2474,
      "ĀĀ)Ā!": 2475,
      "ĀĀĕĀ\"": 2476,
      "ĀĀĖĀğ": 2477,
      "!-": 2478,
      "!Ĕ": 2479,
      "#/": 2480,
      "$ĕ": 2481,
      "%Ė": 2482,
      "&+": 2483,
      "'-": 2484,
      "'Ė": 2485,
      "'Ę": 2486,
      "*)": 2487,
      "+)": 2488,
      ",Ě": 2489,
      "-,": 2490,
      ".$": 2491,
      ".Ğ": 2492,
      "/&": 2493,
      "/Ā$": 2494,
      "đ'": 2495,
      "Ē$": 2496,
      "Ēĕ": 2497,
      "Ĕ(": 2498,
      "ĘĔ": 2499,
      "ęĕ": 2500,
      "Ě,": 2501,
      "ě,": 2502,
      "Ĝ*": 2503,
      "ĝ,": 2504,
      "ĠĀĀ!Ā": 2505,
      "ĠĀĀĝĀğ": 2506,
      "ĠğěĜ": 2507,
      "Ġğ'\"": 2508,
      "Ġ!ęĝ": 2509,
      "ĠĞ&\"": 2510,
      "ĠĞ'!": 2511,
      "ĠĞěĜ": 2512,
      "ĠĞěě": 2513,
      "ĠĞęĞ": 2514,
      "Ġ\"$$": 2515,
      "Ġ\"%$": 2516,
      "Ġ\"ě$": 2517,
      "Ġ\"&ĝ": 2518,
      "Ġ\"'\"": 2519,
      "Ġĝ%ĝ": 2520,
      "Ġĝę\"": 2521,
      "Ġ#ę!": 2522,
      "Ġ#&Ğ": 2523,
      "Ġ#%Ĝ": 2524,
      "Ġ#&Ĝ": 2525,
      "Ġ$ĜĜ": 2526,
      "Ġ$ĚĞ": 2527,
      "Ġ$'ğ": 2528,
      "ĠĜ%#": 2529,
      "ĠĜ%ĝ": 2530,
      "ĠĜĜ$": 2531,
      "Ġğğ'": 2532,
      "Ġě&": 2533,
      "Ġě%!": 2534,
      "Ġě$$": 2535,
      "Ġěĝĝ": 2536,
      "Ġě!Ĝ": 2537,
      "Ġě\"Ĝ": 2538,
      "Ġ%Ĝ\"": 2539,
      "Ġ%ě!": 2540,
      "Ġ%$ĝ": 2541,
      "Ġ%##": 2542,
      "Ġ%\"$": 2543,
      "Ġ%#ě": 2544,
      "Ġ&%!": 2545,
      "Ġ&ĝ!": 2546,
      "ĠĚ$!": 2547,
      "ĠĚĜğ": 2548,
      "ĠĚ$\"": 2549,
      "ĠĚĜ#": 2550,
      "ĠĚĝĞ": 2551,
      "ĠĚ\"%": 2552,
      "Ġ'ĀĀ": 2553,
      "Ġ'#\"": 2554,
      "Ġ'Ğ\"": 2555,
      "Ġ'ĝğ": 2556,
      "Ġ'\"\"": 2557,
      "Ġ\"ğę": 2558,
      "ĠĞ!'": 2559,
      "Ġę%": 2560,
      "Ġę&": 2561,
      "Ġę$!": 2562,
      "ĠęĜğ": 2563,
      "ĠęĞ!": 2564,
      "Ġęğğ": 2565,
      "Ġęğ#": 2566,
      "Ġ!Ğę": 2567,
      "Ġ(!ĝ": 2568,
      "#ğĀĀ": 2569,
      "Ġ)!": 2570,
      "ĠğĝĚ": 2571,
      "Ġĝ!Ě": 2572,
      "Ġė!": 2573,
      "Ġėě": 2574,
      "ĠėĜ": 2575,
      "ĠĞĝĚ": 2576,
      "$!ĀĀ": 2577,
      "ĀĀ%Āė": 2578,
      "$\"ĀĀ": 2579,
      "Ğ!ĀĀ": 2580,
      "ĠĀĀ.": 2581,
      "&ĀĀ.": 2582,
      "ĠĞ#&": 2583,
      "ĠğĜ&": 2584,
      "Ě\"ĀĀ": 2585,
      "Ġ$ĞĚ": 2586,
      "Ġ!$%": 2587,
      "Ġ!$Ě": 2588,
      "ĜĀĀ+": 2589,
      "\"ĀĀ'": 2590,
      "\"ĀĀ*": 2591,
      "ĠĀĔ": 2592,
      "Ġĝ#Ĝ": 2593,
      "+ĀĀ(": 2594,
      "+ĀĀĖ": 2595,
      "+ĀĀĘ": 2596,
      "ĀĀęĀ\"": 2597,
      "ĀĀęĀĝ": 2598,
      "ĀĀ'ĀĜ": 2599,
      "ĀĀĘĀĞ": 2600,
      "ĠěĞĜ": 2601,
      "Ġ#$ě": 2602,
      "ĠěğĜ": 2603,
      "ĀĀ#Āĕ": 2604,
      "ĀĀ(Ā$": 2605,
      "ĀĀėĀĝ": 2606,
      "ĀĀĖĀĝ": 2607,
      "Ġğ%ě": 2608,
      "Ġ$$ě": 2609,
      "ĀĀ*Ā": 2610,
      "ĀĀēĀ": 2611,
      "!Ğ\"": 2612,
      "#+": 2613,
      "#ē": 2614,
      "#Ĕ": 2615,
      "%,": 2616,
      "%ĀĀĞĀ!": 2617,
      "+/": 2618,
      "-ĝ": 2619,
      "/(": 2620,
      "Đğ": 2621,
      "đ\"": 2622,
      "đě": 2623,
      "đĜ": 2624,
      "đĀ!": 2625,
      "ĔĀğ": 2626,
      "ĔĀĝ": 2627,
      "ĕ)": 2628,
      "ĕĔ": 2629,
      "ė(": 2630,
      "ė+": 2631,
      "Ę-": 2632,
      "Ĝ.": 2633,
      "ğĔ": 2634,
      "ĠĀĀğĀ": 2635,
      "ĠĀĀğĀĜ": 2636,
      "ĠĠČ": 2637,
      "ĠĠč": 2638,
      "Ġğ'!": 2639,
      "Ġğě$": 2640,
      "Ġğę#": 2641,
      "Ġ!)": 2642,
      "Ġ!(!": 2643,
      "Ġ!(\"": 2644,
      "Ġ!(ğ": 2645,
      "Ġ!Ěě": 2646,
      "ĠĞ&Ğ": 2647,
      "ĠĞ&#": 2648,
      "Ġ\"ė": 2649,
      "Ġ\"'ğ": 2650,
      "Ġ\"ę\"": 2651,
      "Ġ\"(Ğ": 2652,
      "ĀĀĆ": 2653,
      "ĠĝĚ!": 2654,
      "Ġĝ&ğ": 2655,
      "Ġĝ%$": 2656,
      "Ġĝ'!": 2657,
      "Ġĝ'\"": 2658,
      "Ġ#'!": 2659,
      "Ġ$Ĝ$": 2660,
      "ĠĜ&\"": 2661,
      "ĠĜ%Ĝ": 2662,
      "ĠěĘ": 2663,
      "Ġě$\"": 2664,
      "ĠěĜ%": 2665,
      "Ġ%ę": 2666,
      "Ġ%ěĞ": 2667,
      "Ġ%'!": 2668,
      "Ġ%ĝ$": 2669,
      "Ġ%%Ĝ": 2670,
      "Ġ%$Ĝ": 2671,
      "Ġ%%ě": 2672,
      "Ġ&ĝ\"": 2673,
      "Ġ&\"\"": 2674,
      "ĠĚĘ": 2675,
      "ĠĚę": 2676,
      "ĠĚĞĞ": 2677,
      "ĠĚ\"\"": 2678,
      "ĠĚ#ĝ": 2679,
      "ĠĚĚ!": 2680,
      "ĠĚę!": 2681,
      "ĠĚğ$": 2682,
      "Ġ'#!": 2683,
      "Ġ'ĝĞ": 2684,
      "Ġ'#ĝ": 2685,
      "Ġ'!ě": 2686,
      "Ġę#!": 2687,
      "Ġę!ğ": 2688,
      "ĠĘ$": 2689,
      "ĠĘĚ": 2690,
      "ĠĘě": 2691,
      "ĠĞ\"Ě": 2692,
      "ĠĝğĚ": 2693,
      "Ġ)ĝ": 2694,
      "#!!": 2695,
      "ĠėĞ": 2696,
      "Ġ!#Ě": 2697,
      "Ġ*\"": 2698,
      "Ġ\"ĝĚ": 2699,
      "Ġ\"#%": 2700,
      "ĀĀ%Ā(": 2701,
      "ĠĜ!Ĝ": 2702,
      "#\"$": 2703,
      "#ĀĀ.": 2704,
      "ĠĀĀę": 2705,
      "%ĀĀ,": 2706,
      "%ĀĀĒ": 2707,
      "&ĀĀ-": 2708,
      "'ĀĀ)": 2709,
      "'ĀĀ-": 2710,
      "'ĀĀĒ": 2711,
      "!!ĀĀ": 2712,
      "(ĀĀ*": 2713,
      "(ĀĀ.": 2714,
      "(ĀĀė": 2715,
      "ĠĠĠĠĠĠĠĠĠĠĠĠĠĠĠĠĠĠĠĠĠĠĠĠĠĠĠĠĠĠĠĠĠĠĠĠ": 2716,
      ")ĀĀė": 2717,
      "&!ĀĀ": 2718,
      "*ĀĀ*": 2719,
      "*ĀĀė": 2720,
      "*ĀĀĘ": 2721,
      "ĝĀĀĖ": 2722,
      "ĀĀğĀĕ": 2723,
      "ĠĀ,": 2724,
      "ĞĀĀĖ": 2725,
      "+ĀĀ)": 2726,
      "ĀĀ\"Ā*": 2727,
      "ĠĞ$ě": 2728,
      "ĀĀ&Ā$": 2729,
      "ĀĀ&Ā%": 2730,
      "ĀĀĘĀ$": 2731,
      "ĀĀĘĀ%": 2732,
      "ĀĀĘĀę": 2733,
      "ĀĀ(Āğ": 2734,
      "ĀĀ(ĀĞ": 2735,
      "Ġ!%ě": 2736,
      "ĀĀ)ĀĞ": 2737,
      "ĀĀ)ĀĜ": 2738,
      "ĀĀĕĀ": 2739,
      "ĀĀĖĀ": 2740,
      "ĀĀĖĀ!": 2741,
      "ĀĀ+Ā!": 2742,
      "ĀĀ+Ā\"": 2743,
      "ĀĀēĀ\"": 2744,
      "ĀĀ.Ā": 2745,
      "!ğ!": 2746,
      "\"ē": 2747,
      "%*": 2748,
      "%.": 2749,
      "%ĀĀĞĀğ": 2750,
      "&-": 2751,
      "&Ė": 2752,
      "&ĀĀğĀ!": 2753,
      "'ĀĀĞĀ": 2754,
      "(Ė": 2755,
      "(ĀĀĜĀ": 2756,
      "),": 2757,
      ")Ę": 2758,
      "*Ę": 2759,
      "+ę": 2760,
      "-/": 2761,
      "/,": 2762,
      "/Ā": 2763,
      "/ĝ": 2764,
      "/Ā\"": 2765,
      "ďĘ": 2766,
      "ďĀğ": 2767,
      "ďĀĞ": 2768,
      "đĀ": 2769,
      "đğ": 2770,
      "ĒĖ": 2771,
      "Ēę": 2772,
      "ē'": 2773,
      "ē(": 2774,
      "ĕĀĜ": 2775,
      "ė*": 2776,
      "ěđ": 2777,
      "ĝē": 2778,
      "Ğ,": 2779,
      "Ğ.": 2780,
      "ğĝ!": 2781,
      "Ġ6": 2782,
      "ĠĀĀğĀğ": 2783,
      "ĠğĀĀ": 2784,
      "Ġğęğ": 2785,
      "Ġğ%%": 2786,
      "Ġğ%Ĝ": 2787,
      "ĠğĚ$": 2788,
      "Ġ!ę#": 2789,
      "ĠĞĀĀ": 2790,
      "ĠĞ'Ğ": 2791,
      "ĠĞęĝ": 2792,
      "Ġ\"Ě#": 2793,
      "Ġ\"ę!": 2794,
      "ĠĝĀĀ": 2795,
      "Ġĝě$": 2796,
      "ĠĝěĜ": 2797,
      "ĠĝęĞ": 2798,
      "Ġ#%#": 2799,
      "Ġ#%$": 2800,
      "Ġ#ęğ": 2801,
      "Ġ#&#": 2802,
      "Ġ$(": 2803,
      "Ġ$ě\"": 2804,
      "Ġ$'!": 2805,
      "Ġ$ę!": 2806,
      "Ġ$ĝ$": 2807,
      "Ġ$Ĝ%": 2808,
      "ĠĜĘ": 2809,
      "ĠĜ$ĝ": 2810,
      "ĠĜ$Ĝ": 2811,
      "Ġ!!Ę": 2812,
      "Ġě(": 2813,
      "Ġěę": 2814,
      "Ġě&ĝ": 2815,
      "Ġěĝ%": 2816,
      "Ġ%%!": 2817,
      "Ġ%ěĝ": 2818,
      "Ġ%&ğ": 2819,
      "Ġ%%ĝ": 2820,
      "Ġ%&\"": 2821,
      "Ġ%Ěĝ": 2822,
      "Ġ%Ĝě": 2823,
      "Ġ&$#": 2824,
      "Ġ&ĝ#": 2825,
      "Ġ&%ĝ": 2826,
      "Ġ&ğ#": 2827,
      "Ġ&Ğ#": 2828,
      "Ġ&ĞĜ": 2829,
      "ĠĚĚ": 2830,
      "ĠĚ%ğ": 2831,
      "ĠĚ##": 2832,
      "ĠĚ&!": 2833,
      "ĠĚĝ$": 2834,
      "ĠĚ!%": 2835,
      "ĠĚ#Ĝ": 2836,
      "Ġ\"!ę": 2837,
      "Ġ'%": 2838,
      "Ġ'Ĝğ": 2839,
      "Ġ'%ğ": 2840,
      "Ġ!Ğ&": 2841,
      "Ġ($": 2842,
      "Ġ((": 2843,
      "Ġ(#!": 2844,
      "Ġ(\"ğ": 2845,
      "Ġ(\"ĝ": 2846,
      "ĠĘ%": 2847,
      "Ġ\"\"ę": 2848,
      "ĠĞĞ&": 2849,
      "ĀĞğ": 2850,
      "ĀĞğĞ": 2851,
      "Ġ#!%": 2852,
      "Ġĝğ'": 2853,
      "Ġ)#": 2854,
      "Ġ#ğ%": 2855,
      "#!Ğ": 2856,
      "Ġ!#&": 2857,
      "ĠĞĝ&": 2858,
      "ĠĝĞ&": 2859,
      "ĠĖğ": 2860,
      "Ġ#ĞĚ": 2861,
      "Ĝ!ĀĀ": 2862,
      "ĠĝĝĚ": 2863,
      "Ġ$!Ě": 2864,
      "ĠĜğ&": 2865,
      "Ĝ\"ĀĀ": 2866,
      "#ĀĀ'Ā": 2867,
      "$ĀĀĐ": 2868,
      "#ĞĀĀ": 2869,
      "%!ĀĀ": 2870,
      "'ĀĀ+": 2871,
      "'ĀĀĖ": 2872,
      "ĞĞĀĀ": 2873,
      "ĠğĜĚ": 2874,
      "ěĝĀĀ": 2875,
      "*ĀĀĖ": 2876,
      "ĝĀĀę": 2877,
      "Ġ##%": 2878,
      "ĀĀğĀ*": 2879,
      "ĠĀĕ": 2880,
      "ĞĀĀ+": 2881,
      "ĞĀĀę": 2882,
      "Ġ\"$%": 2883,
      "ĀĀęĀ#": 2884,
      "ĀĀęĀě": 2885,
      "ĀĀĘĀĚ": 2886,
      "Ġěğ%": 2887,
      "ĠĜĝě": 2888,
      "ĀĀ)Āĝ": 2889,
      "ĀĀ)Ā%": 2890,
      "ĀĀĕĀ!": 2891,
      "ĀĀĖĀ\"": 2892,
      "ĀĀ*Āğ": 2893,
      "ĀĀ,Āğ": 2894,
      "ĀĀ,Āĝ": 2895,
      "ĀĀ-Ā#": 2896,
      "ĀĀēĀĝ": 2897,
      "!ē": 2898,
      "!Ğ!": 2899,
      "!Ĝ$": 2900,
      "\"-": 2901,
      "\".": 2902,
      "\"ĝ\"": 2903,
      "%ĕ": 2904,
      "%ĀĀğĀ": 2905,
      "'ĕ": 2906,
      "'ĀĀĝĀ": 2907,
      "'ĀĀğĀ!": 2908,
      "(ĀĀ!Ā": 2909,
      "*ĀĀĝĀ": 2910,
      "*ĀĀ\"Ā!": 2911,
      "*ĀĀĝĀĜ": 2912,
      "+-": 2913,
      ",ę": 2914,
      ",Āĝ": 2915,
      "-.": 2916,
      "-ĀĀ\"Ā": 2917,
      "-ĀĀ&": 2918,
      "/ğ": 2919,
      "/ĀĞ": 2920,
      "ďĀ\"": 2921,
      "ĐĜ": 2922,
      "ĐĞ": 2923,
      "đĀě": 2924,
      "Ē&": 2925,
      "ĕ*": 2926,
      "ĖĔ": 2927,
      "ėĒ": 2928,
      "Ěěğ": 2929,
      "Ĝ-": 2930,
      "ĝĔ": 2931,
      "ĝ$$": 2932,
      "Ğ-": 2933,
      "Ğđ": 2934,
      "ĞĞ!": 2935,
      "ĞĞ\"": 2936,
      "ğĝ\"": 2937,
      "ĠĀĀğĀ\"": 2938,
      "ĠĀĀĞĀĝ": 2939,
      "Ġğ&$": 2940,
      "ĠğĚĜ": 2941,
      "ĠğĘğ": 2942,
      "Ġ!ęĞ": 2943,
      "Ġ!&$": 2944,
      "Ġ!ĚĜ": 2945,
      "Ġ!'#": 2946,
      "Ġ!ė!": 2947,
      "ĠĞ*": 2948,
      "ĠĞ&ĝ": 2949,
      "ĠĞ'\"": 2950,
      "ĠĞę\"": 2951,
      "ĠĞę#": 2952,
      "Ġ\"ěě": 2953,
      "Ġ\"ęĞ": 2954,
      "Ġ\"Ęğ": 2955,
      "Ġ\"(\"": 2956,
      "Ġ\"(ğ": 2957,
      "ĀĀ>": 2958,
      "ĠĝĚ#": 2959,
      "Ġĝ&Ğ": 2960,
      "Ġĝ&#": 2961,
      "Ġĝ'#": 2962,
      "Ġ#ě$": 2963,
      "Ġ#'\"": 2964,
      "Ġ#'Ğ": 2965,
      "Ġ$'Ğ": 2966,
      "Ġ$ĜĚ": 2967,
      "ĠĜĚĞ": 2968,
      "ĠĜĚ#": 2969,
      "Ġě'": 2970,
      "ĠěĚğ": 2971,
      "Ġěěĝ": 2972,
      "ĠěĚ!": 2973,
      "Ġě&ğ": 2974,
      "ĠěĜ$": 2975,
      "ĠěĜĜ": 2976,
      "Ġě&Ğ": 2977,
      "ĠěĜ&": 2978,
      "Ġ%ěĜ": 2979,
      "Ġ%!$": 2980,
      "Ġ%'Ğ": 2981,
      "Ġ&(": 2982,
      "Ġ&##": 2983,
      "Ġ&ĝĝ": 2984,
      "Ġ&\"Ĝ": 2985,
      "ĠĚ#Ğ": 2986,
      "ĠĚ%!": 2987,
      "ĠĚĝ#": 2988,
      "ĠĚğĝ": 2989,
      "ĠĚĝĜ": 2990,
      "ĠĚ!Ĝ": 2991,
      "ĠĚğĜ": 2992,
      "ĠĚğ%": 2993,
      "ĠğĞ'": 2994,
      "ĠğĞę": 2995,
      "Ġ'(": 2996,
      "Ġ'##": 2997,
      "Ġ'ğ#": 2998,
      "Ġ'\"ĝ": 2999,
      "ĠĞ!ę": 3000,
      "ĠęĚ": 3001,
      "Ġę#\"": 3002,
      "ĠęĞ#": 3003,
      "Ġęğ$": 3004,
      "Ġ!Ğ'": 3005,
      "Ġ(!Ğ": 3006,
      "Ġ(#ĝ": 3007,
      "Ġ(\"Ğ": 3008,
      "ĠĘğ!": 3009,
      "ĠĘğ\"": 3010,
      "Ġ\"\"&": 3011,
      "Āğ\"": 3012,
      "ĀĝĞ": 3013,
      "#ğĝ": 3014,
      "Ġ)ĀĀ": 3015,
      "Ġ)ğğ": 3016,
      "Ġ)\"ğ": 3017,
      "Ġ!#ę": 3018,
      "Ġ#Ğ%": 3019,
      "Ġ#Ğę": 3020,
      "Ġĝ\"ę": 3021,
      "ĠĝĝĜ": 3022,
      "ĀĀ%Ā)": 3023,
      "ĠĀĀ,": 3024,
      "%ĀĀ-": 3025,
      "%ĀĀĎ": 3026,
      "ĝğ!": 3027,
      "ě!ĀĀ": 3028,
      "&ĀĀĎ": 3029,
      "&ĀĀę": 3030,
      "ğ!!": 3031,
      "(ĀĀĒ": 3032,
      "(ĀĀę": 3033,
      "ĝĞĀĀ": 3034,
      ")ĀĀē": 3035,
      "*ĀĀē": 3036,
      "Ġ!ĜĚ": 3037,
      "ĝĀĀ,": 3038,
      "ĝĀĀė": 3039,
      "\"ĀĀ.": 3040,
      "ĀĀğĀ,": 3041,
      "ĞĀĀė": 3042,
      "Ġĝ#Ě": 3043,
      "Ġğ$ě": 3044,
      "+ĀĀę": 3045,
      "ĀĀĝĀĖ": 3046,
      "ĀĀęĀĚ": 3047,
      "ĀĀ'Āĝ": 3048,
      "ĀĀĜĀĖ": 3049,
      "ĀĀėĀĜ": 3050,
      "ĀĀėĀ%": 3051,
      "ĠĝĜě": 3052,
      "Ġ#Ĝě": 3053,
      "ĀĀĕĀĜ": 3054,
      "ĀĀĕĀ&": 3055,
      "ĀĀĕĀ'": 3056,
      "ĀĀ%ĀĖ": 3057,
      "ĀĀ*Ā!": 3058,
      "ĀĀ*ĀĜ": 3059,
      "ĀĀ*Ā$": 3060,
      "Ġ\"%ě": 3061,
      "ĀĀ/Ā!": 3062,
      "ĀĀ.Āğ": 3063,
      "!\"\"": 3064,
      "\"\"ğ": 3065,
      "$/": 3066,
      "$Ē": 3067,
      "$ĀĀěĀ": 3068,
      "%Ē": 3069,
      "%Ĕ": 3070,
      "%ĀĀĜĀ!": 3071,
      "&Ĕ": 3072,
      "&ĀĀğĀ": 3073,
      "&ĀĀĞĀĞ": 3074,
      "&ĀĀĝĀğ": 3075,
      "(ĀĀğĀğ": 3076,
      "(ĀĀğĀĞ": 3077,
      "(ĀĀ!ĀĞ": 3078,
      "(ĀĀĜĀ!": 3079,
      ")ĀĀ!Ā": 3080,
      ",ě": 3081,
      ",Ĝ": 3082,
      "-ę": 3083,
      "-ě": 3084,
      "/Ā!": 3085,
      ":Ā": 3086,
      "=Ā!": 3087,
      "?Ā": 3088,
      "ďĝ": 3089,
      "Đė": 3090,
      "ĐĀĝ": 3091,
      "Ē#": 3092,
      "ĒĘ": 3093,
      "ēĖ": 3094,
      "ĔĀ\"": 3095,
      "ĔĀĜ": 3096,
      "ĕĀ#": 3097,
      "Ė*": 3098,
      "ě+": 3099,
      "ě-": 3100,
      "ĝ+": 3101,
      "ĝ-": 3102,
      "ĝ#\"": 3103,
      "Ğ+": 3104,
      "Ğ#\"": 3105,
      "ĠĀĀĞĀ": 3106,
      "ĠĀĀğĀ!": 3107,
      "ĠĀĀğĀĞ": 3108,
      "ĠĀĀ!Ā\"": 3109,
      "ĠğĖ": 3110,
      "Ġğę\"": 3111,
      "Ġğęĝ": 3112,
      "Ġğ(\"": 3113,
      "ĠğĚ%": 3114,
      "ĠğĚě": 3115,
      "Ġğ)ğ": 3116,
      "Ġğė\"": 3117,
      "Ġ!'\"": 3118,
      "Ġ!ę\"": 3119,
      "Ġ!ě%": 3120,
      "Ġ!ĘĞ": 3121,
      "Ġ!ę$": 3122,
      "ĠĞĘğ": 3123,
      "ĠĞĚ%": 3124,
      "Ġ\"ėĞ": 3125,
      "Ġ\"'Ĝ": 3126,
      "Ġĝěě": 3127,
      "Ġĝ%Ĝ": 3128,
      "Ġ#*": 3129,
      "Ġ#ė": 3130,
      "Ġ#Ěĝ": 3131,
      "Ġ#&ĝ": 3132,
      "Ġ#&$": 3133,
      "Ġ#ĚĜ": 3134,
      "Ġ#'&": 3135,
      "Ġ$%$": 3136,
      "Ġ$&\"": 3137,
      "Ġ$ęğ": 3138,
      "Ġ$ěĜ": 3139,
      "Ġ$&Ğ": 3140,
      "Ġ$'\"": 3141,
      "Ġ$Ĝě": 3142,
      "ĠĜ(": 3143,
      "ĠĜ&ğ": 3144,
      "ĠĜĜĜ": 3145,
      "ĠĜě$": 3146,
      "ĠĜę!": 3147,
      "ĠĜ&Ğ": 3148,
      "ĠĜę\"": 3149,
      "ĠĜęĝ": 3150,
      "ĠĜęĜ": 3151,
      "ĠěĖ": 3152,
      "Ġěě\"": 3153,
      "ĠěĜĝ": 3154,
      "Ġě\"ě": 3155,
      "Ġ%Ě\"": 3156,
      "Ġ%ĜĜ": 3157,
      "Ġ%#$": 3158,
      "Ġ&Ĝ\"": 3159,
      "Ġ&$\"": 3160,
      "Ġ&ě!": 3161,
      "Ġ&ěĞ": 3162,
      "Ġ&Ě!": 3163,
      "Ġ&\"#": 3164,
      "Ġ&\"$": 3165,
      "Ġ&\"ě": 3166,
      "Ġ&#ě": 3167,
      "Ġ&Ğě": 3168,
      "ĠĚ'": 3169,
      "ĠĚĀĀ": 3170,
      "ĠĚ#\"": 3171,
      "ĠĚěğ": 3172,
      "ĠĚě\"": 3173,
      "ĠĚ$#": 3174,
      "ĠĚ%\"": 3175,
      "ĠĚ$ĝ": 3176,
      "ĠĚ'!": 3177,
      "ĠĚĞĝ": 3178,
      "ĠĚ!$": 3179,
      "ĠĚęĞ": 3180,
      "ĠĚĞĜ": 3181,
      "ĠĞğ'": 3182,
      "Ġ'Ĝ!": 3183,
      "Ġ'ĝ\"": 3184,
      "Ġ'ğ\"": 3185,
      "Ġ'ğĝ": 3186,
      "Ġ'ĝĜ": 3187,
      "Ġ'ğě": 3188,
      "Ġ'Ğę": 3189,
      "Ġ\"ğĘ": 3190,
      "Ġę$\"": 3191,
      "Ġę#Ğ": 3192,
      "Ġę\"ğ": 3193,
      "Ġęĝ\"": 3194,
      "Ġę\"\"": 3195,
      "Ġęğ\"": 3196,
      "Ġę!ĝ": 3197,
      "ĠęĞĝ": 3198,
      "Ġ(Ĝ": 3199,
      "Ġ(ĀĀ": 3200,
      "Ġ($ğ": 3201,
      "Ġ(ĞĞ": 3202,
      "Ġ(ğĜ": 3203,
      "ĠĘĝ!": 3204,
      "Ā!!": 3205,
      "Ġ#!ę": 3206,
      "#ğ!": 3207,
      "#ğ#": 3208,
      "#ğ&": 3209,
      "Ġ)'": 3210,
      "Ġ)Ğ": 3211,
      "ĠėĞ!": 3212,
      "Ġ*(": 3213,
      "ĠĖĝ": 3214,
      "ĀĀěĀė": 3215,
      "Ġ\"#&": 3216,
      "Ġ$ğĚ": 3217,
      "ĠĜ!Ě": 3218,
      "ĠĜ!ě": 3219,
      "$\"#": 3220,
      "#ĀĀĎ": 3221,
      "$ĀĀ-": 3222,
      "$ĀĀ.": 3223,
      "ĠĜ\"Ě": 3224,
      "ĠĀĀđ": 3225,
      "ĝğ\"": 3226,
      "&ĀĀĒ": 3227,
      "'ĀĀĔ": 3228,
      "\"!$": 3229,
      "(ĀĀĕ": 3230,
      "ĜĝĀĀ": 3231,
      "ĠĠĠĠĠĠĠĠĠĠĠĠĠĠĠĠĠĠĠĠĠĠĠĠĠĠĠĠĠĠĠĠĠĠ": 3232,
      ")ĀĀę": 3233,
      "ĠĜĞ&": 3234,
      "*ĀĀę": 3235,
      "ĝĀĀ-": 3236,
      "ĝĀĀ<": 3237,
      "ĜĀĀĖ": 3238,
      "\"ĀĀē": 3239,
      "ğ#)": 3240,
      "ĞĀĀē": 3241,
      "Ġğ$&": 3242,
      "+ĀĀ*": 3243,
      "+ĀĀē": 3244,
      "ĀĀ\"Āē": 3245,
      "ĀĀ\"ĀĔ": 3246,
      "ęğĀĀ": 3247,
      "ĠĞĜ%": 3248,
      "ĀĀ&Āě": 3249,
      "ĀĀ'Āě": 3250,
      "ĀĀ'Ā%": 3251,
      "Ġ%ğĚ": 3252,
      "Ġ$#Ě": 3253,
      "ĠěĞĚ": 3254,
      "ĀĀĜĀ+": 3255,
      "ĀĀėĀĚ": 3256,
      "ĠĝĜ&": 3257,
      "ĀĀěĀ*": 3258,
      "Ġ#ĜĚ": 3259,
      "ĀĀ$Ā+": 3260,
      "Ġ!ěĚ": 3261,
      "ĀĀ*ĀĞ": 3262,
      "ĀĀ+Āğ": 3263,
      "ĀĀ+ĀĞ": 3264,
      "ĀĀ+Āĝ": 3265,
      "ĀĀ-ĀĞ": 3266,
      "ĀĀĔĀğ": 3267,
      "ĀĀĔĀĞ": 3268,
      "ĀĀĔĀĝ": 3269,
      "ĀĀĒĀ": 3270,
      "ĀĀĒĀĞ": 3271,
      "Ā#!ğ": 3272,
      "!/": 3273,
      "!Ĝ!": 3274,
      "!Ğğ": 3275,
      "!\"!": 3276,
      "!%\"": 3277,
      "!%%": 3278,
      "\"$ğ": 3279,
      "\"ĝ!": 3280,
      "\"ěĞ": 3281,
      "#Ē": 3282,
      "#Ĝ\"": 3283,
      "$ē": 3284,
      "$ĀĀĞĀ": 3285,
      "%ĀĀĝĀ": 3286,
      "%ĀĀğĀğ": 3287,
      "%ĀĀĞĀĞ": 3288,
      "&Ěğ": 3289,
      "&ĀĀ!Āğ": 3290,
      "&ĀĀĜĀ!": 3291,
      "'ĀĀğĀĞ": 3292,
      "(ĀĀĞĀğ": 3293,
      ")-": 3294,
      ")ĀĀĚĀ!": 3295,
      "*-": 3296,
      "*ĀĀ!ĀĞ": 3297,
      "+ĀĀğĀ": 3298,
      "+ĀĀĞĀĝ": 3299,
      "-Ĝ": 3300,
      "ď!": 3301,
      "Đ!": 3302,
      "Đ'": 3303,
      "ĐĀĀ": 3304,
      "đ#": 3305,
      "đĘ": 3306,
      "đę": 3307,
      "đĀĀ": 3308,
      "ē&": 3309,
      "ē+": 3310,
      "Ĕē": 3311,
      "ĔĀ#": 3312,
      "ĕ.": 3313,
      "ĖĜ\"": 3314,
      "ėē": 3315,
      "ĘĒ": 3316,
      "ĘĞ\"": 3317,
      "ĚĒ": 3318,
      "Ěē": 3319,
      "Ěĕ": 3320,
      "Ěĝ\"": 3321,
      "ĚĀĀğĀ": 3322,
      "ĝĒ": 3323,
      "ĝě\"": 3324,
      "ĞĒ": 3325,
      "Ğĝğ": 3326,
      "ğĝğ": 3327,
      "ĠĀĀ#Ā": 3328,
      "ĠĀĀĞĀ!": 3329,
      "ĠĀĀĜĀ!": 3330,
      "ĠĀĀĝĀ\"": 3331,
      "ĠĀĀ#Ā!": 3332,
      "ĠĀĀ$Ā!": 3333,
      "Ġğ(!": 3334,
      "Ġğ(ğ": 3335,
      "ĠğĘĞ": 3336,
      "Ġğęě": 3337,
      "Ġ!*": 3338,
      "Ġ!ěě": 3339,
      "Ġ!Ęğ": 3340,
      "Ġ!Ęĝ": 3341,
      "Ġ!'ĝ": 3342,
      "Ġ!ĚĚ": 3343,
      "ĠĞ)": 3344,
      "ĠĞ(!": 3345,
      "Ġ\"+": 3346,
      "Ġ\"&#": 3347,
      "Ġ\"'#": 3348,
      "Ġĝęğ": 3349,
      "Ġĝ'ğ": 3350,
      "Ġĝ&ĝ": 3351,
      "Ġĝě%": 3352,
      "Ġĝ(ğ": 3353,
      "ĠĝĘĞ": 3354,
      "Ġĝ(Ğ": 3355,
      "Ġ#)": 3356,
      "Ġ#'ğ": 3357,
      "Ġ#ę\"": 3358,
      "Ġ#(ĝ": 3359,
      "Ġ$)": 3360,
      "Ġ$ě#": 3361,
      "Ġ$ěě": 3362,
      "Ġ$ęĞ": 3363,
      "Ġ$'ĝ": 3364,
      "ĠĜė": 3365,
      "ĠĜĀĀ": 3366,
      "ĠĜ'!": 3367,
      "ĠĜ'ğ": 3368,
      "ĠĜ&ĝ": 3369,
      "ĠĜĚĜ": 3370,
      "ĠĜ#%": 3371,
      "ĠĜĚ$": 3372,
      "ĠĜ#ě": 3373,
      "ĠĜĜ%": 3374,
      "Ġě%Ğ": 3375,
      "Ġě&\"": 3376,
      "Ġěęğ": 3377,
      "ĠěĝĜ": 3378,
      "Ġě#Ĝ": 3379,
      "Ġěě%": 3380,
      "Ġ%+": 3381,
      "Ġ%ė": 3382,
      "Ġ%Ěğ": 3383,
      "Ġ%'\"": 3384,
      "Ġ%'#": 3385,
      "Ġ%ĝ%": 3386,
      "Ġ%\"Ě": 3387,
      "Ġ!ğ'": 3388,
      "Ġğ!Ę": 3389,
      "Ġğ!ę": 3390,
      "Ġ&Ě": 3391,
      "Ġ&%Ğ": 3392,
      "Ġ&&\"": 3393,
      "Ġ&ęğ": 3394,
      "Ġ&&Ğ": 3395,
      "Ġ&ĝ$": 3396,
      "Ġ&(\"": 3397,
      "Ġ&$Ĝ": 3398,
      "Ġ&$ě": 3399,
      "Ġ&!Ě": 3400,
      "ĠĚěĞ": 3401,
      "ĠĚ!ĝ": 3402,
      "ĠĚĝ%": 3403,
      "ĠĚ%&": 3404,
      "Ġ\"!Ę": 3405,
      "Ġ'ę": 3406,
      "Ġ'Ě": 3407,
      "Ġ'ě!": 3408,
      "Ġ'ĞĞ": 3409,
      "Ġ'Ěğ": 3410,
      "Ġ'&ğ": 3411,
      "Ġ'!ĝ": 3412,
      "Ġ'ĝĝ": 3413,
      "Ġ'Ğĝ": 3414,
      "Ġ'\"Ĝ": 3415,
      "Ġ'#Ĝ": 3416,
      "Ġęę": 3417,
      "ĠęĞğ": 3418,
      "ĠęĚ!": 3419,
      "Ġęĝ#": 3420,
      "Ġę!#": 3421,
      "Ġę\"ĝ": 3422,
      "Ġę#$": 3423,
      "Ġęĝ$": 3424,
      "Ġę!$": 3425,
      "ĠęĞ$": 3426,
      "Ġğ\"Ę": 3427,
      "Ġğ\"ę": 3428,
      "Ġ!Ğ(": 3429,
      "Ġ(ě": 3430,
      "Ġ($\"": 3431,
      "Ġ(Ğğ": 3432,
      "Ġ(ğ!": 3433,
      "Ġ(ĝ!": 3434,
      "Ġ(\"!": 3435,
      "Ġ(!ğ": 3436,
      "Ġ(ğĝ": 3437,
      "Ġ(ğĚ": 3438,
      "ĠĘĜ#": 3439,
      "ĠĘ\"ğ": 3440,
      "ĠĘğĞ": 3441,
      "ĠĘĚ!": 3442,
      "Ā!\"": 3443,
      "Ā!ğ": 3444,
      "Ā!ğğ": 3445,
      "ĠĞĞ'": 3446,
      "ĠĞĞę": 3447,
      "Āğ!!": 3448,
      "Ā\"ğğ": 3449,
      "Āĝ!\"": 3450,
      "Ġĝğę": 3451,
      "Ġ)Ĝ": 3452,
      "Ġĝ!'": 3453,
      "Ġė#": 3454,
      "Ġė$": 3455,
      "ĠėĞ\"": 3456,
      "ĠĞĝę": 3457,
      "ĠĝĞĚ": 3458,
      "Ġ*ğ": 3459,
      "Ġğ#'": 3460,
      "ĠĖ\"": 3461,
      "Ā%Ĝ": 3462,
      "Ġ\"ĝ&": 3463,
      "Ġĝ\"&": 3464,
      "ĜğĀĀ": 3465,
      "Ġ$ğę": 3466,
      "Ġ$!&": 3467,
      "Ġ+\"": 3468,
      "Ġ+%": 3469,
      "$\"&": 3470,
      "Ġ$\"%": 3471,
      "Ġĕğ": 3472,
      "#ĀĀ-": 3473,
      "#ĀĀđ": 3474,
      "$ĀĀĒ": 3475,
      "ĠĜ\"&": 3476,
      "%ĀĀď": 3477,
      "%ĀĀĕ": 3478,
      "ğ!#": 3479,
      "'ĀĀ.": 3480,
      "'ĀĀē": 3481,
      "'ĀĀĕ": 3482,
      "!ğ%": 3483,
      "ĝ\"%": 3484,
      "*ĀĀ.": 3485,
      "&ğĀĀ": 3486,
      "ĜĀĀ,": 3487,
      "\"ĀĀ+": 3488,
      "ĞĀĀ*": 3489,
      "ĞĀĀ,": 3490,
      "ĞĀĀ.": 3491,
      "Ġĝ#&": 3492,
      "Ġĝ#ě": 3493,
      "'!ĀĀ": 3494,
      "ĀĀĝĀ.": 3495,
      "ĀĀ!ĀĔ": 3496,
      "ĀĀ&ĀĜ": 3497,
      "ĀĀ&Ā#": 3498,
      "ĀĀ&Ā&": 3499,
      "ĀĀęĀ%": 3500,
      "ĀĀ'Ā&": 3501,
      "Ġ%ğ$": 3502,
      "ĀĀĘĀ!": 3503,
      "ĀĀĘĀ&": 3504,
      "Ġ$#%": 3505,
      "Ġ#$%": 3506,
      "Ġ#$Ě": 3507,
      "Ġěğ&": 3508,
      "ĀĀ(Ā#": 3509,
      "ĀĀ(Ā'": 3510,
      "ĀĀėĀ$": 3511,
      "ĘğĀĀ": 3512,
      "Ġ!%Ě": 3513,
      "Ġ$ĝę": 3514,
      "Ġ$ĝě": 3515,
      "ĀĀěĀ+": 3516,
      "ĀĀěĀĔ": 3517,
      "ĀĀ)Ā#": 3518,
      "ĀĀĕĀĝ": 3519,
      "ĀĀĕĀ$": 3520,
      "ĀĀĖĀĞ": 3521,
      "ĀĀĖĀĚ": 3522,
      "ĀĀ%ĀĔ": 3523,
      "Ġ%ĞĚ": 3524,
      "ĀĀ*Āě": 3525,
      "ĠĞěĚ": 3526,
      "ĀĀ+ĀĜ": 3527,
      "ĀĀ,ĀĞ": 3528,
      "ĀĀ,ĀĜ": 3529,
      "ĀĀ-Āĝ": 3530,
      "ĠĞ%ě": 3531,
      "ĀĀĔĀ": 3532,
      "ĀĀĔĀ!": 3533,
      "ĀĀĔĀĜ": 3534,
      "ĀĀĔĀ#": 3535,
      "Ġ#%ě": 3536,
      "ĀĀ/Ā": 3537,
      "ĀĀĒĀ$": 3538,
      "Ā#ğ!": 3539,
      "!,": 3540,
      "!%!": 3541,
      "!ĝ!": 3542,
      "!''": 3543,
      "\"#\"": 3544,
      "\"ğ!": 3545,
      "\"Ĝ#": 3546,
      "#ě\"": 3547,
      "#ĀĀğĀ!": 3548,
      "$$\"": 3549,
      "$%Ğ": 3550,
      "%-": 3551,
      "%$\"": 3552,
      "&ĀĀĞĀ": 3553,
      "&ĀĀĞĀ!": 3554,
      "&ĀĀĞĀ\"": 3555,
      "'ĀĀ\"Ā": 3556,
      "'ĀĀĝĀ!": 3557,
      "'ĀĀĝĀğ": 3558,
      "(+": 3559,
      "(ĀĀğĀ": 3560,
      "(ĀĀĞĀ": 3561,
      "(ĀĀğĀĝ": 3562,
      "(ĀĀ\"Āĝ": 3563,
      ")ĀĀěĀ": 3564,
      ")ĀĀĞĀğ": 3565,
      ")ĀĀ!Ā\"": 3566,
      ")ĀĀ\"Āğ": 3567,
      "*ĀĀĚĀ": 3568,
      ".ĝ": 3569,
      "/$": 3570,
      "/%": 3571,
      "/)": 3572,
      "/ě": 3573,
      "/Āĝ": 3574,
      "/Āě": 3575,
      "@Ā": 3576,
      "ďĀ": 3577,
      "ďĜ": 3578,
      "Đ%": 3579,
      "Đę": 3580,
      "Đě": 3581,
      "ĐĀ\"": 3582,
      "đĕ": 3583,
      "đĖ": 3584,
      "đĝ": 3585,
      "đĀĜ": 3586,
      "ē%": 3587,
      "ēĕ": 3588,
      "ēė": 3589,
      "Ĕ*": 3590,
      "ĕ,": 3591,
      "ĕĕ": 3592,
      "ė-": 3593,
      "ėĔ": 3594,
      "ę,": 3595,
      "ę-": 3596,
      "ęď": 3597,
      "ě/": 3598,
      "ěĞ\"": 3599,
      "Ĝđ": 3600,
      "ĜĒ": 3601,
      "ĜĘ!": 3602,
      "ĝ/": 3603,
      "ĝĝ!": 3604,
      "ĝĝ#": 3605,
      "ĞĜ\"": 3606,
      "Ğ%!": 3607,
      "ğĜ\"": 3608,
      "ğ#\"": 3609,
      "ğĜĞ": 3610,
      "ğĞ\"": 3611,
      "ğ\"!": 3612,
      "ĠĀĀĜĀ": 3613,
      "ĠĀĀĞĀĞ": 3614,
      "ĠĀĀ!ĀĜ": 3615,
      "ĠĀĀĜĀğ": 3616,
      "ĠĀĀĝĀ#": 3617,
      "Ġğ&Ĝ": 3618,
      "Ġğ(#": 3619,
      "Ġğė!": 3620,
      "Ġğ(Ğ": 3621,
      "Ġğ&ě": 3622,
      "Ġ!$ĀĀ": 3623,
      "Ġ!Ę#": 3624,
      "Ġ!ė\"": 3625,
      "Ġ!*!": 3626,
      "ĠĞĘĞ": 3627,
      "ĠĞĚ$": 3628,
      "ĠĞĚě": 3629,
      "ĠĞęě": 3630,
      "Ġ\")": 3631,
      "Ġ\"ĚĜ": 3632,
      "Ġ\"Ę!": 3633,
      "Ġ\"ĘĞ": 3634,
      "Ġ\"&Ĝ": 3635,
      "Ġ\"Ě%": 3636,
      "Ġ\"&ě": 3637,
      "Ġĝ'Ğ": 3638,
      "ĠĝĘ!": 3639,
      "ĠĝĚ%": 3640,
      "ĠĝĘ\"": 3641,
      "Ġĝ'Ĝ": 3642,
      "Ġ#Ė": 3643,
      "Ġ#Ě#": 3644,
      "Ġ#ěě": 3645,
      "Ġ#ě%": 3646,
      "Ġ#Ě%": 3647,
      "Ġ#)!": 3648,
      "Ġ#ė!": 3649,
      "Ġ#(Ğ": 3650,
      "Ġ#'Ĝ": 3651,
      "Ġ$ė": 3652,
      "Ġ$Ę": 3653,
      "Ġ$&#": 3654,
      "Ġ$Ęğ": 3655,
      "Ġ$&Ĝ": 3656,
      "Ġ$'Ĝ": 3657,
      "ĠĜěĜ": 3658,
      "ĠĜĘĝ": 3659,
      "ĠĜĘ\"": 3660,
      "ĠĜĜě": 3661,
      "ĠĜ$&": 3662,
      "Ġě%#": 3663,
      "Ġě%$": 3664,
      "ĠěĚĞ": 3665,
      "ĠěĚĝ": 3666,
      "Ġě'ğ": 3667,
      "Ġě%Ĝ": 3668,
      "Ġě\"%": 3669,
      "ĠěĚ$": 3670,
      "Ġěĝě": 3671,
      "Ġ%'": 3672,
      "Ġ%%\"": 3673,
      "Ġ%$$": 3674,
      "Ġ%ě#": 3675,
      "Ġ%&ĝ": 3676,
      "Ġ%ę\"": 3677,
      "Ġ%Ğ$": 3678,
      "Ġ%(!": 3679,
      "Ġ%'Ĝ": 3680,
      "Ġ%#Ě": 3681,
      "Ġğ!'": 3682,
      "Ġ&Ĝ!": 3683,
      "Ġ&ěğ": 3684,
      "Ġ&%\"": 3685,
      "Ġ&&ğ": 3686,
      "Ġ&%#": 3687,
      "Ġ&Ěĝ": 3688,
      "Ġ&#Ĝ": 3689,
      "Ġ&!ě": 3690,
      "Ġ&ğĜ": 3691,
      "Ġ&ğĚ": 3692,
      "Ġ&ğę": 3693,
      "ĠĚĜ\"": 3694,
      "ĠĚĚğ": 3695,
      "ĠĚěĝ": 3696,
      "ĠĚ%ĝ": 3697,
      "ĠĚĝĝ": 3698,
      "ĠĚĜ$": 3699,
      "ĠĚ\"ĝ": 3700,
      "ĠĚĚĞ": 3701,
      "ĠĚ\"$": 3702,
      "ĠĚę#": 3703,
      "ĠĚ!&": 3704,
      "ĠĚĞ&": 3705,
      "Ġ\"!&": 3706,
      "Ġ'$!": 3707,
      "Ġ'Ě!": 3708,
      "Ġ'Ğ#": 3709,
      "Ġ'!Ĝ": 3710,
      "Ġ'ĞĜ": 3711,
      "Ġ'$ě": 3712,
      "Ġ!\"ę": 3713,
      "ĠĞ!(": 3714,
      "Ġę#ğ": 3715,
      "Ġę$ğ": 3716,
      "Ġęĝ!": 3717,
      "Ġę$#": 3718,
      "ĠęĜ#": 3719,
      "ĠęğĞ": 3720,
      "Ġę\"Ğ": 3721,
      "ĠęĜ$": 3722,
      "ĠęĞĜ": 3723,
      "Ġę#%": 3724,
      "ĠęĜ%": 3725,
      "Ġ('": 3726,
      "Ġ(Ğ\"": 3727,
      "Ġ(ě!": 3728,
      "Ġ(%ğ": 3729,
      "Ġ(\"\"": 3730,
      "Ġ(#Ĝ": 3731,
      "Ġ(!ě": 3732,
      "ĠĘĜğ": 3733,
      "ĠĘĜ\"": 3734,
      "ĠĘ\"!": 3735,
      "ĠĘ!!": 3736,
      "ĠĘ!ğ": 3737,
      "ĠĘĝ\"": 3738,
      "ĠĘĚ\"": 3739,
      "ĠĘ\"$": 3740,
      "ĀğĞ!": 3741,
      "Āğ\"ğ": 3742,
      "ĀĞ#!": 3743,
      "Ġ#ğĘ": 3744,
      "#!#": 3745,
      "Ġėĝğ": 3746,
      "Ġėğğ": 3747,
      "Ġė!ğ": 3748,
      "ĠėğĞ": 3749,
      "Ā#ĝĞ": 3750,
      "Ā$&": 3751,
      "Ġ*!": 3752,
      "Ġ*)": 3753,
      "Āě\"!": 3754,
      "ĠĖ#": 3755,
      "ĠĖ$": 3756,
      "ĠĖĜ": 3757,
      "Ġ#Ğ&": 3758,
      "Ġĝĝę": 3759,
      "Ġ$!%": 3760,
      "Ġ+!": 3761,
      "Ĝ\"$": 3762,
      "Ĝ\"'": 3763,
      "Āę\"": 3764,
      "Ġĕ!": 3765,
      "%ĀĀē": 3766,
      "Ğ\"#": 3767,
      "ğğĀĀ": 3768,
      "&ĀĀ+": 3769,
      "&ĀĀĐ": 3770,
      "&ĀĀĔ": 3771,
      "%ğ!": 3772,
      "ĠĞ#Ě": 3773,
      "ě\"ĀĀ": 3774,
      "ĝ!ĀĀ": 3775,
      "'ĀĀ,": 3776,
      "'ĀĀĎ": 3777,
      "'ĀĀď": 3778,
      "!!\"": 3779,
      "!ğ'": 3780,
      "(ĀĀ,": 3781,
      "\"ğ\"": 3782,
      "\"ğ$": 3783,
      "\"ğĀĀ": 3784,
      "ĠĠĠĠĠĠĠĠĠĠĠĠĠĠĠĠĠĠĠĠĠĠĠĠ": 3785,
      "ğĞ$": 3786,
      "\"\"$": 3787,
      "#ĝĀĀ": 3788,
      "ğ\"$": 3789,
      "Ġ!Ĝę": 3790,
      "ĝĀĀ.": 3791,
      "ĜĀĀ*": 3792,
      "ĜĀĀ-": 3793,
      "ĜĀĀĘ": 3794,
      "ĀĀğĀ+": 3795,
      "ĀĀğĀĔ": 3796,
      "ĞĀĀĒ": 3797,
      "ĞĀĀĔ": 3798,
      "Ġ\"$&": 3799,
      "ĀĀĞĀĔ": 3800,
      "+ĀĀĒ": 3801,
      "ĀĀĝĀĒ": 3802,
      "ĀĀĝĀē": 3803,
      "ĀĀĝĀĕ": 3804,
      "ĠĞ$&": 3805,
      "ĀĀęĀ(": 3806,
      "ĀĀ'Āė": 3807,
      "Ġ%ğ'": 3808,
      "ĀĀĘĀ*": 3809,
      "ĠěĞ&": 3810,
      "ĀĀĜĀĔ": 3811,
      "Ġěğě": 3812,
      "Ġ\"ĜĚ": 3813,
      "ĀĀ(Āĝ": 3814,
      "ĀĀ(Āě": 3815,
      "ĀĀ(Ā%": 3816,
      "Ġğě&": 3817,
      "ĀĀėĀ#": 3818,
      "ĀĀėĀě": 3819,
      "ĀĀėĀĘ": 3820,
      "(!ĀĀ": 3821,
      "Ġĝ$&": 3822,
      "ĠĜĝ%": 3823,
      "ĀĀ)Ā&": 3824,
      "Ġě!&": 3825,
      "Ġě!'": 3826,
      "ĀĀĕĀĞ": 3827,
      "ĀĀĕĀ%": 3828,
      "ĀĀĕĀę": 3829,
      "ĀĀ$ĀĔ": 3830,
      "ĀĀ$Āĕ": 3831,
      "ĀĀĖĀ$": 3832,
      "ĀĀĖĀě": 3833,
      "ĀĀ%Ā*": 3834,
      "Ġ%!Ě": 3835,
      "ĀĀ*Āĝ": 3836,
      "ĀĀ*Ā%": 3837,
      "ĀĀĚĀ+": 3838,
      "Ġ\"%&": 3839,
      "ĀĀ,Ā": 3840,
      "ĀĀ,Ā!": 3841,
      "ĀĀ-Ā!": 3842,
      "ĀĀēĀğ": 3843,
      "ĀĀēĀĚ": 3844,
      "ĀĀ/Ā\"": 3845,
      "ĀĀ/Ā$": 3846,
      "ĀĀĒĀ&": 3847,
      "Ġ#ěę": 3848,
      "ĀĀđĀ": 3849,
      "ĠĠĠĠĠĠĠĠĠĠĠĠĠĠĠĠĠĠĠĠĠĠĠĠĠĠĠĠĠĠĠĠĠĠĠĠĠĠĠĠĠĠĠĠĠĠĠĠ": 3850,
      "ĠĠĠĠĠĠĠĠĠĠĠĠĠĠĠĠĠĠĠĠĠĠĠĠĠĠĠĠĠĠĠĠĠĠĠĠĠĠĠĠĠĠĠĠĠĠĠĠĠĠĠĠĠĠĠĠĠ": 3851,
      "ĕ!ĀĀ": 3852,
      "Ā#ğĞ": 3853,
      "#ĀĀ)Ā\"": 3854,
      "&ĀĀ&Ā": 3855,
      "!Ĝğ": 3856,
      "!$\"": 3857,
      "!#\"": 3858,
      "!ğğ": 3859,
      "!Ě\"": 3860,
      "!&%": 3861,
      "\"/": 3862,
      "\"Ē": 3863,
      "\"Ğ!": 3864,
      "\"ěğ": 3865,
      "\"ĝ#": 3866,
      "\"(%": 3867,
      "#%$": 3868,
      "#Ĝ$": 3869,
      "$#!": 3870,
      "$Ĝ\"": 3871,
      "$ĀĀğĀ$": 3872,
      "%ē": 3873,
      "%ĀĀĞĀ": 3874,
      "%ĀĀ!Ā": 3875,
      "%ĀĀğĀĞ": 3876,
      "%ĀĀ!Ā!": 3877,
      "%ĀĀĞĀ\"": 3878,
      "%ĀĀ!ĀĜ": 3879,
      "&ĕ": 3880,
      "&\"Ğ": 3881,
      "&ĀĀ!Ā": 3882,
      "&ĀĀğĀğ": 3883,
      "',": 3884,
      "'.": 3885,
      "'ĀĀĜĀ": 3886,
      "'ĀĀ!Āğ": 3887,
      "'ĀĀĞĀ\"": 3888,
      "'ĀĀ\"Āğ": 3889,
      "(-": 3890,
      "(ĀĀ\"Āğ": 3891,
      ")+": 3892,
      ")Ē": 3893,
      ")ĀĀ\"Ā": 3894,
      ")ĀĀ#Ā": 3895,
      ")ĀĀ!Āğ": 3896,
      ")ĀĀĝĀ\"": 3897,
      ")ĀĀ!Āĝ": 3898,
      "*ė": 3899,
      "*ĀĀğĀĜ": 3900,
      "*ĀĀĞĀě": 3901,
      "+Ė": 3902,
      "+ĀĀ!Ā": 3903,
      "+ĀĀ$Ā": 3904,
      "+ĀĀ!ĀĞ": 3905,
      ",ĀĀğĀ": 3906,
      ",ĀĀ!Ā": 3907,
      ".'": 3908,
      ".Ĝ": 3909,
      "/'": 3910,
      "/*": 3911,
      "/ĀĜ": 3912,
      "=Ā": 3913,
      "āĀ!": 3914,
      "ĎĀĀ": 3915,
      "ĎĀĜ": 3916,
      "ď\"": 3917,
      "ď$": 3918,
      "ďĚ": 3919,
      "ďĞ": 3920,
      "ďĀĀ": 3921,
      "Đ\"": 3922,
      "Đ#": 3923,
      "Đ(": 3924,
      "ĐĚ": 3925,
      "đ$": 3926,
      "đ%": 3927,
      "ĒĔ": 3928,
      "ē)": 3929,
      "Ĕ'": 3930,
      "Ĕ,": 3931,
      "ĕĖ": 3932,
      "ĖğĞ": 3933,
      "ė,": 3934,
      "ėĚ\"": 3935,
      "Ę*": 3936,
      "Ę+": 3937,
      "Ę,": 3938,
      "Ę!$": 3939,
      "ę/": 3940,
      "ęđ": 3941,
      "ĚĜğ": 3942,
      "Ěĝğ": 3943,
      "Ěğ!": 3944,
      "Ě$$": 3945,
      "Ě%%": 3946,
      "ě#ğ": 3947,
      "Ĝ/": 3948,
      "ĝĞ!": 3949,
      "ĞĜ#": 3950,
      "ĞĚ\"": 3951,
      "ğđ": 3952,
      "ğ##": 3953,
      "ğ\"\"": 3954,
      "ĠĀĀ!Āğ": 3955,
      "ĠĀĀ\"Āğ": 3956,
      "ĠĀĀ\"ĀĞ": 3957,
      "ĠĀĀ\"Ā\"": 3958,
      "ĠĀĀğĀĚ": 3959,
      "ĠĀĀ#ĀĞ": 3960,
      "ĠĀĀ#Ā$": 3961,
      "ĠĠĊ": 3962,
      "ĠĠċ": 3963,
      "Ġğ)": 3964,
      "ĠğėĞ": 3965,
      "Ġğ'ĝ": 3966,
      "Ġğ*!": 3967,
      "Ġğ&'": 3968,
      "Ġ!Ę!": 3969,
      "Ġ!ėğ": 3970,
      "Ġ!(ĝ": 3971,
      "Ġ!&ě": 3972,
      "ĠĞĔ": 3973,
      "ĠĞĚĜ": 3974,
      "ĠĞĘ!": 3975,
      "ĠĞě%": 3976,
      "ĠĞęĜ": 3977,
      "ĠĞ&%": 3978,
      "ĠĞė!": 3979,
      "ĠĞ'ě": 3980,
      "Ġ\"ęĝ": 3981,
      "Ġ\"ę#": 3982,
      "Ġ\"&&": 3983,
      "Ġ\"(#": 3984,
      "Ġ\")ğ": 3985,
      "Ġ\"($": 3986,
      "Ġ\"'ĝ": 3987,
      "Ġ\"ė\"": 3988,
      "Ġ\"'ě": 3989,
      "ĠĝĖ": 3990,
      "ĠĝĚ$": 3991,
      "Ġ#+": 3992,
      "Ġ#Ĝ$": 3993,
      "Ġ#(!": 3994,
      "Ġ#Ę!": 3995,
      "Ġ#(ğ": 3996,
      "Ġ#ėĞ": 3997,
      "Ġ$$$": 3998,
      "Ġ$Ě#": 3999,
      "Ġ$&ĝ": 4000,
      "Ġ$ĚĜ": 4001,
      "Ġ$(\"": 4002,
      "Ġ$Ě$": 4003,
      "Ġ$)ğ": 4004,
      "Ġ$(Ĝ": 4005,
      "ĠĜ$ĀĀ": 4006,
      "ĠĜĚĝ": 4007,
      "ĠĜęĞ": 4008,
      "ĠĜ&$": 4009,
      "ĠĜě%": 4010,
      "Ġě)": 4011,
      "Ġěė": 4012,
      "ĠěěĞ": 4013,
      "Ġě%ĝ": 4014,
      "Ġěě$": 4015,
      "Ġě#%": 4016,
      "Ġě$%": 4017,
      "Ġě#ě": 4018,
      "Ġěęě": 4019,
      "Ġ%Ĝ#": 4020,
      "Ġ%%#": 4021,
      "Ġ%Ĝ$": 4022,
      "Ġ%\"%": 4023,
      "Ġ&$ĝ": 4024,
      "Ġ&&!": 4025,
      "Ġ&$$": 4026,
      "Ġ&ĚĞ": 4027,
      "Ġ&#$": 4028,
      "Ġ&'ğ": 4029,
      "Ġ&!$": 4030,
      "Ġ&&ĝ": 4031,
      "Ġ&'\"": 4032,
      "Ġ&ĞĚ": 4033,
      "Ġ&ğĘ": 4034,
      "ĠĚ%Ğ": 4035,
      "ĠĚĚ\"": 4036,
      "ĠĚě#": 4037,
      "ĠĚė!": 4038,
      "Ġ'$\"": 4039,
      "Ġ'$Ğ": 4040,
      "Ġ'ě\"": 4041,
      "Ġ'Ĝĝ": 4042,
      "Ġ'%\"": 4043,
      "Ġ'$ĝ": 4044,
      "Ġ'ěĝ": 4045,
      "Ġ'ĝ#": 4046,
      "Ġ'!#": 4047,
      "Ġ''!": 4048,
      "Ġ''ğ": 4049,
      "Ġ'&Ğ": 4050,
      "Ġ'(ğ": 4051,
      "Ġ!\"(": 4052,
      "Ġę$Ğ": 4053,
      "Ġę%!": 4054,
      "ĠęĚ\"": 4055,
      "Ġę!Ĝ": 4056,
      "Ġę!%": 4057,
      "Ġę#Ĝ": 4058,
      "Ġğ\"'": 4059,
      "Ġ(&": 4060,
      "Ġ(Ě": 4061,
      "Ġ(#ğ": 4062,
      "Ġ(Ĝ!": 4063,
      "Ġ(ĜĞ": 4064,
      "Ġ(#Ğ": 4065,
      "Ġ(ĝĞ": 4066,
      "Ġ(Ğĝ": 4067,
      "Ġ(#$": 4068,
      "Ġ(ĝĜ": 4069,
      "Ġ((#": 4070,
      "ĠĘ(": 4071,
      "ĠĘĞ!": 4072,
      "ĠĘ%Ğ": 4073,
      "ĠĘĝ#": 4074,
      "ĠĘ!#": 4075,
      "ĠĘĞ$": 4076,
      "ĠĘğ$": 4077,
      "Ā!!!": 4078,
      "Ā!!ğ": 4079,
      "ĠĞĞ(": 4080,
      "Āğ!Ğ": 4081,
      "ĠĞ\"Ę": 4082,
      "Ā\"#!": 4083,
      "Ā\"!#": 4084,
      "ĀĞ!": 4085,
      "ĀĞ!ğ": 4086,
      "Āĝ\"ğ": 4087,
      "Ġ#!Ę": 4088,
      "#ğĞ": 4089,
      "Ġ)%": 4090,
      "Ġ)(": 4091,
      "Ġ)ğ!": 4092,
      "Ġ)ĝ\"": 4093,
      "Ġ)!Ğ": 4094,
      "Ġğĝ'": 4095
    },
    "merges": [
      "Ġ Ġ",
      "Ġ ğ",
      "Ġ !",
      "ĠĠ ĠĠ",
      "Ġ Ğ",
      "Ġ \"",
      "ĠĠ Ġ",
      "Ā Ā",
      "Ġ ĝ",
      "Ġ #",
      "Ġ $",
      "ĠĠĠĠ Ġ",
      "Ġ Ĝ",
      "Ġ! !",
      "Ġğ ğ",
      "Ġ ě",
      "ĠĠĠĠ ĠĠĠĠ",
      "Ġ %",
      "Ġ! ğ",
      "Ġğ !",
      "Ġ &",
      "Ġ Ě",
      "ĠĞ ğ",
      "Ġ\" !",
      "Ġğ Ğ",
      "Ġ '",
      "Ġ! \"",
      "Ġ\" ğ",
      "ĠĞ !",
      "Ġ ę",
      "ĠĠĠĠ ĠĠ",
      "Ġğ \"",
      "Ġ! Ğ",
      "Ġ (",
      "Ġ Ę",
      "Ġ\" \"",
      "Ā !",
      "ĠĞ Ğ",
      "Ā ğ",
      "ĀĀ ğ",
      "Ġ\" Ğ",
      "ĠĞ \"",
      "Ā \"",
      "Ā Ğ",
      "ĀĀ Ğ",
      "Ā ĝ",
      "Ġ# !",
      "# ğ",
      "Ġĝ ğ",
      "ĀĀ !",
      "Ġ )",
      "Ġğ ĝ",
      "Ġĝ !",
      "Ġ# ğ",
      "# !",
      "Ġ! ĝ",
      "Ġ ė",
      "ĀĀ ĝ",
      "ĀĀ \"",
      "Ā Ĝ",
      "Ġ!! ğ",
      "Ġğğ !",
      "ĠĠĠĠ ĠĠĠ",
      "Ā #",
      "Ā $",
      "Ġ! #",
      "Ġ# \"",
      "Ġğ! !",
      "ĠĞ ĝ",
      "Ġ!ğ ğ",
      "Ġĝ Ğ",
      "ĀĀ Ĝ",
      "Ġ *",
      "Ġğ #",
      "ĀĀ #",
      "Ġğğ ğ",
      "Ġ!! !",
      "Ā ě",
      "ĠĠĠĠĠĠĠĠ ĠĠĠ",
      "Ġ Ė",
      "Ġ# Ğ",
      "Ġğ! ğ",
      "Ā %",
      "Ġ\" ĝ",
      "Ġĝ \"",
      "Ġ!ğ !",
      "Ĝ !",
      "$ ğ",
      "ĠĠĠĠĠĠĠĠ ĠĠĠĠ",
      "ĀĀ $",
      "$ !",
      "ĀĀ ě",
      "Ĝ ğ",
      "Ġ\" #",
      "Ā Ě",
      "Ā &",
      "Ġ$ ğ",
      "Ġĝ ĝ",
      "Ġ$ !",
      "ĠĜ ğ",
      "ĀĀ %",
      "Ġ +",
      "ĠĜ !",
      "Ĝ \"",
      "ĀĀ Ě",
      "$ \"",
      "Ğ !",
      "Ġ$ \"",
      "# \"",
      "$ Ğ",
      "Ġ# ĝ",
      "Ğ ğ",
      "Ā ę",
      "ĠĠĠĠĠĠĠĠ ĠĠ",
      "Ĝ Ğ",
      "Ġ ĕ",
      "# ĀĀ",
      "$ ĀĀ",
      "# Ğ",
      "ě ğ",
      "ĠĜ \"",
      "Ā '",
      "ĠĞğ !",
      "Ġ ĀĀ",
      "Ġ\"! ğ",
      "% ĀĀ",
      "Ğ \"",
      "ĝ ğ",
      "ě !",
      "Ġ!\" ğ",
      "ğ ğ",
      "& ĀĀ",
      "ĠğĞ !",
      "% !",
      "% ğ",
      "Ġ!! Ğ",
      "Ġğ! \"",
      "Ġ!ğ Ğ",
      "ĠĞ #",
      "ğ !",
      "Ā Ę",
      "ě \"",
      "ĝ !",
      "' ĀĀ",
      "Ġ ,",
      "Ğ Ğ",
      "Ġ\"ğ ğ",
      "$ #",
      "\" !",
      "Ġğğ \"",
      "! !",
      "Ĝ #",
      "! ğ",
      "( ĀĀ",
      "Ĝ ĝ",
      "\" ğ",
      "% \"",
      "ĠğĞ ğ",
      "ĝ \"",
      "Ġğ\" !",
      "ĠĞ! !",
      "Ġ!Ğ ğ",
      "ĠĠĠĠĠĠĠĠ ĠĠĠĠĠĠĠĠ",
      "Ġ Ĕ",
      "Ā (",
      "$ ĝ",
      "% Ğ",
      "ĝ Ğ",
      "ğ Ğ",
      "! Ğ",
      "ě Ğ",
      "# #",
      "Ġ\"! !",
      ") ĀĀ",
      "Ě ğ",
      "\" \"",
      "Ġğ\" ğ",
      "Ġğğ Ğ",
      "ĠĞğ ğ",
      "ĠĞ! ğ",
      "Ġ!\" !",
      "! \"",
      "Ġğ Ĝ",
      "Ġ!! \"",
      "Ā ė",
      "# ĝ",
      "Ġ!Ğ !",
      "Ě \"",
      "ğ \"",
      "ě ĝ",
      "\" Ğ",
      "Ġ\"\" ğ",
      "Ā )",
      "& !",
      "Ě !",
      "$ $",
      "ĠĜ Ğ",
      "ĠĞğ \"",
      "Ġğ! Ğ",
      "* ĀĀ",
      "Ġ! Ĝ",
      "Ġ!ğ \"",
      "Ġ -",
      "ĝ #",
      "ĝ ĀĀ",
      "Ġ$ Ğ",
      "Ġ\"ğ !",
      "Ġ\"! Ğ",
      "& ğ",
      "ě #",
      "ĠĞĞ !",
      "! #",
      "% #",
      "Ġ! $",
      "Ġ# #",
      "Ĝ ĀĀ",
      "\" ĀĀ",
      "ĀĀğ Ā",
      "% ĝ",
      "ğ #",
      "ĠĠĠĠĠĠĠĠ ĠĠĠĠĠ",
      "ĠĠĠĠ ĠĠĠĠĠ",
      "Ġ Ā",
      "Ğ ĀĀ",
      "Ġĝ #",
      "Ġ\"ğ Ğ",
      "Ġ\" $",
      "ĀĀĞ Ā",
      "Ġğ $",
      "! ĝ",
      "% $",
      "& \"",
      "ĝ ĝ",
      "Ġ\"Ğ ğ",
      "+ ĀĀ",
      "Ĝ $",
      "\" ĝ",
      "Ĝ Ĝ",
      "Ġ ē",
      "ĠğĞ \"",
      "ĠĞ! \"",
      "ĀĀ\" Ā",
      "Ġğ\" \"",
      "\" #",
      "Ġ!\" Ğ",
      "ĠĞ\" !",
      "Ġ#! ğ",
      "Ě Ğ",
      "Ġ!Ğ Ğ",
      "ę ğ",
      "' !",
      "Ě ĝ",
      "Ğ #",
      "Ě #",
      "Ğ ĝ",
      "ğ ĝ",
      "Ġĝğ !",
      "ĀĀĝ Ā",
      "ě $",
      "ĀĀ! Ā",
      "ĠĞĞ ğ",
      "# $",
      "ę !",
      "Ġ .",
      "ě Ĝ",
      "' ğ",
      "Ġ! #ğ",
      "& Ğ",
      "\" $",
      "Ġ#ğ ğ",
      "ĠĞ\" ğ",
      "ĠĞ Ĝ",
      "Ġĝ! !",
      "ĠĞ $",
      "Ġ!! ĝ",
      "ĀĀ &",
      "Ġ!ğ ĝ",
      "Ġ\"\" !",
      "ĝ $",
      "! $",
      "Ġ\"Ğ !",
      "Ġğĝ !",
      "ĀĀ ę",
      "ĝ Ĝ",
      "ĀĀ '",
      "Ġ!\" \"",
      "Ġ% ğ",
      "& #",
      "ě ě",
      "Ġğ! #",
      "& ĝ",
      "Ġğğ #",
      "ĠğĞ Ğ",
      "' \"",
      "ĀĀ Ę",
      "ę Ğ",
      "Ġ\"\" Ğ",
      "ę \"",
      "Ġ$ #",
      "Ġ!Ğ \"",
      "& $",
      "Ġě Ğ",
      "! Ĝ",
      "ĠĞĞ \"",
      "% %",
      "Ġ Ē",
      "ĀĀĜ Ā",
      "Ġğ\" Ğ",
      "Ġ#\" ğ",
      "Ġ# $",
      "ĠĞĝ !",
      "Ġě ğ",
      "Ġĝğ ğ",
      "% Ĝ",
      "Ġ\"! \"",
      "ĀĀ# Ā",
      "Ġ\"ğ \"",
      "Ġ#! !",
      "' Ğ",
      "ĠĝĞ !",
      "Ġ\" Ĝ",
      "ĠĞ! Ğ",
      "Ġğ #ğ",
      "! %",
      "Ě Ĝ",
      "Ğ $",
      "ĀĀ (",
      "Ġğ ě",
      "\" %",
      "ę ĝ",
      "ĠĞğ Ğ",
      "ĀĀ ė",
      "( !",
      "ę #",
      "Ğ Ĝ",
      "' #",
      "Ġĝ Ĝ",
      "Ġ#! Ğ",
      "Ġ!ĝ ğ",
      "Ę !",
      "Ġ\"Ğ Ğ",
      "Ġğĝ ğ",
      "Ġ\" #ğ",
      "Ġ!ĝ !",
      "\" Ĝ",
      "Ę ğ",
      "ğ $",
      "Ġ! %",
      "Ġĝ $",
      "Ġ$ ĝ",
      "ĠĜ ĝ",
      "# Ĝ",
      "Ġğğ ĝ",
      "! ě",
      "Ġ Ā!",
      "ĀĀě Ā",
      "ĠĠĠĠĠĠĠĠ ĠĠĠĠĠĠĠ",
      "Ġ#ğ Ğ",
      "Ġ /",
      "ğ Ĝ",
      "ĀĀğ Āğ",
      "Ġĝğ \"",
      "( \"",
      "ě %",
      "Ġ! #!",
      "( ğ",
      "Ę Ğ",
      "Ġ\"! ĝ",
      "Ġ#ğ !",
      "Ġ# Ĝ",
      "Ġ ĀĞ",
      "Ġ!ğ #",
      "ĠĞğ #",
      "# %",
      "& &",
      "ĀĀ )",
      "' $",
      "Ě $",
      "ĠĞ\" \"",
      "ĠğĞ #",
      "Ġě !",
      "Ġĝ! ğ",
      "Ġĝ! \"",
      "Ğ %",
      "Ġ Āğ",
      "ĀĀ ĕ",
      "ĀĀğ Ā!",
      "ĀĀ$ Ā",
      "Ę ĝ",
      "ĀĀ Ė",
      "ĀĀğ ĀĞ",
      "Ġ!# Ğ",
      "Ġğ #!",
      "ĀĀ% Ā",
      "Ġğ\" #",
      "Ġ!Ğ ĝ",
      "Ġğ %",
      "ĠĠĠĠĠĠĠĠ ĠĠĠĠĠĠĠĠĠĠ",
      "ĠĞ! #",
      "Ġ!! #",
      "Ġ% !",
      "& Ĝ",
      "Ġ\"ğ ĝ",
      "Ě %",
      "ĝ %",
      "ĀĀĝ Ā!",
      "Ġ Āĝ",
      "Ġ! ě",
      "Ġğ! ĝ",
      "\" ě",
      "ĝ ě",
      "ĀĀĞ Āğ",
      "ĀĀ! Ā!",
      "ğ %",
      "ĀĀĞ Ā!",
      "# &",
      "Ġ$ $",
      "Ę \"",
      "ę Ĝ",
      "Ġğĝ \"",
      "Ġ% Ğ",
      "$ %",
      "Ġ Ā\"",
      "ĀĀ *",
      "ĀĀ! Āğ",
      "( #",
      "ė Ğ",
      "Ě ě",
      "Ĝ ě",
      "ĠĞ ě",
      "Ġ\"\" ĝ",
      ") !",
      "ĠĞ #!",
      "& %",
      "Ġ\" #!",
      "ĀĀğ Ā\"",
      "# ě",
      "Ġ!ĝ Ğ",
      "Ġ\"ĝ ğ",
      "Ĝ %",
      "Ġ đ",
      "Ġ# #ğ",
      "ĀĀĚ Ā",
      "ğ ě",
      "Ġ\" %",
      "ĠĞĞ Ğ",
      "ĀĀĞ ĀĞ",
      "ĀĀ! Ā\"",
      "ė !",
      "ę $",
      "ę ě",
      "Ġ!# \"",
      "Ġ#Ğ ğ",
      "ĀĀĞ Āĝ",
      "Ġ!\" ĝ",
      "' &",
      "Ġ#\" !",
      "\" &",
      "Ġ\" ě",
      "ĀĀĞ Ā\"",
      "ĠĞĝ ğ",
      ") ğ",
      "ĀĀ +",
      "Ġ!! Ĝ",
      "ĀĀğ ĀĜ",
      "Ġĝ\" !",
      "Ġ\"# Ğ",
      "' %",
      "( $",
      "Ġ\"\" \"",
      "ĀĀĝ Āğ",
      "' ĝ",
      "Ġ#\" Ğ",
      "ĠĝĞ \"",
      "ĠĝĞ ğ",
      "Ġ$! ğ",
      "Ę #",
      "ĠĠĠĠĠĠĠĠ ĠĠĠĠĠĠĠĠĠĠĠĠ",
      "ĀĀ! ĀĞ",
      "ė ğ",
      "ĠĜ! !",
      "ę %",
      "ĀĀğ Āĝ",
      "Ġğ# \"",
      "Ġğ# Ğ",
      ", ĀĀ",
      "Ġğĝ Ğ",
      "Ġĝĝ !",
      "ĠĜğ !",
      "ĠĜ #",
      "( Ğ",
      "Ġ!ğ Ĝ",
      "Ġ#Ğ Ğ",
      "Ġ\"Ğ \"",
      "Ġ!ĝ \"",
      "ĀĀĜ Ā!",
      "! &",
      "ė \"",
      "Ġ\"Ğ ĝ",
      "ĀĀĝ Ā\"",
      "Ġ$ğ ğ",
      "$ Ĝ",
      "Ę Ĝ",
      "ĀĀ ,",
      "ĀĀ -",
      "ĠĞ\" #",
      "* !",
      "Ğ ě",
      "ĠĞ %",
      "ĠĠĠĠĠĠĠĠ ĠĠĠĠĠĠĠĠĠĠĠ",
      "Ġ\"ĝ !",
      "\" Ě",
      "( %",
      "Ġ 0",
      "Ġ! $ğ",
      "ĀĀ\" Āĝ",
      "Ġě ĝ",
      "ĀĀĝ Āĝ",
      "ğ Ě",
      "ĀĀ! Āĝ",
      "Ġĝĝ ğ",
      "' Ĝ",
      "Ğ &",
      "Ġ!Ğ #",
      "ĠĞ\" Ğ",
      "Ġ#! ĝ",
      "Ĝ Ě",
      "ĀĀ Ĕ",
      "ĠĞĝ \"",
      "( ĝ",
      "Ġ#Ğ !",
      "Ā *",
      "ę Ě",
      "Ġ# %",
      "Ġğ! $",
      "ĀĀ\" Āğ",
      "$ &",
      "$ ě",
      "Ā Ė",
      "Ġĝ #!",
      "& ě",
      "ĠĞĞ #",
      "! Ě",
      "Ġĝ ě",
      "Ġě \"",
      "Ġĝğ Ğ",
      "ĀĀ\" ĀĞ",
      "Ę $",
      "Ġğ $ğ",
      "Ġğğ $",
      "Ġ\"! Ĝ",
      "ĠĞ #ğ",
      "ĠğĞ ĝ",
      "Ġĝ\" ğ",
      ") \"",
      "ĝ &",
      "Ġğ Ĝ!",
      "ĠĜ Ĝ",
      "Ġ% \"",
      "Ğ Ě",
      "ğ &",
      "Ġ\"! #",
      "ĀĀ! ĀĜ",
      "Ę ě",
      "Ġ Đ",
      "Ġ\" $ğ",
      "Ġğ\" ĝ",
      "Ġ$\" ğ",
      "ĀĀ\" Ā!",
      "Ė !",
      "# Ě",
      ") $",
      "Ġ!\" #",
      "' '",
      "ė ĝ",
      "ĝ Ě",
      "Ġ ĀĜ",
      "ĠĞ! $",
      "Ġ\"ĝ Ğ",
      "ĠĜğ \"",
      "Ĝ &",
      "ĠĞğ $",
      "Ġ\"ğ Ĝ",
      "ĠĞ! ĝ",
      "Ġ#! \"",
      "ğ '",
      "Ġ Āě",
      "ĀĀ ē",
      "Ġ$ Ğğ",
      "ĠĞğ ĝ",
      "ĀĀğ Ā#",
      "ě &",
      "Ġĝğ #",
      "Ġ#ğ \"",
      "Ġ$! Ğ",
      "( &",
      "Ā +",
      "Ě &",
      "ĀĀ /",
      "Ğ ę",
      "Ġğ $!",
      "ĠĞ #\"",
      "Ġ\"ğ #",
      "Ġ!# ĝ",
      "Ė ğ",
      "ę &",
      "Ě Ě",
      "ě Ě",
      "ĠĜ Ğ!",
      "Ġ$! !",
      "Ġ#ğ ĝ",
      "Ġĝ\" \"",
      "Ġĝĝ \"",
      "Ġ! Ĝ!",
      "ĀĀ Ē",
      "ĀĀĝ ĀĞ",
      "ĀĀĝ ĀĜ",
      "Ā ,",
      "Ġğ Ĝğ",
      "ĀĀ# Ā!",
      "Ġ$\" !",
      ") #",
      "Ġ Ā#",
      "Ġ Ā$",
      "Ġ! Ĝğ",
      "ĀĀ\" ĀĜ",
      "ĀĀĜ Āğ",
      "Ġ#Ğ ĝ",
      "Ġ# #!",
      "Ġĝ! #",
      "ĀĀ\" Ā\"",
      "Ġ\"ĝ \"",
      "ė Ĝ",
      "Ġ!ĝ ĝ",
      "ĀĀĜ Ā\"",
      "\" '",
      "ę ę",
      "Ġě #",
      "ĀĀ# Āğ",
      "Ġ\"# \"",
      "Ġ\"# ĝ",
      "Ė ĝ",
      "Ġ! $!",
      "Ġ# ě",
      "Ġ% #",
      "ĠĞĝ Ğ",
      "ĠĜ\" !",
      "' ě",
      "ė #",
      "ĠĞ Ĝ!",
      "ĀĀ .",
      "Ġ% ĝ",
      "Ġ!ğ $",
      "ĠĚ ğ",
      "ĀĀĞ ĀĜ",
      "ĀĀ# Ā\"",
      "% &",
      "Ę Ě",
      "Ġ! &",
      "ĠĜ $",
      "Ġğğ Ĝ",
      "Ġ% $",
      "ĀĀ! Ā#",
      "Ġĝ! Ğ",
      "ĠĜğ ğ",
      "ĠĜ! ğ",
      "Ė Ğ",
      "ĀĀ# Āĝ",
      "Ġ$\" Ğ",
      "* #",
      "Ę %",
      "Ġ 1",
      "Ġ! Ě",
      "Ġ$ Ĝ",
      "ĀĀğ Ā%",
      "ĀĀĞ Ā#",
      "ĀĀĞ Āě",
      "Ġğ# #",
      "Ġğ Ě",
      "Ġ\" Ĝğ",
      "ĀĀĞ Ā%",
      "ĠĜ! \"",
      "% ě",
      "Ġ# #Ğ",
      "ĠĠĠĠĠĠĠĠ ĠĠĠĠĠĠ",
      "ĠĞ\" ĝ",
      "ĀĀ! Ā$",
      "Ġ#\" \"",
      "ĠĝĞ #",
      "ĀĀĜ Āĝ",
      "Ġ$ğ Ğ",
      "( '",
      "Ė ě",
      "Ę ę",
      "Ĝ ę",
      "ĀĀ đ",
      "Ġ& !",
      "ĀĀ! Āě",
      "Ġĝ! $",
      "& '",
      ") %",
      "Ġğ $\"",
      "Ġ\" Ĝ!",
      "ĠĜ Ğ\"",
      "Ġğ! %",
      "Ġğ! Ĝ",
      "ĠĞĞ ĝ",
      "ĀĀğ Ā$",
      "ĀĀğ Āě",
      "ĀĀĜ ĀĞ",
      ") Ğ",
      "* \"",
      "ė ě",
      "ĠĞ #Ğ",
      "Ġ#\" ĝ",
      "Ġğ# ĝ",
      "Ġĝ\" #",
      "Ġ$ğ !",
      "Ġ#ĝ !",
      "Ġ!! $",
      "ĠĚ !",
      "ĀĀğ ĀĚ",
      "ĀĀĚ Ā!",
      "ĠĠĠĠĠĠĠĠĠĠĠĠĠĠĠĠ ĠĠĠĠĠĠĠĠĠĠĠĠĠĠĠĠ",
      "* ğ",
      "ĕ !",
      "Ġ$ Ğ!",
      "Ġ#Ğ \"",
      "ĀĀ% Āğ",
      "Ġ#ĝ ğ",
      "# (",
      "% '",
      "ė Ě",
      "Ě ę",
      "Ğ '",
      "Ġ!\" Ĝ",
      "Ġ#ğ Ĝ",
      "ĀĀĝ Ā#",
      "Ġ\"ĝ ĝ",
      "ĠĞ $!",
      "ĠĞ Ĝğ",
      "ĠĜ Ğğ",
      "Ġ\"Ğ #",
      "Ġğĝ #",
      "ĀĀ# ĀĞ",
      "* $",
      "Ġğ Ĝ\"",
      "Ġğ\" $",
      "ĀĀě Āğ",
      "ĀĀě Ā\"",
      "+ !",
      "ğ ę",
      "ĀĀĞ Ā$",
      "Ġ!ĝ #",
      "ĀĀ\" Ā$",
      "ĀĀ$ ĀĞ",
      "( Ĝ",
      "ĝ ę",
      "Ġĝ #\"",
      "Ġ$ %",
      "Ġ!! ě",
      "ĠĞĝ #",
      "ě '",
      "Ġğ &",
      "Ġ! $Ğ",
      "Ġ\" $Ğ",
      "Ġ$ ĞĞ",
      "Ġě Ĝ",
      "ĠğĞ $",
      "Ġ\"Ğ Ĝ",
      "ĠĝĞ Ğ",
      "ĀĀĚ Āğ",
      "Ġ#ĝ Ğ",
      ") &",
      "Ā -",
      "Ġ\" Ě",
      "ĠĜ ĝğ",
      "ĠğĞ Ĝ",
      "Ġ#! Ĝ",
      "ĀĀ$ Āğ",
      "ĀĀě Ā!",
      "ĠĜ\" \"",
      "! '",
      "Ġğ $Ğ",
      "Ġ& \"",
      "Ġ!Ğ Ĝ",
      "ĀĀ! Ā%",
      "Ġĝ\" Ğ",
      "Ā ĕ",
      "ĝ '",
      "Ġ ď",
      "Ġ ĀĚ",
      "Ġĝ #ğ",
      "Ġ$ #ğ",
      "Ġ\"\" #",
      "ĀĀ$ Ā\"",
      "Ġĝĝ Ğ",
      "Ĝ '",
      "ĠĞ Ĝ\"",
      "Ġ\" ĜĞ",
      "Ġ# $ğ",
      "Ġ# $Ğ",
      "Ġ$ #!",
      "ĀĀ$ Ā!",
      "# '",
      "& (",
      ") '",
      "ğ Ę",
      "Ġ! Ĝ\"",
      "Ġĝ %",
      "Ġĝ Ĝ!",
      "Ġ# $!",
      "Ġ#! #",
      "ĀĀ\" Ā%",
      "ĀĀ# ĀĜ",
      "ĠĜ\" ğ",
      "\" ę",
      "Ġ! $\"",
      "ĀĀ\" Ā#",
      "ĀĀ$ Āĝ",
      "* (",
      "ė $",
      "ė ę",
      "Ğ (",
      "ĀĀĞ Ā&",
      "Ġğĝ ĝ",
      "ĀĀ% Ā\"",
      "! ę",
      ") )",
      "Ā Ĕ",
      "Ė \"",
      "ě ę",
      "Ġ 2",
      "Ġ# #\"",
      "Ġğ\" Ĝ",
      "ĀĀ! ĀĚ",
      "ĀĀ# Ā$",
      ") (",
      ") ĝ",
      "Ę &",
      "Ġĝ Ĝğ",
      "Ġ# #ĝ",
      "Ġ!# #",
      "ĠĜ! Ğ",
      "+ \"",
      "Ġ\" &",
      "Ġ% !ğ",
      "ĠĚ Ğ",
      "Ġ\"ğ ě",
      "Ġ$ğ ĝ",
      "Ġ$! ĝ",
      "ĕ ĝ",
      "Ė Ě",
      "Ę '",
      "Ġ Ā&",
      "ĠĞ $ğ",
      "Ġ$ ě",
      "Ġě !!",
      "Ġ& $",
      "ĀĀĝ Āě",
      "ĀĀ\" ĀĚ",
      "Ġ$ğ \"",
      "ĠĜğ #",
      "% Ě",
      "* Ğ",
      "- ĀĀ",
      "ĕ Ĝ",
      "Ė Ĝ",
      "Ġ Āę",
      "Ġğ ĜĞ",
      "Ġ! '",
      "ĠĞ Ě",
      "ĠĜ ě",
      "Ġ!ğ ě",
      "ĀĀ\" Āě",
      "ĀĀĜ ĀĜ",
      "ĀĀ% ĀĞ",
      "Ġ$\" ĝ",
      "ĠĞ# #",
      "$ '",
      "' Ā",
      "ĕ ğ",
      "ě ĀĀ",
      "Ġĝ $!",
      "Ġ$ #Ğ",
      "Ġě ğ\"",
      "Ġ\"ğ $",
      "Ġ\"\" Ĝ",
      "ĀĀğ Āę",
      "ĀĀ# Ā#",
      "Ġĝ\" $",
      "ĀĀě ĀĞ",
      "! (",
      "% ę",
      "ĕ Ğ",
      "Ġ! ĜĞ",
      "Ġ! Ĝĝ",
      "ĀĀĜ Ā#",
      "\" (",
      "* &",
      "Ę ĀĀ",
      "ĠĞ $Ğ",
      "ĠĜ ĝ!",
      "Ġě ğğ",
      "Ġ\"! ě",
      "Ġĝ! ĝ",
      "ĕ #",
      "ę ĀĀ",
      "Ġ! ěğ",
      "Ġ! $ĝ",
      "Ġ% \"ğ",
      "Ġ#ğ #",
      "ĀĀĝ Ā$",
      "Ġ#\" #",
      "ĀĀĜ Āě",
      "Ġ$! \"",
      "ĠĜ\" #",
      "$ Ě",
      "Ġ! %ğ",
      "Ġ# &",
      "Ġ# Ĝ!",
      "Ġğğ %",
      "Ġě Ğğ",
      "ĠĞĞ $",
      "ĠĞ\" $",
      "ĀĀ% Ā!",
      "Ġ#ĝ \"",
      "$ ę",
      "* %",
      "Ā #ğ",
      "Ā #!",
      "Ġ!\" $",
      "Ġ#\" Ĝ",
      "ĀĀě Āĝ",
      "ĀĀě ĀĜ",
      "ĠĞ# ĝ",
      "Ĝ Ę",
      "ĝ Ę",
      "Ġ\" $!",
      "Ġ\" $\"",
      "Ġĝ #Ğ",
      "Ġ$ $Ğ",
      "Ġ% Ĝ",
      "Ġ& Ğ",
      "Ġ!Ğ $",
      "Ġ!Ğ ě",
      "ĀĀĞ ĀĚ",
      "Ġĝğ ĝ",
      "Ġ!# Ĝ",
      "ĀĀĜ Ā$",
      "Ġĝ\" ĝ",
      "ĠĜğ Ğ",
      "! ĀĀ",
      "$ (",
      "+ %",
      "Ĕ Ĝ",
      "Ġ\" Ĝ\"",
      "Ġ$ &",
      "Ġ% ğ!",
      "ĀĀğ ĀĘ",
      "Ġĝğ $",
      "Ġ!ĝ Ĝ",
      "Ġ#ĝ ĝ",
      "+ #",
      "+ ğ",
      "Ė #",
      "ė %",
      "Ě '",
      "Ě (",
      "Ě Ę",
      "Ġ Ā%",
      "Ġ Ā'",
      "Ġ# Ĝğ",
      "ĠĜ Ĝ!",
      "ĠĚ \"",
      "Ġę !",
      "ĀĀ$ ĀĜ",
      "ĀĀ% Āĝ",
      "ĀĀĚ Āĝ",
      "* '",
      "ĕ \"",
      "Ė $",
      "Ġ! %Ğ",
      "Ġĝ Ĝ\"",
      "Ġě !ğ",
      "Ġ% Ğğ",
      "Ġ& ğ",
      "ĀĀ% Āě",
      "* ĝ",
      "Ĕ Ğ",
      "ė Ę",
      "Ġğ %!",
      "Ġğ $#",
      "Ġ! ě\"",
      "Ġ$ $ğ",
      "ĠĜ %",
      "ĠĜ ĝ\"",
      "Ġě ğ!",
      "Ġ% ğĞ",
      "Ġ\"! $",
      "ĀĀğ Ā&",
      "ĀĀ\" Āę",
      "Ġğ# Ĝ",
      "ĀĀ$ Ā#",
      "Ā .",
      "Ĕ ğ",
      "ĀĀ Đ",
      "Ġě $",
      "ĠĚ #",
      "ĠĚ ĝ",
      "ĠĞğ Ĝ",
      "Ġ' !",
      "Ġę Ğ",
      "Ġğĝ $",
      "ĀĀě Ā$",
      "ĠĜ! #",
      "\" Ę",
      "( ě",
      "+ &",
      "ĝ (",
      "Ġ Ď",
      "ĠĞ &",
      "ĠĜ #!",
      "Ġě Ğ!",
      "Ġ% ğğ",
      "ĠĞğ %",
      "ĀĀğ Ā'",
      "ĀĀĝ Ā%",
      "ĀĀ$ Āě",
      "ĀĀě Ā#",
      "Ġ$Ğ ĝ",
      "Ġğ %Ğ",
      "Ġğğ ě",
      "Ġě Ğ\"",
      "Ġ% \"Ğ",
      "ĠĞ! Ĝ",
      "Ġğ\" ě",
      "ĀĀ% Ā$",
      "ĀĀĚ ĀĞ",
      "\" )",
      "+ '",
      "ĕ Ě",
      "ĕ ě",
      "ė &",
      "Ę Ę",
      "Ġĝ Ě",
      "Ġ# ĜĞ",
      "Ġ$ ĝğ",
      "ĠĜ #ğ",
      "Ġ% !!",
      "Ġ& ĝ",
      "ĀĀĞ Āę",
      "Ġ#Ğ Ĝ",
      "Ġ$ğ #",
      "Ġĝĝ #",
      "' (",
      "+ $",
      "Ě ĀĀ",
      "ě (",
      "ĝ )",
      "Ġğ %ğ",
      "Ġğ Ĝĝ",
      "Ġ! $#",
      "ĠĚ Ĝ",
      "Ġ' \"",
      "ĠĞĞ Ĝ",
      "ĠĞ\" Ĝ",
      "ĀĀĝ Ā&",
      "ĀĀ% Ā#",
      "#ĀĀ )",
      "ĠĜĞ #",
      "% (",
      "' ę",
      "' Ě",
      ", #",
      ". ĀĀ",
      "Ė ę",
      "Ġğ ě!",
      "Ġğ Ĝ#",
      "Ġ! %\"",
      "ĠĞ $\"",
      "ĠĞ ĜĞ",
      "Ġ\" $ĝ",
      "Ġ\" %Ğ",
      "Ġĝ ##",
      "ĠĜ Ě",
      "Ġě ĝ\"",
      "Ġ\"\" $",
      "ĀĀ! Ā&",
      "ĀĀĜ Ā%",
      "Ġ\"# #",
      "ĀĀĚ Ā\"",
      "Ġ$\" Ĝ",
      "Ġ#ĝ Ĝ",
      "$ĀĀ ę",
      "(ĀĀ &",
      "$ Ę",
      "ė ĀĀ",
      "Ġ! ě!",
      "ĠĞ ěğ",
      "Ġ$ ĝ!",
      "Ġ$ #ĝ",
      "Ġ% #Ğ",
      "Ġ% ğĝ",
      "Ġğ! ě",
      "Ġę ğ",
      "ĀĀĞ Ā'",
      "ĠĞĝ ĝ",
      "ĠĝĞ ĝ",
      "ĀĀ# Ā&",
      "Ġ$ğ Ĝ",
      "ĠĜğ $",
      "# ę",
      "Ę ė",
      "ĠĞ $#",
      "Ġ\" ě!",
      "Ġ$ Ğ\"",
      "Ġ$ %ğ",
      "Ġě ě",
      "Ġ% #ğ",
      "Ġ% !ĝ",
      "Ġ& #",
      "Ġ' ğ",
      "ĀĀĜ ĀĚ",
      "ĀĀ# Āě",
      "ĠĠĠĠĠĠĠĠĠĠĠĠ ĠĠĠĠĠ",
      "Ġ\"# Ĝ",
      "ĀĀĚ Ā$",
      "$ĀĀ &",
      "ĀĀ& Ā",
      "Ĕ \"",
      "Ğ Ę",
      "ğ (",
      "Ġ ĀĘ",
      "Ġ! Ĝ#",
      "ĠĞ ě!",
      "Ġ\" ěğ",
      "Ġ# $ĝ",
      "ĠĜ Ĝ\"",
      "Ġ!! %",
      "Ġě \"ğ",
      "ĀĀĞ ĀĘ",
      "ĀĀĝ Ā'",
      "ĀĀ\" Ā&",
      "ĀĀĜ Ā&",
      "ĀĀ# Ā%",
      "Ġ\"ĝ #",
      "Ġĝĝ ĝ",
      "Ġ$! Ĝ",
      "ĀĀ% ĀĜ",
      "ĀĀĚ Ā#",
      "Ġ$\" \"",
      "#ĀĀ &",
      "%ĀĀ &",
      "ĠĞ# $",
      "Ġğ ěğ",
      "Ġ\" %ğ",
      "Ġ% !Ğ",
      "ĀĀ! Āę",
      "ĀĀĝ ĀĚ",
      "Ġğ# $",
      "ĀĀ# ĀĚ",
      "ĀĀ# Āę",
      "ĀĀě Ā%",
      "ĠĜ\" Ğ",
      "&ĀĀ &",
      "ĠĠĠĠĠĠĠĠĠĠĠĠĠĠĠĠĠĠĠĠ ĠĠĠĠĠ",
      "Ĕ ě",
      "ė ė",
      "ě Ę",
      "Ĝ (",
      "Ĝ ė",
      "Ğ )",
      "ĠĜ #\"",
      "Ġě ĝ!",
      "Ġě !\"",
      "Ġ% Ğ!",
      "Ġę #",
      "ĀĀ! ĀĘ",
      "Ġğĝ Ĝ",
      "ĀĀ\" ĀĘ",
      "ĀĀ$ Ā%",
      "ĠĜğ ĝ",
      ") Ĝ",
      "+ Ğ",
      ", !",
      "ē ĝ",
      "ę '",
      "Ğ *",
      "ğ )",
      "Ġğ '",
      "ĠĞ ě\"",
      "Ġĝ &",
      "Ġ$ ĝĞ",
      "Ġě \"\"",
      "Ġ% #!",
      "Ġ\"Ğ $",
      "ĀĀ# ĀĘ",
      "Ġ#Ğ #",
      "Ġ\"ĝ Ĝ",
      "ĀĀ% ĀĚ",
      "%ĀĀ ę",
      "'ĀĀ &",
      "ĠĠĠĠĠĠĠĠĠĠĠĠĠĠĠĠ ĠĠĠĠĠĠ",
      "( (",
      "( Ā",
      "( Ě",
      "Ė %",
      "Ė ĀĀ",
      "Ĝ ĕ",
      "ĠĞ ěĞ",
      "Ġ$ $!",
      "ĠĜ ĞĞ",
      "ĠĜ ĝĞ",
      "Ġ% $ğ",
      "Ġ% ĞĞ",
      "Ġ& ğğ",
      "Ġ' Ğ",
      "ĠĞ! %",
      "Ġ\"Ğ ě",
      "ĀĀ! Ā'",
      "Ġ!# $",
      "ĠĞĝ $",
      "Ġ\"ĝ $",
      "ĀĀ$ Ā&",
      "ĀĀĚ Ā%",
      "Ġ\"$ Ĝ",
      "ē !",
      "Ĕ #",
      "Ĕ ĝ",
      "Ġğ ę",
      "Ġğ %\"",
      "Ġ\" $#",
      "Ġĝ ě\"",
      "Ġĝ Ĝ#",
      "Ġ# Ĝ\"",
      "Ġě !#",
      "Ġ% \"!",
      "Ġ& ğ!",
      "Ġ' #",
      "Ġğ\" %",
      "ĀĀĞ Āė",
      "ĀĀ$ ĀĚ",
      "ĠĜ\" $",
      "ĠĠĠĠĠĠĠĠĠĠĠĠĠĠĠĠ ĠĠĠĠĠĠĠĠĠĠ",
      "! )",
      "# Ę",
      "ē Ğ",
      "ĕ $",
      "Ě ė",
      "Ġ\" ę",
      "Ġğğ &",
      "Ġě \"!",
      "Ġě ğĞ",
      "Ġ!\" ě",
      "Ġę \"",
      "Ġę ĝ",
      "ĠĞ\" %",
      "Ġĝ! %",
      "ĀĀě Ā&",
      "ĠĜ! $",
      "# )",
      "' )",
      "Ė &",
      "Ė ė",
      "ę Ā",
      "Ě )",
      "Ġ! %!",
      "Ġ\" '",
      "Ġĝ $ğ",
      "Ġě %",
      "Ġě Ĝ!",
      "ĠĚ Ğ!",
      "ĠĘ !",
      "Ġ#! ě",
      "Ġĝğ Ĝ",
      "ĀĀ$ Āę",
      "ĀĀě Āě",
      "ĀĀĚ Āě",
      "ĠĜĞ ĝ",
      "ĀĀ' Ā",
      "$ )",
      "& )",
      "( )",
      "( ę",
      ", ğ",
      "Ĕ !",
      "Ė Ę",
      "Ę Ā",
      "Ġğ $ĝ",
      "Ġ! ěĞ",
      "Ġ! %ĝ",
      "ĠĞ Ĝ#",
      "Ġĝ ę",
      "Ġĝ $\"",
      "Ġĝ ĜĞ",
      "Ġĝ %ğ",
      "Ġ# '",
      "Ġ# ěğ",
      "Ġ# %!",
      "ĠĜ Ĝğ",
      "ĠĜ ĝ#",
      "Ġ% %",
      "Ġ!ğ %",
      "Ġ& Ĝ",
      "Ġ& !ğ",
      "ĠĞğ ě",
      "Ġ!\" %",
      "ĀĀğ Ā(",
      "Ġ!ĝ ě",
      "ĀĀĚ Ā&",
      "Ġ$\" #",
      ")ĀĀ &",
      "& ę",
      "* ě",
      "ė Ė",
      "Ġğ ěĞ",
      "Ġ! Ě!",
      "ĠĞ '",
      "ĠĞ %ğ",
      "Ġ\" %!",
      "Ġĝ #ĝ",
      "Ġě ĝ#",
      "Ġ% ĝğ",
      "Ġ& %",
      "ĠĚ Ğ\"",
      "ĠĚ ğ\"",
      "Ġ\"! Ě",
      "ĠĞ! ě",
      "Ġ( !",
      "ĠĘ ğ",
      "ĀĀğ Āė",
      "ĀĀĞ Ā(",
      "Ġ#ğ ě",
      "ĀĀ$ ĀĘ",
      "Ġ$ğ ě",
      "ĀĀĚ ĀĜ",
      "&ĀĀ '",
      "ĀĀ( Ā",
      "\" ė",
      "* Ĝ",
      ", $",
      "Ę Āğ",
      "ę Ė",
      "ě ė",
      "ĝ Ė",
      "ĝ ė",
      "Ğ ĕ",
      "Ğ ė",
      "ğ ė",
      "ĠĞ Ěğ",
      "Ġ# Ě",
      "Ġ# $\"",
      "Ġ$ $\"",
      "ĠĜ $!",
      "ĠĜ ĜĞ",
      "ĠĜ ĝĝ",
      "Ġě !Ğ",
      "Ġě ğ#",
      "Ġ% &",
      "ĠğĞ %",
      "ĠğĞ ě",
      "Ġ!Ğ %",
      "Ġ#! $",
      "ĠĝĞ $",
      "ĀĀ$ Ā$",
      "ĀĀĚ Āę",
      "Ġ## Ĝ",
      "ĀĀę Ā",
      "$ Ė",
      "ē ğ",
      "ĕ ĀĀ",
      "ę Āğ",
      "ě Ė",
      "Ĝ Ė",
      "ğ *",
      "Ġ Ā(",
      "Ġğ ě\"",
      "Ġğ %ĝ",
      "Ġ! $$",
      "ĠĞ ę",
      "Ġ\" %\"",
      "ĀĀ Ď",
      "Ġ$ Ĝ!",
      "ĠĜ ěğ",
      "Ġě ĞĞ",
      "Ġě \"ĝ",
      "Ġ% $Ğ",
      "Ġ% ĝĞ",
      "Ġ!ğ Ě",
      "Ġ( \"",
      "ĠĘ ĝ",
      "Ġĝ! Ĝ",
      "ĀĀĝ ĀĘ",
      "ĠĞĝ Ĝ",
      "Ġ#Ğ ě",
      "Ġĝ\" Ĝ",
      "Ġĝĝ $",
      "ĠĀĀ )",
      "\" *",
      "% )",
      "% Ę",
      "' *",
      ") ě",
      "+ ĝ",
      ", \"",
      "- \"",
      "Ġ 3",
      "Ġ! ę",
      "Ġ! &ğ",
      "Ġ\" (",
      "Ġ\" ě\"",
      "Ġ# %Ğ",
      "Ġ$ #\"",
      "Ġ$ ĜĞ",
      "Ġ$ ěğ",
      "Ġ$ $ĝ",
      "ĠĜ &",
      "ĠĜ ##",
      "Ġ!! Ě",
      "Ġ% \"\"",
      "Ġ\"\" ě",
      "ĠĞĞ %",
      "ĀĀě ĀĚ",
      "ĀĀě Ā'",
      "%ĀĀ ė",
      "Ġ$Ğ Ĝ",
      "Ġ%ğ Ĝ",
      "! +",
      "! Ę",
      ", (",
      "Ĕ ĀĀ",
      "ĕ Ę",
      "ę (",
      "ę Ā!",
      "ğ +",
      "Ġ 4",
      "ĠĞ %!",
      "ĠĞ $ĝ",
      "Ġ$ Ĝğ",
      "Ġ$ %!",
      "Ġ$ Ĝĝ",
      "Ġ% #ĝ",
      "Ġ& #ğ",
      "Ġ& ğĞ",
      "Ġ( #",
      "ĀĀĝ Āė",
      "Ġ#ĝ #",
      "#ĀĀ (",
      "#ĀĀ +",
      "ĠĀĀ *",
      "%ĀĀ Ė",
      "'ĀĀ '",
      ")ĀĀ )",
      "*ĀĀ '",
      "Ġ!Ĝ Ĝ",
      "Ġ$# Ĝ",
      "! ė",
      "\" +",
      "# ė",
      ", %",
      ", &",
      "- %",
      "Ğ Ė",
      "Ġ! ěĝ",
      "Ġ\" &ğ",
      "Ġĝ $#",
      "Ġ# %\"",
      "ĠĜ $ğ",
      "Ġě Ĝğ",
      "Ġğ! &",
      "Ġ& Ğğ",
      "Ġ& \"!",
      "Ġ& \"ğ",
      "ĠĚ $",
      "ĠĚ Ğğ",
      "ĀĀ! Ā(",
      "ĀĀĝ Āę",
      "ĀĀ\" Ā'",
      "ĀĀĜ Ā(",
      "ĀĀ# Āė",
      "Ġĝ\" %",
      "ĀĀ% Āę",
      "ĠĜ\" ĝ",
      "ĠĀĀ +",
      "&ĀĀ Ę",
      "ĠĠĠĠĠĠĠĠĠĠĠĠĠĠĠĠ ĠĠĠĠĠĠĠĠĠĠĠ",
      ", ĝ",
      "Ā ē",
      "Ē !",
      "Ĕ Ě",
      "ė '",
      "ę Ę",
      "Ě *",
      "ğ ĕ",
      "Ġğ ě#",
      "Ġğ &Ğ",
      "Ġ! Ěğ",
      "Ġ\" ĀĀ",
      "Ġ\" ĜĜ",
      "Ġĝ $Ğ",
      "Ġĝ ě!",
      "Ġĝ Ĝĝ",
      "Ġĝ %\"",
      "Ġ# %ğ",
      "Ġ# $#",
      "Ġ$ Ě",
      "ĠĜ $\"",
      "Ġě #ğ",
      "Ġě #!",
      "Ġě ĝĞ",
      "Ġě \"#",
      "Ġ% ě",
      "Ġ% Ĝ!",
      "Ġ% ĝ!",
      "Ġ& Ğ!",
      "ĠĞĞ ě",
      "ĀĀĞ Ā)",
      "Ġĝğ %",
      "ĀĀ! Āė",
      "Ġ#ğ $",
      "Ġ!ĝ $",
      "Ġĝĝ %",
      "ĀĀ% ĀĘ",
      "#ĀĀ ė",
      "$ĀĀ )",
      "ĠĀĀ &",
      "ĠĀĀ (",
      "%ĀĀ *",
      "+ (",
      "- '",
      "- (",
      "Ē ğ",
      "Ė '",
      "ę ė",
      "ě )",
      "ĝ *",
      "Ġğ ĚĞ",
      "ĠĞ Ĝĝ",
      "ĠĞ %Ğ",
      "Ġ\" Ĝ#",
      "Ġ\" ěĞ",
      "Ġ\" Ěğ",
      "Ġ# ĀĀ",
      "Ġ$ ĝ\"",
      "ĠĜ Ĝ#",
      "Ġě ĜĞ",
      "Ġě Ğ#",
      "Ġ% $!",
      "Ġ% \"ĝ",
      "Ġ% Ğĝ",
      "Ġ% !Ĝ",
      "ĠĚ ĝğ",
      "ĠĝĞ Ĝ",
      "ĀĀĜ Āę",
      "ĀĀĜ ĀĘ",
      "Ġ$! #",
      "ĀĀ% Ā&",
      "ĠĀĀ '",
      "ĠĀĀ -",
      "%ĀĀ Ę",
      "ĠğĜ $",
      "ĠğĜ Ĝ",
      "Ġĝ# $",
      "ĀĀ& Ā!",
      ", Ā",
      ", Ğ",
      "- !",
      "Ę Ė",
      "Ĝ )",
      "Ġ! Ě\"",
      "Ġ! ěĜ",
      "ĠĞ %\"",
      "ĠĞ ěĝ",
      "ĠĞ $$",
      "ĠĞ %ĝ",
      "Ġ\" Ĝĝ",
      "Ġ# ##",
      "Ġ# %ĝ",
      "Ġ$ ě!",
      "Ġ$ ##",
      "Ġ$ ĝĝ",
      "ĠĜ #Ğ",
      "ĠĜ %!",
      "Ġě Ĝ\"",
      "Ġě \"Ğ",
      "Ġě !$",
      "Ġ% Ě",
      "Ġ& !Ğ",
      "Ġ& !ĝ",
      "ĠĚ ě",
      "ĠĚ ğğ",
      "Ġ\"Ğ %",
      "ĀĀ\" Āė",
      "ĠĞĝ %",
      "Ġ$! $",
      "ĀĀĚ Ā'",
      "Ġ#ĝ ě",
      "$ĀĀ ė",
      "ĠĀĀ ė",
      "%ĀĀ (",
      "ĠĜĞ $",
      "ĠĞ$ Ĝ",
      "# *",
      "# ĕ",
      ". %",
      "ē Ę",
      "Ĕ %",
      "ė ĕ",
      "ğ Ė",
      "ğ ĀĀ",
      "Ġğ Ěğ",
      "Ġğ ěĝ",
      "Ġğ %$",
      "ĠĞ Ě!",
      "ĠĞ &ğ",
      "Ġ\" %#",
      "Ġĝ $ĝ",
      "Ġ# Ĝĝ",
      "Ġ# &ğ",
      "Ġ# ĜĜ",
      "Ġ$ Ĝ\"",
      "Ġ$ %Ğ",
      "Ġ$ Ěğ",
      "Ġ$ ĝĜ",
      "ĠĜ ě!",
      "Ġ!! &",
      "Ġ% ĝ\"",
      "Ġ% !\"",
      "Ġ% ğ\"",
      "Ġ& \"Ğ",
      "ĠĚ ğ!",
      "ĠĚ !!",
      "Ġ\"! %",
      "Ġ\"ğ %",
      "ĠĘ #",
      "ĀĀĝ Ā)",
      "Ġ!# %",
      "ĠĝĞ %",
      "Ġ\"ĝ ě",
      "ĠĜ! ĝ",
      "#ĀĀ '",
      "$ĀĀ (",
      "$ĀĀ *",
      "$ĀĀ ĕ",
      "&ĀĀ ė",
      "ĠĞ# Ĝ",
      "ĀĀĘ Ā",
      "Ġ#$ Ĝ",
      "ĀĀ#Ā Ė",
      "+ ě",
      "+ Ĝ",
      "- )",
      "- *",
      "/ ĀĀ",
      "Ē ĝ",
      "ē #",
      "ē ę",
      "ĕ ę",
      "Ę (",
      "ę Ā\"",
      "Ġ! &Ğ",
      "ĠĞ ě#",
      "ĠĞ ĜĜ",
      "Ġ\" ě#",
      "Ġ\" &Ğ",
      "Ġĝ (",
      "Ġĝ %!",
      "Ġ# Ĝ#",
      "ĠĜ ĝ$",
      "Ġě ĝğ",
      "Ġğ! Ě",
      "Ġ& &",
      "Ġ& #!",
      "ĠĚ &",
      "ĠĚ !ğ",
      "Ġ' Ĝ",
      "Ġ' ĝ",
      "Ġğĝ ě",
      "Ġ#ğ Ě",
      "ĀĀ\" Ā(",
      "Ġ!# ě",
      "ĀĀĜ Āė",
      "ĀĀ# Ā'",
      "ĀĀ% Ā%",
      "Ġ$\" $",
      "$ĀĀ '",
      "%ĀĀ '",
      "(ĀĀ (",
      "ĠğĜ ě",
      "ĠĜĞ %",
      "Ġ$Ğ ě",
      "+ĀĀ &",
      "ĀĀę Ā!",
      "! *",
      "\" Ė",
      "$ ė",
      "& Ě",
      "' ė",
      "( ĕ",
      ". ğ",
      "Ē Ě",
      "ē ě",
      "ē ĀĀ",
      "ĕ Ā",
      "Ę ĕ",
      "Ĝ +",
      "Ġ Ā)",
      "Ġğ Ě\"",
      "Ġğ $$",
      "Ġğ Ěĝ",
      "Ġ\" &!",
      "Ġ\" %ĝ",
      "Ġĝ '",
      "Ġĝ ěğ",
      "ĠĜ $#",
      "Ġ% Ĝğ",
      "Ġ% ĜĞ",
      "Ġ& #Ğ",
      "Ġ!\" Ě",
      "ĠĘ Ğ",
      "ĠĞ\" ě",
      "ĀĀ\" Ā)",
      "Ġ#\" ě",
      "ĠĞĝ ě",
      "ĀĀĜ Ā'",
      "ĀĀĜ Ā)",
      "ĀĀě Āę",
      "$ĀĀ ē",
      "(ĀĀ Ė",
      "Ġ!Ĝ $",
      "Ġ!$ Ĝ",
      "ĀĀę Āğ",
      "# Ė",
      ". !",
      "ē $",
      "ē Ě",
      "ĕ %",
      "Ė )",
      "ę ĀĞ",
      "Ġğ (",
      "Ġ! %#",
      "ĠĞ Ě\"",
      "ĠĞ &!",
      "Ġĝ Ěğ",
      "Ġ# Ěğ",
      "Ġ# Ě!",
      "Ġ$ ĝ#",
      "Ġě $ğ",
      "Ġě $!",
      "Ġě #\"",
      "Ġě Ĝ#",
      "Ġě ##",
      "Ġ% ĝĝ",
      "Ġ% !ě",
      "Ġ& ě",
      "Ġ& !!",
      "ĠĚ !\"",
      "ĠĚ \"Ğ",
      "ĠĞğ &",
      "Ġ( ğ",
      "Ġ\"\" Ě",
      "ĀĀğ Ā)",
      "Ġğ# ě",
      "Ġ\"# $",
      "Ġ#ĝ $",
      "$ĀĀ Ę",
      "&ĀĀ (",
      "ĠğĜ %",
      "Ġ$Ğ #",
      "\"ĀĀ &",
      "ĀĀ& Ā\"",
      "ĀĀę ĀĞ",
      "& ,",
      "* ę",
      ", '",
      ", )",
      ". &",
      "Ē Ğ",
      "ē Ĝ",
      "Ĕ ė",
      "ĕ '",
      "Ę )",
      "ę *",
      "ě ĕ",
      "Ġ 5",
      "Ġ Āė",
      "Ġğ &ĝ",
      "Ġ! Ę",
      "Ġ! &!",
      "Ġ\" ěĜ",
      "ĀĀ ď",
      "Ġĝ %Ğ",
      "Ġĝ &!",
      "Ġĝ ě#",
      "Ġ# Ę",
      "Ġ$ '",
      "Ġ$ $#",
      "Ġě #Ğ",
      "Ġě Ğĝ",
      "Ġ% #\"",
      "Ġ% Ğ\"",
      "Ġ% %ğ",
      "Ġ% &!",
      "Ġ& ĀĀ",
      "Ġ& $Ğ",
      "Ġ& ĝğ",
      "Ġ& ĞĞ",
      "ĠĚ !Ğ",
      "ĠĞğ Ě",
      "ĠğĞ Ě",
      "Ġ' !Ğ",
      "Ġę ě",
      "Ġę Ĝ",
      "Ġ!Ğ Ě",
      "Ġ( ĝ",
      "Ġğĝ %",
      "Ġ#\" $",
      "Ġ#\" %",
      "Ġ#Ğ $",
      "ĀĀ$ Ā(",
      "ĠĜ! %",
      "#ĀĀ Ė",
      "$ĀĀ +",
      "%ĀĀ +",
      "&ĀĀ )",
      "&ĀĀ *",
      "'ĀĀ (",
      "'ĀĀ *",
      "(ĀĀ '",
      "(ĀĀ )",
      "%\" ĀĀ",
      ")ĀĀ (",
      ")ĀĀ Ę",
      "ĜĀĀ ę",
      "ĞĀĀ &",
      "Ġğ$ Ĝ",
      "ĀĀ' Āğ",
      "Ġ$# ě",
      "ĠěĞ %",
      "\" ĕ",
      ") *",
      ") Ě",
      "+ +",
      ", *",
      "- &",
      "Ē ě",
      "Ĕ Ā",
      "ĕ Ā!",
      "Ė (",
      "Ĝ ē",
      "Ġğ %#",
      "Ġ! (",
      "Ġ! ĀĀ",
      "Ġ! %$",
      "ĠĞ Ę",
      "ĠĞ 'ğ",
      "Ġ\" Ě\"",
      "Ġ\" Ĝ$",
      "Ġĝ ěĞ",
      "Ġĝ Ě\"",
      "Ġ# ě!",
      "Ġ$ &!",
      "Ġ$ &ğ",
      "ĠĜ %Ğ",
      "ĠĜ Ě!",
      "Ġě \"$",
      "Ġ% ğ#",
      "Ġ& $ğ",
      "Ġ& Ğĝ",
      "Ġ& ğě",
      "ĠĚ %",
      "ĠĚ ĝ!",
      "ĠĚ \"#",
      "Ġ' \"!",
      "Ġ' !ğ",
      "Ġ( Ğ",
      "Ġ\"Ğ Ě",
      "ĠĞ\" &",
      "Ġ!ĝ Ě",
      "ĀĀĝ Ā(",
      "Ġğ# %",
      "ĀĀ$ Ā'",
      "ĠĜ\" %",
      ")ĀĀ '",
      "*ĀĀ )",
      "Ġ!Ĝ ě",
      "ĝĀĀ +",
      "Ġ## $",
      "\"ĀĀ (",
      "ĀĀ' Ā\"",
      "Ġěğ $",
      "ĀĀ) Ā",
      "Ġ%Ğ ě",
      "% ė",
      "+ *",
      "- #",
      "- ğ",
      "Ĕ &",
      "Ĕ Ę",
      "Ě +",
      "ğ ,",
      "Ġğ Ě!",
      "Ġğ &#",
      "ĠĞ ě$",
      "Ġ\" Ę",
      "Ġ\" ěĝ",
      "Ġ\" Ě!",
      "Ġ# (",
      "Ġ# ě\"",
      "Ġ# $$",
      "Ġ$ Ĝ#",
      "Ġ$ ěĝ",
      "ĠĜ ě\"",
      "Ġě !%",
      "Ġ% ěğ",
      "Ġ% !#",
      "Ġ% #Ĝ",
      "Ġ& $!",
      "Ġ& Ĝĝ",
      "Ġ& !\"",
      "Ġ& ğ\"",
      "Ġ& ğĝ",
      "Ġ' ğğ",
      "Ġę ğ!",
      "Ġ\"\" %",
      "Ġĝğ &",
      "Ġĝ! ě",
      "#! ĀĀ",
      "Ġğ# Ě",
      "Ġ$ğ $",
      "ĀĀĚ ĀĚ",
      "ĀĀĚ Ā(",
      "#ĀĀ *",
      "#ĀĀ ē",
      "#ĀĀ Ę",
      "ĠĜ\" Ĝ",
      "ĠĀĀ Ę",
      "'ĀĀ ė",
      "(ĀĀ Ę",
      "ĠĜĞ Ĝ",
      "*ĀĀ (",
      "ĝĀĀ '",
      "ĀĀĞĀ *",
      "ĀĀĞĀ Ė",
      "ĀĀĞĀ #ğ",
      "ĀĀĝĀ *",
      "ĠĞĜ ě",
      "ĀĀ& ĀĞ",
      "ĠĝĜ %",
      "! Ė",
      "$ ,",
      "+ ,",
      "- Ğ",
      "Ā Ē",
      "đ Ğ",
      "Ĕ ę",
      "Ĕ ĀĞ",
      "ę )",
      "ě Ĕ",
      "Ĝ Ĕ",
      "ĝ ĕ",
      "Ğ Ĕ",
      "Ġ! ĚĞ",
      "Ġ! 'ğ",
      "Ġ! &#",
      "Ġ! %Ĝ",
      "ĠĞ ĚĞ",
      "ĠĞ ęğ",
      "ĠĞ Ě#",
      "ĀĀ :",
      "Ġĝ Ę",
      "Ġĝ ĜĜ",
      "Ġĝ ĚĞ",
      "Ġ# Ě\"",
      "Ġ# ě#",
      "Ġ# &\"",
      "ĠĜ %ğ",
      "ĠĜ Ĝĝ",
      "ĠĜ Ěğ",
      "ĠĜ ě#",
      "ĠĜ ĝĜ",
      "ĠĜ #Ĝ",
      "Ġğğ Ě",
      "Ġě $Ğ",
      "Ġě &!",
      "Ġ% ĀĀ",
      "Ġ& Ĝğ",
      "Ġ& ĜĞ",
      "ĠĚ #!",
      "ĠĚ ğĞ",
      "Ġ' $",
      "ĠĞ! &",
      "Ġę Ĝ\"",
      "Ġğ\" &",
      "ĠĘ Ĝ",
      "Ġ) \"",
      "Ġ) ğ",
      "ĀĀ# Ā(",
      "ĠĜğ ě",
      "ĀĀ% Ā'",
      "Ġ$\" ě",
      "Ġ#ĝ %",
      "ĠĀĀ Ė",
      "ĠĞ# %",
      "ĠĞ# ě",
      "'ĀĀ ę",
      "$ĝ ĀĀ",
      "Ġ!Ĝ %",
      "ĜĀĀ (",
      "Ġĝ# %",
      "ĀĀ!Ā *",
      "ĀĀę Ā$",
      "ĀĀ) Āğ",
      "! ĕ",
      "# ,",
      "$ *",
      "% +",
      "& ė",
      "& Ę",
      "* Ě",
      ". #",
      "Ā /",
      "č Ġ",
      "đ Ě",
      "ĕ Āğ",
      "Ġğ ė",
      "Ġğ Ę",
      "Ġğ &!",
      "Ġğ &ğ",
      "Ġğ Ě#",
      "Ġ! ė",
      "Ġ! &ĝ",
      "ĠĞ %#",
      "ĠĞ Ĝ$",
      "ĠĞ Ěĝ",
      "ĠĞ ę!",
      "ĠĞ %Ĝ",
      "Ġ\" &\"",
      "Ġĝ ěĝ",
      "Ġ# ę",
      "Ġ# ěĞ",
      "Ġ$ ĀĀ",
      "Ġ$ ěĞ",
      "Ġ$ %ĝ",
      "ĠĜ ěĞ",
      "ĠĜ #ĝ",
      "Ġğğ ę",
      "Ġě ě!",
      "Ġě #ĝ",
      "Ġ% \"Ĝ",
      "Ġ% \"ě",
      "Ġ& '",
      "Ġ& %ğ",
      "Ġ& \"ĝ",
      "ĠĚ $ğ",
      "ĠĚ \"!",
      "ĠĚ !#",
      "ĠĚ Ğ$",
      "Ġ' #ğ",
      "Ġę Ğ\"",
      "Ġę \"!",
      "Ġę !!",
      "ĠĞĞ Ě",
      "Ġĝ\" ě",
      "ĀĀĚ Ā)",
      "#\" ĀĀ",
      "ĠĀĀ ē",
      "&ĀĀ ē",
      "\"! ĀĀ",
      "ĠĠĠĠĠĠĠĠĠĠĠĠĠĠĠĠ ĠĠĠĠĠ",
      "*ĀĀ +",
      "ĝĀĀ (",
      "ĝĀĀ *",
      "ĝĀĀ Ę",
      "Ġ## Ě",
      "ĜĀĀ '",
      "ĞĀĀ (",
      "+ĀĀ ė",
      "ĀĀ\"Ā ĕ",
      "ĀĀ!Ā Ė",
      "ĠĞ$ %",
      "ĀĀ& Āĝ",
      "ĀĀ' Ā!",
      "ĀĀ' Ā#",
      "ĀĀĘ Ā\"",
      "ĀĀĘ ĀĜ",
      "ĀĀĘ Ā#",
      "Ġ\"Ĝ ě",
      "Ġğě %",
      "ĀĀė Āğ",
      "# ĀĀğĀ",
      "' +",
      "( *",
      "( ,",
      "( Ę",
      "* +",
      "+ Ě",
      ". \"",
      ". )",
      "ď Ā!",
      "đ !",
      "Ē \"",
      "Ē ĀĀ",
      "Ĕ $",
      "ĕ &",
      "ĕ (",
      "ĕ Ā\"",
      "Ė ĕ",
      "Ė Ė",
      "ě *",
      "ğ ē",
      "Ġ ĀĀĝĀ",
      "Ġğ &\"",
      "Ġğ ę!",
      "Ġğ ęĞ",
      "Ġ! ě#",
      "Ġ! '!",
      "Ġ! 'Ğ",
      "ĠĞ %$",
      "Ġ\" '!",
      "Ġ\" Ěĝ",
      "Ġ\" %Ĝ",
      "ĀĀ <",
      "Ġĝ ė",
      "Ġĝ Ĝ$",
      "Ġ# ěĝ",
      "Ġ$ ę",
      "ĠĜ '",
      "ĠĜ Ě\"",
      "ĠĜ ěĝ",
      "ĠĜ ęğ",
      "Ġě Ě",
      "Ġ% ĝ#",
      "Ġ!ğ &",
      "Ġ!ğ ę",
      "Ġ& #\"",
      "Ġ& Ğ\"",
      "Ġ& #ĝ",
      "ĠĚ #ğ",
      "ĠĚ Ĝ!",
      "ĠĚ ě!",
      "ĠğĞ &",
      "Ġ' Ğğ",
      "Ġ' #Ğ",
      "Ġ' !!",
      "Ġ' \"ğ",
      "Ġ' ğĞ",
      "Ġ' \"Ğ",
      "Ġę ĝğ",
      "Ġę !\"",
      "Ġ( %",
      "ĠĘ \"",
      "Ġ\"Ğ &",
      "Ġ#! Ě",
      "#ğ ğ",
      "Ġĝğ ě",
      "Ġĝ! &",
      "#! \"",
      "Ġ!ĝ %",
      "Ġė ĝ",
      "ĠĝĞ ě",
      "Ġğ# &",
      "ĀĀ# Ā)",
      "Ġ\"ĝ %",
      "ĀĀě Ā(",
      "ĀĀě Ā)",
      "Ġ\"# Ě",
      "Ġ\"# ě",
      "Ġĝĝ ě",
      "Ġ$\" Ě",
      "$ĀĀ Ė",
      "*ĀĀ &",
      "Ġ$Ğ $",
      "Ġ## ě",
      "ĜĀĀ )",
      "ĠĀ Ė",
      "Ġ\"$ ě",
      "Ġ%ğ ě",
      "ĠěĞ $",
      "ĀĀė Ā!",
      "ĀĀė ĀĞ",
      "Ġĝ$ %",
      "ĀĀ* Ā\"",
      "ĀĀ+ Ā",
      "\" ,",
      "& *",
      ") ę",
      "- Ā",
      ". (",
      "/ !",
      "/ \"",
      "/ Ğ",
      "; Ā",
      "Đ ĝ",
      "Ē Ĝ",
      "Ĕ Ė",
      "ĕ ė",
      "ė )",
      "ę +",
      "ě ē",
      "Ĝ ,",
      "Ġğ 'Ğ",
      "Ġ! &\"",
      "Ġ! Ě#",
      "Ġĝ &\"",
      "Ġĝ Ěĝ",
      "Ġ# &!",
      "Ġ# ĚĞ",
      "Ġ# ěĜ",
      "Ġ$ %\"",
      "Ġ$ %#",
      "ĠĜ $Ğ",
      "ĠĜ &!",
      "ĠĜ #$",
      "Ġ!! '",
      "Ġě ěğ",
      "Ġě Ě\"",
      "Ġě ğĝ",
      "Ġě #$",
      "Ġě ĝ$",
      "Ġě !ě",
      "Ġ% $\"",
      "Ġ% &Ğ",
      "Ġ% ĝě",
      "Ġ& ę",
      "Ġ& ĝĞ",
      "Ġ& ĝĜ",
      "Ġ& !Ĝ",
      "ĠĚ ĜĞ",
      "ĠĚ ĝ\"",
      "ĠĚ Ğ#",
      "Ġ' &",
      "Ġ' ě",
      "Ġ' ğ!",
      "Ġ' !\"",
      "Ġ!\" &",
      "Ġ\"ğ &",
      "Ġ\"ğ Ě",
      "Ġę $",
      "Ġę Ĝ!",
      "Ġğ\" Ě",
      "Ā\" !",
      "Ġğĝ &",
      "Ġė \"",
      "Ġė ğ",
      "Ġ#\" Ě",
      "ĠĜğ Ĝ",
      "ĠĜ! &",
      "ĀĀĚ ĀĘ",
      "Ġ#ĝ Ě",
      "#ĀĀ ,",
      "#ĀĀ Đ",
      "#ĀĀ ę",
      "%ĀĀ .",
      "&ĀĀ ,",
      "&ĀĀ Ė",
      "(ĀĀ +",
      ")ĀĀ *",
      ")ĀĀ +",
      ")ĀĀ Ė",
      "ĝĀĀ )",
      "Ġ!$ ě",
      "ĜĀĀ ė",
      "\"ĀĀ )",
      "\"ĀĀ Ė",
      "\"ĀĀ Ę",
      "ĠĀ *",
      "ĞĀĀ '",
      "ĞĀĀ Ę",
      "+ĀĀ '",
      "ĀĀ\"Ā Ė",
      "ĀĀ!Ā ĕ",
      "ĀĀ& Āğ",
      "ĀĀ' ĀĞ",
      "ĀĀĘ Āğ",
      "ĀĀĘ Āĝ",
      "ĀĀĜĀ *",
      "ĀĀ( Ā!",
      "ĀĀė Ā",
      "ĀĀ) Ā\"",
      "ĀĀĕ Āğ",
      "Ġ$$ Ĝ",
      "ĀĀ, Ā\"",
      "ĀĀ- Ā",
      "\" Ĝ!",
      "$ +",
      "& ĀĀĝĀ!",
      ") ė",
      "* *",
      "- $",
      "/ #",
      "/ Ā#",
      "Ē Ā",
      "ē \"",
      "Ĕ ĕ",
      "Ĕ Ā!",
      "ę Ĕ",
      "Ě Ĕ",
      "Ě Ė",
      "Ġ ĀĀ\"Ā",
      "Ġğ 'ğ",
      "Ġğ ěě",
      "Ġğ '#",
      "Ġ! ęğ",
      "Ġ! Ěĝ",
      "Ġ! ě$",
      "Ġ! ę!",
      "ĠĞ (",
      "ĠĞ ė",
      "ĠĞ &$",
      "Ġ\" ĚĞ",
      "Ġ\" ęğ",
      "Ġ\" 'Ğ",
      "Ġĝ $$",
      "Ġĝ %#",
      "Ġĝ ę!",
      "Ġ$ Ě!",
      "Ġ$ #$",
      "ĠĜ ę",
      "ĠĜ %\"",
      "ĠĜ $$",
      "Ġ!! ę",
      "Ġě %ğ",
      "Ġě $#",
      "Ġě ě#",
      "Ġě !ĝ",
      "Ġ% (",
      "Ġ% )",
      "Ġ% ě\"",
      "Ġ% Ĝĝ",
      "Ġ% %Ğ",
      "Ġ% \"#",
      "Ġ% Ğ#",
      "Ġ% 'ğ",
      "Ġ% ĝĜ",
      "Ġ% ĞĜ",
      "ĠĚ \"ğ",
      "ĠĚ ğ#",
      "Ġ' '",
      "Ġ' $ğ",
      "Ġ' Ğ!",
      "Ġ' ěğ",
      "ĠĞ! Ě",
      "Ġ\"Ğ ę",
      "ĠĞ\" '",
      "#ğ \"",
      "ĀĀ! Ā)",
      "Ġ) $",
      "Ġ#ğ ę",
      "#! ğ",
      "Ġ!ĝ &",
      "ĀĀ$ Āė",
      "ĀĀ$ Ā)",
      "ĀĀě ĀĘ",
      "Ġ$! ě",
      "ĠĜğ %",
      "ĀĀĚ Āė",
      "ĠĀĀ Ē",
      "%ĀĀ )",
      "'ĀĀ Ę",
      "ĠĠĠĠĠĠĠĠĠĠĠĠĠĠĠĠ ĠĠĠĠĠĠĠĠĠĠĠĠĠ",
      "ĠĠĠĠĠĠĠĠĠĠĠĠĠĠĠĠ ĠĠĠĠĠĠĠĠĠĠĠĠĠĠĠĠĠ",
      ")ĀĀ ,",
      ")ĀĀ -",
      "ĝĀĀ &",
      "ĜĀĀ &",
      "\"ĀĀ ė",
      "ĀĀğĀ Ė",
      "ĞĀĀ )",
      "ĀĀĞĀ ,",
      "ĀĀĞĀ ĕ",
      "ĀĀ' Ā$",
      "ĀĀ( Ā\"",
      "ĀĀ( ĀĜ",
      "ĀĀė Ā\"",
      "Ġĝ$ Ĝ",
      "ĀĀ) Ā!",
      "ĀĀĕ Ā\"",
      "ĀĀĖ Āğ",
      "! -",
      "! Ĕ",
      "# /",
      "$ ĕ",
      "% Ė",
      "& +",
      "' -",
      "' Ė",
      "' Ę",
      "* )",
      "+ )",
      ", Ě",
      "- ,",
      ". $",
      ". Ğ",
      "/ &",
      "/ Ā$",
      "đ '",
      "Ē $",
      "Ē ĕ",
      "Ĕ (",
      "Ę Ĕ",
      "ę ĕ",
      "Ě ,",
      "ě ,",
      "Ĝ *",
      "ĝ ,",
      "Ġ ĀĀ!Ā",
      "Ġ ĀĀĝĀğ",
      "Ġğ ěĜ",
      "Ġğ '\"",
      "Ġ! ęĝ",
      "ĠĞ &\"",
      "ĠĞ '!",
      "ĠĞ ěĜ",
      "ĠĞ ěě",
      "ĠĞ ęĞ",
      "Ġ\" $$",
      "Ġ\" %$",
      "Ġ\" ě$",
      "Ġ\" &ĝ",
      "Ġ\" '\"",
      "Ġĝ %ĝ",
      "Ġĝ ę\"",
      "Ġ# ę!",
      "Ġ# &Ğ",
      "Ġ# %Ĝ",
      "Ġ# &Ĝ",
      "Ġ$ ĜĜ",
      "Ġ$ ĚĞ",
      "Ġ$ 'ğ",
      "ĠĜ %#",
      "ĠĜ %ĝ",
      "ĠĜ Ĝ$",
      "Ġğğ '",
      "Ġě &",
      "Ġě %!",
      "Ġě $$",
      "Ġě ĝĝ",
      "Ġě !Ĝ",
      "Ġě \"Ĝ",
      "Ġ% Ĝ\"",
      "Ġ% ě!",
      "Ġ% $ĝ",
      "Ġ% ##",
      "Ġ% \"$",
      "Ġ% #ě",
      "Ġ& %!",
      "Ġ& ĝ!",
      "ĠĚ $!",
      "ĠĚ Ĝğ",
      "ĠĚ $\"",
      "ĠĚ Ĝ#",
      "ĠĚ ĝĞ",
      "ĠĚ \"%",
      "Ġ' ĀĀ",
      "Ġ' #\"",
      "Ġ' Ğ\"",
      "Ġ' ĝğ",
      "Ġ' \"\"",
      "Ġ\"ğ ę",
      "ĠĞ! '",
      "Ġę %",
      "Ġę &",
      "Ġę $!",
      "Ġę Ĝğ",
      "Ġę Ğ!",
      "Ġę ğğ",
      "Ġę ğ#",
      "Ġ!Ğ ę",
      "Ġ( !ĝ",
      "#ğ ĀĀ",
      "Ġ) !",
      "Ġğĝ Ě",
      "Ġĝ! Ě",
      "Ġė !",
      "Ġė ě",
      "Ġė Ĝ",
      "ĠĞĝ Ě",
      "$! ĀĀ",
      "ĀĀ% Āė",
      "$\" ĀĀ",
      "Ğ! ĀĀ",
      "ĠĀĀ .",
      "&ĀĀ .",
      "ĠĞ# &",
      "ĠğĜ &",
      "Ě\" ĀĀ",
      "Ġ$Ğ Ě",
      "Ġ!$ %",
      "Ġ!$ Ě",
      "ĜĀĀ +",
      "\"ĀĀ '",
      "\"ĀĀ *",
      "ĠĀ Ĕ",
      "Ġĝ# Ĝ",
      "+ĀĀ (",
      "+ĀĀ Ė",
      "+ĀĀ Ę",
      "ĀĀę Ā\"",
      "ĀĀę Āĝ",
      "ĀĀ' ĀĜ",
      "ĀĀĘ ĀĞ",
      "ĠěĞ Ĝ",
      "Ġ#$ ě",
      "Ġěğ Ĝ",
      "ĀĀ#Ā ĕ",
      "ĀĀ( Ā$",
      "ĀĀė Āĝ",
      "ĀĀĖ Āĝ",
      "Ġğ% ě",
      "Ġ$$ ě",
      "ĀĀ* Ā",
      "ĀĀē Ā",
      "! Ğ\"",
      "# +",
      "# ē",
      "# Ĕ",
      "% ,",
      "% ĀĀĞĀ!",
      "+ /",
      "- ĝ",
      "/ (",
      "Đ ğ",
      "đ \"",
      "đ ě",
      "đ Ĝ",
      "đ Ā!",
      "Ĕ Āğ",
      "Ĕ Āĝ",
      "ĕ )",
      "ĕ Ĕ",
      "ė (",
      "ė +",
      "Ę -",
      "Ĝ .",
      "ğ Ĕ",
      "Ġ ĀĀğĀ",
      "Ġ ĀĀğĀĜ",
      "ĠĠ Č",
      "ĠĠ č",
      "Ġğ '!",
      "Ġğ ě$",
      "Ġğ ę#",
      "Ġ! )",
      "Ġ! (!",
      "Ġ! (\"",
      "Ġ! (ğ",
      "Ġ! Ěě",
      "ĠĞ &Ğ",
      "ĠĞ &#",
      "Ġ\" ė",
      "Ġ\" 'ğ",
      "Ġ\" ę\"",
      "Ġ\" (Ğ",
      "ĀĀ Ć",
      "Ġĝ Ě!",
      "Ġĝ &ğ",
      "Ġĝ %$",
      "Ġĝ '!",
      "Ġĝ '\"",
      "Ġ# '!",
      "Ġ$ Ĝ$",
      "ĠĜ &\"",
      "ĠĜ %Ĝ",
      "Ġě Ę",
      "Ġě $\"",
      "Ġě Ĝ%",
      "Ġ% ę",
      "Ġ% ěĞ",
      "Ġ% '!",
      "Ġ% ĝ$",
      "Ġ% %Ĝ",
      "Ġ% $Ĝ",
      "Ġ% %ě",
      "Ġ& ĝ\"",
      "Ġ& \"\"",
      "ĠĚ Ę",
      "ĠĚ ę",
      "ĠĚ ĞĞ",
      "ĠĚ \"\"",
      "ĠĚ #ĝ",
      "ĠĚ Ě!",
      "ĠĚ ę!",
      "ĠĚ ğ$",
      "Ġ' #!",
      "Ġ' ĝĞ",
      "Ġ' #ĝ",
      "Ġ' !ě",
      "Ġę #!",
      "Ġę !ğ",
      "ĠĘ $",
      "ĠĘ Ě",
      "ĠĘ ě",
      "ĠĞ\" Ě",
      "Ġĝğ Ě",
      "Ġ) ĝ",
      "#! !",
      "Ġė Ğ",
      "Ġ!# Ě",
      "Ġ* \"",
      "Ġ\"ĝ Ě",
      "Ġ\"# %",
      "ĀĀ% Ā(",
      "ĠĜ! Ĝ",
      "#\" $",
      "#ĀĀ .",
      "ĠĀĀ ę",
      "%ĀĀ ,",
      "%ĀĀ Ē",
      "&ĀĀ -",
      "'ĀĀ )",
      "'ĀĀ -",
      "'ĀĀ Ē",
      "!! ĀĀ",
      "(ĀĀ *",
      "(ĀĀ .",
      "(ĀĀ ė",
      "ĠĠĠĠĠĠĠĠĠĠĠĠĠĠĠĠ ĠĠĠĠĠĠĠĠĠĠĠĠĠĠĠĠĠĠĠĠ",
      ")ĀĀ ė",
      "&! ĀĀ",
      "*ĀĀ *",
      "*ĀĀ ė",
      "*ĀĀ Ę",
      "ĝĀĀ Ė",
      "ĀĀğĀ ĕ",
      "ĠĀ ,",
      "ĞĀĀ Ė",
      "+ĀĀ )",
      "ĀĀ\"Ā *",
      "ĠĞ$ ě",
      "ĀĀ& Ā$",
      "ĀĀ& Ā%",
      "ĀĀĘ Ā$",
      "ĀĀĘ Ā%",
      "ĀĀĘ Āę",
      "ĀĀ( Āğ",
      "ĀĀ( ĀĞ",
      "Ġ!% ě",
      "ĀĀ) ĀĞ",
      "ĀĀ) ĀĜ",
      "ĀĀĕ Ā",
      "ĀĀĖ Ā",
      "ĀĀĖ Ā!",
      "ĀĀ+ Ā!",
      "ĀĀ+ Ā\"",
      "ĀĀē Ā\"",
      "ĀĀ. Ā",
      "! ğ!",
      "\" ē",
      "% *",
      "% .",
      "% ĀĀĞĀğ",
      "& -",
      "& Ė",
      "& ĀĀğĀ!",
      "' ĀĀĞĀ",
      "( Ė",
      "( ĀĀĜĀ",
      ") ,",
      ") Ę",
      "* Ę",
      "+ ę",
      "- /",
      "/ ,",
      "/ Ā",
      "/ ĝ",
      "/ Ā\"",
      "ď Ę",
      "ď Āğ",
      "ď ĀĞ",
      "đ Ā",
      "đ ğ",
      "Ē Ė",
      "Ē ę",
      "ē '",
      "ē (",
      "ĕ ĀĜ",
      "ė *",
      "ě đ",
      "ĝ ē",
      "Ğ ,",
      "Ğ .",
      "ğ ĝ!",
      "Ġ 6",
      "Ġ ĀĀğĀğ",
      "Ġğ ĀĀ",
      "Ġğ ęğ",
      "Ġğ %%",
      "Ġğ %Ĝ",
      "Ġğ Ě$",
      "Ġ! ę#",
      "ĠĞ ĀĀ",
      "ĠĞ 'Ğ",
      "ĠĞ ęĝ",
      "Ġ\" Ě#",
      "Ġ\" ę!",
      "Ġĝ ĀĀ",
      "Ġĝ ě$",
      "Ġĝ ěĜ",
      "Ġĝ ęĞ",
      "Ġ# %#",
      "Ġ# %$",
      "Ġ# ęğ",
      "Ġ# &#",
      "Ġ$ (",
      "Ġ$ ě\"",
      "Ġ$ '!",
      "Ġ$ ę!",
      "Ġ$ ĝ$",
      "Ġ$ Ĝ%",
      "ĠĜ Ę",
      "ĠĜ $ĝ",
      "ĠĜ $Ĝ",
      "Ġ!! Ę",
      "Ġě (",
      "Ġě ę",
      "Ġě &ĝ",
      "Ġě ĝ%",
      "Ġ% %!",
      "Ġ% ěĝ",
      "Ġ% &ğ",
      "Ġ% %ĝ",
      "Ġ% &\"",
      "Ġ% Ěĝ",
      "Ġ% Ĝě",
      "Ġ& $#",
      "Ġ& ĝ#",
      "Ġ& %ĝ",
      "Ġ& ğ#",
      "Ġ& Ğ#",
      "Ġ& ĞĜ",
      "ĠĚ Ě",
      "ĠĚ %ğ",
      "ĠĚ ##",
      "ĠĚ &!",
      "ĠĚ ĝ$",
      "ĠĚ !%",
      "ĠĚ #Ĝ",
      "Ġ\"! ę",
      "Ġ' %",
      "Ġ' Ĝğ",
      "Ġ' %ğ",
      "Ġ!Ğ &",
      "Ġ( $",
      "Ġ( (",
      "Ġ( #!",
      "Ġ( \"ğ",
      "Ġ( \"ĝ",
      "ĠĘ %",
      "Ġ\"\" ę",
      "ĠĞĞ &",
      "ĀĞ ğ",
      "ĀĞ ğĞ",
      "Ġ#! %",
      "Ġĝğ '",
      "Ġ) #",
      "Ġ#ğ %",
      "#! Ğ",
      "Ġ!# &",
      "ĠĞĝ &",
      "ĠĝĞ &",
      "ĠĖ ğ",
      "Ġ#Ğ Ě",
      "Ĝ! ĀĀ",
      "Ġĝĝ Ě",
      "Ġ$! Ě",
      "ĠĜğ &",
      "Ĝ\" ĀĀ",
      "#ĀĀ 'Ā",
      "$ĀĀ Đ",
      "#Ğ ĀĀ",
      "%! ĀĀ",
      "'ĀĀ +",
      "'ĀĀ Ė",
      "ĞĞ ĀĀ",
      "ĠğĜ Ě",
      "ěĝ ĀĀ",
      "*ĀĀ Ė",
      "ĝĀĀ ę",
      "Ġ## %",
      "ĀĀğĀ *",
      "ĠĀ ĕ",
      "ĞĀĀ +",
      "ĞĀĀ ę",
      "Ġ\"$ %",
      "ĀĀę Ā#",
      "ĀĀę Āě",
      "ĀĀĘ ĀĚ",
      "Ġěğ %",
      "ĠĜĝ ě",
      "ĀĀ) Āĝ",
      "ĀĀ) Ā%",
      "ĀĀĕ Ā!",
      "ĀĀĖ Ā\"",
      "ĀĀ* Āğ",
      "ĀĀ, Āğ",
      "ĀĀ, Āĝ",
      "ĀĀ- Ā#",
      "ĀĀē Āĝ",
      "! ē",
      "! Ğ!",
      "! Ĝ$",
      "\" -",
      "\" .",
      "\" ĝ\"",
      "% ĕ",
      "% ĀĀğĀ",
      "' ĕ",
      "' ĀĀĝĀ",
      "' ĀĀğĀ!",
      "( ĀĀ!Ā",
      "* ĀĀĝĀ",
      "* ĀĀ\"Ā!",
      "* ĀĀĝĀĜ",
      "+ -",
      ", ę",
      ", Āĝ",
      "- .",
      "- ĀĀ\"Ā",
      "- ĀĀ&",
      "/ ğ",
      "/ ĀĞ",
      "ď Ā\"",
      "Đ Ĝ",
      "Đ Ğ",
      "đ Āě",
      "Ē &",
      "ĕ *",
      "Ė Ĕ",
      "ė Ē",
      "Ě ěğ",
      "Ĝ -",
      "ĝ Ĕ",
      "ĝ $$",
      "Ğ -",
      "Ğ đ",
      "Ğ Ğ!",
      "Ğ Ğ\"",
      "ğ ĝ\"",
      "Ġ ĀĀğĀ\"",
      "Ġ ĀĀĞĀĝ",
      "Ġğ &$",
      "Ġğ ĚĜ",
      "Ġğ Ęğ",
      "Ġ! ęĞ",
      "Ġ! &$",
      "Ġ! ĚĜ",
      "Ġ! '#",
      "Ġ! ė!",
      "ĠĞ *",
      "ĠĞ &ĝ",
      "ĠĞ '\"",
      "ĠĞ ę\"",
      "ĠĞ ę#",
      "Ġ\" ěě",
      "Ġ\" ęĞ",
      "Ġ\" Ęğ",
      "Ġ\" (\"",
      "Ġ\" (ğ",
      "ĀĀ >",
      "Ġĝ Ě#",
      "Ġĝ &Ğ",
      "Ġĝ &#",
      "Ġĝ '#",
      "Ġ# ě$",
      "Ġ# '\"",
      "Ġ# 'Ğ",
      "Ġ$ 'Ğ",
      "Ġ$ ĜĚ",
      "ĠĜ ĚĞ",
      "ĠĜ Ě#",
      "Ġě '",
      "Ġě Ěğ",
      "Ġě ěĝ",
      "Ġě Ě!",
      "Ġě &ğ",
      "Ġě Ĝ$",
      "Ġě ĜĜ",
      "Ġě &Ğ",
      "Ġě Ĝ&",
      "Ġ% ěĜ",
      "Ġ% !$",
      "Ġ% 'Ğ",
      "Ġ& (",
      "Ġ& ##",
      "Ġ& ĝĝ",
      "Ġ& \"Ĝ",
      "ĠĚ #Ğ",
      "ĠĚ %!",
      "ĠĚ ĝ#",
      "ĠĚ ğĝ",
      "ĠĚ ĝĜ",
      "ĠĚ !Ĝ",
      "ĠĚ ğĜ",
      "ĠĚ ğ%",
      "ĠğĞ '",
      "ĠğĞ ę",
      "Ġ' (",
      "Ġ' ##",
      "Ġ' ğ#",
      "Ġ' \"ĝ",
      "ĠĞ! ę",
      "Ġę Ě",
      "Ġę #\"",
      "Ġę Ğ#",
      "Ġę ğ$",
      "Ġ!Ğ '",
      "Ġ( !Ğ",
      "Ġ( #ĝ",
      "Ġ( \"Ğ",
      "ĠĘ ğ!",
      "ĠĘ ğ\"",
      "Ġ\"\" &",
      "Āğ \"",
      "Āĝ Ğ",
      "#ğ ĝ",
      "Ġ) ĀĀ",
      "Ġ) ğğ",
      "Ġ) \"ğ",
      "Ġ!# ę",
      "Ġ#Ğ %",
      "Ġ#Ğ ę",
      "Ġĝ\" ę",
      "Ġĝĝ Ĝ",
      "ĀĀ% Ā)",
      "ĠĀĀ ,",
      "%ĀĀ -",
      "%ĀĀ Ď",
      "ĝğ !",
      "ě! ĀĀ",
      "&ĀĀ Ď",
      "&ĀĀ ę",
      "ğ! !",
      "(ĀĀ Ē",
      "(ĀĀ ę",
      "ĝĞ ĀĀ",
      ")ĀĀ ē",
      "*ĀĀ ē",
      "Ġ!Ĝ Ě",
      "ĝĀĀ ,",
      "ĝĀĀ ė",
      "\"ĀĀ .",
      "ĀĀğĀ ,",
      "ĞĀĀ ė",
      "Ġĝ# Ě",
      "Ġğ$ ě",
      "+ĀĀ ę",
      "ĀĀĝĀ Ė",
      "ĀĀę ĀĚ",
      "ĀĀ' Āĝ",
      "ĀĀĜĀ Ė",
      "ĀĀė ĀĜ",
      "ĀĀė Ā%",
      "ĠĝĜ ě",
      "Ġ#Ĝ ě",
      "ĀĀĕ ĀĜ",
      "ĀĀĕ Ā&",
      "ĀĀĕ Ā'",
      "ĀĀ%Ā Ė",
      "ĀĀ* Ā!",
      "ĀĀ* ĀĜ",
      "ĀĀ* Ā$",
      "Ġ\"% ě",
      "ĀĀ/ Ā!",
      "ĀĀ. Āğ",
      "! \"\"",
      "\" \"ğ",
      "$ /",
      "$ Ē",
      "$ ĀĀěĀ",
      "% Ē",
      "% Ĕ",
      "% ĀĀĜĀ!",
      "& Ĕ",
      "& ĀĀğĀ",
      "& ĀĀĞĀĞ",
      "& ĀĀĝĀğ",
      "( ĀĀğĀğ",
      "( ĀĀğĀĞ",
      "( ĀĀ!ĀĞ",
      "( ĀĀĜĀ!",
      ") ĀĀ!Ā",
      ", ě",
      ", Ĝ",
      "- ę",
      "- ě",
      "/ Ā!",
      ": Ā",
      "= Ā!",
      "? Ā",
      "ď ĝ",
      "Đ ė",
      "Đ Āĝ",
      "Ē #",
      "Ē Ę",
      "ē Ė",
      "Ĕ Ā\"",
      "Ĕ ĀĜ",
      "ĕ Ā#",
      "Ė *",
      "ě +",
      "ě -",
      "ĝ +",
      "ĝ -",
      "ĝ #\"",
      "Ğ +",
      "Ğ #\"",
      "Ġ ĀĀĞĀ",
      "Ġ ĀĀğĀ!",
      "Ġ ĀĀğĀĞ",
      "Ġ ĀĀ!Ā\"",
      "Ġğ Ė",
      "Ġğ ę\"",
      "Ġğ ęĝ",
      "Ġğ (\"",
      "Ġğ Ě%",
      "Ġğ Ěě",
      "Ġğ )ğ",
      "Ġğ ė\"",
      "Ġ! '\"",
      "Ġ! ę\"",
      "Ġ! ě%",
      "Ġ! ĘĞ",
      "Ġ! ę$",
      "ĠĞ Ęğ",
      "ĠĞ Ě%",
      "Ġ\" ėĞ",
      "Ġ\" 'Ĝ",
      "Ġĝ ěě",
      "Ġĝ %Ĝ",
      "Ġ# *",
      "Ġ# ė",
      "Ġ# Ěĝ",
      "Ġ# &ĝ",
      "Ġ# &$",
      "Ġ# ĚĜ",
      "Ġ# '&",
      "Ġ$ %$",
      "Ġ$ &\"",
      "Ġ$ ęğ",
      "Ġ$ ěĜ",
      "Ġ$ &Ğ",
      "Ġ$ '\"",
      "Ġ$ Ĝě",
      "ĠĜ (",
      "ĠĜ &ğ",
      "ĠĜ ĜĜ",
      "ĠĜ ě$",
      "ĠĜ ę!",
      "ĠĜ &Ğ",
      "ĠĜ ę\"",
      "ĠĜ ęĝ",
      "ĠĜ ęĜ",
      "Ġě Ė",
      "Ġě ě\"",
      "Ġě Ĝĝ",
      "Ġě \"ě",
      "Ġ% Ě\"",
      "Ġ% ĜĜ",
      "Ġ% #$",
      "Ġ& Ĝ\"",
      "Ġ& $\"",
      "Ġ& ě!",
      "Ġ& ěĞ",
      "Ġ& Ě!",
      "Ġ& \"#",
      "Ġ& \"$",
      "Ġ& \"ě",
      "Ġ& #ě",
      "Ġ& Ğě",
      "ĠĚ '",
      "ĠĚ ĀĀ",
      "ĠĚ #\"",
      "ĠĚ ěğ",
      "ĠĚ ě\"",
      "ĠĚ $#",
      "ĠĚ %\"",
      "ĠĚ $ĝ",
      "ĠĚ '!",
      "ĠĚ Ğĝ",
      "ĠĚ !$",
      "ĠĚ ęĞ",
      "ĠĚ ĞĜ",
      "ĠĞğ '",
      "Ġ' Ĝ!",
      "Ġ' ĝ\"",
      "Ġ' ğ\"",
      "Ġ' ğĝ",
      "Ġ' ĝĜ",
      "Ġ' ğě",
      "Ġ' Ğę",
      "Ġ\"ğ Ę",
      "Ġę $\"",
      "Ġę #Ğ",
      "Ġę \"ğ",
      "Ġę ĝ\"",
      "Ġę \"\"",
      "Ġę ğ\"",
      "Ġę !ĝ",
      "Ġę Ğĝ",
      "Ġ( Ĝ",
      "Ġ( ĀĀ",
      "Ġ( $ğ",
      "Ġ( ĞĞ",
      "Ġ( ğĜ",
      "ĠĘ ĝ!",
      "Ā! !",
      "Ġ#! ę",
      "#ğ !",
      "#ğ #",
      "#ğ &",
      "Ġ) '",
      "Ġ) Ğ",
      "Ġė Ğ!",
      "Ġ* (",
      "ĠĖ ĝ",
      "ĀĀě Āė",
      "Ġ\"# &",
      "Ġ$ğ Ě",
      "ĠĜ! Ě",
      "ĠĜ! ě",
      "$\" #",
      "#ĀĀ Ď",
      "$ĀĀ -",
      "$ĀĀ .",
      "ĠĜ\" Ě",
      "ĠĀĀ đ",
      "ĝğ \"",
      "&ĀĀ Ē",
      "'ĀĀ Ĕ",
      "\"! $",
      "(ĀĀ ĕ",
      "Ĝĝ ĀĀ",
      "ĠĠĠĠĠĠĠĠĠĠĠĠĠĠĠĠ ĠĠĠĠĠĠĠĠĠĠĠĠĠĠĠĠĠĠ",
      ")ĀĀ ę",
      "ĠĜĞ &",
      "*ĀĀ ę",
      "ĝĀĀ -",
      "ĝĀĀ <",
      "ĜĀĀ Ė",
      "\"ĀĀ ē",
      "ğ# )",
      "ĞĀĀ ē",
      "Ġğ$ &",
      "+ĀĀ *",
      "+ĀĀ ē",
      "ĀĀ\"Ā ē",
      "ĀĀ\"Ā Ĕ",
      "ęğ ĀĀ",
      "ĠĞĜ %",
      "ĀĀ& Āě",
      "ĀĀ' Āě",
      "ĀĀ' Ā%",
      "Ġ%ğ Ě",
      "Ġ$# Ě",
      "ĠěĞ Ě",
      "ĀĀĜĀ +",
      "ĀĀė ĀĚ",
      "ĠĝĜ &",
      "ĀĀěĀ *",
      "Ġ#Ĝ Ě",
      "ĀĀ$Ā +",
      "Ġ!ě Ě",
      "ĀĀ* ĀĞ",
      "ĀĀ+ Āğ",
      "ĀĀ+ ĀĞ",
      "ĀĀ+ Āĝ",
      "ĀĀ- ĀĞ",
      "ĀĀĔ Āğ",
      "ĀĀĔ ĀĞ",
      "ĀĀĔ Āĝ",
      "ĀĀĒ Ā",
      "ĀĀĒ ĀĞ",
      "Ā#! ğ",
      "! /",
      "! Ĝ!",
      "! Ğğ",
      "! \"!",
      "! %\"",
      "! %%",
      "\" $ğ",
      "\" ĝ!",
      "\" ěĞ",
      "# Ē",
      "# Ĝ\"",
      "$ ē",
      "$ ĀĀĞĀ",
      "% ĀĀĝĀ",
      "% ĀĀğĀğ",
      "% ĀĀĞĀĞ",
      "& Ěğ",
      "& ĀĀ!Āğ",
      "& ĀĀĜĀ!",
      "' ĀĀğĀĞ",
      "( ĀĀĞĀğ",
      ") -",
      ") ĀĀĚĀ!",
      "* -",
      "* ĀĀ!ĀĞ",
      "+ ĀĀğĀ",
      "+ ĀĀĞĀĝ",
      "- Ĝ",
      "ď !",
      "Đ !",
      "Đ '",
      "Đ ĀĀ",
      "đ #",
      "đ Ę",
      "đ ę",
      "đ ĀĀ",
      "ē &",
      "ē +",
      "Ĕ ē",
      "Ĕ Ā#",
      "ĕ .",
      "Ė Ĝ\"",
      "ė ē",
      "Ę Ē",
      "Ę Ğ\"",
      "Ě Ē",
      "Ě ē",
      "Ě ĕ",
      "Ě ĝ\"",
      "Ě ĀĀğĀ",
      "ĝ Ē",
      "ĝ ě\"",
      "Ğ Ē",
      "Ğ ĝğ",
      "ğ ĝğ",
      "Ġ ĀĀ#Ā",
      "Ġ ĀĀĞĀ!",
      "Ġ ĀĀĜĀ!",
      "Ġ ĀĀĝĀ\"",
      "Ġ ĀĀ#Ā!",
      "Ġ ĀĀ$Ā!",
      "Ġğ (!",
      "Ġğ (ğ",
      "Ġğ ĘĞ",
      "Ġğ ęě",
      "Ġ! *",
      "Ġ! ěě",
      "Ġ! Ęğ",
      "Ġ! Ęĝ",
      "Ġ! 'ĝ",
      "Ġ! ĚĚ",
      "ĠĞ )",
      "ĠĞ (!",
      "Ġ\" +",
      "Ġ\" &#",
      "Ġ\" '#",
      "Ġĝ ęğ",
      "Ġĝ 'ğ",
      "Ġĝ &ĝ",
      "Ġĝ ě%",
      "Ġĝ (ğ",
      "Ġĝ ĘĞ",
      "Ġĝ (Ğ",
      "Ġ# )",
      "Ġ# 'ğ",
      "Ġ# ę\"",
      "Ġ# (ĝ",
      "Ġ$ )",
      "Ġ$ ě#",
      "Ġ$ ěě",
      "Ġ$ ęĞ",
      "Ġ$ 'ĝ",
      "ĠĜ ė",
      "ĠĜ ĀĀ",
      "ĠĜ '!",
      "ĠĜ 'ğ",
      "ĠĜ &ĝ",
      "ĠĜ ĚĜ",
      "ĠĜ #%",
      "ĠĜ Ě$",
      "ĠĜ #ě",
      "ĠĜ Ĝ%",
      "Ġě %Ğ",
      "Ġě &\"",
      "Ġě ęğ",
      "Ġě ĝĜ",
      "Ġě #Ĝ",
      "Ġě ě%",
      "Ġ% +",
      "Ġ% ė",
      "Ġ% Ěğ",
      "Ġ% '\"",
      "Ġ% '#",
      "Ġ% ĝ%",
      "Ġ% \"Ě",
      "Ġ!ğ '",
      "Ġğ! Ę",
      "Ġğ! ę",
      "Ġ& Ě",
      "Ġ& %Ğ",
      "Ġ& &\"",
      "Ġ& ęğ",
      "Ġ& &Ğ",
      "Ġ& ĝ$",
      "Ġ& (\"",
      "Ġ& $Ĝ",
      "Ġ& $ě",
      "Ġ& !Ě",
      "ĠĚ ěĞ",
      "ĠĚ !ĝ",
      "ĠĚ ĝ%",
      "ĠĚ %&",
      "Ġ\"! Ę",
      "Ġ' ę",
      "Ġ' Ě",
      "Ġ' ě!",
      "Ġ' ĞĞ",
      "Ġ' Ěğ",
      "Ġ' &ğ",
      "Ġ' !ĝ",
      "Ġ' ĝĝ",
      "Ġ' Ğĝ",
      "Ġ' \"Ĝ",
      "Ġ' #Ĝ",
      "Ġę ę",
      "Ġę Ğğ",
      "Ġę Ě!",
      "Ġę ĝ#",
      "Ġę !#",
      "Ġę \"ĝ",
      "Ġę #$",
      "Ġę ĝ$",
      "Ġę !$",
      "Ġę Ğ$",
      "Ġğ\" Ę",
      "Ġğ\" ę",
      "Ġ!Ğ (",
      "Ġ( ě",
      "Ġ( $\"",
      "Ġ( Ğğ",
      "Ġ( ğ!",
      "Ġ( ĝ!",
      "Ġ( \"!",
      "Ġ( !ğ",
      "Ġ( ğĝ",
      "Ġ( ğĚ",
      "ĠĘ Ĝ#",
      "ĠĘ \"ğ",
      "ĠĘ ğĞ",
      "ĠĘ Ě!",
      "Ā! \"",
      "Ā! ğ",
      "Ā! ğğ",
      "ĠĞĞ '",
      "ĠĞĞ ę",
      "Āğ !!",
      "Ā\" ğğ",
      "Āĝ !\"",
      "Ġĝğ ę",
      "Ġ) Ĝ",
      "Ġĝ! '",
      "Ġė #",
      "Ġė $",
      "Ġė Ğ\"",
      "ĠĞĝ ę",
      "ĠĝĞ Ě",
      "Ġ* ğ",
      "Ġğ# '",
      "ĠĖ \"",
      "Ā% Ĝ",
      "Ġ\"ĝ &",
      "Ġĝ\" &",
      "Ĝğ ĀĀ",
      "Ġ$ğ ę",
      "Ġ$! &",
      "Ġ+ \"",
      "Ġ+ %",
      "$\" &",
      "Ġ$\" %",
      "Ġĕ ğ",
      "#ĀĀ -",
      "#ĀĀ đ",
      "$ĀĀ Ē",
      "ĠĜ\" &",
      "%ĀĀ ď",
      "%ĀĀ ĕ",
      "ğ! #",
      "'ĀĀ .",
      "'ĀĀ ē",
      "'ĀĀ ĕ",
      "!ğ %",
      "ĝ\" %",
      "*ĀĀ .",
      "&ğ ĀĀ",
      "ĜĀĀ ,",
      "\"ĀĀ +",
      "ĞĀĀ *",
      "ĞĀĀ ,",
      "ĞĀĀ .",
      "Ġĝ# &",
      "Ġĝ# ě",
      "'! ĀĀ",
      "ĀĀĝĀ .",
      "ĀĀ!Ā Ĕ",
      "ĀĀ& ĀĜ",
      "ĀĀ& Ā#",
      "ĀĀ& Ā&",
      "ĀĀę Ā%",
      "ĀĀ' Ā&",
      "Ġ%ğ $",
      "ĀĀĘ Ā!",
      "ĀĀĘ Ā&",
      "Ġ$# %",
      "Ġ#$ %",
      "Ġ#$ Ě",
      "Ġěğ &",
      "ĀĀ( Ā#",
      "ĀĀ( Ā'",
      "ĀĀė Ā$",
      "Ęğ ĀĀ",
      "Ġ!% Ě",
      "Ġ$ĝ ę",
      "Ġ$ĝ ě",
      "ĀĀěĀ +",
      "ĀĀěĀ Ĕ",
      "ĀĀ) Ā#",
      "ĀĀĕ Āĝ",
      "ĀĀĕ Ā$",
      "ĀĀĖ ĀĞ",
      "ĀĀĖ ĀĚ",
      "ĀĀ%Ā Ĕ",
      "Ġ%Ğ Ě",
      "ĀĀ* Āě",
      "ĠĞě Ě",
      "ĀĀ+ ĀĜ",
      "ĀĀ, ĀĞ",
      "ĀĀ, ĀĜ",
      "ĀĀ- Āĝ",
      "ĠĞ% ě",
      "ĀĀĔ Ā",
      "ĀĀĔ Ā!",
      "ĀĀĔ ĀĜ",
      "ĀĀĔ Ā#",
      "Ġ#% ě",
      "ĀĀ/ Ā",
      "ĀĀĒ Ā$",
      "Ā#ğ !",
      "! ,",
      "! %!",
      "! ĝ!",
      "! ''",
      "\" #\"",
      "\" ğ!",
      "\" Ĝ#",
      "# ě\"",
      "# ĀĀğĀ!",
      "$ $\"",
      "$ %Ğ",
      "% -",
      "% $\"",
      "& ĀĀĞĀ",
      "& ĀĀĞĀ!",
      "& ĀĀĞĀ\"",
      "' ĀĀ\"Ā",
      "' ĀĀĝĀ!",
      "' ĀĀĝĀğ",
      "( +",
      "( ĀĀğĀ",
      "( ĀĀĞĀ",
      "( ĀĀğĀĝ",
      "( ĀĀ\"Āĝ",
      ") ĀĀěĀ",
      ") ĀĀĞĀğ",
      ") ĀĀ!Ā\"",
      ") ĀĀ\"Āğ",
      "* ĀĀĚĀ",
      ". ĝ",
      "/ $",
      "/ %",
      "/ )",
      "/ ě",
      "/ Āĝ",
      "/ Āě",
      "@ Ā",
      "ď Ā",
      "ď Ĝ",
      "Đ %",
      "Đ ę",
      "Đ ě",
      "Đ Ā\"",
      "đ ĕ",
      "đ Ė",
      "đ ĝ",
      "đ ĀĜ",
      "ē %",
      "ē ĕ",
      "ē ė",
      "Ĕ *",
      "ĕ ,",
      "ĕ ĕ",
      "ė -",
      "ė Ĕ",
      "ę ,",
      "ę -",
      "ę ď",
      "ě /",
      "ě Ğ\"",
      "Ĝ đ",
      "Ĝ Ē",
      "Ĝ Ę!",
      "ĝ /",
      "ĝ ĝ!",
      "ĝ ĝ#",
      "Ğ Ĝ\"",
      "Ğ %!",
      "ğ Ĝ\"",
      "ğ #\"",
      "ğ ĜĞ",
      "ğ Ğ\"",
      "ğ \"!",
      "Ġ ĀĀĜĀ",
      "Ġ ĀĀĞĀĞ",
      "Ġ ĀĀ!ĀĜ",
      "Ġ ĀĀĜĀğ",
      "Ġ ĀĀĝĀ#",
      "Ġğ &Ĝ",
      "Ġğ (#",
      "Ġğ ė!",
      "Ġğ (Ğ",
      "Ġğ &ě",
      "Ġ! $ĀĀ",
      "Ġ! Ę#",
      "Ġ! ė\"",
      "Ġ! *!",
      "ĠĞ ĘĞ",
      "ĠĞ Ě$",
      "ĠĞ Ěě",
      "ĠĞ ęě",
      "Ġ\" )",
      "Ġ\" ĚĜ",
      "Ġ\" Ę!",
      "Ġ\" ĘĞ",
      "Ġ\" &Ĝ",
      "Ġ\" Ě%",
      "Ġ\" &ě",
      "Ġĝ 'Ğ",
      "Ġĝ Ę!",
      "Ġĝ Ě%",
      "Ġĝ Ę\"",
      "Ġĝ 'Ĝ",
      "Ġ# Ė",
      "Ġ# Ě#",
      "Ġ# ěě",
      "Ġ# ě%",
      "Ġ# Ě%",
      "Ġ# )!",
      "Ġ# ė!",
      "Ġ# (Ğ",
      "Ġ# 'Ĝ",
      "Ġ$ ė",
      "Ġ$ Ę",
      "Ġ$ &#",
      "Ġ$ Ęğ",
      "Ġ$ &Ĝ",
      "Ġ$ 'Ĝ",
      "ĠĜ ěĜ",
      "ĠĜ Ęĝ",
      "ĠĜ Ę\"",
      "ĠĜ Ĝě",
      "ĠĜ $&",
      "Ġě %#",
      "Ġě %$",
      "Ġě ĚĞ",
      "Ġě Ěĝ",
      "Ġě 'ğ",
      "Ġě %Ĝ",
      "Ġě \"%",
      "Ġě Ě$",
      "Ġě ĝě",
      "Ġ% '",
      "Ġ% %\"",
      "Ġ% $$",
      "Ġ% ě#",
      "Ġ% &ĝ",
      "Ġ% ę\"",
      "Ġ% Ğ$",
      "Ġ% (!",
      "Ġ% 'Ĝ",
      "Ġ% #Ě",
      "Ġğ! '",
      "Ġ& Ĝ!",
      "Ġ& ěğ",
      "Ġ& %\"",
      "Ġ& &ğ",
      "Ġ& %#",
      "Ġ& Ěĝ",
      "Ġ& #Ĝ",
      "Ġ& !ě",
      "Ġ& ğĜ",
      "Ġ& ğĚ",
      "Ġ& ğę",
      "ĠĚ Ĝ\"",
      "ĠĚ Ěğ",
      "ĠĚ ěĝ",
      "ĠĚ %ĝ",
      "ĠĚ ĝĝ",
      "ĠĚ Ĝ$",
      "ĠĚ \"ĝ",
      "ĠĚ ĚĞ",
      "ĠĚ \"$",
      "ĠĚ ę#",
      "ĠĚ !&",
      "ĠĚ Ğ&",
      "Ġ\"! &",
      "Ġ' $!",
      "Ġ' Ě!",
      "Ġ' Ğ#",
      "Ġ' !Ĝ",
      "Ġ' ĞĜ",
      "Ġ' $ě",
      "Ġ!\" ę",
      "ĠĞ! (",
      "Ġę #ğ",
      "Ġę $ğ",
      "Ġę ĝ!",
      "Ġę $#",
      "Ġę Ĝ#",
      "Ġę ğĞ",
      "Ġę \"Ğ",
      "Ġę Ĝ$",
      "Ġę ĞĜ",
      "Ġę #%",
      "Ġę Ĝ%",
      "Ġ( '",
      "Ġ( Ğ\"",
      "Ġ( ě!",
      "Ġ( %ğ",
      "Ġ( \"\"",
      "Ġ( #Ĝ",
      "Ġ( !ě",
      "ĠĘ Ĝğ",
      "ĠĘ Ĝ\"",
      "ĠĘ \"!",
      "ĠĘ !!",
      "ĠĘ !ğ",
      "ĠĘ ĝ\"",
      "ĠĘ Ě\"",
      "ĠĘ \"$",
      "Āğ Ğ!",
      "Āğ \"ğ",
      "ĀĞ #!",
      "Ġ#ğ Ę",
      "#! #",
      "Ġė ĝğ",
      "Ġė ğğ",
      "Ġė !ğ",
      "Ġė ğĞ",
      "Ā# ĝĞ",
      "Ā$ &",
      "Ġ* !",
      "Ġ* )",
      "Āě \"!",
      "ĠĖ #",
      "ĠĖ $",
      "ĠĖ Ĝ",
      "Ġ#Ğ &",
      "Ġĝĝ ę",
      "Ġ$! %",
      "Ġ+ !",
      "Ĝ\" $",
      "Ĝ\" '",
      "Āę \"",
      "Ġĕ !",
      "%ĀĀ ē",
      "Ğ\" #",
      "ğğ ĀĀ",
      "&ĀĀ +",
      "&ĀĀ Đ",
      "&ĀĀ Ĕ",
      "%ğ !",
      "ĠĞ# Ě",
      "ě\" ĀĀ",
      "ĝ! ĀĀ",
      "'ĀĀ ,",
      "'ĀĀ Ď",
      "'ĀĀ ď",
      "!! \"",
      "!ğ '",
      "(ĀĀ ,",
      "\"ğ \"",
      "\"ğ $",
      "\"ğ ĀĀ",
      "ĠĠĠĠĠĠĠĠĠĠĠĠĠĠĠĠ ĠĠĠĠĠĠĠĠ",
      "ğĞ $",
      "\"\" $",
      "#ĝ ĀĀ",
      "ğ\" $",
      "Ġ!Ĝ ę",
      "ĝĀĀ .",
      "ĜĀĀ *",
      "ĜĀĀ -",
      "ĜĀĀ Ę",
      "ĀĀğĀ +",
      "ĀĀğĀ Ĕ",
      "ĞĀĀ Ē",
      "ĞĀĀ Ĕ",
      "Ġ\"$ &",
      "ĀĀĞĀ Ĕ",
      "+ĀĀ Ē",
      "ĀĀĝĀ Ē",
      "ĀĀĝĀ ē",
      "ĀĀĝĀ ĕ",
      "ĠĞ$ &",
      "ĀĀę Ā(",
      "ĀĀ' Āė",
      "Ġ%ğ '",
      "ĀĀĘ Ā*",
      "ĠěĞ &",
      "ĀĀĜĀ Ĕ",
      "Ġěğ ě",
      "Ġ\"Ĝ Ě",
      "ĀĀ( Āĝ",
      "ĀĀ( Āě",
      "ĀĀ( Ā%",
      "Ġğě &",
      "ĀĀė Ā#",
      "ĀĀė Āě",
      "ĀĀė ĀĘ",
      "(! ĀĀ",
      "Ġĝ$ &",
      "ĠĜĝ %",
      "ĀĀ) Ā&",
      "Ġě! &",
      "Ġě! '",
      "ĀĀĕ ĀĞ",
      "ĀĀĕ Ā%",
      "ĀĀĕ Āę",
      "ĀĀ$Ā Ĕ",
      "ĀĀ$Ā ĕ",
      "ĀĀĖ Ā$",
      "ĀĀĖ Āě",
      "ĀĀ%Ā *",
      "Ġ%! Ě",
      "ĀĀ* Āĝ",
      "ĀĀ* Ā%",
      "ĀĀĚĀ +",
      "Ġ\"% &",
      "ĀĀ, Ā",
      "ĀĀ, Ā!",
      "ĀĀ- Ā!",
      "ĀĀē Āğ",
      "ĀĀē ĀĚ",
      "ĀĀ/ Ā\"",
      "ĀĀ/ Ā$",
      "ĀĀĒ Ā&",
      "Ġ#ě ę",
      "ĀĀđ Ā",
      "ĠĠĠĠĠĠĠĠĠĠĠĠĠĠĠĠĠĠĠĠĠĠĠĠĠĠĠĠĠĠĠĠ ĠĠĠĠĠĠĠĠĠĠĠĠĠĠĠĠ",
      "ĠĠĠĠĠĠĠĠĠĠĠĠĠĠĠĠĠĠĠĠĠĠĠĠĠĠĠĠĠĠĠĠ ĠĠĠĠĠĠĠĠĠĠĠĠĠĠĠĠĠĠĠĠĠĠĠĠĠ",
      "ĕ! ĀĀ",
      "Ā#ğ Ğ",
      "#ĀĀ) Ā\"",
      "&ĀĀ& Ā",
      "! Ĝğ",
      "! $\"",
      "! #\"",
      "! ğğ",
      "! Ě\"",
      "! &%",
      "\" /",
      "\" Ē",
      "\" Ğ!",
      "\" ěğ",
      "\" ĝ#",
      "\" (%",
      "# %$",
      "# Ĝ$",
      "$ #!",
      "$ Ĝ\"",
      "$ ĀĀğĀ$",
      "% ē",
      "% ĀĀĞĀ",
      "% ĀĀ!Ā",
      "% ĀĀğĀĞ",
      "% ĀĀ!Ā!",
      "% ĀĀĞĀ\"",
      "% ĀĀ!ĀĜ",
      "& ĕ",
      "& \"Ğ",
      "& ĀĀ!Ā",
      "& ĀĀğĀğ",
      "' ,",
      "' .",
      "' ĀĀĜĀ",
      "' ĀĀ!Āğ",
      "' ĀĀĞĀ\"",
      "' ĀĀ\"Āğ",
      "( -",
      "( ĀĀ\"Āğ",
      ") +",
      ") Ē",
      ") ĀĀ\"Ā",
      ") ĀĀ#Ā",
      ") ĀĀ!Āğ",
      ") ĀĀĝĀ\"",
      ") ĀĀ!Āĝ",
      "* ė",
      "* ĀĀğĀĜ",
      "* ĀĀĞĀě",
      "+ Ė",
      "+ ĀĀ!Ā",
      "+ ĀĀ$Ā",
      "+ ĀĀ!ĀĞ",
      ", ĀĀğĀ",
      ", ĀĀ!Ā",
      ". '",
      ". Ĝ",
      "/ '",
      "/ *",
      "/ ĀĜ",
      "= Ā",
      "ā Ā!",
      "Ď ĀĀ",
      "Ď ĀĜ",
      "ď \"",
      "ď $",
      "ď Ě",
      "ď Ğ",
      "ď ĀĀ",
      "Đ \"",
      "Đ #",
      "Đ (",
      "Đ Ě",
      "đ $",
      "đ %",
      "Ē Ĕ",
      "ē )",
      "Ĕ '",
      "Ĕ ,",
      "ĕ Ė",
      "Ė ğĞ",
      "ė ,",
      "ė Ě\"",
      "Ę *",
      "Ę +",
      "Ę ,",
      "Ę !$",
      "ę /",
      "ę đ",
      "Ě Ĝğ",
      "Ě ĝğ",
      "Ě ğ!",
      "Ě $$",
      "Ě %%",
      "ě #ğ",
      "Ĝ /",
      "ĝ Ğ!",
      "Ğ Ĝ#",
      "Ğ Ě\"",
      "ğ đ",
      "ğ ##",
      "ğ \"\"",
      "Ġ ĀĀ!Āğ",
      "Ġ ĀĀ\"Āğ",
      "Ġ ĀĀ\"ĀĞ",
      "Ġ ĀĀ\"Ā\"",
      "Ġ ĀĀğĀĚ",
      "Ġ ĀĀ#ĀĞ",
      "Ġ ĀĀ#Ā$",
      "ĠĠ Ċ",
      "ĠĠ ċ",
      "Ġğ )",
      "Ġğ ėĞ",
      "Ġğ 'ĝ",
      "Ġğ *!",
      "Ġğ &'",
      "Ġ! Ę!",
      "Ġ! ėğ",
      "Ġ! (ĝ",
      "Ġ! &ě",
      "ĠĞ Ĕ",
      "ĠĞ ĚĜ",
      "ĠĞ Ę!",
      "ĠĞ ě%",
      "ĠĞ ęĜ",
      "ĠĞ &%",
      "ĠĞ ė!",
      "ĠĞ 'ě",
      "Ġ\" ęĝ",
      "Ġ\" ę#",
      "Ġ\" &&",
      "Ġ\" (#",
      "Ġ\" )ğ",
      "Ġ\" ($",
      "Ġ\" 'ĝ",
      "Ġ\" ė\"",
      "Ġ\" 'ě",
      "Ġĝ Ė",
      "Ġĝ Ě$",
      "Ġ# +",
      "Ġ# Ĝ$",
      "Ġ# (!",
      "Ġ# Ę!",
      "Ġ# (ğ",
      "Ġ# ėĞ",
      "Ġ$ $$",
      "Ġ$ Ě#",
      "Ġ$ &ĝ",
      "Ġ$ ĚĜ",
      "Ġ$ (\"",
      "Ġ$ Ě$",
      "Ġ$ )ğ",
      "Ġ$ (Ĝ",
      "ĠĜ $ĀĀ",
      "ĠĜ Ěĝ",
      "ĠĜ ęĞ",
      "ĠĜ &$",
      "ĠĜ ě%",
      "Ġě )",
      "Ġě ė",
      "Ġě ěĞ",
      "Ġě %ĝ",
      "Ġě ě$",
      "Ġě #%",
      "Ġě $%",
      "Ġě #ě",
      "Ġě ęě",
      "Ġ% Ĝ#",
      "Ġ% %#",
      "Ġ% Ĝ$",
      "Ġ% \"%",
      "Ġ& $ĝ",
      "Ġ& &!",
      "Ġ& $$",
      "Ġ& ĚĞ",
      "Ġ& #$",
      "Ġ& 'ğ",
      "Ġ& !$",
      "Ġ& &ĝ",
      "Ġ& '\"",
      "Ġ& ĞĚ",
      "Ġ& ğĘ",
      "ĠĚ %Ğ",
      "ĠĚ Ě\"",
      "ĠĚ ě#",
      "ĠĚ ė!",
      "Ġ' $\"",
      "Ġ' $Ğ",
      "Ġ' ě\"",
      "Ġ' Ĝĝ",
      "Ġ' %\"",
      "Ġ' $ĝ",
      "Ġ' ěĝ",
      "Ġ' ĝ#",
      "Ġ' !#",
      "Ġ' '!",
      "Ġ' 'ğ",
      "Ġ' &Ğ",
      "Ġ' (ğ",
      "Ġ!\" (",
      "Ġę $Ğ",
      "Ġę %!",
      "Ġę Ě\"",
      "Ġę !Ĝ",
      "Ġę !%",
      "Ġę #Ĝ",
      "Ġğ\" '",
      "Ġ( &",
      "Ġ( Ě",
      "Ġ( #ğ",
      "Ġ( Ĝ!",
      "Ġ( ĜĞ",
      "Ġ( #Ğ",
      "Ġ( ĝĞ",
      "Ġ( Ğĝ",
      "Ġ( #$",
      "Ġ( ĝĜ",
      "Ġ( (#",
      "ĠĘ (",
      "ĠĘ Ğ!",
      "ĠĘ %Ğ",
      "ĠĘ ĝ#",
      "ĠĘ !#",
      "ĠĘ Ğ$",
      "ĠĘ ğ$",
      "Ā! !!",
      "Ā! !ğ",
      "ĠĞĞ (",
      "Āğ !Ğ",
      "ĠĞ\" Ę",
      "Ā\" #!",
      "Ā\" !#",
      "ĀĞ !",
      "ĀĞ !ğ",
      "Āĝ \"ğ",
      "Ġ#! Ę",
      "#ğ Ğ",
      "Ġ) %",
      "Ġ) (",
      "Ġ) ğ!",
      "Ġ) ĝ\"",
      "Ġ) !Ğ",
      "Ġğĝ '"
    ]
  }
}