{
  "version": "1.0",
  "truncation": null,
  "padding": null,
  "added_tokens": [],
  "normalizer": null,
  "pre_tokenizer": {
    "type": "ByteLevel",
    "add_prefix_space": false,
    "trim_offsets": true,
    "use_regex": true
  },
  "post_processor": {
    "type": "ByteLevel",
    "add_prefix_space": true,
    "trim_offsets": false,
    "use_regex": true
  },
  "decoder": {
    "type": "ByteLevel",
    "add_prefix_space": true,
    "trim_offsets": true,
    "use_regex": true
  },
  "model": {
    "type": "BPE",
    "dropout": null,
    "unk_token": null,
    "continuing_subword_prefix": null,
    "end_of_word_suffix": null,
    "fuse_unk": false,
    "byte_fallback": false,
    "ignore_merges": false,
    "vocab": {
      "\u0000": 0,
      "\u0001": 1,
      "\u0002": 2,
      "\u0003": 3,
      "\u0004": 4,
      "\u0005": 5,
      "\u0006": 6,
      "\u0007": 7,
      "\b": 8,
      "\t": 9,
      "\n": 10,
      "\u000b": 11,
      "\f": 12,
      "\r": 13,
      "\u000e": 14,
      "\u000f": 15,
      "\u0010": 16,
      "\u0011": 17,
      "\u0012": 18,
      "\u0013": 19,
      "\u0014": 20,
      "\u0015": 21,
      "\u0016": 22,
      "\u0017": 23,
      "\u0018": 24,
      "\u0019": 25,
      "\u001a": 26,
      "\u001b": 27,
      "\u001c": 28,
      "\u001d": 29,
      "\u001e": 30,
      "\u001f": 31,
      " ": 32,
      "!": 33,
      "\"": 34,
      "#": 35,
      "$": 36,
      "%": 37,
      "&": 38,
      "'": 39,
      "(": 40,
      ")": 41,
      "*": 42,
      "+": 43,
      ",": 44,
      "-": 45,
      ".": 46,
      "/": 47,
      "0": 48,
      "1": 49,
      "2": 50,
      "3": 51,
      "4": 52,
      "5": 53,
      "6": 54,
      "7": 55,
      "8": 56,
      "9": 57,
      ":": 58,
      ";": 59,
      "<": 60,
      "=": 61,
      ">": 62,
      "?": 63,
      "@": 64,
      "Ā": 65,
      "ā": 66,
      "ă": 67,
      "Ą": 68,
      "ą": 69,
      "Ć": 70,
      "ć": 71,
      "Ĉ": 72,
      "ĉ": 73,
      "Ċ": 74,
      "ċ": 75,
      "Č": 76,
      "č": 77,
      "Ď": 78,
      "ď": 79,
      "Đ": 80,
      "đ": 81,
      "Ē": 82,
      "ē": 83,
      "Ĕ": 84,
      "ĕ": 85,
      "Ė": 86,
      "ė": 87,
      "Ę": 88,
      "ę": 89,
      "Ě": 90,
      "ě": 91,
      "Ĝ": 92,
      "ĝ": 93,
      "Ğ": 94,
      "ğ": 95,
      "Ġ": 96,
      "ĠĠ": 97,
      "Ġ!": 98,
      "Ġğ": 99,
      "ĠĠĠĠ": 100,
      "Ġ\"": 101,
      "ĠĞ": 102,
      "ĠĠĠ": 103,
      "ĀĀ": 104,
      "Ġĝ": 105,
      "Ġ#": 106,
      "Ġ$": 107,
      "ĠĠĠĠĠ": 108,
      "ĠĜ": 109,
      "Ġě": 110,
      "Ġ!!": 111,
      "Ġğğ": 112,
      "Ġ!ğ": 113,
      "ĠĠĠĠĠĠĠĠ": 114,
      "Ġ%": 115,
      "Ġğ!": 116,
      "Ġ&": 117,
      "ĠĚ": 118,
      "Ġ\"!": 119,
      "Ġ'": 120,
      "ĠğĞ": 121,
      "ĠĞğ": 122,
      "Ġ!\"": 123,
      "ĠĞ!": 124,
      "Ġę": 125,
      "Ġ\"ğ": 126,
      "Ġ!Ğ": 127,
      "Ġğ\"": 128,
      "ĠĠĠĠĠĠ": 129,
      "ĠĘ": 130,
      "Ġ(": 131,
      "Ġ\"\"": 132,
      "Āğ": 133,
      "Ā!": 134,
      "ĠĞĞ": 135,
      "Ġ\"Ğ": 136,
      "Ā\"": 137,
      "ĠĞ\"": 138,
      "ĀĀğ": 139,
      "Ġ#!": 140,
      "ĀĞ": 141,
      "Ġ#ğ": 142,
      "ĀĀ!": 143,
      "ĀĀĞ": 144,
      "Ġĝğ": 145,
      "Ġ)": 146,
      "Ġė": 147,
      "Ā#": 148,
      "Ġĝ!": 149,
      "Ġ!ĝ": 150,
      "Ġ!#": 151,
      "Āĝ": 152,
      "Ġğ#": 153,
      "ĀĜ": 154,
      "Ġğĝ": 155,
      "ĀĀĝ": 156,
      "ĀĀ\"": 157,
      "Ġğğ!": 158,
      "Ġ!!ğ": 159,
      "Ā$": 160,
      "ĠĠĠĠĠĠĠ": 161,
      "Ġ!ğğ": 162,
      "Ġ*": 163,
      "Ġ\"#": 164,
      "Ġ#\"": 165,
      "Ġğ!!": 166,
      "ĀĀ#": 167,
      "ĀĀĜ": 168,
      "Āě": 169,
      "ĠĖ": 170,
      "Ā%": 171,
      "Ġ\"ĝ": 172,
      "ĠĝĞ": 173,
      "Ġ!!!": 174,
      "Ġ#Ğ": 175,
      "Ġĝ\"": 176,
      "Ġ!ğ!": 177,
      "ĠĞ#": 178,
      "ĠĞĝ": 179,
      "ĠĠĠĠĠĠĠĠĠĠĠ": 180,
      "Ġğğğ": 181,
      "Ĝ!": 182,
      "Ġğ!ğ": 183,
      "ĠĠĠĠĠĠĠĠĠĠĠĠ": 184,
      "Ā&": 185,
      "$ğ": 186,
      "ĀĀě": 187,
      "Ĝğ": 188,
      "ğğ": 189,
      "Ġ+": 190,
      "$!": 191,
      "ĀĚ": 192,
      "ĀĀ$": 193,
      "Ġĝĝ": 194,
      "!!": 195,
      "Ġ$\"": 196,
      "ĀĀĚ": 197,
      "Ĝ\"": 198,
      "$\"": 199,
      "ĀĀ%": 200,
      "Ġ##": 201,
      "Ğ!": 202,
      "$Ğ": 203,
      "!ğ": 204,
      "ĜĞ": 205,
      "Ġ$ğ": 206,
      "Ġ#ĝ": 207,
      "ĠĠĠĠĠĠĠĠĠĠ": 208,
      "Ġĕ": 209,
      "ĀĀ&": 210,
      "Ā'": 211,
      "Ġĝ#": 212,
      "ĠĜğ": 213,
      "ěğ": 214,
      "ĠĜ\"": 215,
      "Ġ\"!ğ": 216,
      "ĠĞğ!": 217,
      "Ġ!ğĞ": 218,
      "Ğğ": 219,
      "ĀĀ(": 220,
      "ĠĜ!": 221,
      "ĠğĞ!": 222,
      "\"!": 223,
      "Āę": 224,
      "Ġ!!Ğ": 225,
      "Ġ\"ğğ": 226,
      "ě!": 227,
      "Ġ!\"ğ": 228,
      "ĀĀĘ": 229,
      "#ğ": 230,
      "$#": 231,
      "Ĝĝ": 232,
      "Ġ$!": 233,
      "Ĝ#": 234,
      "ĀĀ'": 235,
      "ĝğ": 236,
      "ĠĔ": 237,
      "ĀĀę": 238,
      "ğ!": 239,
      "Ġ,": 240,
      "%!": 241,
      "Ā(": 242,
      "ĝ\"": 243,
      "Ġğğ\"": 244,
      "ĠğĞğ": 245,
      "ĠĞ!!": 246,
      "%ğ": 247,
      "Ğ\"": 248,
      "ě\"": 249,
      "\"ğ": 250,
      "#!": 251,
      "ĀĀė": 252,
      "Ġğ\"!": 253,
      "ĠĠĠĠĠĠĠĠĠĠĠĠĠĠĠĠ": 254,
      "#\"": 255,
      "$ĝ": 256,
      "ĀĘ": 257,
      "ĞĞ": 258,
      "Ġğ!\"": 259,
      "%\"": 260,
      "ĝ!": 261,
      "ĝĞ": 262,
      "Ġ\"!!": 263,
      "Ġ!\"!": 264,
      "Ā)": 265,
      "Ġ!!\"": 266,
      "ĀĀ)": 267,
      "%Ğ": 268,
      "Ğĝ": 269,
      "ĠĞ!ğ": 270,
      "ěĞ": 271,
      "ĀĀĖ": 272,
      "&!": 273,
      "Ěğ": 274,
      "Ġ!Ğğ": 275,
      "\"\"": 276,
      "$$": 277,
      "Ġğ\"ğ": 278,
      "!Ğ": 279,
      "\"Ğ": 280,
      "%#": 281,
      "Ě\"": 282,
      "ĠğğĞ": 283,
      "Āė": 284,
      "!\"": 285,
      "ğĞ": 286,
      "Ġ!Ĝ": 287,
      "ĀĀ+": 288,
      "Ġ!ğ\"": 289,
      "ě#": 290,
      "ĠğĜ": 291,
      "Ġ!Ğ!": 292,
      "ĠĞğğ": 293,
      "ğ\"": 294,
      "Ġ\"!Ğ": 295,
      "#Ğ": 296,
      "ĠĞğ\"": 297,
      "ĝ#": 298,
      "!#": 299,
      "&\"": 300,
      "$ĀĀ": 301,
      "ĠĜĞ": 302,
      "Ġ\"\"ğ": 303,
      "%ĀĀ": 304,
      "Ġ!$": 305,
      "Ġğ!Ğ": 306,
      "'ĀĀ": 307,
      "Ě!": 308,
      "ěĝ": 309,
      "ĠĠĠĠĠĠĠĠĠ": 310,
      "&ĀĀ": 311,
      "ĠĞĞ!": 312,
      "Ġ-": 313,
      "ĠĠĠĠĠĠĠĠĠĠĠĠĠ": 314,
      "ĠĞ!\"": 315,
      "ĀĀğĀ": 316,
      "!ĝ": 317,
      "&ğ": 318,
      "Ġ\"ğ!": 319,
      "Ġ!ĞĞ": 320,
      "%ĝ": 321,
      "ğ#": 322,
      "Ġ#!ğ": 323,
      "ğĝ": 324,
      "%$": 325,
      "Ġ\"ğĞ": 326,
      "Ġğ\"\"": 327,
      "Ġ\"Ğğ": 328,
      "\"#": 329,
      "\"ĝ": 330,
      "(ĀĀ": 331,
      "Ġ.": 332,
      "Ġ!\"Ğ": 333,
      "ĠĞĜ": 334,
      "&Ğ": 335,
      "Ā*": 336,
      "ĠĀĀ": 337,
      "ĠěĞ": 338,
      "ĠĞ\"!": 339,
      "##": 340,
      "ĝĝ": 341,
      "Ġē": 342,
      "ęğ": 343,
      "ĜĜ": 344,
      "Ġğ$": 345,
      "#$": 346,
      "Ěĝ": 347,
      "Ĝ$": 348,
      "Ġ$Ğ": 349,
      "ĠĞĞğ": 350,
      "ĚĞ": 351,
      "ě$": 352,
      "Ġ#ğğ": 353,
      "Ġĝ!!": 354,
      "\"$": 355,
      "ęĞ": 356,
      "Ě#": 357,
      "Ġ\"$": 358,
      "Ġ\"Ğ!": 359,
      "Ġĝğ!": 360,
      "#ĝ": 361,
      "ę!": 362,
      "ěě": 363,
      "ĠğĞ\"": 364,
      "ĀĖ": 365,
      "Ġ!ğĝ": 366,
      "ĚĜ": 367,
      "ĠĞ$": 368,
      "Ġ\"\"!": 369,
      "Ġ!!ĝ": 370,
      "'!": 371,
      "Ġě!": 372,
      "&ĝ": 373,
      "'\"": 374,
      "ěĜ": 375,
      "ĝĜ": 376,
      "ĀĀĕ": 377,
      "#Ĝ": 378,
      "ĠĀ": 379,
      "Ġ\"\"Ğ": 380,
      "'ğ": 381,
      "(\"": 382,
      "ĝ$": 383,
      "ĀĀ,": 384,
      "Ġ%!": 385,
      "%Ĝ": 386,
      "&#": 387,
      "ğĜ": 388,
      "ĀĀĞĀ": 389,
      "Ġ!#ğ": 390,
      "ĠĞğ#": 391,
      "Ġ!\"\"": 392,
      "Ġğ!#": 393,
      "&$": 394,
      "ě%": 395,
      "Ğ#": 396,
      "ĀĀ!Ā": 397,
      "\"%": 398,
      "Ęĝ": 399,
      "Ęğ": 400,
      "Ġ#$": 401,
      "Ġ#!!": 402,
      "Ġğ\"Ğ": 403,
      "ĠĞĞ\"": 404,
      "ĠĞ\"ğ": 405,
      "Ġ!ĝğ": 406,
      "Ġ#\"ğ": 407,
      "ĠĞ!Ğ": 408,
      "Ġĝğğ": 409,
      "ĀĀ\"Ā": 410,
      "'#": 411,
      ")ĀĀ": 412,
      "ĞĜ": 413,
      "Ġğ%": 414,
      "ęĝ": 415,
      "ğě": 416,
      "ĠĒ": 417,
      "Ġğğ#": 418,
      "ĠĞğĞ": 419,
      "Ġ#!Ğ": 420,
      "Ġğ#ğ": 421,
      "ėĞ": 422,
      "Ġğğĝ": 423,
      "Ġ\"!ĝ": 424,
      "ĠğĞ#": 425,
      "&&": 426,
      "*ĀĀ": 427,
      "Ġğě": 428,
      "ĀĀ-": 429,
      "ĠĝĜ": 430,
      "ĠğĞĞ": 431,
      "Ġ\"ĞĞ": 432,
      "\"Ĝ": 433,
      "'Ğ": 434,
      "(!": 435,
      "Ġĝ$": 436,
      "Ġ$ĝ": 437,
      "Ġěğ": 438,
      "ĠĠĠĠĠĠĠĠĠĠĠĠĠĠĠ": 439,
      "Ġ\"!\"": 440,
      "Ġ#ğ!": 441,
      "Ġ#ğĞ": 442,
      "ĀĀĞĀğ": 443,
      "Ġĝ!\"": 444,
      "Ġğĝğ": 445,
      "ĀĀ#Ā": 446,
      "ĠĞĝ!": 447,
      "!$": 448,
      "Ě$": 449,
      "Ĝě": 450,
      "ĝ%": 451,
      "Ġ!%": 452,
      "Ġ\"ğ\"": 453,
      "Ġĝğ\"": 454,
      "!Ĝ": 455,
      "ę\"": 456,
      "ğ%": 457,
      "ĠĜĝ": 458,
      "Ġ!!Ĝ": 459,
      "ĀĀ!Ā!": 460,
      "Ġ!ĝ!": 461,
      "ĀĀĜĀ": 462,
      "ĠĝĞ!": 463,
      "Ę\"": 464,
      "Ěě": 465,
      "Ġ/": 466,
      "Ġğĝ!": 467,
      "ĀĀěĀ": 468,
      "#%": 469,
      "$Ĝ": 470,
      "Ę!": 471,
      "Ğě": 472,
      "ğĚ": 473,
      "ĀĀē": 474,
      "Ġğ!ĝ": 475,
      "\"ě": 476,
      "#&": 477,
      "Ę#": 478,
      "ĠĞ%": 479,
      "Ġ!Ğ\"": 480,
      "Ġ!Ğĝ": 481,
      "Ġ!ĝĞ": 482,
      "&%": 483,
      "Ğ$": 484,
      "ğ$": 485,
      "Ġ\"%": 486,
      "ĠĠĠĠĠĠĠĠĠĠĠĠĠĠĠĠĠĠ": 487,
      "ĠĞ!#": 488,
      "Ġ\"\"ĝ": 489,
      "ĀĀğĀ\"": 490,
      "Ġğ#!": 491,
      "Ġ\"#ğ": 492,
      "!%": 493,
      "ęĜ": 494,
      "ĀĀ*": 495,
      "Ġ\"Ğĝ": 496,
      "ĠĞ\"\"": 497,
      "Ġ!#Ğ": 498,
      "ĀĀĝĀ": 499,
      "ĀĀĝĀ!": 500,
      "Ġ\"#!": 501,
      "Ġ\"#Ğ": 502,
      "Ġ#ĞĞ": 503,
      "'$": 504,
      "(ğ": 505,
      ")!": 506,
      "ę$": 507,
      "Ğ%": 508,
      "ĠĀ!": 509,
      "Ġ!Ě": 510,
      "Ġ!ě": 511,
      "Ġ\"Ĝ": 512,
      "ĠĞě": 513,
      "ĀĀ/": 514,
      "Ġ#Ĝ": 515,
      "Ġ$ğğ": 516,
      "Ġ$!ğ": 517,
      "Ġ!ğ#": 518,
      "Ġ!#!": 519,
      "&Ĝ": 520,
      "ė\"": 521,
      "Ġğ\"#": 522,
      "ĀĀğĀğ": 523,
      "ĀĀ!Āğ": 524,
      "!ě": 525,
      "ėğ": 526,
      "ĠĀğ": 527,
      "ĀĀ.": 528,
      "Ġ!\"ĝ": 529,
      "Ġĝ!ğ": 530,
      "Ġğ#Ğ": 531,
      "Ġ#\"!": 532,
      "'%": 533,
      "(#": 534,
      "(Ğ": 535,
      "ĘĜ": 536,
      "ĘĞ": 537,
      "ĀĀĔ": 538,
      "Ġ!ğĜ": 539,
      "Ġ%ğ": 540,
      "ĀĀ!Āĝ": 541,
      "ĀĀĞĀ!": 542,
      "Ġ#Ğğ": 543,
      "(Ĝ": 544,
      "Ā+": 545,
      "ę%": 546,
      "ęě": 547,
      "ĝĚ": 548,
      "ĠĀĞ": 549,
      "Ġě\"": 550,
      "Ġ\"ğĝ": 551,
      "Ġ\"Ğ\"": 552,
      "ĀĀğĀĞ": 553,
      "ĀĀ!Ā\"": 554,
      "ĀĀĞĀĞ": 555,
      "Ġ!#\"": 556,
      "ĠğĝĞ": 557,
      "Ġĝ\"!": 558,
      "Ġĝ\"ğ": 559,
      "ĠĞ#!": 560,
      "$ě": 561,
      ")ğ": 562,
      "ėĝ": 563,
      "Ġ!&": 564,
      "ĀĀđ": 565,
      "ĠĠĠĠĠĠĠĠĠĠĠĠĠĠĠĠĠĠĠĠ": 566,
      "Ġ\"\"\"": 567,
      "Ġğĝ\"": 568,
      "ĀĀĝĀ\"": 569,
      "Ġ\"ĝ!": 570,
      "Ġĝĝğ": 571,
      "&'": 572,
      ")\"": 573,
      "ęĚ": 574,
      "ĝě": 575,
      "ĀĀĒ": 576,
      "Ġ#%": 577,
      "Ġ$#": 578,
      "Ġ\"ğĜ": 579,
      "Ġ!Ğ#": 580,
      "Ġğ#\"": 581,
      "ĀĀ\"Āğ": 582,
      "'&": 583,
      "(%": 584,
      "(&": 585,
      "Ę$": 586,
      "ę#": 587,
      "Ġ0": 588,
      "ĠĀĝ": 589,
      "Ġ!$ğ": 590,
      "ĠĜ#": 591,
      "Ġ!!#": 592,
      "Ġ\"!Ĝ": 593,
      "ĀĀğĀ#": 594,
      "Ġ#ğĝ": 595,
      "ĀĀ!ĀĞ": 596,
      "Ġ#\"Ğ": 597,
      "Ġ#Ğ!": 598,
      "ĠĜğ\"": 599,
      "!&": 600,
      "%%": 601,
      "'Ĝ": 602,
      "($": 603,
      "ĜĚ": 604,
      "Ġđ": 605,
      "ĠĀ\"": 606,
      "ĠĀĜ": 607,
      "Ġ#ě": 608,
      "Ġ%Ğ": 609,
      "Ġğ!$": 610,
      "ĀĀĝĀ#": 611,
      "ĀĀĜĀ!": 612,
      "Ġ##ğ": 613,
      "\"&": 614,
      "ė!": 615,
      "Ġ\"$ğ": 616,
      "Ġ$Ğ!": 617,
      "ĠĜ!!": 618,
      "Ġ\"!#": 619,
      "ĠğĞĝ": 620,
      "Ġ\"ĞĜ": 621,
      "Ġ#!ĝ": 622,
      "ĀĀĞĀ\"": 623,
      "ĀĀĝĀğ": 624,
      "ĀĀĝĀĞ": 625,
      "Ġ\"ĝğ": 626,
      "Ġ$\"Ğ": 627,
      "$%": 628,
      ",ĀĀ": 629,
      "Ġ\"ě": 630,
      "ĠĜĜ": 631,
      "Ġěĝ": 632,
      "ĠĞ!ĝ": 633,
      "ĠĞ\"Ğ": 634,
      "ĀĀğĀ!": 635,
      "ĀĀ!ĀĜ": 636,
      "ĀĀĞĀĜ": 637,
      "ĀĀ\"Ā!": 638,
      "ĀĀ\"Āĝ": 639,
      "ĀĀ#Ā\"": 640,
      "ĠĞ#\"": 641,
      "Ġĝĝ!": 642,
      "ĀĀ%Ā": 643,
      "''": 644,
      "'ĝ": 645,
      "(ĝ": 646,
      "*!": 647,
      "ĠĀě": 648,
      "Ġ$$": 649,
      "Ġ$Ğğ": 650,
      "Ġ!ğ$": 651,
      "Ġ%\"": 652,
      "ĠĞĞ#": 653,
      "ĠĞĞĞ": 654,
      "ĀĀğĀĜ": 655,
      "Ġĝğ#": 656,
      "ĀĀ#Ā!": 657,
      "ĀĀĚĀ": 658,
      "ĀĀ&Ā": 659,
      "#Ě": 660,
      "#ě": 661,
      "%&": 662,
      "'(": 663,
      ")$": 664,
      "*#": 665,
      "Ėĝ": 666,
      "ĖĞ": 667,
      "Ęę": 668,
      "Ęě": 669,
      "ğ&": 670,
      "ĠĐ": 671,
      "ĠĀ#": 672,
      "Ġ!$!": 673,
      "Ġğ$ğ": 674,
      "ĀĀ!Ā#": 675,
      "Ġ\"ĝ\"": 676,
      "Ġ\"ĝĞ": 677,
      "ĠĝĞ\"": 678,
      "ĠĝĞğ": 679,
      "Ġ$ğĞ": 680,
      "!Ě": 681,
      "+ĀĀ": 682,
      "ęę": 683,
      "ĞĚ": 684,
      "ğ'": 685,
      "ğę": 686,
      "Ġğ$!": 687,
      "ĠĞĜ!": 688,
      "Ġğğ$": 689,
      "ĠĞ\"#": 690,
      "ĀĀĞĀĝ": 691,
      "Ġĝ!#": 692,
      "Ġ!ĝ\"": 693,
      "ĀĀĝĀĝ": 694,
      "ĀĀ\"ĀĞ": 695,
      "Ġ\"#ĝ": 696,
      ")%": 697,
      "Ė!": 698,
      "ėĜ": 699,
      "Ě%": 700,
      "Ě&": 701,
      "ĝ&": 702,
      "ĠĀ$": 703,
      "Ġ!Ĝğ": 704,
      "Ġ\"$Ğ": 705,
      "Ġĝ%": 706,
      "Ġ$%": 707,
      "ĠğğĜ": 708,
      "Ġğ!%": 709,
      "ĠĚğ": 710,
      "ĠğĞĜ": 711,
      "ĠĞ!$": 712,
      "Ġğ\"ĝ": 713,
      "Ġ#ğ\"": 714,
      "ĀĀĞĀ$": 715,
      "ĀĀ\"Ā$": 716,
      "ĀĀ$Ā": 717,
      "Ġ$\"!": 718,
      "Ġ##Ğ": 719,
      "ĀĀĘĀ": 720,
      ")#": 721,
      "ĕ\"": 722,
      "Ė\"": 723,
      "ė#": 724,
      "ė$": 725,
      "ĚĚ": 726,
      "Ĝ%": 727,
      "Ġ!Ĝ!": 728,
      "ĠĞĜğ": 729,
      "Ġ#$Ğ": 730,
      "ĠĜğğ": 731,
      "Ġğ!Ĝ": 732,
      "Ġ!\"#": 733,
      "ĀĀğĀĝ": 734,
      "ĀĀğĀě": 735,
      "Ġ#!\"": 736,
      "ĀĀĞĀ#": 737,
      "Ġ!#ĝ": 738,
      "Ġğ#ĝ": 739,
      "ĀĀ#Āğ": 740,
      "ĠĝĞ#": 741,
      "ĠĝĝĞ": 742,
      "Ġ$\"ğ": 743,
      "Ġ#ĝĞ": 744,
      "Ġĝ#!": 745,
      "ĠĜğ!": 746,
      "Ġ$!Ğ": 747,
      "$&": 748,
      "))": 749,
      "*\"": 750,
      "*$": 751,
      "+!": 752,
      "Ėğ": 753,
      "ğĘ": 754,
      "Ġ\"&": 755,
      "ĠĞĜ\"": 756,
      "ĠĝĜ!": 757,
      "Ġ$ě": 758,
      "Ġğğ%": 759,
      "ĠĚĝ": 760,
      "ĀĀğĀ$": 761,
      "Ġ#ğĜ": 762,
      "Ġ#Ğĝ": 763,
      "Ġĝ\"\"": 764,
      "Ġ##!": 765,
      "ĀĀ'Ā": 766,
      "ĀĀęĀ": 767,
      "#ĀĀ": 768,
      ")ĝ": 769,
      "ĕ!": 770,
      "ĕĝ": 771,
      "ėĚ": 772,
      "Ę%": 773,
      "Ğ&": 774,
      "Ġ!$\"": 775,
      "ĠğĜ!": 776,
      "ĠğĜğ": 777,
      "Ġ\"Ě": 778,
      "Ġ\"Ĝğ": 779,
      "Ġ#$ğ": 780,
      "Ġ$!!": 781,
      "Ġě#": 782,
      "Ġ!!$": 783,
      "ĠĠĠĠĠĠĠĠĠĠĠĠĠĠĠĠĠĠĠ": 784,
      "Ġ%#": 785,
      "Ġğ\"$": 786,
      "Ġ#!#": 787,
      "Ġ#\"\"": 788,
      "ĠĞ#ğ": 789,
      "ĠĞĝğ": 790,
      "ĀĀěĀ\"": 791,
      "Ġĝĝ\"": 792,
      "ĀĀĚĀğ": 793,
      "ĀĀ(Ā": 794,
      "ĠĜ!\"": 795,
      "ĠĠĠĠĠĠĠĠĠĠĠĠĠĠĠĠĠĠĠĠĠĠĠĠĠĠĠĠĠĠĠĠ": 796,
      "ĀĀ+Ā": 797,
      "ĔĜ": 798,
      "Ėě": 799,
      "ėę": 800,
      "ĘĀĀ": 801,
      "Ğ(": 802,
      "Ğę": 803,
      "Ġğ&": 804,
      "Ġğ$\"": 805,
      "Ġĝ$!": 806,
      "ĠĜ$": 807,
      "ĠĜĞ!": 808,
      "ĀĀğĀĚ": 809,
      "ĀĀ!Āě": 810,
      "ĀĀĞĀě": 811,
      "Ġĝ!$": 812,
      "Ġĝ!Ğ": 813,
      "Ġ!ĝ#": 814,
      "Ġ!ĝĝ": 815,
      "Ġğ##": 816,
      "ĀĀ\"Ā\"": 817,
      "ĀĀ\"Ā#": 818,
      "ĀĀĜĀ\"": 819,
      "ĀĀĜĀĜ": 820,
      "ĀĀ$Ā!": 821,
      "ĀĀĚĀ!": 822,
      "\"Ě": 823,
      "'ě": 824,
      "(ě": 825,
      ")(": 826,
      "*Ğ": 827,
      "ĖĜ": 828,
      "ė&": 829,
      "Ġ!ěğ": 830,
      "Ġğ$Ğ": 831,
      "Ġĝě": 832,
      "Ġ$Ĝ": 833,
      "ĠĜ!ğ": 834,
      "ĠĜĝ!": 835,
      "ĠěĜ": 836,
      "Ġ%$": 837,
      "Ġ&!": 838,
      "ĠĚ!": 839,
      "ĠĞğ$": 840,
      "Ġę!": 841,
      "ĀĀğĀ%": 842,
      "Ġ#ğ#": 843,
      "ĀĀĞĀ%": 844,
      "ĠĝğĞ": 845,
      "ĀĀ\"Āě": 846,
      "ĀĀ#Āĝ": 847,
      "ĀĀĜĀĝ": 848,
      "Ġ\"ĝĝ": 849,
      "Ġĝ\"#": 850,
      "ĠĞ##": 851,
      "Ġ$\"ĝ": 852,
      "ĀĀ%Āğ": 853,
      "Ġ$ğ!": 854,
      "Ġ#ĝğ": 855,
      "\"ę": 856,
      "%'": 857,
      "%Ě": 858,
      "*(": 859,
      "ĕĜ": 860,
      "ėě": 861,
      "ě&": 862,
      "ĜĘ": 863,
      "Ĝę": 864,
      "ĠğĜ\"": 865,
      "Ġ\"ĜĞ": 866,
      "ĠĞ$!": 867,
      "Ġ$#ğ": 868,
      "ĠĜě": 869,
      "ĠĜĝğ": 870,
      "Ġěğ\"": 871,
      "ĠğĞ$": 872,
      "Ġ\"ğ#": 873,
      "Ġ\"ğ$": 874,
      "Ġ#!Ĝ": 875,
      "ĀĀĞĀ&": 876,
      "ĀĀĝĀĜ": 877,
      "ĀĀ\"ĀĜ": 878,
      "ĀĀ#ĀĞ": 879,
      "ĀĀ#ĀĜ": 880,
      "ĀĀĜĀĞ": 881,
      "Ġĝ\"ĝ": 882,
      "ĠĞĝ#": 883,
      "ĀĀ$Āĝ": 884,
      "ĀĀ%Ā\"": 885,
      "Ġ##\"": 886,
      "Ġ$ğĝ": 887,
      "ĀĀ&Āğ": 888,
      "ĀĀ&Āĝ": 889,
      "Ġĝ#\"": 890,
      "Ġĝ#Ğ": 891,
      "ĠĜ\"\"": 892,
      "\"'": 893,
      "\"Ę": 894,
      "%ě": 895,
      "'ĀĀě": 896,
      "*'": 897,
      "ĕĀĀ": 898,
      "ėė": 899,
      "ěĀĀ": 900,
      "Ğ'": 901,
      "Ġď": 902,
      "Ġ!Ĝĝ": 903,
      "ĠğĚ": 904,
      "ĠğĜĞ": 905,
      "Ġ\"Ĝ!": 906,
      "Ġ\"$!": 907,
      "Ġě!!": 908,
      "Ġ\"ğě": 909,
      "Ġ!Ğě": 910,
      "Ġğ\"Ĝ": 911,
      "ĠĞĞĝ": 912,
      "Ġ\"Ğ#": 913,
      "ĠĞ\"ĝ": 914,
      "ĀĀ!Ā%": 915,
      "ĠĞ#ĝ": 916,
      "ĠĞĝĞ": 917,
      "ĀĀ$Āğ": 918,
      "ĀĀ$Āě": 919,
      "ĀĀ&Ā\"": 920,
      "!'": 921,
      "\"ĀĀ": 922,
      "%ę": 923,
      "&ě": 924,
      ")&": 925,
      ")Ğ": 926,
      "*ğ": 927,
      "+'": 928,
      "Ĕ#": 929,
      "Ĕě": 930,
      "ĕĚ": 931,
      "ĕĞ": 932,
      "ĕğ": 933,
      "ĘĚ": 934,
      "ę&": 935,
      "Ĝ'": 936,
      "ĠĀ%": 937,
      "ĠĀĚ": 938,
      "Ġ!Ĝ\"": 939,
      "Ġ!ĜĞ": 940,
      "ĠĞ$Ğ": 941,
      "ĠĜĞğ": 942,
      "ĠĜĝ\"": 943,
      "ĠĜĝĞ": 944,
      "Ġ!ğě": 945,
      "Ġ%\"ğ": 946,
      "Ġ&$": 947,
      "Ġ&ğğ": 948,
      "Ġ\"!ě": 949,
      "ĠĞğĝ": 950,
      "Ġ!ĞĜ": 951,
      "ĀĀ!Ā$": 952,
      "Ġ!##": 953,
      "ĀĀĝĀ$": 954,
      "ĀĀ\"Ā&": 955,
      "Ġ\"#Ĝ": 956,
      "Ġ#\"ĝ": 957,
      "ĀĀ#Ā$": 958,
      "ĀĀĜĀğ": 959,
      "Ġ#Ğ\"": 960,
      "Ġĝ\"Ğ": 961,
      "ĀĀ$ĀĜ": 962,
      "ĀĀ%Ā$": 963,
      "Ġ#ĝ!": 964,
      "ĠĜ\"#": 965,
      "ĠĜ\"ğ": 966,
      "ĠĜ!#": 967,
      "ĀĀĘĀğ": 968,
      "ĀĀęĀğ": 969,
      "ĀĀ)Ā": 970,
      "!(": 971,
      "\"ĕ": 972,
      "$(": 973,
      "+#": 974,
      "Ĕĝ": 975,
      "Ĕğ": 976,
      "ĕ#": 977,
      "Ė#": 978,
      "ėĘ": 979,
      "ęĀĀ": 980,
      "Ĝ(": 981,
      "Ğ)": 982,
      "ĠĎ": 983,
      "ĠĀĘ": 984,
      "Ġ\"%Ğ": 985,
      "Ġ#Ĝ!": 986,
      "Ġ#ĜĞ": 987,
      "Ġ$$Ğ": 988,
      "Ġ$Ğĝ": 989,
      "ĠĜĞ\"": 990,
      "Ġě\"ğ": 991,
      "ĠĠĠĠĠĠĠĠĠĠĠĠĠĠ": 992,
      "Ġ%ĝ": 993,
      "Ġ%!!": 994,
      "Ġ%\"!": 995,
      "Ġ%\"Ğ": 996,
      "Ġ&\"": 997,
      "Ġ&ĝ": 998,
      "Ġ!\"$": 999,
      "Ġ!\"Ĝ": 1000,
      "Ġę#": 1001,
      "Ġ!Ğ$": 1002,
      "ĀĀğĀę": 1003,
      "ĀĀğĀĘ": 1004,
      "ĀĀ!Ā&": 1005,
      "ĀĀĞĀĚ": 1006,
      "Ġ!ĝ$": 1007,
      "ĀĀĝĀ%": 1008,
      "ĀĀĜĀ$": 1009,
      "ĠĝĞĞ": 1010,
      "ĠĞĝ\"": 1011,
      "ĀĀěĀĞ": 1012,
      "ĀĀěĀ#": 1013,
      "ĀĀ$Ā\"": 1014,
      "ĀĀĚĀ#": 1015,
      "ĀĀ%Ā#": 1016,
      "Ġ#ĝĝ": 1017,
      "Ġĝ#ğ": 1018,
      "ĠĜ\"!": 1019,
      "ĀĀęĀ!": 1020,
      "\"(": 1021,
      "$Ě": 1022,
      "'Ę": 1023,
      "+ĝ": 1024,
      ".ĀĀ": 1025,
      "ēĝ": 1026,
      "Ę&": 1027,
      "Ę'": 1028,
      "ěę": 1029,
      "Ĝ&": 1030,
      "ĝĘ": 1031,
      "Ġ!$#": 1032,
      "Ġ!%ğ": 1033,
      "ĠğĜ#": 1034,
      "Ġ\"$\"": 1035,
      "Ġ\"$ĝ": 1036,
      "ĠĞ&": 1037,
      "ĠĞĚ": 1038,
      "Ġ$&": 1039,
      "Ġ$%ğ": 1040,
      "Ġ$ĞĞ": 1041,
      "Ġ$ĝ!": 1042,
      "Ġ$#Ğ": 1043,
      "Ġ$#ĝ": 1044,
      "ĠĜĚ": 1045,
      "ĠĜĜ\"": 1046,
      "Ġ%ğ!": 1047,
      "Ġ%ğĞ": 1048,
      "Ġğ!ě": 1049,
      "Ġ\"!Ě": 1050,
      "Ġ'ĝ": 1051,
      "ĠĞ!Ĝ": 1052,
      "ĠęĞ": 1053,
      "Ġğ\"%": 1054,
      "Ġ\"Ğ$": 1055,
      "ĀĀğĀ&": 1056,
      "Ġ#!ě": 1057,
      "ĀĀ!Āę": 1058,
      "Ġĝğ$": 1059,
      "Ġğ#Ĝ": 1060,
      "Ġğĝ#": 1061,
      "ĀĀĝĀ&": 1062,
      "ĀĀ\"ĀĚ": 1063,
      "Ġ\"#\"": 1064,
      "Ġ#\"Ĝ": 1065,
      "ĀĀ#Ā#": 1066,
      "ĀĀĜĀ#": 1067,
      "Ġ\"ĝĜ": 1068,
      "ĠĞ#Ğ": 1069,
      "ĀĀěĀğ": 1070,
      "ĀĀ$ĀĞ": 1071,
      "ĀĀ$Ā#": 1072,
      "ĀĀĚĀĞ": 1073,
      "Ġ$ğ\"": 1074,
      "ĠĜ!Ğ": 1075,
      "#(": 1076,
      "#ę": 1077,
      "'+": 1078,
      "'Ě": 1079,
      ")'": 1080,
      ")*": 1081,
      "*+": 1082,
      ",\"": 1083,
      ",#": 1084,
      "ėĀĀ": 1085,
      "ęė": 1086,
      "ěĚ": 1087,
      "ğĕ": 1088,
      "Ġ2": 1089,
      "ĠĀ&": 1090,
      "Ġ!$ĝ": 1091,
      "Ġğě!": 1092,
      "Ġğ$#": 1093,
      "Ġ\"ěğ": 1094,
      "ĠĞě!": 1095,
      "ĠĞ$#": 1096,
      "Ġĝ&": 1097,
      "ĠĝĜğ": 1098,
      "Ġ#&": 1099,
      "Ġ#Ě": 1100,
      "Ġ$ĝĞ": 1101,
      "Ġ$#Ĝ": 1102,
      "ĠĜ#!": 1103,
      "Ġěě": 1104,
      "ĠěĜ!": 1105,
      "ĠěĞğ": 1106,
      "Ġ%Ğ!": 1107,
      "Ġ&Ğ": 1108,
      "Ġ'!": 1109,
      "Ġęğ": 1110,
      "ĠĞ\"$": 1111,
      "ĀĀğĀ'": 1112,
      "ĀĀ!ĀĚ": 1113,
      "Ġ!#Ĝ": 1114,
      "Ġğĝĝ": 1115,
      "ĀĀĝĀě": 1116,
      "ĀĀĝĀĚ": 1117,
      "Ġ#\"#": 1118,
      "ĀĀ#Ā&": 1119,
      "ĀĀĜĀě": 1120,
      "Ġ\"ĝ#": 1121,
      "Ġ\"ĝ$": 1122,
      "ĀĀěĀ$": 1123,
      "ĀĀĚĀ\"": 1124,
      "Ġ##ĝ": 1125,
      "ĀĀ&Ā!": 1126,
      "ĠĜğ#": 1127,
      "ĀĀ(Ā\"": 1128,
      "ĀĀĘĀĜ": 1129,
      "Ġ$!\"": 1130,
      "ĀĀ'Āğ": 1131,
      "ĀĀ'Ā\"": 1132,
      "ĀĀėĀ": 1133,
      "ĀĀĖĀ$": 1134,
      "!)": 1135,
      "!ę": 1136,
      "$ę": 1137,
      "(*": 1138,
      ")-": 1139,
      ")ě": 1140,
      ")ĀĀ)": 1141,
      "*ĝ": 1142,
      "+%": 1143,
      ",*": 1144,
      "-ĀĀ": 1145,
      "Ā-": 1146,
      "ĕ$": 1147,
      "Ė$": 1148,
      "Ėę": 1149,
      "ĚĀĀ": 1150,
      "ĜĔ": 1151,
      "Ĝė": 1152,
      "ĝĖ": 1153,
      "ĝĀĀ": 1154,
      "ĞĀĀ": 1155,
      "Ġ1": 1156,
      "ĠĀę": 1157,
      "Ġ!'": 1158,
      "Ġ!$Ğ": 1159,
      "Ġğ%ğ": 1160,
      "Ġ\"ę": 1161,
      "Ġ\"Ĝ\"": 1162,
      "Ġ\"&Ğ": 1163,
      "ĠĞ$ğ": 1164,
      "ĠĞĜĞ": 1165,
      "ĠĞěğ": 1166,
      "ĠĞěĝ": 1167,
      "ĀĀĐ": 1168,
      "Ġĝę": 1169,
      "ĠĝĜ#": 1170,
      "Ġ#Ĝğ": 1171,
      "Ġ#$!": 1172,
      "Ġ$Ĝ!": 1173,
      "Ġ$$!": 1174,
      "Ġ$ěğ": 1175,
      "ĠĜěğ": 1176,
      "ĠĜĝĝ": 1177,
      "ĠěĞ!": 1178,
      "Ġě!ğ": 1179,
      "Ġě#\"": 1180,
      "ĠěĝĞ": 1181,
      "Ġě!#": 1182,
      "Ġ!!ě": 1183,
      "Ġğğ&": 1184,
      "Ġğğě": 1185,
      "Ġ%$ğ": 1186,
      "Ġ%!ğ": 1187,
      "Ġ&ğ": 1188,
      "ĠĚ\"": 1189,
      "ĠĚĞ": 1190,
      "Ġ'\"": 1191,
      "Ġ!\"ě": 1192,
      "Ġ\"\"#": 1193,
      "Ġĝğĝ": 1194,
      "Ġĝ!%": 1195,
      "Ġĝ!ĝ": 1196,
      "Ġ!ĝě": 1197,
      "Ġğĝ$": 1198,
      "ĀĀ\"Āę": 1199,
      "ĀĀĜĀĚ": 1200,
      "Ġ#Ğě": 1201,
      "ĠĞĝ$": 1202,
      "ĀĀěĀĜ": 1203,
      "ĀĀěĀ'": 1204,
      "Ġĝĝ#": 1205,
      "Ġ$\"\"": 1206,
      "Ġ$\"Ĝ": 1207,
      "ĀĀĚĀ&": 1208,
      "ĀĀ%ĀĞ": 1209,
      "ĀĀ&ĀĜ": 1210,
      "Ġĝ#ĝ": 1211,
      "ĀĀ(Āĝ": 1212,
      "ĀĀ(ĀĚ": 1213,
      "ĀĀĘĀ\"": 1214,
      "Ġ$!ĝ": 1215,
      "ĀĀ'ĀĞ": 1216,
      "ĀĀ)Ā#": 1217,
      "ĀĀĖĀ\"": 1218,
      "ĀĀ+Ā\"": 1219,
      "#)": 1220,
      "%Ę": 1221,
      "'*": 1222,
      "()": 1223,
      "(Ě": 1224,
      ")Ĝ": 1225,
      "*%": 1226,
      "**": 1227,
      "+ğ": 1228,
      ",$": 1229,
      "ēę": 1230,
      "ĖĚ": 1231,
      "ęĖ": 1232,
      "Ěę": 1233,
      "ěė": 1234,
      "ěĘ": 1235,
      "Ĝĕ": 1236,
      "ĜĀĀ": 1237,
      "ĝ,": 1238,
      "ĠĀ'": 1239,
      "Ġ!ě!": 1240,
      "Ġ!%!": 1241,
      "Ġ!%\"": 1242,
      "Ġ!%Ğ": 1243,
      "Ġğ%!": 1244,
      "Ġğ%Ğ": 1245,
      "Ġ\"ě!": 1246,
      "ĠĞ$\"": 1247,
      "ĀĀď": 1248,
      "ĠĜě#": 1249,
      "Ġě%": 1250,
      "ĠěĞ\"": 1251,
      "Ġ!ğ%": 1252,
      "Ġ%ğğ": 1253,
      "Ġ%ĝğ": 1254,
      "Ġ%!Ğ": 1255,
      "Ġ%#Ğ": 1256,
      "Ġğ!Ě": 1257,
      "Ġ&#": 1258,
      "Ġ&%": 1259,
      "Ġ&ğ!": 1260,
      "Ġ&ğĝ": 1261,
      "ĠĚğ\"": 1262,
      "Ġ!\"%": 1263,
      "Ġę\"": 1264,
      "ĠĘĞ": 1265,
      "ĠĘğ": 1266,
      "Ġ\"\"Ĝ": 1267,
      "Ġ\"Ğ%": 1268,
      "ĠĞ\"ě": 1269,
      "ĠĞ\"Ĝ": 1270,
      "ĀĀĞĀĘ": 1271,
      "ĠĝğĜ": 1272,
      "ĀĀ\"Ā%": 1273,
      "Ġ#\"ě": 1274,
      "ĀĀ#Ā%": 1275,
      "ĀĀĜĀ%": 1276,
      "ĠĠĠĠĠĠĠĠĠĠĠĠĠĠĠĠĠ": 1277,
      "ĀĀěĀ%": 1278,
      "ĀĀ$Ā%": 1279,
      "ĀĀĚĀĝ": 1280,
      "ĀĀ%ĀĜ": 1281,
      "ĀĀ%Ā&": 1282,
      "Ġ$ğ#": 1283,
      "Ġ$ğě": 1284,
      "Ġ#ĝ\"": 1285,
      "ĀĀ&ĀĞ": 1286,
      "ĀĀ&Ā#": 1287,
      "ĠĜğĝ": 1288,
      "ĠĜğĞ": 1289,
      "ĀĀ(Ā#": 1290,
      "ĀĀĘĀ#": 1291,
      "ĀĀęĀĝ": 1292,
      "ĀĀęĀě": 1293,
      "ĀĀėĀ!": 1294,
      "ĀĀ+Āğ": 1295,
      "#'": 1296,
      "$Ė": 1297,
      "'-": 1298,
      "+&": 1299,
      "+*": 1300,
      "-'": 1301,
      "Ē!": 1302,
      "ēĞ": 1303,
      "Ĕ\"": 1304,
      "Ĕĕ": 1305,
      "ĔĚ": 1306,
      "Ėė": 1307,
      "ėĕ": 1308,
      "ĘĖ": 1309,
      "Ęė": 1310,
      "ĘĘ": 1311,
      "ĝ(": 1312,
      "ĝę": 1313,
      "Ğė": 1314,
      "ĞĘ": 1315,
      "ğė": 1316,
      "Ġ!ĀĀ": 1317,
      "Ġ!&!": 1318,
      "Ġ!Ěğ": 1319,
      "Ġ!$$": 1320,
      "Ġ!%#": 1321,
      "Ġğę": 1322,
      "Ġğěğ": 1323,
      "ĠğĜĝ": 1324,
      "Ġ\"'": 1325,
      "Ġ\"$#": 1326,
      "Ġ\"ě\"": 1327,
      "Ġ\"%\"": 1328,
      "Ġĝ(": 1329,
      "ĠĝĜ\"": 1330,
      "ĠĝĜĞ": 1331,
      "Ġĝ%!": 1332,
      "Ġ#'": 1333,
      "Ġ#%Ğ": 1334,
      "Ġ$ĝğ": 1335,
      "Ġ$ĝ\"": 1336,
      "Ġ$#\"": 1337,
      "Ġ$$ĝ": 1338,
      "ĠĜ&": 1339,
      "ĠĜĜĞ": 1340,
      "ĠĜ#ğ": 1341,
      "ĠĜĞĝ": 1342,
      "ĠĜĝ#": 1343,
      "Ġě$": 1344,
      "ĠěĜğ": 1345,
      "Ġěğğ": 1346,
      "Ġě!Ğ": 1347,
      "Ġ%#ğ": 1348,
      "Ġ%Ğĝ": 1349,
      "Ġ%ğě": 1350,
      "Ġ&Ĝĝ": 1351,
      "Ġ&ĝğ": 1352,
      "Ġ&#!": 1353,
      "ĠĚĜ": 1354,
      "ĠĚğğ": 1355,
      "ĠĚ\"#": 1356,
      "Ġ\"!$": 1357,
      "ĠĞğ%": 1358,
      "ĠĞ!ě": 1359,
      "Ġęĝ": 1360,
      "Ġ(!": 1361,
      "Ġ(\"": 1362,
      "ĠĞĞĜ": 1363,
      "ĠĞ\"%": 1364,
      "ĀĀğĀ(": 1365,
      "ĀĀğĀė": 1366,
      "ĀĀ!Ā'": 1367,
      "ĀĀ!ĀĘ": 1368,
      "ĀĀĞĀ'": 1369,
      "Ġĝğ%": 1370,
      "Ġ!ĝĜ": 1371,
      "Ġğ#$": 1372,
      "ĀĀĝĀ'": 1373,
      "ĀĀĝĀ)": 1374,
      "ĀĀ\"Ā'": 1375,
      "ĀĀ\"Ā)": 1376,
      "ĀĀ#Āę": 1377,
      "ĀĀ#ĀĖ": 1378,
      "ĀĀĜĀ&": 1379,
      "Ġĝ\"$": 1380,
      "ĠĞ#$": 1381,
      "ĀĀěĀ!": 1382,
      "ĀĀěĀĝ": 1383,
      "ĀĀ$Ā&": 1384,
      "Ġ$\"#": 1385,
      "ĀĀĚĀĜ": 1386,
      "ĀĀ%Āĝ": 1387,
      "ĀĀ%Āě": 1388,
      "Ġ$ğĜ": 1389,
      "Ġĝ##": 1390,
      "ĠĜ\"$": 1391,
      "ĀĀ(Ā$": 1392,
      "ĠĜ!$": 1393,
      "Ġ$!Ĝ": 1394,
      "ĀĀ'Ā!": 1395,
      "ĀĀ'Āĝ": 1396,
      "ĀĀėĀ%": 1397,
      "ĀĀėĀĚ": 1398,
      "ĀĀ)ĀĜ": 1399,
      "ĀĀĖĀ!": 1400,
      "ĀĀĖĀĞ": 1401,
      "Ġ!ĜĜ": 1402,
      "ĀĀ+ĀĞ": 1403,
      "ĠĜĞ#": 1404,
      "ĀĀ,Ā\"": 1405,
      "ĀĀ-Ā": 1406,
      "ĠĠĠĠĠĠĠĠĠĠĠĠĠĠĠĠĠĠĠĠĠĠĠĠĠ": 1407,
      "$'": 1408,
      "$Ę": 1409,
      "&(": 1410,
      "')": 1411,
      "(,": 1412,
      "),": 1413,
      "*ě": 1414,
      "+$": 1415,
      "+(": 1416,
      "+ě": 1417,
      "+Ĝ": 1418,
      ",(": 1419,
      "-!": 1420,
      "-#": 1421,
      "-*": 1422,
      ".$": 1423,
      ".&": 1424,
      "Ā,": 1425,
      "Ēĝ": 1426,
      "ĔĞ": 1427,
      "ė%": 1428,
      "ėĖ": 1429,
      "ĘĒ": 1430,
      "ĝē": 1431,
      "ğ)": 1432,
      "ĠĀ(": 1433,
      "Ġ!&\"": 1434,
      "Ġ!&ğ": 1435,
      "Ġ!%ĝ": 1436,
      "Ġğě\"": 1437,
      "Ġğ%\"": 1438,
      "ĠğěĞ": 1439,
      "Ġğ%#": 1440,
      "ĠĞĜ#": 1441,
      "ĠĞ$ĝ": 1442,
      "ĠĞĚğ": 1443,
      "ĠĞě#": 1444,
      "ĠĞ%Ĝ": 1445,
      "ĠĝĚ": 1446,
      "Ġĝ$\"": 1447,
      "Ġĝě!": 1448,
      "ĠĝĜĝ": 1449,
      "Ġĝ$ĝ": 1450,
      "Ġĝ%\"": 1451,
      "Ġ#Ę": 1452,
      "Ġ#&ğ": 1453,
      "Ġ$$ğ": 1454,
      "Ġ$Ĝğ": 1455,
      "Ġ$Ĝĝ": 1456,
      "Ġ$%ĝ": 1457,
      "ĠĜĜ!": 1458,
      "ĠĜ$ğ": 1459,
      "Ġě#ğ": 1460,
      "Ġěğ!": 1461,
      "Ġěĝ\"": 1462,
      "Ġ%Ě": 1463,
      "Ġ%ě": 1464,
      "Ġ%\"\"": 1465,
      "Ġ%!ĝ": 1466,
      "Ġ%ğĝ": 1467,
      "Ġ&ě": 1468,
      "Ġ&Ĝ": 1469,
      "Ġ&\"ğ": 1470,
      "Ġ&!Ğ": 1471,
      "Ġ&ğě": 1472,
      "ĠĚ#": 1473,
      "ĠĚ\"Ğ": 1474,
      "ĠĚ\"%": 1475,
      "Ġ'#": 1476,
      "ĠĞğĚ": 1477,
      "ĠĞğě": 1478,
      "Ġğ\"ě": 1479,
      "ĠĘ!": 1480,
      "Ġ(#": 1481,
      "ĀĀ!Ā(": 1482,
      "Ġĝ!Ĝ": 1483,
      "ĀĀĝĀ*": 1484,
      "ĀĀ#ĀĚ": 1485,
      "ĀĀ#Ā'": 1486,
      "ĀĀ#Āė": 1487,
      "ĀĀĜĀ'": 1488,
      "ĀĀĜĀ)": 1489,
      "Ġ#ĞĜ": 1490,
      "Ġĝ\"Ĝ": 1491,
      "ĠĞ#Ĝ": 1492,
      "ĠĞĝě": 1493,
      "ĠĞĝĝ": 1494,
      "ĀĀěĀě": 1495,
      "ĀĀěĀ&": 1496,
      "Ġĝĝĝ": 1497,
      "ĀĀĚĀ$": 1498,
      "Ġ#ĝ#": 1499,
      "ĀĀ&Ā&": 1500,
      "ĠĜ\"ĝ": 1501,
      "ĀĀ(Āğ": 1502,
      "ĀĀ(Ā!": 1503,
      "ĀĀĘĀ!": 1504,
      "ĀĀĘĀĞ": 1505,
      "ĀĀĘĀě": 1506,
      "ĀĀ'Ā#": 1507,
      "ĀĀ'Ā$": 1508,
      "ĀĀęĀ\"": 1509,
      "ĀĀęĀĞ": 1510,
      "ĀĀėĀě": 1511,
      "ĀĀėĀ&": 1512,
      "ĀĀ)ĀĞ": 1513,
      "ĀĀ)Ā%": 1514,
      "ĠğĜĜ": 1515,
      "ĠĀĀ-": 1516,
      "Ġě!$": 1517,
      "ĀĀĕĀğ": 1518,
      "Ġ%!ě": 1519,
      "Ġ%!Ĝ": 1520,
      "!Ę": 1521,
      "#Ę": 1522,
      "%ĀĀğĀ": 1523,
      "'ė": 1524,
      "('": 1525,
      "(-": 1526,
      "(ĕ": 1527,
      "*&": 1528,
      "+\"": 1529,
      "+)": 1530,
      "++": 1531,
      ",)": 1532,
      ",Ğ": 1533,
      "-)": 1534,
      ".ğ": 1535,
      "/#": 1536,
      "/ĀĀ": 1537,
      "čĠ": 1538,
      "Ēě": 1539,
      "ē#": 1540,
      "ēĘ": 1541,
      "ēě": 1542,
      "ēĀĀ": 1543,
      "ĔĘ": 1544,
      "ĔĀĀ": 1545,
      "ĕ%": 1546,
      "ĕĔ": 1547,
      "ė'": 1548,
      "Ęĕ": 1549,
      "Ě)": 1550,
      "ĚĘ": 1551,
      "ě)": 1552,
      "ěĕ": 1553,
      "ĝė": 1554,
      "Ġ3": 1555,
      "Ġ4": 1556,
      "ĠĀĀğĀ": 1557,
      "Ġ!(": 1558,
      "Ġ!ě\"": 1559,
      "Ġ!Ě!": 1560,
      "Ġğ(": 1561,
      "ĠğĘ": 1562,
      "Ġğ$ĝ": 1563,
      "Ġğ$$": 1564,
      "ĠğĚ!": 1565,
      "Ġğěĝ": 1566,
      "Ġğę!": 1567,
      "Ġ\"%!": 1568,
      "Ġ\"Ěğ": 1569,
      "Ġ\"ĜĜ": 1570,
      "ĠĞę": 1571,
      "ĠĞ&ğ": 1572,
      "ĀĀ;": 1573,
      "ĠĝĚ\"": 1574,
      "Ġ#Ĝ\"": 1575,
      "Ġ#Ĝĝ": 1576,
      "Ġ#%ğ": 1577,
      "Ġ#$ĝ": 1578,
      "Ġ#%\"": 1579,
      "Ġ#Ěğ": 1580,
      "Ġ$$\"": 1581,
      "Ġ$ĜĞ": 1582,
      "Ġ$&ğ": 1583,
      "Ġ$$Ĝ": 1584,
      "ĠĜ%": 1585,
      "ĠĜ$\"": 1586,
      "ĠĜ#\"": 1587,
      "ĠěĜĞ": 1588,
      "Ġě\"\"": 1589,
      "Ġě\"Ğ": 1590,
      "Ġě!\"": 1591,
      "Ġě\"#": 1592,
      "Ġ!ğĚ": 1593,
      "Ġ%Ĝ": 1594,
      "Ġ%Ĝ!": 1595,
      "Ġ%ĜĞ": 1596,
      "Ġ%Ğğ": 1597,
      "Ġ%#!": 1598,
      "Ġ%ĞĞ": 1599,
      "Ġ%ĝ!": 1600,
      "Ġ%Ğě": 1601,
      "Ġ&!!": 1602,
      "Ġ&!ğ": 1603,
      "Ġ&Ğğ": 1604,
      "Ġ&#ğ": 1605,
      "Ġ&ğĞ": 1606,
      "ĠĚ$": 1607,
      "ĠĚ&": 1608,
      "ĠĚ!!": 1609,
      "ĠĚĞ!": 1610,
      "ĠĚĝğ": 1611,
      "Ġ'#Ğ": 1612,
      "ĠğĞě": 1613,
      "Ġ!Ğ%": 1614,
      "ĠĘĝ": 1615,
      "Ġ(ĝ": 1616,
      "Ġ\"\"$": 1617,
      "ĠĞĞ$": 1618,
      "ĠĞĞě": 1619,
      "Ġ#ğę": 1620,
      "Ġ#ğĚ": 1621,
      "Ġ#ğě": 1622,
      "ĀĀĞĀ(": 1623,
      "ĀĀĞĀė": 1624,
      "Ġ!#$": 1625,
      "ĀĀĝĀė": 1626,
      "ĀĀ\"ĀĘ": 1627,
      "ĀĀĜĀę": 1628,
      "ĀĀĜĀ(": 1629,
      "ĀĀĜĀė": 1630,
      "ĠĝĞ$": 1631,
      "ĠĝĞ%": 1632,
      "Ġĝ\"%": 1633,
      "ĀĀ$ĀĚ": 1634,
      "Ġĝĝě": 1635,
      "ĀĀĚĀ%": 1636,
      "ĀĀĚĀĚ": 1637,
      "ĀĀĚĀ(": 1638,
      "ĀĀ%Ā!": 1639,
      "ĀĀ%ĀĚ": 1640,
      "Ġ###": 1641,
      "Ġ##Ĝ": 1642,
      "Ġ#ĝĜ": 1643,
      "ĠĜ\"Ğ": 1644,
      "ĀĀ(ĀĞ": 1645,
      "ĀĀ(ĀĜ": 1646,
      "ĀĀ(Āě": 1647,
      "ĀĀ(Ā%": 1648,
      "ĀĀ(Ā'": 1649,
      "ĀĀĘĀ&": 1650,
      "ĀĀ'Āę": 1651,
      "ĀĀęĀĜ": 1652,
      "ĀĀėĀğ": 1653,
      "ĀĀėĀ\"": 1654,
      "ĀĀėĀĞ": 1655,
      "ĀĀėĀĜ": 1656,
      "ĀĀėĀ$": 1657,
      "ĠĠĠĠĠĠĠĠĠĠĠĠĠĠĠĠĠĠĠĠĠĠ": 1658,
      "ĠĠĠĠĠĠĠĠĠĠĠĠĠĠĠĠĠĠĠĠĠĠĠĠĠĠĠ": 1659,
      "ĀĀĖĀ": 1660,
      "ĀĀĖĀĝ": 1661,
      "ĀĀ+Ā#": 1662,
      "ĠĜĞ$": 1663,
      "%ĀĀ*": 1664,
      "&ĀĀĔ": 1665,
      "ĠěĞ%": 1666,
      "Ġ\"$Ĝ": 1667,
      "Ġě!%": 1668,
      "ĀĀēĀĝ": 1669,
      "ĀĀ*Ā": 1670,
      "ĀĀ/Ā": 1671,
      "!ė": 1672,
      "#Ė": 1673,
      "#ė": 1674,
      "$)": 1675,
      "$/": 1676,
      "%(": 1677,
      "%)": 1678,
      "&)": 1679,
      "&+": 1680,
      "&ė": 1681,
      "&ę": 1682,
      "((": 1683,
      "(ę": 1684,
      "*(ĀĀ": 1685,
      "+,": 1686,
      "+Ğ": 1687,
      "-%": 1688,
      "-Ğ": 1689,
      "-ğ": 1690,
      "/!": 1691,
      "/\"": 1692,
      "/(": 1693,
      "Ā.": 1694,
      "ďĀ!": 1695,
      "đę": 1696,
      "Ēę": 1697,
      "ĒĞ": 1698,
      "Ēğ": 1699,
      "ē!": 1700,
      "ēĚ": 1701,
      "Ĕ!": 1702,
      "ĔĒ": 1703,
      "Ė%": 1704,
      "Ė&": 1705,
      "Ė)": 1706,
      "ĖĘ": 1707,
      "ĖĀĀ": 1708,
      "ĘĔ": 1709,
      "ę'": 1710,
      "Ěĕ": 1711,
      "Ěė": 1712,
      "ě'": 1713,
      "ěĖ": 1714,
      "Ĝ)": 1715,
      "Ĝ.": 1716,
      "ĝ'": 1717,
      "ğ(": 1718,
      "ĠĀė": 1719,
      "Ġ!Ĝ#": 1720,
      "Ġ!ěĞ": 1721,
      "Ġ!ěĝ": 1722,
      "Ġğ'": 1723,
      "Ġğě#": 1724,
      "Ġğ%ĝ": 1725,
      "ĠğĚĝ": 1726,
      "Ġ\"Ĝĝ": 1727,
      "Ġ\"Ě\"": 1728,
      "Ġ\"%Ĝ": 1729,
      "Ġ\"Ĝě": 1730,
      "ĠĞ%!": 1731,
      "ĠĞě\"": 1732,
      "ĠĞ&!": 1733,
      "ĠĞ$$": 1734,
      "ĠĞ%#": 1735,
      "ĠĞ%$": 1736,
      "ĠĞę!": 1737,
      "ĠĞ&#": 1738,
      "ĀĀ<": 1739,
      "ĀĀĈ": 1740,
      "Ġĝė": 1741,
      "Ġĝ&Ğ": 1742,
      "Ġ#ĀĀ": 1743,
      "Ġ#ě#": 1744,
      "Ġ#&\"": 1745,
      "Ġ#%ĝ": 1746,
      "Ġ#ĜĜ": 1747,
      "Ġ#Ěĝ": 1748,
      "Ġ$ę": 1749,
      "Ġ$ĀĀ": 1750,
      "Ġ$Ĝ\"": 1751,
      "Ġ$ě!": 1752,
      "Ġ$Ĝ#": 1753,
      "Ġ$Ğ\"": 1754,
      "Ġ$%Ğ": 1755,
      "Ġ$ěĞ": 1756,
      "Ġ$&!": 1757,
      "Ġ$ĝĝ": 1758,
      "Ġ$ĜĜ": 1759,
      "Ġ$ĝĜ": 1760,
      "ĠĜĞĞ": 1761,
      "ĠĜĚ!": 1762,
      "ĠĜ#ĝ": 1763,
      "Ġěě!": 1764,
      "ĠěĞĞ": 1765,
      "Ġěĝ!": 1766,
      "ĠěĞĝ": 1767,
      "Ġěğ#": 1768,
      "Ġ!!Ę": 1769,
      "Ġ%$!": 1770,
      "Ġ%$Ğ": 1771,
      "Ġ%%ğ": 1772,
      "Ġ%ĝĞ": 1773,
      "Ġ%%Ğ": 1774,
      "Ġ%\"ĝ": 1775,
      "Ġ%\"Ĝ": 1776,
      "Ġğ!&": 1777,
      "Ġ&&": 1778,
      "Ġ&Ğĝ": 1779,
      "Ġ&\"ĝ": 1780,
      "ĠĚě": 1781,
      "ĠĚ$\"": 1782,
      "ĠĚĞ\"": 1783,
      "ĠĚ$ĝ": 1784,
      "ĠĚ!\"": 1785,
      "ĠĚğĞ": 1786,
      "Ġ''": 1787,
      "Ġ'(": 1788,
      "Ġ'ě": 1789,
      "Ġ'\"!": 1790,
      "Ġ'Ğ\"": 1791,
      "Ġ'#\"": 1792,
      "Ġ'!Ğ": 1793,
      "Ġ'\"Ğ": 1794,
      "ĠęĜ": 1795,
      "ĠęĞ\"": 1796,
      "ĠĘ#": 1797,
      "Ġ\"\"ě": 1798,
      "Ġ\"Ğě": 1799,
      "ĠĞ\"Ě": 1800,
      "ĀĀğĀ)": 1801,
      "ĀĀ!ĀĖ": 1802,
      "Ġ)ğ": 1803,
      "ĀĀĝĀ(": 1804,
      "ĀĀ\"Āė": 1805,
      "Ġ\"##": 1806,
      "ĀĀ#ĀĘ": 1807,
      "ĀĀĜĀĘ": 1808,
      "Ġ\"ĝě": 1809,
      "ĠĝĞĜ": 1810,
      "Ġ#Ğ#": 1811,
      "ĠĞ#ě": 1812,
      "ĀĀ$ĀĖ": 1813,
      "Ġĝĝ$": 1814,
      "!!ĀĀ": 1815,
      "ĀĀĚĀě": 1816,
      "ĀĀĚĀ)": 1817,
      "ĀĀ%Ā'": 1818,
      "ĀĀ%ĀĘ": 1819,
      "Ġ##$": 1820,
      "Ġ$ğ$": 1821,
      "Ġ#ĝ%": 1822,
      "ĀĀ&Ā$": 1823,
      "ĀĀ&Āě": 1824,
      "ĀĀ&Ā%": 1825,
      "ĀĀ&Āę": 1826,
      "Ġĝ#$": 1827,
      "ĀĀ(Ā&": 1828,
      "ĠĜ!%": 1829,
      "ĀĀĘĀĝ": 1830,
      "ĀĀĘĀ%": 1831,
      "ĀĀ'Āě": 1832,
      "ĀĀęĀ$": 1833,
      "%!ĀĀ": 1834,
      "#!ĀĀ": 1835,
      "ĀĀėĀ#": 1836,
      "ĀĀėĀĝ": 1837,
      "ĠĠĠĠĠĠĠĠĠĠĠĠĠĠĠĠĠĠĠĠĠĠĠĠĠĠ": 1838,
      "ĀĀ)Ā!": 1839,
      "ĀĀ)Āĝ": 1840,
      "ĀĀĖĀğ": 1841,
      "ĀĀĖĀ(": 1842,
      "ĀĀ+ĀĜ": 1843,
      "ĠğĜ$": 1844,
      "$ĀĀē": 1845,
      "%ĀĀ-": 1846,
      "'ĀĀ*": 1847,
      "ĠĀĀ*": 1848,
      "Ġğ$Ĝ": 1849,
      "Ġě!ě": 1850,
      "ĀĀĕĀ!": 1851,
      "ĀĀĕĀĞ": 1852,
      "ĀĀ,Ā": 1853,
      "ĀĀ,Āğ": 1854,
      "ĀĀ/Ā!": 1855,
      "ĀĀđĀ": 1856,
      "\"Ĝ!": 1857,
      "\"ěĞ": 1858,
      "#ē": 1859,
      "#ĕ": 1860,
      "$ĀĀğĀ$": 1861,
      "%*": 1862,
      "%,": 1863,
      "&Ę": 1864,
      "&Ě": 1865,
      "'ę": 1866,
      "'ĀĀ!Āĝ": 1867,
      "(ĀĀ)": 1868,
      "*Ě": 1869,
      "+-": 1870,
      "+&ĀĀ": 1871,
      ",&": 1872,
      ",+": 1873,
      ",ĝ": 1874,
      "-\"": 1875,
      ".\"": 1876,
      ".#": 1877,
      "/,": 1878,
      "/ğ": 1879,
      "Āē": 1880,
      "Āĕ": 1881,
      "ĎĀĞ": 1882,
      "Đĝ": 1883,
      "ĐĀ$": 1884,
      "đğ": 1885,
      "ĒĚ": 1886,
      "ē$": 1887,
      "ēĕ": 1888,
      "Ĕ$": 1889,
      "Ĕė": 1890,
      "ĕ&": 1891,
      "ĕĕ": 1892,
      "ĕĘ": 1893,
      "ĕě": 1894,
      "ĖĖ": 1895,
      "ęĘ": 1896,
      "ěđ": 1897,
      "ěē": 1898,
      "ěĔ": 1899,
      "ĜĖ": 1900,
      "ğē": 1901,
      "ğĖ": 1902,
      "ğ!!": 1903,
      "Ġ5": 1904,
      "ĠĀ)": 1905,
      "ĠĀ*": 1906,
      "ĠĀĀ!Ā\"": 1907,
      "ĠĀĀĞĀĝ": 1908,
      "Ġ!Ě\"": 1909,
      "Ġ!&Ğ": 1910,
      "Ġ!ĚĞ": 1911,
      "Ġ!ěĜ": 1912,
      "Ġ!'ğ": 1913,
      "Ġ!&#": 1914,
      "Ġ!ě%": 1915,
      "Ġ!Ęĝ": 1916,
      "Ġ!Ęğ": 1917,
      "ĠğĚğ": 1918,
      "Ġğ&\"": 1919,
      "Ġğ&ĝ": 1920,
      "Ġ\"Ę": 1921,
      "Ġ\"Ĝ#": 1922,
      "Ġ\"%ğ": 1923,
      "Ġ\"ěĞ": 1924,
      "Ġ\"%#": 1925,
      "Ġ\"&\"": 1926,
      "Ġ\"&ğ": 1927,
      "Ġ\"Ĝ$": 1928,
      "Ġ\"ěĜ": 1929,
      "Ġ\"ėĞ": 1930,
      "Ġ\"&&": 1931,
      "ĠĞ)": 1932,
      "ĠĞĘ": 1933,
      "ĠĞ%ğ": 1934,
      "ĠĞ%\"": 1935,
      "ĠĞěĞ": 1936,
      "ĠĞ%ĝ": 1937,
      "ĠĞĚĞ": 1938,
      "ĠĞ'ğ": 1939,
      "ĠĞęĝ": 1940,
      "ĠĞęĜ": 1941,
      "ĀĀ:": 1942,
      "ĀĀ>": 1943,
      "ĀĀĄ": 1944,
      "ĀĀą": 1945,
      "ĀĀć": 1946,
      "Ġĝ$ğ": 1947,
      "Ġĝ%ğ": 1948,
      "Ġĝě#": 1949,
      "Ġĝ'\"": 1950,
      "Ġ#%!": 1951,
      "Ġ#ě\"": 1952,
      "Ġ#$$": 1953,
      "Ġ#&Ğ": 1954,
      "Ġ#ěĜ": 1955,
      "Ġ#'&": 1956,
      "Ġ$'": 1957,
      "Ġ$$#": 1958,
      "Ġ$%!": 1959,
      "Ġ$#!": 1960,
      "Ġ$ěĝ": 1961,
      "ĠĜĜğ": 1962,
      "ĠĜ$#": 1963,
      "ĠĜĜĝ": 1964,
      "ĠĜĜ#": 1965,
      "ĠĜ%!": 1966,
      "ĠĜ%ğ": 1967,
      "ĠĜ%Ğ": 1968,
      "ĠĜ%#": 1969,
      "ĠĜěĝ": 1970,
      "ĠĜ##": 1971,
      "ĠĜęğ": 1972,
      "ĠĜĜ$": 1973,
      "Ġě\"!": 1974,
      "Ġě$#": 1975,
      "ĠěĜ#": 1976,
      "Ġěĝğ": 1977,
      "Ġě$$": 1978,
      "ĠěğĞ": 1979,
      "Ġěĝ#": 1980,
      "Ġěğĝ": 1981,
      "Ġě\"ĝ": 1982,
      "Ġěęğ": 1983,
      "Ġě\"$": 1984,
      "Ġ!!&": 1985,
      "Ġğğę": 1986,
      "Ġ%Ĝğ": 1987,
      "Ġ%Ĝ\"": 1988,
      "Ġ%ě\"": 1989,
      "Ġ%$ĝ": 1990,
      "Ġ%!\"": 1991,
      "Ġ%ě#": 1992,
      "Ġ%#Ĝ": 1993,
      "Ġ%ğĜ": 1994,
      "Ġ&'": 1995,
      "Ġ&$!": 1996,
      "Ġ&\"!": 1997,
      "Ġ&ě!": 1998,
      "Ġ&ĞĞ": 1999,
      "Ġ&ğ\"": 2000,
      "Ġ&#Ğ": 2001,
      "Ġ&!ĝ": 2002,
      "Ġ&!ě": 2003,
      "ĠĚ$ğ": 2004,
      "ĠĚĜĞ": 2005,
      "ĠĚğ!": 2006,
      "ĠĚ%!": 2007,
      "ĠĚĝ\"": 2008,
      "ĠĚğ#": 2009,
      "ĠĚę!": 2010,
      "ĠĚğě": 2011,
      "ĠĚĞě": 2012,
      "Ġ'$": 2013,
      "Ġ'Ĝ": 2014,
      "Ġ'Ğ": 2015,
      "Ġ'!!": 2016,
      "Ġ'ěğ": 2017,
      "Ġ'ĝ\"": 2018,
      "Ġ'!ĝ": 2019,
      "ĠğĞ%": 2020,
      "ĠĞğĜ": 2021,
      "ĠĞ!%": 2022,
      "ĠĞ!'": 2023,
      "ĠĞ!Ě": 2024,
      "ĠęĜ\"": 2025,
      "Ġ\"ğĘ": 2026,
      "Ġ\"ğę": 2027,
      "Ġğ\"Ě": 2028,
      "ĠĘ\"": 2029,
      "ĠĘ%": 2030,
      "ĠĘ'": 2031,
      "ĠĘĜ": 2032,
      "Ġ(!ĝ": 2033,
      "Ġ\"\"Ě": 2034,
      "ĠĞĞę": 2035,
      "Ġ\"Ğę": 2036,
      "Ġ\"ĞĚ": 2037,
      "Ġ#!$": 2038,
      "Ġĝğę": 2039,
      "Ġėğ": 2040,
      "Ā#ĝĞ": 2041,
      "Ġĝ!&": 2042,
      "Ġĝ!ě": 2043,
      "Ġ!ĝ%": 2044,
      "Ġ!ĝ&": 2045,
      "Ġ!ĝĚ": 2046,
      "Ġğĝě": 2047
    },
    "merges": [
      "Ġ Ġ",
      "Ġ !",
      "Ġ ğ",
      "ĠĠ ĠĠ",
      "Ġ \"",
      "Ġ Ğ",
      "ĠĠ Ġ",
      "Ā Ā",
      "Ġ ĝ",
      "Ġ #",
      "Ġ $",
      "ĠĠĠĠ Ġ",
      "Ġ Ĝ",
      "Ġ ě",
      "Ġ! !",
      "Ġğ ğ",
      "Ġ! ğ",
      "ĠĠĠĠ ĠĠĠĠ",
      "Ġ %",
      "Ġğ !",
      "Ġ &",
      "Ġ Ě",
      "Ġ\" !",
      "Ġ '",
      "Ġğ Ğ",
      "ĠĞ ğ",
      "Ġ! \"",
      "ĠĞ !",
      "Ġ ę",
      "Ġ\" ğ",
      "Ġ! Ğ",
      "Ġğ \"",
      "ĠĠĠĠ ĠĠ",
      "Ġ Ę",
      "Ġ (",
      "Ġ\" \"",
      "Ā ğ",
      "Ā !",
      "ĠĞ Ğ",
      "Ġ\" Ğ",
      "Ā \"",
      "ĠĞ \"",
      "ĀĀ ğ",
      "Ġ# !",
      "Ā Ğ",
      "Ġ# ğ",
      "ĀĀ !",
      "ĀĀ Ğ",
      "Ġĝ ğ",
      "Ġ )",
      "Ġ ė",
      "Ā #",
      "Ġĝ !",
      "Ġ! ĝ",
      "Ġ! #",
      "Ā ĝ",
      "Ġğ #",
      "Ā Ĝ",
      "Ġğ ĝ",
      "ĀĀ ĝ",
      "ĀĀ \"",
      "Ġğğ !",
      "Ġ!! ğ",
      "Ā $",
      "ĠĠĠĠ ĠĠĠ",
      "Ġ!ğ ğ",
      "Ġ *",
      "Ġ\" #",
      "Ġ# \"",
      "Ġğ! !",
      "ĀĀ #",
      "ĀĀ Ĝ",
      "Ā ě",
      "Ġ Ė",
      "Ā %",
      "Ġ\" ĝ",
      "Ġĝ Ğ",
      "Ġ!! !",
      "Ġ# Ğ",
      "Ġĝ \"",
      "Ġ!ğ !",
      "ĠĞ #",
      "ĠĞ ĝ",
      "ĠĠĠĠĠĠĠĠ ĠĠĠ",
      "Ġğğ ğ",
      "Ĝ !",
      "Ġğ! ğ",
      "ĠĠĠĠĠĠĠĠ ĠĠĠĠ",
      "Ā &",
      "$ ğ",
      "ĀĀ ě",
      "Ĝ ğ",
      "ğ ğ",
      "Ġ +",
      "$ !",
      "Ā Ě",
      "ĀĀ $",
      "Ġĝ ĝ",
      "! !",
      "Ġ$ \"",
      "ĀĀ Ě",
      "Ĝ \"",
      "$ \"",
      "ĀĀ %",
      "Ġ# #",
      "Ğ !",
      "$ Ğ",
      "! ğ",
      "Ĝ Ğ",
      "Ġ$ ğ",
      "Ġ# ĝ",
      "ĠĠĠĠĠĠĠĠ ĠĠ",
      "Ġ ĕ",
      "ĀĀ &",
      "Ā '",
      "Ġĝ #",
      "ĠĜ ğ",
      "ě ğ",
      "ĠĜ \"",
      "Ġ\"! ğ",
      "ĠĞğ !",
      "Ġ!ğ Ğ",
      "Ğ ğ",
      "ĀĀ (",
      "ĠĜ !",
      "ĠğĞ !",
      "\" !",
      "Ā ę",
      "Ġ!! Ğ",
      "Ġ\"ğ ğ",
      "ě !",
      "Ġ!\" ğ",
      "ĀĀ Ę",
      "# ğ",
      "$ #",
      "Ĝ ĝ",
      "Ġ$ !",
      "Ĝ #",
      "ĀĀ '",
      "ĝ ğ",
      "Ġ Ĕ",
      "ĀĀ ę",
      "ğ !",
      "Ġ ,",
      "% !",
      "Ā (",
      "ĝ \"",
      "Ġğğ \"",
      "ĠğĞ ğ",
      "ĠĞ! !",
      "% ğ",
      "Ğ \"",
      "ě \"",
      "\" ğ",
      "# !",
      "ĀĀ ė",
      "Ġğ\" !",
      "ĠĠĠĠĠĠĠĠ ĠĠĠĠĠĠĠĠ",
      "# \"",
      "$ ĝ",
      "Ā Ę",
      "Ğ Ğ",
      "Ġğ! \"",
      "% \"",
      "ĝ !",
      "ĝ Ğ",
      "Ġ\"! !",
      "Ġ!\" !",
      "Ā )",
      "Ġ!! \"",
      "ĀĀ )",
      "% Ğ",
      "Ğ ĝ",
      "ĠĞ! ğ",
      "ě Ğ",
      "ĀĀ Ė",
      "& !",
      "Ě ğ",
      "Ġ!Ğ ğ",
      "\" \"",
      "$ $",
      "Ġğ\" ğ",
      "! Ğ",
      "\" Ğ",
      "% #",
      "Ě \"",
      "Ġğğ Ğ",
      "Ā ė",
      "! \"",
      "ğ Ğ",
      "Ġ! Ĝ",
      "ĀĀ +",
      "Ġ!ğ \"",
      "ě #",
      "Ġğ Ĝ",
      "Ġ!Ğ !",
      "ĠĞğ ğ",
      "ğ \"",
      "Ġ\"! Ğ",
      "# Ğ",
      "ĠĞğ \"",
      "ĝ #",
      "! #",
      "& \"",
      "$ ĀĀ",
      "ĠĜ Ğ",
      "Ġ\"\" ğ",
      "% ĀĀ",
      "Ġ! $",
      "Ġğ! Ğ",
      "' ĀĀ",
      "Ě !",
      "ě ĝ",
      "ĠĠĠĠ ĠĠĠĠĠ",
      "& ĀĀ",
      "ĠĞĞ !",
      "Ġ -",
      "ĠĠĠĠĠĠĠĠ ĠĠĠĠĠ",
      "ĠĞ! \"",
      "ĀĀğ Ā",
      "! ĝ",
      "& ğ",
      "Ġ\"ğ !",
      "Ġ!Ğ Ğ",
      "% ĝ",
      "ğ #",
      "Ġ#! ğ",
      "ğ ĝ",
      "% $",
      "Ġ\"ğ Ğ",
      "Ġğ\" \"",
      "Ġ\"Ğ ğ",
      "\" #",
      "\" ĝ",
      "( ĀĀ",
      "Ġ .",
      "Ġ!\" Ğ",
      "ĠĞ Ĝ",
      "& Ğ",
      "Ā *",
      "Ġ ĀĀ",
      "Ġě Ğ",
      "ĠĞ\" !",
      "# #",
      "ĝ ĝ",
      "Ġ ē",
      "ę ğ",
      "Ĝ Ĝ",
      "Ġğ $",
      "# $",
      "Ě ĝ",
      "Ĝ $",
      "Ġ$ Ğ",
      "ĠĞĞ ğ",
      "Ě Ğ",
      "ě $",
      "Ġ#ğ ğ",
      "Ġĝ! !",
      "\" $",
      "ę Ğ",
      "Ě #",
      "Ġ\" $",
      "Ġ\"Ğ !",
      "Ġĝğ !",
      "# ĝ",
      "ę !",
      "ě ě",
      "ĠğĞ \"",
      "Ā Ė",
      "Ġ!ğ ĝ",
      "Ě Ĝ",
      "ĠĞ $",
      "Ġ\"\" !",
      "Ġ!! ĝ",
      "' !",
      "Ġě !",
      "& ĝ",
      "' \"",
      "ě Ĝ",
      "ĝ Ĝ",
      "ĀĀ ĕ",
      "# Ĝ",
      "Ġ Ā",
      "Ġ\"\" Ğ",
      "' ğ",
      "( \"",
      "ĝ $",
      "ĀĀ ,",
      "Ġ% !",
      "% Ĝ",
      "& #",
      "ğ Ĝ",
      "ĀĀĞ Ā",
      "Ġ!# ğ",
      "ĠĞğ #",
      "Ġ!\" \"",
      "Ġğ! #",
      "& $",
      "ě %",
      "Ğ #",
      "ĀĀ! Ā",
      "\" %",
      "Ę ĝ",
      "Ę ğ",
      "Ġ# $",
      "Ġ#! !",
      "Ġğ\" Ğ",
      "ĠĞĞ \"",
      "ĠĞ\" ğ",
      "Ġ!ĝ ğ",
      "Ġ#\" ğ",
      "ĠĞ! Ğ",
      "Ġĝğ ğ",
      "ĀĀ\" Ā",
      "' #",
      ") ĀĀ",
      "Ğ Ĝ",
      "Ġğ %",
      "ę ĝ",
      "ğ ě",
      "Ġ Ē",
      "Ġğğ #",
      "ĠĞğ Ğ",
      "Ġ#! Ğ",
      "Ġğ# ğ",
      "ė Ğ",
      "Ġğğ ĝ",
      "Ġ\"! ĝ",
      "ĠğĞ #",
      "& &",
      "* ĀĀ",
      "Ġğ ě",
      "ĀĀ -",
      "Ġĝ Ĝ",
      "ĠğĞ Ğ",
      "Ġ\"Ğ Ğ",
      "\" Ĝ",
      "' Ğ",
      "( !",
      "Ġĝ $",
      "Ġ$ ĝ",
      "Ġě ğ",
      "ĠĠĠĠĠĠĠĠ ĠĠĠĠĠĠĠ",
      "Ġ\"! \"",
      "Ġ#ğ !",
      "Ġ#ğ Ğ",
      "ĀĀĞ Āğ",
      "Ġĝ! \"",
      "Ġğĝ ğ",
      "ĀĀ# Ā",
      "ĠĞĝ !",
      "! $",
      "Ě $",
      "Ĝ ě",
      "ĝ %",
      "Ġ! %",
      "Ġ\"ğ \"",
      "Ġĝğ \"",
      "! Ĝ",
      "ę \"",
      "ğ %",
      "ĠĜ ĝ",
      "Ġ!! Ĝ",
      "ĀĀ! Ā!",
      "Ġ!ĝ !",
      "ĀĀĜ Ā",
      "ĠĝĞ !",
      "Ę \"",
      "Ě ě",
      "Ġ /",
      "Ġğĝ !",
      "ĀĀě Ā",
      "# %",
      "$ Ĝ",
      "Ę !",
      "Ğ ě",
      "ğ Ě",
      "ĀĀ ē",
      "Ġğ! ĝ",
      "\" ě",
      "# &",
      "Ę #",
      "ĠĞ %",
      "Ġ!Ğ \"",
      "Ġ!Ğ ĝ",
      "Ġ!ĝ Ğ",
      "& %",
      "Ğ $",
      "ğ $",
      "Ġ\" %",
      "ĠĠĠĠĠĠĠĠ ĠĠĠĠĠĠĠĠĠĠ",
      "ĠĞ! #",
      "Ġ\"\" ĝ",
      "ĀĀğ Ā\"",
      "Ġğ# !",
      "Ġ\"# ğ",
      "! %",
      "ę Ĝ",
      "ĀĀ *",
      "Ġ\"Ğ ĝ",
      "ĠĞ\" \"",
      "Ġ!# Ğ",
      "ĀĀĝ Ā",
      "ĀĀĝ Ā!",
      "Ġ\"# !",
      "Ġ\"# Ğ",
      "Ġ#Ğ Ğ",
      "' $",
      "( ğ",
      ") !",
      "ę $",
      "Ğ %",
      "Ġ Ā!",
      "Ġ! Ě",
      "Ġ! ě",
      "Ġ\" Ĝ",
      "ĠĞ ě",
      "ĀĀ /",
      "Ġ# Ĝ",
      "Ġ$ ğğ",
      "Ġ$ !ğ",
      "Ġ!ğ #",
      "Ġ!# !",
      "& Ĝ",
      "ė \"",
      "Ġğ\" #",
      "ĀĀğ Āğ",
      "ĀĀ! Āğ",
      "! ě",
      "ė ğ",
      "Ġ Āğ",
      "ĀĀ .",
      "Ġ!\" ĝ",
      "Ġĝ! ğ",
      "Ġğ# Ğ",
      "Ġ#\" !",
      "' %",
      "( #",
      "( Ğ",
      "Ę Ĝ",
      "Ę Ğ",
      "ĀĀ Ĕ",
      "Ġ!ğ Ĝ",
      "Ġ% ğ",
      "ĀĀ! Āĝ",
      "ĀĀĞ Ā!",
      "Ġ#Ğ ğ",
      "( Ĝ",
      "Ā +",
      "ę %",
      "ę ě",
      "ĝ Ě",
      "Ġ ĀĞ",
      "Ġě \"",
      "Ġ\"ğ ĝ",
      "Ġ\"Ğ \"",
      "ĀĀğ ĀĞ",
      "ĀĀ! Ā\"",
      "ĀĀĞ ĀĞ",
      "Ġ!# \"",
      "Ġğĝ Ğ",
      "Ġĝ\" !",
      "Ġĝ\" ğ",
      "ĠĞ# !",
      "$ ě",
      ") ğ",
      "ė ĝ",
      "Ġ! &",
      "ĀĀ đ",
      "ĠĠĠĠĠĠĠĠ ĠĠĠĠĠĠĠĠĠĠĠĠ",
      "Ġ\"\" \"",
      "Ġğĝ \"",
      "ĀĀĝ Ā\"",
      "Ġ\"ĝ !",
      "Ġĝĝ ğ",
      "& '",
      ") \"",
      "ę Ě",
      "ĝ ě",
      "ĀĀ Ē",
      "Ġ# %",
      "Ġ$ #",
      "Ġ\"ğ Ĝ",
      "Ġ!Ğ #",
      "Ġğ# \"",
      "ĀĀ\" Āğ",
      "' &",
      "( %",
      "( &",
      "Ę $",
      "ę #",
      "Ġ 0",
      "Ġ Āĝ",
      "Ġ! $ğ",
      "ĠĜ #",
      "Ġ!! #",
      "Ġ\"! Ĝ",
      "ĀĀğ Ā#",
      "Ġ#ğ ĝ",
      "ĀĀ! ĀĞ",
      "Ġ#\" Ğ",
      "Ġ#Ğ !",
      "ĠĜğ \"",
      "! &",
      "% %",
      "' Ĝ",
      "( $",
      "Ĝ Ě",
      "Ġ đ",
      "Ġ Ā\"",
      "Ġ ĀĜ",
      "Ġ# ě",
      "Ġ% Ğ",
      "Ġğ! $",
      "ĀĀĝ Ā#",
      "ĀĀĜ Ā!",
      "Ġ## ğ",
      "\" &",
      "ė !",
      "Ġ\" $ğ",
      "Ġ$ Ğ!",
      "ĠĜ !!",
      "Ġ\"! #",
      "ĠğĞ ĝ",
      "Ġ\"Ğ Ĝ",
      "Ġ#! ĝ",
      "ĀĀĞ Ā\"",
      "ĀĀĝ Āğ",
      "ĀĀĝ ĀĞ",
      "Ġ\"ĝ ğ",
      "Ġ$\" Ğ",
      "$ %",
      ", ĀĀ",
      "Ġ\" ě",
      "ĠĜ Ĝ",
      "Ġě ĝ",
      "ĠĞ! ĝ",
      "ĠĞ\" Ğ",
      "ĀĀğ Ā!",
      "ĀĀ! ĀĜ",
      "ĀĀĞ ĀĜ",
      "ĀĀ\" Ā!",
      "ĀĀ\" Āĝ",
      "ĀĀ# Ā\"",
      "ĠĞ# \"",
      "Ġĝĝ !",
      "ĀĀ% Ā",
      "' '",
      "' ĝ",
      "( ĝ",
      "* !",
      "Ġ Āě",
      "Ġ$ $",
      "Ġ$ Ğğ",
      "Ġ!ğ $",
      "Ġ% \"",
      "ĠĞĞ #",
      "ĠĞĞ Ğ",
      "ĀĀğ ĀĜ",
      "Ġĝğ #",
      "ĀĀ# Ā!",
      "ĀĀĚ Ā",
      "ĀĀ& Ā",
      "# Ě",
      "# ě",
      "% &",
      "' (",
      ") $",
      "* #",
      "Ė ĝ",
      "Ė Ğ",
      "Ę ę",
      "Ę ě",
      "ğ &",
      "Ġ Đ",
      "Ġ Ā#",
      "Ġ! $!",
      "Ġğ $ğ",
      "ĀĀ! Ā#",
      "Ġ\"ĝ \"",
      "Ġ\"ĝ Ğ",
      "ĠĝĞ \"",
      "ĠĝĞ ğ",
      "Ġ$ğ Ğ",
      "! Ě",
      "+ ĀĀ",
      "ę ę",
      "Ğ Ě",
      "ğ '",
      "ğ ę",
      "Ġğ $!",
      "ĠĞ Ĝ!",
      "Ġğğ $",
      "ĠĞ\" #",
      "ĀĀĞ Āĝ",
      "Ġĝ! #",
      "Ġ!ĝ \"",
      "ĀĀĝ Āĝ",
      "ĀĀ\" ĀĞ",
      "Ġ\"# ĝ",
      ") %",
      "Ė !",
      "ė Ĝ",
      "Ě %",
      "Ě &",
      "ĝ &",
      "Ġ Ā$",
      "Ġ! Ĝğ",
      "Ġ\" $Ğ",
      "Ġĝ %",
      "Ġ$ %",
      "Ġğğ Ĝ",
      "Ġğ! %",
      "ĠĚ ğ",
      "ĠğĞ Ĝ",
      "ĠĞ! $",
      "Ġğ\" ĝ",
      "Ġ#ğ \"",
      "ĀĀĞ Ā$",
      "ĀĀ\" Ā$",
      "ĀĀ$ Ā",
      "Ġ$\" !",
      "Ġ## Ğ",
      "ĀĀĘ Ā",
      ") #",
      "ĕ \"",
      "Ė \"",
      "ė #",
      "ė $",
      "Ě Ě",
      "Ĝ %",
      "Ġ! Ĝ!",
      "ĠĞ Ĝğ",
      "Ġ# $Ğ",
      "ĠĜ ğğ",
      "Ġğ! Ĝ",
      "Ġ!\" #",
      "ĀĀğ Āĝ",
      "ĀĀğ Āě",
      "Ġ#! \"",
      "ĀĀĞ Ā#",
      "Ġ!# ĝ",
      "Ġğ# ĝ",
      "ĀĀ# Āğ",
      "ĠĝĞ #",
      "Ġĝĝ Ğ",
      "Ġ$\" ğ",
      "Ġ#ĝ Ğ",
      "Ġĝ# !",
      "ĠĜğ !",
      "Ġ$! Ğ",
      "$ &",
      ") )",
      "* \"",
      "* $",
      "+ !",
      "Ė ğ",
      "ğ Ę",
      "Ġ\" &",
      "ĠĞ Ĝ\"",
      "Ġĝ Ĝ!",
      "Ġ$ ě",
      "Ġğğ %",
      "ĠĚ ĝ",
      "ĀĀğ Ā$",
      "Ġ#ğ Ĝ",
      "Ġ#Ğ ĝ",
      "Ġĝ\" \"",
      "Ġ## !",
      "ĀĀ' Ā",
      "ĀĀę Ā",
      "# ĀĀ",
      ") ĝ",
      "ĕ !",
      "ĕ ĝ",
      "ė Ě",
      "Ę %",
      "Ğ &",
      "Ġ! $\"",
      "Ġğ Ĝ!",
      "Ġğ Ĝğ",
      "Ġ\" Ě",
      "Ġ\" Ĝğ",
      "Ġ# $ğ",
      "Ġ$ !!",
      "Ġě #",
      "Ġ!! $",
      "ĠĠĠĠĠĠĠĠ ĠĠĠĠĠĠĠĠĠĠĠ",
      "Ġ% #",
      "Ġğ\" $",
      "Ġ#! #",
      "Ġ#\" \"",
      "ĠĞ# ğ",
      "ĠĞĝ ğ",
      "ĀĀě Ā\"",
      "Ġĝĝ \"",
      "ĀĀĚ Āğ",
      "ĀĀ( Ā",
      "ĠĜ! \"",
      "ĠĠĠĠĠĠĠĠĠĠĠĠĠĠĠĠ ĠĠĠĠĠĠĠĠĠĠĠĠĠĠĠĠ",
      "ĀĀ+ Ā",
      "Ĕ Ĝ",
      "Ė ě",
      "ė ę",
      "Ę ĀĀ",
      "Ğ (",
      "Ğ ę",
      "Ġğ &",
      "Ġğ $\"",
      "Ġĝ $!",
      "ĠĜ $",
      "ĠĜ Ğ!",
      "ĀĀğ ĀĚ",
      "ĀĀ! Āě",
      "ĀĀĞ Āě",
      "Ġĝ! $",
      "Ġĝ! Ğ",
      "Ġ!ĝ #",
      "Ġ!ĝ ĝ",
      "Ġğ# #",
      "ĀĀ\" Ā\"",
      "ĀĀ\" Ā#",
      "ĀĀĜ Ā\"",
      "ĀĀĜ ĀĜ",
      "ĀĀ$ Ā!",
      "ĀĀĚ Ā!",
      "\" Ě",
      "' ě",
      "( ě",
      ") (",
      "* Ğ",
      "Ė Ĝ",
      "ė &",
      "Ġ! ěğ",
      "Ġğ $Ğ",
      "Ġĝ ě",
      "Ġ$ Ĝ",
      "ĠĜ !ğ",
      "ĠĜ ĝ!",
      "Ġě Ĝ",
      "Ġ% $",
      "Ġ& !",
      "ĠĚ !",
      "ĠĞğ $",
      "Ġę !",
      "ĀĀğ Ā%",
      "Ġ#ğ #",
      "ĀĀĞ Ā%",
      "Ġĝğ Ğ",
      "ĀĀ\" Āě",
      "ĀĀ# Āĝ",
      "ĀĀĜ Āĝ",
      "Ġ\"ĝ ĝ",
      "Ġĝ\" #",
      "ĠĞ# #",
      "Ġ$\" ĝ",
      "ĀĀ% Āğ",
      "Ġ$ğ !",
      "Ġ#ĝ ğ",
      "\" ę",
      "% '",
      "% Ě",
      "* (",
      "ĕ Ĝ",
      "ė ě",
      "ě &",
      "Ĝ Ę",
      "Ĝ ę",
      "Ġğ Ĝ\"",
      "Ġ\" ĜĞ",
      "ĠĞ $!",
      "Ġ$ #ğ",
      "ĠĜ ě",
      "ĠĜ ĝğ",
      "Ġě ğ\"",
      "ĠğĞ $",
      "Ġ\"ğ #",
      "Ġ\"ğ $",
      "Ġ#! Ĝ",
      "ĀĀĞ Ā&",
      "ĀĀĝ ĀĜ",
      "ĀĀ\" ĀĜ",
      "ĀĀ# ĀĞ",
      "ĀĀ# ĀĜ",
      "ĀĀĜ ĀĞ",
      "Ġĝ\" ĝ",
      "ĠĞĝ #",
      "ĀĀ$ Āĝ",
      "ĀĀ% Ā\"",
      "Ġ## \"",
      "Ġ$ğ ĝ",
      "ĀĀ& Āğ",
      "ĀĀ& Āĝ",
      "Ġĝ# \"",
      "Ġĝ# Ğ",
      "ĠĜ\" \"",
      "\" '",
      "\" Ę",
      "% ě",
      "' ĀĀě",
      "* '",
      "ĕ ĀĀ",
      "ė ė",
      "ě ĀĀ",
      "Ğ '",
      "Ġ ď",
      "Ġ! Ĝĝ",
      "Ġğ Ě",
      "Ġğ ĜĞ",
      "Ġ\" Ĝ!",
      "Ġ\" $!",
      "Ġě !!",
      "Ġ\"ğ ě",
      "Ġ!Ğ ě",
      "Ġğ\" Ĝ",
      "ĠĞĞ ĝ",
      "Ġ\"Ğ #",
      "ĠĞ\" ĝ",
      "ĀĀ! Ā%",
      "ĠĞ# ĝ",
      "ĠĞĝ Ğ",
      "ĀĀ$ Āğ",
      "ĀĀ$ Āě",
      "ĀĀ& Ā\"",
      "! '",
      "\" ĀĀ",
      "% ę",
      "& ě",
      ") &",
      ") Ğ",
      "* ğ",
      "+ '",
      "Ĕ #",
      "Ĕ ě",
      "ĕ Ě",
      "ĕ Ğ",
      "ĕ ğ",
      "Ę Ě",
      "ę &",
      "Ĝ '",
      "Ġ Ā%",
      "Ġ ĀĚ",
      "Ġ! Ĝ\"",
      "Ġ! ĜĞ",
      "ĠĞ $Ğ",
      "ĠĜ Ğğ",
      "ĠĜ ĝ\"",
      "ĠĜ ĝĞ",
      "Ġ!ğ ě",
      "Ġ% \"ğ",
      "Ġ& $",
      "Ġ& ğğ",
      "Ġ\"! ě",
      "ĠĞğ ĝ",
      "Ġ!Ğ Ĝ",
      "ĀĀ! Ā$",
      "Ġ!# #",
      "ĀĀĝ Ā$",
      "ĀĀ\" Ā&",
      "Ġ\"# Ĝ",
      "Ġ#\" ĝ",
      "ĀĀ# Ā$",
      "ĀĀĜ Āğ",
      "Ġ#Ğ \"",
      "Ġĝ\" Ğ",
      "ĀĀ$ ĀĜ",
      "ĀĀ% Ā$",
      "Ġ#ĝ !",
      "ĠĜ\" #",
      "ĠĜ\" ğ",
      "ĠĜ! #",
      "ĀĀĘ Āğ",
      "ĀĀę Āğ",
      "ĀĀ) Ā",
      "! (",
      "\" ĕ",
      "$ (",
      "+ #",
      "Ĕ ĝ",
      "Ĕ ğ",
      "ĕ #",
      "Ė #",
      "ė Ę",
      "ę ĀĀ",
      "Ĝ (",
      "Ğ )",
      "Ġ Ď",
      "Ġ ĀĘ",
      "Ġ\" %Ğ",
      "Ġ# Ĝ!",
      "Ġ# ĜĞ",
      "Ġ$ $Ğ",
      "Ġ$ Ğĝ",
      "ĠĜ Ğ\"",
      "Ġě \"ğ",
      "ĠĠĠĠĠĠĠĠ ĠĠĠĠĠĠ",
      "Ġ% ĝ",
      "Ġ% !!",
      "Ġ% \"!",
      "Ġ% \"Ğ",
      "Ġ& \"",
      "Ġ& ĝ",
      "Ġ!\" $",
      "Ġ!\" Ĝ",
      "Ġę #",
      "Ġ!Ğ $",
      "ĀĀğ Āę",
      "ĀĀğ ĀĘ",
      "ĀĀ! Ā&",
      "ĀĀĞ ĀĚ",
      "Ġ!ĝ $",
      "ĀĀĝ Ā%",
      "ĀĀĜ Ā$",
      "ĠĝĞ Ğ",
      "ĠĞĝ \"",
      "ĀĀě ĀĞ",
      "ĀĀě Ā#",
      "ĀĀ$ Ā\"",
      "ĀĀĚ Ā#",
      "ĀĀ% Ā#",
      "Ġ#ĝ ĝ",
      "Ġĝ# ğ",
      "ĠĜ\" !",
      "ĀĀę Ā!",
      "\" (",
      "$ Ě",
      "' Ę",
      "+ ĝ",
      ". ĀĀ",
      "ē ĝ",
      "Ę &",
      "Ę '",
      "ě ę",
      "Ĝ &",
      "ĝ Ę",
      "Ġ! $#",
      "Ġ! %ğ",
      "Ġğ Ĝ#",
      "Ġ\" $\"",
      "Ġ\" $ĝ",
      "ĠĞ &",
      "ĠĞ Ě",
      "Ġ$ &",
      "Ġ$ %ğ",
      "Ġ$ ĞĞ",
      "Ġ$ ĝ!",
      "Ġ$ #Ğ",
      "Ġ$ #ĝ",
      "ĠĜ Ě",
      "ĠĜ Ĝ\"",
      "Ġ% ğ!",
      "Ġ% ğĞ",
      "Ġğ! ě",
      "Ġ\"! Ě",
      "Ġ' ĝ",
      "ĠĞ! Ĝ",
      "Ġę Ğ",
      "Ġğ\" %",
      "Ġ\"Ğ $",
      "ĀĀğ Ā&",
      "Ġ#! ě",
      "ĀĀ! Āę",
      "Ġĝğ $",
      "Ġğ# Ĝ",
      "Ġğĝ #",
      "ĀĀĝ Ā&",
      "ĀĀ\" ĀĚ",
      "Ġ\"# \"",
      "Ġ#\" Ĝ",
      "ĀĀ# Ā#",
      "ĀĀĜ Ā#",
      "Ġ\"ĝ Ĝ",
      "ĠĞ# Ğ",
      "ĀĀě Āğ",
      "ĀĀ$ ĀĞ",
      "ĀĀ$ Ā#",
      "ĀĀĚ ĀĞ",
      "Ġ$ğ \"",
      "ĠĜ! Ğ",
      "# (",
      "# ę",
      "' +",
      "' Ě",
      ") '",
      ") *",
      "* +",
      ", \"",
      ", #",
      "ė ĀĀ",
      "ę ė",
      "ě Ě",
      "ğ ĕ",
      "Ġ 2",
      "Ġ Ā&",
      "Ġ! $ĝ",
      "Ġğ ě!",
      "Ġğ $#",
      "Ġ\" ěğ",
      "ĠĞ ě!",
      "ĠĞ $#",
      "Ġĝ &",
      "Ġĝ Ĝğ",
      "Ġ# &",
      "Ġ# Ě",
      "Ġ$ ĝĞ",
      "Ġ$ #Ĝ",
      "ĠĜ #!",
      "Ġě ě",
      "Ġě Ĝ!",
      "Ġě Ğğ",
      "Ġ% Ğ!",
      "Ġ& Ğ",
      "Ġ' !",
      "Ġę ğ",
      "ĠĞ\" $",
      "ĀĀğ Ā'",
      "ĀĀ! ĀĚ",
      "Ġ!# Ĝ",
      "Ġğĝ ĝ",
      "ĀĀĝ Āě",
      "ĀĀĝ ĀĚ",
      "Ġ#\" #",
      "ĀĀ# Ā&",
      "ĀĀĜ Āě",
      "Ġ\"ĝ #",
      "Ġ\"ĝ $",
      "ĀĀě Ā$",
      "ĀĀĚ Ā\"",
      "Ġ## ĝ",
      "ĀĀ& Ā!",
      "ĠĜğ #",
      "ĀĀ( Ā\"",
      "ĀĀĘ ĀĜ",
      "Ġ$! \"",
      "ĀĀ' Āğ",
      "ĀĀ' Ā\"",
      "ĀĀė Ā",
      "ĀĀĖ Ā$",
      "! )",
      "! ę",
      "$ ę",
      "( *",
      ") -",
      ") ě",
      ") ĀĀ)",
      "* ĝ",
      "+ %",
      ", *",
      "- ĀĀ",
      "Ā -",
      "ĕ $",
      "Ė $",
      "Ė ę",
      "Ě ĀĀ",
      "Ĝ Ĕ",
      "Ĝ ė",
      "ĝ Ė",
      "ĝ ĀĀ",
      "Ğ ĀĀ",
      "Ġ 1",
      "Ġ Āę",
      "Ġ! '",
      "Ġ! $Ğ",
      "Ġğ %ğ",
      "Ġ\" ę",
      "Ġ\" Ĝ\"",
      "Ġ\" &Ğ",
      "ĠĞ $ğ",
      "ĠĞ ĜĞ",
      "ĠĞ ěğ",
      "ĠĞ ěĝ",
      "ĀĀ Đ",
      "Ġĝ ę",
      "Ġĝ Ĝ#",
      "Ġ# Ĝğ",
      "Ġ# $!",
      "Ġ$ Ĝ!",
      "Ġ$ $!",
      "Ġ$ ěğ",
      "ĠĜ ěğ",
      "ĠĜ ĝĝ",
      "Ġě Ğ!",
      "Ġě !ğ",
      "Ġě #\"",
      "Ġě ĝĞ",
      "Ġě !#",
      "Ġ!! ě",
      "Ġğğ &",
      "Ġğğ ě",
      "Ġ% $ğ",
      "Ġ% !ğ",
      "Ġ& ğ",
      "ĠĚ \"",
      "ĠĚ Ğ",
      "Ġ' \"",
      "Ġ!\" ě",
      "Ġ\"\" #",
      "Ġĝğ ĝ",
      "Ġĝ! %",
      "Ġĝ! ĝ",
      "Ġ!ĝ ě",
      "Ġğĝ $",
      "ĀĀ\" Āę",
      "ĀĀĜ ĀĚ",
      "Ġ#Ğ ě",
      "ĠĞĝ $",
      "ĀĀě ĀĜ",
      "ĀĀě Ā'",
      "Ġĝĝ #",
      "Ġ$\" \"",
      "Ġ$\" Ĝ",
      "ĀĀĚ Ā&",
      "ĀĀ% ĀĞ",
      "ĀĀ& ĀĜ",
      "Ġĝ# ĝ",
      "ĀĀ( Āĝ",
      "ĀĀ( ĀĚ",
      "ĀĀĘ Ā\"",
      "Ġ$! ĝ",
      "ĀĀ' ĀĞ",
      "ĀĀ) Ā#",
      "ĀĀĖ Ā\"",
      "ĀĀ+ Ā\"",
      "# )",
      "% Ę",
      "' *",
      "( )",
      "( Ě",
      ") Ĝ",
      "* %",
      "* *",
      "+ ğ",
      ", $",
      "ē ę",
      "Ė Ě",
      "ę Ė",
      "Ě ę",
      "ě ė",
      "ě Ę",
      "Ĝ ĕ",
      "Ĝ ĀĀ",
      "ĝ ,",
      "Ġ Ā'",
      "Ġ! ě!",
      "Ġ! %!",
      "Ġ! %\"",
      "Ġ! %Ğ",
      "Ġğ %!",
      "Ġğ %Ğ",
      "Ġ\" ě!",
      "ĠĞ $\"",
      "ĀĀ ď",
      "ĠĜ ě#",
      "Ġě %",
      "Ġě Ğ\"",
      "Ġ!ğ %",
      "Ġ% ğğ",
      "Ġ% ĝğ",
      "Ġ% !Ğ",
      "Ġ% #Ğ",
      "Ġğ! Ě",
      "Ġ& #",
      "Ġ& %",
      "Ġ& ğ!",
      "Ġ& ğĝ",
      "ĠĚ ğ\"",
      "Ġ!\" %",
      "Ġę \"",
      "ĠĘ Ğ",
      "ĠĘ ğ",
      "Ġ\"\" Ĝ",
      "Ġ\"Ğ %",
      "ĠĞ\" ě",
      "ĠĞ\" Ĝ",
      "ĀĀĞ ĀĘ",
      "Ġĝğ Ĝ",
      "ĀĀ\" Ā%",
      "Ġ#\" ě",
      "ĀĀ# Ā%",
      "ĀĀĜ Ā%",
      "ĠĠĠĠĠĠĠĠĠĠĠĠ ĠĠĠĠĠ",
      "ĀĀě Ā%",
      "ĀĀ$ Ā%",
      "ĀĀĚ Āĝ",
      "ĀĀ% ĀĜ",
      "ĀĀ% Ā&",
      "Ġ$ğ #",
      "Ġ$ğ ě",
      "Ġ#ĝ \"",
      "ĀĀ& ĀĞ",
      "ĀĀ& Ā#",
      "ĠĜğ ĝ",
      "ĠĜğ Ğ",
      "ĀĀ( Ā#",
      "ĀĀĘ Ā#",
      "ĀĀę Āĝ",
      "ĀĀę Āě",
      "ĀĀė Ā!",
      "ĀĀ+ Āğ",
      "# '",
      "$ Ė",
      "' -",
      "+ &",
      "+ *",
      "- '",
      "Ē !",
      "ē Ğ",
      "Ĕ \"",
      "Ĕ ĕ",
      "Ĕ Ě",
      "Ė ė",
      "ė ĕ",
      "Ę Ė",
      "Ę ė",
      "Ę Ę",
      "ĝ (",
      "ĝ ę",
      "Ğ ė",
      "Ğ Ę",
      "ğ ė",
      "Ġ! ĀĀ",
      "Ġ! &!",
      "Ġ! Ěğ",
      "Ġ! $$",
      "Ġ! %#",
      "Ġğ ę",
      "Ġğ ěğ",
      "Ġğ Ĝĝ",
      "Ġ\" '",
      "Ġ\" $#",
      "Ġ\" ě\"",
      "Ġ\" %\"",
      "Ġĝ (",
      "Ġĝ Ĝ\"",
      "Ġĝ ĜĞ",
      "Ġĝ %!",
      "Ġ# '",
      "Ġ# %Ğ",
      "Ġ$ ĝğ",
      "Ġ$ ĝ\"",
      "Ġ$ #\"",
      "Ġ$ $ĝ",
      "ĠĜ &",
      "ĠĜ ĜĞ",
      "ĠĜ #ğ",
      "ĠĜ Ğĝ",
      "ĠĜ ĝ#",
      "Ġě $",
      "Ġě Ĝğ",
      "Ġě ğğ",
      "Ġě !Ğ",
      "Ġ% #ğ",
      "Ġ% Ğĝ",
      "Ġ% ğě",
      "Ġ& Ĝĝ",
      "Ġ& ĝğ",
      "Ġ& #!",
      "ĠĚ Ĝ",
      "ĠĚ ğğ",
      "ĠĚ \"#",
      "Ġ\"! $",
      "ĠĞğ %",
      "ĠĞ! ě",
      "Ġę ĝ",
      "Ġ( !",
      "Ġ( \"",
      "ĠĞĞ Ĝ",
      "ĠĞ\" %",
      "ĀĀğ Ā(",
      "ĀĀğ Āė",
      "ĀĀ! Ā'",
      "ĀĀ! ĀĘ",
      "ĀĀĞ Ā'",
      "Ġĝğ %",
      "Ġ!ĝ Ĝ",
      "Ġğ# $",
      "ĀĀĝ Ā'",
      "ĀĀĝ Ā)",
      "ĀĀ\" Ā'",
      "ĀĀ\" Ā)",
      "ĀĀ# Āę",
      "ĀĀ# ĀĖ",
      "ĀĀĜ Ā&",
      "Ġĝ\" $",
      "ĠĞ# $",
      "ĀĀě Ā!",
      "ĀĀě Āĝ",
      "ĀĀ$ Ā&",
      "Ġ$\" #",
      "ĀĀĚ ĀĜ",
      "ĀĀ% Āĝ",
      "ĀĀ% Āě",
      "Ġ$ğ Ĝ",
      "Ġĝ# #",
      "ĠĜ\" $",
      "ĀĀ( Ā$",
      "ĠĜ! $",
      "Ġ$! Ĝ",
      "ĀĀ' Ā!",
      "ĀĀ' Āĝ",
      "ĀĀė Ā%",
      "ĀĀė ĀĚ",
      "ĀĀ) ĀĜ",
      "ĀĀĖ Ā!",
      "ĀĀĖ ĀĞ",
      "Ġ!Ĝ Ĝ",
      "ĀĀ+ ĀĞ",
      "ĠĜĞ #",
      "ĀĀ, Ā\"",
      "ĀĀ- Ā",
      "ĠĠĠĠĠĠĠĠĠĠĠĠĠĠĠĠĠĠĠĠ ĠĠĠĠĠ",
      "$ '",
      "$ Ę",
      "& (",
      "' )",
      "( ,",
      ") ,",
      "* ě",
      "+ $",
      "+ (",
      "+ ě",
      "+ Ĝ",
      ", (",
      "- !",
      "- #",
      "- *",
      ". $",
      ". &",
      "Ā ,",
      "Ē ĝ",
      "Ĕ Ğ",
      "ė %",
      "ė Ė",
      "Ę Ē",
      "ĝ ē",
      "ğ )",
      "Ġ Ā(",
      "Ġ! &\"",
      "Ġ! &ğ",
      "Ġ! %ĝ",
      "Ġğ ě\"",
      "Ġğ %\"",
      "Ġğ ěĞ",
      "Ġğ %#",
      "ĠĞ Ĝ#",
      "ĠĞ $ĝ",
      "ĠĞ Ěğ",
      "ĠĞ ě#",
      "ĠĞ %Ĝ",
      "Ġĝ Ě",
      "Ġĝ $\"",
      "Ġĝ ě!",
      "Ġĝ Ĝĝ",
      "Ġĝ $ĝ",
      "Ġĝ %\"",
      "Ġ# Ę",
      "Ġ# &ğ",
      "Ġ$ $ğ",
      "Ġ$ Ĝğ",
      "Ġ$ Ĝĝ",
      "Ġ$ %ĝ",
      "ĠĜ Ĝ!",
      "ĠĜ $ğ",
      "Ġě #ğ",
      "Ġě ğ!",
      "Ġě ĝ\"",
      "Ġ% Ě",
      "Ġ% ě",
      "Ġ% \"\"",
      "Ġ% !ĝ",
      "Ġ% ğĝ",
      "Ġ& ě",
      "Ġ& Ĝ",
      "Ġ& \"ğ",
      "Ġ& !Ğ",
      "Ġ& ğě",
      "ĠĚ #",
      "ĠĚ \"Ğ",
      "ĠĚ \"%",
      "Ġ' #",
      "ĠĞğ Ě",
      "ĠĞğ ě",
      "Ġğ\" ě",
      "ĠĘ !",
      "Ġ( #",
      "ĀĀ! Ā(",
      "Ġĝ! Ĝ",
      "ĀĀĝ Ā*",
      "ĀĀ# ĀĚ",
      "ĀĀ# Ā'",
      "ĀĀ# Āė",
      "ĀĀĜ Ā'",
      "ĀĀĜ Ā)",
      "Ġ#Ğ Ĝ",
      "Ġĝ\" Ĝ",
      "ĠĞ# Ĝ",
      "ĠĞĝ ě",
      "ĠĞĝ ĝ",
      "ĀĀě Āě",
      "ĀĀě Ā&",
      "Ġĝĝ ĝ",
      "ĀĀĚ Ā$",
      "Ġ#ĝ #",
      "ĀĀ& Ā&",
      "ĠĜ\" ĝ",
      "ĀĀ( Āğ",
      "ĀĀ( Ā!",
      "ĀĀĘ Ā!",
      "ĀĀĘ ĀĞ",
      "ĀĀĘ Āě",
      "ĀĀ' Ā#",
      "ĀĀ' Ā$",
      "ĀĀę Ā\"",
      "ĀĀę ĀĞ",
      "ĀĀė Āě",
      "ĀĀė Ā&",
      "ĀĀ) ĀĞ",
      "ĀĀ) Ā%",
      "ĠğĜ Ĝ",
      "ĠĀĀ -",
      "Ġě! $",
      "ĀĀĕ Āğ",
      "Ġ%! ě",
      "Ġ%! Ĝ",
      "! Ę",
      "# Ę",
      "% ĀĀğĀ",
      "' ė",
      "( '",
      "( -",
      "( ĕ",
      "* &",
      "+ \"",
      "+ )",
      "+ +",
      ", )",
      ", Ğ",
      "- )",
      ". ğ",
      "/ #",
      "/ ĀĀ",
      "č Ġ",
      "Ē ě",
      "ē #",
      "ē Ę",
      "ē ě",
      "ē ĀĀ",
      "Ĕ Ę",
      "Ĕ ĀĀ",
      "ĕ %",
      "ĕ Ĕ",
      "ė '",
      "Ę ĕ",
      "Ě )",
      "Ě Ę",
      "ě )",
      "ě ĕ",
      "ĝ ė",
      "Ġ 3",
      "Ġ 4",
      "Ġ ĀĀğĀ",
      "Ġ! (",
      "Ġ! ě\"",
      "Ġ! Ě!",
      "Ġğ (",
      "Ġğ Ę",
      "Ġğ $ĝ",
      "Ġğ $$",
      "Ġğ Ě!",
      "Ġğ ěĝ",
      "Ġğ ę!",
      "Ġ\" %!",
      "Ġ\" Ěğ",
      "Ġ\" ĜĜ",
      "ĠĞ ę",
      "ĠĞ &ğ",
      "ĀĀ ;",
      "Ġĝ Ě\"",
      "Ġ# Ĝ\"",
      "Ġ# Ĝĝ",
      "Ġ# %ğ",
      "Ġ# $ĝ",
      "Ġ# %\"",
      "Ġ# Ěğ",
      "Ġ$ $\"",
      "Ġ$ ĜĞ",
      "Ġ$ &ğ",
      "Ġ$ $Ĝ",
      "ĠĜ %",
      "ĠĜ $\"",
      "ĠĜ #\"",
      "Ġě ĜĞ",
      "Ġě \"\"",
      "Ġě \"Ğ",
      "Ġě !\"",
      "Ġě \"#",
      "Ġ!ğ Ě",
      "Ġ% Ĝ",
      "Ġ% Ĝ!",
      "Ġ% ĜĞ",
      "Ġ% Ğğ",
      "Ġ% #!",
      "Ġ% ĞĞ",
      "Ġ% ĝ!",
      "Ġ% Ğě",
      "Ġ& !!",
      "Ġ& !ğ",
      "Ġ& Ğğ",
      "Ġ& #ğ",
      "Ġ& ğĞ",
      "ĠĚ $",
      "ĠĚ &",
      "ĠĚ !!",
      "ĠĚ Ğ!",
      "ĠĚ ĝğ",
      "Ġ' #Ğ",
      "ĠğĞ ě",
      "Ġ!Ğ %",
      "ĠĘ ĝ",
      "Ġ( ĝ",
      "Ġ\"\" $",
      "ĠĞĞ $",
      "ĠĞĞ ě",
      "Ġ#ğ ę",
      "Ġ#ğ Ě",
      "Ġ#ğ ě",
      "ĀĀĞ Ā(",
      "ĀĀĞ Āė",
      "Ġ!# $",
      "ĀĀĝ Āė",
      "ĀĀ\" ĀĘ",
      "ĀĀĜ Āę",
      "ĀĀĜ Ā(",
      "ĀĀĜ Āė",
      "ĠĝĞ $",
      "ĠĝĞ %",
      "Ġĝ\" %",
      "ĀĀ$ ĀĚ",
      "Ġĝĝ ě",
      "ĀĀĚ Ā%",
      "ĀĀĚ ĀĚ",
      "ĀĀĚ Ā(",
      "ĀĀ% Ā!",
      "ĀĀ% ĀĚ",
      "Ġ## #",
      "Ġ## Ĝ",
      "Ġ#ĝ Ĝ",
      "ĠĜ\" Ğ",
      "ĀĀ( ĀĞ",
      "ĀĀ( ĀĜ",
      "ĀĀ( Āě",
      "ĀĀ( Ā%",
      "ĀĀ( Ā'",
      "ĀĀĘ Ā&",
      "ĀĀ' Āę",
      "ĀĀę ĀĜ",
      "ĀĀė Āğ",
      "ĀĀė Ā\"",
      "ĀĀė ĀĞ",
      "ĀĀė ĀĜ",
      "ĀĀė Ā$",
      "ĠĠĠĠĠĠĠĠĠĠĠĠĠĠĠĠ ĠĠĠĠĠĠ",
      "ĠĠĠĠĠĠĠĠĠĠĠĠĠĠĠĠ ĠĠĠĠĠĠĠĠĠĠĠ",
      "ĀĀĖ Ā",
      "ĀĀĖ Āĝ",
      "ĀĀ+ Ā#",
      "ĠĜĞ $",
      "%ĀĀ *",
      "&ĀĀ Ĕ",
      "ĠěĞ %",
      "Ġ\"$ Ĝ",
      "Ġě! %",
      "ĀĀē Āĝ",
      "ĀĀ* Ā",
      "ĀĀ/ Ā",
      "! ė",
      "# Ė",
      "# ė",
      "$ )",
      "$ /",
      "% (",
      "% )",
      "& )",
      "& +",
      "& ė",
      "& ę",
      "( (",
      "( ę",
      "* (ĀĀ",
      "+ ,",
      "+ Ğ",
      "- %",
      "- Ğ",
      "- ğ",
      "/ !",
      "/ \"",
      "/ (",
      "Ā .",
      "ď Ā!",
      "đ ę",
      "Ē ę",
      "Ē Ğ",
      "Ē ğ",
      "ē !",
      "ē Ě",
      "Ĕ !",
      "Ĕ Ē",
      "Ė %",
      "Ė &",
      "Ė )",
      "Ė Ę",
      "Ė ĀĀ",
      "Ę Ĕ",
      "ę '",
      "Ě ĕ",
      "Ě ė",
      "ě '",
      "ě Ė",
      "Ĝ )",
      "Ĝ .",
      "ĝ '",
      "ğ (",
      "Ġ Āė",
      "Ġ! Ĝ#",
      "Ġ! ěĞ",
      "Ġ! ěĝ",
      "Ġğ '",
      "Ġğ ě#",
      "Ġğ %ĝ",
      "Ġğ Ěĝ",
      "Ġ\" Ĝĝ",
      "Ġ\" Ě\"",
      "Ġ\" %Ĝ",
      "Ġ\" Ĝě",
      "ĠĞ %!",
      "ĠĞ ě\"",
      "ĠĞ &!",
      "ĠĞ $$",
      "ĠĞ %#",
      "ĠĞ %$",
      "ĠĞ ę!",
      "ĠĞ &#",
      "ĀĀ <",
      "ĀĀ Ĉ",
      "Ġĝ ė",
      "Ġĝ &Ğ",
      "Ġ# ĀĀ",
      "Ġ# ě#",
      "Ġ# &\"",
      "Ġ# %ĝ",
      "Ġ# ĜĜ",
      "Ġ# Ěĝ",
      "Ġ$ ę",
      "Ġ$ ĀĀ",
      "Ġ$ Ĝ\"",
      "Ġ$ ě!",
      "Ġ$ Ĝ#",
      "Ġ$ Ğ\"",
      "Ġ$ %Ğ",
      "Ġ$ ěĞ",
      "Ġ$ &!",
      "Ġ$ ĝĝ",
      "Ġ$ ĜĜ",
      "Ġ$ ĝĜ",
      "ĠĜ ĞĞ",
      "ĠĜ Ě!",
      "ĠĜ #ĝ",
      "Ġě ě!",
      "Ġě ĞĞ",
      "Ġě ĝ!",
      "Ġě Ğĝ",
      "Ġě ğ#",
      "Ġ!! Ę",
      "Ġ% $!",
      "Ġ% $Ğ",
      "Ġ% %ğ",
      "Ġ% ĝĞ",
      "Ġ% %Ğ",
      "Ġ% \"ĝ",
      "Ġ% \"Ĝ",
      "Ġğ! &",
      "Ġ& &",
      "Ġ& Ğĝ",
      "Ġ& \"ĝ",
      "ĠĚ ě",
      "ĠĚ $\"",
      "ĠĚ Ğ\"",
      "ĠĚ $ĝ",
      "ĠĚ !\"",
      "ĠĚ ğĞ",
      "Ġ' '",
      "Ġ' (",
      "Ġ' ě",
      "Ġ' \"!",
      "Ġ' Ğ\"",
      "Ġ' #\"",
      "Ġ' !Ğ",
      "Ġ' \"Ğ",
      "Ġę Ĝ",
      "Ġę Ğ\"",
      "ĠĘ #",
      "Ġ\"\" ě",
      "Ġ\"Ğ ě",
      "ĠĞ\" Ě",
      "ĀĀğ Ā)",
      "ĀĀ! ĀĖ",
      "Ġ) ğ",
      "ĀĀĝ Ā(",
      "ĀĀ\" Āė",
      "Ġ\"# #",
      "ĀĀ# ĀĘ",
      "ĀĀĜ ĀĘ",
      "Ġ\"ĝ ě",
      "ĠĝĞ Ĝ",
      "Ġ#Ğ #",
      "ĠĞ# ě",
      "ĀĀ$ ĀĖ",
      "Ġĝĝ $",
      "!! ĀĀ",
      "ĀĀĚ Āě",
      "ĀĀĚ Ā)",
      "ĀĀ% Ā'",
      "ĀĀ% ĀĘ",
      "Ġ## $",
      "Ġ$ğ $",
      "Ġ#ĝ %",
      "ĀĀ& Ā$",
      "ĀĀ& Āě",
      "ĀĀ& Ā%",
      "ĀĀ& Āę",
      "Ġĝ# $",
      "ĀĀ( Ā&",
      "ĠĜ! %",
      "ĀĀĘ Āĝ",
      "ĀĀĘ Ā%",
      "ĀĀ' Āě",
      "ĀĀę Ā$",
      "%! ĀĀ",
      "#! ĀĀ",
      "ĀĀė Ā#",
      "ĀĀė Āĝ",
      "ĠĠĠĠĠĠĠĠĠĠĠĠĠĠĠĠ ĠĠĠĠĠĠĠĠĠĠ",
      "ĀĀ) Ā!",
      "ĀĀ) Āĝ",
      "ĀĀĖ Āğ",
      "ĀĀĖ Ā(",
      "ĀĀ+ ĀĜ",
      "ĠğĜ $",
      "$ĀĀ ē",
      "%ĀĀ -",
      "'ĀĀ *",
      "ĠĀĀ *",
      "Ġğ$ Ĝ",
      "Ġě! ě",
      "ĀĀĕ Ā!",
      "ĀĀĕ ĀĞ",
      "ĀĀ, Ā",
      "ĀĀ, Āğ",
      "ĀĀ/ Ā!",
      "ĀĀđ Ā",
      "\" Ĝ!",
      "\" ěĞ",
      "# ē",
      "# ĕ",
      "$ ĀĀğĀ$",
      "% *",
      "% ,",
      "& Ę",
      "& Ě",
      "' ę",
      "' ĀĀ!Āĝ",
      "( ĀĀ)",
      "* Ě",
      "+ -",
      "+ &ĀĀ",
      ", &",
      ", +",
      ", ĝ",
      "- \"",
      ". \"",
      ". #",
      "/ ,",
      "/ ğ",
      "Ā ē",
      "Ā ĕ",
      "Ď ĀĞ",
      "Đ ĝ",
      "Đ Ā$",
      "đ ğ",
      "Ē Ě",
      "ē $",
      "ē ĕ",
      "Ĕ $",
      "Ĕ ė",
      "ĕ &",
      "ĕ ĕ",
      "ĕ Ę",
      "ĕ ě",
      "Ė Ė",
      "ę Ę",
      "ě đ",
      "ě ē",
      "ě Ĕ",
      "Ĝ Ė",
      "ğ ē",
      "ğ Ė",
      "ğ !!",
      "Ġ 5",
      "Ġ Ā)",
      "Ġ Ā*",
      "Ġ ĀĀ!Ā\"",
      "Ġ ĀĀĞĀĝ",
      "Ġ! Ě\"",
      "Ġ! &Ğ",
      "Ġ! ĚĞ",
      "Ġ! ěĜ",
      "Ġ! 'ğ",
      "Ġ! &#",
      "Ġ! ě%",
      "Ġ! Ęĝ",
      "Ġ! Ęğ",
      "Ġğ Ěğ",
      "Ġğ &\"",
      "Ġğ &ĝ",
      "Ġ\" Ę",
      "Ġ\" Ĝ#",
      "Ġ\" %ğ",
      "Ġ\" ěĞ",
      "Ġ\" %#",
      "Ġ\" &\"",
      "Ġ\" &ğ",
      "Ġ\" Ĝ$",
      "Ġ\" ěĜ",
      "Ġ\" ėĞ",
      "Ġ\" &&",
      "ĠĞ )",
      "ĠĞ Ę",
      "ĠĞ %ğ",
      "ĠĞ %\"",
      "ĠĞ ěĞ",
      "ĠĞ %ĝ",
      "ĠĞ ĚĞ",
      "ĠĞ 'ğ",
      "ĠĞ ęĝ",
      "ĠĞ ęĜ",
      "ĀĀ :",
      "ĀĀ >",
      "ĀĀ Ą",
      "ĀĀ ą",
      "ĀĀ ć",
      "Ġĝ $ğ",
      "Ġĝ %ğ",
      "Ġĝ ě#",
      "Ġĝ '\"",
      "Ġ# %!",
      "Ġ# ě\"",
      "Ġ# $$",
      "Ġ# &Ğ",
      "Ġ# ěĜ",
      "Ġ# '&",
      "Ġ$ '",
      "Ġ$ $#",
      "Ġ$ %!",
      "Ġ$ #!",
      "Ġ$ ěĝ",
      "ĠĜ Ĝğ",
      "ĠĜ $#",
      "ĠĜ Ĝĝ",
      "ĠĜ Ĝ#",
      "ĠĜ %!",
      "ĠĜ %ğ",
      "ĠĜ %Ğ",
      "ĠĜ %#",
      "ĠĜ ěĝ",
      "ĠĜ ##",
      "ĠĜ ęğ",
      "ĠĜ Ĝ$",
      "Ġě \"!",
      "Ġě $#",
      "Ġě Ĝ#",
      "Ġě ĝğ",
      "Ġě $$",
      "Ġě ğĞ",
      "Ġě ĝ#",
      "Ġě ğĝ",
      "Ġě \"ĝ",
      "Ġě ęğ",
      "Ġě \"$",
      "Ġ!! &",
      "Ġğğ ę",
      "Ġ% Ĝğ",
      "Ġ% Ĝ\"",
      "Ġ% ě\"",
      "Ġ% $ĝ",
      "Ġ% !\"",
      "Ġ% ě#",
      "Ġ% #Ĝ",
      "Ġ% ğĜ",
      "Ġ& '",
      "Ġ& $!",
      "Ġ& \"!",
      "Ġ& ě!",
      "Ġ& ĞĞ",
      "Ġ& ğ\"",
      "Ġ& #Ğ",
      "Ġ& !ĝ",
      "Ġ& !ě",
      "ĠĚ $ğ",
      "ĠĚ ĜĞ",
      "ĠĚ ğ!",
      "ĠĚ %!",
      "ĠĚ ĝ\"",
      "ĠĚ ğ#",
      "ĠĚ ę!",
      "ĠĚ ğě",
      "ĠĚ Ğě",
      "Ġ' $",
      "Ġ' Ĝ",
      "Ġ' Ğ",
      "Ġ' !!",
      "Ġ' ěğ",
      "Ġ' ĝ\"",
      "Ġ' !ĝ",
      "ĠğĞ %",
      "ĠĞğ Ĝ",
      "ĠĞ! %",
      "ĠĞ! '",
      "ĠĞ! Ě",
      "Ġę Ĝ\"",
      "Ġ\"ğ Ę",
      "Ġ\"ğ ę",
      "Ġğ\" Ě",
      "ĠĘ \"",
      "ĠĘ %",
      "ĠĘ '",
      "ĠĘ Ĝ",
      "Ġ( !ĝ",
      "Ġ\"\" Ě",
      "ĠĞĞ ę",
      "Ġ\"Ğ ę",
      "Ġ\"Ğ Ě",
      "Ġ#! $",
      "Ġĝğ ę",
      "Ġė ğ",
      "Ā# ĝĞ",
      "Ġĝ! &",
      "Ġĝ! ě",
      "Ġ!ĝ %",
      "Ġ!ĝ &",
      "Ġ!ĝ Ě",
      "Ġğĝ ě"
    ]
  }
}