{
  "version": "1.0",
  "truncation": null,
  "padding": null,
  "added_tokens": [],
  "normalizer": null,
  "pre_tokenizer": {
    "type": "ByteLevel",
    "add_prefix_space": false,
    "trim_offsets": true,
    "use_regex": true
  },
  "post_processor": {
    "type": "ByteLevel",
    "add_prefix_space": true,
    "trim_offsets": false,
    "use_regex": true
  },
  "decoder": {
    "type": "ByteLevel",
    "add_prefix_space": true,
    "trim_offsets": true,
    "use_regex": true
  },
  "model": {
    "type": "BPE",
    "dropout": null,
    "unk_token": null,
    "continuing_subword_prefix": null,
    "end_of_word_suffix": null,
    "fuse_unk": false,
    "byte_fallback": false,
    "ignore_merges": false,
    "vocab": {
      "\u0000": 0,
      "\u0001": 1,
      "\u0002": 2,
      "\u0003": 3,
      "\u0004": 4,
      "\u0005": 5,
      "\u0006": 6,
      "\u0007": 7,
      "\b": 8,
      "\t": 9,
      "\n": 10,
      "\u000b": 11,
      "\f": 12,
      "\r": 13,
      "\u000e": 14,
      "\u000f": 15,
      "\u0010": 16,
      "\u0011": 17,
      "\u0012": 18,
      "\u0013": 19,
      "\u0014": 20,
      "\u0015": 21,
      "\u0016": 22,
      "\u0017": 23,
      "\u0018": 24,
      "\u0019": 25,
      "\u001a": 26,
      "\u001b": 27,
      "\u001c": 28,
      "\u001d": 29,
      "\u001e": 30,
      "\u001f": 31,
      " ": 32,
      "!": 33,
      "\"": 34,
      "#": 35,
      "$": 36,
      "%": 37,
      "&": 38,
      "'": 39,
      "(": 40,
      ")": 41,
      "*": 42,
      "+": 43,
      ",": 44,
      "-": 45,
      ".": 46,
      "/": 47,
      "0": 48,
      "1": 49,
      "2": 50,
      "3": 51,
      "4": 52,
      "5": 53,
      "6": 54,
      "7": 55,
      "8": 56,
      "9": 57,
      ":": 58,
      ";": 59,
      "<": 60,
      "=": 61,
      ">": 62,
      "?": 63,
      "@": 64,
      "A": 65,
      "B": 66,
      "Ā": 67,
      "Ą": 68,
      "ą": 69,
      "Ć": 70,
      "ć": 71,
      "Ĉ": 72,
      "ĉ": 73,
      "Ċ": 74,
      "ċ": 75,
      "Č": 76,
      "č": 77,
      "Ď": 78,
      "ď": 79,
      "Đ": 80,
      "đ": 81,
      "Ē": 82,
      "ē": 83,
      "Ĕ": 84,
      "ĕ": 85,
      "Ė": 86,
      "ė": 87,
      "Ę": 88,
      "ę": 89,
      "Ě": 90,
      "ě": 91,
      "Ĝ": 92,
      "ĝ": 93,
      "Ğ": 94,
      "ğ": 95,
      "Ġ": 96,
      "$$": 97,
      "$$$$": 98,
      "$%": 99,
      "$#": 100,
      "$$%": 101,
      "$$#": 102,
      "$\"": 103,
      "$&": 104,
      "$$\"": 105,
      "$$&": 106,
      "$$$$$$$$": 107,
      "#$$$$": 108,
      "%$$$$": 109,
      "ĀĀ": 110,
      "$$$%": 111,
      "$$$#": 112,
      "$'": 113,
      "$!": 114,
      "$$!": 115,
      "$$'": 116,
      "$$$$%": 117,
      "$$$$#": 118,
      "$(": 119,
      "#$$%": 120,
      "%$$#": 121,
      "%$$": 122,
      "#$$#": 123,
      "%$$%": 124,
      "#$$": 125,
      "$%$$$$": 126,
      "$#$$$$": 127,
      "$%%": 128,
      "$##": 129,
      "$#%": 130,
      "$%#": 131,
      "\"$$": 132,
      "$)": 133,
      "&$$": 134,
      "$ğ": 135,
      "\"$$$$": 136,
      "&$$$$": 137,
      "\"$$%": 138,
      "'$$": 139,
      "&$$#": 140,
      "!$$": 141,
      "%$$\"": 142,
      "#$$&": 143,
      "$$%$$$$": 144,
      "\"$$#": 145,
      "&$$%": 146,
      "$*": 147,
      "$$#$$$$": 148,
      "$Ğ": 149,
      "%$$&": 150,
      "$$$$$$$$$$$$": 151,
      "$%&": 152,
      "$#\"": 153,
      "#$$\"": 154,
      "$&%": 155,
      "Ġ$$": 156,
      "$\"#": 157,
      "$%\"": 158,
      "$&#": 159,
      "($$": 160,
      "$\"%": 161,
      "$#&": 162,
      "$$$&": 163,
      "#$$$$%": 164,
      "$$$\"": 165,
      "#$$$$#": 166,
      "$ĝ": 167,
      "$+": 168,
      "\"$$&": 169,
      "%$$$$%": 170,
      "&$$\"": 171,
      "$%$$%": 172,
      "%$$$$#": 173,
      "$$(": 174,
      "$%$$#": 175,
      "$&&": 176,
      "$#$$%": 177,
      "$\"\"": 178,
      "$#$$#": 179,
      "$\"$$$$": 180,
      "!$$$$": 181,
      "$&$$$$": 182,
      "$$$%$$$$": 183,
      "\"$$\"": 184,
      "!$$%": 185,
      "'$$$$": 186,
      "&$$&": 187,
      "$#$$$$%": 188,
      "$$$#$$$$": 189,
      "$$$$$$$$$$$$$$$$": 190,
      "$%$$$$#": 191,
      "'$$#": 192,
      "!$$#": 193,
      "$$$": 194,
      "%$$!": 195,
      "$%$$$$%": 196,
      "#$$'": 197,
      "'$$%": 198,
      "$\"&": 199,
      "$'%": 200,
      "$%%$$$$": 201,
      "$##$$$$": 202,
      "$&\"": 203,
      "$#$$$$#": 204,
      "#$$!": 205,
      "$$#$$$#": 206,
      "$$%$$$%": 207,
      "$!#": 208,
      "ğ$$": 209,
      "%$$'": 210,
      "$%'": 211,
      "Ā\"": 212,
      "$#!": 213,
      ")$$": 214,
      "Ā%": 215,
      "$,": 216,
      "$%!": 217,
      "$'#": 218,
      "Ā#": 219,
      "ĀĀ$": 220,
      "$#%$$$$": 221,
      "$!%": 222,
      "ĀĀ%": 223,
      "$Ĝ": 224,
      "Ġ$$$$": 225,
      "Ġ\"": 226,
      "ĀĀ\"": 227,
      "ĀĀ#": 228,
      "Ā!": 229,
      "$#'": 230,
      "$%#$$$$": 231,
      "Ā&": 232,
      "'$$\"": 233,
      "%$$$%": 234,
      "Ġ#": 235,
      "Ġ$$#": 236,
      "$\"!": 237,
      "\"$$'": 238,
      "$$)": 239,
      "!$$&": 240,
      "#$$$#": 241,
      "$!\"": 242,
      "Ġ$$%": 243,
      "$&'": 244,
      "Ā'": 245,
      "$'&": 246,
      "$$ğ": 247,
      "ĀĀ!": 248,
      "$$$%$$%": 249,
      "&%": 250,
      "ĀĀ&": 251,
      "($$#": 252,
      "&$$!": 253,
      "Ġ!": 254,
      "#$$$\"": 255,
      "%$$$&": 256,
      "$'\"": 257,
      "&$$'": 258,
      "$\"'": 259,
      "'$$&": 260,
      "$%(": 261,
      "Ġ%": 262,
      "$$$%$$#": 263,
      "$\"$$%": 264,
      "$$$#$$%": 265,
      "\"#": 266,
      "$$$%$": 267,
      "$$$#$$#": 268,
      "Āğ": 269,
      "($$%": 270,
      "$$$$%%": 271,
      "Ā(": 272,
      "$&!": 273,
      "$$$$##": 274,
      "!$$\"": 275,
      "Ġ&": 276,
      "\"$$!": 277,
      "$$Ğ": 278,
      "$&$$#": 279,
      "$ě": 280,
      "$-": 281,
      "($$$$": 282,
      "$!&": 283,
      "$%#$$$#": 284,
      "$$$'": 285,
      "ĀĀ'": 286,
      "$\"$$#": 287,
      "#$$(": 288,
      "$&$$%": 289,
      "$$$$%#": 290,
      "&#": 291,
      "\"%": 292,
      "$$$$#%": 293,
      "$##$$$#": 294,
      "ĀĞ": 295,
      "$(%": 296,
      "Ġ$$&": 297,
      "$#$$$$$$$$": 298,
      "%$$(": 299,
      "$!!": 300,
      "Ġ$$\"": 301,
      "$%$$$$$$$$": 302,
      "$''": 303,
      "$$$!": 304,
      "ĀĀğ": 305,
      "$%%$$$%": 306,
      "$$*": 307,
      "$#$%$$$$": 308,
      "Ā)": 309,
      "Ġ'": 310,
      "$(&": 311,
      "!$$'": 312,
      "\"$$(": 313,
      "$#%$$$%": 314,
      "$&(": 315,
      "$!$$$$": 316,
      "&&": 317,
      "&$$$&": 318,
      "\"$$$\"": 319,
      "$#(": 320,
      "$'$$$$": 321,
      "$(#": 322,
      "$$#%$$#": 323,
      "#$$%$": 324,
      "$%$#$$$$": 325,
      "$$%%$$$$": 326,
      "$$##$$$$": 327,
      "$$\"$$$$": 328,
      "ĀĀ(": 329,
      "$$$#$": 330,
      "$'!": 331,
      "\"\"": 332,
      "$$%%$$%": 333,
      "($$\"": 334,
      "ĀĀĞ": 335,
      "$!'": 336,
      "$%$%$$$$": 337,
      "ĀĀ)": 338,
      "ĀĀĝ": 339,
      "Ğ$$": 340,
      "#$$ğ": 341,
      "%$$ğ": 342,
      "\"&": 343,
      "$\"(": 344,
      "Āĝ": 345,
      "$$&$$$$": 346,
      "\"$$$$%": 347,
      "'$$!": 348,
      "*$$": 349,
      "'$$'": 350,
      "Ġ$$'": 351,
      "#$$$$$$$$": 352,
      "$$%$": 353,
      "&$$(": 354,
      "!$$!": 355,
      "%$$$$$$$$": 356,
      "$&$$$$#": 357,
      "$%$$&": 358,
      "Ġ(": 359,
      "$#$$\"": 360,
      "$#$$$$$$#": 361,
      "$#$%$$%": 362,
      "$(\"": 363,
      "Ġğ": 364,
      "$$%#$$%": 365,
      "$$%#$$$$": 366,
      "$('": 367,
      "$##%$$#": 368,
      "Ā*": 369,
      "$$##$$#": 370,
      "$%%#$$%": 371,
      "#$$)": 372,
      "\"$$$$#": 373,
      "$Ě": 374,
      "($$&": 375,
      "%$$)": 376,
      "ĝ$$": 377,
      "$#$#$$$$": 378,
      "$.": 379,
      "$$$$$$$$%": 380,
      "$'(": 381,
      "&$$$$%": 382,
      "$%)": 383,
      "$#%%$$%": 384,
      "&$$$$#": 385,
      "$%$#$$#": 386,
      "$#$#$$%": 387,
      "$%$$\"": 388,
      "$$$$$$$$#": 389,
      "Ā+": 390,
      "Ġ$$!": 391,
      "'%": 392,
      "&\"": 393,
      "$#$$&": 394,
      "$$#%$$$$": 395,
      "$%##$$#": 396,
      "Ġ)": 397,
      "$#$%$$#": 398,
      "$\"$$$$%": 399,
      "Ġ$": 400,
      "$%#%$$#": 401,
      "Ġ$&": 402,
      "$$$$$$%": 403,
      "$$#$": 404,
      ")$$%": 405,
      "$#%#$$%": 406,
      "$%$$$$$$%": 407,
      "ĠĞ": 408,
      "$#\"$$$$": 409,
      "ĀĀ+": 410,
      "$%ğ": 411,
      "$%$#$$%": 412,
      "$&%$$$$": 413,
      "\"!": 414,
      "$&$$$$%": 415,
      "\"$$)": 416,
      "$%$%$$#": 417,
      "!$$$\"": 418,
      "$#$$$$$$%": 419,
      "$$\"$$$#": 420,
      "'$$$&": 421,
      "$#ğ": 422,
      "#$$$$&": 423,
      "#$$$$$$%": 424,
      "$$$$$$#": 425,
      "ĀĀ*": 426,
      "!#": 427,
      "ĀĀ#Ā": 428,
      ")$$#": 429,
      "$%$$$%": 430,
      "%$$$$$$%": 431,
      "!%": 432,
      "$#)": 433,
      "$!(": 434,
      "+$$": 435,
      "$\"ğ": 436,
      "$&)": 437,
      "%$$$$$$#": 438,
      "#$$$$$$#": 439,
      "$((": 440,
      "'#": 441,
      "$)%": 442,
      "%$$#$": 443,
      "\"$$ğ": 444,
      "ĀĀ%Ā": 445,
      "$#$$$$$$$$$$$$": 446,
      "$%$$$$$$#": 447,
      "$)&": 448,
      "%$$$$&": 449,
      "$(!": 450,
      "$#$$$$$$": 451,
      "$ĀĀ": 452,
      "%$$$$$": 453,
      "'$$(": 454,
      "ğ$$#": 455,
      "Ĝ$$": 456,
      "$ğ#": 457,
      "ĀĀĜ": 458,
      "$ğ\"": 459,
      "ğ$$&": 460,
      "ĀĀ\"Ā": 461,
      "$#$$$#": 462,
      "$\"$$$$#": 463,
      "$%$%$$%": 464,
      "$'$$%": 465,
      "$###$$#": 466,
      "ĀĀ$Ā": 467,
      ")$$$$": 468,
      "$'$$#": 469,
      "$)#": 470,
      "ğ$$%": 471,
      "$#$#$$#": 472,
      "$ğ%": 473,
      "'&": 474,
      "$$&$$$%": 475,
      "#$$$$%%": 476,
      "$%&$$$$": 477,
      "%$$Ğ": 478,
      "\"$$$!": 479,
      "ĀĀ&Ā": 480,
      "$%$$$$$$$$$$$$": 481,
      "$##%$$$$": 482,
      "$\"#$$$$": 483,
      "#$$#$": 484,
      "$%$$$$$$": 485,
      "&$$)": 486,
      "&$$ğ": 487,
      "%$$$$%%": 488,
      "($$'": 489,
      "#$$$$##": 490,
      "Ġ*": 491,
      "$!$$%": 492,
      "%$$$$##": 493,
      "#$$$$\"": 494,
      "$$$%$$$$$$$$": 495,
      "$')": 496,
      "$#\"$$$#": 497,
      "!\"": 498,
      "$%%%$$%": 499,
      "$!$$#": 500,
      "$ę": 501,
      "'ĀĀ": 502,
      "($$!": 503,
      "$$ĝ": 504,
      ")$$&": 505,
      "$&ğ": 506,
      "$#%%$$$$": 507,
      "$%&$$$%": 508,
      "#$$$&": 509,
      "$ğ&": 510,
      "#$$Ğ": 511,
      "ğ$$$$": 512,
      "#$$$!": 513,
      "$$%$$$$$": 514,
      "ĀĀ!Ā": 515,
      "$#Ğ": 516,
      "$$&#$$%": 517,
      "$$+": 518,
      "$%%#$$$$": 519,
      "%$$$\"": 520,
      "$%%$$$#": 521,
      "$)'": 522,
      "$%*": 523,
      "$$\"%$$#": 524,
      "ĀĀ,": 525,
      "$)\"": 526,
      "!$$(": 527,
      "Ġ$$$#": 528,
      "&$$$'": 529,
      "#$$*": 530,
      "Ġ$$$\"": 531,
      "Ġ$%": 532,
      "%$$*": 533,
      "Ġ$$(": 534,
      ")$$\"": 535,
      "$$$(": 536,
      "$\"$$\"": 537,
      "$%\"$$$#": 538,
      "Ġ%$$#": 539,
      "$$%$$$$$$$$": 540,
      "$!ğ": 541,
      "#$$$$#%": 542,
      "Ġ%$$\"": 543,
      "$\")": 544,
      "ĀĀ.": 545,
      "$%%%$$$$": 546,
      "!$$$$%": 547,
      "\"$$$#": 548,
      "$/": 549,
      "&'": 550,
      "(%": 551,
      "'$$ğ": 552,
      "$\"$%$$%": 553,
      "ĀĀ/": 554,
      "%$$%$": 555,
      "'$$$'": 556,
      "$$%$$$$$$#": 557,
      "$%Ğ": 558,
      "$\"$$&": 559,
      "$#&$$$$": 560,
      "$$$#$$$$$$$$": 561,
      "($$$&": 562,
      "$'*": 563,
      "$%#$$%": 564,
      "$$#$$$\"": 565,
      "$##$$$%": 566,
      "$$#$$$$$": 567,
      "$$$$$$$$$$$$$$$$$$$$$$$$": 568,
      "\"$$*": 569,
      "ğ$$\"": 570,
      "Ġĝ": 571,
      "Ġ%$$": 572,
      "$&$$&": 573,
      "$'ğ": 574,
      "%$$$$%#": 575,
      "$\"%$$$$": 576,
      "!&": 577,
      "$$#$$$%": 578,
      "#$$$$$": 579,
      "!$$)": 580,
      "''": 581,
      "'(": 582,
      "Ġ$#": 583,
      "ĀĀ-": 584,
      "$###$$$$": 585,
      "$&#$$$#": 586,
      "#$$$$%#": 587,
      "'$$$$#": 588,
      "$$%$$$&": 589,
      "$\"$%$$$$": 590,
      "ĀĀě": 591,
      "$)!": 592,
      "%$$$$#%": 593,
      "ğ$$'": 594,
      "$()": 595,
      "($$(": 596,
      "#$$$$$$": 597,
      "$$%$$$$$$%": 598,
      "$Ğ#": 599,
      "$\"#$$$#": 600,
      "!!": 601,
      "'\"": 602,
      "'$$$$%": 603,
      "Ġ#$$\"": 604,
      "%$$$$\"": 605,
      "$!)": 606,
      "$($$$$": 607,
      "%$$$'": 608,
      "Ā,": 609,
      "Ġ#$$#": 610,
      "$$#$$$$$$$$": 611,
      "$&$$\"": 612,
      "$*%": 613,
      "Ġ$\"": 614,
      "$$Ĝ": 615,
      "$#%$$#": 616,
      "$##$$#": 617,
      "$%##$$$$": 618,
      "!$$$!": 619,
      "(&": 620,
      "$%\"$$$$": 621,
      "$#$$$$&": 622,
      "$ğ!": 623,
      "$\"%$$$%": 624,
      "ĀĀĚ": 625,
      "$%$#$$$$#": 626,
      "$%&#$$%": 627,
      "$#&$$$%": 628,
      "(#": 629,
      "ĠĀ": 630,
      "Ġ\"$$": 631,
      "Ġ%$$!": 632,
      "$#$%$$$$%": 633,
      "$\"Ğ": 634,
      "$&*": 635,
      "$ğ'": 636,
      "\"$$%$": 637,
      "$$#$$$$$$%": 638,
      "$#*": 639,
      "$%$$$$&": 640,
      "$%$\"$$$$": 641,
      "$$##$$%": 642,
      "$$\"$$$\"": 643,
      "$#\"%$$#": 644,
      "Ġ$'": 645,
      "$$\"#$$#": 646,
      "&$$$$\"": 647,
      "!$$$$#": 648,
      "&$$$%": 649,
      "&#$$%": 650,
      "Ġ+": 651,
      "Ġ#$$": 652,
      "$$$#$$$$%": 653,
      "$#$$$$\"": 654,
      "$&%$$$%": 655,
      "$$$#$$$$$$%": 656,
      "Ğ$$#": 657,
      "$%$": 658,
      "$$#$$$$$$#": 659,
      "$$$\"$$$$": 660,
      "$$$#$$$$$$#": 661,
      "$$,": 662,
      "$$$&$$$$": 663,
      "*$$$$": 664,
      "ĀĜ": 665,
      "Ġ$!": 666,
      "Ġ$(": 667,
      "$#$$!": 668,
      "$$%$$$#": 669,
      "$&$#$$#": 670,
      "$Ğ%": 671,
      "$Ę": 672,
      "$%#$$$\"": 673,
      "$#$&$$$$": 674,
      "$&#$$$$": 675,
      "$$&%$$%": 676,
      "%$$$$$$": 677,
      "$$$%$$$$%": 678,
      "#$$+": 679,
      "\"$$+": 680,
      "&$$%$": 681,
      "$&%#$$%": 682,
      "Ġ$$$!": 683,
      "$\"%%$$%": 684,
      "$#%#$$$$": 685,
      "\"$$#$": 686,
      "$&##$$#": 687,
      "$$%$$$%$": 688,
      "##": 689,
      "*$$%": 690,
      "*$$#": 691,
      "Ğ$$&": 692,
      "Ġ&$$\"": 693,
      "$*&": 694,
      "%$$&$": 695,
      "Ġ$$ğ": 696,
      "Ğ$$$$": 697,
      "$%%$$%": 698,
      "$$%$$#": 699,
      "$\"*": 700,
      "$&Ğ": 701,
      "$%%\"$$%": 702,
      "&$$Ğ": 703,
      "$\"#%$$#": 704,
      "$##$$$$$": 705,
      "%%": 706,
      "&(": 707,
      "$%#%$$$$": 708,
      "$)(": 709,
      "$*#": 710,
      "Ġ!$$": 711,
      "$$%%$$#": 712,
      "%$$+": 713,
      "$%#$$$%": 714,
      "\"$$$$\"": 715,
      "'$$)": 716,
      "$*'": 717,
      "$$$&$$#": 718,
      "Ğ$$%": 719,
      "Ġ&$$#": 720,
      "ĀĀę": 721,
      "$%$$$$\"": 722,
      "'$$*": 723,
      "$#&#$$%": 724,
      "ě$$": 725,
      "$!Ğ": 726,
      "%$$ĝ": 727,
      "$###$$%": 728,
      "'*": 729,
      "ğ$$!": 730,
      "Ġ\"$$\"": 731,
      "$%$\"$$#": 732,
      "$#%$$$&": 733,
      "$%%#$$#": 734,
      "&$$*": 735,
      "$#&%$$%": 736,
      "ĀĀ)Ā": 737,
      ")$$!": 738,
      "$%$#$$$$%": 739,
      "$&$#$$$$": 740,
      "$$$#$$$$#": 741,
      "$))": 742,
      "$#\"#$$#": 743,
      "$$$%$$$$$$#": 744,
      "!'": 745,
      "\"#$$#": 746,
      "$#$$'": 747,
      "$!$$$$#": 748,
      "$##%$$%": 749,
      "$##&$$#": 750,
      "$#%$$$#": 751,
      "'$$Ğ": 752,
      "ĀĀğĀ": 753,
      "%#": 754,
      "ğ!": 755,
      "Ġ#$$!": 756,
      "$%$$'": 757,
      "$##$$$\"": 758,
      "$$&$$$&": 759,
      "$Ğ&": 760,
      "$%\"%$$#": 761,
      "%#$$%": 762,
      "$%+": 763,
      "&$$$\"": 764,
      "$%%$$$$$": 765,
      "&)": 766,
      "$#$%$$$$#": 767,
      "$#$#$$$$#": 768,
      "$&&$$$$": 769,
      "$%#\"$$#": 770,
      "$*\"": 771,
      "$Ğ\"": 772,
      "'!": 773,
      ",$$": 774,
      "$%%$$$&": 775,
      "$$$%$$$$#": 776,
      "$(*": 777,
      "Ġ$$)": 778,
      "Ġ$$$$%": 779,
      "$$#&$$#": 780,
      "$!$$$$%": 781,
      "%%$$%": 782,
      "Ġ$$$$#": 783,
      "$%$%$$$$%": 784,
      "$\"$%$$#": 785,
      "\"$$Ğ": 786,
      "$Ğ!": 787,
      "$$$$$$$$$$$$$": 788,
      "$$$\"$$%": 789,
      "ĀĀ'Ā": 790,
      "()": 791,
      "ğ#": 792,
      "$$$%$$\"": 793,
      "#$$&$": 794,
      "($$ğ": 795,
      "#%$$#": 796,
      "&%$$$$": 797,
      "*$$\"": 798,
      "$$$$$$$$$$$%": 799,
      "$%$$$$$": 800,
      "$%##$$%": 801,
      "!$$$": 802,
      "$&%#$$$$": 803,
      "$$$%$$$$$$%": 804,
      "ğ$$$!": 805,
      "&%$$%": 806,
      "Ě$$": 807,
      "ğ%": 808,
      "$%$$!": 809,
      "$'Ğ": 810,
      "&$$ĝ": 811,
      "%$$\"$": 812,
      "$Ğ'": 813,
      "&ĀĀ": 814,
      ")#": 815,
      ")$$'": 816,
      "Ġ,": 817,
      "$&$#$$%": 818,
      "$'$$$$#": 819,
      "$#%&$$%": 820,
      "&$$+": 821,
      "$%&%$$%": 822,
      "$ĝ\"": 823,
      "ĀĀ(Ā": 824,
      "ĠĀĀ": 825,
      "$!$$&": 826,
      "$(ğ": 827,
      "\"$$ĝ": 828,
      "&$$$$&": 829,
      "$%\"#$$#": 830,
      "$\"%#$$%": 831,
      "ĀĀĝĀ": 832,
      "$$$$$$\"": 833,
      "$$%#$$#": 834,
      "$$#%$$%": 835,
      "%$$$$$$#$$$$": 836,
      "$$$#$$\"": 837,
      "$)ğ": 838,
      "#$$\"$": 839,
      "!(": 840,
      "*ĀĀ": 841,
      "ĠĜ": 842,
      "$%$&$$#": 843,
      "$#$&": 844,
      "$$%\"$$%": 845,
      "$$%#$$&": 846,
      "$\"$#$$$$": 847,
      "#$$$$$$#$$$$": 848,
      "$#%%$$#": 849,
      "$%#%$$\"": 850,
      "\"$$$&": 851,
      "&$$#$": 852,
      "($$)": 853,
      "($$$'": 854,
      "%$$$%$": 855,
      "\"%$$#": 856,
      "$#$$": 857,
      "$$$$$$$$$$$$#": 858,
      "\"$$$$&": 859,
      "!$$ğ": 860,
      "$*!": 861,
      "$$#$$$#$": 862,
      "##$$#": 863,
      "')": 864,
      "+ĀĀ": 865,
      "ĝ$$%": 866,
      "$%&$$$&": 867,
      "$#ĝ": 868,
      "$#$&$$%": 869,
      "$\"$#$$%": 870,
      "$&ĝ": 871,
      "&$$$(": 872,
      "($$$(": 873,
      "\"(": 874,
      "+$$#": 875,
      "ğ$$(": 876,
      "$\"\"$$$$": 877,
      "$&$%$$#": 878,
      "$$$$$$$$$$#": 879,
      "$!$$\"": 880,
      "$ğğ": 881,
      "$*(": 882,
      "$&%\"$$%": 883,
      "$\"#%$$$$": 884,
      "$\"$$$$&": 885,
      "ĀĀĞĀ": 886,
      "\"ĀĀ": 887,
      "Ġ#$$$$": 888,
      "$%$%$$$$#": 889,
      "$$$#$$&": 890,
      "$#%&$$$$": 891,
      "$)$$$$": 892,
      "$&\"$$$#": 893,
      "\"$$$$##": 894,
      "*$$&": 895,
      "Ġ\"$$#": 896,
      "$%ĝ": 897,
      "$%$\"$$%": 898,
      "$#$#$$$$%": 899,
      "$#$\"$$%": 900,
      "$$%%$$&": 901,
      "$\"+": 902,
      "$$$$$$$$$%": 903,
      "$$$$$$$$$$%": 904,
      "%$$$!": 905,
      "#$$ĝ": 906,
      "$#$$$$$$$#": 907,
      "'$$$(": 908,
      "$\"#$$$%": 909,
      "$$$$$$$$$$$$$$$$$$": 910,
      "%#$$$$": 911,
      "('": 912,
      "+$$&": 913,
      "-$$": 914,
      "Ğ$$\"": 915,
      "$#$": 916,
      "$\"ĝ": 917,
      "%$$$$$%": 918,
      "$'$$&": 919,
      "$$!$$$$": 920,
      "%$$Ĝ": 921,
      "#$$$": 922,
      "$%%%$$#": 923,
      "$%#&$$#": 924,
      "$ğ(": 925,
      "Ġ$$$": 926,
      "\"$$$$%%": 927,
      ")$$(": 928,
      "ĝ$$#": 929,
      "$#+": 930,
      "$$%&$$$$": 931,
      "$$%&$$%": 932,
      "$$#%$$\"": 933,
      "!$$*": 934,
      "Ġ$$Ğ": 935,
      "$\"%%$$&": 936,
      "&$$\"$": 937,
      ")$$$'": 938,
      "\")": 939,
      "##$$$$": 940,
      "Ğ%": 941,
      "Ġ$)": 942,
      "$&#$$$\"": 943,
      "#$$,": 944,
      "$#$$$$$$%$$$$": 945,
      "$%##$$\"": 946,
      "Ġ\"$$!": 947,
      "!*": 948,
      "\"'": 949,
      "\"%$$$$": 950,
      "(ĀĀ": 951,
      "Ğ$$!": 952,
      "$%$\"": 953,
      "$%$#$$\"": 954,
      "$$#\"$$$$": 955,
      "$$$$$$$$$#": 956,
      "$$$$$$$$$$$$$$$$$$$$": 957,
      "$#$$$$$": 958,
      "$##%$$\"": 959,
      "$#%\"$$%": 960,
      "\"$$$": 961,
      "$&%%$$%": 962,
      "$\"\"%$$#": 963,
      "$\"$$$$$$#": 964,
      "#%$$$$": 965,
      "%%$$$$": 966,
      "$#$&$$#": 967,
      "#$$$$$\"": 968,
      "$$$%$$&": 969,
      "$'$$\"": 970,
      "$#%$$$%$": 971,
      "\"$$,": 972,
      "$&#%$$#": 973,
      "ğ$$Ğ": 974,
      "Ġ!$$#": 975,
      "$#\"$$$\"": 976,
      "$$##$$\"": 977,
      "#$$$$'": 978,
      "$#%#$$&": 979,
      "$#%%$$&": 980,
      "'$$ĝ": 981,
      "$*)": 982,
      "$%\"%$$\"": 983,
      "ĀĀ%Ā\"": 984,
      "!ĀĀ": 985,
      ")%": 986,
      "+$$$$": 987,
      "$%$&$$$$": 988,
      "$\"$&$$$$": 989,
      "$&$": 990,
      "$!*": 991,
      "$%$$$$$$$%": 992,
      "$%$$$$$$$#": 993,
      "$#$$$$$$\"": 994,
      "$#$$$$$$$%": 995,
      "$%%#$$&": 996,
      "$##&$$$$": 997,
      "$%#%$$%": 998,
      "$*ğ": 999,
      "$%&\"$$%": 1000,
      "$\"##$$#": 1001,
      "$&&#$$%": 1002,
      "$\"\"$$$#": 1003,
      "#$$'$": 1004,
      ")$$$(": 1005,
      "&$$$$%#": 1006,
      "((": 1007,
      "*#": 1008,
      "+$$\"": 1009,
      "Ġ'$$#": 1010,
      "$#&$$$&": 1011,
      "$\"%$$$&": 1012,
      "$$&%$$$$": 1013,
      "$$&#$$&": 1014,
      "$$$$$$$$$$$#": 1015,
      "$$$$$$$$$$$$%": 1016,
      "%$$$(": 1017,
      "$%$$$$$$%$$$$": 1018,
      "($$Ğ": 1019,
      "$$$\"$$#": 1020,
      "$&&$$$%": 1021,
      "$\"&$$$%": 1022,
      "Ā%#": 1023,
      "ĀĀ$Ā#": 1024,
      "#$$$$$$$$$$$$": 1025,
      ")\"": 1026,
      ")ĀĀ": 1027,
      "Ġ%$$$$": 1028,
      "$$ě": 1029,
      "$$$)": 1030,
      "$&$%$$$$": 1031,
      "$&$\"$$#": 1032,
      "$'ĝ": 1033,
      "$'$$$$%": 1034,
      "$(Ğ": 1035,
      "$($$%": 1036,
      "$%#\"$$$$": 1037,
      "&$$,": 1038,
      "$ğ$$$$": 1039,
      "$&%$$$#": 1040,
      "Ġ$$+": 1041,
      "$+\"": 1042,
      "$#%$$$$$": 1043,
      "#$$$#$": 1044,
      "&#$$$$": 1045,
      "&$$$$%%": 1046,
      "&$$$$##": 1047,
      "'#$$%": 1048,
      "*$$!": 1049,
      ",ĀĀ": 1050,
      "ĝ%": 1051,
      "Ġ&$$!": 1052,
      "$$#\"$$#": 1053,
      "$$$$$$$$#$$$$": 1054,
      "$$'$$$$": 1055,
      "#$$$'": 1056,
      "!$$Ğ": 1057,
      "$%\"#$$\"": 1058,
      "$+'": 1059,
      "%$$$$%%$$$$": 1060,
      "($$$$#": 1061,
      "+$$%": 1062,
      "ĝ$$&": 1063,
      "Ġ\"$$$$": 1064,
      "Ġ'$$\"": 1065,
      "%$$,": 1066,
      "$%%\"$$$$": 1067,
      "$\"##$$$$": 1068,
      "$#&&$$%": 1069,
      "$ĝ#": 1070,
      "$+&": 1071,
      "ğ$$ğ": 1072,
      "$#!$$$#": 1073,
      "ĀĀ#Ā!": 1074,
      "Ġ!$$\"": 1075,
      "!)": 1076,
      "\"$$$$#%": 1077,
      "$ė": 1078,
      "*$$'": 1079,
      "Ā-": 1080,
      "Ğ$$'": 1081,
      "Ġě": 1082,
      "$%'$$$$": 1083,
      "$$#$$#": 1084,
      "$$$$$$$$%$$$$": 1085,
      "$'%$$$$": 1086,
      "$!ĝ": 1087,
      "$(+": 1088,
      "$%%&$$%": 1089,
      "\"$$Ĝ": 1090,
      "$ğ)": 1091,
      "$$$$$$$$$$$$$$$$$$$": 1092,
      "ĀĀ\"Ā#": 1093,
      "$%\"$$$\"": 1094,
      "$\"$&$$%": 1095,
      "$'+": 1096,
      "$!+": 1097,
      "$%%%$$&": 1098,
      "&$$Ĝ": 1099,
      "$ğ*": 1100,
      "'$$+": 1101,
      "$#\"&$$#": 1102,
      "$&%%$$$$": 1103,
      "#$$$$%%$$$$": 1104,
      "$ĝ!": 1105,
      "$+!": 1106,
      "$\"$$$$$$%": 1107,
      "$&$$$$\"": 1108,
      "$&\"#$$#": 1109,
      "$%'$$$%": 1110,
      ")$$ğ": 1111,
      "\"$$$$%#": 1112,
      "Ĝ#": 1113,
      "ĝ$$$$": 1114,
      "$$$ğ": 1115,
      "$%$#$$&": 1116,
      "$&$$$%": 1117,
      "$&#$$%": 1118,
      "$&\"$$$$": 1119,
      "$&$%$$%": 1120,
      "$$\"#$$\"": 1121,
      "$$$$$$$$$$$": 1122,
      "$!$%$$%": 1123,
      "#$$Ĝ": 1124,
      "$##'$$#": 1125,
      "$%#\"$$%": 1126,
      "$)*": 1127,
      "$&##$$$$": 1128,
      "$+%": 1129,
      "$\"\"#$$#": 1130,
      "'$$%$": 1131,
      "ĀĀ+Ā": 1132,
      "($$$$%": 1133,
      "$#,": 1134,
      "$#$%$$&": 1135,
      "$&+": 1136,
      "$$\"$$%": 1137,
      "$$\"\"$$#": 1138,
      "$$&%$$&": 1139,
      "$!\"$$$$": 1140,
      "$$!%$$#": 1141,
      "$($$#": 1142,
      "$%&#$$&": 1143,
      "Ġ$$*": 1144,
      "($$*": 1145,
      "$$$%$$$$$": 1146,
      "!$$#$": 1147,
      "$\"&%$$%": 1148,
      "$&\"%$$#": 1149,
      "Ā%%": 1150,
      "ĀĀ$Ā'": 1151,
      "ĀĀ\"Ā\"": 1152,
      "ĀĀ\"Ā!": 1153,
      "ĀĀ#Ā\"": 1154,
      "ĀĀ&Ā!": 1155,
      "!%$$#": 1156,
      "\"*": 1157,
      "%$$$$$$$$$$$$": 1158,
      ")'": 1159,
      "ĝ#": 1160,
      "ĝ$$\"": 1161,
      "Ğ#": 1162,
      "ğ&": 1163,
      "Ġ'$$": 1164,
      "$$-": 1165,
      "$%$&$$%": 1166,
      "$&$$'": 1167,
      "#$$$$$#": 1168,
      "ĀĀĘ": 1169,
      "#$$ě": 1170,
      "$%$$$$$$&": 1171,
      "$%%&$$$$": 1172,
      "$%%$$$%$": 1173,
      "$##\"$$#": 1174,
      "$$#$$$$$$%$$$$": 1175,
      "$Ğğ": 1176,
      "$&%#$$#": 1177,
      "\"$$&$": 1178,
      "$\"$$$$\"": 1179,
      "ğ$$)": 1180,
      "ĀĀ$Ā&": 1181,
      "Ā'%": 1182,
      "ĀĀ!Ā#": 1183,
      "\"&$$#": 1184,
      ")&": 1185,
      "ğĞ": 1186,
      "Ġ&$$": 1187,
      "Ġ$*": 1188,
      "$#$\"": 1189,
      "$$%\"$$$$": 1190,
      "$&$\"$$%": 1191,
      "$%$$$$$$\"": 1192,
      "$ğĞ": 1193,
      "$Ğ(": 1194,
      "$#\"%$$\"": 1195,
      "Ġ$$ĝ": 1196,
      "ĀĀ%Ā#": 1197,
      "\"+": 1198,
      "',": 1199,
      "+$$'": 1200,
      "Ĝ$$%": 1201,
      "$%,": 1202,
      "$%$%": 1203,
      "$#!$$$$": 1204,
      "$#$\"$$#": 1205,
      "$#$#$$&": 1206,
      "$\"$&$$#": 1207,
      "$$\"%$$\"": 1208,
      "#$$$$$%": 1209,
      "%$$$$$$%$$$$": 1210,
      "%$$-": 1211,
      "%$$.": 1212,
      "%$$ě": 1213,
      "#$$.": 1214,
      "$##\"$$$$": 1215,
      "$#\"%$$$$": 1216,
      "$\"%%$$$$": 1217,
      "$#&%$$&": 1218,
      "$&$$$$&": 1219,
      "$%$$$$#$": 1220,
      "$\"&#$$%": 1221,
      "$#!%$$#": 1222,
      "Ā%!": 1223,
      "ĀĀ%Ā!": 1224,
      "ĀĀ%Āğ": 1225,
      "ĀĀ#Ā#": 1226,
      "$$$'$$$$": 1227,
      "ĀĀ*Ā": 1228,
      "'$$$%": 1229,
      ")(": 1230,
      "$$Ě": 1231,
      "$#$%$$\"": 1232,
      "$$#$$%": 1233,
      "$&$$!": 1234,
      "$$&$": 1235,
      "$$$%$\"": 1236,
      "%$$%$\"": 1237,
      "$#%\"$$$$": 1238,
      "!$$+": 1239,
      "$\"#&$$#": 1240,
      "$%\"&$$#": 1241,
      "$&#\"$$#": 1242,
      "!$$$$\"": 1243,
      "$&$$$$$$%": 1244,
      "!$$%$": 1245,
      "$$$$$$$$$$$$$$$$$$$$$$$$$$$$$$$$": 1246,
      "Ā\"#": 1247,
      "$'#$$$#": 1248,
      "ĀĀ$Āğ": 1249,
      "ĀĀ%Ā&": 1250,
      "$%#$$$$$": 1251,
      "$%$$$$$$$$$$$": 1252,
      "&!": 1253,
      "'%$$%": 1254,
      "Ğ&": 1255,
      "Ġ-": 1256,
      "$$%$$%": 1257,
      "$\"%$$#": 1258,
      "$$$#$$$$$$$$$$$$": 1259,
      "$$!$$$\"": 1260,
      "$%$$$$$$#$$$$": 1261,
      "$#$$$$$$&": 1262,
      "$#%#$$#": 1263,
      "$ĞĞ": 1264,
      "$\"%$$$#": 1265,
      "#$$$$%&": 1266,
      "ğ$$*": 1267,
      ")$$*": 1268,
      ")$$Ğ": 1269,
      "ĀĀ$Ā!": 1270,
      "ĀĀ#Ā&": 1271,
      "Ġ!$$!": 1272,
      "$##$$$#$": 1273,
      "Ġ'$$!": 1274,
      "!ğ": 1275,
      "\"%$$\"": 1276,
      "*%": 1277,
      "ğ*": 1278,
      "Ġ/": 1279,
      "$%Ĝ": 1280,
      "$%$%$$\"": 1281,
      "$#Ĝ": 1282,
      "$\"ě": 1283,
      "#$$$$$$%$$$$": 1284,
      "$$'$$$&": 1285,
      "$%%\"$$&": 1286,
      "$)+": 1287,
      "!$$-": 1288,
      "$%&\"$$&": 1289,
      "$&%%$$#": 1290,
      "($$ĝ": 1291,
      "$#&#$$&": 1292,
      "$$$&$$%": 1293,
      "$ĝ&": 1294,
      "$+#": 1295,
      "$#$$$$%$": 1296,
      "$Ĝ%": 1297,
      "$#'$$$%": 1298,
      "%$$$$$$$$$$$": 1299,
      "ĀĀ/Ā": 1300,
      "!Ğ": 1301,
      "#%": 1302,
      "Ġ.": 1303,
      "$#$#": 1304,
      "$$%&$$#": 1305,
      "$$#&$$$$": 1306,
      "$$#$$$$$$$$$$$$": 1307,
      "$\",": 1308,
      "#$$$$$$\"": 1309,
      "%$$$$$#": 1310,
      "$$'#$$%": 1311,
      "$#$$$$$$#$$$$": 1312,
      "&$$$$'": 1313,
      "$&##$$%": 1314,
      "$\"%\"$$%": 1315,
      "&$$&$": 1316,
      "$%$$$$%$": 1317,
      "$'%#$$%": 1318,
      "ğ$$+": 1319,
      "!$$$#": 1320,
      "Ğ!": 1321,
      "ĠĀ#": 1322,
      "$%$#$$$$$$$$": 1323,
      "$#$#$$\"": 1324,
      "$$%$$$$$$$$$$$$": 1325,
      "$$#&$$\"": 1326,
      "$\"$$$#": 1327,
      "$\"#$$$\"": 1328,
      "$\"&$$$&": 1329,
      "$%%#$$$$#": 1330,
      "$##\"$$%": 1331,
      "&$$ě": 1332,
      "'$$$)": 1333,
      "$&##$$\"": 1334,
      "$\"%&$$%": 1335,
      "$+)": 1336,
      "$&&%$$%": 1337,
      "$\"\"&$$#": 1338,
      "#$$!$": 1339,
      "$%!$$$#": 1340,
      "$'##$$#": 1341,
      "ĀĀ$Ā\"": 1342,
      "\"\"$$#": 1343,
      "#&": 1344,
      "&$$$$#%": 1345,
      "Ĝ$$#": 1346,
      "Ğğ": 1347,
      "Ğ$$(": 1348,
      "Ġ$%%": 1349,
      "Ġ$%#": 1350,
      "$%$%$$&": 1351,
      "$#$%$$$$$$$$": 1352,
      "$#$'$$$$": 1353,
      "$\"#$$#": 1354,
      "$\"&$$$$": 1355,
      "$$&\"$$%": 1356,
      "$$&&$$%": 1357,
      "$'Ĝ": 1358,
      "$'$%$$#": 1359,
      "$$'$": 1360,
      "$###$$\"": 1361,
      "!$$ĝ": 1362,
      "$%&&$$%": 1363,
      "$#\"\"$$#": 1364,
      "Ġ$$,": 1365,
      "($$+": 1366,
      "$\"%%$$#": 1367,
      "$ĝ%": 1368,
      "%$$$$##$$$$": 1369,
      "$&&\"$$%": 1370,
      "$&$$$$$$#": 1371,
      "$%'#$$%": 1372,
      "Ā%&": 1373,
      "ĀĀ\"Ā&": 1374,
      "\"$$'$": 1375,
      "$&'$$$%": 1376,
      "$$$#$$%$": 1377,
      "$!!$$$#": 1378,
      "\"Ğ": 1379,
      "%ĀĀ": 1380,
      "-$": 1381,
      "ě#": 1382,
      "ĝ$$!": 1383,
      "Ġ#$$ğ": 1384,
      "$%$$(": 1385,
      "$\"$#$$#": 1386,
      "$&$\"$$$$": 1387,
      "$&\"$$$\"": 1388,
      "$$\"#$$$$": 1389,
      "$$\"&$$#": 1390,
      "$$$%$$$$$$$$$$$$": 1391,
      "$'$#$$#": 1392,
      "$!#$$$$": 1393,
      "$$!#$$#": 1394,
      "$$$$%$": 1395,
      "$($$$$#": 1396,
      "%$$%$!": 1397,
      "$###$$$$#": 1398,
      "$)$$#": 1399,
      "&$$$$$$%": 1400,
      "'$$ě": 1401,
      "$%&#$$$$": 1402,
      "$&#$$$%": 1403,
      "$&#%$$\"": 1404,
      "%$$$$%&": 1405,
      "\"$$\"$": 1406,
      "'$$$$&": 1407,
      "$$$,": 1408,
      "$#!%$$\"": 1409,
      ")$$)": 1410,
      "ĀĀ$Ā(": 1411,
      "Ġ$$$$&": 1412,
      "$\"!%$$#": 1413,
      "ĀĀ'Ā\"": 1414,
      "!+": 1415,
      "\"#$$$$": 1416,
      "\"\"$$$$": 1417,
      "ğ\"": 1418,
      "Ġ$ğ": 1419,
      "Ġ$%&": 1420,
      "Ġ$%\"": 1421,
      "$$$$$$&": 1422,
      "$%$$": 1423,
      "$#&$$#": 1424,
      "$$%#$$$$#": 1425,
      "$$%\"$$&": 1426,
      "$&Ĝ": 1427,
      "$$\"&$$\"": 1428,
      "$'$": 1429,
      "$',": 1430,
      "$'#$$$$": 1431,
      "$(ĝ": 1432,
      "$($$\"": 1433,
      "$##%$$&": 1434,
      "$#%'$$%": 1435,
      "\"$$.": 1436,
      "'$$Ĝ": 1437,
      "!$$$ğ": 1438,
      "$&%\"$$$$": 1439,
      "$\"#%$$%": 1440,
      "$\"%#$$&": 1441,
      "$&&#$$&": 1442,
      "$\"\"%$$$$": 1443,
      "$\"&#$$&": 1444,
      "$!#$$$#": 1445,
      "$%'%$$%": 1446,
      "Ā%'": 1447,
      "$,%": 1448,
      "$,(": 1449,
      "$%!#$$#": 1450,
      "$%!#$$\"": 1451,
      "ĀĀ!Ā\"": 1452,
      "ĀĀ!Ā!": 1453,
      "&%#$$$$": 1454,
      "$%#$$$#$": 1455,
      "$$$!$$%": 1456,
      "$#$$$$$$$$$$$$$": 1457,
      "ĀĀĜĀ": 1458,
      "ĀĀ,Ā": 1459,
      "\"ğ": 1460,
      "%&": 1461,
      "&&$$%": 1462,
      "(+": 1463,
      ")*": 1464,
      ",$$#": 1465,
      "-,": 1466,
      "ĝ&": 1467,
      "ğ'": 1468,
      "$##$$%": 1469,
      "$#$\"$$$$": 1470,
      "$$%#$$$$%": 1471,
      "$&$$": 1472,
      "$$&#$$$$": 1473,
      "%$$$$$%$$$$": 1474,
      "$%$$$$'": 1475,
      "$%%\"$$#": 1476,
      "$##%$$$$#": 1477,
      "$%##$$$$#": 1478,
      "&$$$$$": 1479,
      "$$%$$$$$$%$$$$": 1480,
      "$**": 1481,
      "$Ğ*": 1482,
      "$%&$$$#": 1483,
      "$&%#$$&": 1484,
      "$&#&$$#": 1485,
      "'$$#$": 1486,
      "$\"&&$$%": 1487,
      "$\"&%$$&": 1488,
      "$'%#$$#": 1489,
      "$!#%$$#": 1490,
      "Ā%(": 1491,
      "ĀĀ$ĀĞ": 1492,
      "\"#%$$#": 1493,
      "ĀĀ.Ā": 1494,
      "ĀĀěĀ": 1495,
      "ĀĀĚĀ": 1496,
      "%*": 1497,
      "%$$$#": 1498,
      "ěĝ": 1499,
      "ĝ$$'": 1500,
      "Ġ$+": 1501,
      "$%$#": 1502,
      "$%$$$&": 1503,
      "$##$$$&": 1504,
      "$$%%$$$$%": 1505,
      "$$#$$$$%": 1506,
      "$$#\"$$%": 1507,
      "$\"Ĝ": 1508,
      "$\"\"$$$\"": 1509,
      "$&$\"": 1510,
      "$&$#$$$$%": 1511,
      "$$\"\"$$$$": 1512,
      "$'$$!": 1513,
      "$!Ĝ": 1514,
      "$$!$$$#": 1515,
      "#$$$ğ": 1516,
      "$%%$$$$$$$$$$$$": 1517,
      "$#%&$$#": 1518,
      "&$$-": 1519,
      "$Ğ)": 1520,
      "Ġ$$Ĝ": 1521,
      "$\"##$$\"": 1522,
      "$%$$$$##": 1523,
      "$'%$$$%": 1524,
      "ĀĀ\"Ā'": 1525,
      "$#'&$$%": 1526,
      "$\"!$$$#": 1527,
      "$$$$#%%$$%": 1528,
      "!ĝ": 1529,
      "\"#$$\"": 1530,
      "$Ė": 1531,
      "(!": 1532,
      ",,": 1533,
      "ě%": 1534,
      "ě$$$$": 1535,
      "ğĝ": 1536,
      "ğğ": 1537,
      "Ġ$&#": 1538,
      "$%%$$": 1539,
      "$#\"$$": 1540,
      "$#$'$$#": 1541,
      "$$%&$$&": 1542,
      "$$#%$$$$%": 1543,
      "ĀĀė": 1544,
      "$'\"$$$\"": 1545,
      "$!$$!": 1546,
      "$%#&$$$$": 1547,
      "$)ĝ": 1548,
      "'$$$\"": 1549,
      "!$$,": 1550,
      "$$$$$$$$$$$$$$$": 1551,
      "($$,": 1552,
      "$#&&$$&": 1553,
      "#$$$$#&": 1554,
      "$+ğ": 1555,
      "$\"$$$$$$&": 1556,
      "$$$Ĝ": 1557,
      "%$$!$": 1558,
      "$'%$$$#": 1559,
      "$&\"%$$\"": 1560,
      "$&\"\"$$#": 1561,
      "$&\"&$$\"": 1562,
      "%$$'$": 1563,
      "Ā\"%": 1564,
      "$#!#$$#": 1565,
      "Ā%\"": 1566,
      "Ā%ğ": 1567,
      "$,!": 1568,
      "$,#": 1569,
      "$%!%$$#": 1570,
      "ĀĀ%Ā)": 1571,
      "$Ĝ#": 1572,
      "$Ĝ&": 1573,
      "ĀĀ\"ĀĞ": 1574,
      "$#'#$$&": 1575,
      "$&'#$$%": 1576,
      "ĀĀ&Ā#": 1577,
      "$$$'$$#": 1578,
      "#$$$$$$$$$$$": 1579,
      "ĀĀęĀ": 1580,
      "(*": 1581,
      ")+": 1582,
      "+(": 1583,
      ",*": 1584,
      "-$$$$": 1585,
      ".$$": 1586,
      "ĝ$$(": 1587,
      "Ġ$$$%": 1588,
      "ĠĀ&": 1589,
      "$%&$$%": 1590,
      "$#'$$$&": 1591,
      "$$%$$$$#": 1592,
      "$$#!$$#": 1593,
      "$\"$%$$&": 1594,
      "$\"$#$$&": 1595,
      "$&,": 1596,
      "$&%$$$&": 1597,
      "$$\"%$$$$": 1598,
      "$$&$$$#": 1599,
      "#$$$$!": 1600,
      "#$$$$$#$$$$": 1601,
      "%$$$$'": 1602,
      "$$$#$$$$%#": 1603,
      "$!$$'": 1604,
      "$!$%$$&": 1605,
      "$$!%$$\"": 1606,
      "$$'%$$%": 1607,
      "$$'$$$'": 1608,
      "$$$$%%$$$$": 1609,
      "$##&$$%": 1610,
      "$##%$$$$%": 1611,
      "$##&$$\"": 1612,
      "$%#\"$$\"": 1613,
      "\"$$-": 1614,
      "$)Ğ": 1615,
      "&$$$)": 1616,
      "\"$$$$!": 1617,
      "!$$Ĝ": 1618,
      "$$#$$$$$$#$$$$": 1619,
      "$#\"#$$\"": 1620,
      "$%\"!$$#": 1621,
      "$&#\"$$%": 1622,
      "$ĝ(": 1623,
      "$#$$%$": 1624,
      "$\"\"\"$$#": 1625,
      "$!#&$$#": 1626,
      "$,&": 1627,
      "ĀĀ!Āğ": 1628,
      "&%#$$%": 1629,
      "$!&$$$%": 1630,
      "ĀĀ'Ā!": 1631,
      "$#$$$$$$$$$$$": 1632,
      "ĀĀğĀ&": 1633,
      "#$$$%": 1634,
      "&&$$$$": 1635,
      "(\"": 1636,
      "+$$!": 1637,
      "ę$$": 1638,
      "Ĝ%": 1639,
      "Ĝğ": 1640,
      "Ĝ$$&": 1641,
      "ĝ!": 1642,
      "ĠĀ!": 1643,
      "$#$$$$$$$$$$$$$$$$": 1644,
      "$#$'$$%": 1645,
      "$$#&$$%": 1646,
      "$$#$$$&": 1647,
      "$\"$\"$$%": 1648,
      "$$&\"$$&": 1649,
      "#$$$$$$&": 1650,
      "#$$$$$$$%": 1651,
      "$$$#$$$#": 1652,
      "$!%$$$&": 1653,
      "$$'$$$%": 1654,
      "$(,": 1655,
      "$%$$$$$$%%$$$$": 1656,
      "$%%&$$#": 1657,
      "$%%!$$%": 1658,
      "$#%\"$$&": 1659,
      "$)$$%": 1660,
      "&$$$!": 1661,
      "'$$,": 1662,
      "$%&%$$$$": 1663,
      "$%&%$$&": 1664,
      "$#\"$$$%": 1665,
      "$&%%$$&": 1666,
      "$\"#%$$\"": 1667,
      "$\"#&$$%": 1668,
      "#$$$$##$$$$": 1669,
      "$ĝ)": 1670,
      "$%$$%$": 1671,
      "'$$$$\"": 1672,
      "$!#%$$%": 1673,
      "Ā%)": 1674,
      "$,'": 1675,
      "Ā#%": 1676,
      "$!%$$$%": 1677,
      "ĀĀ#Āğ": 1678,
      "Ā'&": 1679,
      "ĀĀ&Āğ": 1680,
      "#$$($": 1681,
      "&##$$#": 1682,
      "\"$": 1683,
      "&#$$&": 1684,
      "))": 1685,
      "+%": 1686,
      "+,": 1687,
      ",$$\"": 1688,
      "-+": 1689,
      "ĜĞ": 1690,
      "ğ$$$$%": 1691,
      "ĠĚ": 1692,
      "Ġ($$": 1693,
      "Ġ!$$$$": 1694,
      "Ġ$'%": 1695,
      "$%\"$$": 1696,
      "$%$!$$%": 1697,
      "$#$&$$&": 1698,
      "$$%!$$%": 1699,
      "$\"$$": 1700,
      "$&&$$$&": 1701,
      "%$$$$$$$%": 1702,
      "$$!#$$!": 1703,
      "$$'%$$&": 1704,
      "%$$$": 1705,
      "$#%%$$\"": 1706,
      "$#%&$$&": 1707,
      "$%##$$$$%": 1708,
      "$ğĝ": 1709,
      "\"$$$$'": 1710,
      "$$%$$$$$$#$$$$": 1711,
      "$*$$$$": 1712,
      "$%&%$$#": 1713,
      "$#\"'$$#": 1714,
      "$&%!$$%": 1715,
      "$\"#\"$$#": 1716,
      "$%\"\"$$#": 1717,
      "$$$&$$$$%": 1718,
      "$$$&$$$$#": 1719,
      "#$$$$%$": 1720,
      "$ĝ'": 1721,
      "$ĝĞ": 1722,
      "$+(": 1723,
      "$\"\"%$$\"": 1724,
      "$$$%$$$$$$#$$$$": 1725,
      "$'%\"$$%": 1726,
      "$$%$$$%$$%": 1727,
      "ğ$$ĝ": 1728,
      "ğ$$$ğ": 1729,
      "$%'#$$&": 1730,
      "Ā\"\"": 1731,
      ")$$Ĝ": 1732,
      "$,\"": 1733,
      "$Ĝ\"": 1734,
      "ĀĀ#Ā(": 1735,
      "ĀĀ#ĀĞ": 1736,
      "Ā&'": 1737,
      "Ā'#": 1738,
      "$'&$$$%": 1739,
      "$'\"$$$#": 1740,
      "\"%%$$%": 1741,
      "ĀĀ-Ā": 1742,
      "!#$$#": 1743,
      ")!": 1744,
      "-ĀĀ": 1745,
      "ěğ": 1746,
      "Ğ$$)": 1747,
      "Ġ#$$%": 1748,
      "Ġ%$$%": 1749,
      "Ġ%$$$%": 1750,
      "Ġ\"$$ğ": 1751,
      "$%$\"$$\"": 1752,
      "$%$\"$$&": 1753,
      "$#ě": 1754,
      "$#$$$%": 1755,
      "$#$!$$$$": 1756,
      "$#!$$$\"": 1757,
      "$$#\"$$\"": 1758,
      "$&$&$$#": 1759,
      "$&$#$$\"": 1760,
      "$'#$$$\"": 1761,
      "$!$%$$$$": 1762,
      "$$!#$$\"": 1763,
      "#$$-": 1764,
      "$%$$$$!": 1765,
      "$##%$$!": 1766,
      "$#%%$$$$%": 1767,
      "$#%%$$$$#": 1768,
      "$#%'$$$$": 1769,
      "$#%#$$'": 1770,
      "$%##$$&": 1771,
      "\"$$ě": 1772,
      "\"$$$$$$#": 1773,
      "!$$/": 1774,
      "$*Ğ": 1775,
      "Ġ$$-": 1776,
      "Ġ$$$ğ": 1777,
      "$\"##$$%": 1778,
      "$&#\"$$\"": 1779,
      "($$ě": 1780,
      "$$$\"$$$$#": 1781,
      "$&&#$$$$": 1782,
      "$&&$$$#": 1783,
      "$&&&$$%": 1784,
      "$&$$$$$$\"": 1785,
      "$!#$$$%": 1786,
      "ğ$$Ĝ": 1787,
      "$%'\"$$%": 1788,
      "$,ğ": 1789,
      "$%!%$$\"": 1790,
      "ĀĀ$Ā)": 1791,
      "$!%%$$%": 1792,
      "Ġ$$$$\"": 1793,
      "ĀĀ\"Āğ": 1794,
      "$!\"%$$#": 1795,
      "$'&#$$%": 1796,
      "$!&%$$%": 1797,
      "$$&$$$$$": 1798,
      "$$##$$#$": 1799,
      "$$$$$$$$$$$$$$$$$$$$$$$$$": 1800,
      "#*": 1801,
      "$ĕ": 1802,
      "&*": 1803,
      "'$$$$##": 1804,
      "+*": 1805,
      ".-": 1806,
      "Ġ&$$$$": 1807,
      "Ġ\"$$%": 1808,
      "Ġ$&%": 1809,
      "Ġ($$\"": 1810,
      "$%$'": 1811,
      "$%%$$#": 1812,
      "$%$$$$$$$$$$$$$$$$": 1813,
      "$%%$$$\"": 1814,
      "$#%$$$'": 1815,
      "$$##$$$$%": 1816,
      "#$$$$&&": 1817,
      "$'$#$$$$": 1818,
      "$'&$$$$": 1819,
      "$'%$$$&": 1820,
      "$$'\"$$%": 1821,
      "$%$$$$$$$#$$$$": 1822,
      "$#$$$$$$$%$$$$": 1823,
      "$##$$$$$$$$$$$$": 1824,
      "$###$$$$%": 1825,
      "$%#$$&": 1826,
      "$%#!$$#": 1827,
      "\"$$$'": 1828,
      "&$$$": 1829,
      "&$$.": 1830,
      "&$$Ě": 1831,
      "$Ğ$$#": 1832,
      "$#\"#$$%": 1833,
      "$#\"&$$$$": 1834,
      "$#\"&$$\"": 1835,
      "$%\"$$$%": 1836,
      "$%\"&$$\"": 1837,
      "($$-": 1838,
      "$#&'$$%": 1839,
      "$$$%$$$$&": 1840,
      "$$$-": 1841,
      "$$$.": 1842,
      "$$#$$$#$$$$$$$$": 1843,
      "Ā\"&": 1844,
      "$%!\"$$#": 1845,
      "$'##$$$$": 1846,
      "$'#%$$#": 1847,
      "$'#\"$$#": 1848,
      "ĀĀ$Āĝ": 1849,
      "ĀĀ\"Ā)": 1850,
      "$#'#$$%": 1851,
      "$$$$%%%$$$$": 1852,
      "Ā(&": 1853,
      "$&!%$$\"": 1854,
      "$-)": 1855,
      "$#$$$$$$$$$$$#": 1856,
      "ĀĀğĀ#": 1857,
      "*$$ĝ": 1858,
      "%$$$$$$$$$#": 1859,
      "%$$$$$$$$$$$%": 1860,
      "#(": 1861,
      "%ĝ": 1862,
      "%$$$$$$$$$$$$$$$$": 1863,
      "Ĝ\"": 1864,
      "Ĝ$$'": 1865,
      "Ğ\"": 1866,
      "Ğ*": 1867,
      "Ğ$$Ğ": 1868,
      "ğ(": 1869,
      "Ġ$\"%": 1870,
      "Ġ($$#": 1871,
      "$%\"$$%": 1872,
      "$%%$$$$%": 1873,
      "$%$%$$$$$$$$": 1874,
      "$%#$$$&": 1875,
      "$%'$$$'": 1876,
      "$#$%": 1877,
      "$#%$$": 1878,
      "$##$$$$#": 1879,
      "$#$!$$%": 1880,
      "$$%!$$$$": 1881,
      "$$%$$$'": 1882,
      "$\"$$'": 1883,
      "$\"$%$$$$#": 1884,
      "$\"$#$$$$#": 1885,
      "$\"$%$$\"": 1886,
      "$&\"$$%": 1887,
      "$&!$$$\"": 1888,
      "$$\"$$#": 1889,
      "$$\"#$$%": 1890,
      "$$&%$$#": 1891,
      "$$&#$$#": 1892,
      "$$$$$$$$$%$$$$": 1893,
      "#$$$$\"\"": 1894,
      "%$$$$!": 1895,
      "ĀĀĔ": 1896,
      "ĀĀĖ": 1897,
      "$!$%$$#": 1898,
      "$$!$": 1899,
      "$$!\"$$#": 1900,
      "$($$!": 1901,
      "$#$$$$'": 1902,
      "$%%%$$\"": 1903,
      "$%%#$$$$%": 1904,
      "$#%#$$$$#": 1905,
      "$#%#$$%$": 1906,
      "$%#&$$\"": 1907,
      "&$$$*": 1908,
      "$ğĜ": 1909,
      "$ğ$$%": 1910,
      "'$$Ě": 1911,
      "$*+": 1912,
      "($$$)": 1913,
      "$\"%#$$$$": 1914,
      "$#&%$$$$": 1915,
      "$#&$$$#": 1916,
      "$#&\"$$%": 1917,
      "$#&\"$$&": 1918,
      "$#&#$$'": 1919,
      "$ĝ*": 1920,
      "$ĝĝ": 1921,
      "$ĝğ": 1922,
      "%$$$$#\"": 1923,
      "%$$$$#&": 1924,
      "$&&%$$&": 1925,
      "$&$$$$$$&": 1926,
      "$$$%$$$$$$": 1927,
      "$$$ě": 1928,
      "$'%%$$%": 1929,
      "Ā\"'": 1930,
      "Ā%*": 1931,
      "$,*": 1932,
      "$!%#$$%": 1933,
      "$!%%$$&": 1934,
      "$Ĝ!": 1935,
      "$Ĝğ": 1936,
      "$!\"$$$%": 1937,
      "$!\"&$$#": 1938,
      "$'&%$$%": 1939,
      "ĀĀ&ĀĞ": 1940,
      "$$$%$$#$": 1941,
      "ĀĀ'Āĝ": 1942,
      "$!$$$$&": 1943,
      "ĀĀĞĀ!": 1944,
      "ĀĀĝĀ!": 1945,
      "Ğ$$ĝ": 1946,
      "#$$$$$$$$$$$%": 1947,
      "!$$$$%#": 1948,
      "'-": 1949,
      "'$$$$%#": 1950,
      "(ğ": 1951,
      ")-": 1952,
      "+)": 1953,
      ",$$$$": 1954,
      "ě$$%": 1955,
      "Ĝ$$$$": 1956,
      "Ĝ$$\"": 1957,
      "Ġ'$$$$": 1958,
      "Ġ$\"&": 1959,
      "Ġ$\"!": 1960,
      "$%$'$$$$": 1961,
      "$%!$$$\"": 1962,
      "$%$!$$#": 1963,
      "$%%$$$'": 1964,
      "$#-": 1965,
      "$$#%$$$$#": 1966,
      "$$#$$$!": 1967,
      "$\"!$$$$": 1968,
      "$\"$%$$$$%": 1969,
      "$&$!": 1970,
      "$&%$$%": 1971,
      "$&$$(": 1972,
      "$&'$$$$": 1973,
      "$&$#$$$$#": 1974,
      "$&$%$$\"": 1975,
      "$&$#$$&": 1976,
      "#$$$$$$$#": 1977,
      "$'$$$%": 1978,
      "$'$$'": 1979,
      "$'$#$$%": 1980,
      "$!#$$$\"": 1981,
      "$$'&$$%": 1982,
      "$(-": 1983,
      "%$$Ę": 1984,
      "%$$Ě": 1985,
      "$#$$$$!": 1986,
      "$#$$$$$$$#$$$$": 1987,
      "$##\"$$\"": 1988,
      "$#%$$$$$$$$$$$$": 1989,
      "$#%!$$%": 1990,
      "$%#!$$$$": 1991,
      "$)$$\"": 1992,
      "\"$$$$&#": 1993,
      "&$$$$\"#": 1994,
      "$$$$$$$$$$$$$%$$$$": 1995,
      "$%&\"$$$$": 1996,
      "$%\"%$$$$": 1997,
      "$&#%$$$$": 1998,
      "$&#&$$\"": 1999,
      "$\"%&$$$$": 2000,
      "$\"%'$$%": 2001,
      "$#&%$$'": 2002,
      "$$$&$": 2003,
      "$$$&$$&": 2004,
      "$$$\"$$&": 2005,
      "$++": 2006,
      "$$($": 2007,
      "$&&%$$#": 2008,
      "$&&#$$#": 2009,
      "$#$$#$": 2010,
      "$\"$$$$$$\"": 2011,
      "$\"&\"$$%": 2012,
      "$#$$$$#$": 2013,
      "$$#$$$#$$#": 2014,
      ")$$+": 2015,
      "$!%%$$$$": 2016,
      "Ġ\"#$$#": 2017,
      "ĀĀ#Ā)": 2018,
      "Ā&\"": 2019,
      "'$$\"$": 2020,
      "$\"!#$$#": 2021,
      "!$$&$": 2022,
      "$'&\"$$%": 2023,
      "ĀĀ!Ā'": 2024,
      "$$$%$$%#$$%": 2025,
      "$-%": 2026,
      "$$$'$$%": 2027,
      "ĀĀ'Ā#": 2028,
      "ĀĀ'Ā'": 2029,
      "ĀĀ'Āğ": 2030,
      "$#$$$$$$$$$$$%": 2031,
      "$!$$$$\"": 2032,
      "$$%%$$%$": 2033,
      "%$$$$$$$$$$$#": 2034,
      "$#$%$$%$": 2035,
      "#ĝ": 2036,
      "&ĝ": 2037,
      "&\"$$%": 2038,
      "'ğ": 2039,
      "'$$$$#%": 2040,
      ",&": 2041,
      ",$$&": 2042,
      "/$": 2043,
      "ě!": 2044,
      "ě$$#": 2045,
      "ě$$'": 2046,
      "Ğ$$ğ": 2047,
      "ğ$$$$#": 2048,
      "Ġę": 2049,
      "Ġ'$$%": 2050,
      "Ġ$#!": 2051,
      "Ġ$'!": 2052,
      "$$$*": 2053,
      "$%$!": 2054,
      "$%#$$": 2055,
      "$%$!$$$$": 2056,
      "$%$'$$#": 2057,
      "$%#$$$!": 2058,
      "$##$$": 2059,
      "$#$&$$$$#": 2060,
      "$$%\"$$#": 2061,
      "$\"$$!": 2062,
      "$\"#$$": 2063,
      "$\"$\"$$#": 2064,
      "$&$&$$%": 2065,
      "$&%$$$\"": 2066,
      "$$\"$": 2067,
      "$$&$$#": 2068,
      "$$&!$$%": 2069,
      "#$$$$$%$$$$": 2070,
      "%$$$$$$$#$$$$": 2071,
      "ĀĀĕ": 2072,
      "$$$%$$$$##": 2073,
      "$'$#$$\"": 2074,
      "$'\"$$$!": 2075,
      "$!$": 2076,
      "$!,": 2077,
      "$!$#$$#": 2078,
      "$$'#$$&": 2079,
      "$%$$$$$$$%$$$$": 2080,
      "$%%#$$\"": 2081,
      "$%%!$$$$": 2082,
      "$%#'$$#": 2083,
      "$%##$$!": 2084,
      "$ğ$$#": 2085,
      "\"$$$$$": 2086,
      "\"$$$$\"#": 2087,
      "$Ğĝ": 2088,
      "$$$$$$$$$$$$$$$#": 2089,
      "$%&&$$$$": 2090,
      "$#\"%$$!": 2091,
      "$#\"#$$!": 2092,
      "$&%\"$$#": 2093,
      "$&%&$$%": 2094,
      "$&%\"$$&": 2095,
      "$%\"#$$$$": 2096,
      "($$$*": 2097,
      "$&$$$$$$": 2098,
      "$#$$$$%%": 2099,
      "#$$'$!": 2100,
      "$\"&%$$'": 2101,
      "$'%\"$$#": 2102,
      "$!#%$$$$": 2103,
      "ğ$$.": 2104,
      "$%'%$$&": 2105,
      "$#!#$$\"": 2106,
      "Ā%+": 2107,
      "Ā#\"": 2108,
      "$Ĝ(": 2109,
      "ĀĀ\"Ā(": 2110,
      "ĀĀ#Ā'": 2111,
      "$#'%$$&": 2112,
      "Ġ#$$$%": 2113,
      "Ġ$$#$": 2114,
      "$$)$": 2115,
      "$!\"$$$#": 2116,
      "$&'#$$&": 2117,
      "ĀĀ!ĀĞ": 2118,
      "$$$%$$%%$$%": 2119,
      "'$$&$": 2120,
      "$$$#$$#$": 2121,
      "$ě%": 2122,
      "ĀĀ'Ā(": 2123,
      "%$$($": 2124,
      "$$$!$$$$": 2125,
      "$$$!$$#": 2126,
      "ĀĀğĀğ": 2127,
      "!$$'$": 2128,
      "ĀĀ(Ā!": 2129,
      "#$$$$$$$$$$$#": 2130,
      "%$$)$": 2131,
      "$$$$$$$$##": 2132,
      "'$$$&$": 2133,
      "(#$$&": 2134,
      "*$$ğ": 2135,
      "++": 2136,
      ".,": 2137,
      "Ā.": 2138,
      "Ĝ!": 2139,
      "ĠĀğ": 2140,
      "Ġ*$$": 2141,
      "Ġ%$$Ğ": 2142,
      "$%$\"$$$$#": 2143,
      "$%&$$$'": 2144,
      "$#.": 2145,
      "$#$$(": 2146,
      "$#$$$#$": 2147,
      "$#$&$$$$%": 2148,
      "$#'$$$'": 2149,
      "$#$&$$\"": 2150,
      "$$%%$$\"": 2151,
      "$$%$$$\"": 2152,
      "$$%%$$$$#": 2153,
      "$$#$$$$#": 2154,
      "$$##$$$$#": 2155,
      "$\"$": 2156,
      "$\"$\"$$$$": 2157,
      "$\"#$$$&": 2158,
      "$&ě": 2159,
      "$&$$$$$$$$$$$$": 2160,
      "$&$&$$$$": 2161,
      "$&\"$$$!": 2162,
      "$$\"$$$!": 2163,
      "$$&&$$&": 2164,
      "#$$$$'%": 2165,
      "%$$$$$$$#": 2166,
      "$$$%$$$$%%": 2167,
      "$'$\"$$#": 2168,
      "$!#$$#": 2169,
      "$!'$$$&": 2170,
      "$$!&$$#": 2171,
      "$$$$%$#$$$$": 2172,
      "#$$ę": 2173,
      "$%$$$$$$$&": 2174,
      "$%%%$$$$%": 2175,
      "$%%'$$$$": 2176,
      "$##($$#": 2177,
      "$#%$$$%$$#": 2178,
      "\"$$$ğ": 2179,
      "$ğ+": 2180,
      "$ğ,": 2181,
      "&$$$$$$#": 2182,
      "'$$-": 2183,
      "$Ğ+": 2184,
      "$Ğ$$%": 2185,
      "$%&!$$%": 2186,
      "$#\"\"$$%": 2187,
      "$&%&$$$$": 2188,
      "Ġ$$$&": 2189,
      "$\"#&$$$$": 2190,
      "$%\"#$$!": 2191,
      "($$Ĝ": 2192,
      "$\"%#$$#": 2193,
      "$$$&$$\"": 2194,
      "#$$$$#\"": 2195,
      "#$$$$#%$$$%": 2196,
      "$%$$#$": 2197,
      "$\"\"$$$%": 2198,
      "$\"$$$$$$": 2199,
      "$%%$$$$$$%$$$$": 2200,
      "$$#$$$#$$%": 2201,
      "ğ$$,": 2202,
      "Ā\")": 2203,
      ")$$ĝ": 2204,
      ")$$$)": 2205,
      ")$$$*": 2206,
      "$%!%$$!": 2207,
      "$'#&$$#": 2208,
      "ĀĀ%Ā'": 2209,
      "ĀĀ#Ā%": 2210,
      "Ā!#": 2211,
      "Ā&#": 2212,
      "Ā&&": 2213,
      "$\"!%$$\"": 2214,
      "ĀĀ!Ā)": 2215,
      "$$$%$$%$": 2216,
      "$'\"%$$\"": 2217,
      "$\"'#$$&": 2218,
      "ĀĞ#": 2219,
      "$!!%$$#": 2220,
      "$''$$$%": 2221,
      "$''#$$%": 2222,
      "$$*$": 2223,
      "$&(%$$%": 2224,
      "$(##$$#": 2225,
      "&$$($": 2226,
      "ĝ$$+": 2227,
      "$#%%$$%$": 2228,
      "$#$#$$#$": 2229,
      "$%$$$$$$$$$$$$$": 2230,
      "%$$$$##%$$#": 2231,
      "#Ğ": 2232,
      "%\"": 2233,
      "%&$$%": 2234,
      "&,": 2235,
      "&'$$%": 2236,
      "'&$$%": 2237,
      "'%$$&": 2238,
      "'$$$$%%": 2239,
      "*!": 2240,
      "+$$)": 2241,
      "+$$Ğ": 2242,
      "-$$#": 2243,
      "Ĝ$$!": 2244,
      "ĝ$$ğ": 2245,
      "ĞĞ": 2246,
      "Ġ0": 2247,
      "Ġ$&&": 2248,
      "Ġ$&$$$$": 2249,
      "Ġ$,": 2250,
      "Ġ%$$ğ": 2251,
      "$$.": 2252,
      "$$$+": 2253,
      "$%ě": 2254,
      "$%$$$#": 2255,
      "$%#$$#": 2256,
      "$%\"$$$!": 2257,
      "$%$&$$\"": 2258,
      "$%$#$$'": 2259,
      "$#$'": 2260,
      "$#\"$$$!": 2261,
      "$#$\"$$\"": 2262,
      "$$%%$$'": 2263,
      "$$#%$$!": 2264,
      "$\"Ě": 2265,
      "$\"&$$#": 2266,
      "$\"\"$$#": 2267,
      "$&-": 2268,
      "$&&$$$'": 2269,
      "$&$#$$!": 2270,
      "$$\"!$$#": 2271,
      "$$&$$$%$": 2272,
      "$$&$$$'": 2273,
      "$$$$$$$$\"": 2274,
      "%$$$$$$\"": 2275,
      "$$$%$$": 2276,
      "$$$#$$$$##": 2277,
      "$'!$$": 2278,
      "$!.": 2279,
      "$!$&$$%": 2280,
      "$$$$%&": 2281,
      "$$$$%#$$$$": 2282,
      "$$$$#\"": 2283,
      "$$$$#$%$$$$": 2284,
      "#$$Ě": 2285,
      "$#$$$$$$%#$$$$": 2286,
      "$%%#$$'": 2287,
      "$###$$&": 2288,
      "$#%$$\"": 2289,
      "$ğě": 2290,
      "!$$Ě": 2291,
      "#$$&$!": 2292,
      "$$#$$$$$$%$$$%": 2293,
      "$Ğ$$$$": 2294,
      "$%&#$$#": 2295,
      "$#\"#$$$$": 2296,
      "$#\"%$$": 2297,
      "$%\"#$$%": 2298,
      "$%\"'$$#": 2299,
      "($$$": 2300,
      "$\"%&$$&": 2301,
      "#$$$$%#$$$$": 2302,
      "#$$$$%%$$$%": 2303,
      "#$$$$#$": 2304,
      "$+Ğ": 2305,
      "$$($$$%": 2306,
      "$&&!$$%": 2307,
      "$\"\"#$$$$": 2308,
      "$\"\"&$$\"": 2309,
      "$&$$$$'": 2310,
      "$\"&&$$&": 2311,
      "$'%%$$#": 2312,
      "$'%\"$$$$": 2313,
      "$!#\"$$#": 2314,
      "$#!&$$#": 2315,
      "$%!\"$$\"": 2316,
      "$!%&$$$$": 2317,
      "ĀĀ%Ā(": 2318,
      "ĀĀ%ĀĞ": 2319,
      "$Ĝ'": 2320,
      "Ġ$$$$'": 2321,
      "Ā&!": 2322,
      "$!\"#$$#": 2323,
      "$&'%$$%": 2324,
      "ĀĀ!Ā%": 2325,
      "ĀĀ!Āĝ": 2326,
      "ĀĀ&Ā(": 2327,
      "$'\"%$$#": 2328,
      "$'\"\"$$#": 2329,
      "$\"'$$$%": 2330,
      "$$$#$$#%$$#": 2331,
      "($$%$": 2332,
      "$&!#$$#": 2333,
      "$ě!": 2334,
      "$ě'": 2335,
      "$ěğ": 2336,
      "($$$$!": 2337,
      "\"%#$$%": 2338,
      "$#$$$$$$$$$$$$$$$$$$$$": 2339,
      "$&(#$$%": 2340,
      "&&$$$%": 2341,
      "&&#$$%": 2342,
      "ĝ$$ĝ": 2343,
      "$$$$$$$$%%": 2344,
      "$'(#$$%": 2345,
      "$$$$$$$$$$$$$$$$$$$$$$$$$$$": 2346,
      "#$$$$%#%$$#": 2347,
      "#,": 2348,
      "),": 2349,
      ")ĝ": 2350,
      "*(": 2351,
      "+#": 2352,
      "-#": 2353,
      "-$$!": 2354,
      ".$$#": 2355,
      "Ě#": 2356,
      "Ěě": 2357,
      "Ğĝ": 2358,
      "Ġė": 2359,
      "Ġ#$$&": 2360,
      "Ġ$&\"": 2361,
      "Ġ$&'": 2362,
      "Ġ$$$$%%": 2363,
      "Ġ&$$ğ": 2364,
      "Ġ'$$ğ": 2365,
      "$$/": 2366,
      "$%-": 2367,
      "$%%$$$$#": 2368,
      "$%#$$%$": 2369,
      "$%'$$$&": 2370,
      "$%$&$$&": 2371,
      "$%!$$$!": 2372,
      "$#\"$$#": 2373,
      "$##$$$$%": 2374,
      "$#$\"$$&": 2375,
      "$#\"$$$&": 2376,
      "$$%#$$'": 2377,
      "$$#($$#": 2378,
      "$\"-": 2379,
      "$\"$'$$$$": 2380,
      "$\"!$$$\"": 2381,
      "$&$!$$%": 2382,
      "$$\"'$$#": 2383,
      "$$&#$$'": 2384,
      "$$$$$$$$$%$$$%": 2385,
      "#$$$$\"#": 2386,
      "%$$$$&%": 2387,
      "$'ě": 2388,
      "$''$$$$": 2389,
      "$'$\"$$%": 2390,
      "$!%$$$$": 2391,
      "$!$\"$$%": 2392,
      "$(ě": 2393,
      "$%%%$$$$#": 2394,
      "$%%#$$%$": 2395,
      "$#%\"$$#": 2396,
      "$),": 2397,
      "&$$Ę": 2398,
      "\"$$$$$$%": 2399,
      "%$$\"$\"": 2400,
      "$%&'$$%": 2401,
      "Ġ$$.": 2402,
      "Ġ$$ě": 2403,
      "$\"##$$&": 2404,
      "$\"#&$$\"": 2405,
      "$\"#'$$#": 2406,
      "$%\"\"$$\"": 2407,
      "$&#%$$%": 2408,
      "$#&%$$#": 2409,
      "$$$\"$": 2410,
      "$+*": 2411,
      "%$$$$%\"": 2412,
      "%$$$$%'": 2413,
      "$&&\"$$&": 2414,
      "$\"\"%$$!": 2415,
      "'$$$$!": 2416,
      "$%$$$$%%": 2417,
      "$'%%$$&": 2418,
      "$$%$$$%$$$$$$$$": 2419,
      "$!#&$$%": 2420,
      ")$$,": 2421,
      "$,ĝ": 2422,
      "$%!&$$#": 2423,
      "$#'%$$%": 2424,
      "$#'\"$$&": 2425,
      "Ā'(": 2426,
      "$'&#$$&": 2427,
      "$\"'%$$%": 2428,
      "$\"'%$$&": 2429,
      "$%($$$$": 2430,
      "$ě\"": 2431,
      "$ě#": 2432,
      "\"$$($": 2433,
      "$#($$$%": 2434,
      "$$#%$$#$": 2435,
      "$$\"$$$$$": 2436,
      "\"&$$$%": 2437,
      "#$$$$$$$$$%": 2438,
      "Ġ($$!": 2439,
      "$##%$$#$": 2440,
      "Ā*&": 2441,
      "$Ě%": 2442,
      "Ā+%": 2443,
      "$%##$$#$": 2444,
      "%$$$$$$%$$#": 2445,
      "#$$$$%%%$$$$": 2446,
      "!$$$$%%": 2447,
      "\",": 2448,
      "\"!$$#": 2449,
      "#\"$$$$": 2450,
      "#&$$#": 2451,
      "&%$$&": 2452,
      "'+": 2453,
      "*'": 2454,
      "*$$*": 2455,
      "+/": 2456,
      ".ĀĀ": 2457,
      "ę#": 2458,
      "Ě%": 2459,
      "ěě": 2460,
      "ĝ$$)": 2461,
      "ĝ$$*": 2462,
      "Ġ$##": 2463,
      "Ġ&$$%": 2464,
      "Ġ!$$%": 2465,
      "Ġ$%'": 2466,
      "ĠĀ\"": 2467,
      "Ġ$'#": 2468,
      "Ġ$Ĝ": 2469,
      "Ġ$'&": 2470,
      "Ġ%$$$&": 2471,
      "Ġ$$$$#%": 2472,
      "ĠĀĞ": 2473,
      "Ġ$!'": 2474,
      "Ġ$'$$%": 2475,
      "$$Ę": 2476,
      "$$ę": 2477,
      "$%!$$": 2478,
      "$%#$$$$%": 2479,
      "$%$$$%$$#": 2480,
      "$#'$$$$": 2481,
      "$#$!$$#": 2482,
      "$#%$$$\"": 2483,
      "$#&$$$'": 2484,
      "$#!$$$!": 2485,
      "$#$#$$!": 2486,
      "$$#!$$$$": 2487,
      "$\"\"$$": 2488,
      "$\"$$(": 2489,
      "$\"$'$$%": 2490,
      "$\"%$$$\"": 2491,
      "$&$$$$$$$$": 2492,
      "$&$'$$#": 2493,
      "$&#$$$!": 2494,
      "$$\"&$$$$": 2495,
      "$$&$$%": 2496,
      "%$$$$\"%": 2497,
      "ĀĀ:": 2498,
      "$!$&$$#": 2499,
      "$(Ĝ": 2500,
      "%$$$)": 2501,
      "#$$/": 2502,
      "$%$$$$$$##$$$$": 2503,
      "$#$$$$%$$$$$$%": 2504,
      "$##$$\"": 2505,
      "$##'$$$$": 2506,
      "$#%#$$$$%": 2507,
      "$%#$$$$$$$$$$$$": 2508,
      "$%#%$$$$%": 2509,
      "$%#%$$!": 2510,
      "\"$$/": 2511,
      "$)$": 2512,
      "$$%$$$$$$$#$$$$": 2513,
      "$*ĝ": 2514,
      "$$#$$$$$$": 2515,
      "$%&&$$&": 2516,
      "$#\"($$#": 2517,
      "$#&#$$#": 2518,
      "#$$$$%\"": 2519,
      "$$$\"$$\"": 2520,
      "$$$\"$$$$%": 2521,
      "%$$$$##$$$#": 2522,
      "$$(%$$&": 2523,
      "$\"$$$$!": 2524,
      "!$$$$&": 2525,
      "$$$%$$$$$$%$$$$": 2526,
      "$$$Ě": 2527,
      "#$$'$\"": 2528,
      "$\"&\"$$&": 2529,
      "$\"&'$$%": 2530,
      "$'%#$$$$": 2531,
      "$'%#$$&": 2532,
      "$'%!$$%": 2533,
      "$&\"#$$\"": 2534,
      "$$%$$$%$$#": 2535,
      "$!##$$#": 2536,
      "$%'&$$%": 2537,
      "$%'\"$$&": 2538,
      "$%'!$$&": 2539,
      "$,)": 2540,
      "$,-": 2541,
      "$'#%$$\"": 2542,
      "Ā##": 2543,
      "Ā#(": 2544,
      "$!%&$$%": 2545,
      "ĀĀ%Āĝ": 2546,
      "ĀĀ%Ā*": 2547,
      "$Ĝ)": 2548,
      "Ġ$$$$!": 2549,
      "Ġ\"$$$#": 2550,
      "ĀĀ#Āĝ": 2551,
      "Ġ$$%$": 2552,
      "ĀĀ!Ā&": 2553,
      "ĀĀ!Ā(": 2554,
      "&%\"$$%": 2555,
      "$'\"#$$#": 2556,
      "$%($$$%": 2557,
      "$%(#$$%": 2558,
      "$%(#$$&": 2559,
      "Ġ%%$$%": 2560,
      "\"#$$$%": 2561,
      "$$$#$$##$$#": 2562,
      "Ā('": 2563,
      "$$$$##&$$#": 2564,
      "!$$\"$": 2565,
      "$-&": 2566,
      "$-(": 2567,
      "$#$$$$$$$$%$$$$": 2568,
      "$$\"$$$$$$%": 2569,
      "$'!$$$#": 2570,
      "Ğ$$Ĝ": 2571,
      "\"&%$$%": 2572,
      "$Ě#": 2573,
      "$.&": 2574,
      "$#$#$$%$": 2575,
      "$$$$$$$$#%": 2576,
      "$#$$$$$$%$$$$#": 2577,
      "+$$$(": 2578,
      "$$$$$$$$$$$$$$$$$$$$$$$$$$": 2579,
      "$#$$$$$$$#$$$#": 2580,
      "!$": 2581,
      "!#$$$$": 2582,
      "!!$$#": 2583,
      "\"$$$$$$$$": 2584,
      "#$$$$$$$$$$$$$$$$": 2585,
      "%Ğ": 2586,
      "&Ğ": 2587,
      "&!$$%": 2588,
      "&#$$$#": 2589,
      "'%$$$$": 2590,
      ")ğ": 2591,
      "*$$)": 2592,
      "*$$Ğ": 2593,
      "--": 2594,
      ".+": 2595,
      "Ěĝ": 2596,
      "Ěğ": 2597,
      "Ě$$&": 2598,
      "Ĝ*": 2599,
      "ĝĀĀ": 2600,
      "Ġ$#%": 2601,
      "Ġ$Ğ": 2602,
      "Ġ$\"#": 2603,
      "Ġ$'\"": 2604,
      "Ġ$&!": 2605,
      "Ġ$%ğ": 2606,
      "Ġ#$$Ğ": 2607,
      "$$$ĝ": 2608,
      "$$$$$$#$": 2609,
      "$%&$$": 2610,
      "$%!$$$$": 2611,
      "$%($$$&": 2612,
      "$#&$$": 2613,
      "$#$$$\"": 2614,
      "$#%$$$$%": 2615,
      "$##$$$!": 2616,
      "$#($$$&": 2617,
      "$#$($$$$": 2618,
      "$$##$$&": 2619,
      "$\"%$$\"": 2620,
      "$\"$$$\"": 2621,
      "$&#$$&": 2622,
      "$&$%$$$$#": 2623,
      "$&$!$$#": 2624,
      "$&$\"$$\"": 2625,
      "$$\"$$$%": 2626,
      "$$\"$$$$#": 2627,
      "$$\"%$$%": 2628,
      "$$&&$$#": 2629,
      "$$$$$$$$$$#$$$$": 2630,
      "$$$$$$$$#$$$$%": 2631,
      "#$$$$$$$#$$$$": 2632,
      "%$$$$(": 2633,
      "%$$$$$$&": 2634,
      "$$$%$$'": 2635,
      "$'#$$%": 2636,
      "$'$&$$%": 2637,
      "$'$!$$#": 2638,
      "$!-": 2639,
      "$!!$$$$": 2640,
      "$!$&$$$$": 2641,
      "$$!&$$\"": 2642,
      "$$'$$#": 2643,
      "$$'&$$&": 2644,
      "$$'!$$&": 2645,
      "$($": 2646,
      "$($$": 2647,
      "$($$&": 2648,
      "$($$$$%": 2649,
      "%$$$ğ": 2650,
      "$#$$$$$%$$$$": 2651,
      "$%%'$$%": 2652,
      "$#%!$$&": 2653,
      "$%#&$$%": 2654,
      "$%#'$$$$": 2655,
      "$%#\"$$$$%": 2656,
      "&$$ę": 2657,
      "$ğ$$\"": 2658,
      "$ğ$$&": 2659,
      "\"$$%$\"": 2660,
      "!$$.": 2661,
      "!$$ě": 2662,
      "$$%$$$$$$#$$$#": 2663,
      "$*,": 2664,
      "$$#$$$$$$$#$$$$": 2665,
      "$%&#$$'": 2666,
      "$%&!$$&": 2667,
      "#$$\"$(": 2668,
      "$&%%$$\"": 2669,
      "$%\"%$$": 2670,
      "$&#!$$#": 2671,
      "$#&&$$#": 2672,
      "#$$$$%$%$$$$": 2673,
      "$ĝ+": 2674,
      "%$$$$%#$$$#": 2675,
      "%$$$$#%$$$%": 2676,
      "$$(#$$&": 2677,
      "$\"\"#$$%": 2678,
      "!$$$$&#": 2679,
      "$$$#$$$$$$": 2680,
      "$%$$$$#$#$$$$": 2681,
      "$%$$$$%$$$$$$$$": 2682,
      "$\"&%$$#": 2683,
      "$##$$$$$##$$$$": 2684,
      "$&\"\"$$\"": 2685,
      "$#$$$$#$%$$$$": 2686,
      "$%'%$$'": 2687,
      "Ā\"!": 2688,
      "$#!&$$!": 2689,
      "$%!&$$\"": 2690,
      "$Ĝĝ": 2691,
      "$#'&$$&": 2692,
      "$#'#$$'": 2693,
      "Ġ#%$$%": 2694,
      "$!\"#$$%": 2695,
      "$$ğ$": 2696,
      "ĀĀ&Ā\"": 2697,
      "ĀĀ&Āĝ": 2698,
      "$\"'\"$$%": 2699,
      "$%(%$$%": 2700,
      "Ġ%&$$%": 2701,
      "$$$$%##$$$$": 2702,
      "$%$$$$$$$$#$$$$": 2703,
      "$%$$$$$$$$$$$$$$$$$$$$": 2704,
      "ĀĀğĀ!": 2705,
      "Ā)%": 2706,
      "$(&#$$%": 2707,
      "$'$$$$\"": 2708,
      "$$\"$$$$$$#": 2709,
      "ĀĀ(Ā&": 2710,
      "ĀĀ(Āğ": 2711,
      "\"\"$$$#": 2712,
      "Ğ$$,": 2713,
      "Ğ$$$ğ": 2714,
      "#$$$$$$$$$$$$#": 2715,
      "Ā+&": 2716,
      "&\"#$$#": 2717,
      "Ġ)$$\"": 2718,
      "$%$#$$%$": 2719,
      "+$$,": 2720,
      "#$$$$$$#$$%": 2721,
      "%$$$$%%#$$%": 2722,
      "#$$$$###$$$$": 2723,
      "$$$%$$$$$$$$$$$": 2724,
      "$$$#$$$$$$$$$$$": 2725,
      "%$$$$#%#$$$$": 2726,
      "!%$$\"": 2727,
      "!\"$$#": 2728,
      "!$$$$#%": 2729,
      "#)": 2730,
      "##$$\"": 2731,
      "#%$$$$#": 2732,
      "%,": 2733,
      "%ğ": 2734,
      "%\"$$$$": 2735,
      "%#$$&": 2736,
      "&$": 2737,
      "&\"$$$$": 2738,
      "&\"$$&": 2739,
      "'Ĝ": 2740,
      "'Ğ": 2741,
      "'\"$$%": 2742,
      ")$$$$#": 2743,
      "*Ğ": 2744,
      ",%": 2745,
      "-*": 2746,
      "-.": 2747,
      "ēĀ": 2748,
      "ę$$%": 2749,
      "Ě$": 2750,
      "Ě)": 2751,
      "ĚĜ": 2752,
      "Ě$$$$": 2753,
      "ĜĜ": 2754,
      "ĜĀĀ": 2755,
      "ĝ*": 2756,
      "ĠĘ": 2757,
      "Ġ$%$$$$": 2758,
      "Ġ%$$&": 2759,
      "Ġ$#$$%": 2760,
      "Ġ$!%": 2761,
      "Ġ$$$$##": 2762,
      "Ġ$&$$#": 2763,
      "Ġ$$$$%#": 2764,
      "Ġ$!!": 2765,
      "Ġ$\"(": 2766,
      "Ġ$'(": 2767,
      "Ġ$(!": 2768,
      "ĠĜ$$": 2769,
      "Ġ&$$Ğ": 2770,
      "$%$&$$$$#": 2771,
      "$#%$$%": 2772,
      "$#%$$$$#": 2773,
      "$#$$)": 2774,
      "$#$#$$$$$$$$": 2775,
      "$$#%$$&": 2776,
      "$$#'$$#": 2777,
      "$\".": 2778,
      "$\"$&$$$$#": 2779,
      "$\"'$$$'": 2780,
      "$&!$$": 2781,
      "$$\"\"$$\"": 2782,
      "$$\"%$$!": 2783,
      "$$$$$$$$$#$$$$": 2784,
      "$$$$$$$$$#$$$#": 2785,
      "#$$$$$$$%$$$$": 2786,
      "#$$$$$$%%$$$$": 2787,
      "%$$$$ğ": 2788,
      "$$$%$$!": 2789,
      "$$$%$$$$#%": 2790,
      "$'$%$$\"": 2791,
      "$'!$$$\"": 2792,
      "$''$$$&": 2793,
      "$!ě": 2794,
      "$!%$$#": 2795,
      "$!$#$$$$": 2796,
      "$!&$$$$": 2797,
      "$!$#$$%": 2798,
      "$!!$$$\"": 2799,
      "$$'!$$%": 2800,
      "%$$/": 2801,
      "%$$%$(": 2802,
      "$%$$$$$$#%$$$$": 2803,
      "$#$$$$&%": 2804,
      "$#$$$$$$%%$$$$": 2805,
      "$%%!$$#": 2806,
      "$%%$$$%$$#": 2807,
      "$%%%$$$$$$$$": 2808,
      "$##!$$#": 2809,
      "$###$$$$%%": 2810,
      "$#%&$$'": 2811,
      "$%#$$$#$$%": 2812,
      "\"$$ę": 2813,
      "\"$$Ě": 2814,
      "'$$.": 2815,
      "'$$$!": 2816,
      "!$$$Ğ": 2817,
      "$$%$$$$$##": 2818,
      "$$%$$$$$%#$$$$": 2819,
      "$$$$$$$$$$$$$#": 2820,
      "$$$$$$$$$$$$$$$%": 2821,
      "$#\"#$$&": 2822,
      "$#\"!$$#": 2823,
      "$&%&$$#": 2824,
      "Ġ$$$Ğ": 2825,
      "$\"#'$$$$": 2826,
      "$&#!$$$$": 2827,
      "$\"%!$$%": 2828,
      "$#&&$$$$": 2829,
      "#$$$$##$$$#": 2830,
      "$ĝě": 2831,
      "\"$$&$!": 2832,
      "$$($$$$": 2833,
      "$&&\"$$$$": 2834,
      "$\"\"%$$&": 2835,
      "$\"\"\"$$\"": 2836,
      "$\"$$$$'": 2837,
      "'$$$$&%": 2838,
      "$#$$$$%%$$$$": 2839,
      "$$$#$$$$$$#$$$$": 2840,
      "$!##$$$$": 2841,
      "$!#&$$$$": 2842,
      "$!#%$$&": 2843,
      "$#!#$$!": 2844,
      "$%!%$$": 2845,
      "$'#$$$%": 2846,
      "$#%$$$$$$%$$$$": 2847,
      "ĀĀ\"Ā*": 2848,
      "ĀĀ\"Ā+": 2849,
      "ĀĀ#Ā+": 2850,
      "$\"!'$$\"": 2851,
      "$!\"%$$\"": 2852,
      "Ā''": 2853,
      "Ā')": 2854,
      "&%%$$%": 2855,
      "($$#$": 2856,
      "\"#%$$$$": 2857,
      "Ā(%": 2858,
      "$&!\"$$\"": 2859,
      "($$$$&": 2860,
      "\"%&$$%": 2861,
      "$!!%$$\"": 2862,
      "ĀĀğĀĞ": 2863,
      "$&($$$%": 2864,
      "$#(#$$%": 2865,
      "\"\"%$$#": 2866,
      "ĀĀĞĀ#": 2867,
      "ĀĀĞĀğ": 2868,
      "*$$+": 2869,
      "*$$,": 2870,
      "*$$$)": 2871,
      "$#$$$$$$#%$$$$": 2872,
      "ĝ$$$ğ": 2873,
      "$.)": 2874,
      "$.ğ": 2875,
      "$$$$$$$$%#$$$$": 2876,
      "$$$$$$$$%%$$$%": 2877,
      "$#$%$$#$": 2878,
      "ĀĀ+Ā!": 2879,
      "$&%$$$$$": 2880,
      "\"$$ğ$": 2881,
      "%$$$$%%#$$$$": 2882,
      "#$$$$##%$$$$": 2883,
      "$%%%$$%$": 2884,
      "Ġ%$$ĝ": 2885,
      "%$$$$%##$$#": 2886,
      "\"&$$\"": 2887,
      "\"\"$$\"": 2888,
      "#\"": 2889,
      "#ğ": 2890,
      "$ĀĀ$Ā": 2891,
      "&+": 2892,
      "&ğ": 2893,
      "&'$$$$": 2894,
      "*\"": 2895,
      ".)": 2896,
      "Ę!": 2897,
      "Ě$$%": 2898,
      "ě'": 2899,
      "Ĝ(": 2900,
      "Ĝ$$)": 2901,
      "ğ#$$\"": 2902,
      "ğ%$$!": 2903,
      "Ġ1": 2904,
      "ĠĠ": 2905,
      "Ġ$#\"": 2906,
      "Ġ$%$$%": 2907,
      "Ġ$%$$#": 2908,
      "Ġ$#$$#": 2909,
      "Ġ!$$&": 2910,
      "Ġ$&$$%": 2911,
      "Ġ$''": 2912,
      "Ġ$(\"": 2913,
      "Ġ$#ğ": 2914,
      "Ġ$)&": 2915,
      "$%.": 2916,
      "$%$&": 2917,
      "$%$&$$$$%": 2918,
      "$%$$$$$$$$$$$$$$$$$$": 2919,
      "$#$$ğ": 2920,
      "$##$$#$": 2921,
      "$#$#$$'": 2922,
      "$#&$$$(": 2923,
      "$$%'$$#": 2924,
      "$$%'$$&": 2925,
      "$$%#$$%$": 2926,
      "$$#&$$$$#": 2927,
      "$\"$&": 2928,
      "$\"$$$$$$$$": 2929,
      "$\"$#$$$$%": 2930,
      "$\"'$$$&": 2931,
      "$\"\"$$$!": 2932,
      "$\"$!$$%": 2933,
      "$\"#$$$!": 2934,
      "$&%$$&": 2935,
      "$&$%$$&": 2936,
      "$$\"\"$$%": 2937,
      "$$\"'$$\"": 2938,
      "$$&%$$'": 2939,
      "$$$$$$$$&": 2940,
      "$$$$$$$$$$%$$$$": 2941,
      "$$$$$$$$#$$$$#": 2942,
      "#$$$$$%%$$$$": 2943,
      "%$$$$\"&": 2944,
      "ĀĀĒ": 2945,
      "$$$%$$$%": 2946,
      "$$$%$$$$%#": 2947,
      "$$$#$$!": 2948,
      "$$$#$$$$#%": 2949,
      "$'-": 2950,
      "$'Ě": 2951,
      "$'$%$$$$": 2952,
      "$'$%$$%": 2953,
      "$'$&$$#": 2954,
      "$!$$": 2955,
      "$!\"$$$\"": 2956,
      "$$$$##$$$$": 2957,
      "$(&$$$$": 2958,
      "$(#$$$#": 2959,
      "%$$#$$#": 2960,
      "#$$($$%": 2961,
      "$##'$$\"": 2962,
      "$##&$$$$%": 2963,
      "$%#'$$\"": 2964,
      "\"$$$ĝ": 2965,
      "\"$$$$$$": 2966,
      "&$$$$\"%": 2967,
      "'$$ę": 2968,
      "'$$$*": 2969,
      "$$%$$$$$$\"": 2970,
      "$*$$\"": 2971,
      "$ĞĜ": 2972,
      "$$$$$$$$$$$$$%": 2973,
      "$%&$$$%$": 2974,
      "$#\"%$$$$%": 2975,
      "$\"#%$$$$#": 2976,
      "$%\"\"$$%": 2977,
      "$&#\"$$$$": 2978,
      "$&#%$$!": 2979,
      "($$.": 2980,
      "($$/": 2981,
      "$+$$$$": 2982,
      "\"$$&$%": 2983,
      "$$(#$$%": 2984,
      "$&&%$$$$": 2985,
      "$&&!$$&": 2986,
      "$\"\"\"$$%": 2987,
      "$\"\"#$$\"": 2988,
      "$\"\"$$$#$": 2989,
      "!$$$$'": 2990,
      "!$$$$&%": 2991,
      "$&$$$$!": 2992,
      "$$$#$$$$&": 2993,
      "$\"&&$$$$": 2994,
      "$'%!$$$$": 2995,
      "$%%$$$$$$#$$$$": 2996,
      "$%%$$$$$%%$$$$": 2997,
      "$#$$$$##": 2998,
      "$!##$$%": 2999,
      "$!#\"$$%": 3000,
      "ğ$$-": 3001,
      "ğ$$$'": 3002,
      "$%'%$$#": 3003,
      "$%'&$$&": 3004,
      "Ā\"+": 3005,
      "$#!&$$\"": 3006,
      "$#!\"$$\"": 3007,
      "Ā%,": 3008,
      "$'#!$$%": 3009,
      "Ā#&": 3010,
      "$!%\"$$%": 3011,
      "Ġ\"%$$#": 3012,
      "Ġ\"&$$#": 3013,
      "ĀĀ\"Āĝ": 3014,
      "Ā&)": 3015,
      "$\"!#$$\"": 3016,
      "$!\"%$$%": 3017,
      "$!\"#$$\"": 3018,
      "$&'\"$$&": 3019,
      "$$$%$$%%$$$$": 3020,
      "ĀĀ&Ā%": 3021,
      "ĀĀ&Ā&": 3022,
      "ĀĀ&Ā*": 3023,
      "&$$!$": 3024,
      "#$$$\"$": 3025,
      "$'\"!$$#": 3026,
      "$\"'#$$%": 3027,
      "$$$$%%#$$%": 3028,
      "Ā()": 3029,
      "Ġ&#$$%": 3030,
      "Ġ&%$$%": 3031,
      "Ġ&#$$&": 3032,
      "$ě(": 3033,
      "$-!": 3034,
      "$-+": 3035,
      "$!&%$$&": 3036,
      "ĀĀ'ĀĞ": 3037,
      "&#%$$#": 3038,
      "$(%%$$#": 3039,
      "$(%#$$&": 3040,
      "$(&\"$$%": 3041,
      "$#(%$$&": 3042,
      "$(#%$$#": 3043,
      "\"\"%$$$$": 3044,
      "$\"(%$$&": 3045,
      "*$$-": 3046,
      "*$$ě": 3047,
      "*$$$(": 3048,
      "Ġ$$'$": 3049,
      "#$$$$$$$$$#": 3050,
      "$(\"#$$#": 3051,
      "Ġğ$$#": 3052,
      "Ā*%": 3053,
      "($$&$": 3054,
      "$.#": 3055,
      "$$$$$$$$%#": 3056,
      "$$$$$$$$%%$$$$": 3057,
      "Ā+#": 3058,
      "$%#%$$#$": 3059,
      "Ġ$&$$&": 3060,
      "$%$%$$#$": 3061,
      "ĀĀ*Ā)": 3062,
      "%$$$$$$#$$%": 3063,
      "%$$$$$$#$$$$%": 3064,
      "$%$$$$$$#$$$$%": 3065,
      "$ĀĀĚ": 3066,
      "#$$$$#%%$$%": 3067,
      "Ā,%": 3068,
      "$#$$$$$$%$$$$$$": 3069,
      "ĀĀĘĀ": 3070,
      "!$$$$##": 3071,
      "\"ě": 3072,
      "\"'$$": 3073,
      "\"$%$$%": 3074,
      "$ĀĀ%Ā": 3075,
      "%(": 3076,
      "%&$$$$": 3077,
      "%#$$$$#": 3078,
      "'$": 3079,
      "'#$$&": 3080,
      "($$$%": 3081,
      "(#$$%": 3082,
      "($$$$#%": 3083,
      ")$$$$%": 3084,
      "*ğ": 3085,
      "+!": 3086,
      ",#": 3087,
      ",.": 3088,
      ",$$'": 3089,
      "-\"": 3090,
      "-$$%": 3091,
      ".*": 3092,
      "/#": 3093,
      "ęğ": 3094,
      "ę$$&": 3095,
      "Ě$$#": 3096,
      "Ě$$\"": 3097,
      "Ĝ&": 3098,
      "Ĝ)": 3099,
      "Ĝĝ": 3100,
      "Ĝ$$(": 3101,
      "Ĝ$$Ğ": 3102,
      "Ğ)": 3103,
      "Ğ$$*": 3104,
      "Ġ\"$$&": 3105,
      "Ġ)$$": 3106,
      "Ġ$#'": 3107,
      "Ġ$\"$$%": 3108,
      "Ġ$!&": 3109,
      "Ġ$#(": 3110,
      "Ġ$(#": 3111,
      "ĠĀĀ(": 3112,
      "Ġ+$$": 3113,
      "$$$$$$'": 3114,
      "$%\"$$#": 3115,
      "$%$$ğ": 3116,
      "$%$$$%$": 3117,
      "$%$%$$'": 3118,
      "$%&$$$\"": 3119,
      "$#%$$#$": 3120,
      "$#%$$$!": 3121,
      "$#$'$$&": 3122,
      "$#%$$$(": 3123,
      "$$%#$$\"": 3124,
      "$$%'$$%": 3125,
      "$$%!$$&": 3126,
      "$$%\"$$$$#": 3127,
      "$$%&$$$$%": 3128,
      "$$#&$$": 3129,
      "$$#$$$%$": 3130,
      "$\"$'": 3131,
      "$\"$'$$#": 3132,
      "$\"$&$$&": 3133,
      "$&.": 3134,
      "$&#$$": 3135,
      "$&$$$&": 3136,
      "$&($$$&": 3137,
      "$&%$$$'": 3138,
      "$$\"!$$$$": 3139,
      "$$&\"$$#": 3140,
      "$$&'$$%": 3141,
      "$$&!$$'": 3142,
      "$$&$$$(": 3143,
      "#$$$$$&": 3144,
      "#$$$$$$%$$$$$$#": 3145,
      "%$$$$$$$%$$$$": 3146,
      "$$$#$$%$$$$": 3147,
      "$'&$$$&": 3148,
      "$!Ě": 3149,
      "$!$%$$\"": 3150,
      "$!$#$$&": 3151,
      "$!$$#$": 3152,
      "$!&$$$'": 3153,
      "$$!$$$%": 3154,
      "$$!%$$%": 3155,
      "$$'#$$'": 3156,
      "$$'$$$(": 3157,
      "$$$$#$#$$$$": 3158,
      "$$$$#$$$$$$$$$$$$": 3159,
      "$(#$$$$": 3160,
      "$($#$$%": 3161,
      "$($#$$#": 3162,
      "$('$$$$": 3163,
      "$(%$$$%": 3164,
      "$(%$$$&": 3165,
      "%$$ę": 3166,
      "#$$Ę": 3167,
      "$%$$$$$$%#$$$$": 3168,
      "$#$$$$$#$$$$": 3169,
      "$#$$$$$$$&": 3170,
      "$#$$$$#$$$$$$": 3171,
      "$%%&$$&": 3172,
      "$%%#$$!": 3173,
      "$%%%$$'": 3174,
      "$%%&$$'": 3175,
      "$##$$$$$$$$": 3176,
      "$##!$$%": 3177,
      "$##'$$%": 3178,
      "$###$$!": 3179,
      "$#%$$$$$$$$": 3180,
      "$#%#$$\"": 3181,
      "$#%($$%": 3182,
      "$%#!$$%": 3183,
      "$%#\"$$!": 3184,
      "&$$/": 3185,
      "$ğ$$!": 3186,
      "&$$$$!": 3187,
      "&$$$$$\"": 3188,
      "!$$Ę": 3189,
      "!$$$&": 3190,
      "$$%$$$$$$": 3191,
      "$Ğě": 3192,
      "$#\"%$$%": 3193,
      "$#\"\"$$$$": 3194,
      "$&%#$$\"": 3195,
      "$&%#$$$$#": 3196,
      "$&%\"$$\"": 3197,
      "Ġ$$$'": 3198,
      "$\"#!$$#": 3199,
      "$\"#($$#": 3200,
      "$%\"%$$%": 3201,
      "$%\"'$$\"": 3202,
      "$&##$$!": 3203,
      "$&#$$$#$": 3204,
      "$\"%&$$#": 3205,
      "$\"%%$$$$#": 3206,
      "$\"%'$$#": 3207,
      "$#&&$$'": 3208,
      "#$$$$%'": 3209,
      "#$$$$#!": 3210,
      "#$$$$#$%$$$$": 3211,
      "$+,": 3212,
      "%$$$$%%$$$%": 3213,
      "!$$$$$$#": 3214,
      "!$$$$&&": 3215,
      "$$$#$$$$$$%$": 3216,
      "$$$#$$$$$$%$$$$$$$$": 3217,
      "$%$$$$#$$$$$$$$": 3218,
      "$$$/": 3219,
      "$%$$$$%$%$$$$": 3220,
      "$'%%$$\"": 3221,
      "$##$$$$$$%$$$$": 3222,
      "$&\"%$$$$": 3223,
      "$&\"#$$!": 3224,
      "$$#$$$#$##$$$$": 3225,
      "$$#$$$#$$#$$$#": 3226,
      "$!#%$$\"": 3227,
      "Ā\"Ğ": 3228,
      "$#!\"$$#": 3229,
      "Ā%ĝ": 3230,
      "$%!!$$#": 3231,
      "$'##$$\"": 3232,
      "Ā#!": 3233,
      "$Ĝ+": 3234,
      "$Ĝ,": 3235,
      "$ĜĞ": 3236,
      "Ġ\"\"$$#": 3237,
      "Ġ\"#$$\"": 3238,
      "$#'!$$%": 3239,
      "$#'%$$'": 3240,
      "Ā&ğ": 3241,
      "%$$$%$$$$$$$$": 3242,
      "Ġ#%$$$$": 3243,
      "Ġ#$$$#": 3244,
      "Ġ##$$%": 3245,
      "$\"!\"$$#": 3246,
      "$\"!&$$!": 3247,
      "#$$$#$$$$$$$$": 3248,
      "$!\"\"$$#": 3249,
      "$&'%$$&": 3250,
      "$&'!$$%": 3251,
      "Ā'\"": 3252,
      "Ā'Ğ": 3253,
      "$'&&$$%": 3254,
      "$'&\"$$&": 3255,
      "$$$%$$%$$$#": 3256,
      "ĀĀ&Ā)": 3257,
      "$\"'&$$%": 3258,
      "$\"'\"$$&": 3259,
      "$\"'&$$&": 3260,
      "$$$#$$#$$$%": 3261,
      "Āğ#": 3262,
      "$&!$$$#": 3263,
      "$&!%$$#": 3264,
      "Ġ&%$$&": 3265,
      "$$Ğ$": 3266,
      "$ě)": 3267,
      "$-#": 3268,
      "$!&&$$%": 3269,
      "$!&&$$&": 3270,
      "$$$'$$\"": 3271,
      "$$$$%#%$$#": 3272,
      "&#\"$$#": 3273,
      "$(%$$$#": 3274,
      "$(%#$$%": 3275,
      "Ġ$$&$": 3276,
      "$!!&$$#": 3277,
      "$%$$$$$$$$$$$%": 3278,
      "$''\"$$%": 3279,
      "&&\"$$%": 3280,
      "$#(\"$$&": 3281,
      "$(#\"$$#": 3282,
      "$$##$$$$$": 3283,
      "$!'%$$%": 3284,
      "ĀĀ)Āĝ": 3285,
      "ĀĀĝĀ\"": 3286,
      "ĀĀĝĀğ": 3287,
      "%$$ğ$": 3288,
      "$$&$$$$$$%": 3289,
      "'$$'$": 3290,
      "#$$$$$$$$$$$$%": 3291,
      "%$$$$$$$$$$$$%": 3292,
      "$#$$$$$$#$$$$%": 3293,
      "Ġğ$$$$": 3294,
      "#$$)$": 3295,
      "ĝ$$Ĝ": 3296,
      "$.%": 3297,
      "$%$$$$$$%%": 3298,
      "ĠĞ$$$$": 3299,
      "$#$$$$$$%$$$$%": 3300,
      "#$$$$$$%$$#": 3301,
      "+$$+": 3302,
      "+$$$)": 3303,
      "ĀĀĜĀ!": 3304,
      "$%$%$$%$": 3305,
      "#$$$$%%#$$%": 3306,
      "$\"#$$$$$": 3307,
      "#$$$$##%$$#": 3308,
      "%$$$$##%$$$$": 3309,
      "$$$%$$$$$$$$$$$%": 3310,
      "#$$*$": 3311,
      "#$$$$#%#$$%": 3312,
      "$\"$%$$%$": 3313,
      "%$$$$%#%$$#": 3314,
      "!$$)$": 3315,
      "%$$$$#%%$$$$": 3316,
      "$#$$$$&$": 3317,
      "$$#$$$$$$%$$$$$$$$$$$$": 3318,
      "Ġ$(ğ": 3319,
      "Ġ!$$ğ": 3320,
      "$#$&$$!": 3321,
      "$$$$$$$$$$$$$$$$$$$$$$": 3322,
      "\"&$$$$": 3323,
      "\"$$$#$": 3324,
      "#\"$$#": 3325,
      "&-": 3326,
      "&$$$$$$$$": 3327,
      "&$$$#": 3328,
      "&$$$%$": 3329,
      "&!#": 3330,
      "($$$$%%": 3331,
      "(ĀĀ$Ā": 3332,
      "**": 3333,
      "*+": 3334,
      "+ĀĀ&Ā": 3335,
      ",$$%": 3336,
      ",$$(": 3337,
      "-Ğ": 3338,
      ".&": 3339,
      "Ā/": 3340,
      "Ę$": 3341,
      "ę!": 3342,
      "ę$$\"": 3343,
      "Ě(": 3344,
      "Ĝ+": 3345,
      "Ĝ$$ğ": 3346,
      "Ġ$&(": 3347,
      "ĠĀ*": 3348,
      "Ġ!$$$\"": 3349,
      "$$$$$$%$": 3350,
      "$%&$$#": 3351,
      "$%$!$$$$#": 3352,
      "$%$&$$'": 3353,
      "$#'$$": 3354,
      "$#!$$": 3355,
      "$$%$$$$%": 3356,
      "$$%'$$$$": 3357,
      "$\"$\"": 3358,
      "$\"$!$$$$": 3359,
      "$\"$!$$#": 3360,
      "$\"($$$&": 3361,
      "$\"$($$$$": 3362,
      "$\"&$$$\"": 3363,
      "$&&$$%": 3364,
      "$&$$Ğ": 3365,
      "$&$!$$$$": 3366,
      "$&$\"$$$$%": 3367,
      "$$\"$$&": 3368,
      "$$\"($$#": 3369,
      "$$\"'$$!": 3370,
      "$$&\"$$$$": 3371,
      "#$$$$%$$#": 3372,
      "#$$$$$$%#$$$$": 3373,
      "ĀĀ;": 3374,
      "ĀĀē": 3375,
      "$$$#$$'": 3376,
      "$$$#$$$$%%": 3377,
      "$'$'$$#": 3378,
      "$'$!$$%": 3379,
      "$'%$$$\"": 3380,
      "$'&$$$\"": 3381,
      "$'$!$$\"": 3382,
      "$!$$(": 3383,
      "$!&$$$&": 3384,
      "$!$&$$&": 3385,
      "$(.": 3386,
      "$($$'": 3387,
      "$($%$$#": 3388,
      "$($%$$\"": 3389,
      "$(#$$$!": 3390,
      "$%$$$$$$!": 3391,
      "$%$$$$$%$$$$": 3392,
      "$%$$$$#$$$$$$#": 3393,
      "$%%$$$$$$$$": 3394,
      "$%%'$$#": 3395,
      "$%%\"$$'": 3396,
      "$%%!$$&": 3397,
      "$%%$$$#$": 3398,
      "$#%!$$$$": 3399,
      "$#%!$$#": 3400,
      "$#%%$$'": 3401,
      "$#%#$$(": 3402,
      "$#%&$$$$%": 3403,
      "$#%&$$$$#": 3404,
      "$%#$$$$$$$$": 3405,
      "$%#$$$#$$#": 3406,
      "\"$$Ę": 3407,
      "\"$$$Ğ": 3408,
      "$)$$": 3409,
      "$)ĀĀ": 3410,
      "$)$$$$#": 3411,
      "$ğ$": 3412,
      "\"$$$$\"%": 3413,
      "&$$$$(": 3414,
      "'$$$": 3415,
      "'$$/": 3416,
      "!$$ę": 3417,
      "$$#$$$$$$\"": 3418,
      "$$#$$$$$##": 3419,
      "$Ğ,": 3420,
      "$Ğ$$&": 3421,
      "$%&&$$\"": 3422,
      "$%&&$$'": 3423,
      "$%&'$$&": 3424,
      "$#\"&$$%": 3425,
      "$#\"!$$$$": 3426,
      "$#\"'$$\"": 3427,
      "$&%!$$#": 3428,
      "Ġ$$Ě": 3429,
      "$\"#\"$$$$": 3430,
      "$\"#\"$$&": 3431,
      "$\"#\"$$$$#": 3432,
      "$&#&$$$$": 3433,
      "($$$+": 3434,
      "$\"%#$$\"": 3435,
      "$\"%#$$'": 3436,
      "$\"%%$$'": 3437,
      "$#&#$$$$": 3438,
      "$#&\"$$'": 3439,
      "$#&'$$&": 3440,
      "$#&$$$%$": 3441,
      "$#&#$$%$": 3442,
      "$$$\"$$!": 3443,
      "#$$$$#$%$$$$%": 3444,
      "$ĝ$$$$": 3445,
      "$ĝ$$%": 3446,
      "$+.": 3447,
      "%$$$$%$%$$$$": 3448,
      "%$$$$#$#$$$$": 3449,
      "$$(\"$$%": 3450,
      "$$(&$$%": 3451,
      "$&&&$$&": 3452,
      "$\"\"\"$$$$": 3453,
      "$\"\"&$$$$": 3454,
      "!$$$$\"%": 3455,
      "$$$%$$$$$$\"": 3456,
      "$$$%$$$$$$#$$$$$$$$": 3457,
      "$\"&\"$$'": 3458,
      "$'%&$$%": 3459,
      "$'%#$$\"": 3460,
      "$##$$$$$%%$$$$": 3461,
      "$&\"!$$#": 3462,
      "$#$$$$#$%$$$$%": 3463,
      "$$#$$$#$%$$$$%": 3464,
      "$!#'$$%": 3465,
      "$%'\"$$$$": 3466,
      "Ā\"*": 3467,
      ")$$.": 3468,
      ")$$ę": 3469,
      "$,Ğ": 3470,
      "$%!#$$!": 3471,
      "$'#%$$%": 3472,
      "$'#!$$#": 3473,
      "Ā#)": 3474,
      "ĀĀ$Ā%": 3475,
      "$!%%$$#": 3476,
      "$!%'$$%": 3477,
      "ĀĀ%Ā%": 3478,
      "$Ĝ*": 3479,
      "Ġ$$$$$$&": 3480,
      "Ā!%": 3481,
      "$%#$$$$$%#$$$$": 3482,
      "Ġ##$$#": 3483,
      "Ġ#&$$&": 3484,
      "Ġ#'$$#": 3485,
      "$\"!%$$$$": 3486,
      "$!\"%$$$$": 3487,
      "$&'#$$$$": 3488,
      "$&'&$$%": 3489,
      "$&'#$$'": 3490,
      "Ā'!": 3491,
      "$'&!$$%": 3492,
      "$'&%$$'": 3493,
      "&%%$$$$": 3494,
      "Ġ!$$$#": 3495,
      "$'\"#$$!": 3496,
      "&$$'$": 3497,
      "$\"''$$%": 3498,
      "Ā(#": 3499,
      "$&!\"$$#": 3500,
      "$&!&$$\"": 3501,
      "Ġ&$$$%": 3502,
      "\"$$!$": 3503,
      "$-\"": 3504,
      "$-ĝ": 3505,
      "$!&#$$%": 3506,
      "$!&#$$&": 3507,
      "$!&'$$%": 3508,
      "ĀĀ'Ā,": 3509,
      "$\"$$#$": 3510,
      "\"%%$$$$": 3511,
      "$!!#$$#": 3512,
      "$%$$$$$$$$$$$#": 3513,
      "$''%$$&": 3514,
      "Ā)'": 3515,
      "Ā)(": 3516,
      "$(&$$$%": 3517,
      "$(&%$$%": 3518,
      "$!$$$$$$#": 3519,
      "$(##$$\"": 3520,
      "$'!%$$\"": 3521,
      "ĀĀĞĀĞ": 3522,
      "Ğ$$+": 3523,
      "Ğ$$-": 3524,
      "Āĝ#": 3525,
      "'$$!$": 3526,
      "Ā*#": 3527,
      "$Ě(": 3528,
      "ĝ$$,": 3529,
      "ĝ$$$Ğ": 3530,
      "$.'": 3531,
      "$$$$$$$$##$$$$": 3532,
      "$#\"$$$$$": 3533,
      "ĀĀ+Āğ": 3534,
      "\"!%$$#": 3535,
      "\"$$)$": 3536,
      "$#$$$$$$%#": 3537,
      "$#$$$$$$%#$$$#": 3538,
      "ĀĀ*Ā%": 3539,
      "ĀĀ*Ā*": 3540,
      "$#)#$$&": 3541,
      "+$$ĝ": 3542,
      "$(($$$%": 3543,
      "$%$$$$$$##": 3544,
      "$%$$$$$$#$$$$$$$$$$$$": 3545,
      "%$$$$&#$$$#": 3546,
      "$ĀĀ-": 3547,
      "'$$($": 3548,
      "Ĝ$$,": 3549,
      "ĀĀĜĀ(": 3550,
      "!\"$$$#": 3551,
      "'ĀĀě": 3552,
      "ĀĀ,Ā&": 3553,
      "$$%$$$$$$$$$$$$$$$$$$$$": 3554,
      "!$$$$%&": 3555,
      "#$$$$%##$$#": 3556,
      "$$#$$$$$$$$$$%": 3557,
      "Ġ#$$ĝ": 3558,
      "$%$$$$\"$": 3559,
      "$#$&$$'": 3560,
      "!ě": 3561,
      "!&$$#": 3562,
      "\"!$$$$": 3563,
      "\"'$$\"": 3564,
      "\"($$\"": 3565,
      "#'": 3566,
      "#+": 3567,
      "%'": 3568,
      "%+": 3569,
      "%%$$#": 3570,
      "%\"$$%": 3571,
      "%((": 3572,
      "'&$$$$": 3573,
      "'#$$'": 3574,
      "''$$%": 3575,
      "(ě": 3576,
      "(ĝ": 3577,
      "(&$$%": 3578,
      "(ĀĀ)": 3579,
      ")$$$&": 3580,
      ")ĀĀ%Ā": 3581,
      "*)": 3582,
      "*$$$$#": 3583,
      "*$$(": 3584,
      "+$$(": 3585,
      ",)": 3586,
      ",ğ": 3587,
      ",$$!": 3588,
      "-$$&": 3589,
      ".#": 3590,
      ".%": 3591,
      ".(": 3592,
      "/,": 3593,
      "/-": 3594,
      "Ā$": 3595,
      "Ę$$": 3596,
      "Ę$$#": 3597,
      "ĚĞ": 3598,
      "ě$": 3599,
      "ě(": 3600,
      "ěĞ": 3601,
      "ě$$!": 3602,
      "Ğ$$$$%": 3603,
      "Ğ$$#$": 3604,
      "ğ$$%$": 3605,
      "Ġ$#$$$$": 3606,
      "Ġ$#&": 3607,
      "Ġ&$$&": 3608,
      "Ġ#$$'": 3609,
      "Ġ$!\"": 3610,
      "Ġ$%(": 3611,
      "Ġ$(%": 3612,
      "Ġ$'$$$$": 3613,
      "Ġ$\"ğ": 3614,
      "ĠĀĀ\"Ā": 3615,
      "Ġ#$$$&": 3616,
      "Ġ&$$$'": 3617,
      "Ġ$'ğ": 3618,
      "$$$$$": 3619,
      "$$$$'": 3620,
      "$%Ě": 3621,
      "$%#$$$$#": 3622,
      "$%$\"$$$$%": 3623,
      "$%$!$$&": 3624,
      "$%%$$$!": 3625,
      "$#Ě": 3626,
      "$#$*": 3627,
      "$#$\"$$$$#": 3628,
      "$#$%$$'": 3629,
      "$#&$$$\"": 3630,
      "$#$#$$": 3631,
      "$$%&$$\"": 3632,
      "$$%&$$'": 3633,
      "$$%$$$#$$#": 3634,
      "$$#!$$%": 3635,
      "$$#$$$": 3636,
      "$$#'$$\"": 3637,
      "$$#&$$!": 3638,
      "$\"$%": 3639,
      "$\"$$$$$$$$$$$$": 3640,
      "$\"#$$\"": 3641,
      "$\"&$$$'": 3642,
      "$\"%$$$'": 3643,
      "$\"$&$$\"": 3644,
      "$\"!$$$": 3645,
      "$\"$%$$!": 3646,
      "$&Ě": 3647,
      "$&%$$": 3648,
      "$&&$$": 3649,
      "$&$%$$$$%": 3650,
      "$&$$$$#%": 3651,
      "$&'$$$&": 3652,
      "$&'$$$'": 3653,
      "$&$&$$&": 3654,
      "$&!$$$!": 3655,
      "$&!$$$": 3656,
      "$&$!$$&": 3657,
      "$&$'$$\"": 3658,
      "$$\"$$$$%": 3659,
      "$$\"&$$!": 3660,
      "$$\"$$$#$": 3661,
      "$$&&$$$$": 3662,
      "$$&%$$\"": 3663,
      "$$&\"$$'": 3664,
      "#$$$$$%#$$$$": 3665,
      "#$$$$!#": 3666,
      "%$$$$$$'": 3667,
      "%$$$$&&": 3668,
      "%$$$$$$%%$$$$": 3669,
      "$$$%$$#$$$#": 3670,
      "$$$#$$#$$$#": 3671,
      "$'.": 3672,
      "$'$$": 3673,
      "$'#$$&": 3674,
      "$'$!$$$$": 3675,
      "$'$\"$$&": 3676,
      "$!'$$$'": 3677,
      "$!($$$'": 3678,
      "$$!%$$$$": 3679,
      "$$!$$$": 3680,
      "$$!'$$\"": 3681,
      "$$'\"$$&": 3682,
      "$(%$$$$": 3683,
      "$(#$$$\"": 3684,
      "$(\"$$$\"": 3685,
      "%$$($$": 3686,
      "$%$$$$(": 3687,
      "$%$$$$\"$$#": 3688,
      "$%$$$$$##$$$$": 3689,
      "$%$$$$#$$$$$$": 3690,
      "$#$$$$#$$$$": 3691,
      "$%%$$$%$$%": 3692,
      "$%%\"$$$$#": 3693,
      "$%%%$$$$&": 3694,
      "$%%#$$$$##": 3695,
      "$##&$$!": 3696,
      "$##$$$%$": 3697,
      "$##\"$$!": 3698,
      "$##$$$$$$$$$$$": 3699,
      "$#%\"$$'": 3700,
      "$#%%$$$$$$$$": 3701,
      "$%#&$$!": 3702,
      "$%#)$$#": 3703,
      "$%#!$$$$%": 3704,
      "$)-": 3705,
      "$)Ĝ": 3706,
      "\"$$$$$$&": 3707,
      "&$$#$#": 3708,
      "$*$": 3709,
      "$$#$$$$$$&": 3710,
      "$$#$$$$$#$$$$$$": 3711,
      "$Ğ-": 3712,
      "$$$$$$$$$$$$$#$$$$": 3713,
      "$%&'$$$$": 3714,
      "$%&#$$%$": 3715,
      "$#\"\"$$&": 3716,
      "$#\"\"$$\"": 3717,
      "$#\"$$$#$$%": 3718,
      "$&%#$$$$%": 3719,
      "$&%&$$&": 3720,
      "$&%'$$#": 3721,
      "Ġ$$$Ĝ": 3722,
      "$%\"\"$$$$": 3723,
      "$%\"%$$!": 3724,
      "$%\"($$#": 3725,
      "$&##$$&": 3726,
      "$&#!$$%": 3727,
      "$&#'$$#": 3728,
      "$&#($$#": 3729,
      "($$Ě": 3730,
      "($$$\"": 3731,
      "($$$!": 3732,
      "$\"%$$$%$": 3733,
      "$\"%#$$%$": 3734,
      "$#&!$$%": 3735,
      "$$$&$$!": 3736,
      "$ĝĚ": 3737,
      "$+/": 3738,
      "$+Ĝ": 3739,
      "%$$$$%$#$$#": 3740,
      "&$$\"$\"": 3741,
      "%$$$$#$": 3742,
      "%$$$$#%$$$$": 3743,
      "$&&#$$'": 3744,
      "$\"\"#$$": 3745,
      "$\"\"#$$&": 3746,
      "$\"\"&$$%": 3747,
      "$\"\"'$$\"": 3748,
      "$\"\"($$#": 3749,
      "$\"$$$$$$$#": 3750,
      "!$$$$(&": 3751,
      "$&$$$$$$'": 3752,
      "$$$%$$$$\"": 3753,
      "'$$$$'": 3754,
      "'$$$$)": 3755,
      "'$$$$&\"": 3756,
      "$#$$$$%#": 3757,
      "$$$#$$$$#$$$$%": 3758,
      "$%$$$$%$#$$$$#": 3759,
      "$\"&#$$#": 3760,
      "$\"&'$$$$": 3761,
      "$'%%$$$$": 3762,
      "$'%&$$#": 3763,
      "$##$$$$$$%$$$%": 3764,
      "$&\"'$$#": 3765,
      "$$%$$$%$$#$$$$": 3766,
      "$!##$$\"": 3767,
      "$!#($$$$": 3768,
      "ğ$$Ě": 3769,
      "ğ$$$Ğ": 3770,
      "$%'!$$%": 3771,
      "$%''$$%": 3772,
      "$%'\"$$'": 3773,
      "$#!$$$%": 3774,
      "$#!%$$": 3775,
      "$#!&$$$$": 3776,
      "$#!%$$!": 3777,
      "$,,": 3778,
      "$%!&$$": 3779,
      "$%!'$$#": 3780,
      "$%!\"$$!": 3781,
      "$#%$$$$$$#$$$#": 3782,
      "$!%$$$#": 3783,
      "$!%&$$#": 3784,
      "$!%&$$&": 3785,
      "ĀĀ%Ā+": 3786,
      "Ġ\"$$'": 3787,
      "ĀĀ\"Ā%": 3788,
      "$#''$$&": 3789,
      "$%#$$$$$#%$$$$": 3790,
      "Ġ#($$#": 3791,
      "$\"!%$$%": 3792,
      "$$)$$$&": 3793,
      "$!\"'$$#": 3794,
      "$&'$$$#": 3795,
      "$$ğ\"$$\"": 3796,
      "ĀĀ!Ā+": 3797,
      "&%$$$#": 3798,
      "&%\"$$$$": 3799,
      "Ġ!ĀĀ": 3800,
      "$'\"\"$$\"": 3801,
      "$%(\"$$&": 3802,
      "Ġ%\"$$%": 3803,
      "Ġ%%$$&": 3804,
      "$$$%$$##$$#": 3805,
      "\"##$$$$": 3806,
      "$&!%$$!": 3807,
      "$$$$##%$$#": 3808,
      "$ě&": 3809,
      "$!&&$$$$": 3810,
      "ĀĀ'Ā&": 3811,
      "&#&": 3812,
      "\"%#$$$$": 3813,
      "$(%\"$$$$": 3814,
      "$#$$$$$$$$$$$$%": 3815,
      "$!!&$$\"": 3816,
      "Ġ$$\"$": 3817,
      "$%$$$$$$$$%$$$$": 3818,
      "$''#$$&": 3819,
      "ĀĀğĀ\"": 3820,
      "ĀĀğĀ'": 3821,
      "Ā))": 3822,
      "$#%$$$%$$$$$$$$": 3823,
      "$&(#$$'": 3824,
      "$#(#$$&": 3825,
      "$#(&$$%": 3826,
      "$'$$$$$$#": 3827,
      "$$#%$$#$$$$$$$$": 3828,
      "$%$#$$$$\"": 3829,
      "$$%%$$$$$$#$$$$": 3830,
      "ĀĀ(Ā%": 3831,
      "ĀĀ(Ā*": 3832,
      "$'!#$$#": 3833,
      "\"\"#$$#": 3834,
      "ĀĀĞĀ\"": 3835,
      "ĀĀĞĀ'": 3836,
      "$!'$$$%": 3837,
      "ĀĀ)Āğ": 3838,
      "ĀĀĝĀ&": 3839,
      "ĀĀĝĀ'": 3840,
      "$\"(#$$&": 3841,
      "$\"(&$$&": 3842,
      "$\"(#$$'": 3843,
      "$\"('$$&": 3844,
      "*$$$*": 3845,
      "$Ě&": 3846,
      "$#$#$$$$&": 3847,
      "$.+": 3848,
      "$$$$$$$$%#$$$#": 3849,
      "$'(%$$%": 3850,
      "&$$$$%\"": 3851,
      "$%)%$$&": 3852,
      "$%$#$$#$": 3853,
      "Ā+'": 3854,
      "Ā+)": 3855,
      "'%#$$%": 3856,
      "&\"%$$#": 3857,
      "&\"\"$$#": 3858,
      "Ġ)%$$'": 3859,
      "$\"$$$$%$": 3860,
      "$%$$$$$$%$$$$#": 3861,
      "ĠĞ$$%": 3862,
      "#$$$$$$%$$$$#": 3863,
      "ĀĀ*Ā#": 3864,
      "%$$$$$$%$$%": 3865,
      "+$$Ĝ": 3866,
      "$&)%$$%": 3867,
      "$&)%$$&": 3868,
      "#$$$$$$#$$$$%": 3869,
      "%$$$$&%$$$$": 3870,
      "$ĀĀ.": 3871,
      "$ĀĀě": 3872,
      "ğ$$&$": 3873,
      "$ğ%&$$%": 3874,
      "'&#$$%": 3875,
      "$%&$$$$$": 3876,
      "$$$%$$$$$$$$$$$#": 3877,
      "$$$%$$$$$$$$$$$$%": 3878,
      "$')#$$%": 3879,
      "'ĀĀ.": 3880,
      "$&ğ%$$\"": 3881,
      "!$$($": 3882,
      "Ġ$%ĝ": 3883,
      "$$$($$$$": 3884,
      "ğ$$\"$": 3885,
      "%$$$$#%#$$%": 3886,
      "Ġ#$$\"$": 3887,
      "$#$%$$$$%%": 3888,
      "!$$$$#\"": 3889,
      "$&$#$$#$": 3890,
      "\"$$+$": 3891,
      "%%%": 3892,
      "$$&$$$&$": 3893,
      "Ě$$.": 3894,
      "!-": 3895,
      "!%$$$$": 3896,
      "!$%$$%": 3897,
      "!%$$!": 3898,
      "\"&$$": 3899,
      "#$%": 3900,
      "%\"%": 3901,
      "%'(": 3902,
      "&/": 3903,
      "&#$$%$": 3904,
      "'ĝ": 3905,
      "'!$$%": 3906,
      "(/": 3907,
      "($$$$##": 3908,
      "(ĀĀ%Ā": 3909,
      ")Ĝ": 3910,
      ")Ğ": 3911,
      ")$$%$": 3912,
      ",!": 3913,
      ",'": 3914,
      ",+": 3915,
      "-$$'": 3916,
      ".!": 3917,
      ".'": 3918,
      ".ĀĀ(": 3919,
      "/)": 3920,
      "/ĀĀ": 3921,
      "Ā$%": 3922,
      "ėĀ": 3923,
      "Ę#": 3924,
      "ĘĀĀ": 3925,
      "ęĞ": 3926,
      "ę$$!": 3927,
      "Ě\"": 3928,
      "Ě&": 3929,
      "ě\"": 3930,
      "Ĝ$$*": 3931,
      "ĝ-": 3932,
      "ĝ$$Ğ": 3933,
      "Ğ%$$": 3934,
      "ğ%$$#": 3935,
      "ğ$$$\"": 3936,
      "Ġ$\"$$$$": 3937,
      "Ġ$%$$$$#": 3938,
      "Ġ$!#": 3939,
      "Ġ$%!": 3940,
      "Ġ$\"'": 3941,
      "Ġ($$$$": 3942,
      "Ġ%$$(": 3943,
      "ĠĀ)": 3944,
      "ĠĞ$$": 3945,
      "Ġ$%$$&": 3946,
      "Ġĝ$$": 3947,
      "Ġ$%)": 3948,
      "Ġ\"$$)": 3949,
      "ĠĀĀ#Ā": 3950,
      "Ġ$($$$$": 3951,
      "Ġ$ğ'": 3952,
      "Ġ'$$Ğ": 3953,
      "$$($$$&": 3954,
      "$%$$)": 3955,
      "$%$'$$%": 3956,
      "$%$#$$!": 3957,
      "$%($$$(": 3958,
      "$#!$$#": 3959,
      "$#$%$$!": 3960,
      "$##$$$": 3961,
      "$#$($$%": 3962,
      "$$%\"$$'": 3963,
      "$$%\"$$(": 3964,
      "$$%\"$$$$%": 3965,
      "$$%&$$$$#": 3966,
      "$$%$$$%$$$$$$#": 3967,
      "$$#&$$&": 3968,
      "$$#$$$$$$$$$$$$$$$$": 3969,
      "$$#$$$%$$%": 3970,
      "$$#\"$$$$#": 3971,
      "$\"#$$%": 3972,
      "$\"&$$": 3973,
      "$\"!$$": 3974,
      "$\"$&$$$$%": 3975,
      "$\"$!$$&": 3976,
      "$\"$($$#": 3977,
      "$\"$)$$%": 3978,
      "$&#$$#": 3979,
      "$&!$$$$": 3980,
      "$&#$$%$": 3981,
      "$&$\"$$&": 3982,
      "$&$#$$'": 3983,
      "$&$#$$": 3984,
      "$&#$$$": 3985,
      "$$\"&$$": 3986,
      "$$\"#$$&": 3987,
      "$$\"#$$!": 3988,
      "$$\"\"$$!": 3989,
      "$$\"#$$\"$": 3990,
      "$$&'$$#": 3991,
      "$$&$$$%$$%": 3992,
      "$$&$$$%$$#": 3993,
      "$$$$$$$$%$$$$%": 3994,
      "$$$$$$$$$%%$$$$": 3995,
      "$$$$$$$$$%$$$$$$$$": 3996,
      "$$$$$$$$$##$$#": 3997,
      "#$$$$$$'": 3998,
      "#$$$$%$$%": 3999,
      "#$$$$$##$$$$": 4000,
      "#$$$$&#": 4001,
      "#$$$$$$#%$$$$": 4002,
      "%$$$$#$$#": 4003,
      "%$$$$$##$$$$": 4004,
      "ĀĀ<": 4005,
      "ĀĀđ": 4006,
      "$$$%$$%$$$%": 4007,
      "$'#$$": 4008,
      "$'&$$": 4009,
      "$'$\"$$$$": 4010,
      "$'($$$$": 4011,
      "$'#$$$!": 4012,
      "$!ĀĀ": 4013,
      "$!#$$": 4014,
      "$!$)": 4015,
      "$!!$$": 4016,
      "$!%$$\"": 4017,
      "$!\"$$#": 4018,
      "$!'$$$$": 4019,
      "$!$'$$%": 4020,
      "$!$'$$#": 4021,
      "$!#$$$&": 4022,
      "$!$&$$\"": 4023,
      "$$!\"$$$$": 4024,
      "$$!\"$$\"": 4025,
      "$$!!$$#": 4026,
      "$$!%$$!": 4027,
      "$$!$$$!": 4028,
      "$$'&$$'": 4029,
      "$$$$%(": 4030,
      "$(/": 4031,
      "$(ĀĀ": 4032,
      "$(\"$$": 4033,
      "$(!$$$$": 4034,
      "$('$$$&": 4035,
      "$($!$$\"": 4036,
      "#$$($$#": 4037,
      "$%$$$$$#$$$$": 4038,
      "$#$$$$$$'": 4039,
      "$#$$$$$$##$$$$": 4040,
      "$#$$$$$$&$$$$": 4041,
      "$#$$$$$%$$$%": 4042,
      "$%%$$&": 4043,
      "$%%'$$&": 4044,
      "$%%#$$$$%%": 4045,
      "$##!$$\"": 4046,
      "$##\"$$$$%": 4047,
      "$##&$$$$#": 4048,
      "$#%'$$#": 4049,
      "$#%$$$%$$%": 4050,
      "$#%'$$&": 4051,
      "$#%($$$$": 4052,
      "$#%\"$$$$%": 4053,
      "$#%#$$$$\"": 4054,
      "$%#%$$&": 4055,
      "$%#%$$$$#": 4056,
      "$%#($$#": 4057,
      "$%#%$$$$$$$$": 4058,
      "$).": 4059,
      "$ğ#$$$$": 4060,
      "$ğ%$$$&": 4061,
      "&$$$$$$\"": 4062,
      "'$$$+": 4063,
      "&$$#$%%": 4064,
      "!$$ė": 4065,
      "$$%$$$$$$&": 4066,
      "$$%$$$$$#$$$$$$": 4067,
      "$$%$$$$$$%$$$$$$$$": 4068,
      "\"$$#$&": 4069,
      "&$$%$$": 4070,
      "$*-": 4071,
      "$*.": 4072,
      "$$#$$$$$$#$$$#": 4073,
      "$Ğ$$\"": 4074,
      "%$$&$'#": 4075,
      "$$$$$$$$$$$$%$$$$": 4076,
      "$%&\"$$#": 4077,
      "$%&!$$#": 4078,
      "$%&#$$(": 4079,
      "$#\"\"$$": 4080,
      "$#\"($$\"": 4081,
      "$&%#$$'": 4082,
      "$&%!$$&": 4083,
      "$&%#$$%$": 4084,
      "Ġ$$/": 4085,
      "$\"#\"$$%": 4086,
      "$\"##$$$$#": 4087,
      "$\"#&$$&": 4088,
      "$\"#%$$!": 4089,
      "$\"#'$$%": 4090,
      "$\"#&$$$$#": 4091,
      "$%\"&$$": 4092,
      "$%\"#$$&": 4093,
      "$%\"!$$%": 4094,
      "$%\"$$$#$": 4095
    },
    "merges": [
      "$ $",
      "$$ $$",
      "$ %",
      "$ #",
      "$$ %",
      "$$ #",
      "$ \"",
      "$ &",
      "$$ \"",
      "$$ &",
      "$$$$ $$$$",
      "# $$$$",
      "% $$$$",
      "Ā Ā",
      "$$ $%",
      "$$ $#",
      "$ '",
      "$ !",
      "$$ !",
      "$$ '",
      "$$$$ %",
      "$$$$ #",
      "$ (",
      "# $$%",
      "% $$#",
      "% $$",
      "# $$#",
      "% $$%",
      "# $$",
      "$% $$$$",
      "$# $$$$",
      "$% %",
      "$# #",
      "$# %",
      "$% #",
      "\" $$",
      "$ )",
      "& $$",
      "$ ğ",
      "\" $$$$",
      "& $$$$",
      "\" $$%",
      "' $$",
      "& $$#",
      "! $$",
      "% $$\"",
      "# $$&",
      "$$% $$$$",
      "\" $$#",
      "& $$%",
      "$ *",
      "$$# $$$$",
      "$ Ğ",
      "% $$&",
      "$$$$$$$$ $$$$",
      "$% &",
      "$# \"",
      "# $$\"",
      "$& %",
      "Ġ $$",
      "$\" #",
      "$% \"",
      "$& #",
      "( $$",
      "$\" %",
      "$# &",
      "$$ $&",
      "#$$$$ %",
      "$$ $\"",
      "#$$$$ #",
      "$ ĝ",
      "$ +",
      "\" $$&",
      "%$$$$ %",
      "& $$\"",
      "$% $$%",
      "%$$$$ #",
      "$$ (",
      "$% $$#",
      "$& &",
      "$# $$%",
      "$\" \"",
      "$# $$#",
      "$\" $$$$",
      "! $$$$",
      "$& $$$$",
      "$$$% $$$$",
      "\" $$\"",
      "! $$%",
      "' $$$$",
      "& $$&",
      "$# $$$$%",
      "$$$# $$$$",
      "$$$$$$$$ $$$$$$$$",
      "$% $$$$#",
      "' $$#",
      "! $$#",
      "$$ $",
      "% $$!",
      "$% $$$$%",
      "# $$'",
      "' $$%",
      "$\" &",
      "$' %",
      "$% %$$$$",
      "$# #$$$$",
      "$& \"",
      "$# $$$$#",
      "# $$!",
      "$$# $$$#",
      "$$% $$$%",
      "$! #",
      "ğ $$",
      "% $$'",
      "$% '",
      "Ā \"",
      "$# !",
      ") $$",
      "Ā %",
      "$ ,",
      "$% !",
      "$' #",
      "Ā #",
      "ĀĀ $",
      "$# %$$$$",
      "$! %",
      "ĀĀ %",
      "$ Ĝ",
      "Ġ $$$$",
      "Ġ \"",
      "ĀĀ \"",
      "ĀĀ #",
      "Ā !",
      "$# '",
      "$% #$$$$",
      "Ā &",
      "' $$\"",
      "% $$$%",
      "Ġ #",
      "Ġ $$#",
      "$\" !",
      "\" $$'",
      "$$ )",
      "! $$&",
      "# $$$#",
      "$! \"",
      "Ġ $$%",
      "$& '",
      "Ā '",
      "$' &",
      "$$ ğ",
      "ĀĀ !",
      "$$$% $$%",
      "& %",
      "ĀĀ &",
      "( $$#",
      "& $$!",
      "Ġ !",
      "#$$ $\"",
      "%$$ $&",
      "$' \"",
      "& $$'",
      "$\" '",
      "' $$&",
      "$% (",
      "Ġ %",
      "$$$% $$#",
      "$\" $$%",
      "$$$# $$%",
      "\" #",
      "$$$% $",
      "$$$# $$#",
      "Ā ğ",
      "( $$%",
      "$$$$% %",
      "Ā (",
      "$& !",
      "$$$$# #",
      "! $$\"",
      "Ġ &",
      "\" $$!",
      "$$ Ğ",
      "$& $$#",
      "$ ě",
      "$ -",
      "( $$$$",
      "$! &",
      "$%# $$$#",
      "$$ $'",
      "ĀĀ '",
      "$\" $$#",
      "#$$ (",
      "$& $$%",
      "$$$$% #",
      "& #",
      "\" %",
      "$$$$# %",
      "$## $$$#",
      "Ā Ğ",
      "$( %",
      "Ġ $$&",
      "$# $$$$$$$$",
      "%$$ (",
      "$! !",
      "Ġ $$\"",
      "$% $$$$$$$$",
      "$' '",
      "$$ $!",
      "ĀĀ ğ",
      "$%% $$$%",
      "$$ *",
      "$# $%$$$$",
      "Ā )",
      "Ġ '",
      "$( &",
      "! $$'",
      "\"$$ (",
      "$#% $$$%",
      "$& (",
      "$! $$$$",
      "& &",
      "&$$ $&",
      "\"$$ $\"",
      "$# (",
      "$' $$$$",
      "$( #",
      "$$# %$$#",
      "#$$% $",
      "$% $#$$$$",
      "$$% %$$$$",
      "$$# #$$$$",
      "$$\" $$$$",
      "ĀĀ (",
      "$$$# $",
      "$' !",
      "\" \"",
      "$$% %$$%",
      "( $$\"",
      "ĀĀ Ğ",
      "$! '",
      "$% $%$$$$",
      "ĀĀ )",
      "ĀĀ ĝ",
      "Ğ $$",
      "#$$ ğ",
      "%$$ ğ",
      "\" &",
      "$\" (",
      "Ā ĝ",
      "$$& $$$$",
      "\" $$$$%",
      "' $$!",
      "* $$",
      "' $$'",
      "Ġ $$'",
      "# $$$$$$$$",
      "$$% $",
      "&$$ (",
      "! $$!",
      "% $$$$$$$$",
      "$& $$$$#",
      "$% $$&",
      "Ġ (",
      "$# $$\"",
      "$#$$$$ $$#",
      "$# $%$$%",
      "$( \"",
      "Ġ ğ",
      "$$% #$$%",
      "$$% #$$$$",
      "$( '",
      "$## %$$#",
      "Ā *",
      "$$# #$$#",
      "$%% #$$%",
      "#$$ )",
      "\" $$$$#",
      "$ Ě",
      "( $$&",
      "%$$ )",
      "ĝ $$",
      "$# $#$$$$",
      "$ .",
      "$$$$$$$$ %",
      "$' (",
      "& $$$$%",
      "$% )",
      "$#% %$$%",
      "& $$$$#",
      "$% $#$$#",
      "$# $#$$%",
      "$% $$\"",
      "$$$$$$$$ #",
      "Ā +",
      "Ġ $$!",
      "' %",
      "& \"",
      "$# $$&",
      "$$# %$$$$",
      "$%# #$$#",
      "Ġ )",
      "$# $%$$#",
      "$\" $$$$%",
      "Ġ $",
      "$%# %$$#",
      "Ġ $&",
      "$$$$ $$%",
      "$$# $",
      ") $$%",
      "$#% #$$%",
      "$%$$$$ $$%",
      "Ġ Ğ",
      "$# \"$$$$",
      "ĀĀ +",
      "$% ğ",
      "$% $#$$%",
      "$& %$$$$",
      "\" !",
      "$& $$$$%",
      "\"$$ )",
      "$% $%$$#",
      "!$$ $\"",
      "$#$$$$ $$%",
      "$$\" $$$#",
      "'$$ $&",
      "$# ğ",
      "#$$$$ &",
      "#$$$$ $$%",
      "$$$$ $$#",
      "ĀĀ *",
      "! #",
      "ĀĀ# Ā",
      ") $$#",
      "$% $$$%",
      "%$$$$ $$%",
      "! %",
      "$# )",
      "$! (",
      "+ $$",
      "$\" ğ",
      "$& )",
      "%$$$$ $$#",
      "#$$$$ $$#",
      "$( (",
      "' #",
      "$) %",
      "%$$# $",
      "\"$$ ğ",
      "ĀĀ% Ā",
      "$# $$$$$$$$$$$$",
      "$%$$$$ $$#",
      "$) &",
      "%$$$$ &",
      "$( !",
      "$#$$$$ $$",
      "$ ĀĀ",
      "%$$$$ $",
      "'$$ (",
      "ğ $$#",
      "Ĝ $$",
      "$ğ #",
      "ĀĀ Ĝ",
      "$ğ \"",
      "ğ $$&",
      "ĀĀ\" Ā",
      "$# $$$#",
      "$\" $$$$#",
      "$% $%$$%",
      "$' $$%",
      "$## #$$#",
      "ĀĀ$ Ā",
      ") $$$$",
      "$' $$#",
      "$) #",
      "ğ $$%",
      "$# $#$$#",
      "$ğ %",
      "' &",
      "$$& $$$%",
      "#$$$$% %",
      "$% &$$$$",
      "%$$ Ğ",
      "\"$$ $!",
      "ĀĀ& Ā",
      "$% $$$$$$$$$$$$",
      "$## %$$$$",
      "$\" #$$$$",
      "#$$# $",
      "$%$$$$ $$",
      "&$$ )",
      "&$$ ğ",
      "%$$$$% %",
      "( $$'",
      "#$$$$# #",
      "Ġ *",
      "$! $$%",
      "%$$$$# #",
      "#$$$$ \"",
      "$$$% $$$$$$$$",
      "$' )",
      "$#\" $$$#",
      "! \"",
      "$%% %$$%",
      "$! $$#",
      "$ ę",
      "' ĀĀ",
      "( $$!",
      "$$ ĝ",
      ") $$&",
      "$& ğ",
      "$#% %$$$$",
      "$%& $$$%",
      "#$$ $&",
      "$ğ &",
      "#$$ Ğ",
      "ğ $$$$",
      "#$$ $!",
      "$$%$$$$ $",
      "ĀĀ! Ā",
      "$# Ğ",
      "$$& #$$%",
      "$$ +",
      "$%% #$$$$",
      "%$$ $\"",
      "$%% $$$#",
      "$) '",
      "$% *",
      "$$\" %$$#",
      "ĀĀ ,",
      "$) \"",
      "!$$ (",
      "Ġ $$$#",
      "&$$ $'",
      "#$$ *",
      "Ġ$$ $\"",
      "Ġ $%",
      "%$$ *",
      "Ġ$$ (",
      ") $$\"",
      "$$ $(",
      "$\" $$\"",
      "$%\" $$$#",
      "Ġ %$$#",
      "$$% $$$$$$$$",
      "$! ğ",
      "#$$$$# %",
      "Ġ %$$\"",
      "$\" )",
      "ĀĀ .",
      "$%% %$$$$",
      "! $$$$%",
      "\" $$$#",
      "$ /",
      "& '",
      "( %",
      "'$$ ğ",
      "$\" $%$$%",
      "ĀĀ /",
      "%$$% $",
      "'$$ $'",
      "$$%$$$$ $$#",
      "$% Ğ",
      "$\" $$&",
      "$# &$$$$",
      "$$$# $$$$$$$$",
      "($$ $&",
      "$' *",
      "$% #$$%",
      "$$# $$$\"",
      "$## $$$%",
      "$$#$$$$ $",
      "$$$$$$$$$$$$$$$$ $$$$$$$$",
      "\"$$ *",
      "ğ $$\"",
      "Ġ ĝ",
      "Ġ %$$",
      "$& $$&",
      "$' ğ",
      "%$$$$% #",
      "$\" %$$$$",
      "! &",
      "$$# $$$%",
      "#$$$$ $",
      "!$$ )",
      "' '",
      "' (",
      "Ġ $#",
      "ĀĀ -",
      "$## #$$$$",
      "$&# $$$#",
      "#$$$$% #",
      "' $$$$#",
      "$$% $$$&",
      "$\" $%$$$$",
      "ĀĀ ě",
      "$) !",
      "%$$$$# %",
      "ğ $$'",
      "$( )",
      "($$ (",
      "#$$$$ $$",
      "$$%$$$$ $$%",
      "$Ğ #",
      "$\"# $$$#",
      "! !",
      "' \"",
      "' $$$$%",
      "Ġ #$$\"",
      "%$$$$ \"",
      "$! )",
      "$( $$$$",
      "%$$ $'",
      "Ā ,",
      "Ġ #$$#",
      "$$# $$$$$$$$",
      "$& $$\"",
      "$* %",
      "Ġ $\"",
      "$$ Ĝ",
      "$# %$$#",
      "$# #$$#",
      "$%# #$$$$",
      "!$$ $!",
      "( &",
      "$% \"$$$$",
      "$#$$$$ &",
      "$ğ !",
      "$\"% $$$%",
      "ĀĀ Ě",
      "$% $#$$$$#",
      "$%& #$$%",
      "$#& $$$%",
      "( #",
      "Ġ Ā",
      "Ġ \"$$",
      "Ġ %$$!",
      "$# $%$$$$%",
      "$\" Ğ",
      "$& *",
      "$ğ '",
      "\"$$% $",
      "$$#$$$$ $$%",
      "$# *",
      "$%$$$$ &",
      "$% $\"$$$$",
      "$$# #$$%",
      "$$\" $$$\"",
      "$#\" %$$#",
      "Ġ $'",
      "$$\" #$$#",
      "&$$$$ \"",
      "! $$$$#",
      "& $$$%",
      "& #$$%",
      "Ġ +",
      "Ġ #$$",
      "$$$# $$$$%",
      "$#$$$$ \"",
      "$&% $$$%",
      "$$$#$$$$ $$%",
      "Ğ $$#",
      "$% $",
      "$$#$$$$ $$#",
      "$$$\" $$$$",
      "$$$#$$$$ $$#",
      "$$ ,",
      "$$$& $$$$",
      "* $$$$",
      "Ā Ĝ",
      "Ġ $!",
      "Ġ $(",
      "$# $$!",
      "$$% $$$#",
      "$& $#$$#",
      "$Ğ %",
      "$ Ę",
      "$% #$$$\"",
      "$# $&$$$$",
      "$& #$$$$",
      "$$& %$$%",
      "%$$$$ $$",
      "$$$% $$$$%",
      "#$$ +",
      "\"$$ +",
      "&$$% $",
      "$&% #$$%",
      "Ġ$$ $!",
      "$\"% %$$%",
      "$#% #$$$$",
      "\"$$# $",
      "$&# #$$#",
      "$$%$$$% $",
      "# #",
      "* $$%",
      "* $$#",
      "Ğ $$&",
      "Ġ &$$\"",
      "$* &",
      "%$$& $",
      "Ġ$$ ğ",
      "Ğ $$$$",
      "$% %$$%",
      "$$% $$#",
      "$\" *",
      "$& Ğ",
      "$%% \"$$%",
      "&$$ Ğ",
      "$\"# %$$#",
      "$##$$$$ $",
      "% %",
      "& (",
      "$%# %$$$$",
      "$) (",
      "$* #",
      "Ġ !$$",
      "$$% %$$#",
      "%$$ +",
      "$%# $$$%",
      "\"$$$$ \"",
      "'$$ )",
      "$* '",
      "$$$& $$#",
      "Ğ $$%",
      "Ġ &$$#",
      "ĀĀ ę",
      "$%$$$$ \"",
      "'$$ *",
      "$#& #$$%",
      "ě $$",
      "$! Ğ",
      "%$$ ĝ",
      "$## #$$%",
      "' *",
      "ğ $$!",
      "Ġ \"$$\"",
      "$% $\"$$#",
      "$# %$$$&",
      "$%% #$$#",
      "&$$ *",
      "$#& %$$%",
      "ĀĀ) Ā",
      ") $$!",
      "$% $#$$$$%",
      "$& $#$$$$",
      "$$$# $$$$#",
      "$) )",
      "$#\" #$$#",
      "$$$%$$$$ $$#",
      "! '",
      "\" #$$#",
      "$# $$'",
      "$! $$$$#",
      "$## %$$%",
      "$## &$$#",
      "$#% $$$#",
      "'$$ Ğ",
      "ĀĀğ Ā",
      "% #",
      "ğ !",
      "Ġ #$$!",
      "$% $$'",
      "$# #$$$\"",
      "$$& $$$&",
      "$Ğ &",
      "$%\" %$$#",
      "% #$$%",
      "$% +",
      "&$$ $\"",
      "$%%$$$$ $",
      "& )",
      "$# $%$$$$#",
      "$# $#$$$$#",
      "$& &$$$$",
      "$%# \"$$#",
      "$* \"",
      "$Ğ \"",
      "' !",
      ", $$",
      "$% %$$$&",
      "$$$% $$$$#",
      "$( *",
      "Ġ$$ )",
      "Ġ $$$$%",
      "$$# &$$#",
      "$! $$$$%",
      "% %$$%",
      "Ġ $$$$#",
      "$% $%$$$$%",
      "$\" $%$$#",
      "\"$$ Ğ",
      "$Ğ !",
      "$$$$$$$$$$$$ $",
      "$$$\" $$%",
      "ĀĀ' Ā",
      "( )",
      "ğ #",
      "$$$% $$\"",
      "#$$& $",
      "($$ ğ",
      "# %$$#",
      "& %$$$$",
      "* $$\"",
      "$$$$$$$$ $$$%",
      "$%$$$$ $",
      "$%# #$$%",
      "!$$ $",
      "$&% #$$$$",
      "$$$%$$$$ $$%",
      "ğ$$ $!",
      "& %$$%",
      "Ě $$",
      "ğ %",
      "$% $$!",
      "$' Ğ",
      "&$$ ĝ",
      "%$$\" $",
      "$Ğ '",
      "& ĀĀ",
      ") #",
      ") $$'",
      "Ġ ,",
      "$& $#$$%",
      "$' $$$$#",
      "$#% &$$%",
      "&$$ +",
      "$%& %$$%",
      "$ĝ \"",
      "ĀĀ( Ā",
      "Ġ ĀĀ",
      "$! $$&",
      "$( ğ",
      "\"$$ ĝ",
      "&$$$$ &",
      "$%\" #$$#",
      "$\"% #$$%",
      "ĀĀĝ Ā",
      "$$$$ $$\"",
      "$$% #$$#",
      "$$# %$$%",
      "%$$$$ $$#$$$$",
      "$$$# $$\"",
      "$) ğ",
      "#$$\" $",
      "! (",
      "* ĀĀ",
      "Ġ Ĝ",
      "$% $&$$#",
      "$# $&",
      "$$% \"$$%",
      "$$% #$$&",
      "$\" $#$$$$",
      "#$$$$ $$#$$$$",
      "$#% %$$#",
      "$%# %$$\"",
      "\"$$ $&",
      "&$$# $",
      "($$ )",
      "($$ $'",
      "%$$$% $",
      "\" %$$#",
      "$# $$",
      "$$$$$$$$ $$$$#",
      "\"$$$$ &",
      "!$$ ğ",
      "$* !",
      "$$#$$$# $",
      "# #$$#",
      "' )",
      "+ ĀĀ",
      "ĝ $$%",
      "$% &$$$&",
      "$# ĝ",
      "$# $&$$%",
      "$\" $#$$%",
      "$& ĝ",
      "&$$ $(",
      "($$ $(",
      "\" (",
      "+ $$#",
      "ğ $$(",
      "$\" \"$$$$",
      "$& $%$$#",
      "$$$$$$$$ $$#",
      "$! $$\"",
      "$ğ ğ",
      "$* (",
      "$&% \"$$%",
      "$\"# %$$$$",
      "$\"$$$$ &",
      "ĀĀĞ Ā",
      "\" ĀĀ",
      "Ġ #$$$$",
      "$% $%$$$$#",
      "$$$# $$&",
      "$#% &$$$$",
      "$) $$$$",
      "$&\" $$$#",
      "\" $$$$##",
      "* $$&",
      "Ġ \"$$#",
      "$% ĝ",
      "$% $\"$$%",
      "$# $#$$$$%",
      "$# $\"$$%",
      "$$% %$$&",
      "$\" +",
      "$$$$$$$$ $%",
      "$$$$$$$$ $$%",
      "%$$ $!",
      "#$$ ĝ",
      "$#$$$$ $$$#",
      "'$$ $(",
      "$\"# $$$%",
      "$$$$$$$$$$$$$$$$ $$",
      "% #$$$$",
      "( '",
      "+ $$&",
      "- $$",
      "Ğ $$\"",
      "$# $",
      "$\" ĝ",
      "%$$$$ $%",
      "$' $$&",
      "$$! $$$$",
      "%$$ Ĝ",
      "#$$ $",
      "$%% %$$#",
      "$%# &$$#",
      "$ğ (",
      "Ġ$$ $",
      "\" $$$$%%",
      ") $$(",
      "ĝ $$#",
      "$# +",
      "$$% &$$$$",
      "$$% &$$%",
      "$$# %$$\"",
      "!$$ *",
      "Ġ$$ Ğ",
      "$\"% %$$&",
      "&$$\" $",
      ")$$ $'",
      "\" )",
      "# #$$$$",
      "Ğ %",
      "Ġ $)",
      "$& #$$$\"",
      "#$$ ,",
      "$#$$$$ $$%$$$$",
      "$%# #$$\"",
      "Ġ\" $$!",
      "! *",
      "\" '",
      "\" %$$$$",
      "( ĀĀ",
      "Ğ $$!",
      "$% $\"",
      "$% $#$$\"",
      "$$# \"$$$$",
      "$$$$$$$$ $#",
      "$$$$$$$$ $$$$$$$$$$$$",
      "$#$$$$ $",
      "$## %$$\"",
      "$#% \"$$%",
      "\"$$ $",
      "$&% %$$%",
      "$\"\" %$$#",
      "$\"$$$$ $$#",
      "# %$$$$",
      "% %$$$$",
      "$# $&$$#",
      "#$$$$ $\"",
      "$$$% $$&",
      "$' $$\"",
      "$#% $$$%$",
      "\"$$ ,",
      "$&# %$$#",
      "ğ$$ Ğ",
      "Ġ !$$#",
      "$# \"$$$\"",
      "$$# #$$\"",
      "#$$$$ '",
      "$#% #$$&",
      "$#% %$$&",
      "'$$ ĝ",
      "$* )",
      "$%\" %$$\"",
      "ĀĀ% Ā\"",
      "! ĀĀ",
      ") %",
      "+ $$$$",
      "$% $&$$$$",
      "$\" $&$$$$",
      "$& $",
      "$! *",
      "$%$$$$ $$$%",
      "$%$$$$ $$$#",
      "$#$$$$ $$\"",
      "$#$$$$ $$$%",
      "$%% #$$&",
      "$## &$$$$",
      "$%# %$$%",
      "$* ğ",
      "$%& \"$$%",
      "$\"# #$$#",
      "$&& #$$%",
      "$\"\" $$$#",
      "#$$' $",
      ")$$ $(",
      "& $$$$%#",
      "( (",
      "* #",
      "+ $$\"",
      "Ġ '$$#",
      "$# &$$$&",
      "$\" %$$$&",
      "$$& %$$$$",
      "$$& #$$&",
      "$$$$$$$$ $$$#",
      "$$$$$$$$ $$$$%",
      "%$$ $(",
      "$%$$$$ $$%$$$$",
      "($$ Ğ",
      "$$$\" $$#",
      "$&& $$$%",
      "$\"& $$$%",
      "Ā% #",
      "ĀĀ$ Ā#",
      "# $$$$$$$$$$$$",
      ") \"",
      ") ĀĀ",
      "Ġ %$$$$",
      "$$ ě",
      "$$ $)",
      "$& $%$$$$",
      "$& $\"$$#",
      "$' ĝ",
      "$' $$$$%",
      "$( Ğ",
      "$( $$%",
      "$%# \"$$$$",
      "&$$ ,",
      "$ğ $$$$",
      "$&% $$$#",
      "Ġ$$ +",
      "$+ \"",
      "$#%$$$$ $",
      "#$$$# $",
      "& #$$$$",
      "& $$$$%%",
      "& $$$$##",
      "' #$$%",
      "* $$!",
      ", ĀĀ",
      "ĝ %",
      "Ġ &$$!",
      "$$# \"$$#",
      "$$$$$$$$ #$$$$",
      "$$' $$$$",
      "#$$ $'",
      "!$$ Ğ",
      "$%\" #$$\"",
      "$+ '",
      "%$$$$% %$$$$",
      "( $$$$#",
      "+ $$%",
      "ĝ $$&",
      "Ġ \"$$$$",
      "Ġ '$$\"",
      "%$$ ,",
      "$%% \"$$$$",
      "$\"# #$$$$",
      "$#& &$$%",
      "$ĝ #",
      "$+ &",
      "ğ$$ ğ",
      "$#! $$$#",
      "ĀĀ# Ā!",
      "Ġ! $$\"",
      "! )",
      "\" $$$$#%",
      "$ ė",
      "* $$'",
      "Ā -",
      "Ğ $$'",
      "Ġ ě",
      "$% '$$$$",
      "$$# $$#",
      "$$$$$$$$ %$$$$",
      "$' %$$$$",
      "$! ĝ",
      "$( +",
      "$%% &$$%",
      "\"$$ Ĝ",
      "$ğ )",
      "$$$$$$$$$$$$$$$$ $$$",
      "ĀĀ\" Ā#",
      "$% \"$$$\"",
      "$\" $&$$%",
      "$' +",
      "$! +",
      "$%% %$$&",
      "&$$ Ĝ",
      "$ğ *",
      "'$$ +",
      "$#\" &$$#",
      "$&% %$$$$",
      "#$$$$% %$$$$",
      "$ĝ !",
      "$+ !",
      "$\"$$$$ $$%",
      "$&$$$$ \"",
      "$&\" #$$#",
      "$%' $$$%",
      ")$$ ğ",
      "\" $$$$%#",
      "Ĝ #",
      "ĝ $$$$",
      "$$ $ğ",
      "$% $#$$&",
      "$& $$$%",
      "$& #$$%",
      "$& \"$$$$",
      "$& $%$$%",
      "$$\" #$$\"",
      "$$$$$$$$ $$$",
      "$! $%$$%",
      "#$$ Ĝ",
      "$## '$$#",
      "$%# \"$$%",
      "$) *",
      "$&# #$$$$",
      "$+ %",
      "$\"\" #$$#",
      "'$$% $",
      "ĀĀ+ Ā",
      "( $$$$%",
      "$# ,",
      "$# $%$$&",
      "$& +",
      "$$\" $$%",
      "$$\" \"$$#",
      "$$& %$$&",
      "$! \"$$$$",
      "$$! %$$#",
      "$( $$#",
      "$%& #$$&",
      "Ġ$$ *",
      "($$ *",
      "$$$%$$$$ $",
      "!$$# $",
      "$\"& %$$%",
      "$&\" %$$#",
      "Ā% %",
      "ĀĀ$ Ā'",
      "ĀĀ\" Ā\"",
      "ĀĀ\" Ā!",
      "ĀĀ# Ā\"",
      "ĀĀ& Ā!",
      "! %$$#",
      "\" *",
      "% $$$$$$$$$$$$",
      ") '",
      "ĝ #",
      "ĝ $$\"",
      "Ğ #",
      "ğ &",
      "Ġ '$$",
      "$$ -",
      "$% $&$$%",
      "$& $$'",
      "#$$$$ $#",
      "ĀĀ Ę",
      "#$$ ě",
      "$%$$$$ $$&",
      "$%% &$$$$",
      "$%% $$$%$",
      "$## \"$$#",
      "$$#$$$$ $$%$$$$",
      "$Ğ ğ",
      "$&% #$$#",
      "\"$$& $",
      "$\"$$$$ \"",
      "ğ$$ )",
      "ĀĀ$ Ā&",
      "Ā' %",
      "ĀĀ! Ā#",
      "\" &$$#",
      ") &",
      "ğ Ğ",
      "Ġ &$$",
      "Ġ $*",
      "$# $\"",
      "$$% \"$$$$",
      "$& $\"$$%",
      "$%$$$$ $$\"",
      "$ğ Ğ",
      "$Ğ (",
      "$#\" %$$\"",
      "Ġ$$ ĝ",
      "ĀĀ% Ā#",
      "\" +",
      "' ,",
      "+ $$'",
      "Ĝ $$%",
      "$% ,",
      "$% $%",
      "$# !$$$$",
      "$# $\"$$#",
      "$# $#$$&",
      "$\" $&$$#",
      "$$\" %$$\"",
      "#$$$$ $%",
      "%$$$$ $$%$$$$",
      "%$$ -",
      "%$$ .",
      "%$$ ě",
      "#$$ .",
      "$## \"$$$$",
      "$#\" %$$$$",
      "$\"% %$$$$",
      "$#& %$$&",
      "$&$$$$ &",
      "$%$$$$# $",
      "$\"& #$$%",
      "$#! %$$#",
      "Ā% !",
      "ĀĀ% Ā!",
      "ĀĀ% Āğ",
      "ĀĀ# Ā#",
      "$$$' $$$$",
      "ĀĀ* Ā",
      "' $$$%",
      ") (",
      "$$ Ě",
      "$# $%$$\"",
      "$$# $$%",
      "$& $$!",
      "$$& $",
      "$$$% $\"",
      "%$$% $\"",
      "$#% \"$$$$",
      "!$$ +",
      "$\"# &$$#",
      "$%\" &$$#",
      "$&# \"$$#",
      "!$$$$ \"",
      "$&$$$$ $$%",
      "!$$% $",
      "$$$$$$$$$$$$$$$$ $$$$$$$$$$$$$$$$",
      "Ā\" #",
      "$'# $$$#",
      "ĀĀ$ Āğ",
      "ĀĀ% Ā&",
      "$%#$$$$ $",
      "$%$$$$$$$$ $$$",
      "& !",
      "' %$$%",
      "Ğ &",
      "Ġ -",
      "$$% $$%",
      "$\" %$$#",
      "$$$# $$$$$$$$$$$$",
      "$$! $$$\"",
      "$%$$$$ $$#$$$$",
      "$#$$$$ $$&",
      "$#% #$$#",
      "$Ğ Ğ",
      "$\"% $$$#",
      "#$$$$% &",
      "ğ$$ *",
      ")$$ *",
      ")$$ Ğ",
      "ĀĀ$ Ā!",
      "ĀĀ# Ā&",
      "Ġ! $$!",
      "$##$$$# $",
      "Ġ' $$!",
      "! ğ",
      "\" %$$\"",
      "* %",
      "ğ *",
      "Ġ /",
      "$% Ĝ",
      "$% $%$$\"",
      "$# Ĝ",
      "$\" ě",
      "#$$$$ $$%$$$$",
      "$$' $$$&",
      "$%% \"$$&",
      "$) +",
      "!$$ -",
      "$%& \"$$&",
      "$&% %$$#",
      "($$ ĝ",
      "$#& #$$&",
      "$$$& $$%",
      "$ĝ &",
      "$+ #",
      "$#$$$$% $",
      "$Ĝ %",
      "$#' $$$%",
      "%$$$$$$$$ $$$",
      "ĀĀ/ Ā",
      "! Ğ",
      "# %",
      "Ġ .",
      "$# $#",
      "$$% &$$#",
      "$$# &$$$$",
      "$$# $$$$$$$$$$$$",
      "$\" ,",
      "#$$$$ $$\"",
      "%$$$$ $#",
      "$$' #$$%",
      "$#$$$$ $$#$$$$",
      "&$$$$ '",
      "$&# #$$%",
      "$\"% \"$$%",
      "&$$& $",
      "$%$$$$% $",
      "$'% #$$%",
      "ğ$$ +",
      "! $$$#",
      "Ğ !",
      "Ġ Ā#",
      "$% $#$$$$$$$$",
      "$# $#$$\"",
      "$$% $$$$$$$$$$$$",
      "$$# &$$\"",
      "$\" $$$#",
      "$\" #$$$\"",
      "$\" &$$$&",
      "$%% #$$$$#",
      "$## \"$$%",
      "&$$ ě",
      "'$$ $)",
      "$&# #$$\"",
      "$\"% &$$%",
      "$+ )",
      "$&& %$$%",
      "$\"\" &$$#",
      "#$$! $",
      "$%! $$$#",
      "$'# #$$#",
      "ĀĀ$ Ā\"",
      "\" \"$$#",
      "# &",
      "& $$$$#%",
      "Ĝ $$#",
      "Ğ ğ",
      "Ğ $$(",
      "Ġ $%%",
      "Ġ $%#",
      "$% $%$$&",
      "$# $%$$$$$$$$",
      "$# $'$$$$",
      "$\" #$$#",
      "$\" &$$$$",
      "$$& \"$$%",
      "$$& &$$%",
      "$' Ĝ",
      "$' $%$$#",
      "$$' $",
      "$## #$$\"",
      "!$$ ĝ",
      "$%& &$$%",
      "$#\" \"$$#",
      "Ġ$$ ,",
      "($$ +",
      "$\"% %$$#",
      "$ĝ %",
      "%$$$$# #$$$$",
      "$&& \"$$%",
      "$&$$$$ $$#",
      "$%' #$$%",
      "Ā% &",
      "ĀĀ\" Ā&",
      "\"$$' $",
      "$&' $$$%",
      "$$$#$$% $",
      "$!! $$$#",
      "\" Ğ",
      "% ĀĀ",
      "- $",
      "ě #",
      "ĝ $$!",
      "Ġ #$$ğ",
      "$% $$(",
      "$\" $#$$#",
      "$& $\"$$$$",
      "$& \"$$$\"",
      "$$\" #$$$$",
      "$$\" &$$#",
      "$$$% $$$$$$$$$$$$",
      "$' $#$$#",
      "$! #$$$$",
      "$$! #$$#",
      "$$$$% $",
      "$( $$$$#",
      "%$$% $!",
      "$## #$$$$#",
      "$) $$#",
      "&$$$$ $$%",
      "'$$ ě",
      "$%& #$$$$",
      "$&# $$$%",
      "$&# %$$\"",
      "%$$$$% &",
      "\"$$\" $",
      "'$$$$ &",
      "$$$ ,",
      "$#! %$$\"",
      ")$$ )",
      "ĀĀ$ Ā(",
      "Ġ$$$$ &",
      "$\"! %$$#",
      "ĀĀ' Ā\"",
      "! +",
      "\" #$$$$",
      "\" \"$$$$",
      "ğ \"",
      "Ġ $ğ",
      "Ġ $%&",
      "Ġ $%\"",
      "$$$$ $$&",
      "$% $$",
      "$# &$$#",
      "$$% #$$$$#",
      "$$% \"$$&",
      "$& Ĝ",
      "$$\" &$$\"",
      "$' $",
      "$' ,",
      "$' #$$$$",
      "$( ĝ",
      "$( $$\"",
      "$## %$$&",
      "$#% '$$%",
      "\"$$ .",
      "'$$ Ĝ",
      "!$$ $ğ",
      "$&% \"$$$$",
      "$\"# %$$%",
      "$\"% #$$&",
      "$&& #$$&",
      "$\"\" %$$$$",
      "$\"& #$$&",
      "$!# $$$#",
      "$%' %$$%",
      "Ā% '",
      "$, %",
      "$, (",
      "$%! #$$#",
      "$%! #$$\"",
      "ĀĀ! Ā\"",
      "ĀĀ! Ā!",
      "&% #$$$$",
      "$%#$$$# $",
      "$$$! $$%",
      "$#$$$$$$$$$$$$ $",
      "ĀĀĜ Ā",
      "ĀĀ, Ā",
      "\" ğ",
      "% &",
      "& &$$%",
      "( +",
      ") *",
      ", $$#",
      "- ,",
      "ĝ &",
      "ğ '",
      "$# #$$%",
      "$# $\"$$$$",
      "$$% #$$$$%",
      "$& $$",
      "$$& #$$$$",
      "%$$$$ $%$$$$",
      "$%$$$$ '",
      "$%% \"$$#",
      "$## %$$$$#",
      "$%# #$$$$#",
      "&$$$$ $",
      "$$%$$$$ $$%$$$$",
      "$* *",
      "$Ğ *",
      "$%& $$$#",
      "$&% #$$&",
      "$&# &$$#",
      "'$$# $",
      "$\"& &$$%",
      "$\"& %$$&",
      "$'% #$$#",
      "$!# %$$#",
      "Ā% (",
      "ĀĀ$ ĀĞ",
      "\"# %$$#",
      "ĀĀ. Ā",
      "ĀĀě Ā",
      "ĀĀĚ Ā",
      "% *",
      "% $$$#",
      "ě ĝ",
      "ĝ $$'",
      "Ġ $+",
      "$% $#",
      "$% $$$&",
      "$# #$$$&",
      "$$% %$$$$%",
      "$$# $$$$%",
      "$$# \"$$%",
      "$\" Ĝ",
      "$\" \"$$$\"",
      "$& $\"",
      "$& $#$$$$%",
      "$$\" \"$$$$",
      "$' $$!",
      "$! Ĝ",
      "$$! $$$#",
      "#$$ $ğ",
      "$%% $$$$$$$$$$$$",
      "$#% &$$#",
      "&$$ -",
      "$Ğ )",
      "Ġ$$ Ĝ",
      "$\"# #$$\"",
      "$%$$$$# #",
      "$'% $$$%",
      "ĀĀ\" Ā'",
      "$#' &$$%",
      "$\"! $$$#",
      "$$$$#% %$$%",
      "! ĝ",
      "\" #$$\"",
      "$ Ė",
      "( !",
      ", ,",
      "ě %",
      "ě $$$$",
      "ğ ĝ",
      "ğ ğ",
      "Ġ $&#",
      "$% %$$",
      "$# \"$$",
      "$# $'$$#",
      "$$% &$$&",
      "$$# %$$$$%",
      "ĀĀ ė",
      "$' \"$$$\"",
      "$! $$!",
      "$%# &$$$$",
      "$) ĝ",
      "'$$ $\"",
      "!$$ ,",
      "$$$$$$$$$$$$ $$$",
      "($$ ,",
      "$#& &$$&",
      "#$$$$# &",
      "$+ ğ",
      "$\"$$$$ $$&",
      "$$$ Ĝ",
      "%$$! $",
      "$'% $$$#",
      "$&\" %$$\"",
      "$&\" \"$$#",
      "$&\" &$$\"",
      "%$$' $",
      "Ā\" %",
      "$#! #$$#",
      "Ā% \"",
      "Ā% ğ",
      "$, !",
      "$, #",
      "$%! %$$#",
      "ĀĀ% Ā)",
      "$Ĝ #",
      "$Ĝ &",
      "ĀĀ\" ĀĞ",
      "$#' #$$&",
      "$&' #$$%",
      "ĀĀ& Ā#",
      "$$$' $$#",
      "#$$$$$$$$ $$$",
      "ĀĀę Ā",
      "( *",
      ") +",
      "+ (",
      ", *",
      "- $$$$",
      ". $$",
      "ĝ $$(",
      "Ġ $$$%",
      "Ġ Ā&",
      "$% &$$%",
      "$# '$$$&",
      "$$% $$$$#",
      "$$# !$$#",
      "$\" $%$$&",
      "$\" $#$$&",
      "$& ,",
      "$& %$$$&",
      "$$\" %$$$$",
      "$$& $$$#",
      "#$$$$ !",
      "#$$$$ $#$$$$",
      "%$$$$ '",
      "$$$# $$$$%#",
      "$! $$'",
      "$! $%$$&",
      "$$! %$$\"",
      "$$' %$$%",
      "$$' $$$'",
      "$$$$% %$$$$",
      "$## &$$%",
      "$## %$$$$%",
      "$## &$$\"",
      "$%# \"$$\"",
      "\"$$ -",
      "$) Ğ",
      "&$$ $)",
      "\"$$$$ !",
      "!$$ Ĝ",
      "$$#$$$$ $$#$$$$",
      "$#\" #$$\"",
      "$%\" !$$#",
      "$&# \"$$%",
      "$ĝ (",
      "$#$$% $",
      "$\"\" \"$$#",
      "$!# &$$#",
      "$, &",
      "ĀĀ! Āğ",
      "&% #$$%",
      "$!& $$$%",
      "ĀĀ' Ā!",
      "$#$$$$$$$$ $$$",
      "ĀĀğ Ā&",
      "# $$$%",
      "& &$$$$",
      "( \"",
      "+ $$!",
      "ę $$",
      "Ĝ %",
      "Ĝ ğ",
      "Ĝ $$&",
      "ĝ !",
      "Ġ Ā!",
      "$# $$$$$$$$$$$$$$$$",
      "$# $'$$%",
      "$$# &$$%",
      "$$# $$$&",
      "$\" $\"$$%",
      "$$& \"$$&",
      "#$$$$ $$&",
      "#$$$$ $$$%",
      "$$$# $$$#",
      "$! %$$$&",
      "$$' $$$%",
      "$( ,",
      "$%$$$$ $$%%$$$$",
      "$%% &$$#",
      "$%% !$$%",
      "$#% \"$$&",
      "$) $$%",
      "&$$ $!",
      "'$$ ,",
      "$%& %$$$$",
      "$%& %$$&",
      "$#\" $$$%",
      "$&% %$$&",
      "$\"# %$$\"",
      "$\"# &$$%",
      "#$$$$# #$$$$",
      "$ĝ )",
      "$%$$% $",
      "'$$$$ \"",
      "$!# %$$%",
      "Ā% )",
      "$, '",
      "Ā# %",
      "$!% $$$%",
      "ĀĀ# Āğ",
      "Ā' &",
      "ĀĀ& Āğ",
      "#$$( $",
      "&# #$$#",
      "\" $",
      "& #$$&",
      ") )",
      "+ %",
      "+ ,",
      ", $$\"",
      "- +",
      "Ĝ Ğ",
      "ğ $$$$%",
      "Ġ Ě",
      "Ġ ($$",
      "Ġ !$$$$",
      "Ġ $'%",
      "$% \"$$",
      "$% $!$$%",
      "$# $&$$&",
      "$$% !$$%",
      "$\" $$",
      "$& &$$$&",
      "%$$$$ $$$%",
      "$$! #$$!",
      "$$' %$$&",
      "%$$ $",
      "$#% %$$\"",
      "$#% &$$&",
      "$%# #$$$$%",
      "$ğ ĝ",
      "\"$$$$ '",
      "$$%$$$$ $$#$$$$",
      "$* $$$$",
      "$%& %$$#",
      "$#\" '$$#",
      "$&% !$$%",
      "$\"# \"$$#",
      "$%\" \"$$#",
      "$$$& $$$$%",
      "$$$& $$$$#",
      "#$$$$% $",
      "$ĝ '",
      "$ĝ Ğ",
      "$+ (",
      "$\"\" %$$\"",
      "$$$%$$$$ $$#$$$$",
      "$'% \"$$%",
      "$$%$$$% $$%",
      "ğ$$ ĝ",
      "ğ$$ $ğ",
      "$%' #$$&",
      "Ā\" \"",
      ")$$ Ĝ",
      "$, \"",
      "$Ĝ \"",
      "ĀĀ# Ā(",
      "ĀĀ# ĀĞ",
      "Ā& '",
      "Ā' #",
      "$'& $$$%",
      "$'\" $$$#",
      "\"% %$$%",
      "ĀĀ- Ā",
      "! #$$#",
      ") !",
      "- ĀĀ",
      "ě ğ",
      "Ğ $$)",
      "Ġ #$$%",
      "Ġ %$$%",
      "Ġ %$$$%",
      "Ġ \"$$ğ",
      "$% $\"$$\"",
      "$% $\"$$&",
      "$# ě",
      "$# $$$%",
      "$# $!$$$$",
      "$# !$$$\"",
      "$$# \"$$\"",
      "$& $&$$#",
      "$& $#$$\"",
      "$' #$$$\"",
      "$! $%$$$$",
      "$$! #$$\"",
      "#$$ -",
      "$%$$$$ !",
      "$## %$$!",
      "$#% %$$$$%",
      "$#% %$$$$#",
      "$#% '$$$$",
      "$#% #$$'",
      "$%# #$$&",
      "\"$$ ě",
      "\"$$$$ $$#",
      "!$$ /",
      "$* Ğ",
      "Ġ$$ -",
      "Ġ$$ $ğ",
      "$\"# #$$%",
      "$&# \"$$\"",
      "($$ ě",
      "$$$\" $$$$#",
      "$&& #$$$$",
      "$&& $$$#",
      "$&& &$$%",
      "$&$$$$ $$\"",
      "$!# $$$%",
      "ğ$$ Ĝ",
      "$%' \"$$%",
      "$, ğ",
      "$%! %$$\"",
      "ĀĀ$ Ā)",
      "$!% %$$%",
      "Ġ$$$$ \"",
      "ĀĀ\" Āğ",
      "$!\" %$$#",
      "$'& #$$%",
      "$!& %$$%",
      "$$&$$$$ $",
      "$$##$$# $",
      "$$$$$$$$$$$$$$$$$$$$$$$$ $",
      "# *",
      "$ ĕ",
      "& *",
      "' $$$$##",
      "+ *",
      ". -",
      "Ġ &$$$$",
      "Ġ \"$$%",
      "Ġ $&%",
      "Ġ ($$\"",
      "$% $'",
      "$% %$$#",
      "$% $$$$$$$$$$$$$$$$",
      "$% %$$$\"",
      "$# %$$$'",
      "$$# #$$$$%",
      "#$$$$ &&",
      "$' $#$$$$",
      "$' &$$$$",
      "$' %$$$&",
      "$$' \"$$%",
      "$%$$$$ $$$#$$$$",
      "$#$$$$ $$$%$$$$",
      "$## $$$$$$$$$$$$",
      "$## #$$$$%",
      "$%# $$&",
      "$%# !$$#",
      "\"$$ $'",
      "&$$ $",
      "&$$ .",
      "&$$ Ě",
      "$Ğ $$#",
      "$#\" #$$%",
      "$#\" &$$$$",
      "$#\" &$$\"",
      "$%\" $$$%",
      "$%\" &$$\"",
      "($$ -",
      "$#& '$$%",
      "$$$%$$$$ &",
      "$$$ -",
      "$$$ .",
      "$$#$$$# $$$$$$$$",
      "Ā\" &",
      "$%! \"$$#",
      "$'# #$$$$",
      "$'# %$$#",
      "$'# \"$$#",
      "ĀĀ$ Āĝ",
      "ĀĀ\" Ā)",
      "$#' #$$%",
      "$$$$%% %$$$$",
      "Ā( &",
      "$&! %$$\"",
      "$- )",
      "$#$$$$$$$$ $$$#",
      "ĀĀğ Ā#",
      "*$$ ĝ",
      "%$$$$$$$$ $#",
      "%$$$$$$$$ $$$%",
      "# (",
      "% ĝ",
      "% $$$$$$$$$$$$$$$$",
      "Ĝ \"",
      "Ĝ $$'",
      "Ğ \"",
      "Ğ *",
      "Ğ $$Ğ",
      "ğ (",
      "Ġ $\"%",
      "Ġ ($$#",
      "$% \"$$%",
      "$% %$$$$%",
      "$% $%$$$$$$$$",
      "$% #$$$&",
      "$% '$$$'",
      "$# $%",
      "$# %$$",
      "$# #$$$$#",
      "$# $!$$%",
      "$$% !$$$$",
      "$$% $$$'",
      "$\" $$'",
      "$\" $%$$$$#",
      "$\" $#$$$$#",
      "$\" $%$$\"",
      "$& \"$$%",
      "$& !$$$\"",
      "$$\" $$#",
      "$$\" #$$%",
      "$$& %$$#",
      "$$& #$$#",
      "$$$$$$$$ $%$$$$",
      "#$$$$ \"\"",
      "%$$$$ !",
      "ĀĀ Ĕ",
      "ĀĀ Ė",
      "$! $%$$#",
      "$$! $",
      "$$! \"$$#",
      "$( $$!",
      "$#$$$$ '",
      "$%% %$$\"",
      "$%% #$$$$%",
      "$#% #$$$$#",
      "$#% #$$%$",
      "$%# &$$\"",
      "&$$ $*",
      "$ğ Ĝ",
      "$ğ $$%",
      "'$$ Ě",
      "$* +",
      "($$ $)",
      "$\"% #$$$$",
      "$#& %$$$$",
      "$#& $$$#",
      "$#& \"$$%",
      "$#& \"$$&",
      "$#& #$$'",
      "$ĝ *",
      "$ĝ ĝ",
      "$ĝ ğ",
      "%$$$$# \"",
      "%$$$$# &",
      "$&& %$$&",
      "$&$$$$ $$&",
      "$$$%$$$$ $$",
      "$$$ ě",
      "$'% %$$%",
      "Ā\" '",
      "Ā% *",
      "$, *",
      "$!% #$$%",
      "$!% %$$&",
      "$Ĝ !",
      "$Ĝ ğ",
      "$!\" $$$%",
      "$!\" &$$#",
      "$'& %$$%",
      "ĀĀ& ĀĞ",
      "$$$%$$# $",
      "ĀĀ' Āĝ",
      "$!$$$$ &",
      "ĀĀĞ Ā!",
      "ĀĀĝ Ā!",
      "Ğ$$ ĝ",
      "#$$$$$$$$ $$$%",
      "! $$$$%#",
      "' -",
      "' $$$$%#",
      "( ğ",
      ") -",
      "+ )",
      ", $$$$",
      "ě $$%",
      "Ĝ $$$$",
      "Ĝ $$\"",
      "Ġ '$$$$",
      "Ġ $\"&",
      "Ġ $\"!",
      "$% $'$$$$",
      "$% !$$$\"",
      "$% $!$$#",
      "$% %$$$'",
      "$# -",
      "$$# %$$$$#",
      "$$# $$$!",
      "$\" !$$$$",
      "$\" $%$$$$%",
      "$& $!",
      "$& %$$%",
      "$& $$(",
      "$& '$$$$",
      "$& $#$$$$#",
      "$& $%$$\"",
      "$& $#$$&",
      "#$$$$ $$$#",
      "$' $$$%",
      "$' $$'",
      "$' $#$$%",
      "$! #$$$\"",
      "$$' &$$%",
      "$( -",
      "%$$ Ę",
      "%$$ Ě",
      "$#$$$$ !",
      "$#$$$$ $$$#$$$$",
      "$## \"$$\"",
      "$#% $$$$$$$$$$$$",
      "$#% !$$%",
      "$%# !$$$$",
      "$) $$\"",
      "\"$$$$ &#",
      "&$$$$ \"#",
      "$$$$$$$$$$$$ $%$$$$",
      "$%& \"$$$$",
      "$%\" %$$$$",
      "$&# %$$$$",
      "$&# &$$\"",
      "$\"% &$$$$",
      "$\"% '$$%",
      "$#& %$$'",
      "$$$& $",
      "$$$& $$&",
      "$$$\" $$&",
      "$+ +",
      "$$( $",
      "$&& %$$#",
      "$&& #$$#",
      "$#$$# $",
      "$\"$$$$ $$\"",
      "$\"& \"$$%",
      "$#$$$$# $",
      "$$#$$$# $$#",
      ")$$ +",
      "$!% %$$$$",
      "Ġ\" #$$#",
      "ĀĀ# Ā)",
      "Ā& \"",
      "'$$\" $",
      "$\"! #$$#",
      "!$$& $",
      "$'& \"$$%",
      "ĀĀ! Ā'",
      "$$$%$$% #$$%",
      "$- %",
      "$$$' $$%",
      "ĀĀ' Ā#",
      "ĀĀ' Ā'",
      "ĀĀ' Āğ",
      "$#$$$$$$$$ $$$%",
      "$!$$$$ \"",
      "$$%%$$% $",
      "%$$$$$$$$ $$$#",
      "$#$%$$% $",
      "# ĝ",
      "& ĝ",
      "& \"$$%",
      "' ğ",
      "' $$$$#%",
      ", &",
      ", $$&",
      "/ $",
      "ě !",
      "ě $$#",
      "ě $$'",
      "Ğ $$ğ",
      "ğ $$$$#",
      "Ġ ę",
      "Ġ '$$%",
      "Ġ $#!",
      "Ġ $'!",
      "$$ $*",
      "$% $!",
      "$% #$$",
      "$% $!$$$$",
      "$% $'$$#",
      "$% #$$$!",
      "$# #$$",
      "$# $&$$$$#",
      "$$% \"$$#",
      "$\" $$!",
      "$\" #$$",
      "$\" $\"$$#",
      "$& $&$$%",
      "$& %$$$\"",
      "$$\" $",
      "$$& $$#",
      "$$& !$$%",
      "#$$$$ $%$$$$",
      "%$$$$ $$$#$$$$",
      "ĀĀ ĕ",
      "$$$% $$$$##",
      "$' $#$$\"",
      "$' \"$$$!",
      "$! $",
      "$! ,",
      "$! $#$$#",
      "$$' #$$&",
      "$%$$$$ $$$%$$$$",
      "$%% #$$\"",
      "$%% !$$$$",
      "$%# '$$#",
      "$%# #$$!",
      "$ğ $$#",
      "\"$$$$ $",
      "\"$$$$ \"#",
      "$Ğ ĝ",
      "$$$$$$$$$$$$ $$$#",
      "$%& &$$$$",
      "$#\" %$$!",
      "$#\" #$$!",
      "$&% \"$$#",
      "$&% &$$%",
      "$&% \"$$&",
      "$%\" #$$$$",
      "($$ $*",
      "$&$$$$ $$",
      "$#$$$$% %",
      "#$$' $!",
      "$\"& %$$'",
      "$'% \"$$#",
      "$!# %$$$$",
      "ğ$$ .",
      "$%' %$$&",
      "$#! #$$\"",
      "Ā% +",
      "Ā# \"",
      "$Ĝ (",
      "ĀĀ\" Ā(",
      "ĀĀ# Ā'",
      "$#' %$$&",
      "Ġ# $$$%",
      "Ġ$$# $",
      "$$) $",
      "$!\" $$$#",
      "$&' #$$&",
      "ĀĀ! ĀĞ",
      "$$$%$$% %$$%",
      "'$$& $",
      "$$$#$$# $",
      "$ě %",
      "ĀĀ' Ā(",
      "%$$( $",
      "$$$! $$$$",
      "$$$! $$#",
      "ĀĀğ Āğ",
      "!$$' $",
      "ĀĀ( Ā!",
      "#$$$$$$$$ $$$#",
      "%$$) $",
      "$$$$$$$$# #",
      "'$$$& $",
      "( #$$&",
      "* $$ğ",
      "+ +",
      ". ,",
      "Ā .",
      "Ĝ !",
      "Ġ Āğ",
      "Ġ *$$",
      "Ġ %$$Ğ",
      "$% $\"$$$$#",
      "$% &$$$'",
      "$# .",
      "$# $$(",
      "$# $$$#$",
      "$# $&$$$$%",
      "$# '$$$'",
      "$# $&$$\"",
      "$$% %$$\"",
      "$$% $$$\"",
      "$$% %$$$$#",
      "$$# $$$$#",
      "$$# #$$$$#",
      "$\" $",
      "$\" $\"$$$$",
      "$\" #$$$&",
      "$& ě",
      "$& $$$$$$$$$$$$",
      "$& $&$$$$",
      "$& \"$$$!",
      "$$\" $$$!",
      "$$& &$$&",
      "#$$$$ '%",
      "%$$$$ $$$#",
      "$$$% $$$$%%",
      "$' $\"$$#",
      "$! #$$#",
      "$! '$$$&",
      "$$! &$$#",
      "$$$$% $#$$$$",
      "#$$ ę",
      "$%$$$$ $$$&",
      "$%% %$$$$%",
      "$%% '$$$$",
      "$## ($$#",
      "$#% $$$%$$#",
      "\"$$ $ğ",
      "$ğ +",
      "$ğ ,",
      "&$$$$ $$#",
      "'$$ -",
      "$Ğ +",
      "$Ğ $$%",
      "$%& !$$%",
      "$#\" \"$$%",
      "$&% &$$$$",
      "Ġ$$ $&",
      "$\"# &$$$$",
      "$%\" #$$!",
      "($$ Ĝ",
      "$\"% #$$#",
      "$$$& $$\"",
      "#$$$$# \"",
      "#$$$$# %$$$%",
      "$%$$# $",
      "$\"\" $$$%",
      "$\"$$$$ $$",
      "$%%$$$$ $$%$$$$",
      "$$#$$$# $$%",
      "ğ$$ ,",
      "Ā\" )",
      ")$$ ĝ",
      ")$$ $)",
      ")$$ $*",
      "$%! %$$!",
      "$'# &$$#",
      "ĀĀ% Ā'",
      "ĀĀ# Ā%",
      "Ā! #",
      "Ā& #",
      "Ā& &",
      "$\"! %$$\"",
      "ĀĀ! Ā)",
      "$$$%$$% $",
      "$'\" %$$\"",
      "$\"' #$$&",
      "ĀĞ #",
      "$!! %$$#",
      "$'' $$$%",
      "$'' #$$%",
      "$$* $",
      "$&( %$$%",
      "$(# #$$#",
      "&$$( $",
      "ĝ$$ +",
      "$#%%$$% $",
      "$#$#$$# $",
      "$%$$$$$$$$$$$$ $",
      "%$$$$## %$$#",
      "# Ğ",
      "% \"",
      "% &$$%",
      "& ,",
      "& '$$%",
      "' &$$%",
      "' %$$&",
      "' $$$$%%",
      "* !",
      "+ $$)",
      "+ $$Ğ",
      "- $$#",
      "Ĝ $$!",
      "ĝ $$ğ",
      "Ğ Ğ",
      "Ġ 0",
      "Ġ $&&",
      "Ġ $&$$$$",
      "Ġ $,",
      "Ġ %$$ğ",
      "$$ .",
      "$$ $+",
      "$% ě",
      "$% $$$#",
      "$% #$$#",
      "$% \"$$$!",
      "$% $&$$\"",
      "$% $#$$'",
      "$# $'",
      "$# \"$$$!",
      "$# $\"$$\"",
      "$$% %$$'",
      "$$# %$$!",
      "$\" Ě",
      "$\" &$$#",
      "$\" \"$$#",
      "$& -",
      "$& &$$$'",
      "$& $#$$!",
      "$$\" !$$#",
      "$$& $$$%$",
      "$$& $$$'",
      "$$$$$$$$ \"",
      "%$$$$ $$\"",
      "$$$% $$",
      "$$$# $$$$##",
      "$' !$$",
      "$! .",
      "$! $&$$%",
      "$$$$% &",
      "$$$$% #$$$$",
      "$$$$# \"",
      "$$$$# $%$$$$",
      "#$$ Ě",
      "$#$$$$ $$%#$$$$",
      "$%% #$$'",
      "$## #$$&",
      "$#% $$\"",
      "$ğ ě",
      "!$$ Ě",
      "#$$& $!",
      "$$#$$$$ $$%$$$%",
      "$Ğ $$$$",
      "$%& #$$#",
      "$#\" #$$$$",
      "$#\" %$$",
      "$%\" #$$%",
      "$%\" '$$#",
      "($$ $",
      "$\"% &$$&",
      "#$$$$% #$$$$",
      "#$$$$% %$$$%",
      "#$$$$# $",
      "$+ Ğ",
      "$$( $$$%",
      "$&& !$$%",
      "$\"\" #$$$$",
      "$\"\" &$$\"",
      "$&$$$$ '",
      "$\"& &$$&",
      "$'% %$$#",
      "$'% \"$$$$",
      "$!# \"$$#",
      "$#! &$$#",
      "$%! \"$$\"",
      "$!% &$$$$",
      "ĀĀ% Ā(",
      "ĀĀ% ĀĞ",
      "$Ĝ '",
      "Ġ$$$$ '",
      "Ā& !",
      "$!\" #$$#",
      "$&' %$$%",
      "ĀĀ! Ā%",
      "ĀĀ! Āĝ",
      "ĀĀ& Ā(",
      "$'\" %$$#",
      "$'\" \"$$#",
      "$\"' $$$%",
      "$$$#$$# %$$#",
      "($$% $",
      "$&! #$$#",
      "$ě !",
      "$ě '",
      "$ě ğ",
      "($$$$ !",
      "\"% #$$%",
      "$#$$$$$$$$ $$$$$$$$$$$$",
      "$&( #$$%",
      "&& $$$%",
      "&& #$$%",
      "ĝ$$ ĝ",
      "$$$$$$$$% %",
      "$'( #$$%",
      "$$$$$$$$$$$$$$$$$$$$$$$$ $$$",
      "#$$$$%# %$$#",
      "# ,",
      ") ,",
      ") ĝ",
      "* (",
      "+ #",
      "- #",
      "- $$!",
      ". $$#",
      "Ě #",
      "Ě ě",
      "Ğ ĝ",
      "Ġ ė",
      "Ġ #$$&",
      "Ġ $&\"",
      "Ġ $&'",
      "Ġ $$$$%%",
      "Ġ &$$ğ",
      "Ġ '$$ğ",
      "$$ /",
      "$% -",
      "$% %$$$$#",
      "$% #$$%$",
      "$% '$$$&",
      "$% $&$$&",
      "$% !$$$!",
      "$# \"$$#",
      "$# #$$$$%",
      "$# $\"$$&",
      "$# \"$$$&",
      "$$% #$$'",
      "$$# ($$#",
      "$\" -",
      "$\" $'$$$$",
      "$\" !$$$\"",
      "$& $!$$%",
      "$$\" '$$#",
      "$$& #$$'",
      "$$$$$$$$ $%$$$%",
      "#$$$$ \"#",
      "%$$$$ &%",
      "$' ě",
      "$' '$$$$",
      "$' $\"$$%",
      "$! %$$$$",
      "$! $\"$$%",
      "$( ě",
      "$%% %$$$$#",
      "$%% #$$%$",
      "$#% \"$$#",
      "$) ,",
      "&$$ Ę",
      "\"$$$$ $$%",
      "%$$\" $\"",
      "$%& '$$%",
      "Ġ$$ .",
      "Ġ$$ ě",
      "$\"# #$$&",
      "$\"# &$$\"",
      "$\"# '$$#",
      "$%\" \"$$\"",
      "$&# %$$%",
      "$#& %$$#",
      "$$$\" $",
      "$+ *",
      "%$$$$% \"",
      "%$$$$% '",
      "$&& \"$$&",
      "$\"\" %$$!",
      "'$$$$ !",
      "$%$$$$% %",
      "$'% %$$&",
      "$$%$$$% $$$$$$$$",
      "$!# &$$%",
      ")$$ ,",
      "$, ĝ",
      "$%! &$$#",
      "$#' %$$%",
      "$#' \"$$&",
      "Ā' (",
      "$'& #$$&",
      "$\"' %$$%",
      "$\"' %$$&",
      "$%( $$$$",
      "$ě \"",
      "$ě #",
      "\"$$( $",
      "$#( $$$%",
      "$$#%$$# $",
      "$$\"$$$$ $",
      "\"& $$$%",
      "#$$$$$$$$ $%",
      "Ġ( $$!",
      "$##%$$# $",
      "Ā* &",
      "$Ě %",
      "Ā+ %",
      "$%##$$# $",
      "%$$$$$$% $$#",
      "#$$$$%% %$$$$",
      "! $$$$%%",
      "\" ,",
      "\" !$$#",
      "# \"$$$$",
      "# &$$#",
      "& %$$&",
      "' +",
      "* '",
      "* $$*",
      "+ /",
      ". ĀĀ",
      "ę #",
      "Ě %",
      "ě ě",
      "ĝ $$)",
      "ĝ $$*",
      "Ġ $##",
      "Ġ &$$%",
      "Ġ !$$%",
      "Ġ $%'",
      "Ġ Ā\"",
      "Ġ $'#",
      "Ġ $Ĝ",
      "Ġ $'&",
      "Ġ %$$$&",
      "Ġ $$$$#%",
      "Ġ ĀĞ",
      "Ġ $!'",
      "Ġ $'$$%",
      "$$ Ę",
      "$$ ę",
      "$% !$$",
      "$% #$$$$%",
      "$% $$$%$$#",
      "$# '$$$$",
      "$# $!$$#",
      "$# %$$$\"",
      "$# &$$$'",
      "$# !$$$!",
      "$# $#$$!",
      "$$# !$$$$",
      "$\" \"$$",
      "$\" $$(",
      "$\" $'$$%",
      "$\" %$$$\"",
      "$& $$$$$$$$",
      "$& $'$$#",
      "$& #$$$!",
      "$$\" &$$$$",
      "$$& $$%",
      "%$$$$ \"%",
      "ĀĀ :",
      "$! $&$$#",
      "$( Ĝ",
      "%$$ $)",
      "#$$ /",
      "$%$$$$ $$##$$$$",
      "$#$$$$ %$$$$$$%",
      "$## $$\"",
      "$## '$$$$",
      "$#% #$$$$%",
      "$%# $$$$$$$$$$$$",
      "$%# %$$$$%",
      "$%# %$$!",
      "\"$$ /",
      "$) $",
      "$$%$$$$ $$$#$$$$",
      "$* ĝ",
      "$$#$$$$ $$",
      "$%& &$$&",
      "$#\" ($$#",
      "$#& #$$#",
      "#$$$$% \"",
      "$$$\" $$\"",
      "$$$\" $$$$%",
      "%$$$$# #$$$#",
      "$$( %$$&",
      "$\"$$$$ !",
      "!$$$$ &",
      "$$$%$$$$ $$%$$$$",
      "$$$ Ě",
      "#$$' $\"",
      "$\"& \"$$&",
      "$\"& '$$%",
      "$'% #$$$$",
      "$'% #$$&",
      "$'% !$$%",
      "$&\" #$$\"",
      "$$%$$$% $$#",
      "$!# #$$#",
      "$%' &$$%",
      "$%' \"$$&",
      "$%' !$$&",
      "$, )",
      "$, -",
      "$'# %$$\"",
      "Ā# #",
      "Ā# (",
      "$!% &$$%",
      "ĀĀ% Āĝ",
      "ĀĀ% Ā*",
      "$Ĝ )",
      "Ġ$$$$ !",
      "Ġ\" $$$#",
      "ĀĀ# Āĝ",
      "Ġ$$% $",
      "ĀĀ! Ā&",
      "ĀĀ! Ā(",
      "&% \"$$%",
      "$'\" #$$#",
      "$%( $$$%",
      "$%( #$$%",
      "$%( #$$&",
      "Ġ% %$$%",
      "\"# $$$%",
      "$$$#$$# #$$#",
      "Ā( '",
      "$$$$## &$$#",
      "!$$\" $",
      "$- &",
      "$- (",
      "$#$$$$$$$$ %$$$$",
      "$$\"$$$$ $$%",
      "$'! $$$#",
      "Ğ$$ Ĝ",
      "\"& %$$%",
      "$Ě #",
      "$. &",
      "$#$#$$% $",
      "$$$$$$$$# %",
      "$#$$$$$$% $$$$#",
      "+$$ $(",
      "$$$$$$$$$$$$$$$$$$$$$$$$ $$",
      "$#$$$$$$$# $$$#",
      "! $",
      "! #$$$$",
      "! !$$#",
      "\" $$$$$$$$",
      "# $$$$$$$$$$$$$$$$",
      "% Ğ",
      "& Ğ",
      "& !$$%",
      "& #$$$#",
      "' %$$$$",
      ") ğ",
      "* $$)",
      "* $$Ğ",
      "- -",
      ". +",
      "Ě ĝ",
      "Ě ğ",
      "Ě $$&",
      "Ĝ *",
      "ĝ ĀĀ",
      "Ġ $#%",
      "Ġ $Ğ",
      "Ġ $\"#",
      "Ġ $'\"",
      "Ġ $&!",
      "Ġ $%ğ",
      "Ġ #$$Ğ",
      "$$ $ĝ",
      "$$$$ $$#$",
      "$% &$$",
      "$% !$$$$",
      "$% ($$$&",
      "$# &$$",
      "$# $$$\"",
      "$# %$$$$%",
      "$# #$$$!",
      "$# ($$$&",
      "$# $($$$$",
      "$$# #$$&",
      "$\" %$$\"",
      "$\" $$$\"",
      "$& #$$&",
      "$& $%$$$$#",
      "$& $!$$#",
      "$& $\"$$\"",
      "$$\" $$$%",
      "$$\" $$$$#",
      "$$\" %$$%",
      "$$& &$$#",
      "$$$$$$$$ $$#$$$$",
      "$$$$$$$$ #$$$$%",
      "#$$$$ $$$#$$$$",
      "%$$$$ (",
      "%$$$$ $$&",
      "$$$% $$'",
      "$' #$$%",
      "$' $&$$%",
      "$' $!$$#",
      "$! -",
      "$! !$$$$",
      "$! $&$$$$",
      "$$! &$$\"",
      "$$' $$#",
      "$$' &$$&",
      "$$' !$$&",
      "$( $",
      "$( $$",
      "$( $$&",
      "$( $$$$%",
      "%$$ $ğ",
      "$#$$$$ $%$$$$",
      "$%% '$$%",
      "$#% !$$&",
      "$%# &$$%",
      "$%# '$$$$",
      "$%# \"$$$$%",
      "&$$ ę",
      "$ğ $$\"",
      "$ğ $$&",
      "\"$$% $\"",
      "!$$ .",
      "!$$ ě",
      "$$%$$$$ $$#$$$#",
      "$* ,",
      "$$#$$$$ $$$#$$$$",
      "$%& #$$'",
      "$%& !$$&",
      "#$$\" $(",
      "$&% %$$\"",
      "$%\" %$$",
      "$&# !$$#",
      "$#& &$$#",
      "#$$$$% $%$$$$",
      "$ĝ +",
      "%$$$$% #$$$#",
      "%$$$$# %$$$%",
      "$$( #$$&",
      "$\"\" #$$%",
      "!$$$$ &#",
      "$$$#$$$$ $$",
      "$%$$$$# $#$$$$",
      "$%$$$$% $$$$$$$$",
      "$\"& %$$#",
      "$##$$$$ $##$$$$",
      "$&\" \"$$\"",
      "$#$$$$# $%$$$$",
      "$%' %$$'",
      "Ā\" !",
      "$#! &$$!",
      "$%! &$$\"",
      "$Ĝ ĝ",
      "$#' &$$&",
      "$#' #$$'",
      "Ġ# %$$%",
      "$!\" #$$%",
      "$$ğ $",
      "ĀĀ& Ā\"",
      "ĀĀ& Āĝ",
      "$\"' \"$$%",
      "$%( %$$%",
      "Ġ% &$$%",
      "$$$$%# #$$$$",
      "$%$$$$$$$$ #$$$$",
      "$%$$$$$$$$ $$$$$$$$$$$$",
      "ĀĀğ Ā!",
      "Ā) %",
      "$(& #$$%",
      "$'$$$$ \"",
      "$$\"$$$$ $$#",
      "ĀĀ( Ā&",
      "ĀĀ( Āğ",
      "\"\" $$$#",
      "Ğ$$ ,",
      "Ğ$$ $ğ",
      "#$$$$$$$$ $$$$#",
      "Ā+ &",
      "&\" #$$#",
      "Ġ) $$\"",
      "$%$#$$% $",
      "+$$ ,",
      "#$$$$$$# $$%",
      "%$$$$%% #$$%",
      "#$$$$## #$$$$",
      "$$$%$$$$$$$$ $$$",
      "$$$#$$$$$$$$ $$$",
      "%$$$$#% #$$$$",
      "! %$$\"",
      "! \"$$#",
      "! $$$$#%",
      "# )",
      "# #$$\"",
      "# %$$$$#",
      "% ,",
      "% ğ",
      "% \"$$$$",
      "% #$$&",
      "& $",
      "& \"$$$$",
      "& \"$$&",
      "' Ĝ",
      "' Ğ",
      "' \"$$%",
      ") $$$$#",
      "* Ğ",
      ", %",
      "- *",
      "- .",
      "ē Ā",
      "ę $$%",
      "Ě $",
      "Ě )",
      "Ě Ĝ",
      "Ě $$$$",
      "Ĝ Ĝ",
      "Ĝ ĀĀ",
      "ĝ *",
      "Ġ Ę",
      "Ġ $%$$$$",
      "Ġ %$$&",
      "Ġ $#$$%",
      "Ġ $!%",
      "Ġ $$$$##",
      "Ġ $&$$#",
      "Ġ $$$$%#",
      "Ġ $!!",
      "Ġ $\"(",
      "Ġ $'(",
      "Ġ $(!",
      "Ġ Ĝ$$",
      "Ġ &$$Ğ",
      "$% $&$$$$#",
      "$# %$$%",
      "$# %$$$$#",
      "$# $$)",
      "$# $#$$$$$$$$",
      "$$# %$$&",
      "$$# '$$#",
      "$\" .",
      "$\" $&$$$$#",
      "$\" '$$$'",
      "$& !$$",
      "$$\" \"$$\"",
      "$$\" %$$!",
      "$$$$$$$$ $#$$$$",
      "$$$$$$$$ $#$$$#",
      "#$$$$ $$$%$$$$",
      "#$$$$ $$%%$$$$",
      "%$$$$ ğ",
      "$$$% $$!",
      "$$$% $$$$#%",
      "$' $%$$\"",
      "$' !$$$\"",
      "$' '$$$&",
      "$! ě",
      "$! %$$#",
      "$! $#$$$$",
      "$! &$$$$",
      "$! $#$$%",
      "$! !$$$\"",
      "$$' !$$%",
      "%$$ /",
      "%$$% $(",
      "$%$$$$ $$#%$$$$",
      "$#$$$$ &%",
      "$#$$$$ $$%%$$$$",
      "$%% !$$#",
      "$%% $$$%$$#",
      "$%% %$$$$$$$$",
      "$## !$$#",
      "$## #$$$$%%",
      "$#% &$$'",
      "$%# $$$#$$%",
      "\"$$ ę",
      "\"$$ Ě",
      "'$$ .",
      "'$$ $!",
      "!$$ $Ğ",
      "$$%$$$$ $##",
      "$$%$$$$ $%#$$$$",
      "$$$$$$$$$$$$ $#",
      "$$$$$$$$$$$$ $$$%",
      "$#\" #$$&",
      "$#\" !$$#",
      "$&% &$$#",
      "Ġ$$ $Ğ",
      "$\"# '$$$$",
      "$&# !$$$$",
      "$\"% !$$%",
      "$#& &$$$$",
      "#$$$$# #$$$#",
      "$ĝ ě",
      "\"$$& $!",
      "$$( $$$$",
      "$&& \"$$$$",
      "$\"\" %$$&",
      "$\"\" \"$$\"",
      "$\"$$$$ '",
      "'$$$$ &%",
      "$#$$$$% %$$$$",
      "$$$#$$$$ $$#$$$$",
      "$!# #$$$$",
      "$!# &$$$$",
      "$!# %$$&",
      "$#! #$$!",
      "$%! %$$",
      "$'# $$$%",
      "$#%$$$$ $$%$$$$",
      "ĀĀ\" Ā*",
      "ĀĀ\" Ā+",
      "ĀĀ# Ā+",
      "$\"! '$$\"",
      "$!\" %$$\"",
      "Ā' '",
      "Ā' )",
      "&% %$$%",
      "($$# $",
      "\"# %$$$$",
      "Ā( %",
      "$&! \"$$\"",
      "($$$$ &",
      "\"% &$$%",
      "$!! %$$\"",
      "ĀĀğ ĀĞ",
      "$&( $$$%",
      "$#( #$$%",
      "\"\" %$$#",
      "ĀĀĞ Ā#",
      "ĀĀĞ Āğ",
      "*$$ +",
      "*$$ ,",
      "*$$ $)",
      "$#$$$$$$# %$$$$",
      "ĝ$$ $ğ",
      "$. )",
      "$. ğ",
      "$$$$$$$$% #$$$$",
      "$$$$$$$$% %$$$%",
      "$#$%$$# $",
      "ĀĀ+ Ā!",
      "$&%$$$$ $",
      "\"$$ğ $",
      "%$$$$%% #$$$$",
      "#$$$$## %$$$$",
      "$%%%$$% $",
      "Ġ%$$ ĝ",
      "%$$$$%# #$$#",
      "\" &$$\"",
      "\" \"$$\"",
      "# \"",
      "# ğ",
      "$ ĀĀ$Ā",
      "& +",
      "& ğ",
      "& '$$$$",
      "* \"",
      ". )",
      "Ę !",
      "Ě $$%",
      "ě '",
      "Ĝ (",
      "Ĝ $$)",
      "ğ #$$\"",
      "ğ %$$!",
      "Ġ 1",
      "Ġ Ġ",
      "Ġ $#\"",
      "Ġ $%$$%",
      "Ġ $%$$#",
      "Ġ $#$$#",
      "Ġ !$$&",
      "Ġ $&$$%",
      "Ġ $''",
      "Ġ $(\"",
      "Ġ $#ğ",
      "Ġ $)&",
      "$% .",
      "$% $&",
      "$% $&$$$$%",
      "$% $$$$$$$$$$$$$$$$$$",
      "$# $$ğ",
      "$# #$$#$",
      "$# $#$$'",
      "$# &$$$(",
      "$$% '$$#",
      "$$% '$$&",
      "$$% #$$%$",
      "$$# &$$$$#",
      "$\" $&",
      "$\" $$$$$$$$",
      "$\" $#$$$$%",
      "$\" '$$$&",
      "$\" \"$$$!",
      "$\" $!$$%",
      "$\" #$$$!",
      "$& %$$&",
      "$& $%$$&",
      "$$\" \"$$%",
      "$$\" '$$\"",
      "$$& %$$'",
      "$$$$$$$$ &",
      "$$$$$$$$ $$%$$$$",
      "$$$$$$$$ #$$$$#",
      "#$$$$ $%%$$$$",
      "%$$$$ \"&",
      "ĀĀ Ē",
      "$$$% $$$%",
      "$$$% $$$$%#",
      "$$$# $$!",
      "$$$# $$$$#%",
      "$' -",
      "$' Ě",
      "$' $%$$$$",
      "$' $%$$%",
      "$' $&$$#",
      "$! $$",
      "$! \"$$$\"",
      "$$$$# #$$$$",
      "$( &$$$$",
      "$( #$$$#",
      "%$$# $$#",
      "#$$ ($$%",
      "$## '$$\"",
      "$## &$$$$%",
      "$%# '$$\"",
      "\"$$ $ĝ",
      "\"$$$$ $$",
      "&$$$$ \"%",
      "'$$ ę",
      "'$$ $*",
      "$$%$$$$ $$\"",
      "$* $$\"",
      "$Ğ Ĝ",
      "$$$$$$$$$$$$ $%",
      "$%& $$$%$",
      "$#\" %$$$$%",
      "$\"# %$$$$#",
      "$%\" \"$$%",
      "$&# \"$$$$",
      "$&# %$$!",
      "($$ .",
      "($$ /",
      "$+ $$$$",
      "\"$$& $%",
      "$$( #$$%",
      "$&& %$$$$",
      "$&& !$$&",
      "$\"\" \"$$%",
      "$\"\" #$$\"",
      "$\"\" $$$#$",
      "!$$$$ '",
      "!$$$$ &%",
      "$&$$$$ !",
      "$$$#$$$$ &",
      "$\"& &$$$$",
      "$'% !$$$$",
      "$%%$$$$ $$#$$$$",
      "$%%$$$$ $%%$$$$",
      "$#$$$$# #",
      "$!# #$$%",
      "$!# \"$$%",
      "ğ$$ -",
      "ğ$$ $'",
      "$%' %$$#",
      "$%' &$$&",
      "Ā\" +",
      "$#! &$$\"",
      "$#! \"$$\"",
      "Ā% ,",
      "$'# !$$%",
      "Ā# &",
      "$!% \"$$%",
      "Ġ\" %$$#",
      "Ġ\" &$$#",
      "ĀĀ\" Āĝ",
      "Ā& )",
      "$\"! #$$\"",
      "$!\" %$$%",
      "$!\" #$$\"",
      "$&' \"$$&",
      "$$$%$$% %$$$$",
      "ĀĀ& Ā%",
      "ĀĀ& Ā&",
      "ĀĀ& Ā*",
      "&$$! $",
      "#$$$\" $",
      "$'\" !$$#",
      "$\"' #$$%",
      "$$$$%% #$$%",
      "Ā( )",
      "Ġ& #$$%",
      "Ġ& %$$%",
      "Ġ& #$$&",
      "$ě (",
      "$- !",
      "$- +",
      "$!& %$$&",
      "ĀĀ' ĀĞ",
      "&# %$$#",
      "$(% %$$#",
      "$(% #$$&",
      "$(& \"$$%",
      "$#( %$$&",
      "$(# %$$#",
      "\"\" %$$$$",
      "$\"( %$$&",
      "*$$ -",
      "*$$ ě",
      "*$$ $(",
      "Ġ$$' $",
      "#$$$$$$$$ $#",
      "$(\" #$$#",
      "Ġğ $$#",
      "Ā* %",
      "($$& $",
      "$. #",
      "$$$$$$$$% #",
      "$$$$$$$$% %$$$$",
      "Ā+ #",
      "$%#%$$# $",
      "Ġ$& $$&",
      "$%$%$$# $",
      "ĀĀ* Ā)",
      "%$$$$$$# $$%",
      "%$$$$$$# $$$$%",
      "$%$$$$$$# $$$$%",
      "$ĀĀ Ě",
      "#$$$$#% %$$%",
      "Ā, %",
      "$#$$$$$$%$$$$ $$",
      "ĀĀĘ Ā",
      "! $$$$##",
      "\" ě",
      "\" '$$",
      "\" $%$$%",
      "$ ĀĀ%Ā",
      "% (",
      "% &$$$$",
      "% #$$$$#",
      "' $",
      "' #$$&",
      "( $$$%",
      "( #$$%",
      "( $$$$#%",
      ") $$$$%",
      "* ğ",
      "+ !",
      ", #",
      ", .",
      ", $$'",
      "- \"",
      "- $$%",
      ". *",
      "/ #",
      "ę ğ",
      "ę $$&",
      "Ě $$#",
      "Ě $$\"",
      "Ĝ &",
      "Ĝ )",
      "Ĝ ĝ",
      "Ĝ $$(",
      "Ĝ $$Ğ",
      "Ğ )",
      "Ğ $$*",
      "Ġ \"$$&",
      "Ġ )$$",
      "Ġ $#'",
      "Ġ $\"$$%",
      "Ġ $!&",
      "Ġ $#(",
      "Ġ $(#",
      "Ġ ĀĀ(",
      "Ġ +$$",
      "$$$$ $$'",
      "$% \"$$#",
      "$% $$ğ",
      "$% $$$%$",
      "$% $%$$'",
      "$% &$$$\"",
      "$# %$$#$",
      "$# %$$$!",
      "$# $'$$&",
      "$# %$$$(",
      "$$% #$$\"",
      "$$% '$$%",
      "$$% !$$&",
      "$$% \"$$$$#",
      "$$% &$$$$%",
      "$$# &$$",
      "$$# $$$%$",
      "$\" $'",
      "$\" $'$$#",
      "$\" $&$$&",
      "$& .",
      "$& #$$",
      "$& $$$&",
      "$& ($$$&",
      "$& %$$$'",
      "$$\" !$$$$",
      "$$& \"$$#",
      "$$& '$$%",
      "$$& !$$'",
      "$$& $$$(",
      "#$$$$ $&",
      "#$$$$ $$%$$$$$$#",
      "%$$$$ $$$%$$$$",
      "$$$# $$%$$$$",
      "$' &$$$&",
      "$! Ě",
      "$! $%$$\"",
      "$! $#$$&",
      "$! $$#$",
      "$! &$$$'",
      "$$! $$$%",
      "$$! %$$%",
      "$$' #$$'",
      "$$' $$$(",
      "$$$$# $#$$$$",
      "$$$$# $$$$$$$$$$$$",
      "$( #$$$$",
      "$( $#$$%",
      "$( $#$$#",
      "$( '$$$$",
      "$( %$$$%",
      "$( %$$$&",
      "%$$ ę",
      "#$$ Ę",
      "$%$$$$ $$%#$$$$",
      "$#$$$$ $#$$$$",
      "$#$$$$ $$$&",
      "$#$$$$ #$$$$$$",
      "$%% &$$&",
      "$%% #$$!",
      "$%% %$$'",
      "$%% &$$'",
      "$## $$$$$$$$",
      "$## !$$%",
      "$## '$$%",
      "$## #$$!",
      "$#% $$$$$$$$",
      "$#% #$$\"",
      "$#% ($$%",
      "$%# !$$%",
      "$%# \"$$!",
      "&$$ /",
      "$ğ $$!",
      "&$$$$ !",
      "&$$$$ $\"",
      "!$$ Ę",
      "!$$ $&",
      "$$%$$$$ $$",
      "$Ğ ě",
      "$#\" %$$%",
      "$#\" \"$$$$",
      "$&% #$$\"",
      "$&% #$$$$#",
      "$&% \"$$\"",
      "Ġ$$ $'",
      "$\"# !$$#",
      "$\"# ($$#",
      "$%\" %$$%",
      "$%\" '$$\"",
      "$&# #$$!",
      "$&# $$$#$",
      "$\"% &$$#",
      "$\"% %$$$$#",
      "$\"% '$$#",
      "$#& &$$'",
      "#$$$$% '",
      "#$$$$# !",
      "#$$$$# $%$$$$",
      "$+ ,",
      "%$$$$% %$$$%",
      "!$$$$ $$#",
      "!$$$$ &&",
      "$$$#$$$$ $$%$",
      "$$$#$$$$ $$%$$$$$$$$",
      "$%$$$$# $$$$$$$$",
      "$$$ /",
      "$%$$$$% $%$$$$",
      "$'% %$$\"",
      "$##$$$$ $$%$$$$",
      "$&\" %$$$$",
      "$&\" #$$!",
      "$$#$$$# $##$$$$",
      "$$#$$$# $$#$$$#",
      "$!# %$$\"",
      "Ā\" Ğ",
      "$#! \"$$#",
      "Ā% ĝ",
      "$%! !$$#",
      "$'# #$$\"",
      "Ā# !",
      "$Ĝ +",
      "$Ĝ ,",
      "$Ĝ Ğ",
      "Ġ\" \"$$#",
      "Ġ\" #$$\"",
      "$#' !$$%",
      "$#' %$$'",
      "Ā& ğ",
      "%$$$% $$$$$$$$",
      "Ġ# %$$$$",
      "Ġ# $$$#",
      "Ġ# #$$%",
      "$\"! \"$$#",
      "$\"! &$$!",
      "#$$$# $$$$$$$$",
      "$!\" \"$$#",
      "$&' %$$&",
      "$&' !$$%",
      "Ā' \"",
      "Ā' Ğ",
      "$'& &$$%",
      "$'& \"$$&",
      "$$$%$$% $$$#",
      "ĀĀ& Ā)",
      "$\"' &$$%",
      "$\"' \"$$&",
      "$\"' &$$&",
      "$$$#$$# $$$%",
      "Āğ #",
      "$&! $$$#",
      "$&! %$$#",
      "Ġ& %$$&",
      "$$Ğ $",
      "$ě )",
      "$- #",
      "$!& &$$%",
      "$!& &$$&",
      "$$$' $$\"",
      "$$$$%# %$$#",
      "&# \"$$#",
      "$(% $$$#",
      "$(% #$$%",
      "Ġ$$& $",
      "$!! &$$#",
      "$%$$$$$$$$ $$$%",
      "$'' \"$$%",
      "&& \"$$%",
      "$#( \"$$&",
      "$(# \"$$#",
      "$$##$$$$ $",
      "$!' %$$%",
      "ĀĀ) Āĝ",
      "ĀĀĝ Ā\"",
      "ĀĀĝ Āğ",
      "%$$ğ $",
      "$$&$$$$ $$%",
      "'$$' $",
      "#$$$$$$$$ $$$$%",
      "%$$$$$$$$ $$$$%",
      "$#$$$$$$# $$$$%",
      "Ġğ $$$$",
      "#$$) $",
      "ĝ$$ Ĝ",
      "$. %",
      "$%$$$$$$% %",
      "ĠĞ $$$$",
      "$#$$$$$$% $$$$%",
      "#$$$$$$% $$#",
      "+$$ +",
      "+$$ $)",
      "ĀĀĜ Ā!",
      "$%$%$$% $",
      "#$$$$%% #$$%",
      "$\"#$$$$ $",
      "#$$$$## %$$#",
      "%$$$$## %$$$$",
      "$$$%$$$$$$$$ $$$%",
      "#$$* $",
      "#$$$$#% #$$%",
      "$\"$%$$% $",
      "%$$$$%# %$$#",
      "!$$) $",
      "%$$$$#% %$$$$",
      "$#$$$$& $",
      "$$#$$$$$$% $$$$$$$$$$$$",
      "Ġ$( ğ",
      "Ġ!$$ ğ",
      "$#$& $$!",
      "$$$$$$$$$$$$$$$$$$$$ $$",
      "\" &$$$$",
      "\" $$$#$",
      "# \"$$#",
      "& -",
      "& $$$$$$$$",
      "& $$$#",
      "& $$$%$",
      "& !#",
      "( $$$$%%",
      "( ĀĀ$Ā",
      "* *",
      "* +",
      "+ ĀĀ&Ā",
      ", $$%",
      ", $$(",
      "- Ğ",
      ". &",
      "Ā /",
      "Ę $",
      "ę !",
      "ę $$\"",
      "Ě (",
      "Ĝ +",
      "Ĝ $$ğ",
      "Ġ $&(",
      "Ġ Ā*",
      "Ġ !$$$\"",
      "$$$$ $$%$",
      "$% &$$#",
      "$% $!$$$$#",
      "$% $&$$'",
      "$# '$$",
      "$# !$$",
      "$$% $$$$%",
      "$$% '$$$$",
      "$\" $\"",
      "$\" $!$$$$",
      "$\" $!$$#",
      "$\" ($$$&",
      "$\" $($$$$",
      "$\" &$$$\"",
      "$& &$$%",
      "$& $$Ğ",
      "$& $!$$$$",
      "$& $\"$$$$%",
      "$$\" $$&",
      "$$\" ($$#",
      "$$\" '$$!",
      "$$& \"$$$$",
      "#$$$$ %$$#",
      "#$$$$ $$%#$$$$",
      "ĀĀ ;",
      "ĀĀ ē",
      "$$$# $$'",
      "$$$# $$$$%%",
      "$' $'$$#",
      "$' $!$$%",
      "$' %$$$\"",
      "$' &$$$\"",
      "$' $!$$\"",
      "$! $$(",
      "$! &$$$&",
      "$! $&$$&",
      "$( .",
      "$( $$'",
      "$( $%$$#",
      "$( $%$$\"",
      "$( #$$$!",
      "$%$$$$ $$!",
      "$%$$$$ $%$$$$",
      "$%$$$$ #$$$$$$#",
      "$%% $$$$$$$$",
      "$%% '$$#",
      "$%% \"$$'",
      "$%% !$$&",
      "$%% $$$#$",
      "$#% !$$$$",
      "$#% !$$#",
      "$#% %$$'",
      "$#% #$$(",
      "$#% &$$$$%",
      "$#% &$$$$#",
      "$%# $$$$$$$$",
      "$%# $$$#$$#",
      "\"$$ Ę",
      "\"$$ $Ğ",
      "$) $$",
      "$) ĀĀ",
      "$) $$$$#",
      "$ğ $",
      "\"$$$$ \"%",
      "&$$$$ (",
      "'$$ $",
      "'$$ /",
      "!$$ ę",
      "$$#$$$$ $$\"",
      "$$#$$$$ $##",
      "$Ğ ,",
      "$Ğ $$&",
      "$%& &$$\"",
      "$%& &$$'",
      "$%& '$$&",
      "$#\" &$$%",
      "$#\" !$$$$",
      "$#\" '$$\"",
      "$&% !$$#",
      "Ġ$$ Ě",
      "$\"# \"$$$$",
      "$\"# \"$$&",
      "$\"# \"$$$$#",
      "$&# &$$$$",
      "($$ $+",
      "$\"% #$$\"",
      "$\"% #$$'",
      "$\"% %$$'",
      "$#& #$$$$",
      "$#& \"$$'",
      "$#& '$$&",
      "$#& $$$%$",
      "$#& #$$%$",
      "$$$\" $$!",
      "#$$$$# $%$$$$%",
      "$ĝ $$$$",
      "$ĝ $$%",
      "$+ .",
      "%$$$$% $%$$$$",
      "%$$$$# $#$$$$",
      "$$( \"$$%",
      "$$( &$$%",
      "$&& &$$&",
      "$\"\" \"$$$$",
      "$\"\" &$$$$",
      "!$$$$ \"%",
      "$$$%$$$$ $$\"",
      "$$$%$$$$ $$#$$$$$$$$",
      "$\"& \"$$'",
      "$'% &$$%",
      "$'% #$$\"",
      "$##$$$$ $%%$$$$",
      "$&\" !$$#",
      "$#$$$$# $%$$$$%",
      "$$#$$$# $%$$$$%",
      "$!# '$$%",
      "$%' \"$$$$",
      "Ā\" *",
      ")$$ .",
      ")$$ ę",
      "$, Ğ",
      "$%! #$$!",
      "$'# %$$%",
      "$'# !$$#",
      "Ā# )",
      "ĀĀ$ Ā%",
      "$!% %$$#",
      "$!% '$$%",
      "ĀĀ% Ā%",
      "$Ĝ *",
      "Ġ$$$$ $$&",
      "Ā! %",
      "$%#$$$$ $%#$$$$",
      "Ġ# #$$#",
      "Ġ# &$$&",
      "Ġ# '$$#",
      "$\"! %$$$$",
      "$!\" %$$$$",
      "$&' #$$$$",
      "$&' &$$%",
      "$&' #$$'",
      "Ā' !",
      "$'& !$$%",
      "$'& %$$'",
      "&% %$$$$",
      "Ġ! $$$#",
      "$'\" #$$!",
      "&$$' $",
      "$\"' '$$%",
      "Ā( #",
      "$&! \"$$#",
      "$&! &$$\"",
      "Ġ& $$$%",
      "\"$$! $",
      "$- \"",
      "$- ĝ",
      "$!& #$$%",
      "$!& #$$&",
      "$!& '$$%",
      "ĀĀ' Ā,",
      "$\"$$# $",
      "\"% %$$$$",
      "$!! #$$#",
      "$%$$$$$$$$ $$$#",
      "$'' %$$&",
      "Ā) '",
      "Ā) (",
      "$(& $$$%",
      "$(& %$$%",
      "$!$$$$ $$#",
      "$(# #$$\"",
      "$'! %$$\"",
      "ĀĀĞ ĀĞ",
      "Ğ$$ +",
      "Ğ$$ -",
      "Āĝ #",
      "'$$! $",
      "Ā* #",
      "$Ě (",
      "ĝ$$ ,",
      "ĝ$$ $Ğ",
      "$. '",
      "$$$$$$$$# #$$$$",
      "$#\"$$$$ $",
      "ĀĀ+ Āğ",
      "\"! %$$#",
      "\"$$) $",
      "$#$$$$$$% #",
      "$#$$$$$$% #$$$#",
      "ĀĀ* Ā%",
      "ĀĀ* Ā*",
      "$#) #$$&",
      "+$$ ĝ",
      "$(( $$$%",
      "$%$$$$$$# #",
      "$%$$$$$$# $$$$$$$$$$$$",
      "%$$$$& #$$$#",
      "$ĀĀ -",
      "'$$( $",
      "Ĝ$$ ,",
      "ĀĀĜ Ā(",
      "!\" $$$#",
      "'ĀĀ ě",
      "ĀĀ, Ā&",
      "$$%$$$$$$$$ $$$$$$$$$$$$",
      "!$$$$% &",
      "#$$$$%# #$$#",
      "$$#$$$$$$$$ $$%",
      "Ġ#$$ ĝ",
      "$%$$$$\" $",
      "$#$& $$'",
      "! ě",
      "! &$$#",
      "\" !$$$$",
      "\" '$$\"",
      "\" ($$\"",
      "# '",
      "# +",
      "% '",
      "% +",
      "% %$$#",
      "% \"$$%",
      "% ((",
      "' &$$$$",
      "' #$$'",
      "' '$$%",
      "( ě",
      "( ĝ",
      "( &$$%",
      "( ĀĀ)",
      ") $$$&",
      ") ĀĀ%Ā",
      "* )",
      "* $$$$#",
      "* $$(",
      "+ $$(",
      ", )",
      ", ğ",
      ", $$!",
      "- $$&",
      ". #",
      ". %",
      ". (",
      "/ ,",
      "/ -",
      "Ā $",
      "Ę $$",
      "Ę $$#",
      "Ě Ğ",
      "ě $",
      "ě (",
      "ě Ğ",
      "ě $$!",
      "Ğ $$$$%",
      "Ğ $$#$",
      "ğ $$%$",
      "Ġ $#$$$$",
      "Ġ $#&",
      "Ġ &$$&",
      "Ġ #$$'",
      "Ġ $!\"",
      "Ġ $%(",
      "Ġ $(%",
      "Ġ $'$$$$",
      "Ġ $\"ğ",
      "Ġ ĀĀ\"Ā",
      "Ġ #$$$&",
      "Ġ &$$$'",
      "Ġ $'ğ",
      "$$$$ $",
      "$$$$ '",
      "$% Ě",
      "$% #$$$$#",
      "$% $\"$$$$%",
      "$% $!$$&",
      "$% %$$$!",
      "$# Ě",
      "$# $*",
      "$# $\"$$$$#",
      "$# $%$$'",
      "$# &$$$\"",
      "$# $#$$",
      "$$% &$$\"",
      "$$% &$$'",
      "$$% $$$#$$#",
      "$$# !$$%",
      "$$# $$$",
      "$$# '$$\"",
      "$$# &$$!",
      "$\" $%",
      "$\" $$$$$$$$$$$$",
      "$\" #$$\"",
      "$\" &$$$'",
      "$\" %$$$'",
      "$\" $&$$\"",
      "$\" !$$$",
      "$\" $%$$!",
      "$& Ě",
      "$& %$$",
      "$& &$$",
      "$& $%$$$$%",
      "$& $$$$#%",
      "$& '$$$&",
      "$& '$$$'",
      "$& $&$$&",
      "$& !$$$!",
      "$& !$$$",
      "$& $!$$&",
      "$& $'$$\"",
      "$$\" $$$$%",
      "$$\" &$$!",
      "$$\" $$$#$",
      "$$& &$$$$",
      "$$& %$$\"",
      "$$& \"$$'",
      "#$$$$ $%#$$$$",
      "#$$$$ !#",
      "%$$$$ $$'",
      "%$$$$ &&",
      "%$$$$ $$%%$$$$",
      "$$$% $$#$$$#",
      "$$$# $$#$$$#",
      "$' .",
      "$' $$",
      "$' #$$&",
      "$' $!$$$$",
      "$' $\"$$&",
      "$! '$$$'",
      "$! ($$$'",
      "$$! %$$$$",
      "$$! $$$",
      "$$! '$$\"",
      "$$' \"$$&",
      "$( %$$$$",
      "$( #$$$\"",
      "$( \"$$$\"",
      "%$$ ($$",
      "$%$$$$ (",
      "$%$$$$ \"$$#",
      "$%$$$$ $##$$$$",
      "$%$$$$ #$$$$$$",
      "$#$$$$ #$$$$",
      "$%% $$$%$$%",
      "$%% \"$$$$#",
      "$%% %$$$$&",
      "$%% #$$$$##",
      "$## &$$!",
      "$## $$$%$",
      "$## \"$$!",
      "$## $$$$$$$$$$$",
      "$#% \"$$'",
      "$#% %$$$$$$$$",
      "$%# &$$!",
      "$%# )$$#",
      "$%# !$$$$%",
      "$) -",
      "$) Ĝ",
      "\"$$$$ $$&",
      "&$$# $#",
      "$* $",
      "$$#$$$$ $$&",
      "$$#$$$$ $#$$$$$$",
      "$Ğ -",
      "$$$$$$$$$$$$ $#$$$$",
      "$%& '$$$$",
      "$%& #$$%$",
      "$#\" \"$$&",
      "$#\" \"$$\"",
      "$#\" $$$#$$%",
      "$&% #$$$$%",
      "$&% &$$&",
      "$&% '$$#",
      "Ġ$$ $Ĝ",
      "$%\" \"$$$$",
      "$%\" %$$!",
      "$%\" ($$#",
      "$&# #$$&",
      "$&# !$$%",
      "$&# '$$#",
      "$&# ($$#",
      "($$ Ě",
      "($$ $\"",
      "($$ $!",
      "$\"% $$$%$",
      "$\"% #$$%$",
      "$#& !$$%",
      "$$$& $$!",
      "$ĝ Ě",
      "$+ /",
      "$+ Ĝ",
      "%$$$$% $#$$#",
      "&$$\" $\"",
      "%$$$$# $",
      "%$$$$# %$$$$",
      "$&& #$$'",
      "$\"\" #$$",
      "$\"\" #$$&",
      "$\"\" &$$%",
      "$\"\" '$$\"",
      "$\"\" ($$#",
      "$\"$$$$ $$$#",
      "!$$$$ (&",
      "$&$$$$ $$'",
      "$$$%$$$$ \"",
      "'$$$$ '",
      "'$$$$ )",
      "'$$$$ &\"",
      "$#$$$$% #",
      "$$$#$$$$ #$$$$%",
      "$%$$$$% $#$$$$#",
      "$\"& #$$#",
      "$\"& '$$$$",
      "$'% %$$$$",
      "$'% &$$#",
      "$##$$$$ $$%$$$%",
      "$&\" '$$#",
      "$$%$$$% $$#$$$$",
      "$!# #$$\"",
      "$!# ($$$$",
      "ğ$$ Ě",
      "ğ$$ $Ğ",
      "$%' !$$%",
      "$%' '$$%",
      "$%' \"$$'",
      "$#! $$$%",
      "$#! %$$",
      "$#! &$$$$",
      "$#! %$$!",
      "$, ,",
      "$%! &$$",
      "$%! '$$#",
      "$%! \"$$!",
      "$#%$$$$ $$#$$$#",
      "$!% $$$#",
      "$!% &$$#",
      "$!% &$$&",
      "ĀĀ% Ā+",
      "Ġ\" $$'",
      "ĀĀ\" Ā%",
      "$#' '$$&",
      "$%#$$$$ $#%$$$$",
      "Ġ# ($$#",
      "$\"! %$$%",
      "$$) $$$&",
      "$!\" '$$#",
      "$&' $$$#",
      "$$ğ \"$$\"",
      "ĀĀ! Ā+",
      "&% $$$#",
      "&% \"$$$$",
      "Ġ! ĀĀ",
      "$'\" \"$$\"",
      "$%( \"$$&",
      "Ġ% \"$$%",
      "Ġ% %$$&",
      "$$$%$$# #$$#",
      "\"# #$$$$",
      "$&! %$$!",
      "$$$$## %$$#",
      "$ě &",
      "$!& &$$$$",
      "ĀĀ' Ā&",
      "&# &",
      "\"% #$$$$",
      "$(% \"$$$$",
      "$#$$$$$$$$ $$$$%",
      "$!! &$$\"",
      "Ġ$$\" $",
      "$%$$$$$$$$ %$$$$",
      "$'' #$$&",
      "ĀĀğ Ā\"",
      "ĀĀğ Ā'",
      "Ā) )",
      "$#%$$$% $$$$$$$$",
      "$&( #$$'",
      "$#( #$$&",
      "$#( &$$%",
      "$'$$$$ $$#",
      "$$#%$$# $$$$$$$$",
      "$%$#$$$$ \"",
      "$$%%$$$$ $$#$$$$",
      "ĀĀ( Ā%",
      "ĀĀ( Ā*",
      "$'! #$$#",
      "\"\" #$$#",
      "ĀĀĞ Ā\"",
      "ĀĀĞ Ā'",
      "$!' $$$%",
      "ĀĀ) Āğ",
      "ĀĀĝ Ā&",
      "ĀĀĝ Ā'",
      "$\"( #$$&",
      "$\"( &$$&",
      "$\"( #$$'",
      "$\"( '$$&",
      "*$$ $*",
      "$Ě &",
      "$#$#$$$$ &",
      "$. +",
      "$$$$$$$$% #$$$#",
      "$'( %$$%",
      "&$$$$% \"",
      "$%) %$$&",
      "$%$#$$# $",
      "Ā+ '",
      "Ā+ )",
      "'% #$$%",
      "&\" %$$#",
      "&\" \"$$#",
      "Ġ) %$$'",
      "$\"$$$$% $",
      "$%$$$$$$% $$$$#",
      "ĠĞ $$%",
      "#$$$$$$% $$$$#",
      "ĀĀ* Ā#",
      "%$$$$$$% $$%",
      "+$$ Ĝ",
      "$&) %$$%",
      "$&) %$$&",
      "#$$$$$$# $$$$%",
      "%$$$$& %$$$$",
      "$ĀĀ .",
      "$ĀĀ ě",
      "ğ$$& $",
      "$ğ% &$$%",
      "'& #$$%",
      "$%&$$$$ $",
      "$$$%$$$$$$$$ $$$#",
      "$$$%$$$$$$$$ $$$$%",
      "$') #$$%",
      "'ĀĀ .",
      "$&ğ %$$\"",
      "!$$( $",
      "Ġ$% ĝ",
      "$$$( $$$$",
      "ğ$$\" $",
      "%$$$$#% #$$%",
      "Ġ#$$\" $",
      "$#$%$$$$% %",
      "!$$$$# \"",
      "$&$#$$# $",
      "\"$$+ $",
      "%% %",
      "$$&$$$& $",
      "Ě$$ .",
      "! -",
      "! %$$$$",
      "! $%$$%",
      "! %$$!",
      "\" &$$",
      "# $%",
      "% \"%",
      "% '(",
      "& /",
      "& #$$%$",
      "' ĝ",
      "' !$$%",
      "( /",
      "( $$$$##",
      "( ĀĀ%Ā",
      ") Ĝ",
      ") Ğ",
      ") $$%$",
      ", !",
      ", '",
      ", +",
      "- $$'",
      ". !",
      ". '",
      ". ĀĀ(",
      "/ )",
      "/ ĀĀ",
      "Ā $%",
      "ė Ā",
      "Ę #",
      "Ę ĀĀ",
      "ę Ğ",
      "ę $$!",
      "Ě \"",
      "Ě &",
      "ě \"",
      "Ĝ $$*",
      "ĝ -",
      "ĝ $$Ğ",
      "Ğ %$$",
      "ğ %$$#",
      "ğ $$$\"",
      "Ġ $\"$$$$",
      "Ġ $%$$$$#",
      "Ġ $!#",
      "Ġ $%!",
      "Ġ $\"'",
      "Ġ ($$$$",
      "Ġ %$$(",
      "Ġ Ā)",
      "Ġ Ğ$$",
      "Ġ $%$$&",
      "Ġ ĝ$$",
      "Ġ $%)",
      "Ġ \"$$)",
      "Ġ ĀĀ#Ā",
      "Ġ $($$$$",
      "Ġ $ğ'",
      "Ġ '$$Ğ",
      "$$ ($$$&",
      "$% $$)",
      "$% $'$$%",
      "$% $#$$!",
      "$% ($$$(",
      "$# !$$#",
      "$# $%$$!",
      "$# #$$$",
      "$# $($$%",
      "$$% \"$$'",
      "$$% \"$$(",
      "$$% \"$$$$%",
      "$$% &$$$$#",
      "$$% $$$%$$$$$$#",
      "$$# &$$&",
      "$$# $$$$$$$$$$$$$$$$",
      "$$# $$$%$$%",
      "$$# \"$$$$#",
      "$\" #$$%",
      "$\" &$$",
      "$\" !$$",
      "$\" $&$$$$%",
      "$\" $!$$&",
      "$\" $($$#",
      "$\" $)$$%",
      "$& #$$#",
      "$& !$$$$",
      "$& #$$%$",
      "$& $\"$$&",
      "$& $#$$'",
      "$& $#$$",
      "$& #$$$",
      "$$\" &$$",
      "$$\" #$$&",
      "$$\" #$$!",
      "$$\" \"$$!",
      "$$\" #$$\"$",
      "$$& '$$#",
      "$$& $$$%$$%",
      "$$& $$$%$$#",
      "$$$$$$$$ %$$$$%",
      "$$$$$$$$ $%%$$$$",
      "$$$$$$$$ $%$$$$$$$$",
      "$$$$$$$$ $##$$#",
      "#$$$$ $$'",
      "#$$$$ %$$%",
      "#$$$$ $##$$$$",
      "#$$$$ &#",
      "#$$$$ $$#%$$$$",
      "%$$$$ #$$#",
      "%$$$$ $##$$$$",
      "ĀĀ <",
      "ĀĀ đ",
      "$$$% $$%$$$%",
      "$' #$$",
      "$' &$$",
      "$' $\"$$$$",
      "$' ($$$$",
      "$' #$$$!",
      "$! ĀĀ",
      "$! #$$",
      "$! $)",
      "$! !$$",
      "$! %$$\"",
      "$! \"$$#",
      "$! '$$$$",
      "$! $'$$%",
      "$! $'$$#",
      "$! #$$$&",
      "$! $&$$\"",
      "$$! \"$$$$",
      "$$! \"$$\"",
      "$$! !$$#",
      "$$! %$$!",
      "$$! $$$!",
      "$$' &$$'",
      "$$$$% (",
      "$( /",
      "$( ĀĀ",
      "$( \"$$",
      "$( !$$$$",
      "$( '$$$&",
      "$( $!$$\"",
      "#$$ ($$#",
      "$%$$$$ $#$$$$",
      "$#$$$$ $$'",
      "$#$$$$ $$##$$$$",
      "$#$$$$ $$&$$$$",
      "$#$$$$ $%$$$%",
      "$%% $$&",
      "$%% '$$&",
      "$%% #$$$$%%",
      "$## !$$\"",
      "$## \"$$$$%",
      "$## &$$$$#",
      "$#% '$$#",
      "$#% $$$%$$%",
      "$#% '$$&",
      "$#% ($$$$",
      "$#% \"$$$$%",
      "$#% #$$$$\"",
      "$%# %$$&",
      "$%# %$$$$#",
      "$%# ($$#",
      "$%# %$$$$$$$$",
      "$) .",
      "$ğ #$$$$",
      "$ğ %$$$&",
      "&$$$$ $$\"",
      "'$$ $+",
      "&$$# $%%",
      "!$$ ė",
      "$$%$$$$ $$&",
      "$$%$$$$ $#$$$$$$",
      "$$%$$$$ $$%$$$$$$$$",
      "\"$$# $&",
      "&$$% $$",
      "$* -",
      "$* .",
      "$$#$$$$ $$#$$$#",
      "$Ğ $$\"",
      "%$$& $'#",
      "$$$$$$$$$$$$ %$$$$",
      "$%& \"$$#",
      "$%& !$$#",
      "$%& #$$(",
      "$#\" \"$$",
      "$#\" ($$\"",
      "$&% #$$'",
      "$&% !$$&",
      "$&% #$$%$",
      "Ġ$$ /",
      "$\"# \"$$%",
      "$\"# #$$$$#",
      "$\"# &$$&",
      "$\"# %$$!",
      "$\"# '$$%",
      "$\"# &$$$$#",
      "$%\" &$$",
      "$%\" #$$&",
      "$%\" !$$%",
      "$%\" $$$#$"
    ]
  }
}