{
  "version": "1.0",
  "truncation": null,
  "padding": null,
  "added_tokens": [],
  "normalizer": null,
  "pre_tokenizer": {
    "type": "ByteLevel",
    "add_prefix_space": false,
    "trim_offsets": true,
    "use_regex": true
  },
  "post_processor": {
    "type": "ByteLevel",
    "add_prefix_space": true,
    "trim_offsets": false,
    "use_regex": true
  },
  "decoder": {
    "type": "ByteLevel",
    "add_prefix_space": true,
    "trim_offsets": true,
    "use_regex": true
  },
  "model": {
    "type": "BPE",
    "dropout": null,
    "unk_token": null,
    "continuing_subword_prefix": null,
    "end_of_word_suffix": null,
    "fuse_unk": false,
    "byte_fallback": false,
    "ignore_merges": false,
    "vocab": {
      "\u0000": 0,
      "\u0001": 1,
      "\u0002": 2,
      "\u0003": 3,
      "\u0004": 4,
      "\u0005": 5,
      "\u0006": 6,
      "\u0007": 7,
      "\b": 8,
      "\t": 9,
      "\n": 10,
      "\u000b": 11,
      "\f": 12,
      "\r": 13,
      "\u000e": 14,
      "\u000f": 15,
      "\u0010": 16,
      "\u0011": 17,
      "\u0012": 18,
      "\u0013": 19,
      "\u0014": 20,
      "\u0015": 21,
      "\u0016": 22,
      "\u0017": 23,
      "\u0018": 24,
      "\u0019": 25,
      "\u001a": 26,
      "\u001b": 27,
      "\u001c": 28,
      "\u001d": 29,
      "\u001e": 30,
      "\u001f": 31,
      " ": 32,
      "!": 33,
      "\"": 34,
      "#": 35,
      "$": 36,
      "%": 37,
      "&": 38,
      "'": 39,
      "(": 40,
      ")": 41,
      "*": 42,
      "+": 43,
      ",": 44,
      "-": 45,
      ".": 46,
      "/": 47,
      "0": 48,
      "1": 49,
      "2": 50,
      "3": 51,
      "4": 52,
      "5": 53,
      "6": 54,
      "7": 55,
      "8": 56,
      "9": 57,
      ":": 58,
      ";": 59,
      "<": 60,
      "=": 61,
      ">": 62,
      "?": 63,
      "@": 64,
      "A": 65,
      "B": 66,
      "Ā": 67,
      "Ą": 68,
      "ą": 69,
      "Ć": 70,
      "ć": 71,
      "Ĉ": 72,
      "ĉ": 73,
      "Ċ": 74,
      "ċ": 75,
      "Č": 76,
      "č": 77,
      "Ď": 78,
      "ď": 79,
      "Đ": 80,
      "đ": 81,
      "Ē": 82,
      "ē": 83,
      "Ĕ": 84,
      "ĕ": 85,
      "Ė": 86,
      "ė": 87,
      "Ę": 88,
      "ę": 89,
      "Ě": 90,
      "ě": 91,
      "Ĝ": 92,
      "ĝ": 93,
      "Ğ": 94,
      "ğ": 95,
      "Ġ": 96,
      "$$": 97,
      "$$$$": 98,
      "$%": 99,
      "$#": 100,
      "$$#": 101,
      "$$%": 102,
      "$&": 103,
      "$\"": 104,
      "$$\"": 105,
      "$$&": 106,
      "$$$$$$$$": 107,
      "#$$$$": 108,
      "%$$$$": 109,
      "ĀĀ": 110,
      "$$$#": 111,
      "$$$%": 112,
      "$'": 113,
      "$!": 114,
      "$$!": 115,
      "$$'": 116,
      "$$$$%": 117,
      "$$$$#": 118,
      "$(": 119,
      "%$$#": 120,
      "#$$%": 121,
      "%$$": 122,
      "#$$#": 123,
      "%$$%": 124,
      "#$$": 125,
      "$#$$$$": 126,
      "$%$$$$": 127,
      "$##": 128,
      "$%%": 129,
      "$#%": 130,
      "$%#": 131,
      "$)": 132,
      "\"$$": 133,
      "$ğ": 134,
      "&$$": 135,
      "\"$$$$": 136,
      "&$$$$": 137,
      "\"$$%": 138,
      "'$$": 139,
      "&$$#": 140,
      "!$$": 141,
      "$$#$$$$": 142,
      "%$$\"": 143,
      "#$$&": 144,
      "$$%$$$$": 145,
      "$*": 146,
      "\"$$#": 147,
      "&$$%": 148,
      "$Ğ": 149,
      "$$$$$$$$$$$$": 150,
      "%$$&": 151,
      "#$$\"": 152,
      "$%&": 153,
      "$#\"": 154,
      "$&%": 155,
      "Ġ$$": 156,
      "$\"#": 157,
      "$%\"": 158,
      "$&#": 159,
      "($$": 160,
      "$\"%": 161,
      "$#&": 162,
      "$$$&": 163,
      "$$$\"": 164,
      "#$$$$#": 165,
      "%$$$$#": 166,
      "#$$$$%": 167,
      "$ĝ": 168,
      "$+": 169,
      "\"$$&": 170,
      "%$$$$%": 171,
      "$$(": 172,
      "$%$$#": 173,
      "$&&": 174,
      "&$$\"": 175,
      "$%$$%": 176,
      "$\"\"": 177,
      "$#$$%": 178,
      "$#$$#": 179,
      "!$$$$": 180,
      "$\"$$$$": 181,
      "'$$$$": 182,
      "$$$%$$$$": 183,
      "$$$#$$$$": 184,
      "$&$$$$": 185,
      "\"$$\"": 186,
      "$$$$$$$$$$$$$$$$": 187,
      "!$$%": 188,
      "&$$&": 189,
      "'$$#": 190,
      "$$$": 191,
      "%$$!": 192,
      "$%$$$$#": 193,
      "$#$$$$%": 194,
      "#$$'": 195,
      "!$$#": 196,
      "'$$%": 197,
      "$%%$$$$": 198,
      "$\"&": 199,
      "$%$$$$%": 200,
      "$##$$$$": 201,
      "$'%": 202,
      "#$$!": 203,
      "$#$$$$#": 204,
      "$$#$$$#": 205,
      "$&\"": 206,
      "$!#": 207,
      "$$%$$$%": 208,
      "%$$'": 209,
      "$%'": 210,
      "ğ$$": 211,
      ")$$": 212,
      "$#!": 213,
      "Ā%": 214,
      "Ā\"": 215,
      "Ā#": 216,
      "$%!": 217,
      "$'#": 218,
      "$!%": 219,
      "ĀĀ$": 220,
      "$,": 221,
      "ĀĀ%": 222,
      "Ġ$$$$": 223,
      "$Ĝ": 224,
      "ĀĀ\"": 225,
      "ĀĀ#": 226,
      "$%#$$$$": 227,
      "$#'": 228,
      "$#%$$$$": 229,
      "Ā!": 230,
      "\"$$'": 231,
      "&%": 232,
      "Ġ\"": 233,
      "$\"!": 234,
      "'$$\"": 235,
      "#$$$#": 236,
      "!$$&": 237,
      "$$ğ": 238,
      "Ā&": 239,
      "Ġ$$#": 240,
      "&$$!": 241,
      "$!\"": 242,
      "$&'": 243,
      "Ā'": 244,
      "Ġ#": 245,
      "$$)": 246,
      "$$$%$$%": 247,
      "Ġ%": 248,
      "$'&": 249,
      "ĀĀ!": 250,
      "Ġ$$%": 251,
      "($$#": 252,
      "ĀĀ&": 253,
      "$'\"": 254,
      "!$$\"": 255,
      "$$$$%%": 256,
      "$$$%$": 257,
      "#$$$\"": 258,
      "$$$%$$#": 259,
      "%$$$&": 260,
      "'$$&": 261,
      "\"#": 262,
      "&$$'": 263,
      "Āğ": 264,
      "$$$#$$#": 265,
      "$$$#$$%": 266,
      "($$$$": 267,
      "($$%": 268,
      "$\"'": 269,
      "$$$$#%": 270,
      "\"%": 271,
      "$!&": 272,
      "Ā(": 273,
      "$&!": 274,
      "$ě": 275,
      "$$$$##": 276,
      "$\"$$%": 277,
      "$&$$#": 278,
      "Ġ!": 279,
      "$%#$$$#": 280,
      "ĀĀ'": 281,
      "Ġ&": 282,
      "\"$$!": 283,
      "$$$'": 284,
      "$-": 285,
      "#$$(": 286,
      "&#": 287,
      "$$Ğ": 288,
      "$\"$$#": 289,
      "$&$$%": 290,
      "$''": 291,
      "$##$$$#": 292,
      "%$$(": 293,
      "$%(": 294,
      "$!$$$$": 295,
      "$$$$%#": 296,
      "ĀĞ": 297,
      "$#$$$$$$$$": 298,
      "$(%": 299,
      "$!!": 300,
      "$%$$$$$$$$": 301,
      "Ġ$$&": 302,
      "Ġ'": 303,
      "ĀĀğ": 304,
      "Ġ$$\"": 305,
      "$$*": 306,
      "$$$!": 307,
      "$#%$$$%": 308,
      "&&": 309,
      "\"$$$\"": 310,
      "Ā)": 311,
      "$%%$$$%": 312,
      "&$$$&": 313,
      "$#(": 314,
      "!$$'": 315,
      "$&(": 316,
      "$%$#$$$$": 317,
      "$(&": 318,
      "$#$%$$$$": 319,
      "$'$$$$": 320,
      "$$\"$$$$": 321,
      "\"\"": 322,
      "\"$$(": 323,
      "$(#": 324,
      "Ġ(": 325,
      "$$#%$$#": 326,
      "$$$#$": 327,
      "$'!": 328,
      "$$%%$$$$": 329,
      "$!'": 330,
      "ĀĀ(": 331,
      "$$%#$$%": 332,
      "Ğ$$": 333,
      "$#$$$$$$#": 334,
      "ĀĀĞ": 335,
      "$$&$$$$": 336,
      "$$%%$$%": 337,
      "'$$!": 338,
      "'$$'": 339,
      "#$$$$$$$$": 340,
      "$%$%$$$$": 341,
      "ĀĀ)": 342,
      "$%%#$$%": 343,
      "Āĝ": 344,
      "#$$ğ": 345,
      "\"&": 346,
      "ĀĀĝ": 347,
      "($$\"": 348,
      "*$$": 349,
      "$%$$&": 350,
      "$(\"": 351,
      "%$$$%": 352,
      "Ġ$": 353,
      "Ġğ": 354,
      "%$$ğ": 355,
      "$#$$\"": 356,
      "$$##$$$$": 357,
      "\"$$$$%": 358,
      "Ġ$$'": 359,
      "$#$#$$$$": 360,
      "$$$$$$$$%": 361,
      "#$$)": 362,
      "&$$(": 363,
      "$('": 364,
      "Ā*": 365,
      "$#$%$$%": 366,
      "$\"(": 367,
      "%$$#$": 368,
      "!$$!": 369,
      "$$##$$#": 370,
      "$$%$": 371,
      "%$$)": 372,
      "$&$$$$#": 373,
      "$'(": 374,
      "\"$$$$#": 375,
      "$$$$$$$$#": 376,
      "%$$$$$$$$": 377,
      "($$&": 378,
      "$\"$$$$%": 379,
      "$%##$$#": 380,
      "&$$$$#": 381,
      "$##%$$#": 382,
      "&$$$$%": 383,
      "#$$%$": 384,
      "$%$$$$$$%": 385,
      "#$$$$$$#": 386,
      "$%$#$$#": 387,
      "$#$$&": 388,
      "$.": 389,
      "$Ě": 390,
      "%$$$$$$%": 391,
      "&\"": 392,
      "ĝ$$": 393,
      "$%$$\"": 394,
      "$#%%$$%": 395,
      ")$$#": 396,
      "$#$%$$#": 397,
      "#$$$$$$%": 398,
      "$#$$$$$$%": 399,
      "$%)": 400,
      "$$$$$$#": 401,
      "!$$$\"": 402,
      "Ġ$$!": 403,
      "ĀĀ#Ā": 404,
      "!#": 405,
      "$#$#$$%": 406,
      "$%$%$$#": 407,
      "'%": 408,
      "ğ$$#": 409,
      "Ġ)": 410,
      "$&%$$$$": 411,
      "#$$$$$%": 412,
      "'$$$&": 413,
      "ĀĀ*": 414,
      "#$$$$$#": 415,
      "$%ğ": 416,
      "$%$$$$$$#": 417,
      "$%#%$$#": 418,
      ")$$%": 419,
      "$#%#$$%": 420,
      "ĀĀ\"Ā": 421,
      "&'": 422,
      "%$$$$$$#": 423,
      "ĀĀ%Ā": 424,
      "$%$#$$%": 425,
      "+$$": 426,
      "$&$$$$%": 427,
      "$\"$$$$#": 428,
      "ĠĞ": 429,
      "$$$$$$%": 430,
      "$$\"$$$#": 431,
      "%$$$$$#": 432,
      "!%": 433,
      "$ĀĀ": 434,
      "$!(": 435,
      "$#ğ": 436,
      "$&)": 437,
      "$\"ğ": 438,
      "ğ$$%": 439,
      "\"$$)": 440,
      ")$$$$": 441,
      "$###$$#": 442,
      "ĀĀ$Ā": 443,
      "$)%": 444,
      "$)&": 445,
      "'#": 446,
      "Ġ$&": 447,
      "$(!": 448,
      "%$$$$##": 449,
      "$)#": 450,
      "$ğ\"": 451,
      "$#)": 452,
      "ĀĀ+": 453,
      "$ğ%": 454,
      "$$&$$$%": 455,
      "ĀĀĜ": 456,
      "\"!": 457,
      "%$$$$$%": 458,
      "$#$$$$$$": 459,
      "'&": 460,
      "%$$$$%%": 461,
      "$ğ#": 462,
      "$#\"$$$$": 463,
      "$$$%$$$$$$$$": 464,
      "ğ$$&": 465,
      "$'$$#": 466,
      "%$$%$": 467,
      "$%$%$$%": 468,
      "#$$$$$": 469,
      "#$$$$&": 470,
      "$((": 471,
      "ĀĀ!Ā": 472,
      "ğ$$$$": 473,
      "Ĝ$$": 474,
      "%$$$$&": 475,
      "$%&$$$$": 476,
      "#$$$&": 477,
      "'$$(": 478,
      "%$$Ğ": 479,
      "\"$$ğ": 480,
      "$!$$%": 481,
      "%$$$$$": 482,
      "$!$$#": 483,
      "($$!": 484,
      "$$$#$$$$$$$$": 485,
      "#$$$$##": 486,
      "&$$ğ": 487,
      "$#$#$$#": 488,
      "$%$$$$$$": 489,
      "$'$$%": 490,
      "ĀĀ&Ā": 491,
      "!\"": 492,
      "!$$(": 493,
      "#$$$$\"": 494,
      "$$%$$$$$$#": 495,
      "$')": 496,
      "#$$$$%%": 497,
      "($$'": 498,
      "$!ğ": 499,
      "$#$$$$$$$$$$$$": 500,
      "%$$$\"": 501,
      "#$$Ğ": 502,
      "$)\"": 503,
      "Ġ*": 504,
      "&$$)": 505,
      "ĀĀ,": 506,
      "%$$$$\"": 507,
      "$ę": 508,
      "$)'": 509,
      "$ğ&": 510,
      "$$#$$$$$$#": 511,
      "Ġ$%": 512,
      "\"$$$!": 513,
      "$%&$$$%": 514,
      "$#\"$$$#": 515,
      "$\")": 516,
      "$$#$$$$$": 517,
      "Ġ$$$\"": 518,
      "$$%$$$$$$$$": 519,
      "$\"#$$$$": 520,
      "$$+": 521,
      "$$ĝ": 522,
      "$$\"%$$#": 523,
      "#$$#$": 524,
      "$%\"$$$#": 525,
      "%$$*": 526,
      "$%%%$$%": 527,
      "$##%$$$$": 528,
      "$%%$$$#": 529,
      ")$$\"": 530,
      "$&ğ": 531,
      ")$$&": 532,
      "&$$$'": 533,
      "Ā+": 534,
      "#$$*": 535,
      "#$$$$#%": 536,
      "(%": 537,
      "Ġ$#": 538,
      "ĀĀ/": 539,
      "%$$$'": 540,
      "Ġ%$$\"": 541,
      "$\"$$&": 542,
      "#$$$!": 543,
      "$$$$$$$$$$$$$$$$$$$$$$$$": 544,
      "$%$$$$$$$$$$$$": 545,
      "$$&#$$%": 546,
      "ĀĀě": 547,
      "\"$$$#": 548,
      "$%*": 549,
      "$&$$\"": 550,
      "ĀĀ.": 551,
      "$/": 552,
      "Ġ$'": 553,
      "$($$$$": 554,
      "Ġ$$(": 555,
      "$$%$$$$$": 556,
      "Ġ%$$#": 557,
      "Ġ$$$#": 558,
      "ĀĀ-": 559,
      "ğ$$\"": 560,
      "$\"$$\"": 561,
      "$ğ!": 562,
      "$$%$$$&": 563,
      "$$#$": 564,
      "%$$$$%#": 565,
      "$#Ğ": 566,
      "$##$$$%": 567,
      "!&": 568,
      "'$$$$%": 569,
      "ĠĀ": 570,
      "Ġ%$$": 571,
      "'$$ğ": 572,
      "$%Ğ": 573,
      "$&$$&": 574,
      "#$$$$%#": 575,
      "!$$$$%": 576,
      "$%$$$%": 577,
      "$$#$$$$$$%": 578,
      "'(": 579,
      "$%%#$$$$": 580,
      "$#$$$#": 581,
      "''": 582,
      "Ġĝ": 583,
      "$ğ'": 584,
      "'$$$'": 585,
      "$#&$$$%": 586,
      "Ġ#$$\"": 587,
      "$$$(": 588,
      "$$#$$$%": 589,
      "$&#$$$#": 590,
      "#$$$$$$": 591,
      "$()": 592,
      "($$$&": 593,
      "$'*": 594,
      "%$$$$#%": 595,
      "!!": 596,
      "$\"$%$$%": 597,
      "\"$$*": 598,
      "!$$$!": 599,
      "$$$\"$$$$": 600,
      "ĀĀĚ": 601,
      "'\"": 602,
      "!$$)": 603,
      "Ġ#$$#": 604,
      "$#*": 605,
      "$#&$$$$": 606,
      "$&*": 607,
      "ĀĀ'Ā": 608,
      "&$$$%": 609,
      "$\"Ğ": 610,
      "$%##$$$$": 611,
      "$\"%$$$%": 612,
      "$)!": 613,
      "$%&#$$%": 614,
      "$$#%$$$$": 615,
      "%$$$$$$": 616,
      "$$%$$$$$$%": 617,
      "$#$$$$&": 618,
      "$%$$$$&": 619,
      "$%%\"$$%": 620,
      "$!)": 621,
      "$\"%$$$$": 622,
      "ĀĀę": 623,
      "ğ$$'": 624,
      "$*%": 625,
      "$$Ĝ": 626,
      "$$#$$$\"": 627,
      "$'ğ": 628,
      "&$$Ğ": 629,
      "$#%%$$$$": 630,
      "$Ğ#": 631,
      "(&": 632,
      "&$$$$\"": 633,
      "'$$$$#": 634,
      "(#": 635,
      "Ġ$\"": 636,
      "Ġ+": 637,
      "ĀĀğĀ": 638,
      "$&$#$$#": 639,
      "$&%$$$%": 640,
      "$%\"$$$$": 641,
      "$\"$%$$$$": 642,
      "$$&%$$%": 643,
      "$$\"#$$#": 644,
      "$###$$$$": 645,
      "$$,": 646,
      "$%%%$$$$": 647,
      "$#\"%$$#": 648,
      "$\"#$$$#": 649,
      "($$(": 650,
      "Ġ%$$!": 651,
      "$*&": 652,
      "!'": 653,
      "$!Ğ": 654,
      "!$$$$#": 655,
      "$%$#$$$$#": 656,
      "*$$#": 657,
      "$#$$!": 658,
      "$$%$$#": 659,
      "$\"%%$$%": 660,
      "$%$": 661,
      "$$\"$$$\"": 662,
      "$&%#$$%": 663,
      "$#$&$$$$": 664,
      "$$%#$$$$": 665,
      "$*#": 666,
      "$Ğ%": 667,
      ")$$!": 668,
      "$#%$$$&": 669,
      "Ġ$$$!": 670,
      "&#$$%": 671,
      "Ġ\"$$": 672,
      "$\"*": 673,
      "$$$#$$$$$$#": 674,
      "&(": 675,
      "$#$%$$$$%": 676,
      "$$%$$$#": 677,
      "$&Ğ": 678,
      "$&$#$$$$": 679,
      "$%$$$$\"": 680,
      "$$$&$$$$": 681,
      "##": 682,
      "Ğ$$#": 683,
      "$%#$$$\"": 684,
      "\"$$#$": 685,
      "Ġ#$$": 686,
      "Ġ&$$\"": 687,
      "$%%#$$#": 688,
      "&$$*": 689,
      "ĀĀ)Ā": 690,
      "ě$$": 691,
      "$%$$'": 692,
      "$%$\"$$$$": 693,
      "\"$$%$": 694,
      "'$$)": 695,
      "Ġ$(": 696,
      "$%#$$%": 697,
      "$#$$'": 698,
      "$)(": 699,
      "$Ę": 700,
      "$#%#$$$$": 701,
      "\"$$+": 702,
      "Ġ$$)": 703,
      "$$$&$$#": 704,
      "Ğ$$%": 705,
      "$$$#$$$$#": 706,
      "#$$+": 707,
      "$#\"#$$#": 708,
      "Ġ$$ğ": 709,
      "*$$$$": 710,
      "$$%%$$#": 711,
      "$$$$$$$$$#": 712,
      "$$$%$$$$$$#": 713,
      "Ġ$!": 714,
      "$&#$$$$": 715,
      "&$$%$": 716,
      "$&##$$#": 717,
      "$#&#$$%": 718,
      "*$$%": 719,
      "$#$$$$\"": 720,
      "('": 721,
      "Ā,": 722,
      "ğ%": 723,
      "Ġ&$$#": 724,
      "%$$ĝ": 725,
      "$##$$$$$": 726,
      "\"%$$#": 727,
      "Ğ$$$$": 728,
      "$###$$%": 729,
      "&)": 730,
      ",$$": 731,
      "Ğ$$&": 732,
      "$$##$$%": 733,
      "$\"#%$$#": 734,
      "$$&$$$&": 735,
      "%$$+": 736,
      "$%$$!": 737,
      "$$$$$$$$$$#": 738,
      "$$$%$$$$%": 739,
      "$#%$$$#": 740,
      "$##&$$#": 741,
      "'$$Ğ": 742,
      "#%$$#": 743,
      "%#": 744,
      "ğ#": 745,
      "$%$#$$$$%": 746,
      "$$$#$$$$%": 747,
      "$%%$$$$$": 748,
      "$%+": 749,
      "$&&$$$$": 750,
      "$$$$$$$$$$$$$": 751,
      "($$ğ": 752,
      "\"'": 753,
      "$#$%$$$$#": 754,
      "\"$$Ğ": 755,
      "&$$$\"": 756,
      "Ġ\"$$\"": 757,
      "!$$ğ": 758,
      "$$%$$$%$": 759,
      "%%": 760,
      "*$$\"": 761,
      "$*'": 762,
      "$%\"%$$#": 763,
      "$%\"#$$#": 764,
      "\"#$$#": 765,
      "ğ$$!": 766,
      "Ġ#$$!": 767,
      "$%%$$$&": 768,
      "$$$%$$$$$$%": 769,
      "Ġ$$$$#": 770,
      "$%$\"$$#": 771,
      "$$#&$$#": 772,
      "$!$$$$%": 773,
      "$%#%$$$$": 774,
      "$%#$$$%": 775,
      "$%#\"$$#": 776,
      ")$$'": 777,
      "'$$*": 778,
      "#$$\"$": 779,
      "$$$#$$$$$$%": 780,
      "\"$$$$\"": 781,
      "$Ğ!": 782,
      "%$$&$": 783,
      "ĀĀ(Ā": 784,
      "$##%$$%": 785,
      "($$$'": 786,
      "$$#$$$#$": 787,
      "%$$\"$": 788,
      "%#$$%": 789,
      "\"$$$$&": 790,
      "#$$&$": 791,
      "ĀĀĞĀ": 792,
      "$$$%$$\"": 793,
      "$%&%$$%": 794,
      "$#%$$#": 795,
      "$\"$%$$#": 796,
      "%%$$%": 797,
      "$%$%$$$$%": 798,
      "$##$$$\"": 799,
      "$$$#$$\"": 800,
      "$#&%$$%": 801,
      "$$$\"$$%": 802,
      "!(": 803,
      "Ġ$$$$%": 804,
      "Ġ$)": 805,
      "$\"$#$$%": 806,
      "$(ğ": 807,
      "!$$$": 808,
      "$Ğ\"": 809,
      ")#": 810,
      "Ě$$": 811,
      "&$$+": 812,
      "!$$*": 813,
      "($$)": 814,
      "$\"%#$$%": 815,
      "ĀĀĝĀ": 816,
      "ğ!": 817,
      "$$$%$$$$#": 818,
      "$%##$$%": 819,
      "$Ğ&": 820,
      "$&#%$$#": 821,
      "*$$&": 822,
      "$$%\"$$%": 823,
      "*ĀĀ": 824,
      "$&$#$$%": 825,
      "$'$$$$#": 826,
      "$#$$$$$": 827,
      "ĠĜ": 828,
      "#$$ĝ": 829,
      "\"$$ĝ": 830,
      "\"ĀĀ": 831,
      "Ğ$$\"": 832,
      "ĠĀĀ": 833,
      "$#$#$$$$#": 834,
      "$'Ğ": 835,
      "$!$$&": 836,
      "$%$$$$$": 837,
      "\"$$$&": 838,
      "&$$#$": 839,
      "$*(": 840,
      "$$$#$$&": 841,
      "$#%&$$%": 842,
      "$*!": 843,
      "&%$$%": 844,
      "$#ĝ": 845,
      "$\"$#$$$$": 846,
      "$\"\"$$$$": 847,
      "#$$$$'": 848,
      "$%%%$$#": 849,
      "Ġ,": 850,
      "$%$&$$#": 851,
      "$\"ĝ": 852,
      "$$$$$$$$$$$%": 853,
      "$&&#$$%": 854,
      "$%%$$%": 855,
      "+ĀĀ": 856,
      "Ġ\"$$#": 857,
      "$%$\"$$%": 858,
      "$$%&$$%": 859,
      "$'$$&": 860,
      "$(*": 861,
      "$))": 862,
      "$ğ(": 863,
      "$ğğ": 864,
      "$*\"": 865,
      "$Ğ'": 866,
      "$$$$$$$$$$%": 867,
      "$$$$$$$$$$$$#": 868,
      "##$$$$": 869,
      "ĝ$$%": 870,
      "$!$$$$#": 871,
      "##$$#": 872,
      "$#+": 873,
      "$#$&$$#": 874,
      "$%$$$$$$$%": 875,
      "&$$ĝ": 876,
      "\"(": 877,
      ")%": 878,
      "ğ$$(": 879,
      "$$$$$$$$$$$$$$$$$$": 880,
      "Ğ%": 881,
      "$##$$#": 882,
      "$$%#$$#": 883,
      "%$$$$$$#$$$$": 884,
      "#$$$": 885,
      "$)$$$$": 886,
      "&$$$(": 887,
      "&ĀĀ": 888,
      ")$$(": 889,
      "$#$&$$%": 890,
      "$$$$$$$$$%": 891,
      "$$$$$$$$$$$#": 892,
      "&$$$$&": 893,
      ")ĀĀ": 894,
      "Ġ!$$": 895,
      "$#$$": 896,
      "$#$#$$$$%": 897,
      "$ğ)": 898,
      "$$$\"$$#": 899,
      "$%ĝ": 900,
      "$&$%$$#": 901,
      "$$&#$$&": 902,
      "$#$$$$$$$#": 903,
      "$#%%$$#": 904,
      "$&%%$$%": 905,
      "$ĝ\"": 906,
      "ğ$$$!": 907,
      ")$$$'": 908,
      "$$%#$$&": 909,
      "%$$$!": 910,
      "$&%$$$#": 911,
      "$#$": 912,
      "$$##$$\"": 913,
      "$%#%$$\"": 914,
      "$ğ$$$$": 915,
      "$\"#$$$%": 916,
      "$$#\"$$#": 917,
      "$$$$$$$$$$$$%": 918,
      "$!*": 919,
      "#$$,": 920,
      "$%$$$$$$$#": 921,
      "$\"\"%$$#": 922,
      "%#$$$$": 923,
      "&%$$$$": 924,
      "'*": 925,
      "((": 926,
      "ĝ$$#": 927,
      "$%$%$$$$#": 928,
      "$$$$$$$$$$$": 929,
      "$$$%$$&": 930,
      "$#%\"$$%": 931,
      "$#%%$$&": 932,
      "$%#&$$#": 933,
      "($$$(": 934,
      "$&ĝ": 935,
      "\"$$$": 936,
      "$%&$$$&": 937,
      "$!$$\"": 938,
      "$#$$$$$$%$$$$": 939,
      "Ġ&$$!": 940,
      "$&$%$$$$": 941,
      "$##%$$\"": 942,
      "\"$$,": 943,
      "$&%#$$$$": 944,
      "Ġ$$$": 945,
      "\"$$$$%%": 946,
      "')": 947,
      "Ġ'$$\"": 948,
      "#$$$'": 949,
      "$#%#$$&": 950,
      "'$$ĝ": 951,
      "Ġ$$Ğ": 952,
      "Ġ\"$$!": 953,
      "$#$&": 954,
      "$#\"$$$\"": 955,
      "$\"+": 956,
      "$%##$$\"": 957,
      "$ĝ#": 958,
      "$\"\"$$$#": 959,
      "$\"$$$$$$#": 960,
      "ĀĀ*Ā": 961,
      "'!": 962,
      "(ĀĀ": 963,
      "$$#\"$$$$": 964,
      "$$$$$$$$$$$$$$$$$$$$": 965,
      "$#%&$$$$": 966,
      "#$$$$$$$$$$$$": 967,
      "-$$": 968,
      "$$#%$$\"": 969,
      "$$%%$$&": 970,
      "$&$$$%": 971,
      "$&#$$$\"": 972,
      "#$$$$$$#$$$$": 973,
      "$%%#$$&": 974,
      "$%#%$$%": 975,
      "$\"#%$$$$": 976,
      "($$Ğ": 977,
      "$&$$$$\"": 978,
      "#$$$#$": 979,
      "&$$$$%%": 980,
      "'ĀĀ": 981,
      "+$$&": 982,
      "$$#%$$%": 983,
      "$$$%$\"": 984,
      "$(+": 985,
      "$(Ğ": 986,
      "%$$Ĝ": 987,
      "$%#\"$$$$": 988,
      "'$$$(": 989,
      "!$$Ğ": 990,
      "Ā\"#": 991,
      "\"$$$$##": 992,
      "$%$$$$$$%$$$$": 993,
      "$\"##$$#": 994,
      "$+'": 995,
      "\")": 996,
      "&!": 997,
      "*#": 998,
      "+$$#": 999,
      "$#$\"$$%": 1000,
      "$'+": 1001,
      "$'$$\"": 1002,
      "&$$,": 1003,
      "$\"$$$$$$%": 1004,
      "\"$$$$#%": 1005,
      "ĝ$$$$": 1006,
      "$$ě": 1007,
      "$%$#$$\"": 1008,
      "$$!$$$$": 1009,
      "$)ğ": 1010,
      "$&\"$$$#": 1011,
      "\"$$$$%#": 1012,
      "Ġ!$$#": 1013,
      "$%$\"": 1014,
      "$!ĝ": 1015,
      "$($$#": 1016,
      "$#$$$$$$$%": 1017,
      "$#\"&$$#": 1018,
      "$\"&%$$%": 1019,
      "$%'$$$%": 1020,
      "Ā%#": 1021,
      "Ġ&$$": 1022,
      "$($$%": 1023,
      "Ĝ#": 1024,
      "Ġ#$$$$": 1025,
      "Ġ'$$#": 1026,
      "$$#$$#": 1027,
      "$$%&$$$$": 1028,
      "%$$$$$$%$$$$": 1029,
      "!$$+": 1030,
      "$&%\"$$%": 1031,
      "$%\"%$$\"": 1032,
      "!*": 1033,
      "$ė": 1034,
      "+$$\"": 1035,
      "$#&$$$&": 1036,
      "$&\"$$$$": 1037,
      "$'$$$$%": 1038,
      "%$$,": 1039,
      "$#$$$$$$&": 1040,
      "Ġ$$+": 1041,
      ")$$ğ": 1042,
      "ĀĀ$Ā#": 1043,
      "Ğ#": 1044,
      "Ġě": 1045,
      "$&+": 1046,
      "$$'$$$$": 1047,
      "$&&$$$%": 1048,
      "$%#$$$$$": 1049,
      "!ĀĀ": 1050,
      "%$$$$$$$$$$$$": 1051,
      "*$$'": 1052,
      "Ğ$$!": 1053,
      "$$-": 1054,
      "$$$)": 1055,
      "$#$%$$&": 1056,
      "$&$": 1057,
      "$&$\"$$#": 1058,
      "#$$$$$$%$$$$": 1059,
      "#$$Ĝ": 1060,
      "$ğĞ": 1061,
      "$+%": 1062,
      "&$$$$%#": 1063,
      "($$$$%": 1064,
      "$%&\"$$%": 1065,
      "$#\"%$$\"": 1066,
      "\"$$&$": 1067,
      "$$$$$$$$$$$$$$$$$$$": 1068,
      "#%$$$$": 1069,
      "+$$$$": 1070,
      "Ğ$$'": 1071,
      "$%$&$$$$": 1072,
      "$%$$$$$$\"": 1073,
      "\"$$Ĝ": 1074,
      "$*ğ": 1075,
      "$%&#$$&": 1076,
      "$+\"": 1077,
      "$&\"%$$#": 1078,
      "ğ$$Ğ": 1079,
      "$#!%$$#": 1080,
      "ĀĀ%Ā#": 1081,
      ")\"": 1082,
      "Ā-": 1083,
      "$$$ğ": 1084,
      "$&$%$$%": 1085,
      "$\"$$$#": 1086,
      "$\"%$$#": 1087,
      "$%$$$$$$&": 1088,
      "$)*": 1089,
      "$Ğ(": 1090,
      "$&#\"$$#": 1091,
      "$+!": 1092,
      "$+&": 1093,
      "$\"$$$$\"": 1094,
      "&$$$$##": 1095,
      "ğ\"": 1096,
      "$$#$$%": 1097,
      "$$\"%$$\"": 1098,
      "%$$ě": 1099,
      "$#$$$$$$#$$$$": 1100,
      "$%$$$$$$#$$$$": 1101,
      "$*)": 1102,
      "Ġ$$*": 1103,
      "$$$&$$%": 1104,
      "$ĝ!": 1105,
      "&$$\"$": 1106,
      "#$$'$": 1107,
      "$\"&$$$%": 1108,
      "ĀĀ%Ā\"": 1109,
      "$#%$$$$$": 1110,
      ",ĀĀ": 1111,
      "ĝ%": 1112,
      "Ġ-": 1113,
      "$%\"$$$\"": 1114,
      "$\"%$$$&": 1115,
      "$#$$$$$$\"": 1116,
      "$##\"$$#": 1117,
      "#$$$$%&": 1118,
      "$+#": 1119,
      "$\"$$$$&": 1120,
      ")$$$(": 1121,
      "!)": 1122,
      ")'": 1123,
      "ĝ$$&": 1124,
      "$$&%$$&": 1125,
      "%$$$(": 1126,
      "$%%&$$%": 1127,
      "$&%#$$#": 1128,
      "$%\"#$$\"": 1129,
      "$\"%%$$&": 1130,
      "$ĝ%": 1131,
      "ğ$$)": 1132,
      "ĀĀěĀ": 1133,
      "&*": 1134,
      "($$$$#": 1135,
      "+$$%": 1136,
      "Ġ\"$$$$": 1137,
      "$%%&$$$$": 1138,
      "$#%$$$%$": 1139,
      "ĀĀ\"Ā#": 1140,
      "ĀĀ&Ā!": 1141,
      "$##$$$#$": 1142,
      "$&#$$%": 1143,
      "$$\"$$%": 1144,
      "$%%\"$$$$": 1145,
      "'$$+": 1146,
      "$Ğğ": 1147,
      "$\"#&$$#": 1148,
      "$#&%$$&": 1149,
      "$\"\"#$$#": 1150,
      "ğ$$ğ": 1151,
      "ĀĀ\"Ā\"": 1152,
      "$##\"$$$$": 1153,
      "$##&$$$$": 1154,
      "($$ĝ": 1155,
      "$ĝ&": 1156,
      "!$$#$": 1157,
      "Ā%%": 1158,
      "ĀĀ\"Ā!": 1159,
      "$\"$&$$$$": 1160,
      "$$\"#$$\"": 1161,
      "$$$$$$$$#$$$$": 1162,
      "$'ĝ": 1163,
      "($$+": 1164,
      "%$$$$#\"": 1165,
      "ĀĀ#Ā!": 1166,
      "ĀĀĜĀ": 1167,
      "*$$!": 1168,
      "$$$$$$\"": 1169,
      "$#$\"": 1170,
      "#$$-": 1171,
      "$%%%$$&": 1172,
      "&$$Ĝ": 1173,
      "()": 1174,
      "ĝ#": 1175,
      "Ġ'$$": 1176,
      "Ġ!$$\"": 1177,
      "$#$\"$$$$": 1178,
      "$\"$#$$#": 1179,
      "$###$$\"": 1180,
      "($$*": 1181,
      "$&$$$$$$%": 1182,
      "ĀĀ#Ā#": 1183,
      "$%#$$$#$": 1184,
      "!ğ": 1185,
      "$%'$$$$": 1186,
      "$$#&$$$$": 1187,
      "$$%$$%": 1188,
      "$$\"#$$$$": 1189,
      "$+)": 1190,
      "ĀĀ%Ā!": 1191,
      "ĀĀ#Ā\"": 1192,
      "ğĞ": 1193,
      "$$&\"$$%": 1194,
      "$$'$$$%": 1195,
      "$&%%$$$$": 1196,
      "$\"#%$$%": 1197,
      "$%\"&$$#": 1198,
      "$#!$$$#": 1199,
      "!$$$#": 1200,
      "!%$$#": 1201,
      "ĝ$$\"": 1202,
      "$$$$$$$$%$$$$": 1203,
      "$'%$$$$": 1204,
      "$#%#$$#": 1205,
      "$ğ*": 1206,
      "$%&#$$$$": 1207,
      "$\"##$$$$": 1208,
      "$#&&$$%": 1209,
      "&$$&$": 1210,
      "Ā%&": 1211,
      "ĀĀ$Ā'": 1212,
      "\"*": 1213,
      "%%$$$$": 1214,
      "&$$$$#%": 1215,
      "(!": 1216,
      ")&": 1217,
      "+$$'": 1218,
      "ğğ": 1219,
      "Ġ%$$$$": 1220,
      "$%,": 1221,
      "$%$#$$&": 1222,
      "$\"$&$$#": 1223,
      "#$$ě": 1224,
      "$##'$$#": 1225,
      "$#\"%$$$$": 1226,
      "$\"%%$$$$": 1227,
      "$%$$$$#$": 1228,
      "ĀĀ$Ā!": 1229,
      "\"#$$$$": 1230,
      "$#,": 1231,
      "$#$\"$$#": 1232,
      "$#$#$$&": 1233,
      "$#$%$$\"": 1234,
      "$\"&$$$&": 1235,
      "$$\"&$$#": 1236,
      "$$!%$$#": 1237,
      "$$!$$$\"": 1238,
      "$#%&$$#": 1239,
      "$%#\"$$%": 1240,
      "$#&#$$&": 1241,
      "$\"\"&$$#": 1242,
      "'$$%$": 1243,
      "$&\"#$$#": 1244,
      "Ġ'$$!": 1245,
      "ĀĀ+Ā": 1246,
      "ĀĀ/Ā": 1247,
      "%ĀĀ": 1248,
      "'#$$%": 1249,
      "Ġ$*": 1250,
      "$%$$": 1251,
      "$%$$$$$$$$$$$$$$$$": 1252,
      "$$%\"$$$$": 1253,
      "$&$$'": 1254,
      "$$&%$$$$": 1255,
      "$'$#$$#": 1256,
      "$!+": 1257,
      "$!$%$$%": 1258,
      "#$$$$#&": 1259,
      ")$$)": 1260,
      "Ā%!": 1261,
      "$'##$$#": 1262,
      "ĀĀ$Ā&": 1263,
      "$\"!%$$#": 1264,
      ",$$#": 1265,
      "Ğğ": 1266,
      "$%$&$$%": 1267,
      "$#Ĝ": 1268,
      "$#!$$$$": 1269,
      "$$'#$$%": 1270,
      "%$$-": 1271,
      "$%%$$$%$": 1272,
      "$&%\"$$$$": 1273,
      "$\"%\"$$%": 1274,
      "%$$$$%%$$$$": 1275,
      "$&&%$$%": 1276,
      "'$$$$&": 1277,
      "ğ$$*": 1278,
      ")$$*": 1279,
      ")$$Ğ": 1280,
      "ĀĀ%Ā&": 1281,
      "ĀĀ%Āğ": 1282,
      "(*": 1283,
      "Ĝ$$%": 1284,
      "$$\"\"$$#": 1285,
      "$$&$": 1286,
      "$!\"$$$$": 1287,
      "$%%\"$$&": 1288,
      "#$$$$%%$$$$": 1289,
      "Ā%\"": 1290,
      "Ā'%": 1291,
      "\"+": 1292,
      "#%": 1293,
      "',": 1294,
      "$%Ĝ": 1295,
      "$&$$!": 1296,
      "Ġ$$ĝ": 1297,
      "$%\"\"$$#": 1298,
      "$&$$$$$$#": 1299,
      "!$$%$": 1300,
      "$$%$$$$$$$$$$$$": 1301,
      "$&\"$$$\"": 1302,
      "$\"$&$$%": 1303,
      "$$!$$$#": 1304,
      "$$!#$$#": 1305,
      "%$$.": 1306,
      "$%%#$$$$#": 1307,
      "$**": 1308,
      "$\"%$$$#": 1309,
      "%$$$$##$$$$": 1310,
      "$&$$$$&": 1311,
      "$#$$$$%$": 1312,
      "$%$$$$$$$$$$$": 1313,
      "\"%$$$$": 1314,
      "$#$#": 1315,
      "$&$\"": 1316,
      "$&$\"$$%": 1317,
      "$\"#$$#": 1318,
      "$$'$$$&": 1319,
      "$%%!$$%": 1320,
      "$ğĝ": 1321,
      "$&%%$$#": 1322,
      "Ġ$$,": 1323,
      "$&##$$$$": 1324,
      "%$$$$%&": 1325,
      "$&&#$$&": 1326,
      "$$$,": 1327,
      "$\"&#$$%": 1328,
      "$'%#$$%": 1329,
      "Ā%'": 1330,
      "ĀĀ$ĀĞ": 1331,
      "ĀĀ!Ā\"": 1332,
      "ĀĀ!Ā!": 1333,
      "$$$'$$$$": 1334,
      "\"ğ": 1335,
      "(+": 1336,
      "Ġ!$$$$": 1337,
      "$%$%$$&": 1338,
      "$%$%$$\"": 1339,
      "$$#$$$&": 1340,
      "$\",": 1341,
      "$)+": 1342,
      "!$$ĝ": 1343,
      "$&#%$$\"": 1344,
      "$&##$$\"": 1345,
      "$\"%&$$%": 1346,
      "ĀĀ!Ā#": 1347,
      "ĀĀ,Ā": 1348,
      "!Ğ": 1349,
      "\"\"$$$$": 1350,
      "\"&$$#": 1351,
      "Ġ.": 1352,
      "Ġ$%#": 1353,
      "$&,": 1354,
      "$\"#$$$\"": 1355,
      "ĀĀĘ": 1356,
      "$!$$'": 1357,
      "$(ĝ": 1358,
      "$($$\"": 1359,
      "($$$)": 1360,
      "$%'#$$%": 1361,
      "ĀĀ#Ā&": 1362,
      "$&'$$$%": 1363,
      "$#$$$$$$$$$$$%": 1364,
      "#$$$$$$$$$$$": 1365,
      "ĀĀ.Ā": 1366,
      "ĀĀĚĀ": 1367,
      "\"Ğ": 1368,
      "&,": 1369,
      "+%": 1370,
      "$$$$$$&": 1371,
      "$&$\"$$$$": 1372,
      "$$'%$$%": 1373,
      "#$$.": 1374,
      "'$$$\"": 1375,
      "$$%$$$$$$#$$$$": 1376,
      "$%&\"$$&": 1377,
      "Ġ$$Ĝ": 1378,
      "$'#$$$#": 1379,
      "ĀĀ$Ā\"": 1380,
      "ĀĀ$Āğ": 1381,
      "'$$$%": 1382,
      "$%$$(": 1383,
      "$$#$$$$$$$$$$$$": 1384,
      "$$%#$$$$#": 1385,
      "$&$$": 1386,
      "ĀĀė": 1387,
      "$'$%$$#": 1388,
      "$###$$$$#": 1389,
      "$#\"#$$$$": 1390,
      "$&##$$%": 1391,
      "$+(": 1392,
      "$&&\"$$%": 1393,
      "$$$$$$$$$$$$$$$$$$$$$$$$$$$$$$$$": 1394,
      "$#'$$$%": 1395,
      "\"$$'$": 1396,
      "ĀĀ&Ā#": 1397,
      "&&$$$$": 1398,
      ")(": 1399,
      "Ğ$$(": 1400,
      "Ġ$ğ": 1401,
      "$\"&$$$$": 1402,
      "$$\"%$$$$": 1403,
      "$!Ĝ": 1404,
      "$#$$$$$$$%$$$$": 1405,
      "\"$$-": 1406,
      "&$$-": 1407,
      "$$$$$$$$$$$$$$$": 1408,
      "$#\"\"$$#": 1409,
      "$\"##$$%": 1410,
      "$&#$$$%": 1411,
      "$&&#$$$$": 1412,
      "$%!#$$#": 1413,
      "ĀĀ$Ā(": 1414,
      "$Ĝ%": 1415,
      "$\"!$$$#": 1416,
      "\"#%$$#": 1417,
      "$#$$$$$$$$$$$": 1418,
      "ĀĀęĀ": 1419,
      "'+": 1420,
      "*%": 1421,
      "ğ*": 1422,
      "Ġ/": 1423,
      "ĠĀ#": 1424,
      "$#$#$$\"": 1425,
      "$##$$$&": 1426,
      "$&%$$%": 1427,
      "$$&$$#": 1428,
      "$'$": 1429,
      "$'Ĝ": 1430,
      "#$$$ğ": 1431,
      "$#$$$$$$$#$$$$": 1432,
      "$##\"$$%": 1433,
      "$#%\"$$$$": 1434,
      "'$$Ĝ": 1435,
      "$$#$$$$$$#$$$$": 1436,
      "$Ğ)": 1437,
      "$ĞĞ": 1438,
      "$&%#$$&": 1439,
      "($$,": 1440,
      "$&\"%$$\"": 1441,
      "$%!$$$#": 1442,
      "&+": 1443,
      "&&$$%": 1444,
      "'%$$%": 1445,
      "Ġ#$$ğ": 1446,
      "$\"\"$$$\"": 1447,
      "$'$$!": 1448,
      "$!#$$$$": 1449,
      "$%$$$$$$$#$$$$": 1450,
      "&$$ě": 1451,
      "'$$ě": 1452,
      "#$$!$": 1453,
      "%$$'$": 1454,
      "$!%$$$%": 1455,
      "&%#$$$$": 1456,
      "Ġ!$$!": 1457,
      "Ĝ%": 1458,
      "ĝ$$'": 1459,
      "Ğ!": 1460,
      "$%$!$$$$": 1461,
      "$$%%$$$$%": 1462,
      "$$&&$$%": 1463,
      "%$$$$$$$#": 1464,
      "$$$$%&": 1465,
      "$(,": 1466,
      "$%%$$$$$$$$$$$$": 1467,
      "!$$-": 1468,
      "$\"%#$$&": 1469,
      "$\"\"%$$$$": 1470,
      "$\"&%$$&": 1471,
      "$#!#$$#": 1472,
      "(\"": 1473,
      ".$$": 1474,
      "ě#": 1475,
      "ĝ$$!": 1476,
      "Ġ$%%": 1477,
      "Ġ$,": 1478,
      "$#$%$$$$$$$$": 1479,
      "$#$'$$$$": 1480,
      "$#!$$$\"": 1481,
      "#$$$$$$\"": 1482,
      "$'$#$$$$": 1483,
      "$Ğ*": 1484,
      "$!#$$$%": 1485,
      "$!#%$$#": 1486,
      "$!#%$$%": 1487,
      "$%'%$$%": 1488,
      "ĀĀ\"Āğ": 1489,
      "ĀĀ'Ā!": 1490,
      "ĀĀ-Ā": 1491,
      "%$$$#": 1492,
      "Ĝ!": 1493,
      "ğ(": 1494,
      "$#$'$$#": 1495,
      "$$%&$$#": 1496,
      "$&%$$$&": 1497,
      "$\"Ĝ": 1498,
      "$'#$$$$": 1499,
      "$($$$$#": 1500,
      "$)Ğ": 1501,
      "&$$$$'": 1502,
      "!$$,": 1503,
      "$%&%$$&": 1504,
      "$%\"#$$$$": 1505,
      "$ĝğ": 1506,
      "ğ$$+": 1507,
      "$Ĝ!": 1508,
      "$Ĝ#": 1509,
      "ĀĀ#Āğ": 1510,
      "$&'#$$%": 1511,
      "ĀĀ&Āğ": 1512,
      "Ĝ$$$$": 1513,
      "Ĝ$$#": 1514,
      "ĠĚ": 1515,
      "$$$!$$$$": 1516,
      "$#%$$": 1517,
      "$$%$$$\"": 1518,
      "$&Ĝ": 1519,
      "$&$#$$\"": 1520,
      "$$\"$": 1521,
      "$',": 1522,
      "$'&$$$$": 1523,
      "$#%'$$%": 1524,
      "$ĝ'": 1525,
      "$ĝ(": 1526,
      "\"$$\"$": 1527,
      "'$$#$": 1528,
      "$\"&#$$&": 1529,
      "$%$$$$%%": 1530,
      "ğ$$$ğ": 1531,
      "$#!%$$\"": 1532,
      "ĀĀ\"Ā&": 1533,
      "$!!$$$#": 1534,
      ")*": 1535,
      ")+": 1536,
      "$\"ě": 1537,
      "ĀĀĖ": 1538,
      "$$$#$$$$$$$$$$$$": 1539,
      "$%$$$$$$$%$$$$": 1540,
      "$##&$$%": 1541,
      "$##%$$&": 1542,
      "$%%\"$$#": 1543,
      "$%##$$$$#": 1544,
      "&$$$)": 1545,
      "\"$$$$$$#": 1546,
      "$%&&$$%": 1547,
      "$#\"#$$\"": 1548,
      "$&#&$$#": 1549,
      "$\"%%$$#": 1550,
      "$\"&&$$%": 1551,
      "Ā%(": 1552,
      "$,\"": 1553,
      "Ġ$$$$&": 1554,
      "ĀĀ\"Ā'": 1555,
      "&%$$$%": 1556,
      "&-": 1557,
      ",*": 1558,
      ",,": 1559,
      "ğĝ": 1560,
      "$#'$$$&": 1561,
      "$$%&$$&": 1562,
      "$&'$$$$": 1563,
      "%$$$$'": 1564,
      "$!$$": 1565,
      "$##%$$$$#": 1566,
      "$+ğ": 1567,
      "%$$$$%\"": 1568,
      "$$$Ĝ": 1569,
      "$%$$$$##": 1570,
      "$'%$$$%": 1571,
      "$!#$$$#": 1572,
      "$!%%$$%": 1573,
      "$Ĝ&": 1574,
      "Ā'#": 1575,
      "%$$$$$$$$$$$": 1576,
      "!ĝ": 1577,
      "#*": 1578,
      "%*": 1579,
      "%$$$%$": 1580,
      "Ĝ\"": 1581,
      "Ĝğ": 1582,
      "ğ'": 1583,
      "Ġ%$$%": 1584,
      "$%$#": 1585,
      "$%\"$$": 1586,
      "$##$$%": 1587,
      "$$%\"$$&": 1588,
      "$&&$$$&": 1589,
      "$$\"&$$\"": 1590,
      "$'#$$$\"": 1591,
      "$$!%$$\"": 1592,
      "$%$$$$'": 1593,
      "&$$$$$$%": 1594,
      "'$$$)": 1595,
      "$\"#&$$$$": 1596,
      "$\"#%$$\"": 1597,
      "$%\"&$$\"": 1598,
      "$%\"!$$#": 1599,
      "$ĝĞ": 1600,
      "$#$$#$": 1601,
      "$'%#$$#": 1602,
      "$&\"\"$$#": 1603,
      "ğ$$Ĝ": 1604,
      "$Ĝ\"": 1605,
      "ĀĀ\"ĀĞ": 1606,
      "%$$$$$$$$$$$%": 1607,
      "Ġ#$$%": 1608,
      "$$#\"$$%": 1609,
      "$$#&$$\"": 1610,
      "$&$#$$$$%": 1611,
      "$\"!$$$$": 1612,
      "$\"$%$$&": 1613,
      "$$&#$$$$": 1614,
      "$)$$#": 1615,
      "&$$$!": 1616,
      "!$$$ğ": 1617,
      "$%&$$$#": 1618,
      "$#&#$$'": 1619,
      "$ĝ)": 1620,
      "'$$$$\"": 1621,
      "$&$$$$$$\"": 1622,
      "$%$$$$%$": 1623,
      "$%'#$$&": 1624,
      "$#'%$$%": 1625,
      "$'&$$$%": 1626,
      "ĀĀ!Āğ": 1627,
      "$$$#$$%$": 1628,
      "\"%%$$%": 1629,
      "$$$!$$%": 1630,
      "#$$$%": 1631,
      "$Ė": 1632,
      "Ġ$$$%": 1633,
      "$%'$$$&": 1634,
      "$$\"$$$!": 1635,
      "#$$$$!": 1636,
      "$##$$$$$$$$$$$$": 1637,
      "$##&$$\"": 1638,
      "$#%&$$&": 1639,
      "!$$Ĝ": 1640,
      "$$$-": 1641,
      "$'%$$$#": 1642,
      "$#$$$$#$": 1643,
      "$%!#$$\"": 1644,
      "$,(": 1645,
      "ĀĀ\"Ā(": 1646,
      "ĀĀ#ĀĞ": 1647,
      "$#'&$$%": 1648,
      "#$$($": 1649,
      "$#$$$$$$$$$$$#": 1650,
      "$#$$$$$$$$$$$$$": 1651,
      "$%%$$": 1652,
      "$$%!$$%": 1653,
      "#$$$$$$$%": 1654,
      "%$$$$$$$%": 1655,
      "$!%$$$&": 1656,
      "\"$$$$!": 1657,
      "$$%$$$$$$%$$$$": 1658,
      "$*+": 1659,
      "#$$$$%\"": 1660,
      "#$$$$%$%$$$$": 1661,
      "Ā%ğ": 1662,
      "$,%": 1663,
      "ĀĀ#Ā(": 1664,
      "$#'#$$%": 1665,
      "$!\"%$$#": 1666,
      "ĀĀ&Ā\"": 1667,
      "$$$'$$#": 1668,
      "$$$'$$%": 1669,
      "#$$$$$$$$$$$%": 1670,
      "!#$$#": 1671,
      "&ĝ": 1672,
      ",%": 1673,
      "ě%": 1674,
      "Ĝ$$\"": 1675,
      "Ġ$%\"": 1676,
      "Ġ$'%": 1677,
      "$%$\"$$&": 1678,
      "$$%%$$$$#": 1679,
      "$$\"$$$%": 1680,
      "$!$%$$&": 1681,
      "$%#&$$$$": 1682,
      "$%#\"$$\"": 1683,
      "$)ĝ": 1684,
      "\"$$.": 1685,
      "$ğĜ": 1686,
      "$\"%'$$%": 1687,
      "%$$!$": 1688,
      "$%!%$$#": 1689,
      "Ġ$$#$": 1690,
      "$$$%$$#$": 1691,
      "$$$$#%$$$%": 1692,
      "$$$$#%%$$%": 1693,
      "\"%$$$%": 1694,
      "ĀĀğĀ#": 1695,
      "Ġ($$\"": 1696,
      "%$$$$$#$$$#": 1697,
      "$ĕ": 1698,
      "'-": 1699,
      "ěĝ": 1700,
      "Ğ$$ğ": 1701,
      "Ğ$$)": 1702,
      "ğ&": 1703,
      "Ġ$&#": 1704,
      "Ġ$+": 1705,
      "ĠĀ!": 1706,
      "$$Ě": 1707,
      "$%$%": 1708,
      "$%%$$#": 1709,
      "$&$#$$$$#": 1710,
      "$$\"$$#": 1711,
      "$$&%$$#": 1712,
      "$$$%$$$$%%": 1713,
      "$!$%$$$$": 1714,
      "$$!$": 1715,
      "$$!#$$\"": 1716,
      "$$'%$$&": 1717,
      "$$'$$$'": 1718,
      "$$$$%$": 1719,
      "$#%\"$$&": 1720,
      "&$$Ě": 1721,
      "'$$,": 1722,
      "$Ğĝ": 1723,
      "$%&%$$$$": 1724,
      "$\"##$$\"": 1725,
      "$#&\"$$%": 1726,
      "$&&$$$#": 1727,
      "$\"\"%$$\"": 1728,
      "$$#$$$#$$#": 1729,
      "$!#&$$#": 1730,
      "$%'\"$$%": 1731,
      "Ā&\"": 1732,
      "ĀĀ&ĀĞ": 1733,
      "$'\"$$$#": 1734,
      "$!&%$$%": 1735,
      "*\"": 1736,
      "+#": 1737,
      "ě$$$$": 1738,
      "Ĝ$$&": 1739,
      "$$$Ğ": 1740,
      "$#&$$#": 1741,
      "$&$&$$#": 1742,
      "$\"$$!": 1743,
      "$\"$$'": 1744,
      "$\"$#$$&": 1745,
      "$$\"#$$%": 1746,
      "#$$$$$$$#": 1747,
      "$%#&$$\"": 1748,
      "$*$$$$": 1749,
      "$%&%$$#": 1750,
      "$#&$$$#": 1751,
      "$#$$%$": 1752,
      "$\"$$$$$$&": 1753,
      "$'%\"$$%": 1754,
      "$#'#$$&": 1755,
      "ĀĀ'Ā\"": 1756,
      "ĀĀ'Ā#": 1757,
      "&##$$#": 1758,
      "+(": 1759,
      "+)": 1760,
      "-ĀĀ": 1761,
      ".,": 1762,
      "Ğ\"": 1763,
      "$%#$$": 1764,
      "$#-": 1765,
      "$#\"$$": 1766,
      "$#%$$$'": 1767,
      "$$#$$$!": 1768,
      "$$&$$$#": 1769,
      "$$&\"$$&": 1770,
      "%$$$$!": 1771,
      "$!$%$$#": 1772,
      "$$!\"$$#": 1773,
      "$%$$$$!": 1774,
      "$#%#$$$$#": 1775,
      "$#%'$$$$": 1776,
      "$#%!$$%": 1777,
      "$),": 1778,
      "$*Ğ": 1779,
      "Ġ$$-": 1780,
      "$#&&$$&": 1781,
      "!$$$$\"": 1782,
      "!$$$$&": 1783,
      "ĀĀ%Ā'": 1784,
      "ĀĀ!Ā'": 1785,
      "Ā)%": 1786,
      "#$$$$$%$$$%": 1787,
      "%$$$$$%$$$%": 1788,
      "&#$$&": 1789,
      ",$$$$": 1790,
      "ě$$%": 1791,
      "ĠĀ\"": 1792,
      "$%#$$$&": 1793,
      "$%$&$$\"": 1794,
      "$#$$$$$$$$$$$$$$$$": 1795,
      "$#$&$$&": 1796,
      "$\"$": 1797,
      "$\"$$": 1798,
      "$\"$\"$$%": 1799,
      "%$$$$&%": 1800,
      "ĀĀĔ": 1801,
      "$!,": 1802,
      "$$'#$$&": 1803,
      "$%%&$$#": 1804,
      "$)$$%": 1805,
      "$ğ$$#": 1806,
      "($$ě": 1807,
      "$ĝĝ": 1808,
      "%$$$$%$#$$$$": 1809,
      "$&&%$$&": 1810,
      "$\"&\"$$%": 1811,
      "ğ$$ĝ": 1812,
      ")$$Ĝ": 1813,
      "Ā%)": 1814,
      "ĀĀ#Ā'": 1815,
      "$!\"$$$#": 1816,
      "$'&#$$%": 1817,
      "\"#%$$$$": 1818,
      "&#%$$#": 1819,
      "*$$$(": 1820,
      "#$$$$$#$$$#": 1821,
      ")!": 1822,
      "))": 1823,
      "+*": 1824,
      "-,": 1825,
      "ěğ": 1826,
      "ĝ$$(": 1827,
      "Ġ&$$$$": 1828,
      "Ġ\"$$%": 1829,
      "$%$&": 1830,
      "$%#$$$!": 1831,
      "$#$'$$%": 1832,
      "$$##$$$$#": 1833,
      "$$#\"$$\"": 1834,
      "$$%$$$'": 1835,
      "$\"$\"$$$$": 1836,
      "$$\"\"$$$$": 1837,
      "#$$$$$$&": 1838,
      "#$$$$$%$$$$": 1839,
      "$$$$%%$$$$": 1840,
      "%$$$": 1841,
      "$%%%$$\"": 1842,
      "$#%%$$$$#": 1843,
      "$%##$$&": 1844,
      "$%##$$$$%": 1845,
      "$%#!$$#": 1846,
      "$ğ+": 1847,
      "&$$$": 1848,
      "&$$.": 1849,
      "$$#$$$$$$%$$$$": 1850,
      "$&%%$$&": 1851,
      "$\"#\"$$#": 1852,
      "$\"%#$$$$": 1853,
      "$$$&$": 1854,
      "$%$$%$": 1855,
      "$$%$$$%$$$$$$$$": 1856,
      ")$$+": 1857,
      "$%!%$$\"": 1858,
      "$'#%$$#": 1859,
      "$,!": 1860,
      "$,'": 1861,
      "$,*": 1862,
      "$Ĝ'": 1863,
      "Ā&'": 1864,
      "$'&\"$$%": 1865,
      "$%$$$$$$$$$$$#": 1866,
      "$%$$$$$$$$$$$$$$$$$$$$": 1867,
      "%$$$$$$$$$$$#": 1868,
      "$$$$$$$$$$$$$$$$$$$$$$$$$": 1869,
      "%$$$$$$$$$$$$$$$$": 1870,
      "*'": 1871,
      "-+": 1872,
      "ĜĞ": 1873,
      "Ğ&": 1874,
      "Ġ$&&": 1875,
      "Ġ'$$$$": 1876,
      "$%$'": 1877,
      "$%$!$$%": 1878,
      "$#ě": 1879,
      "$#$!$$$$": 1880,
      "$&$#$$&": 1881,
      "$\"$%$$\"": 1882,
      "$\"'$$$&": 1883,
      "#$$$$$$$%$$$$": 1884,
      "$'$\"$$#": 1885,
      "$$!&$$#": 1886,
      "$$!#$$!": 1887,
      "$$'$": 1888,
      "$$$$%\"": 1889,
      "$$$$#\"": 1890,
      "$#$$$$$$%%$$$$": 1891,
      "$###$$$$%": 1892,
      "$%%#$$$$%": 1893,
      "$%#'$$#": 1894,
      "\"$$$ğ": 1895,
      "$ğ$$%": 1896,
      "$Ğ$$$$": 1897,
      "$\"#&$$%": 1898,
      "$&#%$$$$": 1899,
      "$&#\"$$$$": 1900,
      "$&#\"$$%": 1901,
      "$&#\"$$\"": 1902,
      "($$Ĝ": 1903,
      "$#&%$$$$": 1904,
      "$\"\"\"$$#": 1905,
      "$$$ě": 1906,
      "$'%#$$$$": 1907,
      "Ā%*": 1908,
      "$%!&$$#": 1909,
      "$,#": 1910,
      "$$)$": 1911,
      "$$$%$$%$": 1912,
      "$'\"#$$#": 1913,
      "$!&$$$%": 1914,
      "$''#$$%": 1915,
      "ĀĀğĀ\"": 1916,
      "$$\"$$$$$": 1917,
      "*$$ĝ": 1918,
      "!$$$$#%": 1919,
      "'ğ": 1920,
      "'$$$$%%": 1921,
      "*(": 1922,
      ",$$&": 1923,
      "ę$$": 1924,
      "Ġ$##": 1925,
      "Ġ$%&": 1926,
      "Ġ$&%": 1927,
      "Ġ\"$$ğ": 1928,
      "$%ě": 1929,
      "$%\"$$%": 1930,
      "$%!$$$\"": 1931,
      "$%%$$$\"": 1932,
      "$%'$$$'": 1933,
      "$#'$$$$": 1934,
      "$#$\"$$&": 1935,
      "$$#&$$%": 1936,
      "$$#%$$$$%": 1937,
      "$$%#$$$$%": 1938,
      "$\"-": 1939,
      "$\"$\"$$#": 1940,
      "%$$$$$$$#$$$$": 1941,
      "$$$#$$$$%%": 1942,
      "$'\"$$$\"": 1943,
      "$!$$!": 1944,
      "$$$$##$$$$": 1945,
      "$%$$$$$$%%$$$$": 1946,
      "'$$-": 1947,
      "$#\"$$$%": 1948,
      "$#\"#$$%": 1949,
      "Ġ$$$ğ": 1950,
      "($$-": 1951,
      "$\"%&$$$$": 1952,
      "$#&\"$$&": 1953,
      "#$$$$%$": 1954,
      "$&\"#$$\"": 1955,
      "$!#%$$$$": 1956,
      "ğ$$,": 1957,
      "$,&": 1958,
      "ĀĀ%ĀĞ": 1959,
      "ĀĀ\"Ā)": 1960,
      "$\"!%$$\"": 1961,
      "$$$#$$#%$$#": 1962,
      "$&!#$$#": 1963,
      "$ě%": 1964,
      "ĀĀ'Āğ": 1965,
      "$$&$$$$$": 1966,
      "$$##$$#$": 1967,
      "\"$": 1968,
      "&#$$$$": 1969,
      "'$$$$##": 1970,
      "+$$!": 1971,
      "Ĝĝ": 1972,
      "Ĝ$$'": 1973,
      "Ġ%$$ğ": 1974,
      "$%-": 1975,
      "$%!$$$$": 1976,
      "$%%$$$'": 1977,
      "$#$'": 1978,
      "$#$$(": 1979,
      "$#$!$$%": 1980,
      "$$#%$$$$#": 1981,
      "$&$%$$\"": 1982,
      "$&!$$$\"": 1983,
      "$&%$$$\"": 1984,
      "%$$$$$$$%$$$$": 1985,
      "$$$#$$$$%#": 1986,
      "$$$%$$$$$$$$$$$$": 1987,
      "$!$#$$%": 1988,
      "$!!$$$$": 1989,
      "$##'$$$$": 1990,
      "$%%%$$$$#": 1991,
      "\"$$ě": 1992,
      "&$$$$$": 1993,
      "&$$$$$$#": 1994,
      "$$$$$$$$$$$$$$$#": 1995,
      "$#\"&$$\"": 1996,
      "$#\"'$$#": 1997,
      "$&&&$$%": 1998,
      "$&$$$$$$&": 1999,
      "$$$.": 2000,
      "$&\"&$$\"": 2001,
      ")$$ĝ": 2002,
      "$#!&$$\"": 2003,
      "$!%#$$%": 2004,
      "ĀĀ%Ā(": 2005,
      "&%#$$%": 2006,
      "ĀĀ!Ā&": 2007,
      "'$$&$": 2008,
      "$-%": 2009,
      "ĀĀğĀ!": 2010,
      "Ğ$$ĝ": 2011,
      "$#%%$$%$": 2012,
      "'$$$$#%": 2013,
      "'$$$$%#": 2014,
      "+,": 2015,
      "-#": 2016,
      "Ğ$$Ğ": 2017,
      "Ġ$'#": 2018,
      "Ġ($$#": 2019,
      "$%$!$$#": 2020,
      "$%$\"$$\"": 2021,
      "$$%%$$\"": 2022,
      "$$%\"$$#": 2023,
      "$&\"$$$!": 2024,
      "$\"$&": 2025,
      "$\"$%$$$$#": 2026,
      "$$\"\"$$\"": 2027,
      "$!#$$$\"": 2028,
      "$#%%$$\"": 2029,
      "$#%$$$%$$#": 2030,
      "$%##$$!": 2031,
      "\"$$$'": 2032,
      "\"$$$$$$%": 2033,
      "$#\"%$$%": 2034,
      "$&%!$$%": 2035,
      "$%\"\"$$\"": 2036,
      "$&#%$$%": 2037,
      "#$$$$#\"": 2038,
      "$ĝ*": 2039,
      "$$%$$$%$$%": 2040,
      ")$$$)": 2041,
      "$'#\"$$#": 2042,
      "$&'%$$%": 2043,
      "Ġ%$$$%": 2044,
      "$$$#$$#$": 2045,
      "&&$$$%": 2046,
      "&&#$$%": 2047
    },
    "merges": [
      "$ $",
      "$$ $$",
      "$ %",
      "$ #",
      "$$ #",
      "$$ %",
      "$ &",
      "$ \"",
      "$$ \"",
      "$$ &",
      "$$$$ $$$$",
      "# $$$$",
      "% $$$$",
      "Ā Ā",
      "$$ $#",
      "$$ $%",
      "$ '",
      "$ !",
      "$$ !",
      "$$ '",
      "$$$$ %",
      "$$$$ #",
      "$ (",
      "% $$#",
      "# $$%",
      "% $$",
      "# $$#",
      "% $$%",
      "# $$",
      "$# $$$$",
      "$% $$$$",
      "$# #",
      "$% %",
      "$# %",
      "$% #",
      "$ )",
      "\" $$",
      "$ ğ",
      "& $$",
      "\" $$$$",
      "& $$$$",
      "\" $$%",
      "' $$",
      "& $$#",
      "! $$",
      "$$# $$$$",
      "% $$\"",
      "# $$&",
      "$$% $$$$",
      "$ *",
      "\" $$#",
      "& $$%",
      "$ Ğ",
      "$$$$$$$$ $$$$",
      "% $$&",
      "# $$\"",
      "$% &",
      "$# \"",
      "$& %",
      "Ġ $$",
      "$\" #",
      "$% \"",
      "$& #",
      "( $$",
      "$\" %",
      "$# &",
      "$$ $&",
      "$$ $\"",
      "#$$$$ #",
      "%$$$$ #",
      "#$$$$ %",
      "$ ĝ",
      "$ +",
      "\" $$&",
      "%$$$$ %",
      "$$ (",
      "$% $$#",
      "$& &",
      "& $$\"",
      "$% $$%",
      "$\" \"",
      "$# $$%",
      "$# $$#",
      "! $$$$",
      "$\" $$$$",
      "' $$$$",
      "$$$% $$$$",
      "$$$# $$$$",
      "$& $$$$",
      "\" $$\"",
      "$$$$$$$$ $$$$$$$$",
      "! $$%",
      "& $$&",
      "' $$#",
      "$$ $",
      "% $$!",
      "$% $$$$#",
      "$# $$$$%",
      "# $$'",
      "! $$#",
      "' $$%",
      "$% %$$$$",
      "$\" &",
      "$% $$$$%",
      "$# #$$$$",
      "$' %",
      "# $$!",
      "$# $$$$#",
      "$$# $$$#",
      "$& \"",
      "$! #",
      "$$% $$$%",
      "% $$'",
      "$% '",
      "ğ $$",
      ") $$",
      "$# !",
      "Ā %",
      "Ā \"",
      "Ā #",
      "$% !",
      "$' #",
      "$! %",
      "ĀĀ $",
      "$ ,",
      "ĀĀ %",
      "Ġ $$$$",
      "$ Ĝ",
      "ĀĀ \"",
      "ĀĀ #",
      "$% #$$$$",
      "$# '",
      "$# %$$$$",
      "Ā !",
      "\" $$'",
      "& %",
      "Ġ \"",
      "$\" !",
      "' $$\"",
      "# $$$#",
      "! $$&",
      "$$ ğ",
      "Ā &",
      "Ġ $$#",
      "& $$!",
      "$! \"",
      "$& '",
      "Ā '",
      "Ġ #",
      "$$ )",
      "$$$% $$%",
      "Ġ %",
      "$' &",
      "ĀĀ !",
      "Ġ $$%",
      "( $$#",
      "ĀĀ &",
      "$' \"",
      "! $$\"",
      "$$$$% %",
      "$$$% $",
      "#$$ $\"",
      "$$$% $$#",
      "%$$ $&",
      "' $$&",
      "\" #",
      "& $$'",
      "Ā ğ",
      "$$$# $$#",
      "$$$# $$%",
      "( $$$$",
      "( $$%",
      "$\" '",
      "$$$$# %",
      "\" %",
      "$! &",
      "Ā (",
      "$& !",
      "$ ě",
      "$$$$# #",
      "$\" $$%",
      "$& $$#",
      "Ġ !",
      "$%# $$$#",
      "ĀĀ '",
      "Ġ &",
      "\" $$!",
      "$$ $'",
      "$ -",
      "#$$ (",
      "& #",
      "$$ Ğ",
      "$\" $$#",
      "$& $$%",
      "$' '",
      "$## $$$#",
      "%$$ (",
      "$% (",
      "$! $$$$",
      "$$$$% #",
      "Ā Ğ",
      "$# $$$$$$$$",
      "$( %",
      "$! !",
      "$% $$$$$$$$",
      "Ġ $$&",
      "Ġ '",
      "ĀĀ ğ",
      "Ġ $$\"",
      "$$ *",
      "$$ $!",
      "$#% $$$%",
      "& &",
      "\"$$ $\"",
      "Ā )",
      "$%% $$$%",
      "&$$ $&",
      "$# (",
      "! $$'",
      "$& (",
      "$% $#$$$$",
      "$( &",
      "$# $%$$$$",
      "$' $$$$",
      "$$\" $$$$",
      "\" \"",
      "\"$$ (",
      "$( #",
      "Ġ (",
      "$$# %$$#",
      "$$$# $",
      "$' !",
      "$$% %$$$$",
      "$! '",
      "ĀĀ (",
      "$$% #$$%",
      "Ğ $$",
      "$#$$$$ $$#",
      "ĀĀ Ğ",
      "$$& $$$$",
      "$$% %$$%",
      "' $$!",
      "' $$'",
      "# $$$$$$$$",
      "$% $%$$$$",
      "ĀĀ )",
      "$%% #$$%",
      "Ā ĝ",
      "#$$ ğ",
      "\" &",
      "ĀĀ ĝ",
      "( $$\"",
      "* $$",
      "$% $$&",
      "$( \"",
      "% $$$%",
      "Ġ $",
      "Ġ ğ",
      "%$$ ğ",
      "$# $$\"",
      "$$# #$$$$",
      "\" $$$$%",
      "Ġ $$'",
      "$# $#$$$$",
      "$$$$$$$$ %",
      "#$$ )",
      "&$$ (",
      "$( '",
      "Ā *",
      "$# $%$$%",
      "$\" (",
      "%$$# $",
      "! $$!",
      "$$# #$$#",
      "$$% $",
      "%$$ )",
      "$& $$$$#",
      "$' (",
      "\" $$$$#",
      "$$$$$$$$ #",
      "% $$$$$$$$",
      "( $$&",
      "$\" $$$$%",
      "$%# #$$#",
      "& $$$$#",
      "$## %$$#",
      "& $$$$%",
      "#$$% $",
      "$%$$$$ $$%",
      "#$$$$ $$#",
      "$% $#$$#",
      "$# $$&",
      "$ .",
      "$ Ě",
      "%$$$$ $$%",
      "& \"",
      "ĝ $$",
      "$% $$\"",
      "$#% %$$%",
      ") $$#",
      "$# $%$$#",
      "#$$$$ $$%",
      "$#$$$$ $$%",
      "$% )",
      "$$$$ $$#",
      "!$$ $\"",
      "Ġ $$!",
      "ĀĀ# Ā",
      "! #",
      "$# $#$$%",
      "$% $%$$#",
      "' %",
      "ğ $$#",
      "Ġ )",
      "$& %$$$$",
      "#$$$$ $%",
      "'$$ $&",
      "ĀĀ *",
      "#$$$$ $#",
      "$% ğ",
      "$%$$$$ $$#",
      "$%# %$$#",
      ") $$%",
      "$#% #$$%",
      "ĀĀ\" Ā",
      "& '",
      "%$$$$ $$#",
      "ĀĀ% Ā",
      "$% $#$$%",
      "+ $$",
      "$& $$$$%",
      "$\" $$$$#",
      "Ġ Ğ",
      "$$$$ $$%",
      "$$\" $$$#",
      "%$$$$ $#",
      "! %",
      "$ ĀĀ",
      "$! (",
      "$# ğ",
      "$& )",
      "$\" ğ",
      "ğ $$%",
      "\"$$ )",
      ") $$$$",
      "$## #$$#",
      "ĀĀ$ Ā",
      "$) %",
      "$) &",
      "' #",
      "Ġ $&",
      "$( !",
      "%$$$$# #",
      "$) #",
      "$ğ \"",
      "$# )",
      "ĀĀ +",
      "$ğ %",
      "$$& $$$%",
      "ĀĀ Ĝ",
      "\" !",
      "%$$$$ $%",
      "$#$$$$ $$",
      "' &",
      "%$$$$% %",
      "$ğ #",
      "$# \"$$$$",
      "$$$% $$$$$$$$",
      "ğ $$&",
      "$' $$#",
      "%$$% $",
      "$% $%$$%",
      "#$$$$ $",
      "#$$$$ &",
      "$( (",
      "ĀĀ! Ā",
      "ğ $$$$",
      "Ĝ $$",
      "%$$$$ &",
      "$% &$$$$",
      "#$$ $&",
      "'$$ (",
      "%$$ Ğ",
      "\"$$ ğ",
      "$! $$%",
      "%$$$$ $",
      "$! $$#",
      "( $$!",
      "$$$# $$$$$$$$",
      "#$$$$# #",
      "&$$ ğ",
      "$# $#$$#",
      "$%$$$$ $$",
      "$' $$%",
      "ĀĀ& Ā",
      "! \"",
      "!$$ (",
      "#$$$$ \"",
      "$$%$$$$ $$#",
      "$' )",
      "#$$$$% %",
      "( $$'",
      "$! ğ",
      "$# $$$$$$$$$$$$",
      "%$$ $\"",
      "#$$ Ğ",
      "$) \"",
      "Ġ *",
      "&$$ )",
      "ĀĀ ,",
      "%$$$$ \"",
      "$ ę",
      "$) '",
      "$ğ &",
      "$$#$$$$ $$#",
      "Ġ $%",
      "\"$$ $!",
      "$%& $$$%",
      "$#\" $$$#",
      "$\" )",
      "$$#$$$$ $",
      "Ġ$$ $\"",
      "$$% $$$$$$$$",
      "$\" #$$$$",
      "$$ +",
      "$$ ĝ",
      "$$\" %$$#",
      "#$$# $",
      "$%\" $$$#",
      "%$$ *",
      "$%% %$$%",
      "$## %$$$$",
      "$%% $$$#",
      ") $$\"",
      "$& ğ",
      ") $$&",
      "&$$ $'",
      "Ā +",
      "#$$ *",
      "#$$$$# %",
      "( %",
      "Ġ $#",
      "ĀĀ /",
      "%$$ $'",
      "Ġ %$$\"",
      "$\" $$&",
      "#$$ $!",
      "$$$$$$$$$$$$$$$$ $$$$$$$$",
      "$% $$$$$$$$$$$$",
      "$$& #$$%",
      "ĀĀ ě",
      "\" $$$#",
      "$% *",
      "$& $$\"",
      "ĀĀ .",
      "$ /",
      "Ġ $'",
      "$( $$$$",
      "Ġ$$ (",
      "$$%$$$$ $",
      "Ġ %$$#",
      "Ġ $$$#",
      "ĀĀ -",
      "ğ $$\"",
      "$\" $$\"",
      "$ğ !",
      "$$% $$$&",
      "$$# $",
      "%$$$$% #",
      "$# Ğ",
      "$## $$$%",
      "! &",
      "' $$$$%",
      "Ġ Ā",
      "Ġ %$$",
      "'$$ ğ",
      "$% Ğ",
      "$& $$&",
      "#$$$$% #",
      "! $$$$%",
      "$% $$$%",
      "$$#$$$$ $$%",
      "' (",
      "$%% #$$$$",
      "$# $$$#",
      "' '",
      "Ġ ĝ",
      "$ğ '",
      "'$$ $'",
      "$#& $$$%",
      "Ġ #$$\"",
      "$$ $(",
      "$$# $$$%",
      "$&# $$$#",
      "#$$$$ $$",
      "$( )",
      "($$ $&",
      "$' *",
      "%$$$$# %",
      "! !",
      "$\" $%$$%",
      "\"$$ *",
      "!$$ $!",
      "$$$\" $$$$",
      "ĀĀ Ě",
      "' \"",
      "!$$ )",
      "Ġ #$$#",
      "$# *",
      "$# &$$$$",
      "$& *",
      "ĀĀ' Ā",
      "& $$$%",
      "$\" Ğ",
      "$%# #$$$$",
      "$\"% $$$%",
      "$) !",
      "$%& #$$%",
      "$$# %$$$$",
      "%$$$$ $$",
      "$$%$$$$ $$%",
      "$#$$$$ &",
      "$%$$$$ &",
      "$%% \"$$%",
      "$! )",
      "$\" %$$$$",
      "ĀĀ ę",
      "ğ $$'",
      "$* %",
      "$$ Ĝ",
      "$$# $$$\"",
      "$' ğ",
      "&$$ Ğ",
      "$#% %$$$$",
      "$Ğ #",
      "( &",
      "&$$$$ \"",
      "' $$$$#",
      "( #",
      "Ġ $\"",
      "Ġ +",
      "ĀĀğ Ā",
      "$& $#$$#",
      "$&% $$$%",
      "$% \"$$$$",
      "$\" $%$$$$",
      "$$& %$$%",
      "$$\" #$$#",
      "$## #$$$$",
      "$$ ,",
      "$%% %$$$$",
      "$#\" %$$#",
      "$\"# $$$#",
      "($$ (",
      "Ġ %$$!",
      "$* &",
      "! '",
      "$! Ğ",
      "! $$$$#",
      "$% $#$$$$#",
      "* $$#",
      "$# $$!",
      "$$% $$#",
      "$\"% %$$%",
      "$% $",
      "$$\" $$$\"",
      "$&% #$$%",
      "$# $&$$$$",
      "$$% #$$$$",
      "$* #",
      "$Ğ %",
      ") $$!",
      "$# %$$$&",
      "Ġ$$ $!",
      "& #$$%",
      "Ġ \"$$",
      "$\" *",
      "$$$#$$$$ $$#",
      "& (",
      "$# $%$$$$%",
      "$$% $$$#",
      "$& Ğ",
      "$& $#$$$$",
      "$%$$$$ \"",
      "$$$& $$$$",
      "# #",
      "Ğ $$#",
      "$% #$$$\"",
      "\"$$# $",
      "Ġ #$$",
      "Ġ &$$\"",
      "$%% #$$#",
      "&$$ *",
      "ĀĀ) Ā",
      "ě $$",
      "$% $$'",
      "$% $\"$$$$",
      "\"$$% $",
      "'$$ )",
      "Ġ $(",
      "$% #$$%",
      "$# $$'",
      "$) (",
      "$ Ę",
      "$#% #$$$$",
      "\"$$ +",
      "Ġ$$ )",
      "$$$& $$#",
      "Ğ $$%",
      "$$$# $$$$#",
      "#$$ +",
      "$#\" #$$#",
      "Ġ$$ ğ",
      "* $$$$",
      "$$% %$$#",
      "$$$$$$$$ $#",
      "$$$%$$$$ $$#",
      "Ġ $!",
      "$& #$$$$",
      "&$$% $",
      "$&# #$$#",
      "$#& #$$%",
      "* $$%",
      "$#$$$$ \"",
      "( '",
      "Ā ,",
      "ğ %",
      "Ġ &$$#",
      "%$$ ĝ",
      "$##$$$$ $",
      "\" %$$#",
      "Ğ $$$$",
      "$## #$$%",
      "& )",
      ", $$",
      "Ğ $$&",
      "$$# #$$%",
      "$\"# %$$#",
      "$$& $$$&",
      "%$$ +",
      "$% $$!",
      "$$$$$$$$ $$#",
      "$$$% $$$$%",
      "$#% $$$#",
      "$## &$$#",
      "'$$ Ğ",
      "# %$$#",
      "% #",
      "ğ #",
      "$% $#$$$$%",
      "$$$# $$$$%",
      "$%%$$$$ $",
      "$% +",
      "$& &$$$$",
      "$$$$$$$$$$$$ $",
      "($$ ğ",
      "\" '",
      "$# $%$$$$#",
      "\"$$ Ğ",
      "&$$ $\"",
      "Ġ \"$$\"",
      "!$$ ğ",
      "$$%$$$% $",
      "% %",
      "* $$\"",
      "$* '",
      "$%\" %$$#",
      "$%\" #$$#",
      "\" #$$#",
      "ğ $$!",
      "Ġ #$$!",
      "$% %$$$&",
      "$$$%$$$$ $$%",
      "Ġ $$$$#",
      "$% $\"$$#",
      "$$# &$$#",
      "$! $$$$%",
      "$%# %$$$$",
      "$%# $$$%",
      "$%# \"$$#",
      ") $$'",
      "'$$ *",
      "#$$\" $",
      "$$$#$$$$ $$%",
      "\"$$$$ \"",
      "$Ğ !",
      "%$$& $",
      "ĀĀ( Ā",
      "$## %$$%",
      "($$ $'",
      "$$#$$$# $",
      "%$$\" $",
      "% #$$%",
      "\"$$$$ &",
      "#$$& $",
      "ĀĀĞ Ā",
      "$$$% $$\"",
      "$%& %$$%",
      "$# %$$#",
      "$\" $%$$#",
      "% %$$%",
      "$% $%$$$$%",
      "$# #$$$\"",
      "$$$# $$\"",
      "$#& %$$%",
      "$$$\" $$%",
      "! (",
      "Ġ $$$$%",
      "Ġ $)",
      "$\" $#$$%",
      "$( ğ",
      "!$$ $",
      "$Ğ \"",
      ") #",
      "Ě $$",
      "&$$ +",
      "!$$ *",
      "($$ )",
      "$\"% #$$%",
      "ĀĀĝ Ā",
      "ğ !",
      "$$$% $$$$#",
      "$%# #$$%",
      "$Ğ &",
      "$&# %$$#",
      "* $$&",
      "$$% \"$$%",
      "* ĀĀ",
      "$& $#$$%",
      "$' $$$$#",
      "$#$$$$ $",
      "Ġ Ĝ",
      "#$$ ĝ",
      "\"$$ ĝ",
      "\" ĀĀ",
      "Ğ $$\"",
      "Ġ ĀĀ",
      "$# $#$$$$#",
      "$' Ğ",
      "$! $$&",
      "$%$$$$ $",
      "\"$$ $&",
      "&$$# $",
      "$* (",
      "$$$# $$&",
      "$#% &$$%",
      "$* !",
      "& %$$%",
      "$# ĝ",
      "$\" $#$$$$",
      "$\" \"$$$$",
      "#$$$$ '",
      "$%% %$$#",
      "Ġ ,",
      "$% $&$$#",
      "$\" ĝ",
      "$$$$$$$$ $$$%",
      "$&& #$$%",
      "$% %$$%",
      "+ ĀĀ",
      "Ġ \"$$#",
      "$% $\"$$%",
      "$$% &$$%",
      "$' $$&",
      "$( *",
      "$) )",
      "$ğ (",
      "$ğ ğ",
      "$* \"",
      "$Ğ '",
      "$$$$$$$$ $$%",
      "$$$$$$$$ $$$$#",
      "# #$$$$",
      "ĝ $$%",
      "$! $$$$#",
      "# #$$#",
      "$# +",
      "$# $&$$#",
      "$%$$$$ $$$%",
      "&$$ ĝ",
      "\" (",
      ") %",
      "ğ $$(",
      "$$$$$$$$$$$$$$$$ $$",
      "Ğ %",
      "$# #$$#",
      "$$% #$$#",
      "%$$$$ $$#$$$$",
      "#$$ $",
      "$) $$$$",
      "&$$ $(",
      "& ĀĀ",
      ") $$(",
      "$# $&$$%",
      "$$$$$$$$ $%",
      "$$$$$$$$ $$$#",
      "&$$$$ &",
      ") ĀĀ",
      "Ġ !$$",
      "$# $$",
      "$# $#$$$$%",
      "$ğ )",
      "$$$\" $$#",
      "$% ĝ",
      "$& $%$$#",
      "$$& #$$&",
      "$#$$$$ $$$#",
      "$#% %$$#",
      "$&% %$$%",
      "$ĝ \"",
      "ğ$$ $!",
      ")$$ $'",
      "$$% #$$&",
      "%$$ $!",
      "$&% $$$#",
      "$# $",
      "$$# #$$\"",
      "$%# %$$\"",
      "$ğ $$$$",
      "$\"# $$$%",
      "$$# \"$$#",
      "$$$$$$$$ $$$$%",
      "$! *",
      "#$$ ,",
      "$%$$$$ $$$#",
      "$\"\" %$$#",
      "% #$$$$",
      "& %$$$$",
      "' *",
      "( (",
      "ĝ $$#",
      "$% $%$$$$#",
      "$$$$$$$$ $$$",
      "$$$% $$&",
      "$#% \"$$%",
      "$#% %$$&",
      "$%# &$$#",
      "($$ $(",
      "$& ĝ",
      "\"$$ $",
      "$% &$$$&",
      "$! $$\"",
      "$#$$$$ $$%$$$$",
      "Ġ &$$!",
      "$& $%$$$$",
      "$## %$$\"",
      "\"$$ ,",
      "$&% #$$$$",
      "Ġ$$ $",
      "\" $$$$%%",
      "' )",
      "Ġ '$$\"",
      "#$$ $'",
      "$#% #$$&",
      "'$$ ĝ",
      "Ġ$$ Ğ",
      "Ġ\" $$!",
      "$# $&",
      "$# \"$$$\"",
      "$\" +",
      "$%# #$$\"",
      "$ĝ #",
      "$\"\" $$$#",
      "$\"$$$$ $$#",
      "ĀĀ* Ā",
      "' !",
      "( ĀĀ",
      "$$# \"$$$$",
      "$$$$$$$$ $$$$$$$$$$$$",
      "$#% &$$$$",
      "# $$$$$$$$$$$$",
      "- $$",
      "$$# %$$\"",
      "$$% %$$&",
      "$& $$$%",
      "$& #$$$\"",
      "#$$$$ $$#$$$$",
      "$%% #$$&",
      "$%# %$$%",
      "$\"# %$$$$",
      "($$ Ğ",
      "$&$$$$ \"",
      "#$$$# $",
      "& $$$$%%",
      "' ĀĀ",
      "+ $$&",
      "$$# %$$%",
      "$$$% $\"",
      "$( +",
      "$( Ğ",
      "%$$ Ĝ",
      "$%# \"$$$$",
      "'$$ $(",
      "!$$ Ğ",
      "Ā\" #",
      "\" $$$$##",
      "$%$$$$ $$%$$$$",
      "$\"# #$$#",
      "$+ '",
      "\" )",
      "& !",
      "* #",
      "+ $$#",
      "$# $\"$$%",
      "$' +",
      "$' $$\"",
      "&$$ ,",
      "$\"$$$$ $$%",
      "\" $$$$#%",
      "ĝ $$$$",
      "$$ ě",
      "$% $#$$\"",
      "$$! $$$$",
      "$) ğ",
      "$&\" $$$#",
      "\" $$$$%#",
      "Ġ !$$#",
      "$% $\"",
      "$! ĝ",
      "$( $$#",
      "$#$$$$ $$$%",
      "$#\" &$$#",
      "$\"& %$$%",
      "$%' $$$%",
      "Ā% #",
      "Ġ &$$",
      "$( $$%",
      "Ĝ #",
      "Ġ #$$$$",
      "Ġ '$$#",
      "$$# $$#",
      "$$% &$$$$",
      "%$$$$ $$%$$$$",
      "!$$ +",
      "$&% \"$$%",
      "$%\" %$$\"",
      "! *",
      "$ ė",
      "+ $$\"",
      "$# &$$$&",
      "$& \"$$$$",
      "$' $$$$%",
      "%$$ ,",
      "$#$$$$ $$&",
      "Ġ$$ +",
      ")$$ ğ",
      "ĀĀ$ Ā#",
      "Ğ #",
      "Ġ ě",
      "$& +",
      "$$' $$$$",
      "$&& $$$%",
      "$%#$$$$ $",
      "! ĀĀ",
      "% $$$$$$$$$$$$",
      "* $$'",
      "Ğ $$!",
      "$$ -",
      "$$ $)",
      "$# $%$$&",
      "$& $",
      "$& $\"$$#",
      "#$$$$ $$%$$$$",
      "#$$ Ĝ",
      "$ğ Ğ",
      "$+ %",
      "& $$$$%#",
      "( $$$$%",
      "$%& \"$$%",
      "$#\" %$$\"",
      "\"$$& $",
      "$$$$$$$$$$$$$$$$ $$$",
      "# %$$$$",
      "+ $$$$",
      "Ğ $$'",
      "$% $&$$$$",
      "$%$$$$ $$\"",
      "\"$$ Ĝ",
      "$* ğ",
      "$%& #$$&",
      "$+ \"",
      "$&\" %$$#",
      "ğ$$ Ğ",
      "$#! %$$#",
      "ĀĀ% Ā#",
      ") \"",
      "Ā -",
      "$$ $ğ",
      "$& $%$$%",
      "$\" $$$#",
      "$\" %$$#",
      "$%$$$$ $$&",
      "$) *",
      "$Ğ (",
      "$&# \"$$#",
      "$+ !",
      "$+ &",
      "$\"$$$$ \"",
      "& $$$$##",
      "ğ \"",
      "$$# $$%",
      "$$\" %$$\"",
      "%$$ ě",
      "$#$$$$ $$#$$$$",
      "$%$$$$ $$#$$$$",
      "$* )",
      "Ġ$$ *",
      "$$$& $$%",
      "$ĝ !",
      "&$$\" $",
      "#$$' $",
      "$\"& $$$%",
      "ĀĀ% Ā\"",
      "$#%$$$$ $",
      ", ĀĀ",
      "ĝ %",
      "Ġ -",
      "$% \"$$$\"",
      "$\" %$$$&",
      "$#$$$$ $$\"",
      "$## \"$$#",
      "#$$$$% &",
      "$+ #",
      "$\"$$$$ &",
      ")$$ $(",
      "! )",
      ") '",
      "ĝ $$&",
      "$$& %$$&",
      "%$$ $(",
      "$%% &$$%",
      "$&% #$$#",
      "$%\" #$$\"",
      "$\"% %$$&",
      "$ĝ %",
      "ğ$$ )",
      "ĀĀě Ā",
      "& *",
      "( $$$$#",
      "+ $$%",
      "Ġ \"$$$$",
      "$%% &$$$$",
      "$#% $$$%$",
      "ĀĀ\" Ā#",
      "ĀĀ& Ā!",
      "$##$$$# $",
      "$& #$$%",
      "$$\" $$%",
      "$%% \"$$$$",
      "'$$ +",
      "$Ğ ğ",
      "$\"# &$$#",
      "$#& %$$&",
      "$\"\" #$$#",
      "ğ$$ ğ",
      "ĀĀ\" Ā\"",
      "$## \"$$$$",
      "$## &$$$$",
      "($$ ĝ",
      "$ĝ &",
      "!$$# $",
      "Ā% %",
      "ĀĀ\" Ā!",
      "$\" $&$$$$",
      "$$\" #$$\"",
      "$$$$$$$$ #$$$$",
      "$' ĝ",
      "($$ +",
      "%$$$$# \"",
      "ĀĀ# Ā!",
      "ĀĀĜ Ā",
      "* $$!",
      "$$$$ $$\"",
      "$# $\"",
      "#$$ -",
      "$%% %$$&",
      "&$$ Ĝ",
      "( )",
      "ĝ #",
      "Ġ '$$",
      "Ġ !$$\"",
      "$# $\"$$$$",
      "$\" $#$$#",
      "$## #$$\"",
      "($$ *",
      "$&$$$$ $$%",
      "ĀĀ# Ā#",
      "$%#$$$# $",
      "! ğ",
      "$% '$$$$",
      "$$# &$$$$",
      "$$% $$%",
      "$$\" #$$$$",
      "$+ )",
      "ĀĀ% Ā!",
      "ĀĀ# Ā\"",
      "ğ Ğ",
      "$$& \"$$%",
      "$$' $$$%",
      "$&% %$$$$",
      "$\"# %$$%",
      "$%\" &$$#",
      "$#! $$$#",
      "! $$$#",
      "! %$$#",
      "ĝ $$\"",
      "$$$$$$$$ %$$$$",
      "$' %$$$$",
      "$#% #$$#",
      "$ğ *",
      "$%& #$$$$",
      "$\"# #$$$$",
      "$#& &$$%",
      "&$$& $",
      "Ā% &",
      "ĀĀ$ Ā'",
      "\" *",
      "% %$$$$",
      "& $$$$#%",
      "( !",
      ") &",
      "+ $$'",
      "ğ ğ",
      "Ġ %$$$$",
      "$% ,",
      "$% $#$$&",
      "$\" $&$$#",
      "#$$ ě",
      "$## '$$#",
      "$#\" %$$$$",
      "$\"% %$$$$",
      "$%$$$$# $",
      "ĀĀ$ Ā!",
      "\" #$$$$",
      "$# ,",
      "$# $\"$$#",
      "$# $#$$&",
      "$# $%$$\"",
      "$\" &$$$&",
      "$$\" &$$#",
      "$$! %$$#",
      "$$! $$$\"",
      "$#% &$$#",
      "$%# \"$$%",
      "$#& #$$&",
      "$\"\" &$$#",
      "'$$% $",
      "$&\" #$$#",
      "Ġ' $$!",
      "ĀĀ+ Ā",
      "ĀĀ/ Ā",
      "% ĀĀ",
      "' #$$%",
      "Ġ $*",
      "$% $$",
      "$% $$$$$$$$$$$$$$$$",
      "$$% \"$$$$",
      "$& $$'",
      "$$& %$$$$",
      "$' $#$$#",
      "$! +",
      "$! $%$$%",
      "#$$$$# &",
      ")$$ )",
      "Ā% !",
      "$'# #$$#",
      "ĀĀ$ Ā&",
      "$\"! %$$#",
      ", $$#",
      "Ğ ğ",
      "$% $&$$%",
      "$# Ĝ",
      "$# !$$$$",
      "$$' #$$%",
      "%$$ -",
      "$%% $$$%$",
      "$&% \"$$$$",
      "$\"% \"$$%",
      "%$$$$% %$$$$",
      "$&& %$$%",
      "'$$$$ &",
      "ğ$$ *",
      ")$$ *",
      ")$$ Ğ",
      "ĀĀ% Ā&",
      "ĀĀ% Āğ",
      "( *",
      "Ĝ $$%",
      "$$\" \"$$#",
      "$$& $",
      "$! \"$$$$",
      "$%% \"$$&",
      "#$$$$% %$$$$",
      "Ā% \"",
      "Ā' %",
      "\" +",
      "# %",
      "' ,",
      "$% Ĝ",
      "$& $$!",
      "Ġ$$ ĝ",
      "$%\" \"$$#",
      "$&$$$$ $$#",
      "!$$% $",
      "$$% $$$$$$$$$$$$",
      "$& \"$$$\"",
      "$\" $&$$%",
      "$$! $$$#",
      "$$! #$$#",
      "%$$ .",
      "$%% #$$$$#",
      "$* *",
      "$\"% $$$#",
      "%$$$$# #$$$$",
      "$&$$$$ &",
      "$#$$$$% $",
      "$%$$$$$$$$ $$$",
      "\" %$$$$",
      "$# $#",
      "$& $\"",
      "$& $\"$$%",
      "$\" #$$#",
      "$$' $$$&",
      "$%% !$$%",
      "$ğ ĝ",
      "$&% %$$#",
      "Ġ$$ ,",
      "$&# #$$$$",
      "%$$$$% &",
      "$&& #$$&",
      "$$$ ,",
      "$\"& #$$%",
      "$'% #$$%",
      "Ā% '",
      "ĀĀ$ ĀĞ",
      "ĀĀ! Ā\"",
      "ĀĀ! Ā!",
      "$$$' $$$$",
      "\" ğ",
      "( +",
      "Ġ !$$$$",
      "$% $%$$&",
      "$% $%$$\"",
      "$$# $$$&",
      "$\" ,",
      "$) +",
      "!$$ ĝ",
      "$&# %$$\"",
      "$&# #$$\"",
      "$\"% &$$%",
      "ĀĀ! Ā#",
      "ĀĀ, Ā",
      "! Ğ",
      "\" \"$$$$",
      "\" &$$#",
      "Ġ .",
      "Ġ $%#",
      "$& ,",
      "$\" #$$$\"",
      "ĀĀ Ę",
      "$! $$'",
      "$( ĝ",
      "$( $$\"",
      "($$ $)",
      "$%' #$$%",
      "ĀĀ# Ā&",
      "$&' $$$%",
      "$#$$$$$$$$ $$$%",
      "#$$$$$$$$ $$$",
      "ĀĀ. Ā",
      "ĀĀĚ Ā",
      "\" Ğ",
      "& ,",
      "+ %",
      "$$$$ $$&",
      "$& $\"$$$$",
      "$$' %$$%",
      "#$$ .",
      "'$$ $\"",
      "$$%$$$$ $$#$$$$",
      "$%& \"$$&",
      "Ġ$$ Ĝ",
      "$'# $$$#",
      "ĀĀ$ Ā\"",
      "ĀĀ$ Āğ",
      "' $$$%",
      "$% $$(",
      "$$# $$$$$$$$$$$$",
      "$$% #$$$$#",
      "$& $$",
      "ĀĀ ė",
      "$' $%$$#",
      "$## #$$$$#",
      "$#\" #$$$$",
      "$&# #$$%",
      "$+ (",
      "$&& \"$$%",
      "$$$$$$$$$$$$$$$$ $$$$$$$$$$$$$$$$",
      "$#' $$$%",
      "\"$$' $",
      "ĀĀ& Ā#",
      "& &$$$$",
      ") (",
      "Ğ $$(",
      "Ġ $ğ",
      "$\" &$$$$",
      "$$\" %$$$$",
      "$! Ĝ",
      "$#$$$$ $$$%$$$$",
      "\"$$ -",
      "&$$ -",
      "$$$$$$$$$$$$ $$$",
      "$#\" \"$$#",
      "$\"# #$$%",
      "$&# $$$%",
      "$&& #$$$$",
      "$%! #$$#",
      "ĀĀ$ Ā(",
      "$Ĝ %",
      "$\"! $$$#",
      "\"# %$$#",
      "$#$$$$$$$$ $$$",
      "ĀĀę Ā",
      "' +",
      "* %",
      "ğ *",
      "Ġ /",
      "Ġ Ā#",
      "$# $#$$\"",
      "$# #$$$&",
      "$& %$$%",
      "$$& $$#",
      "$' $",
      "$' Ĝ",
      "#$$ $ğ",
      "$#$$$$ $$$#$$$$",
      "$## \"$$%",
      "$#% \"$$$$",
      "'$$ Ĝ",
      "$$#$$$$ $$#$$$$",
      "$Ğ )",
      "$Ğ Ğ",
      "$&% #$$&",
      "($$ ,",
      "$&\" %$$\"",
      "$%! $$$#",
      "& +",
      "& &$$%",
      "' %$$%",
      "Ġ #$$ğ",
      "$\" \"$$$\"",
      "$' $$!",
      "$! #$$$$",
      "$%$$$$ $$$#$$$$",
      "&$$ ě",
      "'$$ ě",
      "#$$! $",
      "%$$' $",
      "$!% $$$%",
      "&% #$$$$",
      "Ġ! $$!",
      "Ĝ %",
      "ĝ $$'",
      "Ğ !",
      "$% $!$$$$",
      "$$% %$$$$%",
      "$$& &$$%",
      "%$$$$ $$$#",
      "$$$$% &",
      "$( ,",
      "$%% $$$$$$$$$$$$",
      "!$$ -",
      "$\"% #$$&",
      "$\"\" %$$$$",
      "$\"& %$$&",
      "$#! #$$#",
      "( \"",
      ". $$",
      "ě #",
      "ĝ $$!",
      "Ġ $%%",
      "Ġ $,",
      "$# $%$$$$$$$$",
      "$# $'$$$$",
      "$# !$$$\"",
      "#$$$$ $$\"",
      "$' $#$$$$",
      "$Ğ *",
      "$!# $$$%",
      "$!# %$$#",
      "$!# %$$%",
      "$%' %$$%",
      "ĀĀ\" Āğ",
      "ĀĀ' Ā!",
      "ĀĀ- Ā",
      "% $$$#",
      "Ĝ !",
      "ğ (",
      "$# $'$$#",
      "$$% &$$#",
      "$& %$$$&",
      "$\" Ĝ",
      "$' #$$$$",
      "$( $$$$#",
      "$) Ğ",
      "&$$$$ '",
      "!$$ ,",
      "$%& %$$&",
      "$%\" #$$$$",
      "$ĝ ğ",
      "ğ$$ +",
      "$Ĝ !",
      "$Ĝ #",
      "ĀĀ# Āğ",
      "$&' #$$%",
      "ĀĀ& Āğ",
      "Ĝ $$$$",
      "Ĝ $$#",
      "Ġ Ě",
      "$$ $!$$$$",
      "$# %$$",
      "$$% $$$\"",
      "$& Ĝ",
      "$& $#$$\"",
      "$$\" $",
      "$' ,",
      "$' &$$$$",
      "$#% '$$%",
      "$ĝ '",
      "$ĝ (",
      "\"$$\" $",
      "'$$# $",
      "$\"& #$$&",
      "$%$$$$% %",
      "ğ$$ $ğ",
      "$#! %$$\"",
      "ĀĀ\" Ā&",
      "$!! $$$#",
      ") *",
      ") +",
      "$\" ě",
      "ĀĀ Ė",
      "$$$# $$$$$$$$$$$$",
      "$%$$$$ $$$%$$$$",
      "$## &$$%",
      "$## %$$&",
      "$%% \"$$#",
      "$%# #$$$$#",
      "&$$ $)",
      "\"$$$$ $$#",
      "$%& &$$%",
      "$#\" #$$\"",
      "$&# &$$#",
      "$\"% %$$#",
      "$\"& &$$%",
      "Ā% (",
      "$, \"",
      "Ġ$$$$ &",
      "ĀĀ\" Ā'",
      "&% $$$%",
      "& -",
      ", *",
      ", ,",
      "ğ ĝ",
      "$# '$$$&",
      "$$% &$$&",
      "$& '$$$$",
      "%$$$$ '",
      "$! $$",
      "$## %$$$$#",
      "$+ ğ",
      "%$$$$% \"",
      "$$$ Ĝ",
      "$%$$$$# #",
      "$'% $$$%",
      "$!# $$$#",
      "$!% %$$%",
      "$Ĝ &",
      "Ā' #",
      "%$$$$$$$$ $$$",
      "! ĝ",
      "# *",
      "% *",
      "% $$$%$",
      "Ĝ \"",
      "Ĝ ğ",
      "ğ '",
      "Ġ %$$%",
      "$% $#",
      "$% \"$$",
      "$# #$$%",
      "$$% \"$$&",
      "$& &$$$&",
      "$$\" &$$\"",
      "$' #$$$\"",
      "$$! %$$\"",
      "$%$$$$ '",
      "&$$$$ $$%",
      "'$$ $)",
      "$\"# &$$$$",
      "$\"# %$$\"",
      "$%\" &$$\"",
      "$%\" !$$#",
      "$ĝ Ğ",
      "$#$$# $",
      "$'% #$$#",
      "$&\" \"$$#",
      "ğ$$ Ĝ",
      "$Ĝ \"",
      "ĀĀ\" ĀĞ",
      "%$$$$$$$$ $$$%",
      "Ġ #$$%",
      "$$# \"$$%",
      "$$# &$$\"",
      "$& $#$$$$%",
      "$\" !$$$$",
      "$\" $%$$&",
      "$$& #$$$$",
      "$) $$#",
      "&$$ $!",
      "!$$ $ğ",
      "$%& $$$#",
      "$#& #$$'",
      "$ĝ )",
      "'$$$$ \"",
      "$&$$$$ $$\"",
      "$%$$$$% $",
      "$%' #$$&",
      "$#' %$$%",
      "$'& $$$%",
      "ĀĀ! Āğ",
      "$$$#$$% $",
      "\"% %$$%",
      "$$$! $$%",
      "# $$$%",
      "$ Ė",
      "Ġ $$$%",
      "$% '$$$&",
      "$$\" $$$!",
      "#$$$$ !",
      "$## $$$$$$$$$$$$",
      "$## &$$\"",
      "$#% &$$&",
      "!$$ Ĝ",
      "$$$ -",
      "$'% $$$#",
      "$#$$$$# $",
      "$%! #$$\"",
      "$, (",
      "ĀĀ\" Ā(",
      "ĀĀ# ĀĞ",
      "$#' &$$%",
      "#$$( $",
      "$#$$$$$$$$ $$$#",
      "$#$$$$$$$$$$$$ $",
      "$% %$$",
      "$$% !$$%",
      "#$$$$ $$$%",
      "%$$$$ $$$%",
      "$! %$$$&",
      "\"$$$$ !",
      "$$%$$$$ $$%$$$$",
      "$* +",
      "#$$$$% \"",
      "#$$$$% $%$$$$",
      "Ā% ğ",
      "$, %",
      "ĀĀ# Ā(",
      "$#' #$$%",
      "$!\" %$$#",
      "ĀĀ& Ā\"",
      "$$$' $$#",
      "$$$' $$%",
      "#$$$$$$$$ $$$%",
      "! #$$#",
      "& ĝ",
      ", %",
      "ě %",
      "Ĝ $$\"",
      "Ġ $%\"",
      "Ġ $'%",
      "$% $\"$$&",
      "$$% %$$$$#",
      "$$\" $$$%",
      "$! $%$$&",
      "$%# &$$$$",
      "$%# \"$$\"",
      "$) ĝ",
      "\"$$ .",
      "$ğ Ĝ",
      "$\"% '$$%",
      "%$$! $",
      "$%! %$$#",
      "Ġ$$# $",
      "$$$%$$# $",
      "$$$$#% $$$%",
      "$$$$#% %$$%",
      "\"% $$$%",
      "ĀĀğ Ā#",
      "Ġ( $$\"",
      "%$$$$$# $$$#",
      "$ ĕ",
      "' -",
      "ě ĝ",
      "Ğ $$ğ",
      "Ğ $$)",
      "ğ &",
      "Ġ $&#",
      "Ġ $+",
      "Ġ Ā!",
      "$$ Ě",
      "$% $%",
      "$% %$$#",
      "$& $#$$$$#",
      "$$\" $$#",
      "$$& %$$#",
      "$$$% $$$$%%",
      "$! $%$$$$",
      "$$! $",
      "$$! #$$\"",
      "$$' %$$&",
      "$$' $$$'",
      "$$$$% $",
      "$#% \"$$&",
      "&$$ Ě",
      "'$$ ,",
      "$Ğ ĝ",
      "$%& %$$$$",
      "$\"# #$$\"",
      "$#& \"$$%",
      "$&& $$$#",
      "$\"\" %$$\"",
      "$$#$$$# $$#",
      "$!# &$$#",
      "$%' \"$$%",
      "Ā& \"",
      "ĀĀ& ĀĞ",
      "$'\" $$$#",
      "$!& %$$%",
      "* \"",
      "+ #",
      "ě $$$$",
      "Ĝ $$&",
      "$$ $Ğ",
      "$# &$$#",
      "$& $&$$#",
      "$\" $$!",
      "$\" $$'",
      "$\" $#$$&",
      "$$\" #$$%",
      "#$$$$ $$$#",
      "$%# &$$\"",
      "$* $$$$",
      "$%& %$$#",
      "$#& $$$#",
      "$#$$% $",
      "$\"$$$$ $$&",
      "$'% \"$$%",
      "$#' #$$&",
      "ĀĀ' Ā\"",
      "ĀĀ' Ā#",
      "&# #$$#",
      "+ (",
      "+ )",
      "- ĀĀ",
      ". ,",
      "Ğ \"",
      "$% #$$",
      "$# -",
      "$# \"$$",
      "$# %$$$'",
      "$$# $$$!",
      "$$& $$$#",
      "$$& \"$$&",
      "%$$$$ !",
      "$! $%$$#",
      "$$! \"$$#",
      "$%$$$$ !",
      "$#% #$$$$#",
      "$#% '$$$$",
      "$#% !$$%",
      "$) ,",
      "$* Ğ",
      "Ġ$$ -",
      "$#& &$$&",
      "!$$$$ \"",
      "!$$$$ &",
      "ĀĀ% Ā'",
      "ĀĀ! Ā'",
      "Ā) %",
      "#$$$$$% $$$%",
      "%$$$$$% $$$%",
      "& #$$&",
      ", $$$$",
      "ě $$%",
      "Ġ Ā\"",
      "$% #$$$&",
      "$% $&$$\"",
      "$# $$$$$$$$$$$$$$$$",
      "$# $&$$&",
      "$\" $",
      "$\" $$",
      "$\" $\"$$%",
      "%$$$$ &%",
      "ĀĀ Ĕ",
      "$! ,",
      "$$' #$$&",
      "$%% &$$#",
      "$) $$%",
      "$ğ $$#",
      "($$ ě",
      "$ĝ ĝ",
      "%$$$$% $#$$$$",
      "$&& %$$&",
      "$\"& \"$$%",
      "ğ$$ ĝ",
      ")$$ Ĝ",
      "Ā% )",
      "ĀĀ# Ā'",
      "$!\" $$$#",
      "$'& #$$%",
      "\"# %$$$$",
      "&# %$$#",
      "*$$ $(",
      "#$$$$$# $$$#",
      ") !",
      ") )",
      "+ *",
      "- ,",
      "ě ğ",
      "ĝ $$(",
      "Ġ &$$$$",
      "Ġ \"$$%",
      "$% $&",
      "$% #$$$!",
      "$# $'$$%",
      "$$# #$$$$#",
      "$$# \"$$\"",
      "$$% $$$'",
      "$\" $\"$$$$",
      "$$\" \"$$$$",
      "#$$$$ $$&",
      "#$$$$ $%$$$$",
      "$$$$% %$$$$",
      "%$$ $",
      "$%% %$$\"",
      "$#% %$$$$#",
      "$%# #$$&",
      "$%# #$$$$%",
      "$%# !$$#",
      "$ğ +",
      "&$$ $",
      "&$$ .",
      "$$#$$$$ $$%$$$$",
      "$&% %$$&",
      "$\"# \"$$#",
      "$\"% #$$$$",
      "$$$& $",
      "$%$$% $",
      "$$%$$$% $$$$$$$$",
      ")$$ +",
      "$%! %$$\"",
      "$'# %$$#",
      "$, !",
      "$, '",
      "$, *",
      "$Ĝ '",
      "Ā& '",
      "$'& \"$$%",
      "$%$$$$$$$$ $$$#",
      "$%$$$$$$$$ $$$$$$$$$$$$",
      "%$$$$$$$$ $$$#",
      "$$$$$$$$$$$$$$$$$$$$$$$$ $",
      "% $$$$$$$$$$$$$$$$",
      "* '",
      "- +",
      "Ĝ Ğ",
      "Ğ &",
      "Ġ $&&",
      "Ġ '$$$$",
      "$% $'",
      "$% $!$$%",
      "$# ě",
      "$# $!$$$$",
      "$& $#$$&",
      "$\" $%$$\"",
      "$\" '$$$&",
      "#$$$$ $$$%$$$$",
      "$' $\"$$#",
      "$$! &$$#",
      "$$! #$$!",
      "$$' $",
      "$$$$% \"",
      "$$$$# \"",
      "$#$$$$ $$%%$$$$",
      "$## #$$$$%",
      "$%% #$$$$%",
      "$%# '$$#",
      "\"$$ $ğ",
      "$ğ $$%",
      "$Ğ $$$$",
      "$\"# &$$%",
      "$&# %$$$$",
      "$&# \"$$$$",
      "$&# \"$$%",
      "$&# \"$$\"",
      "($$ Ĝ",
      "$#& %$$$$",
      "$\"\" \"$$#",
      "$$$ ě",
      "$'% #$$$$",
      "Ā% *",
      "$%! &$$#",
      "$, #",
      "$$) $",
      "$$$%$$% $",
      "$'\" #$$#",
      "$!& $$$%",
      "$'' #$$%",
      "ĀĀğ Ā\"",
      "$$\"$$$$ $",
      "*$$ ĝ",
      "! $$$$#%",
      "' ğ",
      "' $$$$%%",
      "* (",
      ", $$&",
      "ę $$",
      "Ġ $##",
      "Ġ $%&",
      "Ġ $&%",
      "Ġ \"$$ğ",
      "$% ě",
      "$% \"$$%",
      "$% !$$$\"",
      "$% %$$$\"",
      "$% '$$$'",
      "$# '$$$$",
      "$# $\"$$&",
      "$$# &$$%",
      "$$# %$$$$%",
      "$$% #$$$$%",
      "$\" -",
      "$\" $\"$$#",
      "%$$$$ $$$#$$$$",
      "$$$# $$$$%%",
      "$' \"$$$\"",
      "$! $$!",
      "$$$$# #$$$$",
      "$%$$$$ $$%%$$$$",
      "'$$ -",
      "$#\" $$$%",
      "$#\" #$$%",
      "Ġ$$ $ğ",
      "($$ -",
      "$\"% &$$$$",
      "$#& \"$$&",
      "#$$$$% $",
      "$&\" #$$\"",
      "$!# %$$$$",
      "ğ$$ ,",
      "$, &",
      "ĀĀ% ĀĞ",
      "ĀĀ\" Ā)",
      "$\"! %$$\"",
      "$$$#$$# %$$#",
      "$&! #$$#",
      "$ě %",
      "ĀĀ' Āğ",
      "$$&$$$$ $",
      "$$##$$# $",
      "\" $",
      "& #$$$$",
      "' $$$$##",
      "+ $$!",
      "Ĝ ĝ",
      "Ĝ $$'",
      "Ġ %$$ğ",
      "$% -",
      "$% !$$$$",
      "$% %$$$'",
      "$# $'",
      "$# $$(",
      "$# $!$$%",
      "$$# %$$$$#",
      "$& $%$$\"",
      "$& !$$$\"",
      "$& %$$$\"",
      "%$$$$ $$$%$$$$",
      "$$$# $$$$%#",
      "$$$% $$$$$$$$$$$$",
      "$! $#$$%",
      "$! !$$$$",
      "$## '$$$$",
      "$%% %$$$$#",
      "\"$$ ě",
      "&$$$$ $",
      "&$$$$ $$#",
      "$$$$$$$$$$$$ $$$#",
      "$#\" &$$\"",
      "$#\" '$$#",
      "$&& &$$%",
      "$&$$$$ $$&",
      "$$$ .",
      "$&\" &$$\"",
      ")$$ ĝ",
      "$#! &$$\"",
      "$!% #$$%",
      "ĀĀ% Ā(",
      "&% #$$%",
      "ĀĀ! Ā&",
      "'$$& $",
      "$- %",
      "ĀĀğ Ā!",
      "Ğ$$ ĝ",
      "$#%%$$% $",
      "' $$$$#%",
      "' $$$$%#",
      "+ ,",
      "- #",
      "Ğ $$Ğ",
      "Ġ $'#",
      "Ġ ($$#",
      "$% $!$$#",
      "$% $\"$$\"",
      "$$% %$$\"",
      "$$% \"$$#",
      "$& \"$$$!",
      "$\" $&",
      "$\" $%$$$$#",
      "$$\" \"$$\"",
      "$! #$$$\"",
      "$#% %$$\"",
      "$#% $$$%$$#",
      "$%# #$$!",
      "\"$$ $'",
      "\"$$$$ $$%",
      "$#\" %$$%",
      "$&% !$$%",
      "$%\" \"$$\"",
      "$&# %$$%",
      "#$$$$# \"",
      "$ĝ *",
      "$$%$$$% $$%",
      ")$$ $)",
      "$'# \"$$#",
      "$&' %$$%",
      "Ġ% $$$%",
      "$$$#$$# $",
      "&& $$$%",
      "&& #$$%"
    ]
  }
}