{
  "version": "1.0",
  "truncation": null,
  "padding": null,
  "added_tokens": [],
  "normalizer": null,
  "pre_tokenizer": {
    "type": "ByteLevel",
    "add_prefix_space": false,
    "trim_offsets": true,
    "use_regex": true
  },
  "post_processor": {
    "type": "ByteLevel",
    "add_prefix_space": true,
    "trim_offsets": false,
    "use_regex": true
  },
  "decoder": {
    "type": "ByteLevel",
    "add_prefix_space": true,
    "trim_offsets": true,
    "use_regex": true
  },
  "model": {
    "type": "BPE",
    "dropout": null,
    "unk_token": null,
    "continuing_subword_prefix": null,
    "end_of_word_suffix": null,
    "fuse_unk": false,
    "byte_fallback": false,
    "ignore_merges": false,
    "vocab": {
      "\u0000": 0,
      "\u0001": 1,
      "\u0002": 2,
      "\u0003": 3,
      "\u0004": 4,
      "\u0005": 5,
      "\u0006": 6,
      "\u0007": 7,
      "\b": 8,
      "\t": 9,
      "\n": 10,
      "\u000b": 11,
      "\f": 12,
      "\r": 13,
      "\u000e": 14,
      "\u000f": 15,
      "\u0010": 16,
      "\u0011": 17,
      "\u0012": 18,
      "\u0013": 19,
      "\u0014": 20,
      "\u0015": 21,
      "\u0016": 22,
      "\u0017": 23,
      "\u0018": 24,
      "\u0019": 25,
      "\u001a": 26,
      "\u001b": 27,
      "\u001c": 28,
      "\u001d": 29,
      "\u001e": 30,
      "\u001f": 31,
      " ": 32,
      "!": 33,
      "\"": 34,
      "#": 35,
      "$": 36,
      "%": 37,
      "&": 38,
      "'": 39,
      "(": 40,
      ")": 41,
      "*": 42,
      "+": 43,
      ",": 44,
      "-": 45,
      ".": 46,
      "/": 47,
      "0": 48,
      "1": 49,
      "2": 50,
      "3": 51,
      "4": 52,
      "5": 53,
      "6": 54,
      "7": 55,
      "8": 56,
      "9": 57,
      ":": 58,
      ";": 59,
      "<": 60,
      "=": 61,
      ">": 62,
      "?": 63,
      "@": 64,
      "A": 65,
      "B": 66,
      "C": 67,
      "D": 68,
      "E": 69,
      "F": 70,
      "G": 71,
      "H": 72,
      "I": 73,
      "J": 74,
      "K": 75,
      "L": 76,
      "M": 77,
      "N": 78,
      "O": 79,
      "P": 80,
      "Q": 81,
      "R": 82,
      "Ā": 83,
      "ą": 84,
      "Ć": 85,
      "ć": 86,
      "Ĉ": 87,
      "ĉ": 88,
      "Ċ": 89,
      "ċ": 90,
      "Č": 91,
      "č": 92,
      "Ď": 93,
      "ď": 94,
      "Đ": 95,
      "đ": 96,
      "Ē": 97,
      "ē": 98,
      "Ĕ": 99,
      "ĕ": 100,
      "Ė": 101,
      "ė": 102,
      "Ę": 103,
      "ę": 104,
      "Ě": 105,
      "ě": 106,
      "Ĝ": 107,
      "ĝ": 108,
      "Ğ": 109,
      "ğ": 110,
      "Ġ": 111,
      "--": 112,
      "----": 113,
      "-.": 114,
      "-,": 115,
      "--,": 116,
      "--.": 117,
      "-/": 118,
      "-+": 119,
      "--+": 120,
      "--/": 121,
      "-*": 122,
      "ĀĀ": 123,
      ",----": 124,
      ".----": 125,
      ".--": 126,
      ",--": 127,
      "+--": 128,
      "-)": 129,
      "-,----": 130,
      "/--": 131,
      "-.----": 132,
      "--,-": 133,
      "--.-": 134,
      "*--": 135,
      "--------": 136,
      ",--.": 137,
      ".--,": 138,
      "+----": 139,
      "--*": 140,
      "---.": 141,
      "/----": 142,
      "---": 143,
      ".--.": 144,
      ",--,": 145,
      "---,": 146,
      "--+-": 147,
      "--/-": 148,
      "-,,": 149,
      "-..": 150,
      "-,.": 151,
      "-.,": 152,
      "-(": 153,
      "--)": 154,
      "----.": 155,
      "----,": 156,
      ")--": 157,
      "+--.": 158,
      "---/": 159,
      "/--,": 160,
      ".---.": 161,
      "-'": 162,
      ",---,": 163,
      ",--/": 164,
      "-./": 165,
      ".--+": 166,
      "+--,": 167,
      "-/.": 168,
      "-,+": 169,
      "-+,": 170,
      "(--": 171,
      "-+.": 172,
      "/--.": 173,
      "-/,": 174,
      "-.+": 175,
      "-,/": 176,
      ",--+": 177,
      ".--/": 178,
      "--,----": 179,
      "--.----": 180,
      "00": 181,
      "--(": 182,
      "*----": 183,
      "---+": 184,
      "-&": 185,
      "-+----": 186,
      "*-": 187,
      "-//": 188,
      "-/----": 189,
      "---,----": 190,
      ".----,": 191,
      ",----,": 192,
      ",----.": 193,
      "-++": 194,
      ".----.": 195,
      "---.----": 196,
      "*--.": 197,
      "-.--,": 198,
      "-,--.": 199,
      "--'": 200,
      "-,--,": 201,
      "+--/": 202,
      "/--+": 203,
      "-+/": 204,
      "-/+": 205,
      "-.--.": 206,
      "*--,": 207,
      "10": 208,
      "+--+": 209,
      "+---,": 210,
      "-*,": 211,
      "/--/": 212,
      "-,*": 213,
      "01": 214,
      "'--": 215,
      ".--,-": 216,
      "/---.": 217,
      "--*-": 218,
      "-*.": 219,
      "-..----": 220,
      "-,,----": 221,
      "----/": 222,
      "-.*": 223,
      ")-": 224,
      ",--.-": 225,
      ",--,-": 226,
      ".--.-": 227,
      "(-": 228,
      ".--*": 229,
      "--&": 230,
      "----+": 231,
      "-,----.": 232,
      "-+-": 233,
      "-+*": 234,
      "-%": 235,
      "*--/": 236,
      "-,----,": 237,
      ",---.": 238,
      "-.----,": 239,
      ".Ā": 240,
      "-.,----": 241,
      "ĀĀ.Ā": 242,
      "-*+": 243,
      "11": 244,
      ".---,": 245,
      "-,.----": 246,
      "-.----.": 247,
      ",--*": 248,
      "+Ā": 249,
      "ĀĀ+Ā": 250,
      "20": 251,
      "-Ā": 252,
      "ĀĀ-Ā": 253,
      "*Ā": 254,
      "ĀĀ*Ā": 255,
      "02": 256,
      "--.---.": 257,
      ",Ā": 258,
      "ĀĀ,Ā": 259,
      "--)-": 260,
      ".---/": 261,
      "-/*": 262,
      "--,-,": 263,
      "--,-.": 264,
      "+,": 265,
      "-),": 266,
      "/.": 267,
      "-$": 268,
      ")----": 269,
      "--,---,": 270,
      "*--+": 271,
      "-*/": 272,
      "--.-.": 273,
      "&--": 274,
      "/Ā": 275,
      "ĀĀ/Ā": 276,
      "-+)": 277,
      "--.-,": 278,
      "-*-": 279,
      "'-": 280,
      "12": 281,
      ".--+-": 282,
      "------------": 283,
      "/----,": 284,
      "/--*": 285,
      "-**": 286,
      "/----.": 287,
      "-,)": 288,
      "+----.": 289,
      "Ā.": 290,
      "--%": 291,
      "ĀĀ)": 292,
      "+--*": 293,
      "/--,-": 294,
      "+----,": 295,
      ",---+": 296,
      "-.)": 297,
      "21": 298,
      "+--,-": 299,
      "+--.-": 300,
      "/---/": 301,
      "/,": 302,
      "-,-": 303,
      "-).": 304,
      "30": 305,
      ")--.": 306,
      "ĀĀ)Ā": 307,
      "-/)": 308,
      "/--.-": 309,
      "..----": 310,
      ".--)": 311,
      "-)+": 312,
      "%--": 313,
      ".,----": 314,
      ")--,": 315,
      ",,----": 316,
      "ĀĀ(": 317,
      "---*": 318,
      "Ā,": 319,
      "/---": 320,
      ",--)": 321,
      ",--/-": 322,
      "&-": 323,
      ".---": 324,
      "-,.---.": 325,
      ".--/-": 326,
      "Ā*": 327,
      "03": 328,
      "----*": 329,
      "-.,---,": 330,
      "+---+": 331,
      ",--+-": 332,
      "--(-": 333,
      "-*)": 334,
      "Ā+": 335,
      "-,-/": 336,
      "-..---.": 337,
      ")--/": 338,
      "ĀĀ'": 339,
      "--$": 340,
      "-+--.": 341,
      "--,-/": 342,
      "--..----": 343,
      "Ā/": 344,
      ",----+": 345,
      "/--+-": 346,
      "-)/": 347,
      "-,-.----": 348,
      "-----": 349,
      "22": 350,
      "/ĀĀ": 351,
      "31": 352,
      ",.----": 353,
      "---,-": 354,
      "-,,---,": 355,
      "---.-": 356,
      "------.": 357,
      "-#": 358,
      "--,.----": 359,
      "-----.": 360,
      "Ā)": 361,
      "-)*": 362,
      "*---,": 363,
      "+--/-": 364,
      "+--+-": 365,
      "*--*": 366,
      "-.-,----": 367,
      ".,--.": 368,
      "-)-": 369,
      ")--+": 370,
      "/--/-": 371,
      "-.(": 372,
      "--.,----": 373,
      "Ā(": 374,
      "--,,----": 375,
      "40": 376,
      "-+(": 377,
      "13": 378,
      "-,(": 379,
      "-.--": 380,
      "-*----": 381,
      "-.-": 382,
      "/--)": 383,
      "+ĀĀ": 384,
      "-+----.": 385,
      "-+--,": 386,
      "*--,-": 387,
      ",,--,": 388,
      "-.-.----": 389,
      "-,--": 390,
      "------,": 391,
      ".-----": 392,
      ".ĀĀ": 393,
      ".----+": 394,
      "-----,": 395,
      ",ĀĀ": 396,
      "-.--/": 397,
      "--.,--.": 398,
      "$--": 399,
      ",.--,": 400,
      "-+-/": 401,
      ".----/": 402,
      ",--*-": 403,
      "-,-,----": 404,
      "-.--+": 405,
      ",-----": 406,
      "..--.": 407,
      "--'-": 408,
      "41": 409,
      ".--(": 410,
      "*--.-": 411,
      "-.-/": 412,
      "#-": 413,
      "--,.--,": 414,
      ",----/": 415,
      "%-": 416,
      "-,--+": 417,
      "-+----,": 418,
      "-/(": 419,
      "-,--/": 420,
      ".--*-": 421,
      "-\"": 422,
      "+--)": 423,
      "04": 424,
      ",---/": 425,
      "---.--.": 426,
      "*ĀĀ": 427,
      "23": 428,
      "Ā'": 429,
      "-))": 430,
      "-,,.--,": 431,
      "+----+": 432,
      "(----": 433,
      ")ĀĀ": 434,
      "--*--": 435,
      "--,,--,": 436,
      "32": 437,
      "--.-/": 438,
      "-..,--.": 439,
      "50": 440,
      "--..--.": 441,
      "14": 442,
      ",--(": 443,
      "-*(": 444,
      "-,--------": 445,
      "/,--.": 446,
      "--.-+": 447,
      "#--": 448,
      "(.": 449,
      "---.--,": 450,
      "$-": 451,
      "ĀĀ(Ā": 452,
      "--&-": 453,
      "-,..--.": 454,
      "----------------": 455,
      "*----.": 456,
      "(+": 457,
      "*--/-": 458,
      "----)": 459,
      "/----+": 460,
      "/--(": 461,
      "-.--------": 462,
      "*--+-": 463,
      "*----,": 464,
      "--.--,": 465,
      "ĀĀ&": 466,
      "--,--,": 467,
      "-+,----": 468,
      "-.-,--,": 469,
      "ĀĀ%": 470,
      "*--)": 471,
      "--+---,": 472,
      "-,+----": 473,
      "--/---.": 474,
      "-.,,--,": 475,
      "--\"": 476,
      ",---": 477,
      "-/.----": 478,
      "Ā%": 479,
      "--+----": 480,
      "-.,.--,": 481,
      "-/----,": 482,
      "*---+": 483,
      "--+-.": 484,
      "Ā&": 485,
      "---/-": 486,
      "--+-,": 487,
      "-,.,--.": 488,
      "33": 489,
      "---,--,": 490,
      "//": 491,
      "-,,,--,": 492,
      ")--*": 493,
      "42": 494,
      "-,------": 495,
      "-,------,": 496,
      "-.--.-": 497,
      "+.--,": 498,
      "-..,----": 499,
      "/.--": 500,
      "ĀĀ$": 501,
      "-.------.": 502,
      "(--,": 503,
      "*,": 504,
      "-+--": 505,
      "-.------": 506,
      "-,,.----": 507,
      "-./----": 508,
      "-/-": 509,
      "+--*-": 510,
      "-,------.": 511,
      "(*": 512,
      "---,--.": 513,
      ")--,-": 514,
      "-/----.": 515,
      "-.-,--.": 516,
      "(--.": 517,
      "--/-,": 518,
      "-.------,": 519,
      ".---.-": 520,
      "--/----": 521,
      "-.--,-": 522,
      ",--'": 523,
      "-)(": 524,
      "/--*-": 525,
      "05": 526,
      "--/-.": 527,
      ".--)-": 528,
      "-...--.": 529,
      "-,-.--,": 530,
      ".---+": 531,
      "+--(": 532,
      "()": 533,
      "-,-,--.": 534,
      "(,": 535,
      "--,-+": 536,
      "--/-/": 537,
      "--,--.": 538,
      "---)": 539,
      "-,--,-": 540,
      "-,+---,": 541,
      "--,---+": 542,
      "-ĀĀ": 543,
      "--#": 544,
      ".--'": 545,
      "-...----": 546,
      "-*'": 547,
      "ĀĀ'Ā": 548,
      "51": 549,
      "+---.": 550,
      "-.-.--,": 551,
      "-(,": 552,
      "----.,": 553,
      ")--.-": 554,
      "24": 555,
      "--------.": 556,
      "-,,,----": 557,
      ",--)-": 558,
      "-,----+": 559,
      "*+": 560,
      "-,'": 561,
      "-,-.--.": 562,
      "-.'": 563,
      "-*-/": 564,
      "--/,--.": 565,
      "-,--.-": 566,
      "--.--.": 567,
      "-.----+": 568,
      "/----/": 569,
      "-/,---,": 570,
      "!-": 571,
      "/.--.": 572,
      "---(": 573,
      "--+-/": 574,
      "-,..----": 575,
      "*.": 576,
      "-./---.": 577,
      "-,----/": 578,
      "-,---,": 579,
      "-*--": 580,
      "+----/": 581,
      "----,,": 582,
      "-.-.--.": 583,
      "-.+---,": 584,
      "-+'": 585,
      ".+--.": 586,
      "/---,": 587,
      "--------,": 588,
      "+-----": 589,
      "(ĀĀ": 590,
      ".,--": 591,
      "52": 592,
      "Ā-": 593,
      "-/,----": 594,
      "-(+": 595,
      "/,--": 596,
      "--+.--,": 597,
      "/--)-": 598,
      "/-----": 599,
      "-.,,----": 600,
      "+---*": 601,
      "(--/": 602,
      "61": 603,
      ".--------": 604,
      "-,,---.": 605,
      "/,----": 606,
      "60": 607,
      "--,---.": 608,
      "\"--": 609,
      "+,--,": 610,
      "+)": 611,
      "-+.----": 612,
      "(--+": 613,
      "-!": 614,
      "/+--": 615,
      "')": 616,
      "-..---,": 617,
      "'+": 618,
      "43": 619,
      "-/--,": 620,
      "-)'": 621,
      "-(.": 622,
      ",--------": 623,
      "-,------------": 624,
      ".--,-.": 625,
      "*)": 626,
      "15": 627,
      ".--,-,": 628,
      "---'": 629,
      "Ā$": 630,
      "-.----/": 631,
      "-.------------": 632,
      "----..": 633,
      "----,.": 634,
      "-./,--.": 635,
      "---+-": 636,
      "-.,--": 637,
      ":-": 638,
      "-+.---.": 639,
      "+---": 640,
      "-/.,--.": 641,
      "--%-": 642,
      "*/": 643,
      "+.": 644,
      "25": 645,
      "--,-----": 646,
      "--.-----": 647,
      "(/": 648,
      ".------.": 649,
      "*--(": 650,
      ".--,-/": 651,
      "-,,--": 652,
      "-*--.": 653,
      "-(*": 654,
      "-+,---,": 655,
      "-+--+": 656,
      "-,.,----": 657,
      "',": 658,
      "---,----.": 659,
      "/.----": 660,
      "34": 661,
      "-.---.": 662,
      "('": 663,
      ",'": 664,
      "53": 665,
      "------": 666,
      "--.---,": 667,
      "--.---/": 668,
      ",+--,": 669,
      "..--": 670,
      "-,&": 671,
      "/---.-": 672,
      ",)": 673,
      "--/.--.": 674,
      "ĀĀ#": 675,
      ".--(-": 676,
      "-.&": 677,
      "-,-,--,": 678,
      "-+--/": 679,
      "--+-+": 680,
      "--+,--,": 681,
      "((": 682,
      "-.,.----": 683,
      "-/'": 684,
      ",------": 685,
      ",------,": 686,
      "!--": 687,
      "62": 688,
      "-()": 689,
      "-*&": 690,
      ".------": 691,
      "+---,-": 692,
      "\"-": 693,
      "'.": 694,
      ",+----": 695,
      "-/--.": 696,
      ".--&": 697,
      "+--'": 698,
      "+,----": 699,
      "35": 700,
      ".------,": 701,
      "+--)-": 702,
      "--*-,": 703,
      "-,,.--.": 704,
      "/+--.": 705,
      "+(": 706,
      "--/---/": 707,
      "/--'": 708,
      "''": 709,
      "-/--": 710,
      "-..+--.": 711,
      ",---,-": 712,
      "))": 713,
      ".+----": 714,
      "--+---+": 715,
      "*---*": 716,
      "-+..--.": 717,
      "44": 718,
      ".,--,": 719,
      "--$-": 720,
      "-,/----": 721,
      "--,-*": 722,
      "-)----": 723,
      "*--'": 724,
      "--*-.": 725,
      "---,----,": 726,
      "'/": 727,
      ".)": 728,
      "-/&": 729,
      "ĀĀ\"": 730,
      "'*": 731,
      "-.,--.": 732,
      "-,/.--.": 733,
      "**": 734,
      ",(": 735,
      "63": 736,
      "70": 737,
      "*--*-": 738,
      "++--,": 739,
      "-+&": 740,
      "--+--.": 741,
      "ĀĀ:": 742,
      "-,+.--,": 743,
      "-,,-----": 744,
      "-,.---/": 745,
      "-/----+": 746,
      "--,--": 747,
      "--.--": 748,
      "-/.---.": 749,
      "-..-----": 750,
      "--,,--.": 751,
      ",------.": 752,
      "-(/": 753,
      "-./.--.": 754,
      "-.+.--,": 755,
      "---.----,": 756,
      "&)": 757,
      "+,--": 758,
      "./----": 759,
      "-..--": 760,
      "-.,---.": 761,
      "+--&": 762,
      ")---+": 763,
      "-.+,--,": 764,
      "'(": 765,
      "*(": 766,
      "+'": 767,
      "-,.--,": 768,
      "/--(-": 769,
      "*----/": 770,
      "16": 771,
      "-*--,": 772,
      "-)--": 773,
      "--*-/": 774,
      "-,/,--.": 775,
      ".'": 776,
      "-.+----": 777,
      ",--&": 778,
      "-..,--,": 779,
      "'&": 780,
      "-------": 781,
      "26": 782,
      "-+-.----": 783,
      ",------------": 784,
      "-,,/--,": 785,
      ")--)": 786,
      "..--,": 787,
      "//--": 788,
      "06": 789,
      "-,/---.": 790,
      "-',": 791,
      ".+--": 792,
      "/*--": 793,
      "Ġ-": 794,
      "------+": 795,
      "-//----": 796,
      ",--(-": 797,
      "--.---.-": 798,
      "Ā#": 799,
      "+---/": 800,
      "-,,,--.": 801,
      "----,-": 802,
      "-,+,--,": 803,
      "++": 804,
      "--/-+": 805,
      "ĀĀ!": 806,
      ")--(": 807,
      "./--.": 808,
      "--,/--,": 809,
      "&,": 810,
      "(--,-": 811,
      "-..---/": 812,
      "--.-*": 813,
      ".------------": 814,
      "*---": 815,
      "-+----+": 816,
      "---.----.": 817,
      "--.--------": 818,
      ",----,,": 819,
      "&(": 820,
      ")'": 821,
      "./--": 822,
      "54": 823,
      "--*-+": 824,
      "-+.,--.": 825,
      "-,.---,": 826,
      "-/,,--,": 827,
      "-+----/": 828,
      ".----,,": 829,
      "--,---,-": 830,
      "),": 831,
      "----.-": 832,
      "*'": 833,
      "%)": 834,
      "(&": 835,
      "/,--/": 836,
      "-+-.--.": 837,
      "ĀĀ;": 838,
      "-)&": 839,
      "-(-": 840,
      "/'": 841,
      "-/-,--,": 842,
      "/---+": 843,
      "+.--+": 844,
      "71": 845,
      "Ā\"": 846,
      "-,..--/": 847,
      "-----/": 848,
      "--,-.,": 849,
      "-,.+--.": 850,
      "-'+": 851,
      "-,----.-": 852,
      "//--.": 853,
      "-----+": 854,
      ".-----,": 855,
      "/--&": 856,
      "-.-----": 857,
      "-.,-----": 858,
      ")--/-": 859,
      "+/--,": 860,
      "--..--,": 861,
      "55": 862,
      "-.+--": 863,
      "-,--*": 864,
      "-+--,-": 865,
      "--,------,": 866,
      ",&": 867,
      ",.--": 868,
      ".(": 869,
      ".,--/": 870,
      "07": 871,
      "Ğ-": 872,
      "-..--.": 873,
      "--/--": 874,
      "-.,---+": 875,
      "--.---": 876,
      "-+,---.": 877,
      "+/": 878,
      ",/--,": 879,
      ".*--": 880,
      "ğ-": 881,
      "--!": 882,
      "-.-*": 883,
      "--/--,": 884,
      "-.,,--.": 885,
      "-((": 886,
      "--.------.": 887,
      "(%": 888,
      "-/.---,": 889,
      "--+--": 890,
      "ĀĀ&Ā": 891,
      ",,--.": 892,
      ".&": 893,
      "<-": 894,
      "-,.--": 895,
      "-,+--": 896,
      "-+,.--,": 897,
      "27": 898,
      "-.--/-": 899,
      "-/-.----": 900,
      "--+-*": 901,
      "ĀĀ<": 902,
      ",---*": 903,
      "+--(-": 904,
      "*--)-": 905,
      "--.-,.": 906,
      "-,-----": 907,
      "---&": 908,
      "-/.,----": 909,
      "-/,.--,": 910,
      "-,.-----": 911,
      "ĀĀ%Ā": 912,
      "+.----": 913,
      "56": 914,
      "-,-,----,": 915,
      ")---*": 916,
      "-'*": 917,
      "*,--,": 918,
      "+,--+": 919,
      ",/----": 920,
      "45": 921,
      "-,*--": 922,
      ".--.-/": 923,
      "--)-/": 924,
      "-')": 925,
      "-/----/": 926,
      "46": 927,
      "72": 928,
      "-.-,----,": 929,
      "--.+--.": 930,
      "-++----": 931,
      "--.------,": 932,
      "-.----,-": 933,
      "%&": 934,
      "/)": 935,
      ";-": 936,
      "--/-*": 937,
      "---(-": 938,
      "--,-,,": 939,
      "--/--.": 940,
      "ĀĀğ": 941,
      "-)-/": 942,
      "&'": 943,
      ").": 944,
      "-:": 945,
      "36": 946,
      "--,.--+": 947,
      ".--.-.": 948,
      ",--/-.": 949,
      "-+,,--,": 950,
      "%(": 951,
      "*&": 952,
      "--.-.,": 953,
      "-+-.--,": 954,
      "--/---": 955,
      "-...--,": 956,
      "*----+": 957,
      ",.--+": 958,
      ".,----.": 959,
      ":ĀĀ": 960,
      "-,%": 961,
      "--.--/": 962,
      "-++---,": 963,
      "--+--,": 964,
      ",---+-": 965,
      "+/--": 966,
      "80": 967,
      "-,,--,": 968,
      "-/-,----": 969,
      "-/-,--.": 970,
      "--)-.": 971,
      ".--/-.": 972,
      "**--": 973,
      "++--": 974,
      ",,--+": 975,
      "/+": 976,
      "-,-.----,": 977,
      "--,-,.": 978,
      ",--'-": 979,
      "-.,/--,": 980,
      "-//,--.": 981,
      "(--.-": 982,
      ",+--": 983,
      "17": 984,
      "ĠĀ": 985,
      "-,-/----": 986,
      "-,,---+": 987,
      "--.-..": 988,
      "-+-,--.": 989,
      "--+,----": 990,
      ".--'-": 991,
      "-.,+--,": 992,
      "-./+--.": 993,
      "&.": 994,
      "-.--*": 995,
      "--,--/": 996,
      "-+.---/": 997,
      "-*----.": 998,
      "-('": 999,
      "-,.---.-": 1000,
      ")*": 1001,
      "-----*": 1002,
      "-,-,----.": 1003,
      "-+%": 1004,
      ".--%": 1005,
      "%.": 1006,
      ",,": 1007,
      "-ğ": 1008,
      "/+----": 1009,
      "Ġ--": 1010,
      "-./--": 1011,
      "--.-)": 1012,
      "--\"-": 1013,
      ",*--,": 1014,
      "-.-.----.": 1015,
      "-./---/": 1016,
      "-,-.----.": 1017,
      "--,--------": 1018,
      "-'.": 1019,
      ")+": 1020,
      ")/": 1021,
      ")---": 1022,
      "66": 1023
    },
    "merges": [
      "- -",
      "-- --",
      "- .",
      "- ,",
      "-- ,",
      "-- .",
      "- /",
      "- +",
      "-- +",
      "-- /",
      "- *",
      "Ā Ā",
      ", ----",
      ". ----",
      ". --",
      ", --",
      "+ --",
      "- )",
      "-, ----",
      "/ --",
      "-. ----",
      "--, -",
      "--. -",
      "* --",
      "---- ----",
      ", --.",
      ". --,",
      "+ ----",
      "-- *",
      "-- -.",
      "/ ----",
      "-- -",
      ". --.",
      ", --,",
      "-- -,",
      "--+ -",
      "--/ -",
      "-, ,",
      "-. .",
      "-, .",
      "-. ,",
      "- (",
      "-- )",
      "---- .",
      "---- ,",
      ") --",
      "+ --.",
      "-- -/",
      "/ --,",
      ".-- -.",
      "- '",
      ",-- -,",
      ", --/",
      "-. /",
      ". --+",
      "+ --,",
      "-/ .",
      "-, +",
      "-+ ,",
      "( --",
      "-+ .",
      "/ --.",
      "-/ ,",
      "-. +",
      "-, /",
      ", --+",
      ". --/",
      "--, ----",
      "--. ----",
      "0 0",
      "-- (",
      "* ----",
      "-- -+",
      "- &",
      "-+ ----",
      "* -",
      "-/ /",
      "-/ ----",
      "-- -,----",
      ".---- ,",
      ",---- ,",
      ",---- .",
      "-+ +",
      ".---- .",
      "-- -.----",
      "* --.",
      "-. --,",
      "-, --.",
      "-- '",
      "-, --,",
      "+ --/",
      "/ --+",
      "-+ /",
      "-/ +",
      "-. --.",
      "* --,",
      "1 0",
      "+ --+",
      "+-- -,",
      "-* ,",
      "/ --/",
      "-, *",
      "0 1",
      "' --",
      ". --,-",
      "/-- -.",
      "--* -",
      "-* .",
      "-. .----",
      "-, ,----",
      "---- /",
      "-. *",
      ") -",
      ", --.-",
      ", --,-",
      ". --.-",
      "( -",
      ".-- *",
      "-- &",
      "---- +",
      "-,---- .",
      "-+ -",
      "-+ *",
      "- %",
      "* --/",
      "-,---- ,",
      ",-- -.",
      "-.---- ,",
      ". Ā",
      "-. ,----",
      "ĀĀ .Ā",
      "-* +",
      "1 1",
      ".-- -,",
      "-, .----",
      "-.---- .",
      ",-- *",
      "+ Ā",
      "ĀĀ +Ā",
      "2 0",
      "- Ā",
      "ĀĀ -Ā",
      "* Ā",
      "ĀĀ *Ā",
      "0 2",
      "--. ---.",
      ", Ā",
      "ĀĀ ,Ā",
      "--) -",
      ".-- -/",
      "-/ *",
      "--, -,",
      "--, -.",
      "+ ,",
      "-) ,",
      "/ .",
      "- $",
      ") ----",
      "--, ---,",
      "* --+",
      "-* /",
      "--. -.",
      "& --",
      "/ Ā",
      "ĀĀ /Ā",
      "-+ )",
      "--. -,",
      "-* -",
      "' -",
      "1 2",
      ". --+-",
      "-------- ----",
      "/---- ,",
      "/-- *",
      "-* *",
      "/---- .",
      "-, )",
      "+---- .",
      "Ā .",
      "-- %",
      "ĀĀ )",
      "+-- *",
      "/ --,-",
      "+---- ,",
      ",-- -+",
      "-. )",
      "2 1",
      "+ --,-",
      "+ --.-",
      "/-- -/",
      "/ ,",
      "-, -",
      "-) .",
      "3 0",
      ") --.",
      "ĀĀ) Ā",
      "-/ )",
      "/ --.-",
      ". .----",
      ".-- )",
      "-) +",
      "% --",
      ". ,----",
      ") --,",
      ", ,----",
      "ĀĀ (",
      "-- -*",
      "Ā ,",
      "/-- -",
      ",-- )",
      ", --/-",
      "& -",
      ".-- -",
      "-, .---.",
      ". --/-",
      "Ā *",
      "0 3",
      "---- *",
      "-. ,---,",
      "+-- -+",
      ", --+-",
      "--( -",
      "-* )",
      "Ā +",
      "-, -/",
      "-. .---.",
      ") --/",
      "ĀĀ '",
      "-- $",
      "-+ --.",
      "--, -/",
      "--. .----",
      "Ā /",
      ",---- +",
      "/ --+-",
      "-) /",
      "-, -.----",
      "---- -",
      "2 2",
      "/ ĀĀ",
      "3 1",
      ", .----",
      "---, -",
      "-, ,---,",
      "---. -",
      "---- --.",
      "- #",
      "--, .----",
      "---- -.",
      "Ā )",
      "-) *",
      "*-- -,",
      "+ --/-",
      "+ --+-",
      "*-- *",
      "-. -,----",
      ". ,--.",
      "-) -",
      ") --+",
      "/ --/-",
      "-. (",
      "--. ,----",
      "Ā (",
      "--, ,----",
      "4 0",
      "-+ (",
      "1 3",
      "-, (",
      "-. --",
      "-* ----",
      "-. -",
      "/-- )",
      "+ ĀĀ",
      "-+ ----.",
      "-+ --,",
      "* --,-",
      ", ,--,",
      "-. -.----",
      "-, --",
      "---- --,",
      ".---- -",
      ". ĀĀ",
      ".---- +",
      "---- -,",
      ", ĀĀ",
      "-. --/",
      "--. ,--.",
      "$ --",
      ", .--,",
      "-+ -/",
      ".---- /",
      ",-- *-",
      "-, -,----",
      "-. --+",
      ",---- -",
      ". .--.",
      "--' -",
      "4 1",
      ".-- (",
      "* --.-",
      "-. -/",
      "# -",
      "--, .--,",
      ",---- /",
      "% -",
      "-, --+",
      "-+ ----,",
      "-/ (",
      "-, --/",
      ".-- *-",
      "- \"",
      "+-- )",
      "0 4",
      ",-- -/",
      "---. --.",
      "* ĀĀ",
      "2 3",
      "Ā '",
      "-) )",
      "-,, .--,",
      "+---- +",
      "( ----",
      ") ĀĀ",
      "-- *--",
      "--, ,--,",
      "3 2",
      "--. -/",
      "-.. ,--.",
      "5 0",
      "--. .--.",
      "1 4",
      ",-- (",
      "-* (",
      "-,---- ----",
      "/ ,--.",
      "--. -+",
      "# --",
      "( .",
      "---. --,",
      "$ -",
      "ĀĀ( Ā",
      "--& -",
      "-,. .--.",
      "-------- --------",
      "* ----.",
      "( +",
      "* --/-",
      "---- )",
      "/---- +",
      "/-- (",
      "-.---- ----",
      "* --+-",
      "* ----,",
      "--. --,",
      "ĀĀ &",
      "--, --,",
      "-+ ,----",
      "-. -,--,",
      "ĀĀ %",
      "*-- )",
      "--+ ---,",
      "-, +----",
      "--/ ---.",
      "-., ,--,",
      "-- \"",
      ",-- -",
      "-/ .----",
      "Ā %",
      "--+ ----",
      "-., .--,",
      "-/ ----,",
      "*-- -+",
      "--+ -.",
      "Ā &",
      "---/ -",
      "--+ -,",
      "-,. ,--.",
      "3 3",
      "---, --,",
      "/ /",
      "-,, ,--,",
      ") --*",
      "4 2",
      "-,---- --",
      "-,---- --,",
      "-. --.-",
      "+ .--,",
      "-.. ,----",
      "/ .--",
      "ĀĀ $",
      "-.---- --.",
      "( --,",
      "* ,",
      "-+ --",
      "-.---- --",
      "-,, .----",
      "-. /----",
      "-/ -",
      "+-- *-",
      "-,---- --.",
      "( *",
      "---, --.",
      ") --,-",
      "-/ ----.",
      "-. -,--.",
      "( --.",
      "--/ -,",
      "-.---- --,",
      ".---. -",
      "--/ ----",
      "-. --,-",
      ",-- '",
      "-) (",
      "/-- *-",
      "0 5",
      "--/ -.",
      ".-- )-",
      "-.. .--.",
      "-, -.--,",
      ".-- -+",
      "+-- (",
      "( )",
      "-, -,--.",
      "( ,",
      "--, -+",
      "--/ -/",
      "--, --.",
      "-- -)",
      "-, --,-",
      "-, +---,",
      "--, ---+",
      "- ĀĀ",
      "-- #",
      ".-- '",
      "-.. .----",
      "-* '",
      "ĀĀ' Ā",
      "5 1",
      "+-- -.",
      "-. -.--,",
      "-( ,",
      "----. ,",
      ") --.-",
      "2 4",
      "-------- .",
      "-,, ,----",
      ",-- )-",
      "-,---- +",
      "* +",
      "-, '",
      "-, -.--.",
      "-. '",
      "-* -/",
      "--/ ,--.",
      "-, --.-",
      "--. --.",
      "-.---- +",
      "/---- /",
      "-/ ,---,",
      "! -",
      "/ .--.",
      "--- (",
      "--+ -/",
      "-,. .----",
      "* .",
      "-. /---.",
      "-,---- /",
      "-, ---,",
      "-* --",
      "+---- /",
      "----, ,",
      "-. -.--.",
      "-. +---,",
      "-+ '",
      ". +--.",
      "/-- -,",
      "-------- ,",
      "+---- -",
      "( ĀĀ",
      ". ,--",
      "5 2",
      "Ā -",
      "-/ ,----",
      "-( +",
      "/ ,--",
      "--+ .--,",
      "/-- )-",
      "/---- -",
      "-., ,----",
      "+-- -*",
      "( --/",
      "6 1",
      ".---- ----",
      "-, ,---.",
      "/ ,----",
      "6 0",
      "--, ---.",
      "\" --",
      "+ ,--,",
      "+ )",
      "-+ .----",
      "( --+",
      "- !",
      "/ +--",
      "' )",
      "-. .---,",
      "' +",
      "4 3",
      "-/ --,",
      "-) '",
      "-( .",
      ",---- ----",
      "-,---- --------",
      ".--, -.",
      "* )",
      "1 5",
      ".--, -,",
      "--- '",
      "Ā $",
      "-.---- /",
      "-.---- --------",
      "----. .",
      "----, .",
      "-./ ,--.",
      "---+ -",
      "-. ,--",
      ": -",
      "-+ .---.",
      "+-- -",
      "-/. ,--.",
      "--% -",
      "* /",
      "+ .",
      "2 5",
      "--,---- -",
      "--.---- -",
      "( /",
      ".---- --.",
      "*-- (",
      ".--, -/",
      "-, ,--",
      "-* --.",
      "-( *",
      "-+ ,---,",
      "-+ --+",
      "-,. ,----",
      "' ,",
      "---,---- .",
      "/ .----",
      "3 4",
      "-. ---.",
      "( '",
      ", '",
      "5 3",
      "---- --",
      "--. ---,",
      "--. ---/",
      ", +--,",
      ". .--",
      "-, &",
      "/---. -",
      ", )",
      "--/ .--.",
      "ĀĀ #",
      ".-- (-",
      "-. &",
      "-, -,--,",
      "-+ --/",
      "--+ -+",
      "--+ ,--,",
      "( (",
      "-., .----",
      "-/ '",
      ",---- --",
      ",---- --,",
      "! --",
      "6 2",
      "-( )",
      "-* &",
      ".---- --",
      "+---, -",
      "\" -",
      "' .",
      ", +----",
      "-/ --.",
      ".-- &",
      "+-- '",
      "+ ,----",
      "3 5",
      ".---- --,",
      "+-- )-",
      "--* -,",
      "-,, .--.",
      "/ +--.",
      "+ (",
      "--/ ---/",
      "/-- '",
      "' '",
      "-/ --",
      "-.. +--.",
      ",---, -",
      ") )",
      ". +----",
      "--+ ---+",
      "*-- -*",
      "-+. .--.",
      "4 4",
      ". ,--,",
      "--$ -",
      "-, /----",
      "--, -*",
      "-) ----",
      "*-- '",
      "--* -.",
      "---,---- ,",
      "' /",
      ". )",
      "-/ &",
      "ĀĀ \"",
      "' *",
      "-. ,--.",
      "-,/ .--.",
      "* *",
      ", (",
      "6 3",
      "7 0",
      "*-- *-",
      "+ +--,",
      "-+ &",
      "--+ --.",
      "ĀĀ :",
      "-,+ .--,",
      "-,,---- -",
      "-, .---/",
      "-/---- +",
      "--, --",
      "--. --",
      "-/ .---.",
      "-..---- -",
      "--, ,--.",
      ",---- --.",
      "-( /",
      "-./ .--.",
      "-.+ .--,",
      "---.---- ,",
      "& )",
      "+ ,--",
      ". /----",
      "-. .--",
      "-. ,---.",
      "+-- &",
      ")-- -+",
      "-.+ ,--,",
      "' (",
      "* (",
      "+ '",
      "-, .--,",
      "/-- (-",
      "*---- /",
      "1 6",
      "-* --,",
      "-) --",
      "--* -/",
      "-,/ ,--.",
      ". '",
      "-. +----",
      ",-- &",
      "-.. ,--,",
      "' &",
      "---- ---",
      "2 6",
      "-+ -.----",
      ",---- --------",
      "-,, /--,",
      ") --)",
      ". .--,",
      "/ /--",
      "0 6",
      "-, /---.",
      "-' ,",
      ". +--",
      "/ *--",
      "Ġ -",
      "---- --+",
      "-/ /----",
      ",-- (-",
      "--.---. -",
      "Ā #",
      "+-- -/",
      "-,, ,--.",
      "----, -",
      "-,+ ,--,",
      "+ +",
      "--/ -+",
      "ĀĀ !",
      ")-- (",
      ". /--.",
      "--, /--,",
      "& ,",
      "( --,-",
      "-. .---/",
      "--. -*",
      ".---- --------",
      "*-- -",
      "-+---- +",
      "---.---- .",
      "--. --------",
      ",----, ,",
      "& (",
      ") '",
      ". /--",
      "5 4",
      "--* -+",
      "-+. ,--.",
      "-, .---,",
      "-/, ,--,",
      "-+---- /",
      ".----, ,",
      "--,---, -",
      ") ,",
      "----. -",
      "* '",
      "% )",
      "( &",
      "/ ,--/",
      "-+ -.--.",
      "ĀĀ ;",
      "-) &",
      "-( -",
      "/ '",
      "-/ -,--,",
      "/-- -+",
      "+ .--+",
      "7 1",
      "Ā \"",
      "-,. .--/",
      "---- -/",
      "--, -.,",
      "-,. +--.",
      "-' +",
      "-,----. -",
      "/ /--.",
      "---- -+",
      ".---- -,",
      "/-- &",
      "-.---- -",
      "-.,---- -",
      ") --/-",
      "+ /--,",
      "--. .--,",
      "5 5",
      "-. +--",
      "-, --*",
      "-+ --,-",
      "--,---- --,",
      ", &",
      ", .--",
      ". (",
      ". ,--/",
      "0 7",
      "Ğ -",
      "-. .--.",
      "--/ --",
      "-. ,---+",
      "--. ---",
      "-+ ,---.",
      "+ /",
      ", /--,",
      ". *--",
      "ğ -",
      "-- !",
      "-. -*",
      "--/ --,",
      "-., ,--.",
      "-( (",
      "--.---- --.",
      "( %",
      "-/ .---,",
      "--+ --",
      "ĀĀ& Ā",
      ", ,--.",
      ". &",
      "< -",
      "-, .--",
      "-, +--",
      "-+, .--,",
      "2 7",
      "-. --/-",
      "-/ -.----",
      "--+ -*",
      "ĀĀ <",
      ",-- -*",
      "+-- (-",
      "*-- )-",
      "--. -,.",
      "-,---- -",
      "--- &",
      "-/. ,----",
      "-/, .--,",
      "-,.---- -",
      "ĀĀ% Ā",
      "+ .----",
      "5 6",
      "-, -,----,",
      ")-- -*",
      "-' *",
      "* ,--,",
      "+ ,--+",
      ", /----",
      "4 5",
      "-, *--",
      ".--. -/",
      "--) -/",
      "-' )",
      "-/---- /",
      "4 6",
      "7 2",
      "-. -,----,",
      "--. +--.",
      "-+ +----",
      "--.---- --,",
      "-.----, -",
      "% &",
      "/ )",
      "; -",
      "--/ -*",
      "--- (-",
      "--, -,,",
      "--/ --.",
      "ĀĀ ğ",
      "-) -/",
      "& '",
      ") .",
      "- :",
      "3 6",
      "--, .--+",
      ".--. -.",
      ",--/ -.",
      "-+, ,--,",
      "% (",
      "* &",
      "--. -.,",
      "-+ -.--,",
      "--/ ---",
      "-.. .--,",
      "*---- +",
      ", .--+",
      ". ,----.",
      ": ĀĀ",
      "-, %",
      "--. --/",
      "-+ +---,",
      "--+ --,",
      ",-- -+-",
      "+ /--",
      "8 0",
      "-, ,--,",
      "-/ -,----",
      "-/ -,--.",
      "--) -.",
      ".--/ -.",
      "* *--",
      "+ +--",
      ", ,--+",
      "/ +",
      "-, -.----,",
      "--, -,.",
      ",-- '-",
      "-., /--,",
      "-// ,--.",
      "( --.-",
      ", +--",
      "1 7",
      "Ġ Ā",
      "-, -/----",
      "-, ,---+",
      "--. -..",
      "-+ -,--.",
      "--+ ,----",
      ".-- '-",
      "-., +--,",
      "-./ +--.",
      "& .",
      "-. --*",
      "--, --/",
      "-+ .---/",
      "-* ----.",
      "-( '",
      "-,.---. -",
      ") *",
      "---- -*",
      "-, -,----.",
      "-+ %",
      ".-- %",
      "% .",
      ", ,",
      "- ğ",
      "/ +----",
      "Ġ --",
      "-. /--",
      "--. -)",
      "--\" -",
      ", *--,",
      "-. -.----.",
      "-. /---/",
      "-, -.----.",
      "--, --------",
      "-' .",
      ") +",
      ") /",
      ") ---",
      "6 6"
    ]
  }
}