{
  "version": "1.0",
  "truncation": null,
  "padding": null,
  "added_tokens": [],
  "normalizer": null,
  "pre_tokenizer": {
    "type": "ByteLevel",
    "add_prefix_space": false,
    "trim_offsets": true,
    "use_regex": true
  },
  "post_processor": {
    "type": "ByteLevel",
    "add_prefix_space": true,
    "trim_offsets": false,
    "use_regex": true
  },
  "decoder": {
    "type": "ByteLevel",
    "add_prefix_space": true,
    "trim_offsets": true,
    "use_regex": true
  },
  "model": {
    "type": "BPE",
    "dropout": null,
    "unk_token": null,
    "continuing_subword_prefix": null,
    "end_of_word_suffix": null,
    "fuse_unk": false,
    "byte_fallback": false,
    "ignore_merges": false,
    "vocab": {
      "\u0000": 0,
      "\u0001": 1,
      "\u0002": 2,
      "\u0003": 3,
      "\u0004": 4,
      "\u0005": 5,
      "\u0006": 6,
      "\u0007": 7,
      "\b": 8,
      "\t": 9,
      "\n": 10,
      "\u000b": 11,
      "\f": 12,
      "\r": 13,
      "\u000e": 14,
      "\u000f": 15,
      "\u0010": 16,
      "\u0011": 17,
      "\u0012": 18,
      "\u0013": 19,
      "\u0014": 20,
      "\u0015": 21,
      "\u0016": 22,
      "\u0017": 23,
      "\u0018": 24,
      "\u0019": 25,
      "\u001a": 26,
      "\u001b": 27,
      "\u001c": 28,
      "\u001d": 29,
      "\u001e": 30,
      "\u001f": 31,
      " ": 32,
      "!": 33,
      "\"": 34,
      "#": 35,
      "$": 36,
      "%": 37,
      "&": 38,
      "'": 39,
      "(": 40,
      ")": 41,
      "*": 42,
      "+": 43,
      ",": 44,
      "-": 45,
      ".": 46,
      "/": 47,
      "0": 48,
      "1": 49,
      "2": 50,
      "3": 51,
      "4": 52,
      "5": 53,
      "6": 54,
      "7": 55,
      "8": 56,
      "9": 57,
      ":": 58,
      ";": 59,
      "<": 60,
      "=": 61,
      ">": 62,
      "?": 63,
      "@": 64,
      "A": 65,
      "B": 66,
      "C": 67,
      "D": 68,
      "E": 69,
      "F": 70,
      "G": 71,
      "H": 72,
      "I": 73,
      "J": 74,
      "K": 75,
      "L": 76,
      "Ā": 77,
      "ā": 78,
      "Ă": 79,
      "ă": 80,
      "Ą": 81,
      "ą": 82,
      "Ć": 83,
      "ć": 84,
      "Ĉ": 85,
      "ĉ": 86,
      "Ċ": 87,
      "ċ": 88,
      "Č": 89,
      "č": 90,
      "Ď": 91,
      "ď": 92,
      "Đ": 93,
      "đ": 94,
      "Ē": 95,
      "ē": 96,
      "Ĕ": 97,
      "ĕ": 98,
      "Ė": 99,
      "ė": 100,
      "Ę": 101,
      "ę": 102,
      "Ě": 103,
      "ě": 104,
      "Ĝ": 105,
      "ĝ": 106,
      "Ğ": 107,
      "ğ": 108,
      "Ġ": 109,
      "&&": 110,
      "&&&&": 111,
      "&'": 112,
      "&%": 113,
      "&&%": 114,
      "&&'": 115,
      "ĀĀ": 116,
      "&(": 117,
      "&$": 118,
      "&&$": 119,
      "&&(": 120,
      "&)": 121,
      "&#": 122,
      "%&&": 123,
      "'&&": 124,
      "%&&&&": 125,
      "'&&&&": 126,
      "&*": 127,
      "&\"": 128,
      "&&#": 129,
      "&&)": 130,
      "&'&&&&": 131,
      "&%&&&&": 132,
      "$&&": 133,
      "(&&": 134,
      "&&%&": 135,
      "&&'&": 136,
      "&+": 137,
      "#&&": 138,
      "&!": 139,
      "$&&&&": 140,
      ")&&": 141,
      "(&&&&": 142,
      "&&&&&&&&": 143,
      "&&'&%": 144,
      "&&%&%": 145,
      "&&'&'": 146,
      "&&%&'": 147,
      "*&&": 148,
      "%'": 149,
      "\"&&": 150,
      "'%": 151,
      "&,": 152,
      "''": 153,
      "%%": 154,
      "&&&%": 155,
      "&&&'": 156,
      "&&'&$": 157,
      "&&%&(": 158,
      "&&\"": 159,
      "&&*": 160,
      "&&%&$": 161,
      "#&&&&": 162,
      "&&'&(": 163,
      "&-": 164,
      ")&&&&": 165,
      "&&$&'": 166,
      "&&(&": 167,
      "&&(&%": 168,
      "&&(&'": 169,
      "&&$&": 170,
      "&&$&%": 171,
      "$%": 172,
      "('": 173,
      "(%": 174,
      "&$&&&&": 175,
      "$'": 176,
      "&(&&&&": 177,
      "!&&": 178,
      "&&%&&&&": 179,
      "%&&&%": 180,
      "'&&&'": 181,
      "&&'&&&&": 182,
      "+&&": 183,
      "%(": 184,
      "%Ā": 185,
      "ĀĀ%Ā": 186,
      "%$": 187,
      "'(": 188,
      "&Ā": 189,
      "ĀĀ&Ā": 190,
      "'$": 191,
      "&ğ": 192,
      "$Ā": 193,
      "ĀĀ$Ā": 194,
      "&&%&&": 195,
      "&&'&&": 196,
      "'Ā": 197,
      "ĀĀ'Ā": 198,
      "''&&&&": 199,
      "Ġ&&": 200,
      "%%&&&&": 201,
      "&&$&(": 202,
      "#Ā": 203,
      "ĀĀ#Ā": 204,
      "$(": 205,
      "(Ā": 206,
      "ĀĀ(Ā": 207,
      "&&(&$": 208,
      "&.": 209,
      "&&%&)": 210,
      "%'&&&&": 211,
      "($": 212,
      "&&'&#": 213,
      "&&$&$": 214,
      "'%&&&&": 215,
      "&&(&(": 216,
      "((": 217,
      "\"&&&&": 218,
      "&&'&)": 219,
      "\"Ā": 220,
      "ĀĀ\"Ā": 221,
      "$$": 222,
      "&&%&#": 223,
      ",&&": 224,
      "*&&&&": 225,
      "%&&)": 226,
      "%&&#": 227,
      "&Ğ": 228,
      "'&&#": 229,
      "#'": 230,
      ")Ā": 231,
      "ĀĀ)Ā": 232,
      "'&&)": 233,
      "%)": 234,
      "')": 235,
      "&&&": 236,
      "%#": 237,
      "'#": 238,
      "&&!": 239,
      "$&&&%": 240,
      "!Ā": 241,
      "ĀĀ!Ā": 242,
      ")%": 243,
      "&&'&&'": 244,
      "(&&&'": 245,
      ")'": 246,
      "&&%&&%": 247,
      "#%": 248,
      "*Ā": 249,
      "ĀĀ*Ā": 250,
      "#(": 251,
      "&&'&&%": 252,
      "&/": 253,
      "&&+": 254,
      ")$": 255,
      "&&(&#": 256,
      "&&$&)": 257,
      "#$": 258,
      ")(": 259,
      "&&%&&'": 260,
      "&&)&'": 261,
      "&&$&#": 262,
      "+Ā": 263,
      "ĀĀ+Ā": 264,
      "&&%&*": 265,
      "&&)&%": 266,
      "$)": 267,
      "&&&&%": 268,
      "(#": 269,
      "ğ&&": 270,
      "&&#&'": 271,
      "ĠĀ": 272,
      "&&'&\"": 273,
      "&ĝ": 274,
      "&&#&%": 275,
      "&&&&'": 276,
      "&&(&)": 277,
      "%&&&'": 278,
      "()": 279,
      "-&&": 280,
      "&&(&&": 281,
      ",Ā": 282,
      "ĀĀ,Ā": 283,
      "$#": 284,
      "'&&&%": 285,
      "ğĀ": 286,
      "ĀĀğĀ": 287,
      "!&&&&": 288,
      "%&&\"": 289,
      "&&'&*": 290,
      "%&&*": 291,
      "&&$&&": 292,
      "'&&\"": 293,
      "%*": 294,
      "'\"": 295,
      "&&%&\"": 296,
      "'*": 297,
      "&&#&(": 298,
      "%\"": 299,
      "+&&&&": 300,
      "&&)&$": 301,
      "'&&*": 302,
      "*(": 303,
      "#)": 304,
      "*%": 305,
      "&'&&&&%": 306,
      "&)&&&&": 307,
      "%&&&$": 308,
      "&#&&&&": 309,
      "\"$": 310,
      "-Ā": 311,
      "ĀĀ-Ā": 312,
      "&(&%": 313,
      "*$": 314,
      "\"(": 315,
      "ĞĀ": 316,
      "Ğ&&": 317,
      "ĀĀĞĀ": 318,
      "Ġ&&&&": 319,
      "\"'": 320,
      "))": 321,
      "&Ĝ": 322,
      "$&&*": 323,
      "&''&&&&": 324,
      "##": 325,
      "&&#&$": 326,
      "'(&&&&": 327,
      ".Ā": 328,
      "ĀĀ.Ā": 329,
      "%$&&&&": 330,
      "&&&&&&&&&&&&": 331,
      "&&(&\"": 332,
      ")#": 333,
      "&&$&*": 334,
      "$*": 335,
      "\"%": 336,
      "$%&&&&": 337,
      "&%%&&&&": 338,
      "&&'&&&'": 339,
      "(&&\"": 340,
      "&&)&(": 341,
      "&%&&&&'": 342,
      "$'&&&&": 343,
      "&&)&": 344,
      "(*": 345,
      "&'&&&&'": 346,
      "&&%&&&%": 347,
      "&%&&&&%": 348,
      "*'": 349,
      "&'%&&&&": 350,
      "$&&&$": 351,
      "$\"": 352,
      "(%&&&&": 353,
      "('&&&&": 354,
      "&&#&": 355,
      "'$&&&&": 356,
      "$&&\"": 357,
      ")&&&'": 358,
      "'&&&(": 359,
      "%&&+": 360,
      "'+": 361,
      ".&&": 362,
      "%(&&&&": 363,
      "&&$&\"": 364,
      "&&(&&&&": 365,
      "Ġ(": 366,
      "&&(&*": 367,
      "ĝĀ": 368,
      "ĀĀĝĀ": 369,
      "&&$&&&&": 370,
      "&&#&)": 371,
      "(\"": 372,
      "&&%&+": 373,
      "/Ā": 374,
      "ĀĀ/Ā": 375,
      "'!": 376,
      "#&&&%": 377,
      "\")": 378,
      "%!": 379,
      "ĝ&&": 380,
      "&&'&!": 381,
      "&%&&&&&&": 382,
      "*)": 383,
      "&'&&&&&&": 384,
      "(&&*": 385,
      "&%'&&&&": 386,
      "$+": 387,
      "(&&&(": 388,
      "%+": 389,
      "(+": 390,
      "#&&*": 391,
      "%&&&%&": 392,
      "',": 393,
      "ĜĀ": 394,
      "ĀĀĜĀ": 395,
      "&&'&+": 396,
      "&&%&&&&&&&&": 397,
      "&'%": 398,
      "&&)&#": 399,
      ")&&\"": 400,
      "&&%&!": 401,
      "\"#": 402,
      "'&&&'&": 403,
      "&&'&&&&&&&&": 404,
      "&&'&&(": 405,
      "%&&!": 406,
      "&''": 407,
      "&%'": 408,
      "&'&%": 409,
      ")*": 410,
      "Ġ#": 411,
      "'&&+": 412,
      "!(": 413,
      "&&$&+": 414,
      "&&%&&$": 415,
      "*#": 416,
      "#&&\"": 417,
      ")\"": 418,
      "'&&!": 419,
      "&&)&)": 420,
      "Ġ$": 421,
      "ěĀ": 422,
      "ĀĀěĀ": 423,
      "!$": 424,
      "#\"": 425,
      ")+": 426,
      "&$&%": 427,
      ")&&*": 428,
      "&'&'": 429,
      "/&&": 430,
      "&&'%": 431,
      ",&&&&": 432,
      "Ġ%": 433,
      "&ě": 434,
      "&$&'": 435,
      "&&(&!": 436,
      "$!": 437,
      "&&$&&%": 438,
      "&%&&&&&&&&": 439,
      "(!": 440,
      "Ġ)": 441,
      "&&''": 442,
      "&%&'": 443,
      "&'&&&&&&&&": 444,
      "#+": 445,
      "&&%&&(": 446,
      "&&#&#": 447,
      "#*": 448,
      "$&&+": 449,
      "&%%": 450,
      "(&&+": 451,
      "!%": 452,
      "&&'&&$": 453,
      "&&#&*": 454,
      "**": 455,
      "!'": 456,
      "+$": 457,
      "&&(&&%": 458,
      "+(": 459,
      "Ĝ&&": 460,
      "&&&%&": 461,
      "&\"&&&&": 462,
      "!)": 463,
      "&&(&+": 464,
      "ĚĀ": 465,
      "ĀĀĚĀ": 466,
      "+%": 467,
      "(&&!": 468,
      "Ġ\"": 469,
      "$&&!": 470,
      "&&&'&&&&": 471,
      "&&&'&": 472,
      "ęĀ": 473,
      "ĀĀęĀ": 474,
      "&&#&&": 475,
      "Ġ'": 476,
      "Ġ&(": 477,
      "*\"": 478,
      "'&&&&&": 479,
      "&%(": 480,
      "&&$&!": 481,
      "&(&'": 482,
      "*&&\"": 483,
      ")!": 484,
      "\"&&*": 485,
      "\"\"": 486,
      ",(": 487,
      "Ġ&'": 488,
      "%&&&&&": 489,
      "&*&&&&": 490,
      "&ĀĀ": 491,
      "Ġ!": 492,
      "&%&%": 493,
      "*+": 494,
      "&&,": 495,
      "&%$": 496,
      "#&&+": 497,
      "-ĀĀ": 498,
      "!#": 499,
      "*ĀĀ": 500,
      "&&&&&&&&&&&&&&&&": 501,
      "+#": 502,
      "+'": 503,
      "%&&,": 504,
      "%&&&&%": 505,
      "&&)&\"": 506,
      "+ĀĀ": 507,
      "'&&&&%": 508,
      "&&%&&&&&": 509,
      ",)": 510,
      "#!": 511,
      "&&)&&": 512,
      "&Ě": 513,
      ",ĀĀ": 514,
      "&$%": 515,
      "+)": 516,
      "Ġ&%": 517,
      "&&&%&&&&": 518,
      "((&&&&": 519,
      "&&%'": 520,
      "'&&,": 521,
      ",%": 522,
      "&&ğ": 523,
      ",'": 524,
      "*&&*": 525,
      ")&&&(": 526,
      "&('": 527,
      "ĘĀ": 528,
      "&&'&&&%": 529,
      "Ġ&)": 530,
      "%&&&&'": 531,
      "\"&&\"": 532,
      ",$": 533,
      "/ĀĀ": 534,
      "Ġ*": 535,
      "&&$&,": 536,
      "&&'&&&&&": 537,
      "'&&&)": 538,
      ".ĀĀ": 539,
      "$$&&&&": 540,
      "&'(": 541,
      "#&&!": 542,
      "&&#&+": 543,
      "Ġ+": 544,
      "&(%": 545,
      "ğ)": 546,
      "&$'": 547,
      "&&$&&$": 548,
      "\"*": 549,
      "Ġ&": 550,
      "&&%&&&'": 551,
      "&#&'": 552,
      "(,": 553,
      "&&#&\"": 554,
      ")&&!": 555,
      "&&)&*": 556,
      "&&$&&'": 557,
      "#&&&$": 558,
      "&&(&&'": 559,
      "%&&&&&&": 560,
      "-&&&&": 561,
      "(&&,": 562,
      "&'$": 563,
      "&&%&,": 564,
      "\"!": 565,
      "'&&&&'": 566,
      ")&&+": 567,
      "($&&&&": 568,
      "ėĀ": 569,
      "%'&&%&": 570,
      "$,": 571,
      "ğ&&&&": 572,
      "$&&,": 573,
      "&&%%": 574,
      "*!": 575,
      "ğ%": 576,
      "ğ(": 577,
      "%#&&&&": 578,
      "'%&&'&": 579,
      "&&-": 580,
      "&&(&&(": 581,
      "*&&!": 582,
      "(&&&%": 583,
      "+*": 584,
      "%,": 585,
      "&)&%": 586,
      "ğ$": 587,
      "&&'&&)": 588,
      "Ġ&$": 589,
      "&&'&%&&&&": 590,
      "'&&&&&&": 591,
      "Ġ&*": 592,
      ",#": 593,
      "$(&&&&": 594,
      "-(": 595,
      "ĖĀ": 596,
      "&&%%&&&&": 597,
      "*&&&'": 598,
      "&$&&&&'": 599,
      "!\"": 600,
      ")ĀĀ": 601,
      ",+": 602,
      "\"&&+": 603,
      "&%)": 604,
      "Ġ-": 605,
      "&%#": 606,
      "&(&&&&%": 607,
      "!*": 608,
      "\"+": 609,
      "&(&": 610,
      "&((": 611,
      "%&&ğ": 612,
      "$&&&#": 613,
      "&&%&'&&&&": 614,
      "ě&&": 615,
      "&&%&&#": 616,
      "'&&ğ": 617,
      "&&%&%&&&&": 618,
      "&'#": 619,
      "&&$&&&%": 620,
      "''&&'&": 621,
      "'-": 622,
      "Ā+": 623,
      "&(&$": 624,
      "&&$&&(": 625,
      "'&&&$": 626,
      "&&%&-": 627,
      "&&%&&&%&&&&": 628,
      "&($": 629,
      "&ę": 630,
      "Ġ,": 631,
      "&')": 632,
      "%&&-": 633,
      "\"&&!": 634,
      "')&&&&": 635,
      "Ġ&#": 636,
      "!!": 637,
      "(ĀĀ": 638,
      "&&)&!": 639,
      "#&&,": 640,
      "#,": 641,
      "&$$": 642,
      "&'&&&&&": 643,
      "%&&&%&'": 644,
      "Ġğ": 645,
      "&()": 646,
      "'&&&&&&&&": 647,
      "%&&&%&%": 648,
      "&$(": 649,
      "'&&-": 650,
      "'&&&&&%": 651,
      "$&&&'": 652,
      "&&'&,": 653,
      "&(&&&&'": 654,
      "'&&&'&%": 655,
      "\",": 656,
      "'#&&&&": 657,
      "%&&&&&&&&": 658,
      "'ğ": 659,
      "),": 660,
      "&&(&,": 661,
      "$&&&%&": 662,
      "&&(&&$": 663,
      "&)&'": 664,
      "'&&&'&'": 665,
      "*,": 666,
      "\"&&&%": 667,
      "'ĀĀ": 668,
      "#&&&#": 669,
      "&$#": 670,
      "&$&&&&%": 671,
      "&&Ğ": 672,
      "\"&&&$": 673,
      "%)&&&&": 674,
      "++": 675,
      "$&&-": 676,
      "&&%&&&$": 677,
      "&&%&&)": 678,
      "(ğ": 679,
      ")ğ": 680,
      "&&%&&&'&&&&": 681,
      "(-": 682,
      "%%&&%&": 683,
      "&&'&&&'&&&&": 684,
      "%-": 685,
      "*-": 686,
      "Ā$": 687,
      "&#'": 688,
      "'&&&&&'": 689,
      "%&&&#": 690,
      "%&&&&&'": 691,
      "%&&'&": 692,
      ")-": 693,
      "%&&%&": 694,
      "(&&&'&": 695,
      "\"ĀĀ": 696,
      "Ğ&&&&": 697,
      "&%&&'&": 698,
      "*&&+": 699,
      "&%&&&&&": 700,
      ")&&,": 701,
      "#-": 702,
      "+!": 703,
      "+\"": 704,
      "ĕĀ": 705,
      "&&(&&&'": 706,
      "&'&&&&(": 707,
      "&&\"&%": 708,
      "&'&&%&": 709,
      "&&''&&&&": 710,
      "(&&&)": 711,
      "&!&&&&": 712,
      "&&'&&&%&&&&": 713,
      "$ĀĀ": 714,
      "%ğ": 715,
      ",*": 716,
      "&(*": 717,
      "'%&&'&'": 718,
      "&&'%&&&&": 719,
      "Ġ&+": 720,
      "&&)&+": 721,
      "&&'&ğ": 722,
      "Ğ(": 723,
      "&(#": 724,
      "%'&&%&'": 725,
      "\"ğ": 726,
      "'.": 727,
      "Ğ#": 728,
      "&'&&'&": 729,
      "&*&%": 730,
      "!+": 731,
      "!-": 732,
      "ĔĀ": 733,
      "%&&&&&%": 734,
      "&&*&%": 735,
      ":Ā": 736,
      "&&&%&'": 737,
      "$ğ": 738,
      "&&#&!": 739,
      "$&&ğ": 740,
      "\"&&&#": 741,
      "!&&+": 742,
      "&&.": 743,
      "%&&.": 744,
      "%.": 745,
      "(.": 746,
      ").": 747,
      "&+&&&&": 748,
      "&'&&&&$": 749,
      "Ġ.": 750,
      "'%&&'&%": 751,
      "&&&$": 752,
      "&&%'&&&&": 753,
      "!&&!": 754,
      "&%$&&&&": 755,
      "&(&(": 756,
      "\"-": 757,
      "&)$": 758,
      "(&&-": 759,
      "*.": 760,
      "-$": 761,
      "Ğ!": 762,
      "&&$&-": 763,
      "&&#&,": 764,
      "&%&&&&$": 765,
      "&'*": 766,
      "(&&&&'": 767,
      "*&&&)": 768,
      "%'&&%&%": 769,
      "&&&%&%": 770,
      "ĀĀėĀ": 771,
      "&&$'": 772,
      ")'&&&&": 773,
      "ğ'": 774,
      "Ġ&&\"": 775,
      "ĀĀĘĀ": 776,
      "(&&ğ": 777,
      "(&&&&%": 778,
      ",,": 779,
      "Ğ'": 780,
      "Ġ&&*": 781,
      "&&(%": 782,
      "&Ę": 783,
      ")&&&)": 784,
      ",\"": 785,
      "&)%": 786,
      "%&&Ğ": 787,
      "&&#&&&&": 788,
      "#&&-": 789,
      ")&&ğ": 790,
      "''%&&&&": 791,
      "''&&'&%": 792,
      "&&&'&%": 793,
      "%&&#&%": 794,
      "()&&&&": 795,
      "-'": 796,
      "Ā.": 797,
      "&%&&%&": 798,
      "&&'&'&&&&": 799,
      "&&'&&&(": 800,
      "Ġ&\"": 801,
      "&'&%&&&&": 802,
      "(&&&&&": 803,
      "#ğ": 804,
      "#ĀĀ": 805,
      "&&ĝ": 806,
      "Ğ$": 807,
      "''&&'&'": 808,
      "&$&(": 809,
      "&)'": 810,
      "&%&&&&(": 811,
      "+&&!": 812,
      "'&&.": 813,
      "&&%&.": 814,
      "$&&&&%": 815,
      "#&&ğ": 816,
      "%&&)&%": 817,
      "Ğ)": 818,
      "ğ!": 819,
      "'&&Ğ": 820,
      "&\"&'": 821,
      "$-": 822,
      "Ā-": 823,
      "Ğ\"": 824,
      "&$)": 825,
      "ĠĀĀ": 826,
      "(&&Ğ": 827,
      "&&%$": 828,
      "&&('": 829,
      "$&&.": 830,
      "*&&&(": 831,
      "ğ#": 832,
      "ğ*": 833,
      "&&'&&#": 834,
      "&#%": 835,
      "(%&&'&%": 836,
      "Ā)": 837,
      "&&'&-": 838,
      "'&&#&%": 839,
      "%&&&'&": 840,
      "&&$&&&$": 841,
      "ĝ!": 842,
      "Ġ&,": 843,
      "&&&(": 844,
      "&$*": 845,
      "(&&.": 846,
      "#'&&&&": 847,
      "ğ\"": 848,
      "ĠĞ": 849,
      "(%&&'&": 850,
      "Ā(": 851,
      "&&\"&'": 852,
      "\".": 853,
      "Ā'": 854,
      "&#$": 855,
      "&&(&ğ": 856,
      "!.": 857,
      "#%&&&&": 858,
      ")%&&&&": 859,
      "#&&&'": 860,
      ",-": 861,
      "/&": 862,
      "&&&&$": 863,
      "&&(&-": 864,
      "\"&&-": 865,
      "'''&&&&": 866,
      "%%'&&&&": 867,
      "&&'&&&$": 868,
      "#.": 869,
      "(#&&&&": 870,
      ",!": 871,
      "\"&&,": 872,
      "'&&&'&$": 873,
      "+&&+": 874,
      "'&&#&'": 875,
      "$#&&&&": 876,
      "$&&&&'": 877,
      "'%%&&&&": 878,
      "'''": 879,
      "&&&'&'": 880,
      "&&$&.": 881,
      "('&&'&": 882,
      "&#&%": 883,
      "%&&ĝ": 884,
      "%''&&&&": 885,
      "$'&&%&'": 886,
      "Ġ&&!": 887,
      "%&&#&'": 888,
      "'*&&&&": 889,
      "Ě&&": 890,
      "Ġĝ": 891,
      "&)(": 892,
      ")&&-": 893,
      "*&&,": 894,
      "&&'&&''": 895,
      "&''&&&&&": 896,
      "$&&'&%": 897,
      "%&&%&'": 898,
      "+.": 899,
      "/*": 900,
      "&%&&'&%": 901,
      "&&)&&&&": 902,
      "%%&&%&'": 903,
      "&&*&'": 904,
      "\"ĝ": 905,
      "%ĀĀ": 906,
      "Ā%": 907,
      "&%&&&&&&&&&&&&": 908,
      "%\"&&&&": 909,
      "+-": 910,
      "&&%(": 911,
      "%%&&%&%": 912,
      "(&&&'&%": 913,
      "'&&&%&": 914,
      "$.": 915,
      "%&&%&%": 916,
      "(Ğ": 917,
      "&&'&&'&&&&": 918,
      "$&&&\"": 919,
      "(&&&*": 920,
      "%''": 921,
      "$'&&%&": 922,
      "&&$&&#": 923,
      "$%&&%&%": 924,
      "%&&)&'": 925,
      "(&&&'&'": 926,
      "/-": 927,
      "ĝ#": 928,
      "Ğ&": 929,
      "&%*": 930,
      "$&&&&&": 931,
      "%'%&&&&": 932,
      "/+": 933,
      "Ā#": 934,
      "&&%&&%&&&&": 935,
      "&#(": 936,
      "*&&ğ": 937,
      "&&\"&$": 938,
      "&&*&": 939,
      "!&&,": 940,
      "!&&&#": 941,
      "%Ğ": 942,
      "&'+": 943,
      "&))": 944,
      "%&&&\"": 945,
      "&&)&,": 946,
      "\"&&ğ": 947,
      "$)&&&&": 948,
      "Ğ*": 949,
      "ğ-": 950,
      "&&&&&&": 951,
      "&'&&%&'": 952,
      "%&&&(": 953,
      "&\"#": 954,
      "%&&'&%": 955,
      "/)": 956,
      "&%&&'&'": 957,
      "&'&&&&&&&&&&&&": 958,
      "%%%&&&&": 959,
      "(%&&'&'": 960,
      "&&%&&%'": 961,
      "!ĀĀ": 962,
      "&$%&&&&": 963,
      "&##": 964,
      "&&%&&&%&": 965,
      "%&'&&&&": 966,
      "+,": 967,
      "/&&&&": 968,
      ";Ā": 969,
      "ĝ(": 970,
      "&(\"": 971,
      "&)#": 972,
      "&#*": 973,
      "*&&-": 974,
      "&&*&$": 975,
      "&&'&&%'": 976,
      "Ġ0": 977,
      "&'\"": 978,
      "&&%&&'&&&&": 979,
      "('&&'&'": 980,
      "$&&&%&'": 981,
      "%&&&$&": 982,
      "ēĀ": 983,
      "&'&&%&%": 984,
      "&$\"": 985,
      "#&&.": 986,
      "$%&&%&": 987,
      "Ġ&&+": 988,
      ",&&!": 989,
      "&&'&&&'&": 990,
      "'&&&(&": 991,
      "$Ğ": 992,
      "%&&'&'": 993,
      "ĝ$": 994,
      "&'&&'&%": 995,
      "&%&%&&&&": 996,
      "&&'(": 997,
      "&(!": 998,
      "&&$&&)": 999,
      "%&&&&&&&&&&&&": 1000,
      "$&&Ğ": 1001,
      "&&%&ğ": 1002,
      "\"&&&\"": 1003,
      "$'&&%&%": 1004,
      "-)": 1005,
      "00": 1006,
      "Ġ/": 1007,
      "&'(&&&&": 1008,
      "&%&'&&&&": 1009,
      "&&*&\"": 1010,
      "%&&)&": 1011,
      "'&&#&": 1012,
      "&'&&&&%&": 1013,
      "&%%&&&&&": 1014,
      "!,": 1015,
      "Ġě": 1016,
      "&(+": 1017,
      "'&&&*": 1018,
      "&&#&-": 1019,
      "*&&&*": 1020,
      "'&&)&": 1021,
      "ğ.": 1022,
      "&%\"": 1023
    },
    "merges": [
      "& &",
      "&& &&",
      "& '",
      "& %",
      "&& %",
      "&& '",
      "Ā Ā",
      "& (",
      "& $",
      "&& $",
      "&& (",
      "& )",
      "& #",
      "% &&",
      "' &&",
      "% &&&&",
      "' &&&&",
      "& *",
      "& \"",
      "&& #",
      "&& )",
      "&' &&&&",
      "&% &&&&",
      "$ &&",
      "( &&",
      "&&% &",
      "&&' &",
      "& +",
      "# &&",
      "& !",
      "$ &&&&",
      ") &&",
      "( &&&&",
      "&&&& &&&&",
      "&&' &%",
      "&&% &%",
      "&&' &'",
      "&&% &'",
      "* &&",
      "% '",
      "\" &&",
      "' %",
      "& ,",
      "' '",
      "% %",
      "&& &%",
      "&& &'",
      "&&' &$",
      "&&% &(",
      "&& \"",
      "&& *",
      "&&% &$",
      "# &&&&",
      "&&' &(",
      "& -",
      ") &&&&",
      "&&$ &'",
      "&&( &",
      "&&( &%",
      "&&( &'",
      "&&$ &",
      "&&$ &%",
      "$ %",
      "( '",
      "( %",
      "&$ &&&&",
      "$ '",
      "&( &&&&",
      "! &&",
      "&&% &&&&",
      "%&& &%",
      "'&& &'",
      "&&' &&&&",
      "+ &&",
      "% (",
      "% Ā",
      "ĀĀ %Ā",
      "% $",
      "' (",
      "& Ā",
      "ĀĀ &Ā",
      "' $",
      "& ğ",
      "$ Ā",
      "ĀĀ $Ā",
      "&&% &&",
      "&&' &&",
      "' Ā",
      "ĀĀ 'Ā",
      "' '&&&&",
      "Ġ &&",
      "% %&&&&",
      "&&$ &(",
      "# Ā",
      "ĀĀ #Ā",
      "$ (",
      "( Ā",
      "ĀĀ (Ā",
      "&&( &$",
      "& .",
      "&&% &)",
      "% '&&&&",
      "( $",
      "&&' &#",
      "&&$ &$",
      "' %&&&&",
      "&&( &(",
      "( (",
      "\" &&&&",
      "&&' &)",
      "\" Ā",
      "ĀĀ \"Ā",
      "$ $",
      "&&% &#",
      ", &&",
      "* &&&&",
      "%&& )",
      "%&& #",
      "& Ğ",
      "'&& #",
      "# '",
      ") Ā",
      "ĀĀ )Ā",
      "'&& )",
      "% )",
      "' )",
      "&& &",
      "% #",
      "' #",
      "&& !",
      "$&& &%",
      "! Ā",
      "ĀĀ !Ā",
      ") %",
      "&&' &&'",
      "(&& &'",
      ") '",
      "&&% &&%",
      "# %",
      "* Ā",
      "ĀĀ *Ā",
      "# (",
      "&&' &&%",
      "& /",
      "&& +",
      ") $",
      "&&( &#",
      "&&$ &)",
      "# $",
      ") (",
      "&&% &&'",
      "&&) &'",
      "&&$ &#",
      "+ Ā",
      "ĀĀ +Ā",
      "&&% &*",
      "&&) &%",
      "$ )",
      "&&&& %",
      "( #",
      "ğ &&",
      "&&# &'",
      "Ġ Ā",
      "&&' &\"",
      "& ĝ",
      "&&# &%",
      "&&&& '",
      "&&( &)",
      "%&& &'",
      "( )",
      "- &&",
      "&&( &&",
      ", Ā",
      "ĀĀ ,Ā",
      "$ #",
      "'&& &%",
      "ğ Ā",
      "ĀĀ ğĀ",
      "! &&&&",
      "%&& \"",
      "&&' &*",
      "%&& *",
      "&&$ &&",
      "'&& \"",
      "% *",
      "' \"",
      "&&% &\"",
      "' *",
      "&&# &(",
      "% \"",
      "+ &&&&",
      "&&) &$",
      "'&& *",
      "* (",
      "# )",
      "* %",
      "&'&&&& %",
      "&) &&&&",
      "%&& &$",
      "&# &&&&",
      "\" $",
      "- Ā",
      "ĀĀ -Ā",
      "&( &%",
      "* $",
      "\" (",
      "Ğ Ā",
      "Ğ &&",
      "ĀĀ ĞĀ",
      "Ġ &&&&",
      "\" '",
      ") )",
      "& Ĝ",
      "$&& *",
      "&' '&&&&",
      "# #",
      "&&# &$",
      "' (&&&&",
      ". Ā",
      "ĀĀ .Ā",
      "% $&&&&",
      "&&&&&&&& &&&&",
      "&&( &\"",
      ") #",
      "&&$ &*",
      "$ *",
      "\" %",
      "$ %&&&&",
      "&% %&&&&",
      "&&' &&&'",
      "(&& \"",
      "&&) &(",
      "&%&&&& '",
      "$ '&&&&",
      "&&) &",
      "( *",
      "&'&&&& '",
      "&&% &&&%",
      "&%&&&& %",
      "* '",
      "&' %&&&&",
      "$&& &$",
      "$ \"",
      "( %&&&&",
      "( '&&&&",
      "&&# &",
      "' $&&&&",
      "$&& \"",
      ")&& &'",
      "'&& &(",
      "%&& +",
      "' +",
      ". &&",
      "% (&&&&",
      "&&$ &\"",
      "&&( &&&&",
      "Ġ (",
      "&&( &*",
      "ĝ Ā",
      "ĀĀ ĝĀ",
      "&&$ &&&&",
      "&&# &)",
      "( \"",
      "&&%& +",
      "/ Ā",
      "ĀĀ /Ā",
      "' !",
      "#&& &%",
      "\" )",
      "% !",
      "ĝ &&",
      "&&'& !",
      "&%&&&& &&",
      "* )",
      "&'&&&& &&",
      "(&& *",
      "&% '&&&&",
      "$ +",
      "(&& &(",
      "% +",
      "( +",
      "#&& *",
      "%&&&% &",
      "' ,",
      "Ĝ Ā",
      "ĀĀ ĜĀ",
      "&&'& +",
      "&&% &&&&&&&&",
      "&' %",
      "&&) &#",
      ")&& \"",
      "&&%& !",
      "\" #",
      "'&&&' &",
      "&&' &&&&&&&&",
      "&&' &&(",
      "%&& !",
      "&' '",
      "&% '",
      "&' &%",
      ") *",
      "Ġ #",
      "'&& +",
      "! (",
      "&&$ &+",
      "&&% &&$",
      "* #",
      "#&& \"",
      ") \"",
      "'&& !",
      "&&) &)",
      "Ġ $",
      "ě Ā",
      "ĀĀ ěĀ",
      "! $",
      "# \"",
      ") +",
      "&$ &%",
      ")&& *",
      "&' &'",
      "/ &&",
      "&&' %",
      ", &&&&",
      "Ġ %",
      "& ě",
      "&$ &'",
      "&&( &!",
      "$ !",
      "&&$ &&%",
      "&%&&&& &&&&",
      "( !",
      "Ġ )",
      "&&' '",
      "&% &'",
      "&'&&&& &&&&",
      "# +",
      "&&% &&(",
      "&&# &#",
      "# *",
      "$&& +",
      "&% %",
      "(&& +",
      "! %",
      "&&' &&$",
      "&&# &*",
      "* *",
      "! '",
      "+ $",
      "&&( &&%",
      "+ (",
      "Ĝ &&",
      "&&&% &",
      "&\" &&&&",
      "! )",
      "&&( &+",
      "Ě Ā",
      "ĀĀ ĚĀ",
      "+ %",
      "(&& !",
      "Ġ \"",
      "$&& !",
      "&& &'&&&&",
      "&&&' &",
      "ę Ā",
      "ĀĀ ęĀ",
      "&&# &&",
      "Ġ '",
      "Ġ &(",
      "* \"",
      "'&&&& &",
      "&% (",
      "&&$ &!",
      "&( &'",
      "*&& \"",
      ") !",
      "\"&& *",
      "\" \"",
      ", (",
      "Ġ &'",
      "%&&&& &",
      "&* &&&&",
      "& ĀĀ",
      "Ġ !",
      "&% &%",
      "* +",
      "&& ,",
      "&% $",
      "#&& +",
      "- ĀĀ",
      "! #",
      "* ĀĀ",
      "&&&&&&&& &&&&&&&&",
      "+ #",
      "+ '",
      "%&& ,",
      "%&&&& %",
      "&&) &\"",
      "+ ĀĀ",
      "'&&&& %",
      "&&%&&&& &",
      ", )",
      "# !",
      "&&) &&",
      "& Ě",
      ", ĀĀ",
      "&$ %",
      "+ )",
      "Ġ &%",
      "&& &%&&&&",
      "( (&&&&",
      "&&% '",
      "'&& ,",
      ", %",
      "&& ğ",
      ", '",
      "*&& *",
      ")&& &(",
      "&( '",
      "Ę Ā",
      "&&' &&&%",
      "Ġ &)",
      "%&&&& '",
      "\"&& \"",
      ", $",
      "/ ĀĀ",
      "Ġ *",
      "&&$ &,",
      "&&'&&&& &",
      "'&& &)",
      ". ĀĀ",
      "$ $&&&&",
      "&' (",
      "#&& !",
      "&&# &+",
      "Ġ +",
      "&( %",
      "ğ )",
      "&$ '",
      "&&$ &&$",
      "\" *",
      "Ġ &",
      "&&% &&&'",
      "&# &'",
      "( ,",
      "&&# &\"",
      ")&& !",
      "&&) &*",
      "&&$ &&'",
      "#&& &$",
      "&&( &&'",
      "%&&&& &&",
      "- &&&&",
      "(&& ,",
      "&' $",
      "&&%& ,",
      "\" !",
      "'&&&& '",
      ")&& +",
      "( $&&&&",
      "ė Ā",
      "%' &&%&",
      "$ ,",
      "ğ &&&&",
      "$&& ,",
      "&&% %",
      "* !",
      "ğ %",
      "ğ (",
      "% #&&&&",
      "'% &&'&",
      "&& -",
      "&&( &&(",
      "*&& !",
      "(&& &%",
      "+ *",
      "% ,",
      "&) &%",
      "ğ $",
      "&&' &&)",
      "Ġ &$",
      "&&' &%&&&&",
      "'&&&& &&",
      "Ġ &*",
      ", #",
      "$ (&&&&",
      "- (",
      "Ė Ā",
      "&&% %&&&&",
      "*&& &'",
      "&$&&&& '",
      "! \"",
      ") ĀĀ",
      ", +",
      "\"&& +",
      "&% )",
      "Ġ -",
      "&% #",
      "&(&&&& %",
      "! *",
      "\" +",
      "&( &",
      "&( (",
      "%&& ğ",
      "$&& &#",
      "&&% &'&&&&",
      "ě &&",
      "&&% &&#",
      "'&& ğ",
      "&&% &%&&&&",
      "&' #",
      "&&$ &&&%",
      "'' &&'&",
      "' -",
      "Ā +",
      "&( &$",
      "&&$ &&(",
      "'&& &$",
      "&&%& -",
      "&&%&& &%&&&&",
      "&( $",
      "& ę",
      "Ġ ,",
      "&' )",
      "%&& -",
      "\"&& !",
      "' )&&&&",
      "Ġ &#",
      "! !",
      "( ĀĀ",
      "&&) &!",
      "#&& ,",
      "# ,",
      "&$ $",
      "&'&&&& &",
      "%&&&% &'",
      "Ġ ğ",
      "&( )",
      "'&&&& &&&&",
      "%&&&% &%",
      "&$ (",
      "'&& -",
      "'&&&& &%",
      "$&& &'",
      "&&'& ,",
      "&(&&&& '",
      "'&&&' &%",
      "\" ,",
      "' #&&&&",
      "%&&&& &&&&",
      "' ğ",
      ") ,",
      "&&( &,",
      "$&&&% &",
      "&&( &&$",
      "&) &'",
      "'&&&' &'",
      "* ,",
      "\"&& &%",
      "' ĀĀ",
      "#&& &#",
      "&$ #",
      "&$&&&& %",
      "&& Ğ",
      "\"&& &$",
      "% )&&&&",
      "+ +",
      "$&& -",
      "&&%&& &$",
      "&&% &&)",
      "( ğ",
      ") ğ",
      "&&%&& &'&&&&",
      "( -",
      "%% &&%&",
      "&&'&& &'&&&&",
      "% -",
      "* -",
      "Ā $",
      "&# '",
      "'&&&& &'",
      "%&& &#",
      "%&&&& &'",
      "% &&'&",
      ") -",
      "% &&%&",
      "(&&&' &",
      "\" ĀĀ",
      "Ğ &&&&",
      "&% &&'&",
      "*&& +",
      "&%&&&& &",
      ")&& ,",
      "# -",
      "+ !",
      "+ \"",
      "ĕ Ā",
      "&&( &&&'",
      "&'&&&& (",
      "&&\" &%",
      "&' &&%&",
      "&&' '&&&&",
      "(&& &)",
      "&! &&&&",
      "&&'&& &%&&&&",
      "$ ĀĀ",
      "% ğ",
      ", *",
      "&( *",
      "'% &&'&'",
      "&&' %&&&&",
      "Ġ &+",
      "&&) &+",
      "&&'& ğ",
      "Ğ (",
      "&( #",
      "%' &&%&'",
      "\" ğ",
      "' .",
      "Ğ #",
      "&' &&'&",
      "&* &%",
      "! +",
      "! -",
      "Ĕ Ā",
      "%&&&& &%",
      "&&* &%",
      ": Ā",
      "&&&% &'",
      "$ ğ",
      "&&# &!",
      "$&& ğ",
      "\"&& &#",
      "!&& +",
      "&& .",
      "%&& .",
      "% .",
      "( .",
      ") .",
      "&+ &&&&",
      "&'&&&& $",
      "Ġ .",
      "'% &&'&%",
      "&& &$",
      "&&% '&&&&",
      "!&& !",
      "&% $&&&&",
      "&( &(",
      "\" -",
      "&) $",
      "(&& -",
      "* .",
      "- $",
      "Ğ !",
      "&&$ &-",
      "&&# &,",
      "&%&&&& $",
      "&' *",
      "(&&&& '",
      "*&& &)",
      "%' &&%&%",
      "&&&% &%",
      "ĀĀ ėĀ",
      "&&$ '",
      ") '&&&&",
      "ğ '",
      "Ġ &&\"",
      "ĀĀ ĘĀ",
      "(&& ğ",
      "(&&&& %",
      ", ,",
      "Ğ '",
      "Ġ &&*",
      "&&( %",
      "& Ę",
      ")&& &)",
      ", \"",
      "&) %",
      "%&& Ğ",
      "&&# &&&&",
      "#&& -",
      ")&& ğ",
      "'' %&&&&",
      "'' &&'&%",
      "&&&' &%",
      "%&&# &%",
      "( )&&&&",
      "- '",
      "Ā .",
      "&% &&%&",
      "&&' &'&&&&",
      "&&'&& &(",
      "Ġ &\"",
      "&' &%&&&&",
      "(&&&& &",
      "# ğ",
      "# ĀĀ",
      "&& ĝ",
      "Ğ $",
      "'' &&'&'",
      "&$ &(",
      "&) '",
      "&%&&&& (",
      "+&& !",
      "'&& .",
      "&&%& .",
      "$&&&& %",
      "#&& ğ",
      "%&&) &%",
      "Ğ )",
      "ğ !",
      "'&& Ğ",
      "&\" &'",
      "$ -",
      "Ā -",
      "Ğ \"",
      "&$ )",
      "Ġ ĀĀ",
      "(&& Ğ",
      "&&% $",
      "&&( '",
      "$&& .",
      "*&& &(",
      "ğ #",
      "ğ *",
      "&&' &&#",
      "&# %",
      "(% &&'&%",
      "Ā )",
      "&&'& -",
      "'&&# &%",
      "%&&&' &",
      "&&$&& &$",
      "ĝ !",
      "Ġ &,",
      "&& &(",
      "&$ *",
      "(&& .",
      "# '&&&&",
      "ğ \"",
      "Ġ Ğ",
      "(% &&'&",
      "Ā (",
      "&&\" &'",
      "\" .",
      "Ā '",
      "&# $",
      "&&(& ğ",
      "! .",
      "# %&&&&",
      ") %&&&&",
      "#&& &'",
      ", -",
      "/ &",
      "&&&& $",
      "&&( &-",
      "\"&& -",
      "'' '&&&&",
      "%% '&&&&",
      "&&'&& &$",
      "# .",
      "( #&&&&",
      ", !",
      "\"&& ,",
      "'&&&' &$",
      "+&& +",
      "'&&# &'",
      "$ #&&&&",
      "$&&&& '",
      "'% %&&&&",
      "'' '",
      "&&&' &'",
      "&&$& .",
      "(' &&'&",
      "&# &%",
      "%&& ĝ",
      "%' '&&&&",
      "$' &&%&'",
      "Ġ&& !",
      "%&&# &'",
      "' *&&&&",
      "Ě &&",
      "Ġ ĝ",
      "&) (",
      ")&& -",
      "*&& ,",
      "&&'&&' '",
      "&''&&&& &",
      "$ &&'&%",
      "% &&%&'",
      "+ .",
      "/ *",
      "&% &&'&%",
      "&&) &&&&",
      "%% &&%&'",
      "&&* &'",
      "\" ĝ",
      "% ĀĀ",
      "Ā %",
      "&%&&&& &&&&&&&&",
      "% \"&&&&",
      "+ -",
      "&&% (",
      "%% &&%&%",
      "(&&&' &%",
      "'&&&% &",
      "$ .",
      "% &&%&%",
      "( Ğ",
      "&&' &&'&&&&",
      "$&& &\"",
      "(&& &*",
      "%' '",
      "$' &&%&",
      "&&$ &&#",
      "$% &&%&%",
      "%&&) &'",
      "(&&&' &'",
      "/ -",
      "ĝ #",
      "Ğ &",
      "&% *",
      "$&&&& &",
      "%' %&&&&",
      "/ +",
      "Ā #",
      "&&% &&%&&&&",
      "&# (",
      "*&& ğ",
      "&&\" &$",
      "&&* &",
      "!&& ,",
      "!&& &#",
      "% Ğ",
      "&' +",
      "&) )",
      "%&& &\"",
      "&&) &,",
      "\"&& ğ",
      "$ )&&&&",
      "Ğ *",
      "ğ -",
      "&&&& &&",
      "&' &&%&'",
      "%&& &(",
      "&\" #",
      "% &&'&%",
      "/ )",
      "&% &&'&'",
      "&'&&&& &&&&&&&&",
      "%% %&&&&",
      "(% &&'&'",
      "&&%&&% '",
      "! ĀĀ",
      "&$ %&&&&",
      "&# #",
      "&&%&&&% &",
      "% &'&&&&",
      "+ ,",
      "/ &&&&",
      "; Ā",
      "ĝ (",
      "&( \"",
      "&) #",
      "&# *",
      "*&& -",
      "&&* &$",
      "&&'&&% '",
      "Ġ 0",
      "&' \"",
      "&&% &&'&&&&",
      "(' &&'&'",
      "$&&&% &'",
      "%&&&$ &",
      "ē Ā",
      "&' &&%&%",
      "&$ \"",
      "#&& .",
      "$% &&%&",
      "Ġ&& +",
      ",&& !",
      "&&'&&&' &",
      "'&&&( &",
      "$ Ğ",
      "% &&'&'",
      "ĝ $",
      "&' &&'&%",
      "&% &%&&&&",
      "&&' (",
      "&( !",
      "&&$ &&)",
      "%&&&& &&&&&&&&",
      "$&& Ğ",
      "&&%& ğ",
      "\"&& &\"",
      "$' &&%&%",
      "- )",
      "0 0",
      "Ġ /",
      "&' (&&&&",
      "&% &'&&&&",
      "&&* &\"",
      "%&&) &",
      "'&&# &",
      "&'&&&&% &",
      "&%%&&&& &",
      "! ,",
      "Ġ ě",
      "&( +",
      "'&& &*",
      "&&# &-",
      "*&& &*",
      "'&&) &",
      "ğ .",
      "&% \""
    ]
  }
}