{
  "version": "1.0",
  "truncation": null,
  "padding": null,
  "added_tokens": [],
  "normalizer": null,
  "pre_tokenizer": {
    "type": "ByteLevel",
    "add_prefix_space": false,
    "trim_offsets": true,
    "use_regex": true
  },
  "post_processor": {
    "type": "ByteLevel",
    "add_prefix_space": true,
    "trim_offsets": false,
    "use_regex": true
  },
  "decoder": {
    "type": "ByteLevel",
    "add_prefix_space": true,
    "trim_offsets": true,
    "use_regex": true
  },
  "model": {
    "type": "BPE",
    "dropout": null,
    "unk_token": null,
    "continuing_subword_prefix": null,
    "end_of_word_suffix": null,
    "fuse_unk": false,
    "byte_fallback": false,
    "ignore_merges": false,
    "vocab": {
      "\u0000": 0,
      "\u0001": 1,
      "\u0002": 2,
      "\u0003": 3,
      "\u0004": 4,
      "\u0005": 5,
      "\u0006": 6,
      "\u0007": 7,
      "\b": 8,
      "\t": 9,
      "\n": 10,
      "\u000b": 11,
      "\f": 12,
      "\r": 13,
      "\u000e": 14,
      "\u000f": 15,
      "\u0010": 16,
      "\u0011": 17,
      "\u0012": 18,
      "\u0013": 19,
      "\u0014": 20,
      "\u0015": 21,
      "\u0016": 22,
      "\u0017": 23,
      "\u0018": 24,
      "\u0019": 25,
      "\u001a": 26,
      "\u001b": 27,
      "\u001c": 28,
      "\u001d": 29,
      "\u001e": 30,
      "\u001f": 31,
      " ": 32,
      "!": 33,
      "\"": 34,
      "#": 35,
      "$": 36,
      "%": 37,
      "&": 38,
      "'": 39,
      "(": 40,
      ")": 41,
      "*": 42,
      "+": 43,
      ",": 44,
      "-": 45,
      ".": 46,
      "/": 47,
      "0": 48,
      "1": 49,
      "2": 50,
      "3": 51,
      "4": 52,
      "5": 53,
      "6": 54,
      "7": 55,
      "8": 56,
      "9": 57,
      ":": 58,
      ";": 59,
      "<": 60,
      "=": 61,
      ">": 62,
      "?": 63,
      "@": 64,
      "A": 65,
      "B": 66,
      "C": 67,
      "D": 68,
      "E": 69,
      "F": 70,
      "G": 71,
      "H": 72,
      "I": 73,
      "J": 74,
      "K": 75,
      "L": 76,
      "M": 77,
      "N": 78,
      "O": 79,
      "P": 80,
      "Q": 81,
      "R": 82,
      "Ā": 83,
      "ą": 84,
      "Ć": 85,
      "ć": 86,
      "Ĉ": 87,
      "ĉ": 88,
      "Ċ": 89,
      "ċ": 90,
      "Č": 91,
      "č": 92,
      "Ď": 93,
      "ď": 94,
      "Đ": 95,
      "đ": 96,
      "Ē": 97,
      "ē": 98,
      "Ĕ": 99,
      "ĕ": 100,
      "Ė": 101,
      "ė": 102,
      "Ę": 103,
      "ę": 104,
      "Ě": 105,
      "ě": 106,
      "Ĝ": 107,
      "ĝ": 108,
      "Ğ": 109,
      "ğ": 110,
      "Ġ": 111,
      "--": 112,
      "----": 113,
      "-.": 114,
      "-,": 115,
      "--.": 116,
      "--,": 117,
      "-/": 118,
      "-+": 119,
      "--/": 120,
      "--+": 121,
      "-*": 122,
      "ĀĀ": 123,
      ".----": 124,
      ",----": 125,
      ".--": 126,
      ",--": 127,
      "+--": 128,
      "-)": 129,
      "-.----": 130,
      "-,----": 131,
      "/--": 132,
      "--,-": 133,
      "--.-": 134,
      "*--": 135,
      "--------": 136,
      ",--.": 137,
      "--*": 138,
      ".--,": 139,
      "---.": 140,
      "+----": 141,
      "/----": 142,
      "---": 143,
      ".--.": 144,
      ",--,": 145,
      "---,": 146,
      "-(": 147,
      "-,,": 148,
      "-..": 149,
      "--+-": 150,
      "-,.": 151,
      "--/-": 152,
      "-.,": 153,
      "--)": 154,
      "----.": 155,
      "----,": 156,
      ")--": 157,
      "+--.": 158,
      "---/": 159,
      ".---.": 160,
      "/--,": 161,
      ",---,": 162,
      ",--/": 163,
      "-./": 164,
      ".--+": 165,
      "-'": 166,
      "+--,": 167,
      "-/.": 168,
      "(--": 169,
      "/--.": 170,
      "-+,": 171,
      "-+.": 172,
      "-,+": 173,
      "-,/": 174,
      ".--/": 175,
      "-/,": 176,
      "-.+": 177,
      ",--+": 178,
      "00": 179,
      "--.----": 180,
      "--,----": 181,
      "--(": 182,
      "*----": 183,
      "-+----": 184,
      "-&": 185,
      "*-": 186,
      "-/----": 187,
      ",----,": 188,
      "---+": 189,
      "---,----": 190,
      "-//": 191,
      ".----.": 192,
      ",----.": 193,
      "-++": 194,
      "---.----": 195,
      "+--/": 196,
      "-,--,": 197,
      "-,--.": 198,
      ".----,": 199,
      "--'": 200,
      "*--.": 201,
      "/--+": 202,
      "-.--,": 203,
      "-.--.": 204,
      "-+/": 205,
      "-/+": 206,
      "/--/": 207,
      "*--,": 208,
      "+--+": 209,
      "+---,": 210,
      "01": 211,
      "-*,": 212,
      "/---.": 213,
      "'--": 214,
      ",--.-": 215,
      ".--,-": 216,
      "-,*": 217,
      "10": 218,
      "-*.": 219,
      "--*-": 220,
      ",--,-": 221,
      "-..----": 222,
      "----/": 223,
      "-.*": 224,
      ")-": 225,
      "-,,----": 226,
      "-,----.": 227,
      ".--.-": 228,
      ".--*": 229,
      ",---.": 230,
      "--&": 231,
      "-+-": 232,
      "*--/": 233,
      "----+": 234,
      "-,.----": 235,
      "-+*": 236,
      "(-": 237,
      "-.----,": 238,
      "-*+": 239,
      "-,----,": 240,
      ".Ā": 241,
      "ĀĀ.Ā": 242,
      "-%": 243,
      "11": 244,
      "-.,----": 245,
      "-Ā": 246,
      "ĀĀ-Ā": 247,
      ".---,": 248,
      "-.----.": 249,
      ",--*": 250,
      "+Ā": 251,
      "ĀĀ+Ā": 252,
      "20": 253,
      "--.---.": 254,
      "--,-.": 255,
      "02": 256,
      "*Ā": 257,
      "ĀĀ*Ā": 258,
      ".---/": 259,
      "--)-": 260,
      "+,": 261,
      ",Ā": 262,
      "ĀĀ,Ā": 263,
      "*--+": 264,
      "&--": 265,
      "-/*": 266,
      "-),": 267,
      "'-": 268,
      "-*-": 269,
      "-+)": 270,
      "--,-,": 271,
      "--.-,": 272,
      "--,---,": 273,
      "--.-.": 274,
      "/.": 275,
      "-*/": 276,
      ")----": 277,
      "-$": 278,
      "/Ā": 279,
      "ĀĀ/Ā": 280,
      "------------": 281,
      "21": 282,
      "/----,": 283,
      "%--": 284,
      "/--*": 285,
      ")Ā": 286,
      "ĀĀ)Ā": 287,
      "-).": 288,
      "+--,-": 289,
      "-**": 290,
      "30": 291,
      "/----.": 292,
      "-,)": 293,
      "+--*": 294,
      ",---+": 295,
      "-)+": 296,
      "/---/": 297,
      "+----.": 298,
      "+.": 299,
      "+--.-": 300,
      "-/)": 301,
      "-.)": 302,
      "/,": 303,
      "+----,": 304,
      ")--.": 305,
      "/--,-": 306,
      "12": 307,
      "/--.-": 308,
      "-,-": 309,
      "Ā.": 310,
      "--%": 311,
      ")--,": 312,
      ".,----": 313,
      ".--+-": 314,
      ".--)": 315,
      "..----": 316,
      "Ā*": 317,
      "-,.---.": 318,
      "ĀĀ(": 319,
      "---*": 320,
      "-+--.": 321,
      ",--)": 322,
      ",,----": 323,
      "Ā,": 324,
      "/---": 325,
      "&-": 326,
      "---.-": 327,
      ".-----": 328,
      ")--/": 329,
      "-..---.": 330,
      "--(-": 331,
      ".---": 332,
      "----*": 333,
      "-.,---,": 334,
      "+---+": 335,
      "-/--,": 336,
      "03": 337,
      "--$": 338,
      "Ā/": 339,
      "Ā+": 340,
      "ĀĀ'": 341,
      "--..----": 342,
      "-)/": 343,
      "*---,": 344,
      ",--/-": 345,
      "22": 346,
      "--,,----": 347,
      "-,-.----": 348,
      "-*)": 349,
      "-#": 350,
      "*--*": 351,
      "-.(": 352,
      "-+(": 353,
      ")--+": 354,
      ",.----": 355,
      ".--/-": 356,
      "--.,----": 357,
      "-)*": 358,
      "31": 359,
      "/ĀĀ": 360,
      "Ā)": 361,
      "-+--,": 362,
      "40": 363,
      "-*----": 364,
      "---,-": 365,
      "--,.----": 366,
      "-)-": 367,
      "-----": 368,
      "-,,---,": 369,
      "-+----.": 370,
      ",--+-": 371,
      "-.-": 372,
      "ĀĀ%": 373,
      "-.-.----": 374,
      "-,--": 375,
      "--,-/": 376,
      "-.--": 377,
      "-.--+": 378,
      "Ā(": 379,
      "/--+-": 380,
      "------.": 381,
      "-.-,----": 382,
      "-----,": 383,
      ".,--.": 384,
      "-/--.": 385,
      ".--(": 386,
      "*--,-": 387,
      "13": 388,
      "/--/-": 389,
      "-,(": 390,
      ",,--,": 391,
      "$--": 392,
      ",----+": 393,
      "---.--.": 394,
      ".--,-,": 395,
      "-,--+": 396,
      "#-": 397,
      "23": 398,
      "--'-": 399,
      "+--+-": 400,
      "+ĀĀ": 401,
      "..--.": 402,
      "------,": 403,
      "-/----,": 404,
      ".----/": 405,
      "/--)": 406,
      "*--.-": 407,
      "--.,--.": 408,
      ",--*-": 409,
      ",ĀĀ": 410,
      ".--,-.": 411,
      "-.--/": 412,
      "-,--/": 413,
      "14": 414,
      "+--/-": 415,
      "%-": 416,
      "-----.": 417,
      "04": 418,
      ",----/": 419,
      "-,-,----": 420,
      ".----+": 421,
      "--,,--,": 422,
      "+--)": 423,
      "-/-": 424,
      ",-----": 425,
      "-/(": 426,
      ".--*-": 427,
      "Ā'": 428,
      "*---+": 429,
      "41": 430,
      "--..--.": 431,
      ".ĀĀ": 432,
      "32": 433,
      "-*(": 434,
      "*ĀĀ": 435,
      "(----": 436,
      "*----.": 437,
      "$-": 438,
      "-/----.": 439,
      "-))": 440,
      ")ĀĀ": 441,
      "--.-+": 442,
      "-\"": 443,
      "-..,--.": 444,
      "#--": 445,
      "-,..--.": 446,
      "50": 447,
      "(--,": 448,
      "-+----,": 449,
      "---.--,": 450,
      "----------------": 451,
      "-,+----": 452,
      "*--)": 453,
      "/,--.": 454,
      "--.--,": 455,
      "---,--,": 456,
      "-,--------": 457,
      "-(,": 458,
      "Ā%": 459,
      "-,,.--,": 460,
      "--&-": 461,
      "(--/": 462,
      "*----,": 463,
      "Ā&": 464,
      "--+-.": 465,
      "-.------": 466,
      "---,--.": 467,
      ",.--,": 468,
      "--+-,": 469,
      "ĀĀ$": 470,
      ",--(": 471,
      "-(+": 472,
      "----)": 473,
      "--,.--,": 474,
      "\"-": 475,
      "33": 476,
      "-/.----": 477,
      "-+,----": 478,
      "/--(": 479,
      ".--.-.": 480,
      "-,.,--.": 481,
      "-/--": 482,
      "+)": 483,
      "+--*-": 484,
      "*,": 485,
      "--/---.": 486,
      "-.--------": 487,
      "*--+-": 488,
      "//": 489,
      "+---.": 490,
      ",---": 491,
      "(--.": 492,
      "-.-,--,": 493,
      "---/-": 494,
      "-,------,": 495,
      ".---.-": 496,
      "ĀĀ&": 497,
      "*--/-": 498,
      "/.--": 499,
      "-,------.": 500,
      "++": 501,
      "-.-,--.": 502,
      "--,--.": 503,
      "-.,,--,": 504,
      ".+----": 505,
      "--/-/": 506,
      "--/-,": 507,
      ".---+": 508,
      "-,,,--,": 509,
      "42": 510,
      "--+----": 511,
      "-,------": 512,
      "/--*-": 513,
      "05": 514,
      "-.--.-": 515,
      "--/----": 516,
      "-(.": 517,
      "ĀĀ(Ā": 518,
      "+--(": 519,
      "-)(": 520,
      "-.------,": 521,
      "--#": 522,
      ".--------": 523,
      ",-----,": 524,
      "-(*": 525,
      ")--*": 526,
      ",--'": 527,
      ",---/": 528,
      "-.------.": 529,
      "/-----": 530,
      "---)": 531,
      "--/,--.": 532,
      "-ĀĀ": 533,
      "51": 534,
      "-,--,-": 535,
      "--+---,": 536,
      "----.,": 537,
      "24": 538,
      "--.-/": 539,
      ".--)-": 540,
      "--------.": 541,
      "ĀĀ'Ā": 542,
      "(+": 543,
      "(.": 544,
      ".--'": 545,
      "-.--,-": 546,
      "-,'": 547,
      "-.,.--,": 548,
      ")--,-": 549,
      ")--.-": 550,
      "-,-,--.": 551,
      ",---*": 552,
      "+---,-": 553,
      "-.'": 554,
      "--,--,": 555,
      "-+--": 556,
      "-,,.----": 557,
      "+(": 558,
      "-,-.--,": 559,
      "-/,---,": 560,
      ",--------": 561,
      "/----/": 562,
      "-...--.": 563,
      "-,..----": 564,
      "----,,": 565,
      "/---.-": 566,
      "-!": 567,
      "-,--.-": 568,
      ":-": 569,
      "Ā-": 570,
      "/---,": 571,
      "--*--": 572,
      "-.-.--.": 573,
      "--,---+": 574,
      "-*--.": 575,
      "--------,": 576,
      "---(": 577,
      "-*'": 578,
      "-()": 579,
      "-..,----": 580,
      "+.--,": 581,
      "-,----/": 582,
      ",--,-.": 583,
      "-...----": 584,
      "-,-.--.": 585,
      "-,,---.": 586,
      "--,-+": 587,
      "-.------------": 588,
      "-(/": 589,
      "\"--": 590,
      "/.--.": 591,
      "--+-+": 592,
      "-,----+": 593,
      "/--)-": 594,
      "+----+": 595,
      "(,": 596,
      ".,--": 597,
      "-/--/": 598,
      "52": 599,
      ".+--.": 600,
      "43": 601,
      "-+.----": 602,
      "!-": 603,
      "'(": 604,
      "*)": 605,
      "/,--": 606,
      ".--,-/": 607,
      "-,,,----": 608,
      "61": 609,
      "-/.,--.": 610,
      "--.--.": 611,
      "-*--": 612,
      "*+": 613,
      "/,----": 614,
      "/+--": 615,
      "--,---.": 616,
      "+-----": 617,
      "'+": 618,
      "Ā$": 619,
      "-.-.--,": 620,
      "--+-/": 621,
      "---'": 622,
      "(ĀĀ": 623,
      "------": 624,
      "-+,---,": 625,
      "--/-.": 626,
      ",--)-": 627,
      "+---": 628,
      "*--(": 629,
      "--*-,": 630,
      "--.-----": 631,
      "---,----.": 632,
      "./----": 633,
      "/.----": 634,
      "-,------------": 635,
      "+,--,": 636,
      "--.---/": 637,
      "+----/": 638,
      "(*": 639,
      "15": 640,
      "-+-.----": 641,
      "-+.---.": 642,
      "--+---+": 643,
      "-.,.----": 644,
      "---+----": 645,
      "-/'": 646,
      "()": 647,
      "53": 648,
      "-+'": 649,
      ",------.": 650,
      "+--)-": 651,
      "-)'": 652,
      ".--+-.": 653,
      "//--": 654,
      "+---*": 655,
      "!--": 656,
      "-.---.": 657,
      "-,-,--,": 658,
      "-,+---,": 659,
      "--+,--,": 660,
      ".------,": 661,
      ",------,": 662,
      "+--'": 663,
      ",+--,": 664,
      "./--.": 665,
      "25": 666,
      "-./----": 667,
      "--+.--,": 668,
      "*---*": 669,
      "-.,,----": 670,
      "--%-": 671,
      "')": 672,
      "*/": 673,
      "60": 674,
      ",--.-.": 675,
      "--\"": 676,
      "--.---,": 677,
      "--,-*": 678,
      "*--'": 679,
      "ĀĀ%Ā": 680,
      ",(": 681,
      ",+----": 682,
      "35": 683,
      ".------.": 684,
      ")--)": 685,
      ".,--,": 686,
      "-/&": 687,
      "-+--/": 688,
      ".--&": 689,
      "*--*-": 690,
      "-+..--.": 691,
      "34": 692,
      "ĀĀ:": 693,
      "-.----+": 694,
      "-.----/": 695,
      "/----+": 696,
      "-./,--.": 697,
      "--,-----": 698,
      "*.": 699,
      "--.--": 700,
      "-+--+": 701,
      "--/---/": 702,
      ".--(-": 703,
      "--*-.": 704,
      "-..+--.": 705,
      "-..-----": 706,
      "--$-": 707,
      "70": 708,
      "-,,--": 709,
      "-/.---.": 710,
      "-*&": 711,
      ",------": 712,
      "---,----,": 713,
      ".---/-": 714,
      "''": 715,
      "*(": 716,
      "--+--.": 717,
      "',": 718,
      "'--/": 719,
      "-.&": 720,
      "-.+---,": 721,
      "-./---.": 722,
      "-,&": 723,
      "-//----": 724,
      "ĀĀ\"": 725,
      "---+-": 726,
      "'&": 727,
      ",)": 728,
      "/+": 729,
      "/+--.": 730,
      "44": 731,
      "62": 732,
      "-.,--.": 733,
      "-/,----": 734,
      "--/.--.": 735,
      ",---,-": 736,
      "Ġ-": 737,
      "-/--+": 738,
      ",--&": 739,
      ",--(-": 740,
      "'/": 741,
      "-,---,": 742,
      "ĀĀ#": 743,
      ".------": 744,
      ".------------": 745,
      "/--'": 746,
      "-,.,----": 747,
      "'*": 748,
      "(--+": 749,
      "**": 750,
      "--,--": 751,
      "--*-/": 752,
      "-((": 753,
      "----,.": 754,
      "%)": 755,
      "'.": 756,
      "63": 757,
      "-..---,": 758,
      "--,,--.": 759,
      "-(-": 760,
      "-*--,": 761,
      ",---.-": 762,
      ",&": 763,
      "/*--": 764,
      "-,,.--.": 765,
      "-.+.--,": 766,
      "-/----+": 767,
      ",----,,": 768,
      "---.----,": 769,
      "-,.-----": 770,
      "--.---.-": 771,
      "'----": 772,
      "))": 773,
      ",.--": 774,
      "--.-*": 775,
      "--,/--,": 776,
      "+--&": 777,
      "----.-": 778,
      "----..": 779,
      "-+----/": 780,
      "/)": 781,
      "54": 782,
      "-.,+--,": 783,
      "--.------.": 784,
      "'ĀĀ": 785,
      "(/": 786,
      "++--,": 787,
      "..--": 788,
      "-,%": 789,
      "-.-----": 790,
      "-..,--,": 791,
      "-,+.--,": 792,
      "&)": 793,
      "56": 794,
      "-----+": 795,
      "-.+----": 796,
      "--/-+": 797,
      ",------------": 798,
      "/--(-": 799,
      "-,..--/": 800,
      "--)-.": 801,
      "-,/,--.": 802,
      "-.+,--,": 803,
      ".----,,": 804,
      "&,": 805,
      "//--.": 806,
      "07": 807,
      "ĀĀ!": 808,
      "ĀĀ;": 809,
      "-)--": 810,
      "--*-+": 811,
      ")--(": 812,
      ",--/-.": 813,
      "-,+,--,": 814,
      "---.----.": 815,
      "-,,-----": 816,
      "-,----.-": 817,
      ").": 818,
      "Ā#": 819,
      "--.--------": 820,
      "-/--.-": 821,
      ".-----,": 822,
      "*---": 823,
      "-,,/--,": 824,
      "-,/.--.": 825,
      ".---,-": 826,
      "++--": 827,
      "06": 828,
      "55": 829,
      "Ğ-": 830,
      "-.,--": 831,
      "-)&": 832,
      "/---+": 833,
      "-,.+--.": 834,
      ")---+": 835,
      "-'.": 836,
      "-/,,--,": 837,
      ",--+-.": 838,
      "/,--/": 839,
      "Ā\"": 840,
      "-,/----": 841,
      "-,/---.": 842,
      "-+--,-": 843,
      "--+--,": 844,
      "-,,,--.": 845,
      "--,---,-": 846,
      ",'": 847,
      "..--,": 848,
      "-----/": 849,
      "-+&": 850,
      "-+,.--,": 851,
      "--,------,": 852,
      "&(": 853,
      "+.----": 854,
      ",*--": 855,
      ",/--,": 856,
      "-.--/-": 857,
      "-('": 858,
      "-./.--.": 859,
      ".--/-,": 860,
      "&.": 861,
      "(--,-": 862,
      "16": 863,
      "26": 864,
      "--;": 865,
      "-------": 866,
      "-..--": 867,
      "-.+--": 868,
      "-/-.----": 869,
      "--+-*": 870,
      "/--.-,": 871,
      "-+----+": 872,
      "ĀĀ&Ā": 873,
      "*,--,": 874,
      "./--": 875,
      "80": 876,
      "ğ-": 877,
      "--.+--.": 878,
      "-+,---.": 879,
      "--/---": 880,
      "+--(-": 881,
      "-.,,--.": 882,
      ",--/-+": 883,
      "-+.,--.": 884,
      "((": 885,
      ")+": 886,
      "*'": 887,
      "+,----": 888,
      "+,--": 889,
      ".)": 890,
      "-,.--,": 891,
      "--,--/": 892,
      "-+%": 893,
      ",--/-,": 894,
      "*----/": 895,
      "-/----/": 896,
      "-.----,-": 897,
      "/+----": 898,
      "45": 899,
      "71": 900,
      ":ĀĀ": 901,
      "--!": 902,
      "-..--.": 903,
      "-,--*": 904,
      "--..--,": 905,
      "-/-,--,": 906,
      "-)----": 907,
      ")---*": 908,
      "-')": 909,
      "-/.,----": 910,
      ",--+-,": 911,
      "&'": 912,
      "),": 913,
      "+.--": 914,
      ",.--+": 915,
      "--.-)": 916,
      "--,-,.": 917,
      "-/%": 918,
      "-/-,--.": 919,
      "-//---.": 920,
      "-+-.--,": 921,
      "-+-.--.": 922,
      "--/--,": 923,
      "--+-)": 924,
      ",---+-": 925,
      "/--,-.": 926,
      "-',": 927,
      "-/,.--,": 928,
      "-,.---.-": 929,
      "(%": 930,
      ")*": 931,
      ")/": 932,
      "*&": 933,
      "Ġ--": 934,
      "-.,---+": 935,
      "--.--/": 936,
      "--.---": 937,
      "ĀĀ<": 938,
      "/--&": 939,
      "----,-": 940,
      ",--/-*": 941,
      "(&": 942,
      "('": 943,
      "+/": 944,
      ".&": 945,
      ".,----.": 946,
      "66": 947,
      "--,-.,": 948,
      "-/--,-": 949,
      ".--.-,": 950,
      "(---+": 951,
      "--.------,": 952,
      "%&": 953,
      "%,": 954,
      "+/--": 955,
      ",/----": 956,
      "-:": 957,
      "--#-": 958,
      "-.-*": 959,
      "--,-,,": 960,
      "+---/": 961,
      "*--)-": 962,
      "(--)": 963,
      ")'": 964,
      ",,--.": 965,
      ".+--": 966,
      "ğ--": 967,
      "-,.--": 968,
      "-,-,----.": 969,
      "--.-,.": 970,
      "--..----.": 971,
      "--,.--+": 972,
      "-+-,--.": 973,
      "-,------+": 974,
      "--*-*": 975,
      "-,,.--+": 976,
      "-./+--.": 977,
      "-'*": 978,
      "/--.-.": 979,
      ".--/-.": 980,
      "%.": 981,
      "+*": 982,
      "+-": 983,
      "+,--+": 984,
      ",,----.": 985,
      ",,--,-": 986,
      "/'": 987,
      "18": 988,
      "46": 989,
      "ĠĀ": 990,
      ".----*": 991,
      ".--%": 992,
      "---(-": 993,
      "-'(": 994,
      "(--.-": 995,
      ".,--/": 996,
      "36": 997,
      "74": 998,
      "------+": 999,
      "-.%": 1000,
      "-.,---.": 1001,
      "--,--+": 1002,
      "ĀĀğ": 1003,
      "+--'-": 1004,
      "*---+-": 1005,
      "-.,.--+": 1006,
      "-.,-----": 1007,
      "ĀĀ$Ā": 1008,
      "+'": 1009,
      ",+": 1010,
      ".'": 1011,
      "./": 1012,
      ".,----,": 1013,
      "--.--+": 1014,
      "-/-.--,": 1015,
      "-/.---,": 1016,
      "-++---,": 1017,
      "--/--": 1018,
      "-*%": 1019,
      ".-----.": 1020,
      ".--'-": 1021,
      "-.------,----": 1022,
      "/----*": 1023,
      "---&": 1024,
      "-,,/----": 1025,
      "-//,--.": 1026,
      "%(": 1027,
      "&*": 1028,
      "27": 1029,
      "93": 1030,
      "-,.---/": 1031,
      "-/-,----": 1032,
      "-/---.": 1033,
      "-)-/": 1034,
      "*--&": 1035,
      "(--(": 1036,
      "-+,.----": 1037,
      "---,--------": 1038,
      "&/": 1039,
      ")(": 1040,
      "+.--+": 1041,
      ",.": 1042,
      ",/": 1043,
      ".+--,": 1044,
      "83": 1045,
      "-./--": 1046,
      "-,.---,": 1047,
      "--,--------": 1048,
      "-+-,----": 1049,
      "ĀĀ=": 1050,
      "*---.": 1051,
      "+----*": 1052,
      ".--.-/": 1053,
      ",--,-/": 1054,
      "-...--,": 1055,
      "-/..--.": 1056,
      "-+,,--,": 1057,
      "-/,,----": 1058,
      "-+------.": 1059,
      "-&,": 1060,
      "+--/-+": 1061,
      "%'": 1062,
      "%+": 1063,
      ")---": 1064,
      ")--/-": 1065,
      ".*--": 1066,
      "72": 1067,
      "90": 1068,
      "<-": 1069,
      "-----*": 1070,
      "-,-+": 1071,
      "-,-,----,": 1072,
      "-++--": 1073,
      "--/--.": 1074,
      "--/.--/": 1075,
      "--+--": 1076,
      ",--%": 1077,
      "-.------/": 1078,
      "-.------+": 1079,
      "/--'-": 1080,
      "-.,/--,": 1081,
      "--)-*": 1082,
      "-'+": 1083,
      "---.--------": 1084,
      "*+--": 1085,
      ",,--": 1086,
      ",.----.": 1087,
      ".(": 1088,
      "08": 1089,
      "-,-/----": 1090,
      "-,,---+": 1091,
      "--.-,,": 1092,
      "-++----": 1093,
      "+---+-": 1094,
      "-,-----": 1095,
      "*---,-": 1096,
      "-(----": 1097,
      "-../----": 1098,
      "-,.,--.-": 1099,
      "--)-/": 1100,
      "----,+": 1101,
      ")--'": 1102,
      "----/.": 1103,
      "-.----.-": 1104,
      ",*--,": 1105,
      "-ğ": 1106,
      "64": 1107,
      "-,-.----,": 1108,
      "--.-(": 1109,
      "---------.": 1110,
      "-,./--.": 1111,
      "+--.-.": 1112,
      "---/--,": 1113,
      "---+--.": 1114,
      "*--.-.": 1115,
      "-/+,--,": 1116,
      "++----": 1117,
      "+/--,": 1118,
      ",%": 1119,
      "..--/": 1120,
      "..----.": 1121,
      "--/-*": 1122,
      ",--'-": 1123,
      "-.------.----": 1124,
      "-(&": 1125,
      "----,/": 1126,
      "+--.-,": 1127,
      ",--/-/": 1128,
      ".--+-,": 1129,
      "(---)": 1130,
      ",--+-/": 1131,
      "*-----": 1132,
      "-/------": 1133,
      "-/------.": 1134,
      "-+/.--.": 1135,
      "/---/-": 1136,
      "%/": 1137,
      ",*": 1138,
      ",-": 1139,
      "17": 1140,
      "38": 1141,
      ":--": 1142,
      "-.--+-": 1143,
      "-.-,----,": 1144,
      "-/+---,": 1145,
      "-+.---/": 1146,
      "--/,--": 1147,
      "--/,--/": 1148,
      "-*----.": 1149,
      "---.--+": 1150,
      "-..,----.": 1151,
      "-.,+----": 1152,
      "+--.-+": 1153,
      "-+------": 1154,
      "+--/-,": 1155,
      "----+-": 1156,
      "-..---.-": 1157,
      "&ĀĀ": 1158,
      "(*--": 1159,
      ").--": 1160,
      ",+--": 1161,
      "-Ğ": 1162,
      "..": 1163,
      ".,--.-": 1164,
      "/.--/": 1165,
      "-.--*": 1166,
      "-,--/-": 1167,
      "--.,----,": 1168,
      "--,/----": 1169,
      "--,---": 1170,
      "--,,----.": 1171,
      "-+,--": 1172,
      "-+/----": 1173,
      "-+---,": 1174,
      "+---)": 1175,
      "*---)": 1176,
      "-..+----": 1177,
      "-,..--,": 1178,
      "----./": 1179,
      "-./.----": 1180,
      "+--,-,": 1181,
      "(--'": 1182,
      "-++.--,": 1183,
      "/--+-.": 1184,
      "/--/-,": 1185,
      "$(": 1186,
      "%*": 1187,
      "&Ā": 1188,
      "*.--,": 1189,
      "++--+": 1190,
      ".*----": 1191,
      "--\"-": 1192,
      "----(": 1193,
      "-.-.----.": 1194,
      "--,.--.": 1195,
      "--,-,+": 1196,
      "-)%": 1197,
      "/--%": 1198,
      "*--(-": 1199,
      "---,--": 1200,
      "---,--.-": 1201,
      "-,,.----.": 1202,
      "-..,--/": 1203,
      "-,.,--/": 1204,
      "-.,.--.": 1205,
      "-./,--": 1206,
      "(---*": 1207,
      "-+,,----": 1208,
      "-,/+--": 1209,
      "$&": 1210,
      ")&": 1211,
      ")--+-": 1212,
      "+/--+": 1213,
      "/*": 1214,
      "65": 1215,
      "75": 1216,
      "81": 1217,
      "91": 1218,
      "--:": 1219,
      "-..---/": 1220,
      "-,--)": 1221,
      "-,-.----.": 1222,
      "--./----": 1223,
      "--.,--,": 1224,
      "--./--.": 1225,
      "--,-/.": 1226,
      "--,-+.": 1227,
      "--,-,/": 1228,
      "--,-/,": 1229,
      "-/-+": 1230,
      "--/,----": 1231,
      "--/---,": 1232,
      "-*--,-": 1233,
      ",---)": 1234,
      "-,-------.": 1235,
      "-,-------.----": 1236,
      "-...--": 1237,
      "-...--/": 1238,
      "-,.,--": 1239,
      "---/----": 1240,
      "-+,/--,": 1241,
      "-+------,": 1242,
      "/--/-.": 1243,
      "ĀĀ;Ā": 1244,
      "%ĀĀ": 1245,
      "&&": 1246,
      "(--*": 1247,
      ")----,": 1248,
      ",,": 1249,
      ",,--+": 1250,
      ",*----": 1251,
      ".*": 1252,
      "//----": 1253,
      "/,--.-": 1254,
      "73": 1255,
      "82": 1256,
      "-,,--,": 1257,
      "--.,--/": 1258,
      "--..--/": 1259,
      "--,-.+": 1260,
      "-/.--": 1261,
      "-+/---.": 1262,
      "--+-,,": 1263,
      "--++--,": 1264,
      "ĀĀĜ": 1265,
      "-,------/": 1266,
      "--*.--+": 1267,
      "---.-.": 1268,
      "---'-": 1269,
      "-(--": 1270,
      "-,,,----,": 1271,
      "-.,,--+": 1272,
      ")---+-": 1273,
      "+--.--": 1274,
      "-./,----": 1275,
      "-./,--/": 1276,
      "-+..----": 1277,
      "-,+/--,": 1278,
      "-,,---,-": 1279,
      "$'": 1280,
      "$,": 1281,
      "(--+-": 1282,
      "+%": 1283,
      "+.--,-": 1284,
      ",/--": 1285,
      ",+--+": 1286,
      ".%": 1287,
      "/*--.": 1288,
      "37": 1289,
      ";-": 1290,
      "-,-+--.": 1291,
      "--.----,": 1292,
      "--,-)": 1293,
      "--,.----.": 1294,
      "-/.--.": 1295,
      "-*--/": 1296,
      "ĀĀ?": 1297,
      "ĀĀĞ": 1298,
      "-.-------.": 1299,
      "---.-,": 1300,
      "---,--/": 1301,
      "-,,/--+": 1302,
      "--)-,": 1303,
      "-,/.--": 1304,
      "-/+.--,": 1305,
      "$*": 1306,
      "$.": 1307,
      "(--/-": 1308,
      "),--": 1309,
      "*.--": 1310,
      "*.--+": 1311,
      ",,----,": 1312,
      "-;": 1313,
      ".+": 1314,
      ".,": 1315,
      "/+--/": 1316,
      "47": 1317,
      "67": 1318,
      ">Ā": 1319,
      "--!-": 1320,
      "------/": 1321,
      "-------.": 1322,
      "--,---/": 1323,
      "--,+--,": 1324,
      "-/$": 1325,
      "-+--.-": 1326,
      "-+/---/": 1327,
      "--+,----": 1328,
      "-*----,": 1329,
      "ĀĀĝ": 1330,
      ",------.----": 1331,
      "-,------.----": 1332,
      "---.--": 1333,
      ".--.-*": 1334,
      "-,,+----": 1335,
      "-..,--": 1336,
      ")--'-": 1337,
      "+--,-.": 1338,
      "-,+,--+": 1339,
      "-.+.--+": 1340,
      "000": 1341,
      "-+/,--.": 1342,
      "*--,-+": 1343,
      "----/,": 1344,
      "$/": 1345,
      "'%": 1346,
      "(---": 1347,
      ")----+": 1348,
      "*,----": 1349,
      "**--": 1350,
      "+*--": 1351,
      "29": 1352,
      "58": 1353,
      "=-": 1354,
      "Ā!": 1355,
      "-.-.----,": 1356,
      "-,/---/": 1357,
      "--.,--": 1358,
      "--.---.----": 1359,
      "--,+----": 1360,
      "--,,----,": 1361,
      "-/-)": 1362,
      "-/--------": 1363,
      "-+-/": 1364,
      "--/-(": 1365,
      "--+/--,": 1366,
      "+--%": 1367,
      "-../--": 1368,
      "-''": 1369,
      "-/.+--.": 1370,
      "-,/,--": 1371,
      "-.+,--+": 1372,
      "-++,--,": 1373,
      "#,": 1374,
      "$$": 1375,
      "*,--": 1376,
      "*/--": 1377,
      "+&": 1378,
      ",.----,": 1379,
      "/&": 1380,
      "/.--.-": 1381,
      "77": 1382,
      "--Ğ": 1383,
      "-.-,----.": 1384,
      "-,$": 1385,
      "-,.---": 1386,
      "--.-..": 1387,
      "--.------------": 1388,
      "--,----.": 1389,
      "--,---,----": 1390,
      "-/,---+": 1391,
      "-+.--": 1392,
      "-++---+": 1393,
      "--/.----": 1394,
      "--/-)": 1395,
      "--+-..": 1396,
      "-*-.--.": 1397,
      "-.----,--,": 1398,
      "-,-------,": 1399,
      "-,------,----": 1400,
      ",--.-,": 1401,
      ",--.-/": 1402,
      "-,,+--,": 1403,
      "-,,,----.": 1404,
      "-,.,----,": 1405,
      "-.,.----.": 1406,
      "--)-+": 1407,
      ")---)": 1408,
      "---/--.": 1409,
      "-.//--.": 1410,
      "-'/": 1411,
      "-/..----": 1412,
      "-/.+----": 1413,
      "-/.,--,": 1414,
      "-/,.----": 1415,
      "-&)": 1416,
      "-&*": 1417,
      "-//+--.": 1418,
      "+--/-.": 1419,
      "/--+-/": 1420,
      "/--/-*": 1421,
      ".--*-.": 1422,
      "ĀĀ!Ā": 1423,
      "\"'": 1424,
      "*%": 1425,
      "+/----": 1426,
      "+)--": 1427,
      ".$": 1428,
      "..--.-": 1429,
      "39": 1430,
      "84": 1431,
      ";ĀĀ": 1432,
      "--(--": 1433,
      "-,-/": 1434,
      "-,--+-": 1435,
      "--.---+": 1436,
      "--.,----.": 1437,
      "--,---*": 1438,
      "-+$": 1439,
      "-+.---,": 1440,
      "--//--.": 1441,
      "--+--+": 1442,
      "--+-(": 1443,
      "--+.--+": 1444,
      "-*--.-": 1445,
      ".--&-": 1446,
      "-,-----.": 1447,
      "/---.--,": 1448,
      "/-----.": 1449,
      "-../--.": 1450,
      "-,..--": 1451,
      "-,.,--,": 1452,
      "----.*": 1453,
      "-./+--": 1454,
      "-,/.----": 1455,
      ".--/-/": 1456,
      "-/,.--+": 1457,
      "--(-.": 1458,
      "--(-/": 1459,
      "-&(": 1460,
      "-//,----": 1461,
      ".--*-/": 1462,
      "+--*-.": 1463,
      "-.,---,-": 1464,
      "#'": 1465,
      "&+": 1466,
      "'/--": 1467,
      "+,--,-": 1468,
      "+,--*": 1469,
      "..----,": 1470,
      ".*--.": 1471,
      "/%": 1472,
      "48": 1473,
      "49": 1474,
      "68": 1475,
      "---*-": 1476,
      "--:-": 1477,
      "-------,": 1478,
      "-,+--": 1479,
      "--.-.+": 1480,
      "-+-,--,": 1481,
      "--+,--+": 1482,
      "-*,----": 1483,
      "ĀĀ@": 1484,
      "+--&-": 1485,
      "--.-'": 1486,
      "---$": 1487,
      "---,--+": 1488,
      "-,,.----,": 1489,
      "-..,----,": 1490,
      "-,..----.": 1491,
      "-.,/----": 1492,
      "---/--": 1493,
      ",--/--": 1494,
      "-/..--,": 1495,
      "-+..--": 1496,
      "-,+.--+": 1497,
      "-&.": 1498,
      "-+/.--": 1499,
      "-/++--,": 1500,
      "*--,-/": 1501,
      ".--*-,": 1502,
      ".--*-+": 1503,
      "--------------": 1504,
      "-,+-----": 1505,
      "ĀĀ:Ā": 1506,
      "ĀĀ\"Ā": 1507,
      "ĀĀ#Ā": 1508,
      "&%": 1509,
      ")/--": 1510,
      ")----.": 1511,
      ")----/": 1512,
      "*,--+": 1513,
      "+,--.": 1514,
      "+*----": 1515,
      "+*--+": 1516,
      ",)--": 1517,
      ".-": 1518,
      ".+--/": 1519,
      "/$": 1520,
      "/)--": 1521,
      "110": 1522,
      "--<": 1523,
      "--ğ": 1524,
      "-.-/": 1525,
      "-.-+": 1526,
      "-.-+--.": 1527,
      "--.----.": 1528,
      "--..----,": 1529,
      "--,-..": 1530,
      "--,-+,": 1531,
      "--,,--+": 1532,
      "-/-+----": 1533,
      "--+.----": 1534,
      "-*-.----": 1535,
      "-.----.--.": 1536,
      "-----------,": 1537,
      "/-----/": 1538,
      "-..+--,": 1539,
      "-,.,----.": 1540,
      "-,..--.-": 1541,
      "-.,,----.": 1542,
      "-,+,----": 1543,
      "-/,,--+": 1544,
      "--(-,": 1545,
      "-+------/": 1546,
      "-++/--,": 1547,
      "/--+-,": 1548,
      "-+/,--": 1549,
      "ĀĀ(Ā,": 1550,
      "#(": 1551,
      "#)": 1552,
      "$%": 1553,
      ",#": 1554,
      ",,--*": 1555,
      "./--,": 1556,
      ".*--/": 1557,
      "95": 1558,
      "ĝ-": 1559,
      "-./---/": 1560,
      "--.-++": 1561,
      "--,.--,-": 1562,
      "--,,--,-": 1563,
      "-/+----": 1564,
      "-/-.--.": 1565,
      "-+-/----": 1566,
      "--/-.,": 1567,
      "--+---": 1568,
      "-*$": 1569,
      "-*----+": 1570,
      "ĀĀĚ": 1571,
      ",--$": 1572,
      "-)--.": 1573,
      "-.-------,": 1574,
      "*---(": 1575,
      "-,,/--.": 1576,
      "-,,.--,-": 1577,
      "-,./--,": 1578,
      "-,..----,": 1579,
      "--/-&": 1580,
      "---/-,": 1581,
      "-+,.--.": 1582,
      "*----+": 1583,
      "-&-": 1584,
      "---,------------": 1585,
      ".----..----": 1586,
      "+--+-*": 1587,
      "-,*,--,": 1588,
      "+,--+-": 1589,
      "--,-,-": 1590,
      "--.-,-": 1591,
      "%%": 1592,
      "(#": 1593,
      "+(--": 1594,
      ",.--.": 1595,
      ".,--+": 1596,
      "/.--,": 1597,
      "/,--,": 1598,
      "-->": 1599,
      "------,-": 1600,
      "------.-": 1601,
      "-,,----,": 1602,
      "-,/---": 1603,
      "-,*---,": 1604,
      "-,-.--/": 1605,
      "--./--,": 1606,
      "--,.----,": 1607,
      "-+,---+": 1608,
      "-+-.--/": 1609,
      "-*-/": 1610,
      "-*+----": 1611,
      "-*----/": 1612,
      "-)----.": 1613,
      "-.----,----": 1614,
      "/---,-": 1615,
      "--------.----": 1616,
      "--*--,": 1617,
      "---%": 1618,
      "-,./----": 1619,
      "-,.+--/": 1620,
      "-,./--/": 1621,
      "--/-'": 1622,
      "-.,+--.": 1623,
      "-./*--.": 1624,
      "-+,,--.": 1625,
      "-+..--/": 1626,
      "-,/+--.": 1627,
      "-,/,--/": 1628,
      "--,------.----": 1629,
      "*--,-.": 1630,
      "----/-": 1631,
      "----+,": 1632,
      "\".": 1633,
      "$ĀĀ": 1634,
      "'--+": 1635,
      "'---": 1636,
      "(+--": 1637,
      ")$": 1638,
      ")+--": 1639,
      ")*--": 1640,
      ")---,": 1641,
      "*+----": 1642,
      "*+--,": 1643,
      "*+--+": 1644,
      ",/--+": 1645,
      "-<": 1646,
      ".)--": 1647,
      "./----,": 1648,
      ".,--/-": 1649,
      "/(--": 1650,
      "09": 1651,
      "86": 1652,
      "-.--)": 1653,
      "-..---": 1654,
      "-.-/--,": 1655,
      "-,,----.": 1656,
      "--..--": 1657,
      "--.-+.": 1658,
      "--.-//": 1659,
      "--.-*.": 1660,
      "--,+--+": 1661,
      "-+.--,": 1662,
      "--/.--": 1663,
      "--+-,+": 1664,
      "--+/--+": 1665,
      ",-----.": 1666,
      ".--$": 1667,
      ",---,----": 1668,
      "-)$": 1669,
      "/---*": 1670,
      "*---*-": 1671,
      "--*----": 1672,
      "--*-)": 1673,
      "---.--,-": 1674,
      "-(%": 1675,
      "-,,+--.": 1676,
      "-,,,--+": 1677,
      "-...----,": 1678,
      "-,.+----": 1679,
      "-.,,----,": 1680,
      "-'-": 1681,
      "/--.-+": 1682,
      "-,//--": 1683,
      "-/,+--,": 1684,
      "-.+/--,": 1685,
      "-.++--,": 1686,
      "*-----.": 1687,
      "+--/-/": 1688,
      "-+/+--": 1689,
      "/--/-/": 1690,
      "-,----,-": 1691,
      "+,.----": 1692,
      "-------------": 1693,
      "-+----.-": 1694,
      "-,,---.-": 1695,
      "\"ĀĀ": 1696,
      "#%": 1697,
      "&--.-": 1698,
      "'--.": 1699,
      ")%": 1700,
      "*$": 1701,
      "+--------": 1702,
      ",+--.": 1703,
      ",.--,-": 1704,
      "/'--": 1705,
      "/*--/": 1706,
      "19": 1707,
      "87": 1708,
      "92": 1709,
      "Ğ--": 1710,
      "Ġ0": 1711,
      "--*---,": 1712,
      "-.+---+": 1713,
      "-.-,--": 1714,
      "-.-,--+": 1715,
      "-,\"": 1716,
      "-,-/--,": 1717,
      "-,-.--+": 1718,
      "--./--": 1719,
      "--.-.,": 1720,
      "--.,--.-": 1721,
      "--..--.-": 1722,
      "--,--)": 1723,
      "--/+--": 1724,
      "--/+--.": 1725,
      "--/-----": 1726,
      "--+---*": 1727,
      "--+---,-": 1728,
      "--+-----": 1729,
      "-*,---,": 1730,
      ".-------.": 1731,
      ",----*": 1732,
      ",------,----": 1733,
      ",--*--": 1734,
      ",---/-": 1735,
      "/--&-": 1736,
      "--*--.": 1737,
      "--*,--,": 1738,
      "---.-+": 1739,
      "---.--/": 1740,
      "---,--,-": 1741,
      "-,./--": 1742,
      "--)--": 1743,
      "-/.,--": 1744,
      "/--.-/": 1745,
      "-+,.--,-": 1746,
      "-+./--.": 1747,
      ".--/-+": 1748,
      "-.+,--.": 1749,
      "-/------,": 1750,
      "-/------/": 1751,
      "-++.----": 1752,
      ".----,-": 1753,
      "-.*+--,": 1754,
      "--&-.": 1755,
      "/.--/-": 1756,
      "#&": 1757,
      "#.": 1758,
      "#Ā": 1759,
      "$Ā": 1760,
      "&----": 1761,
      "&--/": 1762,
      "&*--": 1763,
      "'--.-": 1764,
      "'*--": 1765,
      "((--": 1766,
      ")#": 1767,
      ")--.-.": 1768,
      "*#": 1769,
      "++--,-": 1770,
      ",*--+": 1771,
      ".#": 1772,
      "/*----": 1773,
      "57": 1774,
      "--*---+": 1775,
      "-,---.": 1776,
      "-,+---+": 1777,
      "--.-,+": 1778,
      "--.-,*": 1779,
      "--,-./": 1780,
      "--,-++": 1781,
      "--,-/+": 1782,
      "-//---/": 1783,
      "-//---": 1784,
      "-/+---+": 1785,
      "-/-,--+": 1786,
      "-+--*": 1787,
      "-+,--,": 1788,
      "--/-+,": 1789,
      "--/+--/": 1790,
      "--/---.-": 1791,
      ".------.----": 1792,
      ",---.--.": 1793,
      "-.----.--,": 1794,
      "-,----.--,": 1795,
      ",--.-*": 1796,
      "---.-*": 1797,
      "/----+,": 1798,
      "-,..--+": 1799,
      ")---*-": 1800,
      "---/-.": 1801,
      "---/-*": 1802,
      "/--,--": 1803,
      "(---+-": 1804,
      "(--'-": 1805,
      "-,//--.": 1806,
      "-,//--/": 1807,
      ".--/-*": 1808,
      "-/,,--.": 1809,
      "---+----.": 1810,
      "-//.----": 1811,
      "-++,----": 1812,
      "--'-,": 1813,
      "-*,.--,": 1814,
      "-.*,--,": 1815,
      "-%(": 1816,
      "ĀĀ,Ā*": 1817,
      "/,--/-": 1818,
      "+----,-": 1819,
      "ĀĀ=Ā": 1820,
      "\"%": 1821,
      "#*": 1822,
      "$)": 1823,
      "&,--": 1824,
      "'+--": 1825,
      "'--,-": 1826,
      "($": 1827,
      "(.--": 1828,
      "(----,": 1829,
      ")--*-": 1830,
      "*/--,": 1831,
      "*(--": 1832,
      "**--,": 1833,
      ",$": 1834,
      ",+----.": 1835,
      ".)----": 1836,
      "/ĀĀ-Ā": 1837,
      "85": 1838,
      "?-": 1839,
      "@-": 1840,
      "ě-": 1841,
      "Ġ1": 1842,
      "----'": 1843,
      "-.-/----": 1844,
      "--.+----": 1845,
      "--,-*.": 1846,
      "-/#": 1847,
      "-/-,----.": 1848,
      "-+-/--,": 1849,
      "--/.--,": 1850,
      "--/.----.": 1851,
      "--+-/.": 1852,
      "-*--+": 1853,
      "ĀĀě": 1854,
      ",-----+": 1855,
      ".---.----": 1856,
      ".---+-": 1857,
      ",---*-": 1858,
      "-)----,": 1859,
      "-.-------.----": 1860,
      "-,-------,----": 1861,
      "-,,.--": 1862,
      "-...----.": 1863,
      "-.,,--": 1864,
      "---/----,": 1865,
      "-./.--": 1866,
      "-/.,--/": 1867,
      "(---*-": 1868,
      "-+.,--/": 1869,
      "-+..--.-": 1870,
      "-//.--.": 1871,
      "-++.--+": 1872,
      "--'-+": 1873,
      "/--+-+": 1874,
      "-,*/--,": 1875,
      "-..------------": 1876,
      "----/+": 1877,
      "-+*.--,": 1878,
      ",--*-,": 1879,
      "/.,--.": 1880,
      "---------------": 1881,
      "/,,--,": 1882,
      ")--.-+": 1883,
      "-,-------------": 1884,
      "ĀĀ<Ā": 1885,
      "&$": 1886,
      "'#": 1887,
      "'.--": 1888,
      "'--*": 1889,
      "(,--": 1890,
      "(--*-": 1891,
      "(----+": 1892,
      ")--,-.": 1893,
      "+$": 1894,
      "+/--*": 1895,
      ",+--,-": 1896,
      ".*--,": 1897,
      ".,--,-": 1898,
      "/-": 1899,
      "28": 1900,
      "76": 1901,
      ";--": 1902,
      "Ĝ-": 1903,
      "--=": 1904,
      "--Ğ-": 1905,
      "----&": 1906,
      "------*": 1907,
      "------,----": 1908,
      "-./---": 1909,
      "-.-.--": 1910,
      "-,-+--,": 1911,
      "--.-+,": 1912,
      "--,+--.": 1913,
      "--,,--/": 1914,
      "-/,--.": 1915,
      "-/--*": 1916,
      "-/--+-": 1917,
      "-+-/--.": 1918,
      "--/--+": 1919,
      "--//--": 1920,
      "--+,--.": 1921,
      "--+-+.": 1922,
      "--+-/,": 1923,
      "--+-+*": 1924,
      "-*-,----": 1925,
      "-*+---,": 1926,
      "-*.---/": 1927,
      "-)--,-": 1928,
      "-.----*": 1929,
      "-,----*": 1930,
      "-,----,----": 1931,
      "--------,----": 1932,
      "-----------": 1933,
      "--*.--,": 1934,
      "---.--.-": 1935,
      "+------": 1936,
      "+------,": 1937,
      "/------,": 1938,
      "---&-": 1939,
      "-..*--.": 1940,
      "-...--.-": 1941,
      ")--%": 1942,
      "-/.+--": 1943,
      "-/.*--.": 1944,
      "-&%": 1945,
      ",----,-": 1946,
      "-//.--": 1947,
      "-++,--+": 1948,
      "+--/-*": 1949,
      "-+//--": 1950,
      "-+//--.": 1951,
      "-/+.--+": 1952,
      "'---)": 1953,
      ",--.-(": 1954,
      "*--+-/": 1955,
      "----*.": 1956,
      "ĀĀ%Ā*": 1957,
      "!Ā": 1958,
      "'$": 1959,
      "'--/-": 1960,
      ")--)-": 1961,
      "*.----": 1962,
      "*/--+": 1963,
      "*.--*": 1964,
      "+.----.": 1965,
      "+*--,": 1966,
      "+.--)": 1967,
      ",*--.": 1968,
      ",'--": 1969,
      ",+--*": 1970,
      "-ě": 1971,
      "./--/": 1972,
      "..--,-": 1973,
      "/(": 1974,
      "//--,": 1975,
      "/+--,": 1976,
      "//--/": 1977,
      "Ā:": 1978,
      "-.-+----": 1979,
      "-..----,": 1980,
      "-.--*-": 1981,
      "-,-,--+": 1982,
      "-,-,--/": 1983,
      "--.+--": 1984,
      "--.-./": 1985,
      "--.*--.": 1986,
      "--,,--": 1987,
      "--,--*": 1988,
      "--,------------": 1989,
      "-/--/-": 1990,
      "-/---/": 1991,
      "-+-,----,": 1992,
      "-+-+--.": 1993,
      "-+.---": 1994,
      "--/-+.": 1995,
      "-*.----": 1996,
      "ĀĀĖ": 1997,
      ",------/": 1998,
      ".---,--.": 1999,
      "+--$": 2000,
      "-)#": 2001,
      "-)--/": 2002,
      "-.-----.----": 2003,
      "-,----.--.": 2004,
      "-,----,--,": 2005,
      "*--#": 2006,
      "*--&-": 2007,
      ",--.--": 2008,
      "--*-//": 2009,
      "---.-/": 2010,
      "-,,.--/": 2011,
      "-..+--": 2012,
      "-...--+": 2013,
      "-,.+--": 2014,
      "----.+": 2015,
      "----..----": 2016,
      "-'%": 2017,
      "(--&": 2018,
      "/--.-*": 2019,
      "-+,+--,": 2020,
      "-+.,----": 2021,
      "-,/.--/": 2022,
      "-/,+--.": 2023,
      "-.+,----": 2024,
      "-.+/--+": 2025,
      "--(-*": 2026,
      "-&/": 2027,
      "---+--,": 2028,
      "-+/.--/": 2029,
      "+--+-.": 2030,
      "-*,.--.": 2031,
      ".--,-(": 2032,
      "-,*,--+": 2033,
      "-*..--": 2034,
      "-*.,--": 2035,
      "-*..--.": 2036,
      "-.*.--,": 2037,
      "ĀĀ.Ā(": 2038,
      "-%,": 2039,
      "ĀĀ/Ā)": 2040,
      "ĀĀ(Ā*": 2041,
      "ĀĀ(Ā+": 2042,
      "\"Ā": 2043,
      "&--,-": 2044,
      "()--": 2045,
      ")--.-,": 2046,
      "+.--*": 2047,
      ".+--.-": 2048,
      "/,----,": 2049,
      "/.----.": 2050,
      "/)--.": 2051,
      "69": 2052,
      "<ĀĀ": 2053,
      "Ġ2": 2054,
      "--ĝ": 2055,
      "-.---.-": 2056,
      "-.-.--,-": 2057,
      "-,-,--": 2058,
      "-,-.--": 2059,
      "-,*---+": 2060,
      "-,+---.": 2061,
      "--.-,/": 2062,
      "--.-*,": 2063,
      "--,-//": 2064,
      "--,-*,": 2065,
      "--,-/)": 2066,
      "-/,---.": 2067,
      "-/--,-.": 2068,
      "-/.-----": 2069,
      "-/-.--+": 2070,
      "--/,--,": 2071,
      "-*--/-": 2072,
      "-*.---.": 2073,
      "ĀĀė": 2074,
      ".---*": 2075,
      "-.----.----": 2076,
      "*---/": 2077,
      ",--.-+": 2078,
      "/-----+": 2079,
      ",--,--": 2080,
      "-../--,": 2081,
      "-..,--.-": 2082,
      "-..,----+": 2083,
      "---/----.": 2084,
      "-.//--": 2085,
      "-./.--,": 2086,
      "-.//--/": 2087,
      ".--+-*": 2088,
      "-/..--": 2089,
      "-/.,----.": 2090,
      "-+.,--": 2091,
      ".--/--": 2092,
      "-/,+----": 2093,
      "-.+,--,-": 2094,
      "*----+,": 2095,
      "-/------+": 2096,
      "---+----,": 2097,
      "-+++--,": 2098,
      "*--.--": 2099,
      "-+/+--.": 2100,
      "/--/-(": 2101,
      "-,*.--,": 2102,
      "-,*.--+": 2103,
      "-*..--/": 2104,
      "*--/-/": 2105,
      "-%)": 2106,
      "-%*": 2107,
      "ĀĀ-Ā,": 2108,
      "ĀĀ+Ā-": 2109,
      "--,-.-,--,": 2110,
      "/.,----": 2111,
      ")-----": 2112,
      "/--*-+": 2113,
      ".,----/": 2114,
      ".--)-/": 2115,
      ",,----/": 2116,
      "ĀĀ'Ā+": 2117,
      "ĀĀ%Ā)": 2118,
      "------------------------": 2119,
      ",-----,---,": 2120,
      "ĀĀ?Ā": 2121,
      "!*": 2122,
      "\"&": 2123,
      "%----": 2124,
      "'--)": 2125,
      "')--": 2126,
      "(----/": 2127,
      ").--+": 2128,
      "*,--*": 2129,
      "*+--,-": 2130,
      "++--.": 2131,
      ",\"": 2132,
      ",/--.": 2133,
      ",,--+-": 2134,
      ".*--+": 2135,
      ".+----.": 2136,
      "./--.-": 2137,
      ".)--+": 2138,
      ":.--": 2139,
      "ĀĞ": 2140,
      "----*-": 2141,
      "-..----.": 2142,
      "-.-+--,": 2143,
      "-.-,--/": 2144,
      "-.-/--": 2145,
      "-,+--,": 2146,
      "-,-+----": 2147,
      "-,-/--.": 2148,
      "--./----.": 2149,
      "--.---*": 2150,
      "--,/--+": 2151,
      "--,*--,": 2152,
      "--,-.*": 2153,
      "--,-*+": 2154,
      "--,---)": 2155,
      "-/+--": 2156,
      "-/--.-,": 2157,
      "-+\"": 2158,
      "-+-+": 2159,
      "-+-.--": 2160,
      "--+--*": 2161,
      "--+-./": 2162,
      "-*+--": 2163,
      "ĀĀę": 2164,
      ".----)": 2165,
      ".--*--": 2166,
      ",--\"": 2167,
      ",---.--,": 2168,
      "-)/---": 2169,
      "-,------.,----": 2170,
      "/--%-": 2171,
      "*---.-": 2172,
      "------------,": 2173,
      "--*-'": 2174,
      "---.--.-,": 2175,
      "---.--.-.": 2176,
      "+-----*": 2177,
      "+----+,": 2178,
      "+----+.": 2179,
      "---%-": 2180,
      "-,,--,-": 2181,
      "-..*--/": 2182,
      "-..+----,": 2183,
      "--+-'": 2184,
      "-.,--.-": 2185,
      "-.,*----": 2186,
      "-.,.----,": 2187,
      "-.,*--.": 2188,
      "--)-)": 2189,
      "--)-%": 2190,
      ")--(-": 2191,
      "-./.--/": 2192,
      "-./+--/": 2193,
      "-'--": 2194,
      "-/.,----,": 2195,
      "(--%": 2196,
      "-+..--,": 2197,
      "-+.,--.-": 2198,
      "-,+.----,": 2199,
      "-,+/--+": 2200,
      "-,/,--.-": 2201,
      "-/,+--+": 2202,
      "--,------": 2203,
      "-+----*": 2204,
      "-+------+": 2205,
      "-&+": 2206,
      "--'-.": 2207,
      "-*,,----": 2208,
      "'--%": 2209,
      "-*.,--.": 2210,
      "-,----..----": 2211,
      "----++": 2212,
      "ĀĀ.Ā+": 2213,
      "-.,------------": 2214,
      "ĀĀ-Ā+": 2215,
      "+,.--,": 2216,
      "--.-.)": 2217,
      "---------------.----": 2218,
      "ĀĀ(Ā)": 2219,
      "ĀĀ(Ā(": 2220,
      ",--)-/": 2221,
      "+--)-.": 2222,
      "-/----.-": 2223,
      "!'": 2224,
      "\"/": 2225,
      "##": 2226,
      "$*--": 2227,
      "$)--": 2228,
      "&--/-": 2229,
      "'--+-": 2230,
      "('--": 2231,
      ")+--,": 2232,
      ")(--": 2233,
      ",!": 2234,
      "..--+": 2235,
      ".'--": 2236,
      ".(----": 2237,
      "//--.-": 2238,
      "79": 2239,
      "96": 2240,
      ">-": 2241,
      "Ě-": 2242,
      "Ĝ--": 2243,
      "------.----": 2244,
      "------.-,": 2245,
      "------.-.": 2246,
      "-,--(": 2247,
      "-,---,-": 2248,
      "-,.---+": 2249,
      "-,-.--.-": 2250,
      "--.-),": 2251,
      "--,+--": 2252,
      "--,----,": 2253,
      "--,-),": 2254,
      "--,-)+": 2255,
      "-+-.----,": 2256,
      "-+--,-.": 2257,
      "-+,-----": 2258,
      "-++---.": 2259,
      "--/-,,": 2260,
      "--/-++": 2261,
      "--+-+,": 2262,
      "--+-++": 2263,
      "--+.--,-": 2264,
      "-*-)": 2265,
      "-*,---.": 2266,
      "-*.---": 2267,
      ".------+": 2268,
      ",-------.": 2269,
      ",-------.----": 2270,
      ",--%-": 2271,
      ",--$-": 2272,
      "+--#": 2273,
      "-)----/": 2274,
      "-.-------/": 2275,
      "-,----.----": 2276,
      "/--*--": 2277,
      "--,-(": 2278,
      "*---)-": 2279,
      "--*-(": 2280,
      "--*+--,": 2281,
      "---$-": 2282,
      "---,-/": 2283,
      "-,,,--,-": 2284,
      "-.,.--": 2285,
      "-.,/--+": 2286,
      "-.,,--,-": 2287,
      "-.,+----.": 2288,
      ")--&": 2289,
      "---/--+": 2290,
      "+--,-/": 2291,
      "/--.--": 2292,
      "-+./----": 2293,
      "-+./--,": 2294,
      "-,+/----": 2295,
      "-,+.--,-": 2296,
      "-/,.--": 2297,
      "*----)": 2298,
      "-&--": 2299,
      "---+--": 2300,
      "-//+--/": 2301,
      "---.----+": 2302,
      "*--.-)": 2303,
      "-+/.----": 2304,
      "-/+,--+": 2305,
      "-/++--+": 2306,
      "010": 2307,
      "011": 2308,
      "'---*-": 2309,
      "*--/--": 2310,
      "-*+/--,": 2311,
      "ĀĀ.Ā,": 2312,
      "ĀĀ-Ā*": 2313,
      ",--*-.": 2314,
      "ĀĀ*Ā+": 2315,
      "-/*,--,": 2316,
      "--,-,-.----": 2317,
      "-*/.--": 2318,
      "-*//--": 2319,
      "-*/.--.": 2320,
      "/--*-.": 2321,
      "/--*-/": 2322,
      "ĀĀ)Ā.": 2323,
      "+..--.": 2324,
      "+.--+-": 2325,
      ".--)-.": 2326,
      "ĀĀ'Ā.": 2327,
      "ĀĀ'Ā,": 2328,
      "*--*-.": 2329,
      "-/--.-+": 2330,
      "-,-----------.": 2331,
      "-,-----------,": 2332,
      "-.-------------": 2333,
      "ĀĀğĀ": 2334,
      "!%": 2335,
      "!(": 2336,
      "!)": 2337,
      "\"$": 2338,
      "#$": 2339,
      "#/": 2340,
      "%,--": 2341,
      ")\"": 2342,
      ")+--+": 2343,
      "*,--,-": 2344,
      ",(--": 2345,
      ",/----,": 2346,
      ",/----.": 2347,
      ",/--,-": 2348,
      "-ĝ": 2349,
      ".+--+": 2350,
      ".)--.": 2351,
      ".)--,": 2352,
      ".*--.-": 2353,
      "210": 2354,
      "78": 2355,
      ":/--": 2356,
      ";Ā": 2357,
      "@Ā": 2358,
      "Ġ&": 2359,
      "--<-": 2360,
      "-------,----": 2361,
      "-.-.--+": 2362,
      "-.+---.": 2363,
      "-./---.-": 2364,
      "-,-*": 2365,
      "-,*----": 2366,
      "-,+---,-": 2367,
      "--.--)": 2368,
      "--.-/.": 2369,
      "--.-/,": 2370,
      "--./----,": 2371,
      "--.---,-": 2372,
      "--,.--": 2373,
      "--,/----.": 2374,
      "-/-,--/": 2375,
      "-+#": 2376,
      "-+/---": 2377,
      "-+.-----": 2378,
      "-+.---.-": 2379,
      "--/--/": 2380,
      "--/-,+": 2381,
      "--/-.+": 2382,
      "--/-,*": 2383,
      "--/-).": 2384,
      "--+--/": 2385,
      "--+-.+": 2386,
      "--++--+": 2387,
      "--+-*.": 2388,
      "-*/----": 2389,
      "-*-.--,": 2390,
      "-*-,--": 2391,
      "-*-.--/": 2392,
      ".-------.----": 2393,
      ",----)": 2394,
      ".--!": 2395,
      ".--)--": 2396,
      ".---.--------": 2397,
      "-)+---+": 2398,
      "-.-------,----": 2399,
      "-,------,.----": 2400,
      "/---.--.": 2401,
      "/--$-": 2402,
      "--,-'": 2403,
      "*--$": 2404,
      "---------,": 2405,
      "---------.----": 2406,
      ",--.-,+": 2407,
      "--*-.+": 2408,
      "---.--,-.": 2409,
      "+-----/": 2410,
      "---#": 2411,
      ".--.--": 2412,
      ",--,-+": 2413,
      "---,--.-,": 2414,
      "-,,,--": 2415,
      "-,,.--,-,": 2416,
      "-..+--/": 2417,
      "-.,/--.": 2418,
      "-.,.--,-": 2419,
      "/--,-/": 2420,
      ",--/-(": 2421,
      "-./+----": 2422,
      "-./,--,": 2423,
      "-/.,--.-": 2424,
      "-+,.--+": 2425,
      "-+.+--.": 2426,
      "-+..----,": 2427,
      "-,+.----": 2428,
      "-,/.--,": 2429,
      "-,/+--/": 2430,
      "-/,,--": 2431,
      "-.+*--,": 2432,
      "--.------.----": 2433,
      "--.------,----": 2434,
      "--,------.": 2435,
      "--(-+": 2436,
      "*----++": 2437,
      "-/----*": 2438,
      "-//,--": 2439,
      ".----,,----": 2440,
      "/--+-*": 2441,
      "+--+-/": 2442,
      "-*,.--+": 2443,
      "-*.,--/": 2444,
      "--*-%": 2445,
      "-.*,--+": 2446,
      ".--.-(": 2447,
      "*--/-+": 2448,
      "-+*,--,": 2449,
      "ĀĀ.Ā'": 2450,
      "--,-.-": 2451,
      "ĀĀ*Ā*": 2452,
      "ĀĀ*Ā,": 2453,
      "ĀĀ,Ā,": 2454,
      "-+)---,": 2455,
      "/..----": 2456,
      "-*/,--": 2457,
      "-$-": 2458,
      "ĀĀ/Ā'": 2459,
      "ĀĀ)Ā,": 2460,
      "-)..--": 2461,
      "+--*-,": 2462,
      "Ā.)": 2463,
      "ĀĀ(Ā.": 2464,
      "ĀĀ'Ā/": 2465,
      "ĀĀ%Ā/": 2466,
      "!&": 2467,
      "\"+": 2468,
      "$+": 2469,
      "%--,-": 2470,
      "&!": 2471,
      "'(--": 2472,
      "(.--+": 2473,
      "(----*": 2474,
      "))--": 2475,
      ")--,-,": 2476,
      ").--)": 2477,
      "*+--*": 2478,
      "*+--+-": 2479,
      "*,ĀĀ": 2480,
      "+.--.": 2481,
      "+)----": 2482,
      ",+----,": 2483,
      "-=": 2484,
      "->": 2485,
      ".ĀĀ-Ā": 2486,
      ".ĀĀ+Ā": 2487,
      ".%--": 2488,
      ".*--,-": 2489,
      "/,--+": 2490,
      "/+----.": 2491,
      "/+--.-": 2492,
      "88": 2493,
      "94": 2494,
      "98": 2495,
      "=Ā": 2496,
      "Ā-*": 2497,
      "Ġ\"": 2498,
      "Ġ(": 2499,
      "Ġ3": 2500,
      "--ğ-": 2501,
      "------,-.": 2502,
      "-.,--,": 2503,
      "-,#": 2504,
      "-,-)": 2505,
      "-,,--.": 2506,
      "-,--*-": 2507,
      "-,,---/": 2508,
      "--.*--": 2509,
      "--.-+/": 2510,
      "--.-/+": 2511,
      "--.-.*": 2512,
      "--.-/*": 2513,
      "--.-)*": 2514,
      "-/.---/": 2515,
      "-/--,-,": 2516,
      "-/-,--": 2517,
      "-+--/-": 2518,
      "-+-,--/": 2519,
      "--/-./": 2520,
      "--/-/.": 2521,
      "--/.----,": 2522,
      "--/-/+": 2523,
      "--//--/": 2524,
      "--/-*,": 2525,
      "--+---.": 2526,
      "--+/----": 2527,
      "--+-.,": 2528,
      "--+,--,-": 2529,
      "--+-.*": 2530,
      "-*--*": 2531,
      "-*/---": 2532,
      "-*-.--": 2533,
      "ĀĀ>Ā": 2534,
      ",-----/": 2535,
      ".--#": 2536,
      ".--%-": 2537,
      ",---.----": 2538,
      ",--&-": 2539,
      "+---*-": 2540,
      "-)-.----": 2541,
      "-)--.-": 2542,
      "-,--------------------": 2543,
      "/--#": 2544,
      "/--\"-": 2545,
      "*---'": 2546,
      "--------/": 2547,
      "--*-*+": 2548,
      "/----)": 2549,
      "/-----,": 2550,
      "/----/,": 2551,
      "---,-.": 2552,
      "-(#": 2553,
      "--/-$": 2554,
      "-.,--/": 2555,
      "-.,+----,": 2556,
      "--)-,,": 2557,
      "--).--+": 2558,
      ")---)-": 2559,
      "---/-+": 2560,
      "/--,-+": 2561,
      ",---,-.": 2562,
      "-./,----.": 2563,
      "-'&": 2564,
      "-/.*--": 2565,
      "-/./--.": 2566,
      "-+,,--": 2567,
      "-+,+----": 2568,
      "-+,,--+": 2569,
      "-+.,--,": 2570,
      "-+.+--/": 2571,
      "-,+,--.": 2572,
      "-,+.--.": 2573,
      "-/,/--,": 2574,
      "-/,.--,-": 2575,
      "-.+.----": 2576,
      "*----*": 2577,
      ".----.-,----": 2578,
      ",----.-": 2579,
      ",----..----": 2580,
      ",----.,.----": 2581,
      "-++/----": 2582,
      "---.------,----": 2583,
      "-,--,---,": 2584,
      "-+/,--/": 2585,
      "-*,.----": 2586,
      "-,*+--,": 2587,
      "-.*.--+": 2588,
      "--&-/": 2589,
      "*--/-.": 2590,
      "----+)": 2591,
      "----+/": 2592,
      "-+*,--+": 2593,
      "-.----,-,----": 2594,
      "-*+.--,": 2595,
      "ĀĀ.Ā&": 2596,
      ",--*-*": 2597,
      "ĀĀ+Ā.": 2598,
      "--,-.)": 2599,
      "ĀĀ*Ā'": 2600,
      "ĀĀ,Ā)": 2601,
      "-/*.--+": 2602,
      "%--%": 2603,
      "-,)---,": 2604,
      "ĀĀ(Ā/": 2605,
      "ĀĀ'Ā&": 2606,
      ".--(-/": 2607,
      "-/----,-": 2608,
      "*--.-(": 2609,
      "-,-----------": 2610,
      "ĀĀ$Ā*": 2611,
      "-/,---,-": 2612,
      "ĀĀĜĀ": 2613,
      "!#": 2614,
      "!*--": 2615,
      "!)--": 2616,
      "\"*": 2617,
      "%!": 2618,
      "%#": 2619,
      "%$": 2620,
      "&#": 2621,
      "&--+": 2622,
      "'----/": 2623,
      ")*--,": 2624,
      "*)--": 2625,
      "*+--.": 2626,
      "*)--,": 2627,
      "*,--)": 2628,
      "+,----.": 2629,
      "+*--.": 2630,
      "+/--,-": 2631,
      "+)--,": 2632,
      ",.--*": 2633,
      ",ĀĀ+Ā": 2634,
      ",&--": 2635,
      ",)--,": 2636,
      ",,--)": 2637,
      ",.--,-,": 2638,
      "-Ĝ": 2639,
      ".(--": 2640,
      ".)--/": 2641,
      "/.--+": 2642,
      "/*--,": 2643,
      "/)--,": 2644,
      "101": 2645,
      "59": 2646,
      "97": 2647,
      ":Ā": 2648,
      ":+--": 2649,
      "<Ā": 2650,
      "Ā-,": 2651,
      "ĘĀ": 2652,
      "Ġ,": 2653,
      "---)-": 2654,
      "------)": 2655,
      "------,-,": 2656,
      "-./-----": 2657,
      "-,--.----": 2658,
      "-,-/----,": 2659,
      "-,-.--,-": 2660,
      "--./--/": 2661,
      "--.-+*": 2662,
      "--.-*+": 2663,
      "--.-).": 2664,
      "--,-+/": 2665,
      "--,-+)": 2666,
      "-/-(": 2667,
      "-/+--.": 2668,
      "-/.---": 2669,
      "-+*----": 2670,
      "-+---+": 2671,
      "-+*---+": 2672,
      "--/*--": 2673,
      "--/,--.-": 2674,
      "--++----": 2675,
      "--+*--,": 2676,
      "--+-,*": 2677,
      "--+-*+": 2678,
      "-*\"": 2679,
      "-*#": 2680,
      "-*-,--.": 2681,
      "-*+---+": 2682,
      "-*-,--/": 2683,
      ".----,--,": 2684,
      ".---*-": 2685,
      ",---(": 2686,
      "+---.-": 2687,
      "-).---.": 2688,
      "-.----)": 2689,
      "-.----,--.": 2690,
      "-.-----,,----": 2691,
      "-.------..----": 2692,
      "-.------,,----": 2693,
      "-,------,,----": 2694,
      "--.-#": 2695,
      "--.-%": 2696,
      "*--%": 2697,
      "*--'-": 2698,
      "--------+": 2699,
      "--*-..": 2700,
      "--*-/,": 2701,
      "--*,--+": 2702,
      "--*+--+": 2703,
      "+------/": 2704,
      "/------": 2705,
      "/------.": 2706,
      "---,-+": 2707,
      "---,,----": 2708,
      "---,--*": 2709,
      "-($": 2710,
      "-,,,--/": 2711,
      "-,,,----+": 2712,
      "--+-%": 2713,
      "-,.*----": 2714,
      "-,./----,": 2715,
      "-,.+----.": 2716,
      "-,.,--/-": 2717,
      "-.,*--,": 2718,
      "-.,+--+": 2719,
      "-.,.--,-,": 2720,
      "+--.-,,": 2721,
      "+--.-/.": 2722,
      "/--,-,": 2723,
      "-+,/--.": 2724,
      "-,+,--": 2725,
      "-,+,----.": 2726,
      "-,++--+": 2727,
      "-,/,--,": 2728,
      "-,/.--.-": 2729,
      ".--/-(": 2730,
      "-/,+--": 2731,
      "-/,.--.": 2732,
      "-/,,--,-": 2733,
      "--.------": 2734,
      "--.-------,----": 2735,
      "--,------,----": 2736,
      "*----/.": 2737,
      "-&&": 2738,
      "---,------.": 2739,
      "---,------,----": 2740,
      "-//+----": 2741,
      "-//,--/": 2742,
      "-++/--+": 2743,
      "-+/.--,": 2744,
      "-+/,--.-": 2745,
      "-/+,--,-": 2746,
      "-*,,--,": 2747,
      "-*,.--/": 2748,
      "-*..----": 2749,
      "--&--": 2750,
      "--&-)": 2751,
      "-,.------.----": 2752,
      "-+*.----": 2753,
      "-*+.----": 2754,
      "ĀĀ.Ā*": 2755,
      "ĀĀ.Ā.": 2756,
      "-%+": 2757,
      "ĀĀ-Ā'": 2758,
      "ĀĀ+Ā,": 2759,
      "--.---.--.": 2760,
      "ĀĀ*Ā)": 2761,
      "&--%": 2762,
      "&---*": 2763,
      "&---)-": 2764,
      "-),/--": 2765,
      "-+).--,": 2766,
      "--,-,(": 2767,
      "-*/,--/": 2768,
      "ĀĀ/Ā(": 2769,
      "ĀĀ)Ā+": 2770,
      "/,.--,": 2771,
      "+----,+": 2772,
      ".--)-,": 2773,
      "..-----": 2774,
      "ĀĀ'Ā'": 2775,
      "-,-.----/": 2776,
      "/ĀĀĞ": 2777,
      "ĀĀ%Ā.": 2778,
      "-+----,-": 2779,
      "+)--,-": 2780,
      "-.-----------": 2781,
      ".+----/": 2782,
      "-.----/-": 2783,
      "-,,---+-": 2784,
      "\"#": 2785,
      "\"--,-": 2786,
      "$(--": 2787,
      "%---": 2788,
      "%--)": 2789,
      "&+--": 2790,
      "&/--": 2791,
      "',--": 2792,
      "'----,": 2793,
      "'--)-": 2794,
      "(--)-": 2795,
      "),----": 2796,
      ")'--": 2797,
      ").--*": 2798,
      ")----.,": 2799,
      "*/--*": 2800,
      "*.--+-": 2801,
      "*+ĀĀ": 2802,
      "+,----,": 2803,
      "+'--": 2804,
      "+ĀĀ/Ā": 2805,
      "++--+-": 2806,
      ",.--/": 2807,
      ",ĀĀ,Ā": 2808,
      ",)----": 2809,
      ",,--*-": 2810,
      ",.ĀĀ": 2811,
      ",*----,": 2812,
      ".!": 2813,
      ".\"": 2814,
      ".+--,-": 2815,
      "./----.": 2816,
      ".+----,": 2817,
      "/!": 2818,
      "/ĀĀ.Ā": 2819,
      "/)----": 2820,
      "/+----,": 2821,
      "/)--/": 2822,
      "100": 2823,
      "121": 2824,
      "140": 2825,
      "200": 2826,
      "301": 2827,
      "ĝ--": 2828,
      "Ġ+": 2829,
      "-----)": 2830,
      "----)-": 2831,
      "-.$": 2832,
      "-.ĀĀ": 2833,
      "-.---/": 2834,
      "-.-.--/": 2835,
      "-.-.--.-": 2836,
      "-,-,--,-": 2837,
      "-,/---,": 2838,
      "--.+--,": 2839,
      "--.*----": 2840,
      "--.*--,": 2841,
      "--.-+)": 2842,
      "--,-+*": 2843,
      "--,-*-": 2844,
      "-/-*": 2845,
      "-/-'": 2846,
      "-/-.----,": 2847,
      "-/-+--.": 2848,
      "-/-+--,": 2849,
      "-+--+-": 2850,
      "-+--.-,": 2851,
      "-+--.-.": 2852,
      "-+-,--": 2853,
      "--/-*.": 2854,
      "--/.--.-": 2855,
      "--/-*/": 2856,
      "--+,--": 2857,
      "--+-/+": 2858,
      "--+-----,": 2859,
      "--+---)": 2860,
      "-*-*": 2861,
      "-*-/----": 2862,
      "-*-.--+": 2863,
      "-*-/--.": 2864,
      ",------+": 2865,
      ".---,--,": 2866,
      ".--*--,": 2867,
      ",--#": 2868,
      ",--:": 2869,
      "+--:": 2870,
      "-)-)": 2871,
      "-.------*": 2872,
      "-.----/.": 2873,
      "-.--------------------": 2874,
      "-,-----.----": 2875,
      "-,--------.": 2876,
      "-,------..----": 2877,
      "/---+-": 2878,
      "--,-&": 2879,
      "--.-&": 2880,
      "------------.": 2881,
      ",--.----": 2882,
      "--*--+": 2883,
      "--*/--,": 2884,
      "--*-./": 2885,
      "--*-/+": 2886,
      "--*-.*": 2887,
      "+----/.": 2888,
      "/----+.": 2889,
      "-,,+--": 2890,
      "-,,.----/": 2891,
      "-..--.-": 2892,
      "-..,--+": 2893,
      "-../--/": 2894,
      "-,.--,-": 2895,
      "-,.*--.": 2896,
      "-,./----.": 2897,
      "-.,,--/": 2898,
      "-.,,--*": 2899,
      "----.)": 2900,
      "----.-,----": 2901,
      "+--.-/": 2902,
      "---/-)": 2903,
      "-./+--,": 2904,
      "-./,--.-": 2905,
      "+--,-)": 2906,
      "-/./--,": 2907,
      "-/..----,": 2908,
      "-/.*--/": 2909,
      "(--$": 2910,
      "(--&-": 2911,
      "-,++--,": 2912,
      "-/,*----": 2913,
      "-.+*--": 2914,
      "-.+,----,": 2915,
      "-.++--+": 2916,
      "-.+.--,-.": 2917,
      "001": 2918,
      "002": 2919,
      "*-----,": 2920,
      "-&'": 2921,
      "-/-----": 2922,
      "---,-----.": 2923,
      "-//+--": 2924,
      "-//.--/": 2925,
      "-//,----,": 2926,
      ".----.-": 2927,
      "-++.--": 2928,
      "-++.--*": 2929,
      "---.------.": 2930,
      "--'--": 2931,
      "--'-)": 2932,
      "*--.-+": 2933,
      "/--+--": 2934,
      "-+/*--": 2935,
      "/--/-+": 2936,
      "+--+-+": 2937,
      "-*,/--": 2938,
      "-*,/--,": 2939,
      "-*./--": 2940,
      "-*..--,": 2941,
      "-..------.----": 2942,
      "-..------,----": 2943,
      "----/*": 2944,
      "-.*,--)": 2945,
      "--&-'": 2946,
      "*--/-,": 2947,
      "-,.------------": 2948,
      "-+*/--+": 2949,
      "-+*.--+-": 2950,
      "-*+,----": 2951,
      "ĀĀ.Ā%": 2952,
      "ĀĀ.Ā-": 2953,
      "111": 2954,
      ",--*-)": 2955,
      "ĀĀ+Ā&": 2956,
      "ĀĀ+Ā)": 2957,
      "-*//--.": 2958,
      "+--*-*": 2959,
      "+--*-)": 2960,
      "-)+.----": 2961,
      "+--.-(": 2962,
      ",,----+": 2963,
      "ĀĀ'Ā*": 2964,
      "ĀĀ'Ā)": 2965,
      "ĀĀ'Ā(": 2966,
      "-)/.--": 2967,
      "-)/,--": 2968,
      "-)//--": 2969,
      "-#'": 2970,
      "*--*-/": 2971,
      "/ĀĀ#Ā": 2972,
      "------,--------": 2973,
      "-,--------.----": 2974,
      "Ā%,": 2975,
      ",-----,,--,": 2976,
      ",--'-/": 2977,
      "-,----+-": 2978,
      "--;-": 2979,
      "-,-------.-----": 2980,
      "ĀĀĞĀ": 2981,
      "ĀĀ@Ā": 2982,
      "!!": 2983,
      "!$": 2984,
      "\"!": 2985,
      "\",": 2986,
      "$----": 2987,
      "%\"": 2988,
      "%--.": 2989,
      "%--/-": 2990,
      "(ĀĀ/Ā": 2991,
      ").--,": 2992,
      "),--+": 2993,
      "),--*": 2994,
      ")/--*-": 2995,
      "*.--,-": 2996,
      "*ĀĀ-Ā": 2997,
      "+ĀĀ*Ā": 2998,
      "+%--": 2999,
      "++--*": 3000,
      "+)--.": 3001,
      ",,--/": 3002,
      ",.--.-": 3003,
      ",ĀĀ*Ā": 3004,
      ",)--.": 3005,
      "-?": 3006,
      "-@": 3007,
      "-ĀĀ,Ā": 3008,
      "..--+-": 3009,
      ".+--/-": 3010,
      "/\"": 3011,
      "/:": 3012,
      "/;": 3013,
      "/,----.": 3014,
      "/ĀĀ,Ā": 3015,
      "/&--": 3016,
      "//----.": 3017,
      "/(--/": 3018,
      "/(--.": 3019,
      "030": 3020,
      "040": 3021,
      "201": 3022,
      "211": 3023,
      "220": 3024,
      "89": 3025,
      "<--": 3026,
      "=--": 3027,
      "Ā<": 3028,
      "Āĝ": 3029,
      "Ā-/": 3030,
      "Ġ#": 3031,
      "Ġ$": 3032,
      "Ġ'": 3033,
      "Ġ-/": 3034,
      "------+-": 3035,
      "-.#": 3036,
      "-.--.----": 3037,
      "-.--)-": 3038,
      "-.-/--.": 3039,
      "-..---+": 3040,
      "-.,---/": 3041,
      "-.,---*": 3042,
      "-.-,--.-": 3043,
      "-..---/-": 3044,
      "-,-(": 3045,
      "-,/--,": 3046,
      "-,--'": 3047,
      "--.--*": 3048,
      "--.+--/": 3049,
      "--,--.---.": 3050,
      "--,/----,": 3051,
      "--,+--,-": 3052,
      "--,-**": 3053,
      "-/\"": 3054,
      "-/ĀĀ": 3055,
      "-/-.--": 3056,
      "-+--(": 3057,
      "-+,---": 3058,
      "-+,---/": 3059,
      "-++-----": 3060,
      "--/-..": 3061,
      "--/---+": 3062,
      "--/*--.": 3063,
      "--/------.": 3064,
      "--+-,.": 3065,
      "--+----.": 3066,
      "--+,----.": 3067,
      "--+-+/": 3068,
      "--++--,-": 3069,
      "-*--)": 3070,
      "-*/---.": 3071,
      ",----+,": 3072,
      ",------,,----": 3073,
      ".--\"": 3074,
      ".--*--.": 3075,
      ".--\"-": 3076,
      "+---(": 3077,
      "+---,--,": 3078,
      "+--#-": 3079,
      "+--%-": 3080,
      "-.-------+": 3081,
      "-.----+,": 3082,
      "-,--------,": 3083,
      "-,-------/": 3084,
      "-,-----,,----": 3085,
      "/--!": 3086,
      "/--$": 3087,
      "--.-$": 3088,
      "*---,--,": 3089,
      "*--%-": 3090,
      "*---(-": 3091,
      "----------,": 3092,
      "---------,----": 3093,
      "-----------.": 3094,
      "--*-,.": 3095,
      "--*-.,": 3096,
      "--*-/)": 3097,
      "---.--+-": 3098,
      "---.--,----": 3099,
      "---.--,-,": 3100,
      "+------+": 3101,
      ".--.-)": 3102,
      ".--.-,/": 3103,
      "---,--,-.": 3104,
      "---,--.-.": 3105,
      "-(\"": 3106,
      "-,,+--+": 3107,
      "-,,/----,": 3108,
      "-..+----.": 3109,
      "-..)--.": 3110,
      "-,.,----+": 3111,
      "-.,,--.-": 3112,
      "--)---": 3113,
      "--)---,": 3114,
      "--)-&": 3115,
      "----.-+----": 3116,
      ")--$": 3117,
      "---/-/": 3118,
      "---/-(": 3119,
      ",--/-,/": 3120,
      "-./*--": 3121,
      "-.//----": 3122,
      "-./)--": 3123,
      "-./.----.": 3124,
      "-./.--.-": 3125,
      ".--+--": 3126,
      "-/./--": 3127,
      "-/.+--,": 3128,
      "-/..----.": 3129,
      "(--(-": 3130,
      "-+,+--": 3131,
      "-+,.----.": 3132,
      "-+,.----,": 3133,
      "-+,/--+": 3134,
      "-+,,--,-": 3135,
      "-+.+--": 3136,
      "-+./--": 3137,
      "-,+,--/": 3138,
      "-,/.----.": 3139,
      "-/,,----,": 3140,
      "-/,/--+": 3141,
      "-.+,--": 3142,
      "-.+.--*": 3143,
      ",--+--": 3144,
      "--,-------,----": 3145,
      "--(-)": 3146,
      "*-----+": 3147,
      "-+------*": 3148,
      "-&#": 3149,
      "-/----,--.": 3150,
      ",----,,---,": 3151,
      "-//*--": 3152,
      "-///--.": 3153,
      "-//*--.": 3154,
      "---.------------": 3155,
      "+--/--": 3156,
      "+--/-)": 3157,
      "*--.-/": 3158,
      "*--.-,.": 3159,
      "/--/--": 3160,
      "/--/-)": 3161,
      "-*,/--.": 3162,
      "-*,,--,-": 3163,
      "'--&": 3164,
      "-..-----,,----": 3165,
      "--&-,": 3166,
      "----+*": 3167,
      "-+*+--,": 3168,
      "ĀĀ.Ā)": 3169,
      "-%--": 3170,
      "-.----..----": 3171,
      "ĀĀ+Ā+": 3172,
      "021": 3173,
      "022": 3174,
      "+,--/-": 3175,
      "*--+-.": 3176,
      "*--+-,": 3177,
      "*--+-+": 3178,
      "-),.--,": 3179,
      "-+),--,": 3180,
      "-+).--+": 3181,
      "--,---,--,": 3182,
      "/.--+-": 3183,
      "-$%": 3184,
      "-$--": 3185,
      "ĀĀ/Ā,": 3186,
      "-)..--/": 3187,
      "-**/--,": 3188,
      "-,).--,": 3189,
      "+--*-/": 3190,
      "-.).--+": 3191,
      "/--,-(": 3192,
      "122": 3193,
      "Ā.,": 3194,
      "Ā*.": 3195,
      "ĀĀ(Ā'": 3196,
      "ĀĀ(Ā&": 3197,
      "---*----": 3198,
      "Ā,.": 3199,
      ")--/--": 3200,
      ")--/-/": 3201,
      ")--/-+": 3202,
      "----*)": 3203,
      "031": 3204,
      "--$-.": 3205,
      "-#*": 3206,
      "--.,----+": 3207,
      "--,-/-": 3208,
      ".--(-+": 3209,
      "233": 3210,
      ",ĀĀ&Ā": 3211,
      "ĀĀ$Ā+": 3212,
      "----).": 3213,
      "/--(-/": 3214,
      ".--.-.-.--.": 3215,
      "-.-----------,": 3216,
      "ĀĀ&Ā+": 3217,
      "+--(-.": 3218,
      ".-----------": 3219,
      ".-----------,": 3220,
      ",-----,.--,": 3221,
      ",-----------.": 3222,
      "-+,---,-": 3223,
      ".-------------": 3224,
      "ĀĀĚĀ": 3225,
      "\"\"": 3226,
      "\"(": 3227,
      "\")": 3228,
      "\".--": 3229,
      "#+": 3230,
      "$,--": 3231,
      "$---": 3232,
      "%--+": 3233,
      "&--)-": 3234,
      "'--,": 3235,
      "')ĀĀ": 3236,
      "'*--)": 3237,
      "(.--,": 3238,
      "(,--)": 3239,
      "(.--*-": 3240,
      ")/--+": 3241,
      "),--,-": 3242,
      "),--*-": 3243,
      "*)--+": 3244,
      "*/--)": 3245,
      "+/--.-": 3246,
      "+$--": 3247,
      "+*--.-": 3248,
      "+,--*-": 3249,
      "+)ĀĀ": 3250,
      "+*--)": 3251,
      ",+--/": 3252,
      ",,--.-": 3253,
      ",/--*": 3254,
      ",+--.-": 3255,
      ",*ĀĀ": 3256,
      ",)--,-": 3257,
      "-ĀĀ.Ā": 3258,
      "-ĀĀ-Ā": 3259,
      "..--/-": 3260,
      "..ĀĀ": 3261,
      "/.----,": 3262,
      "/.--,-": 3263,
      "/ĀĀ*Ā": 3264,
      "/ĀĀ)Ā": 3265,
      "/+--+-": 3266,
      "/,----/": 3267,
      "/*--/-": 3268,
      "/-ĀĀ": 3269,
      "/)--,-": 3270,
      "120": 3271,
      "99": 3272,
      ":ĀĀ,Ā": 3273,
      ";,": 3274,
      ";-,": 3275,
      ";---": 3276,
      "=ĀĀ": 3277,
      "=---": 3278,
      "?Ā": 3279,
      "Ā+.": 3280,
      "Ā/,": 3281,
      "ĝĀ": 3282,
      "Ğ#": 3283,
      "ğ%": 3284,
      "Ġ4": 3285,
      "Ġ5": 3286,
      "ĠĀĀ": 3287,
      "--?": 3288,
      "--%--": 3289,
      "--*--*": 3290,
      "----%": 3291,
      "-.*--": 3292,
      "-..--,": 3293,
      "-.,----,": 3294,
      "-.,---": 3295,
      "-.+---,-": 3296,
      "-.*---*": 3297,
      "-,/--": 3298,
      "-,--,----": 3299,
      "-,.----,": 3300,
      "--..--+": 3301,
      "--.,--+": 3302,
      "--.*--/": 3303,
      "--.-))": 3304,
      "--,-/*": 3305,
      "--,---.-": 3306,
      "--,-)/": 3307,
      "--,-+(": 3308,
      "--,.--,-.": 3309,
      "--,---+----": 3310,
      "-//--": 3311,
      "-//--.": 3312,
      "-/-/----": 3313,
      "-/--*-": 3314,
      "-/-,----,": 3315,
      "-/--.-.": 3316,
      "-/-/--,": 3317,
      "-//-----": 3318,
      "-/-,--,-": 3319,
      "-/*---*": 3320,
      "-+--)": 3321,
      "-+-+--,": 3322,
      "-+---,-": 3323,
      "-+-/--": 3324,
      "-+.---+": 3325,
      "-+,---*": 3326,
      "-++---*": 3327,
      "-+-+--/": 3328,
      "--/--*": 3329,
      "--//----": 3330,
      "--//--,": 3331,
      "--/,----.": 3332,
      "--/-/*": 3333,
      "--/-)+": 3334,
      "--/-+(": 3335,
      "--/-)*": 3336,
      "--/-----,": 3337,
      "--+-)+": 3338,
      "--+-/)": 3339,
      "--+-,-": 3340,
      "--+-+(": 3341,
      "--+-)*": 3342,
      "--+------.": 3343,
      "--+---,--.": 3344,
      "-*--+-": 3345,
      "-*/---/": 3346,
      "-**---,": 3347,
      "-*-+--,": 3348,
      "-*-.--.-": 3349,
      ".-----+": 3350,
      ".-----*": 3351,
      ".-------,": 3352,
      ".------,----": 3353,
      ",--)--": 3354,
      ",---'": 3355,
      ",--#-": 3356,
      "+--\"": 3357,
      "+--*--": 3358,
      "+---,--.": 3359,
      "-)!": 3360,
      "-)----+": 3361,
      "-.--------.": 3362,
      "-.----.--/": 3363,
      "-.------,.----": 3364,
      "-,----+.": 3365,
      "--,-$": 3366,
      "*--:-": 3367,
      "--------------------": 3368,
      ",--.-,.": 3369,
      "--*--/": 3370,
      "--*-,,": 3371,
      "--*-+,": 3372,
      "--*-,*": 3373,
      "--*-*.": 3374,
      "---..----": 3375,
      "---.--*": 3376,
      "+-----+": 3377,
      "/------+": 3378,
      "---\"": 3379,
      "---:": 3380,
      ".--.-)+": 3381,
      "-,,*--,": 3382,
      "-,,,--*": 3383,
      "-..,--*": 3384,
      "-../----,": 3385,
      "-../----.": 3386,
      "-...--,-,": 3387,
      "-..,----/": 3388,
      "-.,'": 3389,
      "-.,*--": 3390,
      "-.,,----+": 3391,
      "-.,.----/": 3392,
      "-.,,----/": 3393,
      "--)--.": 3394,
      "--)--*": 3395,
      "--)-'": 3396,
      "--)-.+": 3397,
      "----.,,----": 3398,
      ")--#": 3399,
      ")--;": 3400,
      ")--&-": 3401,
      "---/--.-": 3402,
      "---/------,": 3403,
      "/--,-/,": 3404,
      ",---,---,----": 3405,
      "-./*--/": 3406,
      "-./.--.-.": 3407,
      "-'#": 3408,
      "-/.,--+": 3409,
      "(--#": 3410,
      "/--.-//": 3411,
      "-+..--+": 3412,
      "-+.,----.": 3413,
      "-,++--.": 3414,
      "-,+*--,": 3415,
      "-,+,--*": 3416,
      "-,/,----": 3417,
      "-,/*--": 3418,
      "-,/,----,": 3419,
      "-,/,----.": 3420,
      "-/,*--.": 3421,
      "-/,)--,": 3422,
      "-.+.--,-": 3423,
      "-.+,--+-": 3424,
      "-//,--,": 3425,
      "-++,--": 3426,
      "-+++--": 3427,
      "-++,--.": 3428,
      "---.----/": 3429,
      "+---,-/": 3430,
      "-*,,--": 3431,
      "/---.-/": 3432,
      "'---)-": 3433,
      "-*.+--.": 3434,
      "-*./--,": 3435,
      "-.*/--+": 3436,
      "-.*,--*": 3437,
      ".--*-)": 3438,
      "--&-&": 3439,
      "*--/-(": 3440,
      "-,.-----.,----": 3441,
      "-+*.--,-": 3442,
      "-*+/----": 3443,
      "-,----,-.--.": 3444,
      "ĀĀ.Ā/": 3445,
      ",--*-/": 3446,
      "ĀĀ+Ā*": 3447,
      "--,-.,---,": 3448,
      "ĀĀ*Ā(": 3449,
      "ĀĀ*Ā-": 3450,
      "+,ĀĀ": 3451,
      "ĀĀ,Ā.": 3452,
      "-),.--.-": 3453,
      "'-ĀĀ": 3454,
      "--,-,-.--.": 3455,
      "--.-.-": 3456,
      "/.ĀĀ": 3457,
      "/..--.": 3458,
      "-*/+--": 3459,
      "-*/.--/": 3460,
      ")----*": 3461,
      ")-----+": 3462,
      "-$)": 3463,
      "-$*": 3464,
      "/--*-*": 3465,
      "ĀĀ)Ā(": 3466,
      "-).+--": 3467,
      "-**.--*": 3468,
      "+.,--.": 3469,
      "-.)---,": 3470,
      "-.)+--+": 3471,
      "/,,----": 3472,
      "--%-/": 3473,
      "--%-(": 3474,
      ".,----+": 3475,
      "..----+": 3476,
      "--$-/": 3477,
      "Ā/*": 3478,
      "--..------,----": 3479,
      "-#-": 3480,
      "-#/": 3481,
      ")--+-,": 3482,
      "-*------.": 3483,
      "ĀĀ%Ā,": 3484,
      "ĀĀ%Ā%": 3485,
      "ĀĀ%Ā-": 3486,
      "Ā(&": 3487,
      ".--(-,": 3488,
      "/--/-'": 3489,
      "+ĀĀ:": 3490,
      "142": 3491,
      ".----++": 3492,
      "*---+-/": 3493,
      "-))---,": 3494,
      "(--/-*": 3495,
      "ĀĀ$Ā,": 3496,
      ",--(-,": 3497,
      ".+----+,": 3498,
      ",--------.----": 3499,
      "--+---+-": 3500,
      "-.----+-": 3501,
      "!.": 3502,
      "!ĀĀ": 3503,
      "\"-+": 3504,
      "#!": 3505,
      "#\"": 3506,
      "$!": 3507,
      "$\"": 3508,
      "$+--": 3509,
      "$--,-": 3510,
      "$'--": 3511,
      "%+--": 3512,
      "%,--,-": 3513,
      "'!": 3514,
      "'----+": 3515,
      "'--'-": 3516,
      "'--/-,": 3517,
      "(;": 3518,
      "(/--": 3519,
      "(+----": 3520,
      "(---,": 3521,
      "(----.": 3522,
      "(*ĀĀ": 3523,
      "(---(": 3524,
      "),--,": 3525,
      ").--,-": 3526,
      ")*--+": 3527,
      ")+--,-": 3528,
      ").--+-": 3529,
      ")---,-": 3530,
      "),--+-": 3531,
      ")/--+-": 3532,
      ").--(": 3533,
      ")+--)": 3534,
      "*,----.": 3535,
      "*%--": 3536,
      "*ĀĀ)Ā": 3537,
      "*,--+-": 3538,
      "+!": 3539,
      "+\"": 3540,
      "+/--.": 3541,
      "+.----,": 3542,
      "+ĀĀ-Ā": 3543,
      "+ĀĀ,Ā": 3544,
      "++--.-": 3545,
      "+)--+": 3546,
      "+*--,-": 3547,
      "+(--,": 3548,
      "++--)-": 3549,
      "+.--+-.": 3550,
      "+.--&": 3551,
      ",*--/": 3552,
      ",*--,-": 3553,
      ",.--,-.": 3554,
      ",*--+-": 3555,
      "-Ě": 3556,
      ".ĀĀ,Ā": 3557,
      ".+--*": 3558,
      "./--,-": 3559,
      ".+--+-": 3560,
      ".*----.": 3561,
      ".*--+-": 3562,
      ".-ĀĀ": 3563,
      "./----/": 3564,
      "/.---.": 3565,
      "/+--+": 3566,
      "//----,": 3567,
      "/%--": 3568,
      "/+--,-": 3569,
      "230": 3570,
      "311": 3571,
      "321": 3572,
      "411": 3573,
      ":,--": 3574,
      ">--": 3575,
      "ĕĀ": 3576,
      "ė-": 3577,
      "ęĀ": 3578,
      "ĚĀ": 3579,
      "ĜĀ": 3580,
      "Ğ'": 3581,
      "ğĀĀ": 3582,
      "Ġ!": 3583,
      "--Ę": 3584,
      "--ě": 3585,
      "--@-": 3586,
      "-----,----": 3587,
      "-----..": 3588,
      "-----./": 3589,
      "-.--(": 3590,
      "-.,----.": 3591,
      "-.-*----": 3592,
      "-.*---+": 3593,
      "-./---,": 3594,
      "-.+---*": 3595,
      "-,/----.": 3596,
      "-,-/----.": 3597,
      "-,-,--.-": 3598,
      "-,.---,-": 3599,
      "--.---,----": 3600,
      "--.-+-": 3601,
      "--.+----,": 3602,
      "--.-*)": 3603,
      "--.-,..--.": 3604,
      "--.---/-": 3605,
      "--,*--": 3606,
      "--,*----": 3607,
      "--,*--/": 3608,
      "--,*--+": 3609,
      "--,-*/": 3610,
      "--,-).": 3611,
      "--,+----,": 3612,
      "-/-.----.": 3613,
      "-/-.--/": 3614,
      "-/,---+-": 3615,
      "-+--*-": 3616,
      "-+-,----.": 3617,
      "-+--,-,": 3618,
      "-+-,--+": 3619,
      "-+-.--,-": 3620,
      "-+/---.-": 3621,
      "-+-/--/": 3622,
      "-+,---.-": 3623,
      "-+,---+-": 3624,
      "--/)--": 3625,
      "--/-,/": 3626,
      "--/-*+": 3627,
      "--/-**": 3628,
      "--/+--.-": 3629,
      "--/------,": 3630,
      "--+.--.": 3631,
      "--+-//": 3632,
      "--+-.)": 3633,
      "--+-.-": 3634,
      "--+-----.": 3635,
      "-*--.-,": 3636,
      "-*,---+": 3637,
      "-*-/--": 3638,
      "-*----.-": 3639,
      "ĀĀĘ": 3640,
      ".-------,----": 3641,
      ".-----,,----": 3642,
      ".----+,": 3643,
      ",-----*": 3644,
      ",----.--,": 3645,
      ",-----..----": 3646,
      ",-----,.----": 3647,
      ".---,----": 3648,
      ".---(": 3649,
      ".--#-": 3650,
      ",--!": 3651,
      ",--*--,": 3652,
      ",---)-": 3653,
      "+---)-": 3654,
      "-).---/": 3655,
      "-)--.-.": 3656,
      "-)----*": 3657,
      "-)-.--": 3658,
      "-)+---": 3659,
      "-.-----,----": 3660,
      "-.-----..----": 3661,
      "-.------/----": 3662,
      "-.----.--------": 3663,
      "-,----,--.": 3664,
      "-,----.--/": 3665,
      "-,-----.,----": 3666,
      "/--*--.": 3667,
      "--,-#": 3668,
      "--.-(,": 3669,
      "*--:": 3670,
      "----------,----": 3671,
      "---------.---.": 3672,
      ",--.-,,": 3673,
      "--*-/.": 3674,
      "--**--,": 3675,
      "--*,--*": 3676,
      "--*-*(": 3677,
      ".--,--+": 3678,
      ".--,-)": 3679,
      "---.-.,----": 3680,
      "+-----.": 3681,
      "+------.": 3682,
      "+----/,": 3683,
      "/----(": 3684,
      "---!": 3685,
      ".--.--,----": 3686,
      "---,-,": 3687,
      "---,--,-,": 3688,
      "-,,.--*": 3689,
      "-,,)--,": 3690,
      "-...--,-": 3691,
      "-...--/-": 3692,
      "-...----/": 3693,
      "-,.--+": 3694,
      "-,.*--": 3695,
      "-,.+--,": 3696,
      "-,.*--,": 3697,
      "-.,+--,-": 3698,
      "-.,/--,-": 3699,
      "-.,.--,-.": 3700,
      "--)----": 3701,
      "--)--+": 3702,
      "--)---+": 3703,
      "--)---*": 3704,
      "----..,--.": 3705,
      "----,-.----": 3706,
      "----,.---.": 3707,
      "----,,,----": 3708,
      "----,./----": 3709,
      ")---/": 3710,
      "+--.-)": 3711,
      "+--.-./": 3712,
      "+--.-,*": 3713,
      "---/----/": 3714,
      ",--/-/*": 3715,
      "-.//--,": 3716,
      "-./*----": 3717,
      ".--+-+": 3718,
      "-'----": 3719,
      "+--,-.+": 3720,
      "-/.+--+": 3721,
      "-+,/----": 3722,
      "-+,/----,": 3723,
      "-+.+----": 3724,
      "-+..----.": 3725,
      "-+.+----.": 3726,
      "-,++----": 3727,
      "-,+*----": 3728,
      "-,+,----,": 3729,
      "-,+.--*": 3730,
      "-,+/--*": 3731,
      "-,+/----.": 3732,
      "-,//----": 3733,
      ".--/-)": 3734,
      "-/,/--.": 3735,
      "-/,,----.": 3736,
      "-/,*--+": 3737,
      "-.++----": 3738,
      ",--+-*": 3739,
      "--.-----,": 3740,
      "--.------/": 3741,
      "--.-----..----": 3742,
      "--,-----,,----": 3743,
      "*----(": 3744,
      "*-----/": 3745,
      "-+----)": 3746,
      "-+-----": 3747,
      ",----,,----": 3748,
      "---,--------.": 3749,
      "---,-----.,----": 3750,
      "-//.--,": 3751,
      ".----.,----": 3752,
      "-++,----,": 3753,
      "---.------": 3754,
      "---.------.----": 3755,
      "---.-----------": 3756,
      "+--/-(": 3757,
      "+--/-,,": 3758,
      "+--/-++": 3759,
      "--'-*": 3760,
      "*--.--+": 3761,
      "*--.-/.": 3762,
      "/--+-)": 3763,
      "-.--,-.": 3764,
      "-.--,-/": 3765,
      "-+/)--": 3766,
      "-+//--/": 3767,
      "-+/.--.-": 3768,
      "-/+,--.": 3769,
      "-/++--*": 3770,
      ",--.-(+": 3771,
      "-*./----": 3772,
      "-*./--.": 3773,
      "-..-----.,----": 3774,
      "----//": 3775,
      "--&-*": 3776,
      "-+*/--,": 3777,
      "-*+,--,": 3778,
      "-*+*--,": 3779,
      "-,----,-.----": 3780,
      "-,----,-,----": 3781,
      "ĀĀ-Ā$": 3782,
      "ĀĀ-Ā)": 3783,
      "ĀĀ-Ā-": 3784,
      "ĀĀ-Ā.": 3785,
      "-.----.-.----": 3786,
      "ĀĀ+Ā'": 3787,
      "--,-.-,----": 3788,
      "--,-..---.": 3789,
      "ĀĀ*Ā%": 3790,
      "ĀĀ*Ā.": 3791,
      "+,,--,": 3792,
      "+,/--,": 3793,
      "*--+-*,": 3794,
      "&---)": 3795,
      "&---*-": 3796,
      "-),,--": 3797,
      "--,---,--.": 3798,
      "--.-.-,--.": 3799,
      "/.+--.": 3800,
      ")----)": 3801,
      "%---)": 3802,
      "/--*-,": 3803,
      "ĀĀ)Ā)": 3804,
      "-)+,--": 3805,
      "-)+/--,": 3806,
      "-.)---,-": 3807,
      ")--.--,": 3808,
      "--%-+": 3809,
      ".,------,----": 3810,
      ".--)-)": 3811,
      ",--)-.": 3812,
      ",,------.----": 3813,
      ")--/-.": 3814,
      "Ā/)": 3815,
      "Ā+&": 3816,
      "Ā+)": 3817,
      "--..----+": 3818,
      "--..------.----": 3819,
      "-)//--/": 3820,
      "*---,-,": 3821,
      "-#,": 3822,
      ",.----+": 3823,
      "/ĀĀ$Ā": 3824,
      "Ā),": 3825,
      "ĀĀ%Ā'": 3826,
      ".--(-*": 3827,
      "*--,-(": 3828,
      "133": 3829,
      "/--)-,": 3830,
      "143": 3831,
      "Ā'/": 3832,
      "*----..": 3833,
      "ĀĀ$Ā.": 3834,
      "ĀĀ$Ā-": 3835,
      ",--(-.": 3836,
      "-.--------,----": 3837,
      "ĀĀ&Ā,": 3838,
      "--+------": 3839,
      "-.------.------------": 3840,
      ",-----------": 3841,
      ",-----------,": 3842,
      "----,,/--,": 3843,
      "-,----/-": 3844,
      "-,,---.--.": 3845,
      ",)--+-": 3846,
      "ĀĀ#Ā.": 3847,
      "-..---,-": 3848,
      "-.------.------": 3849,
      "!,": 3850,
      "\"-.": 3851,
      "\"--.-": 3852,
      "\"---": 3853,
      "#/--": 3854,
      "#--.-": 3855,
      "#--)": 3856,
      "$#": 3857,
      "$:": 3858,
      "$--+": 3859,
      "%/--": 3860,
      "%--+-": 3861,
      "%(--": 3862,
      "%--)-": 3863,
      "&ğ": 3864,
      "&----.": 3865,
      "&--(": 3866,
      "&--&": 3867,
      "&--(-": 3868,
      "&Ā/": 3869,
      "&--'-": 3870,
      "&.--*-": 3871,
      "',--+": 3872,
      "'--(": 3873,
      "'---+": 3874,
      "'--*-": 3875,
      "'.--*": 3876,
      "(,----": 3877,
      "(+--+": 3878,
      "(--,-,": 3879,
      "(+--*": 3880,
      "()ĀĀ": 3881,
      "(+--*-": 3882,
      "()--*": 3883,
      "((ĀĀ": 3884,
      ").----": 3885,
      ")/----": 3886,
      ")/--,": 3887,
      ")+ĀĀ": 3888,
      "))ĀĀ": 3889,
      ")---(": 3890,
      ")/--)-": 3891,
      "*\"": 3892,
      "**----": 3893,
      "*ĀĀ.Ā": 3894,
      "**--*": 3895,
      "+.--.-": 3896,
      "++----,": 3897,
      "+*--*": 3898,
      "++--(": 3899,
      "+.--)-": 3900,
      ",.--+-": 3901,
      ",.--(": 3902,
      ",+--+-": 3903,
      ",+--)": 3904,
      ",/--*-": 3905,
      ",+----+": 3906,
      "-ĀĀ+Ā": 3907,
      "./--+": 3908,
      "..--*": 3909,
      ".ĀĀ.Ā": 3910,
      ".,--*": 3911,
      ".&--": 3912,
      ".ĀĀ/Ā": 3913,
      ".,--)": 3914,
      "..--,-,": 3915,
      ".(--,": 3916,
      "/-,----": 3917,
      "//--+": 3918,
      "/*--,-": 3919,
      "020": 3920,
      "150": 3921,
      "221": 3922,
      "231": 3923,
      "310": 3924,
      "340": 3925,
      "410": 3926,
      ":*--": 3927,
      ":'--": 3928,
      ";+": 3929,
      ";,--": 3930,
      "<.": 3931,
      "<,--": 3932,
      "<---": 3933,
      "=+--": 3934,
      "Ā;": 3935,
      "Ā-+": 3936,
      "Ā-(": 3937,
      "Ā-%": 3938,
      "ėĀ": 3939,
      "Ě--": 3940,
      "ĚĀĀ": 3941,
      "ě--": 3942,
      "ĞĀĀ": 3943,
      "ğĀ": 3944,
      "ğ--,-": 3945,
      "Ġ/": 3946,
      "Ġ6": 3947,
      "ĠĀ+": 3948,
      "ĠĀ(": 3949,
      "--Ě": 3950,
      "--Ĝ": 3951,
      "--=-": 3952,
      "----$": 3953,
      "-------/": 3954,
      "-----/.----": 3955,
      "------+----": 3956,
      "----(.": 3957,
      "-.ğ": 3958,
      "-.---,": 3959,
      "-.+--.": 3960,
      "-.--,----": 3961,
      "-.*---,": 3962,
      "-.-+--": 3963,
      "-.,---.-": 3964,
      "-./---+": 3965,
      "-,*--": 3966,
      "-,---+": 3967,
      "-,/----,": 3968,
      "-,+----.": 3969,
      "-,,---*": 3970,
      "-,-+--": 3971,
      "-,-/--/": 3972,
      "-,--*-,": 3973,
      "-,.---/-": 3974,
      "-,-/--+": 3975,
      "-,/---+": 3976,
      "-,-+--,-": 3977,
      "--.-**": 3978,
      "--..--/-": 3979,
      "--,.--/": 3980,
      "--,--.----": 3981,
      "--,/--/": 3982,
      "--,.--*": 3983,
      "--,,--*": 3984,
      "--,-*(": 3985,
      "-/,--": 3986,
      "-/+---.": 3987,
      "-/,---": 3988,
      "-/,---*": 3989,
      "-/+---,-": 3990,
      "-/-,----+": 3991,
      "-/-/--/": 3992,
      "-/+---)": 3993,
      "-+!": 3994,
      "-+--------": 3995,
      "-+-.----.": 3996,
      "-+*---,": 3997,
      "-+-.--+": 3998,
      "-+-+--": 3999,
      "--/-,.": 4000,
      "--/--)": 4001,
      "--/.--+": 4002,
      "--/-/,": 4003,
      "--/-+/": 4004,
      "--/-.*": 4005,
      "--/-*-": 4006,
      "--/-.)": 4007,
      "--/---,-": 4008,
      "--/-(*": 4009,
      "--++--": 4010,
      "--+*----": 4011,
      "--+-+-": 4012,
      "--+-*-": 4013,
      "--+-,(": 4014,
      "--+---,--,": 4015,
      "-*!": 4016,
      "-**----": 4017,
      "-*-,--,": 4018,
      "-*--*-": 4019,
      "-*-+--.": 4020,
      "-*----*": 4021,
      "-*-/----,": 4022,
      "-**---+": 4023,
      "-*-*--": 4024,
      "ĀĀ>": 4025,
      "ĀĀĔ": 4026,
      ".-----)": 4027,
      ".-----,.----": 4028,
      ".------..----": 4029,
      ".--------------------": 4030,
      ",------,.----": 4031,
      ".--:": 4032,
      ".--$-": 4033,
      ",--*--/": 4034,
      "+--*--.": 4035,
      "+--$-": 4036,
      "-)--/-": 4037,
      "-),---,": 4038,
      "-),---.": 4039,
      "-).---": 4040,
      "-)-.--/": 4041,
      "-.------.-": 4042,
      "-.--------,": 4043,
      "-.----+--,": 4044,
      "-.-----,.----": 4045,
      "-.------.,----": 4046,
      "-.----,--------": 4047,
      "-,----(": 4048,
      "-,----)": 4049,
      "-,------,-,": 4050,
      "/--;": 4051,
      "/---(": 4052,
      "--,-%": 4053,
      "--,-(+": 4054,
      "--,-(*": 4055,
      "--.-(.": 4056,
      "*--!": 4057,
      "*--*--": 4058,
      "--------*": 4059,
      "--------.,----": 4060,
      "--------..----": 4061,
      "--------,.----": 4062,
      "---------,---,": 4063,
      ",--.-/+": 4064,
      "--*-,+": 4065,
      "--*-,/": 4066,
      "--*-&": 4067,
      "--*-++": 4068,
      "--*-*,": 4069,
      "--*-+)": 4070,
      "--*-.)": 4071,
      "--*-))": 4072,
      ".--,--": 4073,
      "---.-)": 4074,
      "---.-,+": 4075,
      "---.-+*": 4076,
      "+----)": 4077,
      "/------/": 4078,
      "---\"-": 4079,
      ".--.-+": 4080,
      ".--.--/": 4081,
      ".--.--*": 4082,
      ".--.-++": 4083,
      ",--,-)": 4084,
      ",--,-/+": 4085,
      "---,---,": 4086,
      "---,--+-": 4087,
      "-(--,-": 4088,
      "-,,*----": 4089,
      "-,,/----.": 4090,
      "-,,+----.": 4091,
      "-,,.--,-.": 4092,
      "-..*----": 4093,
      "-..*--,": 4094,
      "-..+--.-": 4095
    },
    "merges": [
      "- -",
      "-- --",
      "- .",
      "- ,",
      "-- .",
      "-- ,",
      "- /",
      "- +",
      "-- /",
      "-- +",
      "- *",
      "Ā Ā",
      ". ----",
      ", ----",
      ". --",
      ", --",
      "+ --",
      "- )",
      "-. ----",
      "-, ----",
      "/ --",
      "--, -",
      "--. -",
      "* --",
      "---- ----",
      ", --.",
      "-- *",
      ". --,",
      "-- -.",
      "+ ----",
      "/ ----",
      "-- -",
      ". --.",
      ", --,",
      "-- -,",
      "- (",
      "-, ,",
      "-. .",
      "--+ -",
      "-, .",
      "--/ -",
      "-. ,",
      "-- )",
      "---- .",
      "---- ,",
      ") --",
      "+ --.",
      "-- -/",
      ".-- -.",
      "/ --,",
      ",-- -,",
      ", --/",
      "-. /",
      ". --+",
      "- '",
      "+ --,",
      "-/ .",
      "( --",
      "/ --.",
      "-+ ,",
      "-+ .",
      "-, +",
      "-, /",
      ". --/",
      "-/ ,",
      "-. +",
      ", --+",
      "0 0",
      "--. ----",
      "--, ----",
      "-- (",
      "* ----",
      "-+ ----",
      "- &",
      "* -",
      "-/ ----",
      ",---- ,",
      "-- -+",
      "-- -,----",
      "-/ /",
      ".---- .",
      ",---- .",
      "-+ +",
      "-- -.----",
      "+ --/",
      "-, --,",
      "-, --.",
      ".---- ,",
      "-- '",
      "* --.",
      "/ --+",
      "-. --,",
      "-. --.",
      "-+ /",
      "-/ +",
      "/ --/",
      "* --,",
      "+ --+",
      "+-- -,",
      "0 1",
      "-* ,",
      "/-- -.",
      "' --",
      ", --.-",
      ". --,-",
      "-, *",
      "1 0",
      "-* .",
      "--* -",
      ", --,-",
      "-. .----",
      "---- /",
      "-. *",
      ") -",
      "-, ,----",
      "-,---- .",
      ". --.-",
      ".-- *",
      ",-- -.",
      "-- &",
      "-+ -",
      "* --/",
      "---- +",
      "-, .----",
      "-+ *",
      "( -",
      "-.---- ,",
      "-* +",
      "-,---- ,",
      ". Ā",
      "ĀĀ .Ā",
      "- %",
      "1 1",
      "-. ,----",
      "- Ā",
      "ĀĀ -Ā",
      ".-- -,",
      "-.---- .",
      ",-- *",
      "+ Ā",
      "ĀĀ +Ā",
      "2 0",
      "--. ---.",
      "--, -.",
      "0 2",
      "* Ā",
      "ĀĀ *Ā",
      ".-- -/",
      "--) -",
      "+ ,",
      ", Ā",
      "ĀĀ ,Ā",
      "* --+",
      "& --",
      "-/ *",
      "-) ,",
      "' -",
      "-* -",
      "-+ )",
      "--, -,",
      "--. -,",
      "--, ---,",
      "--. -.",
      "/ .",
      "-* /",
      ") ----",
      "- $",
      "/ Ā",
      "ĀĀ /Ā",
      "-------- ----",
      "2 1",
      "/---- ,",
      "% --",
      "/-- *",
      ") Ā",
      "ĀĀ )Ā",
      "-) .",
      "+ --,-",
      "-* *",
      "3 0",
      "/---- .",
      "-, )",
      "+-- *",
      ",-- -+",
      "-) +",
      "/-- -/",
      "+---- .",
      "+ .",
      "+ --.-",
      "-/ )",
      "-. )",
      "/ ,",
      "+---- ,",
      ") --.",
      "/ --,-",
      "1 2",
      "/ --.-",
      "-, -",
      "Ā .",
      "-- %",
      ") --,",
      ". ,----",
      ". --+-",
      ".-- )",
      ". .----",
      "Ā *",
      "-, .---.",
      "ĀĀ (",
      "-- -*",
      "-+ --.",
      ",-- )",
      ", ,----",
      "Ā ,",
      "/-- -",
      "& -",
      "---. -",
      ".---- -",
      ") --/",
      "-. .---.",
      "--( -",
      ".-- -",
      "---- *",
      "-. ,---,",
      "+-- -+",
      "-/ --,",
      "0 3",
      "-- $",
      "Ā /",
      "Ā +",
      "ĀĀ '",
      "--. .----",
      "-) /",
      "*-- -,",
      ", --/-",
      "2 2",
      "--, ,----",
      "-, -.----",
      "-* )",
      "- #",
      "*-- *",
      "-. (",
      "-+ (",
      ") --+",
      ", .----",
      ". --/-",
      "--. ,----",
      "-) *",
      "3 1",
      "/ ĀĀ",
      "Ā )",
      "-+ --,",
      "4 0",
      "-* ----",
      "---, -",
      "--, .----",
      "-) -",
      "---- -",
      "-, ,---,",
      "-+ ----.",
      ", --+-",
      "-. -",
      "ĀĀ %",
      "-. -.----",
      "-, --",
      "--, -/",
      "-. --",
      "-. --+",
      "Ā (",
      "/ --+-",
      "---- --.",
      "-. -,----",
      "---- -,",
      ". ,--.",
      "-/ --.",
      ".-- (",
      "* --,-",
      "1 3",
      "/ --/-",
      "-, (",
      ", ,--,",
      "$ --",
      ",---- +",
      "---. --.",
      ".--, -,",
      "-, --+",
      "# -",
      "2 3",
      "--' -",
      "+ --+-",
      "+ ĀĀ",
      ". .--.",
      "---- --,",
      "-/ ----,",
      ".---- /",
      "/-- )",
      "* --.-",
      "--. ,--.",
      ",-- *-",
      ", ĀĀ",
      ".--, -.",
      "-. --/",
      "-, --/",
      "1 4",
      "+ --/-",
      "% -",
      "---- -.",
      "0 4",
      ",---- /",
      "-, -,----",
      ".---- +",
      "--, ,--,",
      "+-- )",
      "-/ -",
      ",---- -",
      "-/ (",
      ".-- *-",
      "Ā '",
      "*-- -+",
      "4 1",
      "--. .--.",
      ". ĀĀ",
      "3 2",
      "-* (",
      "* ĀĀ",
      "( ----",
      "* ----.",
      "$ -",
      "-/ ----.",
      "-) )",
      ") ĀĀ",
      "--. -+",
      "- \"",
      "-.. ,--.",
      "# --",
      "-,. .--.",
      "5 0",
      "( --,",
      "-+ ----,",
      "---. --,",
      "-------- --------",
      "-, +----",
      "*-- )",
      "/ ,--.",
      "--. --,",
      "---, --,",
      "-,---- ----",
      "-( ,",
      "Ā %",
      "-,, .--,",
      "--& -",
      "( --/",
      "* ----,",
      "Ā &",
      "--+ -.",
      "-.---- --",
      "---, --.",
      ", .--,",
      "--+ -,",
      "ĀĀ $",
      ",-- (",
      "-( +",
      "---- )",
      "--, .--,",
      "\" -",
      "3 3",
      "-/ .----",
      "-+ ,----",
      "/-- (",
      ".--. -.",
      "-,. ,--.",
      "-/ --",
      "+ )",
      "+-- *-",
      "* ,",
      "--/ ---.",
      "-.---- ----",
      "* --+-",
      "/ /",
      "+-- -.",
      ",-- -",
      "( --.",
      "-. -,--,",
      "---/ -",
      "-,---- --,",
      ".---. -",
      "ĀĀ &",
      "* --/-",
      "/ .--",
      "-,---- --.",
      "+ +",
      "-. -,--.",
      "--, --.",
      "-., ,--,",
      ". +----",
      "--/ -/",
      "--/ -,",
      ".-- -+",
      "-,, ,--,",
      "4 2",
      "--+ ----",
      "-,---- --",
      "/-- *-",
      "0 5",
      "-. --.-",
      "--/ ----",
      "-( .",
      "ĀĀ( Ā",
      "+-- (",
      "-) (",
      "-.---- --,",
      "-- #",
      ".---- ----",
      ",---- -,",
      "-( *",
      ") --*",
      ",-- '",
      ",-- -/",
      "-.---- --.",
      "/---- -",
      "-- -)",
      "--/ ,--.",
      "- ĀĀ",
      "5 1",
      "-, --,-",
      "--+ ---,",
      "----. ,",
      "2 4",
      "--. -/",
      ".-- )-",
      "-------- .",
      "ĀĀ' Ā",
      "( +",
      "( .",
      ".-- '",
      "-. --,-",
      "-, '",
      "-., .--,",
      ") --,-",
      ") --.-",
      "-, -,--.",
      ",-- -*",
      "+---, -",
      "-. '",
      "--, --,",
      "-+ --",
      "-,, .----",
      "+ (",
      "-, -.--,",
      "-/ ,---,",
      ",---- ----",
      "/---- /",
      "-.. .--.",
      "-,. .----",
      "----, ,",
      "/---. -",
      "- !",
      "-, --.-",
      ": -",
      "Ā -",
      "/-- -,",
      "-- *--",
      "-. -.--.",
      "--, ---+",
      "-* --.",
      "-------- ,",
      "--- (",
      "-* '",
      "-( )",
      "-.. ,----",
      "+ .--,",
      "-,---- /",
      ",--, -.",
      "-.. .----",
      "-, -.--.",
      "-, ,---.",
      "--, -+",
      "-.---- --------",
      "-( /",
      "\" --",
      "/ .--.",
      "--+ -+",
      "-,---- +",
      "/-- )-",
      "+---- +",
      "( ,",
      ". ,--",
      "-/ --/",
      "5 2",
      ". +--.",
      "4 3",
      "-+ .----",
      "! -",
      "' (",
      "* )",
      "/ ,--",
      ".--, -/",
      "-,, ,----",
      "6 1",
      "-/. ,--.",
      "--. --.",
      "-* --",
      "* +",
      "/ ,----",
      "/ +--",
      "--, ---.",
      "+---- -",
      "' +",
      "Ā $",
      "-. -.--,",
      "--+ -/",
      "--- '",
      "( ĀĀ",
      "---- --",
      "-+ ,---,",
      "--/ -.",
      ",-- )-",
      "+-- -",
      "*-- (",
      "--* -,",
      "--.---- -",
      "---,---- .",
      ". /----",
      "/ .----",
      "-,---- --------",
      "+ ,--,",
      "--. ---/",
      "+---- /",
      "( *",
      "1 5",
      "-+ -.----",
      "-+ .---.",
      "--+ ---+",
      "-., .----",
      "-- -+----",
      "-/ '",
      "( )",
      "5 3",
      "-+ '",
      ",---- --.",
      "+-- )-",
      "-) '",
      ".--+ -.",
      "/ /--",
      "+-- -*",
      "! --",
      "-. ---.",
      "-, -,--,",
      "-, +---,",
      "--+ ,--,",
      ".---- --,",
      ",---- --,",
      "+-- '",
      ", +--,",
      ". /--.",
      "2 5",
      "-. /----",
      "--+ .--,",
      "*-- -*",
      "-., ,----",
      "--% -",
      "' )",
      "* /",
      "6 0",
      ",--. -.",
      "-- \"",
      "--. ---,",
      "--, -*",
      "*-- '",
      "ĀĀ% Ā",
      ", (",
      ", +----",
      "3 5",
      ".---- --.",
      ") --)",
      ". ,--,",
      "-/ &",
      "-+ --/",
      ".-- &",
      "*-- *-",
      "-+. .--.",
      "3 4",
      "ĀĀ :",
      "-.---- +",
      "-.---- /",
      "/---- +",
      "-./ ,--.",
      "--,---- -",
      "* .",
      "--. --",
      "-+ --+",
      "--/ ---/",
      ".-- (-",
      "--* -.",
      "-.. +--.",
      "-..---- -",
      "--$ -",
      "7 0",
      "-, ,--",
      "-/ .---.",
      "-* &",
      ",---- --",
      "---,---- ,",
      ".---/ -",
      "' '",
      "* (",
      "--+ --.",
      "' ,",
      "' --/",
      "-. &",
      "-. +---,",
      "-. /---.",
      "-, &",
      "-/ /----",
      "ĀĀ \"",
      "---+ -",
      "' &",
      ", )",
      "/ +",
      "/ +--.",
      "4 4",
      "6 2",
      "-. ,--.",
      "-/ ,----",
      "--/ .--.",
      ",---, -",
      "Ġ -",
      "-/ --+",
      ",-- &",
      ",-- (-",
      "' /",
      "-, ---,",
      "ĀĀ #",
      ".---- --",
      ".---- --------",
      "/-- '",
      "-,. ,----",
      "' *",
      "( --+",
      "* *",
      "--, --",
      "--* -/",
      "-( (",
      "----, .",
      "% )",
      "' .",
      "6 3",
      "-. .---,",
      "--, ,--.",
      "-( -",
      "-* --,",
      ",---. -",
      ", &",
      "/ *--",
      "-,, .--.",
      "-.+ .--,",
      "-/---- +",
      ",----, ,",
      "---.---- ,",
      "-,.---- -",
      "--.---. -",
      "' ----",
      ") )",
      ", .--",
      "--. -*",
      "--, /--,",
      "+-- &",
      "----. -",
      "----. .",
      "-+---- /",
      "/ )",
      "5 4",
      "-., +--,",
      "--.---- --.",
      "' ĀĀ",
      "( /",
      "+ +--,",
      ". .--",
      "-, %",
      "-.---- -",
      "-.. ,--,",
      "-,+ .--,",
      "& )",
      "5 6",
      "---- -+",
      "-. +----",
      "--/ -+",
      ",---- --------",
      "/-- (-",
      "-,. .--/",
      "--) -.",
      "-,/ ,--.",
      "-.+ ,--,",
      ".----, ,",
      "& ,",
      "/ /--.",
      "0 7",
      "ĀĀ !",
      "ĀĀ ;",
      "-) --",
      "--* -+",
      ")-- (",
      ",--/ -.",
      "-,+ ,--,",
      "---.---- .",
      "-,,---- -",
      "-,----. -",
      ") .",
      "Ā #",
      "--. --------",
      "-/ --.-",
      ".---- -,",
      "*-- -",
      "-,, /--,",
      "-,/ .--.",
      ".---, -",
      "+ +--",
      "0 6",
      "5 5",
      "Ğ -",
      "-. ,--",
      "-) &",
      "/-- -+",
      "-,. +--.",
      ")-- -+",
      "-' .",
      "-/, ,--,",
      ",--+ -.",
      "/ ,--/",
      "Ā \"",
      "-, /----",
      "-, /---.",
      "-+ --,-",
      "--+ --,",
      "-,, ,--.",
      "--,---, -",
      ", '",
      ". .--,",
      "---- -/",
      "-+ &",
      "-+, .--,",
      "--,---- --,",
      "& (",
      "+ .----",
      ", *--",
      ", /--,",
      "-. --/-",
      "-( '",
      "-./ .--.",
      ".--/ -,",
      "& .",
      "( --,-",
      "1 6",
      "2 6",
      "-- ;",
      "---- ---",
      "-. .--",
      "-. +--",
      "-/ -.----",
      "--+ -*",
      "/--. -,",
      "-+---- +",
      "ĀĀ& Ā",
      "* ,--,",
      ". /--",
      "8 0",
      "ğ -",
      "--. +--.",
      "-+ ,---.",
      "--/ ---",
      "+-- (-",
      "-., ,--.",
      ",--/ -+",
      "-+. ,--.",
      "( (",
      ") +",
      "* '",
      "+ ,----",
      "+ ,--",
      ". )",
      "-, .--,",
      "--, --/",
      "-+ %",
      ",--/ -,",
      "*---- /",
      "-/---- /",
      "-.----, -",
      "/ +----",
      "4 5",
      "7 1",
      ": ĀĀ",
      "-- !",
      "-. .--.",
      "-, --*",
      "--. .--,",
      "-/ -,--,",
      "-) ----",
      ")-- -*",
      "-' )",
      "-/. ,----",
      ",--+ -,",
      "& '",
      ") ,",
      "+ .--",
      ", .--+",
      "--. -)",
      "--, -,.",
      "-/ %",
      "-/ -,--.",
      "-/ /---.",
      "-+ -.--,",
      "-+ -.--.",
      "--/ --,",
      "--+ -)",
      ",-- -+-",
      "/--, -.",
      "-' ,",
      "-/, .--,",
      "-,.---. -",
      "( %",
      ") *",
      ") /",
      "* &",
      "Ġ --",
      "-. ,---+",
      "--. --/",
      "--. ---",
      "ĀĀ <",
      "/-- &",
      "----, -",
      ",--/ -*",
      "( &",
      "( '",
      "+ /",
      ". &",
      ". ,----.",
      "6 6",
      "--, -.,",
      "-/ --,-",
      ".--. -,",
      "(-- -+",
      "--.---- --,",
      "% &",
      "% ,",
      "+ /--",
      ", /----",
      "- :",
      "-- #-",
      "-. -*",
      "--, -,,",
      "+-- -/",
      "*-- )-",
      "( --)",
      ") '",
      ", ,--.",
      ". +--",
      "ğ --",
      "-, .--",
      "-, -,----.",
      "--. -,.",
      "--. .----.",
      "--, .--+",
      "-+ -,--.",
      "-,---- --+",
      "--* -*",
      "-,, .--+",
      "-./ +--.",
      "-' *",
      "/--. -.",
      ".--/ -.",
      "% .",
      "+ *",
      "+ -",
      "+ ,--+",
      ", ,----.",
      ", ,--,-",
      "/ '",
      "1 8",
      "4 6",
      "Ġ Ā",
      ".---- *",
      ".-- %",
      "--- (-",
      "-' (",
      "( --.-",
      ". ,--/",
      "3 6",
      "7 4",
      "---- --+",
      "-. %",
      "-. ,---.",
      "--, --+",
      "ĀĀ ğ",
      "+-- '-",
      "*-- -+-",
      "-., .--+",
      "-.,---- -",
      "ĀĀ$ Ā",
      "+ '",
      ", +",
      ". '",
      ". /",
      ". ,----,",
      "--. --+",
      "-/ -.--,",
      "-/ .---,",
      "-+ +---,",
      "--/ --",
      "-* %",
      ".---- -.",
      ".-- '-",
      "-.---- --,----",
      "/---- *",
      "--- &",
      "-,, /----",
      "-// ,--.",
      "% (",
      "& *",
      "2 7",
      "9 3",
      "-, .---/",
      "-/ -,----",
      "-/ ---.",
      "-) -/",
      "*-- &",
      "(-- (",
      "-+, .----",
      "---,---- ----",
      "& /",
      ") (",
      "+ .--+",
      ", .",
      ", /",
      ". +--,",
      "8 3",
      "-. /--",
      "-, .---,",
      "--, --------",
      "-+ -,----",
      "ĀĀ =",
      "*-- -.",
      "+---- *",
      ".--. -/",
      ",--, -/",
      "-.. .--,",
      "-/. .--.",
      "-+, ,--,",
      "-/, ,----",
      "-+---- --.",
      "-& ,",
      "+--/ -+",
      "% '",
      "% +",
      ") ---",
      ") --/-",
      ". *--",
      "7 2",
      "9 0",
      "< -",
      "---- -*",
      "-, -+",
      "-, -,----,",
      "-+ +--",
      "--/ --.",
      "--/ .--/",
      "--+ --",
      ",-- %",
      "-.---- --/",
      "-.---- --+",
      "/-- '-",
      "-., /--,",
      "--) -*",
      "-' +",
      "---.---- ----",
      "* +--",
      ", ,--",
      ", .----.",
      ". (",
      "0 8",
      "-, -/----",
      "-, ,---+",
      "--. -,,",
      "-+ +----",
      "+-- -+-",
      "-,---- -",
      "*-- -,-",
      "-( ----",
      "-.. /----",
      "-,. ,--.-",
      "--) -/",
      "----, +",
      ")-- '",
      "----/ .",
      "-.----. -",
      ", *--,",
      "- ğ",
      "6 4",
      "-, -.----,",
      "--.- (",
      "-------- -.",
      "-,. /--.",
      "+--. -.",
      "---/ --,",
      "---+ --.",
      "*--. -.",
      "-/+ ,--,",
      "+ +----",
      "+ /--,",
      ", %",
      ". .--/",
      ". .----.",
      "--/ -*",
      ",-- '-",
      "-.---- --.----",
      "-( &",
      "----, /",
      "+--. -,",
      ",--/ -/",
      ".--+ -,",
      "(-- -)",
      ",--+ -/",
      "*---- -",
      "-/---- --",
      "-/---- --.",
      "-+/ .--.",
      "/---/ -",
      "% /",
      ", *",
      ", -",
      "1 7",
      "3 8",
      ": --",
      "-. --+-",
      "-. -,----,",
      "-/ +---,",
      "-+ .---/",
      "--/ ,--",
      "--/ ,--/",
      "-* ----.",
      "---. --+",
      "-.. ,----.",
      "-., +----",
      "+--. -+",
      "-+---- --",
      "+--/ -,",
      "----+ -",
      "-..---. -",
      "& ĀĀ",
      "( *--",
      ") .--",
      ", +--",
      "- Ğ",
      ". .",
      ". ,--.-",
      "/ .--/",
      "-. --*",
      "-, --/-",
      "--. ,----,",
      "--, /----",
      "--, ---",
      "--, ,----.",
      "-+ ,--",
      "-+ /----",
      "-+ ---,",
      "+-- -)",
      "*-- -)",
      "-.. +----",
      "-,. .--,",
      "----. /",
      "-./ .----",
      "+--, -,",
      "(-- '",
      "-++ .--,",
      "/--+ -.",
      "/--/ -,",
      "$ (",
      "% *",
      "& Ā",
      "* .--,",
      "+ +--+",
      ". *----",
      "-- \"-",
      "---- (",
      "-. -.----.",
      "--, .--.",
      "--, -,+",
      "-) %",
      "/-- %",
      "*-- (-",
      "---, --",
      "---, --.-",
      "-,, .----.",
      "-.. ,--/",
      "-,. ,--/",
      "-., .--.",
      "-./ ,--",
      "(-- -*",
      "-+, ,----",
      "-,/ +--",
      "$ &",
      ") &",
      ") --+-",
      "+ /--+",
      "/ *",
      "6 5",
      "7 5",
      "8 1",
      "9 1",
      "-- :",
      "-. .---/",
      "-, --)",
      "-, -.----.",
      "--. /----",
      "--. ,--,",
      "--. /--.",
      "--, -/.",
      "--, -+.",
      "--, -,/",
      "--, -/,",
      "-/ -+",
      "--/ ,----",
      "--/ ---,",
      "-* --,-",
      ",-- -)",
      "-,---- ---.",
      "-,---- ---.----",
      "-.. .--",
      "-.. .--/",
      "-,. ,--",
      "---/ ----",
      "-+, /--,",
      "-+---- --,",
      "/--/ -.",
      "ĀĀ; Ā",
      "% ĀĀ",
      "& &",
      "( --*",
      ") ----,",
      ", ,",
      ", ,--+",
      ", *----",
      ". *",
      "/ /----",
      "/ ,--.-",
      "7 3",
      "8 2",
      "-, ,--,",
      "--. ,--/",
      "--. .--/",
      "--, -.+",
      "-/ .--",
      "-+ /---.",
      "--+ -,,",
      "--+ +--,",
      "ĀĀ Ĝ",
      "-,---- --/",
      "--* .--+",
      "---. -.",
      "--- '-",
      "-( --",
      "-,, ,----,",
      "-., ,--+",
      ")-- -+-",
      "+--. --",
      "-./ ,----",
      "-./ ,--/",
      "-+. .----",
      "-,+ /--,",
      "-,,---, -",
      "$ '",
      "$ ,",
      "( --+-",
      "+ %",
      "+ .--,-",
      ", /--",
      ", +--+",
      ". %",
      "/ *--.",
      "3 7",
      "; -",
      "-, -+--.",
      "--. ----,",
      "--, -)",
      "--, .----.",
      "-/ .--.",
      "-* --/",
      "ĀĀ ?",
      "ĀĀ Ğ",
      "-.---- ---.",
      "---. -,",
      "---, --/",
      "-,, /--+",
      "--) -,",
      "-,/ .--",
      "-/+ .--,",
      "$ *",
      "$ .",
      "( --/-",
      ") ,--",
      "* .--",
      "* .--+",
      ", ,----,",
      "- ;",
      ". +",
      ". ,",
      "/ +--/",
      "4 7",
      "6 7",
      "> Ā",
      "-- !-",
      "---- --/",
      "---- ---.",
      "--, ---/",
      "--, +--,",
      "-/ $",
      "-+ --.-",
      "-+ /---/",
      "--+ ,----",
      "-* ----,",
      "ĀĀ ĝ",
      ",---- --.----",
      "-,---- --.----",
      "---. --",
      ".--. -*",
      "-,, +----",
      "-.. ,--",
      ")-- '-",
      "+--, -.",
      "-,+ ,--+",
      "-.+ .--+",
      "00 0",
      "-+/ ,--.",
      "*--, -+",
      "----/ ,",
      "$ /",
      "' %",
      "( ---",
      ") ----+",
      "* ,----",
      "* *--",
      "+ *--",
      "2 9",
      "5 8",
      "= -",
      "Ā !",
      "-. -.----,",
      "-, /---/",
      "--. ,--",
      "--. ---.----",
      "--, +----",
      "--, ,----,",
      "-/ -)",
      "-/ --------",
      "-+ -/",
      "--/ -(",
      "--+ /--,",
      "+-- %",
      "-.. /--",
      "-' '",
      "-/. +--.",
      "-,/ ,--",
      "-.+ ,--+",
      "-++ ,--,",
      "# ,",
      "$ $",
      "* ,--",
      "* /--",
      "+ &",
      ", .----,",
      "/ &",
      "/ .--.-",
      "7 7",
      "-- Ğ",
      "-. -,----.",
      "-, $",
      "-, .---",
      "--. -..",
      "--. ------------",
      "--, ----.",
      "--, ---,----",
      "-/ ,---+",
      "-+ .--",
      "-+ +---+",
      "--/ .----",
      "--/ -)",
      "--+ -..",
      "-* -.--.",
      "-.---- ,--,",
      "-,---- ---,",
      "-,---- --,----",
      ",--. -,",
      ",--. -/",
      "-,, +--,",
      "-,, ,----.",
      "-,. ,----,",
      "-., .----.",
      "--) -+",
      ")-- -)",
      "---/ --.",
      "-./ /--.",
      "-' /",
      "-/. .----",
      "-/. +----",
      "-/. ,--,",
      "-/, .----",
      "-& )",
      "-& *",
      "-// +--.",
      "+--/ -.",
      "/--+ -/",
      "/--/ -*",
      ".--* -.",
      "ĀĀ! Ā",
      "\" '",
      "* %",
      "+ /----",
      "+ )--",
      ". $",
      ". .--.-",
      "3 9",
      "8 4",
      "; ĀĀ",
      "-- (--",
      "-, -/",
      "-, --+-",
      "--. ---+",
      "--. ,----.",
      "--, ---*",
      "-+ $",
      "-+ .---,",
      "--/ /--.",
      "--+ --+",
      "--+ -(",
      "--+ .--+",
      "-* --.-",
      ".-- &-",
      "-,---- -.",
      "/-- -.--,",
      "/---- -.",
      "-.. /--.",
      "-,. .--",
      "-,. ,--,",
      "----. *",
      "-./ +--",
      "-,/ .----",
      ".--/ -/",
      "-/, .--+",
      "--( -.",
      "--( -/",
      "-& (",
      "-// ,----",
      ".--* -/",
      "+--* -.",
      "-.,---, -",
      "# '",
      "& +",
      "' /--",
      "+ ,--,-",
      "+ ,--*",
      ". .----,",
      ". *--.",
      "/ %",
      "4 8",
      "4 9",
      "6 8",
      "-- -*-",
      "-- :-",
      "---- ---,",
      "-, +--",
      "--. -.+",
      "-+ -,--,",
      "--+ ,--+",
      "-* ,----",
      "ĀĀ @",
      "+-- &-",
      "--.- '",
      "--- $",
      "---, --+",
      "-,, .----,",
      "-.. ,----,",
      "-,. .----.",
      "-., /----",
      "---/ --",
      ",--/ --",
      "-/. .--,",
      "-+. .--",
      "-,+ .--+",
      "-& .",
      "-+/ .--",
      "-/+ +--,",
      "*--, -/",
      ".--* -,",
      ".--* -+",
      "------------ --",
      "-,+---- -",
      "ĀĀ: Ā",
      "ĀĀ\" Ā",
      "ĀĀ# Ā",
      "& %",
      ") /--",
      ") ----.",
      ") ----/",
      "* ,--+",
      "+ ,--.",
      "+ *----",
      "+ *--+",
      ", )--",
      ". -",
      ". +--/",
      "/ $",
      "/ )--",
      "1 10",
      "-- <",
      "-- ğ",
      "-. -/",
      "-. -+",
      "-. -+--.",
      "--. ----.",
      "--. .----,",
      "--, -..",
      "--, -+,",
      "--, ,--+",
      "-/ -+----",
      "--+ .----",
      "-* -.----",
      "-.---- .--.",
      "-------- ---,",
      "/---- -/",
      "-.. +--,",
      "-,. ,----.",
      "-,. .--.-",
      "-., ,----.",
      "-,+ ,----",
      "-/, ,--+",
      "--( -,",
      "-+---- --/",
      "-++ /--,",
      "/--+ -,",
      "-+/ ,--",
      "ĀĀ( Ā,",
      "# (",
      "# )",
      "$ %",
      ", #",
      ", ,--*",
      ". /--,",
      ". *--/",
      "9 5",
      "ĝ -",
      "-. /---/",
      "--. -++",
      "--, .--,-",
      "--, ,--,-",
      "-/ +----",
      "-/ -.--.",
      "-+ -/----",
      "--/ -.,",
      "--+ ---",
      "-* $",
      "-* ----+",
      "ĀĀ Ě",
      ",-- $",
      "-) --.",
      "-.---- ---,",
      "*-- -(",
      "-,, /--.",
      "-,, .--,-",
      "-,. /--,",
      "-,. .----,",
      "--/- &",
      "---/ -,",
      "-+, .--.",
      "*---- +",
      "-& -",
      "---,---- --------",
      ".----. .----",
      "+--+ -*",
      "-,* ,--,",
      "+, --+-",
      "--,-, -",
      "--.-, -",
      "% %",
      "( #",
      "+ (--",
      ", .--.",
      ". ,--+",
      "/ .--,",
      "/ ,--,",
      "-- >",
      "---- --,-",
      "---- --.-",
      "-, ,----,",
      "-, /---",
      "-, *---,",
      "-, -.--/",
      "--. /--,",
      "--, .----,",
      "-+ ,---+",
      "-+ -.--/",
      "-* -/",
      "-* +----",
      "-* ----/",
      "-) ----.",
      "-.---- ,----",
      "/-- -,-",
      "-------- .----",
      "--* --,",
      "--- %",
      "-,. /----",
      "-,. +--/",
      "-,. /--/",
      "--/- '",
      "-., +--.",
      "-./ *--.",
      "-+, ,--.",
      "-+. .--/",
      "-,/ +--.",
      "-,/ ,--/",
      "--,---- --.----",
      "*--, -.",
      "----/ -",
      "----+ ,",
      "\" .",
      "$ ĀĀ",
      "' --+",
      "' ---",
      "( +--",
      ") $",
      ") +--",
      ") *--",
      ") ---,",
      "* +----",
      "* +--,",
      "* +--+",
      ", /--+",
      "- <",
      ". )--",
      ". /----,",
      ". ,--/-",
      "/ (--",
      "0 9",
      "8 6",
      "-. --)",
      "-. .---",
      "-. -/--,",
      "-, ,----.",
      "--. .--",
      "--. -+.",
      "--. -//",
      "--. -*.",
      "--, +--+",
      "-+ .--,",
      "--/ .--",
      "--+ -,+",
      "--+ /--+",
      ",---- -.",
      ".-- $",
      ",-- -,----",
      "-) $",
      "/-- -*",
      "*-- -*-",
      "--* ----",
      "--* -)",
      "---. --,-",
      "-( %",
      "-,, +--.",
      "-,, ,--+",
      "-.. .----,",
      "-,. +----",
      "-., ,----,",
      "-' -",
      "/--. -+",
      "-,/ /--",
      "-/, +--,",
      "-.+ /--,",
      "-.+ +--,",
      "*---- -.",
      "+--/ -/",
      "-+/ +--",
      "/--/ -/",
      "-,----, -",
      "+, .----",
      "------------ -",
      "-+----. -",
      "-,,---. -",
      "\" ĀĀ",
      "# %",
      "& --.-",
      "' --.",
      ") %",
      "* $",
      "+ --------",
      ", +--.",
      ", .--,-",
      "/ '--",
      "/ *--/",
      "1 9",
      "8 7",
      "9 2",
      "Ğ --",
      "Ġ 0",
      "-- *---,",
      "-. +---+",
      "-. -,--",
      "-. -,--+",
      "-, \"",
      "-, -/--,",
      "-, -.--+",
      "--. /--",
      "--. -.,",
      "--. ,--.-",
      "--. .--.-",
      "--, --)",
      "--/ +--",
      "--/ +--.",
      "--/ -----",
      "--+ ---*",
      "--+ ---,-",
      "--+ -----",
      "-* ,---,",
      ".---- ---.",
      ",---- *",
      ",---- --,----",
      ",-- *--",
      ",-- -/-",
      "/-- &-",
      "--* --.",
      "--* ,--,",
      "---. -+",
      "---. --/",
      "---, --,-",
      "-,. /--",
      "--) --",
      "-/. ,--",
      "/--. -/",
      "-+, .--,-",
      "-+. /--.",
      ".--/ -+",
      "-.+ ,--.",
      "-/---- --,",
      "-/---- --/",
      "-++ .----",
      ".----, -",
      "-.* +--,",
      "--& -.",
      "/. --/-",
      "# &",
      "# .",
      "# Ā",
      "$ Ā",
      "& ----",
      "& --/",
      "& *--",
      "' --.-",
      "' *--",
      "( (--",
      ") #",
      ") --.-.",
      "* #",
      "+ +--,-",
      ", *--+",
      ". #",
      "/ *----",
      "5 7",
      "-- *---+",
      "-, ---.",
      "-, +---+",
      "--. -,+",
      "--. -,*",
      "--, -./",
      "--, -++",
      "--, -/+",
      "-/ /---/",
      "-/ /---",
      "-/ +---+",
      "-/ -,--+",
      "-+ --*",
      "-+ ,--,",
      "--/ -+,",
      "--/ +--/",
      "--/ ---.-",
      ".---- --.----",
      ",-- -.--.",
      "-.---- .--,",
      "-,---- .--,",
      ",--. -*",
      "---. -*",
      "/---- +,",
      "-,. .--+",
      ")-- -*-",
      "---/ -.",
      "---/ -*",
      "/--, --",
      "(-- -+-",
      "(-- '-",
      "-,/ /--.",
      "-,/ /--/",
      ".--/ -*",
      "-/, ,--.",
      "---+ ----.",
      "-// .----",
      "-++ ,----",
      "--' -,",
      "-*, .--,",
      "-.* ,--,",
      "-% (",
      "ĀĀ,Ā *",
      "/, --/-",
      "+----, -",
      "ĀĀ= Ā",
      "\" %",
      "# *",
      "$ )",
      "& ,--",
      "' +--",
      "' --,-",
      "( $",
      "( .--",
      "( ----,",
      ") --*-",
      "* /--,",
      "* (--",
      "* *--,",
      ", $",
      ", +----.",
      ". )----",
      "/ ĀĀ-Ā",
      "8 5",
      "? -",
      "@ -",
      "ě -",
      "Ġ 1",
      "---- '",
      "-. -/----",
      "--. +----",
      "--, -*.",
      "-/ #",
      "-/ -,----.",
      "-+ -/--,",
      "--/ .--,",
      "--/ .----.",
      "--+ -/.",
      "-* --+",
      "ĀĀ ě",
      ",---- -+",
      ".-- -.----",
      ".-- -+-",
      ",-- -*-",
      "-) ----,",
      "-.---- ---.----",
      "-,---- ---,----",
      "-,, .--",
      "-.. .----.",
      "-., ,--",
      "---/ ----,",
      "-./ .--",
      "-/. ,--/",
      "(-- -*-",
      "-+. ,--/",
      "-+. .--.-",
      "-// .--.",
      "-++ .--+",
      "--' -+",
      "/--+ -+",
      "-,* /--,",
      "-..---- --------",
      "----/ +",
      "-+* .--,",
      ",--* -,",
      "/. ,--.",
      "------------ ---",
      "/, ,--,",
      ")--. -+",
      "-,------------ -",
      "ĀĀ< Ā",
      "& $",
      "' #",
      "' .--",
      "' --*",
      "( ,--",
      "( --*-",
      "( ----+",
      ") --,-.",
      "+ $",
      "+ /--*",
      ", +--,-",
      ". *--,",
      ". ,--,-",
      "/ -",
      "2 8",
      "7 6",
      "; --",
      "Ĝ -",
      "-- =",
      "-- Ğ-",
      "---- &",
      "---- --*",
      "---- --,----",
      "-. /---",
      "-. -.--",
      "-, -+--,",
      "--. -+,",
      "--, +--.",
      "--, ,--/",
      "-/ ,--.",
      "-/ --*",
      "-/ --+-",
      "-+ -/--.",
      "--/ --+",
      "--/ /--",
      "--+ ,--.",
      "--+ -+.",
      "--+ -/,",
      "--+ -+*",
      "-* -,----",
      "-* +---,",
      "-* .---/",
      "-) --,-",
      "-.---- *",
      "-,---- *",
      "-,---- ,----",
      "-------- ,----",
      "-------- ---",
      "--* .--,",
      "---. --.-",
      "+---- --",
      "+---- --,",
      "/---- --,",
      "--- &-",
      "-.. *--.",
      "-.. .--.-",
      ")-- %",
      "-/. +--",
      "-/. *--.",
      "-& %",
      ",----, -",
      "-// .--",
      "-++ ,--+",
      "+--/ -*",
      "-+/ /--",
      "-+/ /--.",
      "-/+ .--+",
      "'-- -)",
      ",--.- (",
      "*--+ -/",
      "----* .",
      "ĀĀ% Ā*",
      "! Ā",
      "' $",
      "' --/-",
      ") --)-",
      "* .----",
      "* /--+",
      "* .--*",
      "+ .----.",
      "+ *--,",
      "+ .--)",
      ", *--.",
      ", '--",
      ", +--*",
      "- ě",
      ". /--/",
      ". .--,-",
      "/ (",
      "/ /--,",
      "/ +--,",
      "/ /--/",
      "Ā :",
      "-. -+----",
      "-. .----,",
      "-. --*-",
      "-, -,--+",
      "-, -,--/",
      "--. +--",
      "--. -./",
      "--. *--.",
      "--, ,--",
      "--, --*",
      "--, ------------",
      "-/ --/-",
      "-/ ---/",
      "-+ -,----,",
      "-+ -+--.",
      "-+ .---",
      "--/ -+.",
      "-* .----",
      "ĀĀ Ė",
      ",---- --/",
      ".-- -,--.",
      "+-- $",
      "-) #",
      "-) --/",
      "-.---- -.----",
      "-,---- .--.",
      "-,---- ,--,",
      "*-- #",
      "*-- &-",
      ",--. --",
      "--* -//",
      "---. -/",
      "-,, .--/",
      "-.. +--",
      "-.. .--+",
      "-,. +--",
      "----. +",
      "----. .----",
      "-' %",
      "(-- &",
      "/--. -*",
      "-+, +--,",
      "-+. ,----",
      "-,/ .--/",
      "-/, +--.",
      "-.+ ,----",
      "-.+ /--+",
      "--( -*",
      "-& /",
      "---+ --,",
      "-+/ .--/",
      "+--+ -.",
      "-*, .--.",
      ".--,- (",
      "-,* ,--+",
      "-*. .--",
      "-*. ,--",
      "-*. .--.",
      "-.* .--,",
      "ĀĀ.Ā (",
      "-% ,",
      "ĀĀ/Ā )",
      "ĀĀ( Ā*",
      "ĀĀ( Ā+",
      "\" Ā",
      "& --,-",
      "( )--",
      ") --.-,",
      "+ .--*",
      ". +--.-",
      "/ ,----,",
      "/ .----.",
      "/ )--.",
      "6 9",
      "< ĀĀ",
      "Ġ 2",
      "-- ĝ",
      "-. ---.-",
      "-. -.--,-",
      "-, -,--",
      "-, -.--",
      "-, *---+",
      "-, +---.",
      "--. -,/",
      "--. -*,",
      "--, -//",
      "--, -*,",
      "--, -/)",
      "-/ ,---.",
      "-/ --,-.",
      "-/ .-----",
      "-/ -.--+",
      "--/ ,--,",
      "-* --/-",
      "-* .---.",
      "ĀĀ ė",
      ".-- -*",
      "-.---- .----",
      "*-- -/",
      ",--. -+",
      "/---- -+",
      ",--, --",
      "-.. /--,",
      "-.. ,--.-",
      "-.. ,----+",
      "---/ ----.",
      "-./ /--",
      "-./ .--,",
      "-./ /--/",
      ".--+ -*",
      "-/. .--",
      "-/. ,----.",
      "-+. ,--",
      ".--/ --",
      "-/, +----",
      "-.+ ,--,-",
      "*---- +,",
      "-/---- --+",
      "---+ ----,",
      "-++ +--,",
      "*--. --",
      "-+/ +--.",
      "/--/ -(",
      "-,* .--,",
      "-,* .--+",
      "-*. .--/",
      "*--/ -/",
      "-% )",
      "-% *",
      "ĀĀ-Ā ,",
      "ĀĀ+Ā -",
      "--,-. -,--,",
      "/. ,----",
      ")---- -",
      "/--* -+",
      ".,---- /",
      ".--) -/",
      ",,---- /",
      "ĀĀ' Ā+",
      "ĀĀ% Ā)",
      "---------------- --------",
      ",-----, ---,",
      "ĀĀ? Ā",
      "! *",
      "\" &",
      "% ----",
      "' --)",
      "' )--",
      "( ----/",
      ") .--+",
      "* ,--*",
      "* +--,-",
      "+ +--.",
      ", \"",
      ", /--.",
      ", ,--+-",
      ". *--+",
      ". +----.",
      ". /--.-",
      ". )--+",
      ": .--",
      "Ā Ğ",
      "---- *-",
      "-. .----.",
      "-. -+--,",
      "-. -,--/",
      "-. -/--",
      "-, +--,",
      "-, -+----",
      "-, -/--.",
      "--. /----.",
      "--. ---*",
      "--, /--+",
      "--, *--,",
      "--, -.*",
      "--, -*+",
      "--, ---)",
      "-/ +--",
      "-/ --.-,",
      "-+ \"",
      "-+ -+",
      "-+ -.--",
      "--+ --*",
      "--+ -./",
      "-* +--",
      "ĀĀ ę",
      ".---- )",
      ".-- *--",
      ",-- \"",
      ",-- -.--,",
      "-) /---",
      "-,---- --.,----",
      "/-- %-",
      "*-- -.-",
      "-------- ----,",
      "--* -'",
      "---. --.-,",
      "---. --.-.",
      "+---- -*",
      "+---- +,",
      "+---- +.",
      "--- %-",
      "-,, --,-",
      "-.. *--/",
      "-.. +----,",
      "--+- '",
      "-., --.-",
      "-., *----",
      "-., .----,",
      "-., *--.",
      "--) -)",
      "--) -%",
      ")-- (-",
      "-./ .--/",
      "-./ +--/",
      "-' --",
      "-/. ,----,",
      "(-- %",
      "-+. .--,",
      "-+. ,--.-",
      "-,+ .----,",
      "-,+ /--+",
      "-,/ ,--.-",
      "-/, +--+",
      "--,---- --",
      "-+---- *",
      "-+---- --+",
      "-& +",
      "--' -.",
      "-*, ,----",
      "'-- %",
      "-*. ,--.",
      "-,----. .----",
      "----+ +",
      "ĀĀ.Ā +",
      "-.,---- --------",
      "ĀĀ-Ā +",
      "+, .--,",
      "--.-. )",
      "------------ ---.----",
      "ĀĀ( Ā)",
      "ĀĀ( Ā(",
      ",--) -/",
      "+--) -.",
      "-/----. -",
      "! '",
      "\" /",
      "# #",
      "$ *--",
      "$ )--",
      "& --/-",
      "' --+-",
      "( '--",
      ") +--,",
      ") (--",
      ", !",
      ". .--+",
      ". '--",
      ". (----",
      "/ /--.-",
      "7 9",
      "9 6",
      "> -",
      "Ě -",
      "Ĝ --",
      "---- --.----",
      "---- --.-,",
      "---- --.-.",
      "-, --(",
      "-, ---,-",
      "-, .---+",
      "-, -.--.-",
      "--. -),",
      "--, +--",
      "--, ----,",
      "--, -),",
      "--, -)+",
      "-+ -.----,",
      "-+ --,-.",
      "-+ ,-----",
      "-+ +---.",
      "--/ -,,",
      "--/ -++",
      "--+ -+,",
      "--+ -++",
      "--+ .--,-",
      "-* -)",
      "-* ,---.",
      "-* .---",
      ".---- --+",
      ",---- ---.",
      ",---- ---.----",
      ",-- %-",
      ",-- $-",
      "+-- #",
      "-) ----/",
      "-.---- ---/",
      "-,---- .----",
      "/-- *--",
      "--,- (",
      "*-- -)-",
      "--* -(",
      "--* +--,",
      "--- $-",
      "---, -/",
      "-,, ,--,-",
      "-., .--",
      "-., /--+",
      "-., ,--,-",
      "-., +----.",
      ")-- &",
      "---/ --+",
      "+--, -/",
      "/--. --",
      "-+. /----",
      "-+. /--,",
      "-,+ /----",
      "-,+ .--,-",
      "-/, .--",
      "*---- )",
      "-& --",
      "---+ --",
      "-// +--/",
      "---.---- +",
      "*--. -)",
      "-+/ .----",
      "-/+ ,--+",
      "-/+ +--+",
      "01 0",
      "01 1",
      "'-- -*-",
      "*--/ --",
      "-*+ /--,",
      "ĀĀ.Ā ,",
      "ĀĀ-Ā *",
      ",--* -.",
      "ĀĀ*Ā +",
      "-/* ,--,",
      "--,-, -.----",
      "-*/ .--",
      "-*/ /--",
      "-*/ .--.",
      "/--* -.",
      "/--* -/",
      "ĀĀ)Ā .",
      "+. .--.",
      "+. --+-",
      ".--) -.",
      "ĀĀ' Ā.",
      "ĀĀ' Ā,",
      "*--* -.",
      "-/--. -+",
      "-,-------- ---.",
      "-,-------- ---,",
      "-.------------ -",
      "ĀĀğ Ā",
      "! %",
      "! (",
      "! )",
      "\" $",
      "# $",
      "# /",
      "% ,--",
      ") \"",
      ") +--+",
      "* ,--,-",
      ", (--",
      ", /----,",
      ", /----.",
      ", /--,-",
      "- ĝ",
      ". +--+",
      ". )--.",
      ". )--,",
      ". *--.-",
      "2 10",
      "7 8",
      ": /--",
      "; Ā",
      "@ Ā",
      "Ġ &",
      "-- <-",
      "---- ---,----",
      "-. -.--+",
      "-. +---.",
      "-. /---.-",
      "-, -*",
      "-, *----",
      "-, +---,-",
      "--. --)",
      "--. -/.",
      "--. -/,",
      "--. /----,",
      "--. ---,-",
      "--, .--",
      "--, /----.",
      "-/ -,--/",
      "-+ #",
      "-+ /---",
      "-+ .-----",
      "-+ .---.-",
      "--/ --/",
      "--/ -,+",
      "--/ -.+",
      "--/ -,*",
      "--/ -).",
      "--+ --/",
      "--+ -.+",
      "--+ +--+",
      "--+ -*.",
      "-* /----",
      "-* -.--,",
      "-* -,--",
      "-* -.--/",
      ".---- ---.----",
      ",---- )",
      ".-- !",
      ".-- )--",
      ".-- -.--------",
      "-) +---+",
      "-.---- ---,----",
      "-,---- --,.----",
      "/-- -.--.",
      "/-- $-",
      "--,- '",
      "*-- $",
      "-------- -,",
      "-------- -.----",
      ",--. -,+",
      "--* -.+",
      "---. --,-.",
      "+---- -/",
      "--- #",
      ".--. --",
      ",--, -+",
      "---, --.-,",
      "-,, ,--",
      "-,, .--,-,",
      "-.. +--/",
      "-., /--.",
      "-., .--,-",
      "/--, -/",
      ",--/ -(",
      "-./ +----",
      "-./ ,--,",
      "-/. ,--.-",
      "-+, .--+",
      "-+. +--.",
      "-+. .----,",
      "-,+ .----",
      "-,/ .--,",
      "-,/ +--/",
      "-/, ,--",
      "-.+ *--,",
      "--.---- --.----",
      "--.---- --,----",
      "--,---- --.",
      "--( -+",
      "*---- ++",
      "-/---- *",
      "-// ,--",
      ".----, ,----",
      "/--+ -*",
      "+--+ -/",
      "-*, .--+",
      "-*. ,--/",
      "--*- %",
      "-.* ,--+",
      ".--.- (",
      "*--/ -+",
      "-+* ,--,",
      "ĀĀ.Ā '",
      "--,-. -",
      "ĀĀ*Ā *",
      "ĀĀ*Ā ,",
      "ĀĀ,Ā ,",
      "-+) ---,",
      "/. .----",
      "-*/ ,--",
      "-$ -",
      "ĀĀ/Ā '",
      "ĀĀ)Ā ,",
      "-). .--",
      "+--* -,",
      "Ā. )",
      "ĀĀ( Ā.",
      "ĀĀ' Ā/",
      "ĀĀ% Ā/",
      "! &",
      "\" +",
      "$ +",
      "% --,-",
      "& !",
      "' (--",
      "( .--+",
      "( ----*",
      ") )--",
      ") --,-,",
      ") .--)",
      "* +--*",
      "* +--+-",
      "* ,ĀĀ",
      "+ .--.",
      "+ )----",
      ", +----,",
      "- =",
      "- >",
      ". ĀĀ-Ā",
      ". ĀĀ+Ā",
      ". %--",
      ". *--,-",
      "/ ,--+",
      "/ +----.",
      "/ +--.-",
      "8 8",
      "9 4",
      "9 8",
      "= Ā",
      "Ā -*",
      "Ġ \"",
      "Ġ (",
      "Ġ 3",
      "-- ğ-",
      "---- --,-.",
      "-. ,--,",
      "-, #",
      "-, -)",
      "-, ,--.",
      "-, --*-",
      "-, ,---/",
      "--. *--",
      "--. -+/",
      "--. -/+",
      "--. -.*",
      "--. -/*",
      "--. -)*",
      "-/ .---/",
      "-/ --,-,",
      "-/ -,--",
      "-+ --/-",
      "-+ -,--/",
      "--/ -./",
      "--/ -/.",
      "--/ .----,",
      "--/ -/+",
      "--/ /--/",
      "--/ -*,",
      "--+ ---.",
      "--+ /----",
      "--+ -.,",
      "--+ ,--,-",
      "--+ -.*",
      "-* --*",
      "-* /---",
      "-* -.--",
      "ĀĀ >Ā",
      ",---- -/",
      ".-- #",
      ".-- %-",
      ",-- -.----",
      ",-- &-",
      "+-- -*-",
      "-) -.----",
      "-) --.-",
      "-,---- ----------------",
      "/-- #",
      "/-- \"-",
      "*-- -'",
      "-------- /",
      "--* -*+",
      "/---- )",
      "/---- -,",
      "/---- /,",
      "---, -.",
      "-( #",
      "--/- $",
      "-., --/",
      "-., +----,",
      "--) -,,",
      "--) .--+",
      ")-- -)-",
      "---/ -+",
      "/--, -+",
      ",---, -.",
      "-./ ,----.",
      "-' &",
      "-/. *--",
      "-/. /--.",
      "-+, ,--",
      "-+, +----",
      "-+, ,--+",
      "-+. ,--,",
      "-+. +--/",
      "-,+ ,--.",
      "-,+ .--.",
      "-/, /--,",
      "-/, .--,-",
      "-.+ .----",
      "*---- *",
      ".----. -,----",
      ",----. -",
      ",----. .----",
      ",----. ,.----",
      "-++ /----",
      "---.---- --,----",
      "-,--, ---,",
      "-+/ ,--/",
      "-*, .----",
      "-,* +--,",
      "-.* .--+",
      "--& -/",
      "*--/ -.",
      "----+ )",
      "----+ /",
      "-+* ,--+",
      "-.----, -,----",
      "-*+ .--,",
      "ĀĀ.Ā &",
      ",--* -*",
      "ĀĀ+Ā .",
      "--,-. )",
      "ĀĀ*Ā '",
      "ĀĀ,Ā )",
      "-/* .--+",
      "%-- %",
      "-,) ---,",
      "ĀĀ( Ā/",
      "ĀĀ' Ā&",
      ".--( -/",
      "-/----, -",
      "*--.- (",
      "-,-------- ---",
      "ĀĀ$ Ā*",
      "-/,---, -",
      "ĀĀĜ Ā",
      "! #",
      "! *--",
      "! )--",
      "\" *",
      "% !",
      "% #",
      "% $",
      "& #",
      "& --+",
      "' ----/",
      ") *--,",
      "* )--",
      "* +--.",
      "* )--,",
      "* ,--)",
      "+ ,----.",
      "+ *--.",
      "+ /--,-",
      "+ )--,",
      ", .--*",
      ", ĀĀ+Ā",
      ", &--",
      ", )--,",
      ", ,--)",
      ", .--,-,",
      "- Ĝ",
      ". (--",
      ". )--/",
      "/ .--+",
      "/ *--,",
      "/ )--,",
      "1 01",
      "5 9",
      "9 7",
      ": Ā",
      ": +--",
      "< Ā",
      "Ā -,",
      "Ę Ā",
      "Ġ ,",
      "-- -)-",
      "---- --)",
      "---- --,-,",
      "-. /-----",
      "-, --.----",
      "-, -/----,",
      "-, -.--,-",
      "--. /--/",
      "--. -+*",
      "--. -*+",
      "--. -).",
      "--, -+/",
      "--, -+)",
      "-/ -(",
      "-/ +--.",
      "-/ .---",
      "-+ *----",
      "-+ ---+",
      "-+ *---+",
      "--/ *--",
      "--/ ,--.-",
      "--+ +----",
      "--+ *--,",
      "--+ -,*",
      "--+ -*+",
      "-* \"",
      "-* #",
      "-* -,--.",
      "-* +---+",
      "-* -,--/",
      ".---- ,--,",
      ".-- -*-",
      ",-- -(",
      "+-- -.-",
      "-) .---.",
      "-.---- )",
      "-.---- ,--.",
      "-.---- -,,----",
      "-.---- --..----",
      "-.---- --,,----",
      "-,---- --,,----",
      "--.- #",
      "--.- %",
      "*-- %",
      "*-- '-",
      "-------- +",
      "--* -..",
      "--* -/,",
      "--* ,--+",
      "--* +--+",
      "+---- --/",
      "/---- --",
      "/---- --.",
      "---, -+",
      "---, ,----",
      "---, --*",
      "-( $",
      "-,, ,--/",
      "-,, ,----+",
      "--+- %",
      "-,. *----",
      "-,. /----,",
      "-,. +----.",
      "-,. ,--/-",
      "-., *--,",
      "-., +--+",
      "-., .--,-,",
      "+--. -,,",
      "+--. -/.",
      "/--, -,",
      "-+, /--.",
      "-,+ ,--",
      "-,+ ,----.",
      "-,+ +--+",
      "-,/ ,--,",
      "-,/ .--.-",
      ".--/ -(",
      "-/, +--",
      "-/, .--.",
      "-/, ,--,-",
      "--.---- --",
      "--.---- ---,----",
      "--,---- --,----",
      "*---- /.",
      "-& &",
      "---,---- --.",
      "---,---- --,----",
      "-// +----",
      "-// ,--/",
      "-++ /--+",
      "-+/ .--,",
      "-+/ ,--.-",
      "-/+ ,--,-",
      "-*, ,--,",
      "-*, .--/",
      "-*. .----",
      "--& --",
      "--& -)",
      "-,.---- --.----",
      "-+* .----",
      "-*+ .----",
      "ĀĀ.Ā *",
      "ĀĀ.Ā .",
      "-% +",
      "ĀĀ-Ā '",
      "ĀĀ+Ā ,",
      "--.---. --.",
      "ĀĀ*Ā )",
      "&-- %",
      "&-- -*",
      "&-- -)-",
      "-), /--",
      "-+) .--,",
      "--,-, (",
      "-*/ ,--/",
      "ĀĀ/Ā (",
      "ĀĀ)Ā +",
      "/, .--,",
      "+----, +",
      ".--) -,",
      "..---- -",
      "ĀĀ' Ā'",
      "-,-.---- /",
      "/ĀĀ Ğ",
      "ĀĀ% Ā.",
      "-+----, -",
      "+) --,-",
      "-.-------- ---",
      ".+---- /",
      "-.----/ -",
      "-,,-- -+-",
      "\" #",
      "\" --,-",
      "$ (--",
      "% ---",
      "% --)",
      "& +--",
      "& /--",
      "' ,--",
      "' ----,",
      "' --)-",
      "( --)-",
      ") ,----",
      ") '--",
      ") .--*",
      ") ----.,",
      "* /--*",
      "* .--+-",
      "* +ĀĀ",
      "+ ,----,",
      "+ '--",
      "+ ĀĀ/Ā",
      "+ +--+-",
      ", .--/",
      ", ĀĀ,Ā",
      ", )----",
      ", ,--*-",
      ", .ĀĀ",
      ", *----,",
      ". !",
      ". \"",
      ". +--,-",
      ". /----.",
      ". +----,",
      "/ !",
      "/ ĀĀ.Ā",
      "/ )----",
      "/ +----,",
      "/ )--/",
      "1 00",
      "1 21",
      "1 40",
      "2 00",
      "3 01",
      "ĝ --",
      "Ġ +",
      "---- -)",
      "---- )-",
      "-. $",
      "-. ĀĀ",
      "-. ---/",
      "-. -.--/",
      "-. -.--.-",
      "-, -,--,-",
      "-, /---,",
      "--. +--,",
      "--. *----",
      "--. *--,",
      "--. -+)",
      "--, -+*",
      "--, -*-",
      "-/ -*",
      "-/ -'",
      "-/ -.----,",
      "-/ -+--.",
      "-/ -+--,",
      "-+ --+-",
      "-+ --.-,",
      "-+ --.-.",
      "-+ -,--",
      "--/ -*.",
      "--/ .--.-",
      "--/ -*/",
      "--+ ,--",
      "--+ -/+",
      "--+ -----,",
      "--+ ---)",
      "-* -*",
      "-* -/----",
      "-* -.--+",
      "-* -/--.",
      ",---- --+",
      ".-- -,--,",
      ".-- *--,",
      ",-- #",
      ",-- :",
      "+-- :",
      "-) -)",
      "-.---- --*",
      "-.---- /.",
      "-.---- ----------------",
      "-,---- -.----",
      "-,---- ----.",
      "-,---- --..----",
      "/-- -+-",
      "--,- &",
      "--.- &",
      "-------- ----.",
      ",--. ----",
      "--* --+",
      "--* /--,",
      "--* -./",
      "--* -/+",
      "--* -.*",
      "+---- /.",
      "/---- +.",
      "-,, +--",
      "-,, .----/",
      "-.. --.-",
      "-.. ,--+",
      "-.. /--/",
      "-,. --,-",
      "-,. *--.",
      "-,. /----.",
      "-., ,--/",
      "-., ,--*",
      "----. )",
      "----. -,----",
      "+--. -/",
      "---/ -)",
      "-./ +--,",
      "-./ ,--.-",
      "+--, -)",
      "-/. /--,",
      "-/. .----,",
      "-/. *--/",
      "(-- $",
      "(-- &-",
      "-,+ +--,",
      "-/, *----",
      "-.+ *--",
      "-.+ ,----,",
      "-.+ +--+",
      "-.+ .--,-.",
      "00 1",
      "00 2",
      "*---- -,",
      "-& '",
      "-/---- -",
      "---,---- -.",
      "-// +--",
      "-// .--/",
      "-// ,----,",
      ".----. -",
      "-++ .--",
      "-++ .--*",
      "---.---- --.",
      "--' --",
      "--' -)",
      "*--. -+",
      "/--+ --",
      "-+/ *--",
      "/--/ -+",
      "+--+ -+",
      "-*, /--",
      "-*, /--,",
      "-*. /--",
      "-*. .--,",
      "-..---- --.----",
      "-..---- --,----",
      "----/ *",
      "-.* ,--)",
      "--& -'",
      "*--/ -,",
      "-,.---- --------",
      "-+* /--+",
      "-+* .--+-",
      "-*+ ,----",
      "ĀĀ.Ā %",
      "ĀĀ.Ā -",
      "11 1",
      ",--* -)",
      "ĀĀ+Ā &",
      "ĀĀ+Ā )",
      "-*/ /--.",
      "+--* -*",
      "+--* -)",
      "-)+ .----",
      "+--.- (",
      ",,---- +",
      "ĀĀ' Ā*",
      "ĀĀ' Ā)",
      "ĀĀ' Ā(",
      "-)/ .--",
      "-)/ ,--",
      "-)/ /--",
      "-# '",
      "*--* -/",
      "/ĀĀ #Ā",
      "------, --------",
      "-,-------- .----",
      "Ā% ,",
      ",-----, ,--,",
      ",--' -/",
      "-,----+ -",
      "--; -",
      "-,-------.---- -",
      "ĀĀĞ Ā",
      "ĀĀ@ Ā",
      "! !",
      "! $",
      "\" !",
      "\" ,",
      "$ ----",
      "% \"",
      "% --.",
      "% --/-",
      "( ĀĀ/Ā",
      ") .--,",
      ") ,--+",
      ") ,--*",
      ") /--*-",
      "* .--,-",
      "* ĀĀ-Ā",
      "+ ĀĀ*Ā",
      "+ %--",
      "+ +--*",
      "+ )--.",
      ", ,--/",
      ", .--.-",
      ", ĀĀ*Ā",
      ", )--.",
      "- ?",
      "- @",
      "- ĀĀ,Ā",
      ". .--+-",
      ". +--/-",
      "/ \"",
      "/ :",
      "/ ;",
      "/ ,----.",
      "/ ĀĀ,Ā",
      "/ &--",
      "/ /----.",
      "/ (--/",
      "/ (--.",
      "0 30",
      "0 40",
      "2 01",
      "2 11",
      "2 20",
      "8 9",
      "< --",
      "= --",
      "Ā <",
      "Ā ĝ",
      "Ā -/",
      "Ġ #",
      "Ġ $",
      "Ġ '",
      "Ġ -/",
      "---- --+-",
      "-. #",
      "-. --.----",
      "-. --)-",
      "-. -/--.",
      "-. .---+",
      "-. ,---/",
      "-. ,---*",
      "-. -,--.-",
      "-. .---/-",
      "-, -(",
      "-, /--,",
      "-, --'",
      "--. --*",
      "--. +--/",
      "--, --.---.",
      "--, /----,",
      "--, +--,-",
      "--, -**",
      "-/ \"",
      "-/ ĀĀ",
      "-/ -.--",
      "-+ --(",
      "-+ ,---",
      "-+ ,---/",
      "-+ +-----",
      "--/ -..",
      "--/ ---+",
      "--/ *--.",
      "--/ ------.",
      "--+ -,.",
      "--+ ----.",
      "--+ ,----.",
      "--+ -+/",
      "--+ +--,-",
      "-* --)",
      "-* /---.",
      ",---- +,",
      ",---- --,,----",
      ".-- \"",
      ".-- *--.",
      ".-- \"-",
      "+-- -(",
      "+-- -,--,",
      "+-- #-",
      "+-- %-",
      "-.---- ---+",
      "-.---- +,",
      "-,---- ----,",
      "-,---- ---/",
      "-,---- -,,----",
      "/-- !",
      "/-- $",
      "--.- $",
      "*-- -,--,",
      "*-- %-",
      "*-- -(-",
      "-------- --,",
      "-------- -,----",
      "-------- ---.",
      "--* -,.",
      "--* -.,",
      "--* -/)",
      "---. --+-",
      "---. --,----",
      "---. --,-,",
      "+---- --+",
      ".--. -)",
      ".--. -,/",
      "---, --,-.",
      "---, --.-.",
      "-( \"",
      "-,, +--+",
      "-,, /----,",
      "-.. +----.",
      "-.. )--.",
      "-,. ,----+",
      "-., ,--.-",
      "--) ---",
      "--) ---,",
      "--) -&",
      "----. -+----",
      ")-- $",
      "---/ -/",
      "---/ -(",
      ",--/ -,/",
      "-./ *--",
      "-./ /----",
      "-./ )--",
      "-./ .----.",
      "-./ .--.-",
      ".--+ --",
      "-/. /--",
      "-/. +--,",
      "-/. .----.",
      "(-- (-",
      "-+, +--",
      "-+, .----.",
      "-+, .----,",
      "-+, /--+",
      "-+, ,--,-",
      "-+. +--",
      "-+. /--",
      "-,+ ,--/",
      "-,/ .----.",
      "-/, ,----,",
      "-/, /--+",
      "-.+ ,--",
      "-.+ .--*",
      ",--+ --",
      "--,---- ---,----",
      "--( -)",
      "*---- -+",
      "-+---- --*",
      "-& #",
      "-/---- ,--.",
      ",----, ,---,",
      "-// *--",
      "-// /--.",
      "-// *--.",
      "---.---- --------",
      "+--/ --",
      "+--/ -)",
      "*--. -/",
      "*--. -,.",
      "/--/ --",
      "/--/ -)",
      "-*, /--.",
      "-*, ,--,-",
      "'-- &",
      "-..---- -,,----",
      "--& -,",
      "----+ *",
      "-+* +--,",
      "ĀĀ.Ā )",
      "-% --",
      "-.----. .----",
      "ĀĀ+Ā +",
      "02 1",
      "02 2",
      "+, --/-",
      "*--+ -.",
      "*--+ -,",
      "*--+ -+",
      "-), .--,",
      "-+) ,--,",
      "-+) .--+",
      "--,---, --,",
      "/. --+-",
      "-$ %",
      "-$ --",
      "ĀĀ/Ā ,",
      "-). .--/",
      "-** /--,",
      "-,) .--,",
      "+--* -/",
      "-.) .--+",
      "/--,- (",
      "12 2",
      "Ā. ,",
      "Ā* .",
      "ĀĀ( Ā'",
      "ĀĀ( Ā&",
      "---* ----",
      "Ā, .",
      ")--/ --",
      ")--/ -/",
      ")--/ -+",
      "----* )",
      "03 1",
      "--$ -.",
      "-# *",
      "--.,---- +",
      "--,-/ -",
      ".--( -+",
      "23 3",
      ",ĀĀ &Ā",
      "ĀĀ$ Ā+",
      "----) .",
      "/--( -/",
      ".--.-. -.--.",
      "-.-------- ---,",
      "ĀĀ& Ā+",
      "+--( -.",
      ".-------- ---",
      ".-------- ---,",
      ",-----, .--,",
      ",-------- ---.",
      "-+,---, -",
      ".------------ -",
      "ĀĀĚ Ā",
      "\" \"",
      "\" (",
      "\" )",
      "\" .--",
      "# +",
      "$ ,--",
      "$ ---",
      "% --+",
      "& --)-",
      "' --,",
      "' )ĀĀ",
      "' *--)",
      "( .--,",
      "( ,--)",
      "( .--*-",
      ") /--+",
      ") ,--,-",
      ") ,--*-",
      "* )--+",
      "* /--)",
      "+ /--.-",
      "+ $--",
      "+ *--.-",
      "+ ,--*-",
      "+ )ĀĀ",
      "+ *--)",
      ", +--/",
      ", ,--.-",
      ", /--*",
      ", +--.-",
      ", *ĀĀ",
      ", )--,-",
      "- ĀĀ.Ā",
      "- ĀĀ-Ā",
      ". .--/-",
      ". .ĀĀ",
      "/ .----,",
      "/ .--,-",
      "/ ĀĀ*Ā",
      "/ ĀĀ)Ā",
      "/ +--+-",
      "/ ,----/",
      "/ *--/-",
      "/ -ĀĀ",
      "/ )--,-",
      "1 20",
      "9 9",
      ": ĀĀ,Ā",
      "; ,",
      "; -,",
      "; ---",
      "= ĀĀ",
      "= ---",
      "? Ā",
      "Ā +.",
      "Ā /,",
      "ĝ Ā",
      "Ğ #",
      "ğ %",
      "Ġ 4",
      "Ġ 5",
      "Ġ ĀĀ",
      "-- ?",
      "-- %--",
      "-- *--*",
      "---- %",
      "-. *--",
      "-. .--,",
      "-. ,----,",
      "-. ,---",
      "-. +---,-",
      "-. *---*",
      "-, /--",
      "-, --,----",
      "-, .----,",
      "--. .--+",
      "--. ,--+",
      "--. *--/",
      "--. -))",
      "--, -/*",
      "--, ---.-",
      "--, -)/",
      "--, -+(",
      "--, .--,-.",
      "--, ---+----",
      "-/ /--",
      "-/ /--.",
      "-/ -/----",
      "-/ --*-",
      "-/ -,----,",
      "-/ --.-.",
      "-/ -/--,",
      "-/ /-----",
      "-/ -,--,-",
      "-/ *---*",
      "-+ --)",
      "-+ -+--,",
      "-+ ---,-",
      "-+ -/--",
      "-+ .---+",
      "-+ ,---*",
      "-+ +---*",
      "-+ -+--/",
      "--/ --*",
      "--/ /----",
      "--/ /--,",
      "--/ ,----.",
      "--/ -/*",
      "--/ -)+",
      "--/ -+(",
      "--/ -)*",
      "--/ -----,",
      "--+ -)+",
      "--+ -/)",
      "--+ -,-",
      "--+ -+(",
      "--+ -)*",
      "--+ ------.",
      "--+ ---,--.",
      "-* --+-",
      "-* /---/",
      "-* *---,",
      "-* -+--,",
      "-* -.--.-",
      ".---- -+",
      ".---- -*",
      ".---- ---,",
      ".---- --,----",
      ",-- )--",
      ",-- -'",
      ",-- #-",
      "+-- \"",
      "+-- *--",
      "+-- -,--.",
      "-) !",
      "-) ----+",
      "-.---- ----.",
      "-.---- .--/",
      "-.---- --,.----",
      "-,---- +.",
      "--,- $",
      "*-- :-",
      "-------- ------------",
      ",--. -,.",
      "--* --/",
      "--* -,,",
      "--* -+,",
      "--* -,*",
      "--* -*.",
      "---. .----",
      "---. --*",
      "+---- -+",
      "/---- --+",
      "--- \"",
      "--- :",
      ".--. -)+",
      "-,, *--,",
      "-,, ,--*",
      "-.. ,--*",
      "-.. /----,",
      "-.. /----.",
      "-.. .--,-,",
      "-.. ,----/",
      "-., '",
      "-., *--",
      "-., ,----+",
      "-., .----/",
      "-., ,----/",
      "--) --.",
      "--) --*",
      "--) -'",
      "--) -.+",
      "----. ,,----",
      ")-- #",
      ")-- ;",
      ")-- &-",
      "---/ --.-",
      "---/ ------,",
      "/--, -/,",
      ",---, ---,----",
      "-./ *--/",
      "-./ .--.-.",
      "-' #",
      "-/. ,--+",
      "(-- #",
      "/--. -//",
      "-+. .--+",
      "-+. ,----.",
      "-,+ +--.",
      "-,+ *--,",
      "-,+ ,--*",
      "-,/ ,----",
      "-,/ *--",
      "-,/ ,----,",
      "-,/ ,----.",
      "-/, *--.",
      "-/, )--,",
      "-.+ .--,-",
      "-.+ ,--+-",
      "-// ,--,",
      "-++ ,--",
      "-++ +--",
      "-++ ,--.",
      "---.---- /",
      "+---, -/",
      "-*, ,--",
      "/---. -/",
      "'-- -)-",
      "-*. +--.",
      "-*. /--,",
      "-.* /--+",
      "-.* ,--*",
      ".--* -)",
      "--& -&",
      "*--/ -(",
      "-,.---- -.,----",
      "-+* .--,-",
      "-*+ /----",
      "-,----, -.--.",
      "ĀĀ.Ā /",
      ",--* -/",
      "ĀĀ+Ā *",
      "--,-. ,---,",
      "ĀĀ*Ā (",
      "ĀĀ*Ā -",
      "+, ĀĀ",
      "ĀĀ,Ā .",
      "-), .--.-",
      "'- ĀĀ",
      "--,-, -.--.",
      "--.-. -",
      "/. ĀĀ",
      "/. .--.",
      "-*/ +--",
      "-*/ .--/",
      ")---- *",
      ")---- -+",
      "-$ )",
      "-$ *",
      "/--* -*",
      "ĀĀ)Ā (",
      "-). +--",
      "-** .--*",
      "+. ,--.",
      "-.) ---,",
      "-.) +--+",
      "/, ,----",
      "--% -/",
      "--% -(",
      ".,---- +",
      "..---- +",
      "--$ -/",
      "Ā/ *",
      "--..---- --,----",
      "-# -",
      "-# /",
      ")--+ -,",
      "-*---- --.",
      "ĀĀ% Ā,",
      "ĀĀ% Ā%",
      "ĀĀ% Ā-",
      "Ā( &",
      ".--( -,",
      "/--/- '",
      "+ĀĀ :",
      "14 2",
      ".----+ +",
      "*---+ -/",
      "-)) ---,",
      "(--/ -*",
      "ĀĀ$ Ā,",
      ",--( -,",
      ".+---- +,",
      ",-------- .----",
      "--+---+ -",
      "-.----+ -",
      "! .",
      "! ĀĀ",
      "\" -+",
      "# !",
      "# \"",
      "$ !",
      "$ \"",
      "$ +--",
      "$ --,-",
      "$ '--",
      "% +--",
      "% ,--,-",
      "' !",
      "' ----+",
      "' --'-",
      "' --/-,",
      "( ;",
      "( /--",
      "( +----",
      "( ---,",
      "( ----.",
      "( *ĀĀ",
      "( ---(",
      ") ,--,",
      ") .--,-",
      ") *--+",
      ") +--,-",
      ") .--+-",
      ") ---,-",
      ") ,--+-",
      ") /--+-",
      ") .--(",
      ") +--)",
      "* ,----.",
      "* %--",
      "* ĀĀ)Ā",
      "* ,--+-",
      "+ !",
      "+ \"",
      "+ /--.",
      "+ .----,",
      "+ ĀĀ-Ā",
      "+ ĀĀ,Ā",
      "+ +--.-",
      "+ )--+",
      "+ *--,-",
      "+ (--,",
      "+ +--)-",
      "+ .--+-.",
      "+ .--&",
      ", *--/",
      ", *--,-",
      ", .--,-.",
      ", *--+-",
      "- Ě",
      ". ĀĀ,Ā",
      ". +--*",
      ". /--,-",
      ". +--+-",
      ". *----.",
      ". *--+-",
      ". -ĀĀ",
      ". /----/",
      "/ .---.",
      "/ +--+",
      "/ /----,",
      "/ %--",
      "/ +--,-",
      "2 30",
      "3 11",
      "3 21",
      "4 11",
      ": ,--",
      "> --",
      "ĕ Ā",
      "ė -",
      "ę Ā",
      "Ě Ā",
      "Ĝ Ā",
      "Ğ '",
      "ğ ĀĀ",
      "Ġ !",
      "-- Ę",
      "-- ě",
      "-- @-",
      "---- -,----",
      "---- -..",
      "---- -./",
      "-. --(",
      "-. ,----.",
      "-. -*----",
      "-. *---+",
      "-. /---,",
      "-. +---*",
      "-, /----.",
      "-, -/----.",
      "-, -,--.-",
      "-, .---,-",
      "--. ---,----",
      "--. -+-",
      "--. +----,",
      "--. -*)",
      "--. -,..--.",
      "--. ---/-",
      "--, *--",
      "--, *----",
      "--, *--/",
      "--, *--+",
      "--, -*/",
      "--, -).",
      "--, +----,",
      "-/ -.----.",
      "-/ -.--/",
      "-/ ,---+-",
      "-+ --*-",
      "-+ -,----.",
      "-+ --,-,",
      "-+ -,--+",
      "-+ -.--,-",
      "-+ /---.-",
      "-+ -/--/",
      "-+ ,---.-",
      "-+ ,---+-",
      "--/ )--",
      "--/ -,/",
      "--/ -*+",
      "--/ -**",
      "--/ +--.-",
      "--/ ------,",
      "--+ .--.",
      "--+ -//",
      "--+ -.)",
      "--+ -.-",
      "--+ -----.",
      "-* --.-,",
      "-* ,---+",
      "-* -/--",
      "-* ----.-",
      "ĀĀ Ę",
      ".---- ---,----",
      ".---- -,,----",
      ".---- +,",
      ",---- -*",
      ",---- .--,",
      ",---- -..----",
      ",---- -,.----",
      ".-- -,----",
      ".-- -(",
      ".-- #-",
      ",-- !",
      ",-- *--,",
      ",-- -)-",
      "+-- -)-",
      "-) .---/",
      "-) --.-.",
      "-) ----*",
      "-) -.--",
      "-) +---",
      "-.---- -,----",
      "-.---- -..----",
      "-.---- --/----",
      "-.---- .--------",
      "-,---- ,--.",
      "-,---- .--/",
      "-,---- -.,----",
      "/-- *--.",
      "--,- #",
      "--.- (,",
      "*-- :",
      "-------- --,----",
      "-------- -.---.",
      ",--. -,,",
      "--* -/.",
      "--* *--,",
      "--* ,--*",
      "--* -*(",
      ".--, --+",
      ".--, -)",
      "---. -.,----",
      "+---- -.",
      "+---- --.",
      "+---- /,",
      "/---- (",
      "--- !",
      ".--. --,----",
      "---, -,",
      "---, --,-,",
      "-,, .--*",
      "-,, )--,",
      "-.. .--,-",
      "-.. .--/-",
      "-.. .----/",
      "-,. --+",
      "-,. *--",
      "-,. +--,",
      "-,. *--,",
      "-., +--,-",
      "-., /--,-",
      "-., .--,-.",
      "--) ----",
      "--) --+",
      "--) ---+",
      "--) ---*",
      "----. .,--.",
      "----, -.----",
      "----, .---.",
      "----, ,,----",
      "----, ./----",
      ")-- -/",
      "+--. -)",
      "+--. -./",
      "+--. -,*",
      "---/ ----/",
      ",--/ -/*",
      "-./ /--,",
      "-./ *----",
      ".--+ -+",
      "-' ----",
      "+--, -.+",
      "-/. +--+",
      "-+, /----",
      "-+, /----,",
      "-+. +----",
      "-+. .----.",
      "-+. +----.",
      "-,+ +----",
      "-,+ *----",
      "-,+ ,----,",
      "-,+ .--*",
      "-,+ /--*",
      "-,+ /----.",
      "-,/ /----",
      ".--/ -)",
      "-/, /--.",
      "-/, ,----.",
      "-/, *--+",
      "-.+ +----",
      ",--+ -*",
      "--.---- -,",
      "--.---- --/",
      "--.---- -..----",
      "--,---- -,,----",
      "*---- (",
      "*---- -/",
      "-+---- )",
      "-+---- -",
      ",----, ,----",
      "---,---- ----.",
      "---,---- -.,----",
      "-// .--,",
      ".----. ,----",
      "-++ ,----,",
      "---.---- --",
      "---.---- --.----",
      "---.---- -------",
      "+--/ -(",
      "+--/ -,,",
      "+--/ -++",
      "--' -*",
      "*--. --+",
      "*--. -/.",
      "/--+ -)",
      "-.--, -.",
      "-.--, -/",
      "-+/ )--",
      "-+/ /--/",
      "-+/ .--.-",
      "-/+ ,--.",
      "-/+ +--*",
      ",--.- (+",
      "-*. /----",
      "-*. /--.",
      "-..---- -.,----",
      "----/ /",
      "--& -*",
      "-+* /--,",
      "-*+ ,--,",
      "-*+ *--,",
      "-,----, -.----",
      "-,----, -,----",
      "ĀĀ-Ā $",
      "ĀĀ-Ā )",
      "ĀĀ-Ā -",
      "ĀĀ-Ā .",
      "-.----. -.----",
      "ĀĀ+Ā '",
      "--,-. -,----",
      "--,-. .---.",
      "ĀĀ*Ā %",
      "ĀĀ*Ā .",
      "+, ,--,",
      "+, /--,",
      "*--+ -*,",
      "&-- -)",
      "&-- -*-",
      "-), ,--",
      "--,---, --.",
      "--.-. -,--.",
      "/. +--.",
      ")---- )",
      "%-- -)",
      "/--* -,",
      "ĀĀ)Ā )",
      "-)+ ,--",
      "-)+ /--,",
      "-.) ---,-",
      ")--. --,",
      "--% -+",
      ".,---- --,----",
      ".--) -)",
      ",--) -.",
      ",,---- --.----",
      ")--/ -.",
      "Ā/ )",
      "Ā+ &",
      "Ā+ )",
      "--..---- +",
      "--..---- --.----",
      "-)/ /--/",
      "*---, -,",
      "-# ,",
      ",.---- +",
      "/ĀĀ $Ā",
      "Ā) ,",
      "ĀĀ% Ā'",
      ".--( -*",
      "*--,- (",
      "13 3",
      "/--) -,",
      "14 3",
      "Ā' /",
      "*----. .",
      "ĀĀ$ Ā.",
      "ĀĀ$ Ā-",
      ",--( -.",
      "-.-------- ,----",
      "ĀĀ& Ā,",
      "--+---- --",
      "-.------. ------------",
      ",-------- ---",
      ",-------- ---,",
      "----,, /--,",
      "-,----/ -",
      "-,,-- -.--.",
      ",) --+-",
      "ĀĀ# Ā.",
      "-..---, -",
      "-.------.---- --",
      "! ,",
      "\" -.",
      "\" --.-",
      "\" ---",
      "# /--",
      "# --.-",
      "# --)",
      "$ #",
      "$ :",
      "$ --+",
      "% /--",
      "% --+-",
      "% (--",
      "% --)-",
      "& ğ",
      "& ----.",
      "& --(",
      "& --&",
      "& --(-",
      "& Ā/",
      "& --'-",
      "& .--*-",
      "' ,--+",
      "' --(",
      "' ---+",
      "' --*-",
      "' .--*",
      "( ,----",
      "( +--+",
      "( --,-,",
      "( +--*",
      "( )ĀĀ",
      "( +--*-",
      "( )--*",
      "( (ĀĀ",
      ") .----",
      ") /----",
      ") /--,",
      ") +ĀĀ",
      ") )ĀĀ",
      ") ---(",
      ") /--)-",
      "* \"",
      "* *----",
      "* ĀĀ.Ā",
      "* *--*",
      "+ .--.-",
      "+ +----,",
      "+ *--*",
      "+ +--(",
      "+ .--)-",
      ", .--+-",
      ", .--(",
      ", +--+-",
      ", +--)",
      ", /--*-",
      ", +----+",
      "- ĀĀ+Ā",
      ". /--+",
      ". .--*",
      ". ĀĀ.Ā",
      ". ,--*",
      ". &--",
      ". ĀĀ/Ā",
      ". ,--)",
      ". .--,-,",
      ". (--,",
      "/ -,----",
      "/ /--+",
      "/ *--,-",
      "0 20",
      "1 50",
      "2 21",
      "2 31",
      "3 10",
      "3 40",
      "4 10",
      ": *--",
      ": '--",
      "; +",
      "; ,--",
      "< .",
      "< ,--",
      "< ---",
      "= +--",
      "Ā ;",
      "Ā -+",
      "Ā -(",
      "Ā -%",
      "ė Ā",
      "Ě --",
      "Ě ĀĀ",
      "ě --",
      "Ğ ĀĀ",
      "ğ Ā",
      "ğ --,-",
      "Ġ /",
      "Ġ 6",
      "Ġ Ā+",
      "Ġ Ā(",
      "-- Ě",
      "-- Ĝ",
      "-- =-",
      "---- $",
      "---- ---/",
      "---- -/.----",
      "---- --+----",
      "---- (.",
      "-. ğ",
      "-. ---,",
      "-. +--.",
      "-. --,----",
      "-. *---,",
      "-. -+--",
      "-. ,---.-",
      "-. /---+",
      "-, *--",
      "-, ---+",
      "-, /----,",
      "-, +----.",
      "-, ,---*",
      "-, -+--",
      "-, -/--/",
      "-, --*-,",
      "-, .---/-",
      "-, -/--+",
      "-, /---+",
      "-, -+--,-",
      "--. -**",
      "--. .--/-",
      "--, .--/",
      "--, --.----",
      "--, /--/",
      "--, .--*",
      "--, ,--*",
      "--, -*(",
      "-/ ,--",
      "-/ +---.",
      "-/ ,---",
      "-/ ,---*",
      "-/ +---,-",
      "-/ -,----+",
      "-/ -/--/",
      "-/ +---)",
      "-+ !",
      "-+ --------",
      "-+ -.----.",
      "-+ *---,",
      "-+ -.--+",
      "-+ -+--",
      "--/ -,.",
      "--/ --)",
      "--/ .--+",
      "--/ -/,",
      "--/ -+/",
      "--/ -.*",
      "--/ -*-",
      "--/ -.)",
      "--/ ---,-",
      "--/ -(*",
      "--+ +--",
      "--+ *----",
      "--+ -+-",
      "--+ -*-",
      "--+ -,(",
      "--+ ---,--,",
      "-* !",
      "-* *----",
      "-* -,--,",
      "-* --*-",
      "-* -+--.",
      "-* ----*",
      "-* -/----,",
      "-* *---+",
      "-* -*--",
      "ĀĀ >",
      "ĀĀ Ĕ",
      ".---- -)",
      ".---- -,.----",
      ".---- --..----",
      ".---- ----------------",
      ",---- --,.----",
      ".-- :",
      ".-- $-",
      ",-- *--/",
      "+-- *--.",
      "+-- $-",
      "-) --/-",
      "-) ,---,",
      "-) ,---.",
      "-) .---",
      "-) -.--/",
      "-.---- --.-",
      "-.---- ----,",
      "-.---- +--,",
      "-.---- -,.----",
      "-.---- --.,----",
      "-.---- ,--------",
      "-,---- (",
      "-,---- )",
      "-,---- --,-,",
      "/-- ;",
      "/-- -(",
      "--,- %",
      "--,- (+",
      "--,- (*",
      "--.- (.",
      "*-- !",
      "*-- *--",
      "-------- *",
      "-------- .,----",
      "-------- ..----",
      "-------- ,.----",
      "-------- -,---,",
      ",--. -/+",
      "--* -,+",
      "--* -,/",
      "--* -&",
      "--* -++",
      "--* -*,",
      "--* -+)",
      "--* -.)",
      "--* -))",
      ".--, --",
      "---. -)",
      "---. -,+",
      "---. -+*",
      "+---- )",
      "/---- --/",
      "--- \"-",
      ".--. -+",
      ".--. --/",
      ".--. --*",
      ".--. -++",
      ",--, -)",
      ",--, -/+",
      "---, ---,",
      "---, --+-",
      "-( --,-",
      "-,, *----",
      "-,, /----.",
      "-,, +----.",
      "-,, .--,-.",
      "-.. *----",
      "-.. *--,",
      "-.. +--.-"
    ]
  }
}