{
  "version": "1.0",
  "truncation": null,
  "padding": null,
  "added_tokens": [],
  "normalizer": null,
  "pre_tokenizer": {
    "type": "ByteLevel",
    "add_prefix_space": false,
    "trim_offsets": true,
    "use_regex": true
  },
  "post_processor": {
    "type": "ByteLevel",
    "add_prefix_space": true,
    "trim_offsets": false,
    "use_regex": true
  },
  "decoder": {
    "type": "ByteLevel",
    "add_prefix_space": true,
    "trim_offsets": true,
    "use_regex": true
  },
  "model": {
    "type": "BPE",
    "dropout": null,
    "unk_token": null,
    "continuing_subword_prefix": null,
    "end_of_word_suffix": null,
    "fuse_unk": false,
    "byte_fallback": false,
    "ignore_merges": false,
    "vocab": {
      "\u0000": 0,
      "\u0001": 1,
      "\u0002": 2,
      "\u0003": 3,
      "\u0004": 4,
      "\u0005": 5,
      "\u0006": 6,
      "\u0007": 7,
      "\b": 8,
      "\t": 9,
      "\n": 10,
      "\u000b": 11,
      "\f": 12,
      "\r": 13,
      "\u000e": 14,
      "\u000f": 15,
      "\u0010": 16,
      "\u0011": 17,
      "\u0012": 18,
      "\u0013": 19,
      "\u0014": 20,
      "\u0015": 21,
      "\u0016": 22,
      "\u0017": 23,
      "\u0018": 24,
      "\u0019": 25,
      "\u001a": 26,
      "\u001b": 27,
      "\u001c": 28,
      "\u001d": 29,
      "\u001e": 30,
      "\u001f": 31,
      " ": 32,
      "!": 33,
      "\"": 34,
      "#": 35,
      "$": 36,
      "%": 37,
      "&": 38,
      "'": 39,
      "(": 40,
      ")": 41,
      "*": 42,
      "+": 43,
      ",": 44,
      "-": 45,
      ".": 46,
      "/": 47,
      "0": 48,
      "1": 49,
      "2": 50,
      "Ā": 51,
      "ā": 52,
      "Ă": 53,
      "ă": 54,
      "Ą": 55,
      "ą": 56,
      "Ć": 57,
      "ć": 58,
      "Ĉ": 59,
      "ĉ": 60,
      "Ċ": 61,
      "ċ": 62,
      "Č": 63,
      "č": 64,
      "Ď": 65,
      "ď": 66,
      "Đ": 67,
      "đ": 68,
      "Ē": 69,
      "ē": 70,
      "Ĕ": 71,
      "ĕ": 72,
      "Ė": 73,
      "ė": 74,
      "Ę": 75,
      "ę": 76,
      "Ě": 77,
      "ě": 78,
      "Ĝ": 79,
      "ĝ": 80,
      "Ğ": 81,
      "ğ": 82,
      "Ġ": 83,
      "ęę": 84,
      "ęęęę": 85,
      "ęĚ": 86,
      "ęĘ": 87,
      "ęęĚ": 88,
      "ęęĘ": 89,
      "ĀĀ": 90,
      "ęě": 91,
      "ęė": 92,
      "ęęęęęęęę": 93,
      "ęęė": 94,
      "ęęě": 95,
      "Ęęęęę": 96,
      "Ěęęęę": 97,
      "ęęęĚ": 98,
      "ęęęĘ": 99,
      "ęĜ": 100,
      "ęĖ": 101,
      "ęęĖ": 102,
      "ęęĜ": 103,
      "ęĘęęęę": 104,
      "ęĚęęęę": 105,
      "ęĝ": 106,
      "ęĕ": 107,
      "ĘęęĚ": 108,
      "ĚęęĘ": 109,
      "ĘęęĘ": 110,
      "ĚęęĚ": 111,
      "ęęęęĘ": 112,
      "ęĚĚ": 113,
      "ęęęęĚ": 114,
      "ęĘĘ": 115,
      "ęĚĘ": 116,
      "ęęĕ": 117,
      "ęĘĚ": 118,
      "ęęĝ": 119,
      "ęęęė": 120,
      "ęęęě": 121,
      "ęęę": 122,
      "ėęęęę": 123,
      "ěęęęę": 124,
      "ęęęęęęęęęęęę": 125,
      "ęęĚęęęę": 126,
      "ęĞ": 127,
      "ęęĘęęęę": 128,
      "ęęĞ": 129,
      "ėęęĚ": 130,
      "ęĔ": 131,
      "ęęĔ": 132,
      "ĀĚ": 133,
      "ěęęĘ": 134,
      "ĀĘ": 135,
      "ĀĀĘ": 136,
      "ĀĀę": 137,
      "Ęęęě": 138,
      "Ěęęė": 139,
      "ęĚě": 140,
      "ęĘė": 141,
      "ęěĚ": 142,
      "Āě": 143,
      "ėęęĘ": 144,
      "Ęęęė": 145,
      "Āė": 146,
      "ěęęĚ": 147,
      "ęĘě": 148,
      "ĀĀĚ": 149,
      "ęěĘ": 150,
      "ęĚė": 151,
      "Ěęęě": 152,
      "ĀĀė": 153,
      "ęėĚ": 154,
      "ęėĘ": 155,
      "ĀĖ": 156,
      "ęğ": 157,
      "ĀĜ": 158,
      "ęęęęęęęęęęęęęęęę": 159,
      "ęęē": 160,
      "ĀĀě": 161,
      "ęęęĜ": 162,
      "ęęęĖ": 163,
      "ęęğ": 164,
      "ĀĀĖ": 165,
      "ęęęĘęęęę": 166,
      "ęęĚę": 167,
      "ęėė": 168,
      "ěęęė": 169,
      "ĘęęęęĚ": 170,
      "ĘęęęęĘ": 171,
      "Āĕ": 172,
      "ęęĚęęęĚ": 173,
      "ėęęě": 174,
      "Āĝ": 175,
      "ęęĘę": 176,
      "ęěęęęę": 177,
      "ęěě": 178,
      "Ĝęęęę": 179,
      "ĖęęĚ": 180,
      "ęėęęęę": 181,
      "Ėęęęę": 182,
      "ĚęęęęĚ": 183,
      "ęē": 184,
      "ęęęĚęęęę": 185,
      "ěęęě": 186,
      "ĚęęęęĘ": 187,
      "ĀĀĜ": 188,
      "ęěė": 189,
      "ĜęęĘ": 190,
      "ėęęė": 191,
      "ęėě": 192,
      "ĖęęĘ": 193,
      "ĀĀĕ": 194,
      "ĘęęĜ": 195,
      "ęęęĘę": 196,
      "ęĚĚęęęę": 197,
      "ęĚęęĘ": 198,
      "ĜęęĚ": 199,
      "ĀĞ": 200,
      "ěĚ": 201,
      "ęĚĜ": 202,
      "ęĘęęĚ": 203,
      "ęĘĘęęęę": 204,
      "ėĚ": 205,
      "ĀĀĝ": 206,
      "ęęĒ": 207,
      "ęęęĚę": 208,
      "ęĘęęĘ": 209,
      "ęĜĚ": 210,
      "ĀĔ": 211,
      "ęĘęęęęĚ": 212,
      "ęĘĖ": 213,
      "ĘęęĖ": 214,
      "ęĚęęĚ": 215,
      "ęĘĜ": 216,
      "ęĖĘ": 217,
      "ęĚĖ": 218,
      "ęĚęęęęĚ": 219,
      "ĀĀĔ": 220,
      "ęĚęęęęĘ": 221,
      "ęĖĚ": 222,
      "ęĘęęęęĘ": 223,
      "ęęęęęęęęęęę": 224,
      "ęĜĘ": 225,
      "ėĘ": 226,
      "ęĚĘęęęę": 227,
      "ęĘĚęęęę": 228,
      "ěĘ": 229,
      "ĀĀĞ": 230,
      "ěě": 231,
      "ęęęĕ": 232,
      "ęěĜ": 233,
      "ęĒ": 234,
      "Ėęęě": 235,
      "ĚęęĖ": 236,
      "Āē": 237,
      "ęęĘęęęĘ": 238,
      "ĚęęĜ": 239,
      "Ĝęęė": 240,
      "ęęęĝ": 241,
      "ęęęęĘĘ": 242,
      "ėě": 243,
      "ęėĖ": 244,
      "ĕęęęę": 245,
      "ęę!": 246,
      "Ėęęė": 247,
      "ėęęĜ": 248,
      "ĀĀğ": 249,
      "ęĜě": 250,
      "ęėĜ": 251,
      "ęęęęĘĚ": 252,
      "ęęđ": 253,
      "ęęęęĚĚ": 254,
      "ĀĀē": 255,
      "ęĖė": 256,
      "ęęęęĚĘ": 257,
      "ęěĖ": 258,
      "Ĝęęě": 259,
      "ěęęĖ": 260,
      "ėęęĖ": 261,
      "ĀĀęĀ": 262,
      "ĕęęĘ": 263,
      "ęęęĘęęĘ": 264,
      "ĕęęĚ": 265,
      "ėė": 266,
      "ĀĀĘĀ": 267,
      "ĜĚ": 268,
      "ĝęęęę": 269,
      "ęĜė": 270,
      "ěęęĜ": 271,
      "ĀĀĒ": 272,
      "ęĖě": 273,
      "ĖĚ": 274,
      "ĖĘ": 275,
      "ĝęęĘ": 276,
      "ęĜĜ": 277,
      "ęęęĘęęĚ": 278,
      "ĜĘ": 279,
      "ęĖęęęę": 280,
      "ęęęĚęęĘ": 281,
      "ę!": 282,
      "ęđ": 283,
      "ĀĀėĀ": 284,
      "ĚęęĘę": 285,
      "ęęęĚęęĚ": 286,
      "ĀĀ!": 287,
      "ęĕĚ": 288,
      "Ĝě": 289,
      "ĕĚ": 290,
      "ęĚĝ": 291,
      "ęěęęĘ": 292,
      "ęĚęęęęęę": 293,
      "ęĘęĚęęęę": 294,
      "ęęęęęęĘ": 295,
      "ęĘĕ": 296,
      "ĀĀĚĀ": 297,
      "ĀĀěĀ": 298,
      "ėĜ": 299,
      "ĝęęĚ": 300,
      "ĘęęĚę": 301,
      "ęĖĖ": 302,
      "ęĝĚ": 303,
      "ęĚęĘęęęę": 304,
      "ĀĀđ": 305,
      "ěĜ": 306,
      "ęĚęĘ": 307,
      "ĘĚ": 308,
      "ęęęęęęĚ": 309,
      "ęĘęĚ": 310,
      "ęę\"": 311,
      "ęĘĝ": 312,
      "ĚęęĚę": 313,
      "Ěęęęęę": 314,
      "ęĕĘ": 315,
      "ĖęęĜ": 316,
      "ęėęęĘ": 317,
      "ęĜęęęę": 318,
      "ĘęęĘę": 319,
      "ęĚĘęęęĘ": 320,
      "ęĘĚęęęĚ": 321,
      "ęĚĕ": 322,
      "Ėě": 323,
      "ĀĀĖĀ": 324,
      "ęęęĞ": 325,
      "ęęĘĘęęęę": 326,
      "ęėęęĚ": 327,
      "Ęęęĝ": 328,
      "ĚĚ": 329,
      "ĝęęė": 330,
      "ęęęęęęęęęęęęę": 331,
      "ęęĐ": 332,
      "ĕęęě": 333,
      "Ėė": 334,
      "ĝĚ": 335,
      "ęĝĘ": 336,
      "ĕĘ": 337,
      "ęęęĔ": 338,
      "ěė": 339,
      "ĀĀĐ": 340,
      "ęĘęęęęęę": 341,
      "ęĚĚęęęĚ": 342,
      "ęęęęęęęęęęęęęęęęęęęę": 343,
      "ĝě": 344,
      "ęĘĘęęęĘ": 345,
      "ĜĜ": 346,
      "ęęěęęęę": 347,
      "ĖęęĖ": 348,
      "ęěĝ": 349,
      "ęĘęĘęęęę": 350,
      "ĕęęė": 351,
      "ęęĚęęęęę": 352,
      "ĜęęĖ": 353,
      "ęĝě": 354,
      "ĘĘ": 355,
      "ęėĕ": 356,
      "ĀĀ\"": 357,
      "ęĚęĚ": 358,
      "ęęĚĚęęĚ": 359,
      "ęěęęĚ": 360,
      "Ėĝ": 361,
      "ęęėęęęę": 362,
      "ęĚęĚęęęę": 363,
      "ęĘęĘ": 364,
      "ęęĚĘęęĚ": 365,
      "ęęĘęęęęę": 366,
      "ęĜĖ": 367,
      "ęĕė": 368,
      "ę\"": 369,
      "ęęĚĚęęęę": 370,
      "ĕě": 371,
      "Ĝĝ": 372,
      "Ęęęĕ": 373,
      "Ęęęęęę": 374,
      "ĕė": 375,
      "ęĖĜ": 376,
      "ęęĘĚęęĘ": 377,
      "ěĞ": 378,
      "ęĝė": 379,
      "ĔęęĚ": 380,
      "ĀĀ$": 381,
      "ĀĀĕĀ": 382,
      "Ěęęĕ": 383,
      "ĀĀ#": 384,
      "ĀĀď": 385,
      "ęęęęęęęęęĘ": 386,
      "Ěęęĝ": 387,
      "ěęęęęĘ": 388,
      "ĔęęĘ": 389,
      "ęęĘĚęęęę": 390,
      "ęęĘĘęęĘ": 391,
      "ėęęĝ": 392,
      "Ěęęęęęę": 393,
      "ĖĜ": 394,
      "ěĝ": 395,
      "ęęĚĘęęęę": 396,
      "Ęęęęęęę": 397,
      "ĀĀĜĀ": 398,
      "ęėĝ": 399,
      "ęěęęęęĘ": 400,
      "ęĚĚĘęęĚ": 401,
      "ęėęęęęĚ": 402,
      "ĚĘ": 403,
      "ęĜĝ": 404,
      "ęĘėęęęę": 405,
      "Ĕęęęę": 406,
      "ėęęęęĘ": 407,
      "ęěĕ": 408,
      "ĚęęęĚ": 409,
      "ĞĞ": 410,
      "ęĕě": 411,
      "ęĚĘĚęęĘ": 412,
      "ėęęęęĚ": 413,
      "ĀĀĎ": 414,
      "ĔĘ": 415,
      "ėĝ": 416,
      "ėęęĕ": 417,
      "ęęęęęęęęęĚ": 418,
      "ęĝĜ": 419,
      "ęĘęęęęęęĚ": 420,
      "ėĖ": 421,
      "ĘĘęęęę": 422,
      "ĞęęĘ": 423,
      "ęĚęęęęęęĚ": 424,
      "ęĚęęęęęęĘ": 425,
      "ĀĀĔĀ": 426,
      "Ĕě": 427,
      "ęĖĕ": 428,
      "ęĕĖ": 429,
      "ęĘĘĚęęĘ": 430,
      "ĝĜ": 431,
      "ĔĚ": 432,
      "ęĚĞ": 433,
      "ĀĀ%": 434,
      "ęęėęęęĘ": 435,
      "ĝęęě": 436,
      "ęęęęęęęęęęęĚ": 437,
      "ĕĜ": 438,
      "ęęěęęęĚ": 439,
      "ĕęęĖ": 440,
      "ĚĚęęęę": 441,
      "ěęęęęĚ": 442,
      "ęęęęęęęęęęęĘ": 443,
      "ĀĀĘĀĘ": 444,
      "ĘęęęĘ": 445,
      "ęėęęęęĘ": 446,
      "ęęęē": 447,
      "ęĐ": 448,
      "ęę#": 449,
      "ęĘĚĚęęęę": 450,
      "ęĘĚĚęęĚ": 451,
      "ğĜ": 452,
      "ĀĀĘĀĚ": 453,
      "ĀĀĝĀ": 454,
      "ĀĀĞĀ": 455,
      "ĠĚ": 456,
      "ęĘęĚęęĚ": 457,
      "ęĘęęęęęęĘ": 458,
      "ęĘĚĘęęĚ": 459,
      "ęĚĘĘęęĘ": 460,
      "ęĘĘĚęęęę": 461,
      "ĕęęĜ": 462,
      "ěęęĝ": 463,
      "Ğęęęę": 464,
      "ęĚęęęęę": 465,
      "ĠĜ": 466,
      "ęĚęĘęęĚ": 467,
      "ęĚęĘęęĘ": 468,
      "Ėęęĝ": 469,
      "ęęęęęęęęęęęęęęę": 470,
      "ęęĚęęęĚę": 471,
      "Ġĝ": 472,
      "ęĚěęęęę": 473,
      "ĚęęęęęęĚ": 474,
      "ĖĖ": 475,
      "ĘęęĞ": 476,
      "ĞĚ": 477,
      "ěęęĕ": 478,
      "ęĚĔ": 479,
      "ęĚĚĘęęęę": 480,
      "Ĕęęė": 481,
      "ğĚ": 482,
      "ğĞ": 483,
      "ęĞĚ": 484,
      "ęĚĚĚęęęę": 485,
      "ěĖ": 486,
      "ęĜĕ": 487,
      "ęĜęęĘ": 488,
      "ęĞĘ": 489,
      "ęęęęęęęęęęęęęęęęęę": 490,
      "ĚĘęęęę": 491,
      "ĝĝ": 492,
      "ĞĜ": 493,
      "ęę$": 494,
      "ęęď": 495,
      "ęĘęĘęęĚ": 496,
      "ĀĀ&": 497,
      "ęěĚęęęę": 498,
      "ĀĀęĀĘ": 499,
      "ėęęĞ": 500,
      "ęěęęęęĚ": 501,
      "ęĘĔ": 502,
      "ęĘęĚęęĘ": 503,
      "ĀĀęĀė": 504,
      "ĘĚęęęę": 505,
      "ęěĞ": 506,
      "ĀĚĚ": 507,
      "ęĘęęęęę": 508,
      "ĀĀ'": 509,
      "Ĕęęě": 510,
      "ğĝ": 511,
      "ęęęęęęęęĚ": 512,
      "ęęęěę": 513,
      "ęęęğ": 514,
      "ĀĀĘĀė": 515,
      "ēė": 516,
      "ēĚ": 517,
      "Ėęęĕ": 518,
      "ęęěĘęęĚ": 519,
      "ĀĀğĀ": 520,
      "ĘęęęęęęĘ": 521,
      "ęĖęęĚ": 522,
      "ğĘ": 523,
      "ęĚęęė": 524,
      "ęĚęęě": 525,
      "ęĕęęęę": 526,
      "Ĕĝ": 527,
      "ęĘęęęĘ": 528,
      "ĀĚĘ": 529,
      "ĕĝ": 530,
      "ĞęęĚ": 531,
      "ęĘĞ": 532,
      "ęĝĖ": 533,
      "ęęęěęęĘ": 534,
      "ĀĀĘĀě": 535,
      "ęĚęĚęęĘ": 536,
      "ęěęĘ": 537,
      "ęęęėęęęę": 538,
      "ĀĀęĀě": 539,
      "ĀĀĚĀĘ": 540,
      "ĝĘ": 541,
      "ĘęęęęęęĚ": 542,
      "ĒĘ": 543,
      "ęĜęęĚ": 544,
      "ęęęėę": 545,
      "ēĘ": 546,
      "Ĝė": 547,
      "ęĕĜ": 548,
      "ęĘĘĘęęĘ": 549,
      "ęĘėęęęĘ": 550,
      "Ĕė": 551,
      "ĚĜ": 552,
      "ĠĘ": 553,
      "ęĘęĘęęĘ": 554,
      "ĚęęęęęęĘ": 555,
      "ęĔĘ": 556,
      "ęęęėęęĚ": 557,
      "ęęęěęęęę": 558,
      "ęęĘęęęęęęĘ": 559,
      "ĔĖ": 560,
      "ĠĞ": 561,
      "ęėęęě": 562,
      "ĀĀĘĀĖ": 563,
      "ęĘĘĘęęęę": 564,
      "ęęĚęęęęęęĚ": 565,
      "ęĚěęęęĚ": 566,
      "ĀĀėĀĘ": 567,
      "ęĚĚęęęęę": 568,
      "ĕĕ": 569,
      "ę#": 570,
      "ĚĚęęĚ": 571,
      "Ġğ": 572,
      "ėęęęĘ": 573,
      "ęėĔ": 574,
      "ęęęęęęęęĘ": 575,
      "ęĝęęęę": 576,
      "ĖĞ": 577,
      "Ġě": 578,
      "ęęĎ": 579,
      "ęĖęęĘ": 580,
      "ğě": 581,
      "ęĔĚ": 582,
      "ęėĘęęęę": 583,
      "ęęěĚęęĚ": 584,
      "ĀĀęĀĚ": 585,
      "Ĝęęĕ": 586,
      "Ġė": 587,
      "ęěęęė": 588,
      "ęĚĘĘęęęę": 589,
      "ĀĀėĀě": 590,
      "ęĚęęęęęęęęęęęę": 591,
      "ęĘěęęęę": 592,
      "ęĖĔ": 593,
      "ęĖĝ": 594,
      "ęęĘęęęęęęĚ": 595,
      "ęĚěĘęęĚ": 596,
      "ęĘěęęęĚ": 597,
      "ĘęęęęĘĘ": 598,
      "ĜęęĜ": 599,
      "Ğęęė": 600,
      "ęĚĚĚęęĚ": 601,
      "ēęęĘ": 602,
      "ĖęęĞ": 603,
      "ěĘęęĚ": 604,
      "ęĚęęęĚ": 605,
      "ęěĘęęęę": 606,
      "ęėĞ": 607,
      "ęęęėęęĘ": 608,
      "ęęĘęęęęęę": 609,
      "ĒĚ": 610,
      "ēęęĚ": 611,
      "ęĀĀ": 612,
      "ęęĚęęęęęęĘ": 613,
      "Ēė": 614,
      "ĕęęĕ": 615,
      "ęěĔ": 616,
      "ęęėĚęęĘ": 617,
      "ęĘĚĘęęęę": 618,
      "ĀĀėĀė": 619,
      "ęĘĘęęęęę": 620,
      "ęĘĚęęęęę": 621,
      "ėĘęęĘ": 622,
      "ĀĀĚĀė": 623,
      "ĀĀēĀ": 624,
      "ĕĖ": 625,
      "ęĞĜ": 626,
      "ĀĀĚĀě": 627,
      "ĀĀĚĀĖ": 628,
      "ēęęęę": 629,
      "ĕęęĝ": 630,
      "ęėĚęęęę": 631,
      "ĀĀęĀĕ": 632,
      "ĀĀĚĀĚ": 633,
      "ěğ": 634,
      "ěĚęęęę": 635,
      "ěęęęĚ": 636,
      "ęĝĝ": 637,
      "ęęęęęęęęęęęęęęęęęęęęęęęę": 638,
      "ęĘĘěęęĘ": 639,
      "ėęęĚę": 640,
      "ėĘęęęę": 641,
      "ĜĞ": 642,
      "ęĚęĚęęĚ": 643,
      "ęęęěęęĚ": 644,
      "ęęęęęęęęęęęęęęęęęęę": 645,
      "ĘęęęęĘĚ": 646,
      "ĖęęęęĘ": 647,
      "Ěĝ": 648,
      "ğęęĘ": 649,
      "ĠĀ": 650,
      "ęĚęęęęęęęę": 651,
      "ęĚėęęęę": 652,
      "ęęėĘęęĘ": 653,
      "ęĘęęė": 654,
      "ęĘęěęęęę": 655,
      "ĀĀ(": 656,
      "ĀĀėĀĚ": 657,
      "ĕĞ": 658,
      "ĀĀĖĀĚ": 659,
      "ęĘęęęęě": 660,
      "ęĝĞ": 661,
      "ĀĀęĀĜ": 662,
      "ęěĘęęęĘ": 663,
      "ĘęęęęĚĘ": 664,
      "ĀĀĒĀ": 665,
      "đĚ": 666,
      "ēĝ": 667,
      "ĔęęĖ": 668,
      "ęĘęęęęęęęę": 669,
      "ęęĚęęĘ": 670,
      "ęěęęě": 671,
      "ęęęĘęęė": 672,
      "ęĔė": 673,
      "ĖęęęęĚ": 674,
      "ęĜĞ": 675,
      "ęğĚ": 676,
      "ĚęęęęĘĘ": 677,
      "ğğ": 678,
      "ęĘęęě": 679,
      "ęĘĘęęęĚ": 680,
      "ęĞė": 681,
      "ęĔĖ": 682,
      "ęĘėĚęęĘ": 683,
      "ĚęęęęĘĚ": 684,
      "ēĖ": 685,
      "Ğĝ": 686,
      "ğė": 687,
      "ęĘęęęęęęęęęęęę": 688,
      "ęęĚęęęĘ": 689,
      "ĀĀĚĀĜ": 690,
      "ĒĖ": 691,
      "ĔĜ": 692,
      "ĘęęĔ": 693,
      "ěĕ": 694,
      "ęęĚęęęęęę": 695,
      "ĀĀęĀĖ": 696,
      "ěęęĚę": 697,
      "ęėĚęęęĚ": 698,
      "ĚęęęęĚĘ": 699,
      "ěĘęęęę": 700,
      "ęĚĚęęęě": 701,
      "ĀĀěĀė": 702,
      "ēě": 703,
      "ēęęė": 704,
      "ĔĞ": 705,
      "ĜęęęęĚ": 706,
      "ęę%": 707,
      "ęĚğ": 708,
      "ęęĘęęęĚ": 709,
      "ęĘĘęęęė": 710,
      "ęĚėęęęĘ": 711,
      "ęĚęė": 712,
      "ęĚĚęęĚ": 713,
      "ęĚėĚęęĘ": 714,
      "đė": 715,
      "Ēĕ": 716,
      "ēĜ": 717,
      "ęėĚĚęęĚ": 718,
      "ĀĀěĀĘ": 719,
      "Ęĝ": 720,
      "ęď": 721,
      "ęĚĘęęĚ": 722,
      "ęĚĘĚęęęę": 723,
      "ĀĀĘĀĕ": 724,
      "ęěĚęęęĚ": 725,
      "ĀĀđĀ": 726,
      "ėĕ": 727,
      "ėĞ": 728,
      "Ěě": 729,
      "Ġęęęę": 730,
      "ęęęęęęęęęęĚ": 731,
      "ęĚĚęęęĘ": 732,
      "ęěĘĘęęĘ": 733,
      "ĀĀĖĀė": 734,
      "ėĚęęĘ": 735,
      "ğęęęę": 736,
      "ĀĀ)": 737,
      "ęĜĔ": 738,
      "ęĕĕ": 739,
      "ęĚĚėęęĚ": 740,
      "ęęęĒ": 741,
      "ęĞĝ": 742,
      "ęĔĜ": 743,
      "ĀĀěĀě": 744,
      "ĀĀěĀĖ": 745,
      "ĞĘ": 746,
      "ęęėę": 747,
      "ęĞě": 748,
      "ĀĀĐĀ": 749,
      "!ĝ": 750,
      "ęęĚęęęě": 751,
      "ęęĚĘęęě": 752,
      "ęęĘęęęė": 753,
      "ęęęĘęęě": 754,
      "ęĚĚĘęęĘ": 755,
      "ęĚĘęęęęę": 756,
      "!ğ": 757,
      "ęĝĕ": 758,
      "ęĞĖ": 759,
      "ęĚěĚęęĚ": 760,
      "ęėĘĚęęęę": 761,
      "ĜęęęęĘ": 762,
      "ęĚęėęęęę": 763,
      "ęęĘęęĘ": 764,
      "ĀĀ*": 765,
      "ęĕĝ": 766,
      "ėęęĘę": 767,
      "ęĚėĘęęĘ": 768,
      "ĀĀėĀĖ": 769,
      "ĀĀĖĀĘ": 770,
      "ĀĀ!Ā": 771,
      "!ě": 772,
      "ĔęęĜ": 773,
      "ĘĜ": 774,
      "ęĘęĚęęęęĘ": 775,
      "ęęĚėęęĚ": 776,
      "ęěęĘęęęę": 777,
      "ęėęĚęęĚ": 778,
      "ęęęęęęęęęęęęĘ": 779,
      "ĀĀĘĀĜ": 780,
      "Ěęęėę": 781,
      "ęĘėĘęęĘ": 782,
      "ęĘěĘęęĚ": 783,
      "ęėĘęęęĘ": 784,
      "ĘĞ": 785,
      "ĝęęĖ": 786,
      "ęĚęĘęęęęĚ": 787,
      "ęĚęėęęĘ": 788,
      "ęĘęĚęęęęĚ": 789,
      "ęěğ": 790,
      "ęėėęęęę": 791,
      "ęęęęęęęęęęęęĚ": 792,
      "Ěęęěę": 793,
      "ĀĀėĀĕ": 794,
      "!Ě": 795,
      "Ēě": 796,
      "ęėęĚęęęę": 797,
      "ęĚĘęęęė": 798,
      "ęğĜ": 799,
      "ĀĀĕĀĚ": 800,
      "ēęęě": 801,
      "ę$": 802,
      "ĠĖ": 803,
      "ęĘĚęęĘ": 804,
      "ęėęęė": 805,
      "ęĘĚęęęě": 806,
      "ęĔě": 807,
      "ęěĚĘęęęę": 808,
      "ĀĀėĀĜ": 809,
      "!Ĝ": 810,
      "!Ğ": 811,
      "Ĕęęĝ": 812,
      "ĜĖ": 813,
      "ęĚęĘęęęęĘ": 814,
      "ęĘğ": 815,
      "ęęĘěęęĘ": 816,
      "ęěęĚęęĘ": 817,
      "ęęėęęęė": 818,
      "ęęęĚęęě": 819,
      "ęęęĚęęęęĘ": 820,
      "ęęęĘęęęęĘ": 821,
      "ĀĀĖĀě": 822,
      "ĀĀ\"Ā": 823,
      "ĒĜ": 824,
      "ėęęĔ": 825,
      "ĚęęĔ": 826,
      "ęĘē": 827,
      "ęěęĘęęĘ": 828,
      "ęęĜęęęę": 829,
      "ęęĚęęęĚęęęę": 830,
      "ęĚęęęęĚę": 831,
      "Ēĝ": 832,
      "ĕĔ": 833,
      "ĕğ": 834,
      "ęĘĘęęĘ": 835,
      "ęěěęęęę": 836,
      "ęęęĚęęė": 837,
      "ęĘěĚęęĚ": 838,
      "ĀĀĖĀĖ": 839,
      "ęėėęęęĘ": 840,
      "ĀĝĚ": 841,
      "ĚęęęęĚĚ": 842,
      "đĘ": 843,
      "ĠĀĀ": 844,
      "ęĘęě": 845,
      "ęĚĚėęęęę": 846,
      "ęėĘĚęęĘ": 847,
      "ĝęęĜ": 848,
      "Ġĕ": 849,
      "ęĚĘęęęĘę": 850,
      "ĘęęęęĚĚ": 851,
      "ęĘęęęęĚę": 852,
      "đĖ": 853,
      "ěĚęęĚ": 854,
      "ěęęĔ": 855,
      "ĠęęĘ": 856,
      "ęĚęęĜ": 857,
      "ęėęĘęęęę": 858,
      "ęĖĞ": 859,
      "ęĚęęęęě": 860,
      "ęĞęęęę": 861,
      "ęěĚĘęęĚ": 862,
      "Ęęęėę": 863,
      "ĀĀĚĀĕ": 864,
      "ęęęęęęęęęęęęęęęęęęęęęęęęęęęęęęęę": 865,
      "ĀĀĔĀĘ": 866,
      "ēęęĜ": 867,
      "ęėē": 868,
      "ęęęęęęęęęęĘ": 869,
      "ęęěęęĘ": 870,
      "ęęěęęęě": 871,
      "ęĚęęęęė": 872,
      "ęĝęęĘ": 873,
      "ęĚĘėęęĘ": 874,
      "ęĘĚěęęĚ": 875,
      "ęĔĕ": 876,
      "ęğĘ": 877,
      "ĀĀĜĀė": 878,
      "ĀĀĕĀĖ": 879,
      "ĀĀ$Ā": 880,
      "ĠęęĚ": 881,
      "ęĘęėęęęę": 882,
      "ęęęĚęęęęĚ": 883,
      "ęĖęęė": 884,
      "ęĘĘęęęĘę": 885,
      "ĀĀěĀĚ": 886,
      "ęęęĘęęęęę": 887,
      "ĀĀĕĀĘ": 888,
      "Ğě": 889,
      "ęĘęěęęĘ": 890,
      "Ęęęęęė": 891,
      "ęĜęęęęĘ": 892,
      "ęĚĚĘęęě": 893,
      "ęĚĘęęęĚ": 894,
      "ęĘĚęęęĚę": 895,
      "ĀĀėĀĝ": 896,
      "ĀĀĖĀĜ": 897,
      "ĀĀĜĀĘ": 898,
      "ĀĀĜĀě": 899,
      "ęęęęęęęęęęęęęęęęęęęęęę": 900,
      "ĘĘęęĘ": 901,
      "ğęęĚ": 902,
      "ęęęęęęęęĚęęęę": 903,
      "ęęěę": 904,
      "ęęĖęęęę": 905,
      "ęĚėęęęė": 906,
      "ęėĚĘęęĚ": 907,
      "ęęęĘęęęęęęĚ": 908,
      "ęęęĘęęęęęęĘ": 909,
      "ĀĀĝĀĘ": 910,
      "Ēē": 911,
      "Ęě": 912,
      "ęĚē": 913,
      "ęěęĘęęĚ": 914,
      "ęĘĚėęęĚ": 915,
      "ęęę!": 916,
      "ĀĀĘĀĝ": 917,
      "ęęęĚęęęęę": 918,
      "ęĚęęęęĘę": 919,
      "đĕ": 920,
      "Ėĕ": 921,
      "ėěęęĘ": 922,
      "ėęęğ": 923,
      "ěĔ": 924,
      "ęĚęęĘę": 925,
      "ęėęĚęęĘ": 926,
      "ęĘĘĘęęĚ": 927,
      "ęĘĘěęęęę": 928,
      "ęĘĘĚęęė": 929,
      "ęĚĘĚęęė": 930,
      "ęęęđ": 931,
      "ĀĀĘĀĔ": 932,
      "ĀĀęĀĔ": 933,
      "ęĚěęęęě": 934,
      "ęěĚęęęĘ": 935,
      "ęěĘĚęęĘ": 936,
      "ęğě": 937,
      "ĀĀĜĀĚ": 938,
      "ęĘęęęęĘę": 939,
      "\"Ě": 940,
      "ėĚęęęę": 941,
      "Ęęę": 942,
      "ĘĚęęĘ": 943,
      "ęĚęęĚę": 944,
      "ĀĀ+": 945,
      "ęĜğ": 946,
      "ęĖęęęęĚ": 947,
      "ęĚĚęęęĚę": 948,
      "ęęĘęęęęęęĚęęęę": 949,
      "ĀĀ#Ā": 950,
      "ĖęęęĘ": 951,
      "ėęęęęĘĘ": 952,
      "Ġ!": 953,
      "ęęĚĚęęĘ": 954,
      "ęęęĘęęęęĚ": 955,
      "ęĜęęė": 956,
      "ęĘęęęęęęęĚ": 957,
      "ęĘĚęęęĘ": 958,
      "ěęęĘę": 959,
      "ĀĞĚ": 960,
      "ĒęęĚ": 961,
      "Ĕęęĕ": 962,
      "ėęęęęĚĚ": 963,
      "ğęęė": 964,
      "ęĚęęęĚę": 965,
      "ęĘęęĘę": 966,
      "ęęĘėęęĘ": 967,
      "ęęĘęęęĘę": 968,
      "ęĜęęęęĚ": 969,
      "ęĖęęęęĘ": 970,
      "ęęĜęęęĚ": 971,
      "ęĘęęęęė": 972,
      "ęĘęęęęęęě": 973,
      "ęĕĞ": 974,
      "ęęęęęęęęęęęęęĚęęęę": 975,
      "ĀĀĜĀĖ": 976,
      "Ğęęě": 977,
      "Ġęęė": 978,
      "ęĘęęĚę": 979,
      "ęĘęęęęęęęęęęę": 980,
      "ęęĚėęęęę": 981,
      "ęĖęęě": 982,
      "ęęęĖęęęę": 983,
      "ęęęĚęęęęęęĘ": 984,
      "ĀĀĕĀě": 985,
      "ĀĀďĀ": 986,
      "ĐĚ": 987,
      "ĒęęĘ": 988,
      "ēĞ": 989,
      "ĖęęĔ": 990,
      "ėęę": 991,
      "ěęęĞ": 992,
      "ğĖ": 993,
      "ęĚęęĖ": 994,
      "ęĚęėęęĚ": 995,
      "ęęĚęęĚ": 996,
      "ęęĘĚęęė": 997,
      "ęęėěęęĘ": 998,
      "ĀĀęĀĝ": 999,
      "ĀĀĝĀě": 1000,
      "ēĔ": 1001,
      "ęĎ": 1002,
      "Ĝĕ": 1003,
      "Ĝęęĝ": 1004,
      "ĝĖ": 1005,
      "ęĘęėęęĚ": 1006,
      "ęęĘĘęęĚ": 1007,
      "ęęėĚęęė": 1008,
      "ęęĘęęęęęęĘęęęę": 1009,
      "ęĚĜęęęĚ": 1010,
      "ĀĀĔĀĚ": 1011,
      "\"Ğ": 1012,
      "Ěęęęęęęęę": 1013,
      "ĚęęĞ": 1014,
      "ěěęęĚ": 1015,
      "ęĚęĚęęęęĚ": 1016,
      "ęĘęęĜ": 1017,
      "ęĘęĘęęęęĘ": 1018,
      "ęęĚěęęęę": 1019,
      "ęęěĘęęě": 1020,
      "ęĖğ": 1021,
      "ęĘęęęęęęĚęęęę": 1022,
      "ęĕęęĚ": 1023,
      "ėęęęęė": 1024,
      "ęęęęęęęęęęęęęĚ": 1025,
      "ĀĀěĀĜ": 1026,
      "ęēĘ": 1027,
      "ęęęĚęęęęęęĚ": 1028,
      "ĒĒ": 1029,
      "ėęęęęĚĘ": 1030,
      "ěěęęęę": 1031,
      "ĀĀ-": 1032,
      "ęęęęęęęęĘęęęę": 1033,
      "ęĘęęęęęęęĘ": 1034,
      "ęĝĔ": 1035,
      "ęĝęęĚ": 1036,
      "ęĚĘěęęĘ": 1037,
      "ĀĀĚĀĝ": 1038,
      "ęěĘĘęęęę": 1039,
      "ęėĚĚęęęę": 1040,
      "ęěěęęęĚ": 1041,
      "đĜ": 1042,
      "Ēęęęę": 1043,
      "ĕęę": 1044,
      "ĜęęęĚ": 1045,
      "Ġęęě": 1046,
      "ęęĘěęęęę": 1047,
      "ĀĀ,": 1048,
      "ęęĖęęęĘ": 1049,
      "ęĘĚĘęęě": 1050,
      "ęĘĚĚęęě": 1051,
      "ęĘėěęęĘ": 1052,
      "ĀĀĚĀĔ": 1053,
      "ęęęĜęęęę": 1054,
      "ĀĀĖĀĕ": 1055,
      "ĀĀĝĀė": 1056,
      "ęĘęĚęęě": 1057,
      "ęęęęęęęęęęęęęęęęęęęęęęęęę": 1058,
      "\"ĝ": 1059,
      "Đė": 1060,
      "ĐĘ": 1061,
      "ĒĔ": 1062,
      "ėęęęęĘĚ": 1063,
      "Ęęęęęęęęęęęę": 1064,
      "ĚĞ": 1065,
      "ĚĘęęĚ": 1066,
      "ğęęě": 1067,
      "ęĚęĚęęęęĘ": 1068,
      "ęĚęęęęęęęęęęęęę": 1069,
      "ęĘęęęęęęęęęęęęę": 1070,
      "ęęĚěęęĚ": 1071,
      "ęęĘĘęęė": 1072,
      "ęĕĔ": 1073,
      "ęĚĚĚęęĘ": 1074,
      "ęĚĘėęęęę": 1075,
      "ęĘĚěęęęę": 1076,
      "ĀĀĘĀē": 1077,
      "ęĘėęęęė": 1078,
      "ęĘėĚęęė": 1079,
      "ęėĘĚęęĚ": 1080,
      "ĀĀěĀĕ": 1081,
      "ĀĀěĀĝ": 1082,
      "ĀĀĞĀĘ": 1083,
      "!Ę": 1084,
      "ēğ": 1085,
      "Ėęęğ": 1086,
      "ėėęęĘ": 1087,
      "ěęęęęĘĚ": 1088,
      "ĜĘęęĚ": 1089,
      "Ġ#": 1090,
      "ęėğ": 1091,
      "ęĔĝ": 1092,
      "ĀĀĚĀē": 1093,
      "ęěĘęęęė": 1094,
      "ęęęĜęęĘ": 1095,
      "ęěěĘęęĚ": 1096,
      "ęěėĘęęĘ": 1097,
      "ĀĀĝĀĖ": 1098,
      "đęęė": 1099,
      "ĒĞ": 1100,
      "ĕęęęęĚ": 1101,
      "ėęęęė": 1102,
      "Ġ\"": 1103,
      "ęĚęě": 1104,
      "ęęĘėęęęę": 1105,
      "ęėęě": 1106,
      "ęėęěęęĘ": 1107,
      "ęęěĚęęęę": 1108,
      "ęĜē": 1109,
      "ęĜĚęęęę": 1110,
      "ęĚĚěęęęę": 1111,
      "ęĚĚĘęęęęĘ": 1112,
      "ęĚĘĘęęė": 1113,
      "ęĔęęęę": 1114,
      "ĀĀĘĀĞ": 1115,
      "ęĘěĘęęě": 1116,
      "ęěĘėęęĘ": 1117,
      "ĀĀėĀĞ": 1118,
      "ęğĝ": 1119,
      "ĀĀěĀĔ": 1120,
      "ęęęĖęęĚ": 1121,
      "ęēĚ": 1122,
      "ĀĀĜĀĕ": 1123,
      "ĀĀēĀĘ": 1124,
      "đĔ": 1125,
      "ĒĐ": 1126,
      "Ēęęě": 1127,
      "ěėęęĚ": 1128,
      "ěęęęęĚĘ": 1129,
      "ęĘęĘęęęęĚ": 1130,
      "ęęėĘęęęę": 1131,
      "ęĚęęęęęęęĚ": 1132,
      "ęĕęęĘ": 1133,
      "ęĘĘĘęęė": 1134,
      "ęěĚėęęĚ": 1135,
      "ęĘěęęęě": 1136,
      "ĀĜĚ": 1137,
      "ĀĀĝĀĚ": 1138,
      "!ĀĀ": 1139,
      "\"Ĝ": 1140,
      "đğ": 1141,
      "ēĕ": 1142,
      "ēęęĖ": 1143,
      "ĖĘęęĘ": 1144,
      "ĖęęĚę": 1145,
      "Ęęęğ": 1146,
      "ęĘęė": 1147,
      "ęěĒ": 1148,
      "ęěęĚęęęę": 1149,
      "ęěĘęęĚ": 1150,
      "ęėęĘęęĚ": 1151,
      "ęęėęęĚ": 1152,
      "ęęėĚęęęę": 1153,
      "ęęěėęęĚ": 1154,
      "ęĖĘęęęę": 1155,
      "ęĝğ": 1156,
      "ęĘĘĚęęĚ": 1157,
      "ęĚěĘęęęę": 1158,
      "ęėĘęęęĚ": 1159,
      "ĀĀěĀē": 1160,
      "ęĘĖęęęĘ": 1161,
      "ĀĀĔĀě": 1162,
      "ėĔ": 1163,
      "ėğ": 1164,
      "ĝęęĕ": 1165,
      "ęĚęěęęęę": 1166,
      "ęėęěęęĚ": 1167,
      "ęĖē": 1168,
      "ęĚĚĚęęě": 1169,
      "ęęĚęęęęęęĚęęęę": 1170,
      "ęĚěĘęęě": 1171,
      "ęěĚĚęęĚ": 1172,
      "ęěĚėęęęę": 1173,
      "ęĘěěęęĚ": 1174,
      "ęėĘĘęęĘ": 1175,
      "ęěėęęęĘ": 1176,
      "ęėěęęęĚ": 1177,
      "ėĚęęĖ": 1178,
      "ęĘęĚęęė": 1179,
      "ęĘęĘęęě": 1180,
      "ĀĀ'Ā": 1181,
      "Ēđ": 1182,
      "ĘęęęĚ": 1183,
      "Ěęęęęęęęęęęę": 1184,
      "ěęęęęĘĘ": 1185,
      "ěęęęęĚĚ": 1186,
      "ĜęęĔ": 1187,
      "ĜęęĚę": 1188,
      "ĝĞ": 1189,
      "Ġę": 1190,
      "ęĘęęĖ": 1191,
      "ęĘęěęęĚ": 1192,
      "ęėĚęęĘ": 1193,
      "Ěęęęęė": 1194,
      "ęĜęęě": 1195,
      "ęĚĘĘęęĚ": 1196,
      "ęĞĕ": 1197,
      "ęĞğ": 1198,
      "ęĘěĚęęě": 1199,
      "ęěěĚęęĚ": 1200,
      "ĀĀĝĀĕ": 1201,
      "ęĘĖĚęęĘ": 1202,
      "ĀĀĔĀė": 1203,
      "ĀĀĞĀė": 1204,
      "ĀĀ!ĀĘ": 1205,
      "ĀĀ%Ā": 1206,
      "ĕęęĞ": 1207,
      "ĖĔ": 1208,
      "ėėęęęę": 1209,
      "ėęęē": 1210,
      "ęěęė": 1211,
      "ęěęęęĚ": 1212,
      "ęěęėęęęę": 1213,
      "ęěęėęęĘ": 1214,
      "ęęėĘęęė": 1215,
      "ęĜęĘęęĘ": 1216,
      "ęĘĘėęęĘ": 1217,
      "ęĚĘĚęęĚ": 1218,
      "ęĚĘĘęęęęĚ": 1219,
      "ęęęęęęęęęęęęęĘęęęę": 1220,
      "ęĞĞ": 1221,
      "ĀĀęĀē": 1222,
      "ęĚěėęęĚ": 1223,
      "ęěĚĚęęęę": 1224,
      "ęěĚĘęęě": 1225,
      "ęěęęęęě": 1226,
      "ęęęĚęęęęęę": 1227,
      "ęĚĖęęęĘ": 1228,
      "Ēęęė": 1229,
      "Ęęęęęęęęę": 1230,
      "ĝęęĝ": 1231,
      "ğĀĀ": 1232,
      "ĠęęĜ": 1233,
      "ęęęęę": 1234,
      "ęĘĒ": 1235,
      "ęĘęęęĘę": 1236,
      "ęęĚĘęęĘ": 1237,
      "ęėěęęęę": 1238,
      "ęęęęęęęęĚĚ": 1239,
      "ęęĖĘęęĘ": 1240,
      "ęĘęęęęęęĘęęęę": 1241,
      "ęĕğ": 1242,
      "ęęęęĘęĚęęęę": 1243,
      "ęĘĚĘęęĘ": 1244,
      "ęĞĔ": 1245,
      "ęĔĞ": 1246,
      "ĀĀĚĀĞ": 1247,
      "ęěĘĘęęė": 1248,
      "ęĚėĘęęęę": 1249,
      "ęĚėĚęęė": 1250,
      "ĀĀėĀē": 1251,
      "ęğė": 1252,
      "ĀĀĖĀĝ": 1253,
      "ęęęĘęęęęęę": 1254,
      "ęęĚęęęĚęęĘ": 1255,
      "ęěěęęęě": 1256,
      "ęĘĜęęęě": 1257,
      "ĀĀĞĀĖ": 1258,
      "ęęęęĚĘĘęęęę": 1259,
      "ĕĚęęĕ": 1260,
      "Đĕ": 1261,
      "ēęęĕ": 1262,
      "ĝė": 1263,
      "ęĘĖęęęę": 1264,
      "ęėĘęęĘ": 1265,
      "ęėęĘęęĘ": 1266,
      "ęęęęęęęęĘĚ": 1267,
      "ęęėęęĘ": 1268,
      "ęęęĘęęĚę": 1269,
      "ęěĚęęęě": 1270,
      "ĀĀĕĀė": 1271,
      "ęĚĜĘęęĚ": 1272,
      "ĀĀēĀė": 1273,
      "ęĚęĚęęė": 1274,
      "!\"": 1275,
      "\"ğ": 1276,
      "ĐĞ": 1277,
      "ę&": 1278,
      "ęĚĜęęęę": 1279,
      "ęĚęĖęęęę": 1280,
      "ęěē": 1281,
      "ęęęęęęęęĘĘ": 1282,
      "ęęęĘęęęęęęęę": 1283,
      "ęęęĘęęĘę": 1284,
      "ęęĜęęęě": 1285,
      "ęęęęĘė": 1286,
      "ęĚĚĘęęĚę": 1287,
      "ęĚėĘęęė": 1288,
      "ĀĀĖĀĞ": 1289,
      "ęėėĚęęĘ": 1290,
      "ęēě": 1291,
      "ĀĀĜĀĝ": 1292,
      "ęėěĚęęě": 1293,
      "ěĚęęĜ": 1294,
      "ęĘĖęęęė": 1295,
      "ęĖĚęęęĚ": 1296,
      "ęĜĘĘęęĘ": 1297,
      "ĀĀĞĀĚ": 1298,
      "ĀĀĞĀě": 1299,
      "ĀĀĞĀĜ": 1300,
      "ęĒĘ": 1301,
      "\"!": 1302,
      "Ėğ": 1303,
      "Ęęęē": 1304,
      "Ěĕ": 1305,
      "ěĀĀ": 1306,
      "ĠĔ": 1307,
      "ęĚęěęęĘ": 1308,
      "ęęěėęęě": 1309,
      "Ěęęęęě": 1310,
      "ęĜęĘęęęę": 1311,
      "ęĖĚęęęę": 1312,
      "ęĚęęęęęęĚęęęę": 1313,
      "ęęęĐ": 1314,
      "ęĘėěęęė": 1315,
      "ĀĀėĀĔ": 1316,
      "ęěěėęęĚ": 1317,
      "ęėęęęęě": 1318,
      "ęėěĚęęĚ": 1319,
      "ĀĀĕĀĜ": 1320,
      "ĀĀĕĀĕ": 1321,
      "ĀĀĔĀĜ": 1322,
      "ĀĀēĀĚ": 1323,
      "ĒęęĖ": 1324,
      "ēđ": 1325,
      "Ĕęę": 1326,
      "ĖĚęęĘ": 1327,
      "ěęęē": 1328,
      "ĞęęĜ": 1329,
      "ĠĀĘ": 1330,
      "ęęĚĖęęĚ": 1331,
      "ęęĘĚęęĚ": 1332,
      "ęěėęęęę": 1333,
      "ęęėėęęĘ": 1334,
      "ęęěĘęęęę": 1335,
      "ęęĖęęęė": 1336,
      "ęĚęęęęęęė": 1337,
      "ęĚĚĘęęęęĚ": 1338,
      "ęĚĘěęęęę": 1339,
      "ĀĀęĀĞ": 1340,
      "ęĘėĚęęęę": 1341,
      "ęěĚĚęęĘ": 1342,
      "ęěĚĘęęĘ": 1343,
      "ęěĘėęęęę": 1344,
      "ęĚėėęęĘ": 1345,
      "ęėĚęęęě": 1346,
      "ęėėĘęęęę": 1347,
      "ęėėęęęė": 1348,
      "ęėęęęęęęĚ": 1349,
      "ĀĀĜĀĞ": 1350,
      "ęěėĚęęĘ": 1351,
      "ėęęėę": 1352,
      "ĀĀĕĀĝ": 1353,
      "ęĜĘęęęĘ": 1354,
      "ĀĀğĀĖ": 1355,
      "ĀĀĎĀ": 1356,
      "ęęęęęęęęęĚę": 1357,
      "ĕęęĔ": 1358,
      "ėę": 1359,
      "ėĘęęė": 1360,
      "Ěęę": 1361,
      "Ěęęğ": 1362,
      "ĜĚęęĚ": 1363,
      "ĝęęęęĘ": 1364,
      "ĝęęęęĚ": 1365,
      "ĞęęĖ": 1366,
      "ğęęĖ": 1367,
      "ęĚęęęęęęęęęęę": 1368,
      "ęęĚĚęęě": 1369,
      "ęęĘĘęęĘę": 1370,
      "ĀĀ.": 1371,
      "ĀĀ/": 1372,
      "ęėęęęĘ": 1373,
      "ĚęęęęęęĘęęęę": 1374,
      "ęęĜĘęęĚ": 1375,
      "ęęĜĚęęĚ": 1376,
      "ęęę\"": 1377,
      "ěęęęęė": 1378,
      "ĀěĘ": 1379,
      "ęĚėěęęĘ": 1380,
      "ęėĚęęęĘ": 1381,
      "ęęęĜę": 1382,
      "ęėėĘęęĘ": 1383,
      "ęėėěęęĘ": 1384,
      "ęęĚęęęĚęęĚ": 1385,
      "ęěęęęęęę": 1386,
      "ęěęęęęęęĘ": 1387,
      "ěęęěę": 1388,
      "ęėěĘęęĚ": 1389,
      "ęĖĘęęęĘ": 1390,
      "ęĖĚĚęęĚ": 1391,
      "ęěĜęęęĚ": 1392,
      "ęĚęĘęęě": 1393,
      "ęęęęęęęęęĘę": 1394,
      "ĀĀ&Ā": 1395,
      "\"Ę": 1396,
      "ďĚ": 1397,
      "đęęĚ": 1398,
      "Ēę": 1399,
      "ēę": 1400,
      "Ėęę": 1401,
      "Ęęęęęęęęęęęęę": 1402,
      "ĜěęęĚ": 1403,
      "ęęěĚęęě": 1404,
      "ęęęėęęě": 1405,
      "Ęęęěę": 1406,
      "ĀěĚ": 1407,
      "ĖĚęęĕ": 1408,
      "ĀĀ(Ā": 1409,
      "!!": 1410,
      "\"ě": 1411,
      "\"ĀĀ": 1412,
      "ĐĖ": 1413,
      "đē": 1414,
      "Ėę": 1415,
      "Ęėęęęę": 1416,
      "ĘęęĒ": 1417,
      "ĚęęęĚę": 1418,
      "ěęęęě": 1419,
      "ěĘęęě": 1420,
      "ĜĀĀ": 1421,
      "ĜęęĘę": 1422,
      "ęĚĖęęęę": 1423,
      "ęĘęĜ": 1424,
      "ęĘęėęęĘ": 1425,
      "ęęĚĘęęĚę": 1426,
      "ęęĘęęĚ": 1427,
      "ęėęęĜ": 1428,
      "ĚęęęęęęĚęęęę": 1429,
      "ęĜĘęęęę": 1430,
      "ęĘęęęęęęė": 1431,
      "ęĚęęęęęęęĘ": 1432,
      "ęĚęęęęęęĘęęęę": 1433,
      "ęęęęĘĘęęęę": 1434,
      "ęĚĚęęęĜ": 1435,
      "ęĚĚĖęęĚ": 1436,
      "ęĘĚėęęęę": 1437,
      "ęĘĚĜęęĚ": 1438,
      "ęęęęęęęęęęęęęĘ": 1439,
      "ęĔĔ": 1440,
      "ęĔğ": 1441,
      "ęĘěėęęĚ": 1442,
      "ęėĚĘęęęę": 1443,
      "ęğęęęę": 1444,
      "ęęęęęęęęęęęęęęęęęęęęęęęęęęę": 1445,
      "ĚęęęęĘĘęęęę": 1446,
      "ĀĀĜĀĜ": 1447,
      "ĀĀĜĀĔ": 1448,
      "ĀĀĜĀē": 1449,
      "ěĚĘęęĚ": 1450,
      "ęęęęĘĘĚęęęę": 1451,
      "ĀĀğĀĚ": 1452,
      "ęęęęĘĚĚęęęę": 1453,
      "ĀĀĒĀė": 1454,
      "ęĚęĘęęė": 1455,
      "ĀĀĐĀĘ": 1456,
      "#Ğ": 1457,
      "ĒęęĜ": 1458,
      "Ĕĕ": 1459,
      "ĖěęęĘ": 1460,
      "ĖęęĘę": 1461,
      "ěęĘęęęę": 1462,
      "Ġē": 1463,
      "ęęęęęęĚę": 1464,
      "ęĚęęĝ": 1465,
      "ęĚėęęĚ": 1466,
      "ĀĀć": 1467,
      "ęęęęęęęęęęĘęęęę": 1468,
      "ĘęęęęęęĚęęęę": 1469,
      "ęęęĘęęĖ": 1470,
      "ęęĖĚęęĘ": 1471,
      "ęĘęęęęĚęęĚ": 1472,
      "ęĘĘėęęęę": 1473,
      "ęĘĚĚęęĘ": 1474,
      "ęĚěěęęĚ": 1475,
      "ęĘěĚęęęę": 1476,
      "ęğĖ": 1477,
      "ęğĞ": 1478,
      "ęęęĜęęĚ": 1479,
      "ęėėĚęęęę": 1480,
      "ęėėĚęęė": 1481,
      "ęĚĜęęęě": 1482,
      "ĀĀĝĀĜ": 1483,
      "ĀĀĝĀē": 1484,
      "ęĜĚĘęęĚ": 1485,
      "ęĘĖĘęęĘ": 1486,
      "ęĘĜĘęęě": 1487,
      "ėěęęĖ": 1488,
      "ĀĀğĀĘ": 1489,
      "ęĘęĚęęĚę": 1490,
      "ĐĜ": 1491,
      "Đĝ": 1492,
      "đđ": 1493,
      "Ēğ": 1494,
      "Ėē": 1495,
      "ĖęęęęĘĘ": 1496,
      "ėĖęęĘ": 1497,
      "ĘęęęĘę": 1498,
      "Ĝē": 1499,
      "Ĝęęğ": 1500,
      "ęęęęęęĘę": 1501,
      "ęĚĚęęęęĚ": 1502,
      "ęĚęęęęęęęęęęęęęęęęęęęę": 1503,
      "ęĘęĜęęęę": 1504,
      "ęęĘĚęęęęĚ": 1505,
      "ęěĚęęĚ": 1506,
      "ęėęėęęęę": 1507,
      "ęęęęęęęęęęĚęęęę": 1508,
      "ęęěěęęĚ": 1509,
      "ęęęĚęęęęęęęę": 1510,
      "ęĜěęęęę": 1511,
      "ęĕē": 1512,
      "ęęęęĘę": 1513,
      "ęĚĚěęęĚ": 1514,
      "ęĚĚėęęě": 1515,
      "ęęęęĚę": 1516,
      "ęĘĘĜęęĘ": 1517,
      "ęĘĚěęęĘ": 1518,
      "ęęę#": 1519,
      "ĀĀěĀĞ": 1520,
      "ęęęĖę": 1521,
      "ĀĀĖĀĔ": 1522,
      "ęěěĘęęęę": 1523,
      "ęĚĜėęęĚ": 1524,
      "ęěĜĘęęĚ": 1525,
      "ĀĀđĀĜ": 1526,
      "ęĘęĚęęĘę": 1527,
      "ĕĘęęĕ": 1528,
      "!ė": 1529,
      "#ğ": 1530,
      "$ĝ": 1531,
      "Đě": 1532,
      "đĝ": 1533,
      "ĕęęęęĘ": 1534,
      "ėęĚęęęę": 1535,
      "ĚėęęĚ": 1536,
      "ěěęęě": 1537,
      "ĜĔ": 1538,
      "ĜĘęęě": 1539,
      "ĞĀĀ": 1540,
      "ęĚęĖęęĚ": 1541,
      "ęęĚęęęęęęęęęęęę": 1542,
      "ęęĚĚęęĚę": 1543,
      "ĀĀą": 1544,
      "ęěęĚęęĚ": 1545,
      "ęęėĘęęĚ": 1546,
      "ĘęęęęęęĘęęęę": 1547,
      "Ěęęęęęęě": 1548,
      "ęęęĚęęĚę": 1549,
      "ęĕęęě": 1550,
      "ęĚĘĘęęĘę": 1551,
      "ęĘĚĘęęęęĚ": 1552,
      "ęėĚěęęęę": 1553,
      "ęėĘĘęęĚ": 1554,
      "ęėĘěęęĘ": 1555,
      "ęğĕ": 1556,
      "ěęęėę": 1557,
      "ęęĚęęęĚęęęęęęęę": 1558,
      "ęěěĘęęě": 1559,
      "ęēė": 1560,
      "ĀĀĔĀĖ": 1561,
      "ęėĖęęęĘ": 1562,
      "ĀĀğĀě": 1563,
      "ĀĀĒĀĘ": 1564,
      "ĀĀĒĀĖ": 1565,
      "đĒ": 1566,
      "ĔęęĔ": 1567,
      "ĕęęē": 1568,
      "Ėęęē": 1569,
      "Ęěęęęę": 1570,
      "ěęęğ": 1571,
      "ĜĚęęě": 1572,
      "Ġ$": 1573,
      "ęĚęĖ": 1574,
      "ęĚęĔ": 1575,
      "ęęĚĘęęęęĘ": 1576,
      "ęęĚĚęęęęĚ": 1577,
      "ęęĘęęęęęęęęęęęę": 1578,
      "ęęėěęęė": 1579,
      "ĚęęęęęęęĘ": 1580,
      "ęęęĚęęęęĘĘ": 1581,
      "ęĖĒ": 1582,
      "ęĖęĚęęęę": 1583,
      "ęĖėęęęę": 1584,
      "ęęĜęęĘ": 1585,
      "ęęĜĘęęě": 1586,
      "ęĚĚėęęĘ": 1587,
      "ęęęęĚęĘęęęę": 1588,
      "ęĘĘěęęĚ": 1589,
      "ęĘĘĘęęęęĘ": 1590,
      "ęĚĘĜęęĘ": 1591,
      "ęĘĚĘęęĚę": 1592,
      "ęĔē": 1593,
      "ęĚěĚęęęę": 1594,
      "ęěĘĚęęęę": 1595,
      "ęěĘĘęęĚ": 1596,
      "ęĚėėęęė": 1597,
      "ęėĚĚęęě": 1598,
      "ęěęęęęęęĚ": 1599,
      "ĚęęęęĘęĚęęęę": 1600,
      "ęėěęęęě": 1601,
      "ěĚĘęęęę": 1602,
      "ěĚęęęĚ": 1603,
      "ĀĀĝĀĞ": 1604,
      "ĀĀĝĀĔ": 1605,
      "ęĘĜęęęĚ": 1606,
      "ęĚĖęęęė": 1607,
      "ĀĀĔĀĝ": 1608,
      "ęĒĖ": 1609,
      "ęęĘęęęĘęęęęęęęę": 1610,
      "ęęęĘęęĘĚęęĘ": 1611,
      "ęĜėĘęęė": 1612,
      "Đğ": 1613,
      "ĔęęĞ": 1614,
      "ĕęęğ": 1615,
      "ĖĒ": 1616,
      "ĘěęęĘ": 1617,
      "ĘėęęĘ": 1618,
      "ěę": 1619,
      "ěĖęęĚ": 1620,
      "Ĝğ": 1621,
      "Ĝęęęě": 1622,
      "ĜęęĞ": 1623,
      "ĠĀě": 1624,
      "ęĚĘęęęęĚ": 1625,
      "ęĚęěęęĚ": 1626,
      "ęĚęĜęęĘ": 1627,
      "ęĘęĜęęĚ": 1628,
      "ęęĚęęęęęęęę": 1629,
      "ęęĘĜęęĘ": 1630,
      "ęěęėęęĚ": 1631,
      "ęėęęĖ": 1632,
      "ęĘęęęęĚęęĘ": 1633,
      "ęĘęęęęĘęęĘ": 1634,
      "ęĚęęęęĘęęĘ": 1635,
      "ęĘĘęęęęęęęęęęęę": 1636,
      "ęęĚęęęęęęĘęęęę": 1637,
      "ęĘěěęęęę": 1638,
      "ęĚėĖęęĘ": 1639,
      "ęėĘĘęęęę": 1640,
      "ĀĀĖĀē": 1641,
      "ęěęęęęė": 1642,
      "ęėęęęęęę": 1643,
      "ęěėėęęĘ": 1644,
      "ęĜĚęęęĚ": 1645,
      "ęĘĖĚęęė": 1646,
      "ęĘĜĚęęĚ": 1647,
      "ęĖĘĚęęęę": 1648,
      "ĀĀĔĀĞ": 1649,
      "ěĘęęĝ": 1650,
      "ĀĀĞĀĕ": 1651,
      "ĀĀğĀė": 1652,
      "ĀĀğĀĜ": 1653,
      "ĀĀēĀĜ": 1654,
      "ĀĀĒĀě": 1655,
      "ęĚęĚęęě": 1656,
      "ęĘęĘęęė": 1657,
      "ęęęęęęęęęęęęęęęęęęęęęęęęęę": 1658,
      "#!": 1659,
      "Đē": 1660,
      "đĞ": 1661,
      "đęęĘ": 1662,
      "ēęęĝ": 1663,
      "Ėęęęė": 1664,
      "ĖĚęęė": 1665,
      "ėęęęĚ": 1666,
      "ėęęęĖ": 1667,
      "Ěğ": 1668,
      "Ěęęęęęęęęęęęę": 1669,
      "ěęę": 1670,
      "ěĚęęě": 1671,
      "ĝęęĔ": 1672,
      "Ğęęĕ": 1673,
      "ğĔ": 1674,
      "ĠĀĚ": 1675,
      "ęę&": 1676,
      "ęĚęęĕ": 1677,
      "ęęĘĖęęĘ": 1678,
      "ęěĜęęęę": 1679,
      "ęěęĖęęĚ": 1680,
      "ęęėęęęĚ": 1681,
      "ęęėĖęęĘ": 1682,
      "ĚęęęęęęęĚ": 1683,
      "ęęęĚęęĘę": 1684,
      "ęĚĚęęęė": 1685,
      "ęĘĘėęęĚ": 1686,
      "ęĚĘėęęĚ": 1687,
      "ęĚĘěęęė": 1688,
      "ęĘĚėęęě": 1689,
      "ęĘĚĘęęĜ": 1690,
      "ęęęěęęě": 1691,
      "ęĚěĖęęĚ": 1692,
      "ęěĘęęęĚ": 1693,
      "ęėĚěęęĚ": 1694,
      "ęėĚĜęęĚ": 1695,
      "ęğğ": 1696,
      "ęėėĘęęė": 1697,
      "ĘęęęęĚė": 1698,
      "ėĚĚęęęę": 1699,
      "ęĜĚĘęęĘ": 1700,
      "ęĖĘĚęęĘ": 1701,
      "ęĚĖĘęęĘ": 1702,
      "ęěĜęęęě": 1703,
      "ęĒė": 1704,
      "ęėĖĚęęĘ": 1705,
      "ĀĀēĀĕ": 1706,
      "ęĖėęęęĘ": 1707,
      "ęĚęĘęęĖ": 1708,
      "ĀĀ)Ā": 1709,
      "\"\"": 1710,
      "\"ė": 1711,
      "$Ę": 1712,
      "ĐęęĖ": 1713,
      "ĕď": 1714,
      "ė!": 1715,
      "ėĘęęĚ": 1716,
      "ę%": 1717,
      "ĚęęęĘ": 1718,
      "ĚĘęęě": 1719,
      "ě!": 1720,
      "ěėęęě": 1721,
      "ěęęęĚę": 1722,
      "ĝĚęęě": 1723,
      "ĠĀė": 1724,
      "ĠĀĀęĀ": 1725,
      "ęęęęęęě": 1726,
      "ęĚĚęęĘ": 1727,
      "ęĘĘęęęęĘ": 1728,
      "ęĘęĖęęęę": 1729,
      "ęęĚęęęĜ": 1730,
      "ęęĘěęęė": 1731,
      "ęęĘĖęęęę": 1732,
      "ęėĒ": 1733,
      "ęėĖęęęę": 1734,
      "ęĖęě": 1735,
      "ęĖęĚęęĘ": 1736,
      "ęęĖĘęęė": 1737,
      "ęĚęęęęęęě": 1738,
      "ęĕĒ": 1739,
      "ęĕęęĜ": 1740,
      "ęęęęĚęĚęęęę": 1741,
      "ęĘĘęęęě": 1742,
      "ęĘĘęęęĖ": 1743,
      "ęĘĘĚęęĘę": 1744,
      "ęĚĘĚęęęęĚ": 1745,
      "ęĘĚěęęě": 1746,
      "ęĞęęĘ": 1747,
      "ęĘėĘęęė": 1748,
      "ęĘėĜęęė": 1749,
      "ęěĘěęęĘ": 1750,
      "ęěĘĚęęė": 1751,
      "ęėĚėęęĚ": 1752,
      "ęėĚěęęě": 1753,
      "ęğĔ": 1754,
      "ęėėěęęė": 1755,
      "ęėęęęęė": 1756,
      "ęēĕ": 1757,
      "ęěėęęęė": 1758,
      "ěĚęęĝ": 1759,
      "ęĚĜĘęęě": 1760,
      "ęĖĘĚęęĚ": 1761,
      "ėĘĚęęęę": 1762,
      "ėĘęęęĘ": 1763,
      "ěĘĘęęęę": 1764,
      "ěěęęĜ": 1765,
      "ĚęęĜę": 1766,
      "ęėĖěęęĘ": 1767,
      "ęĜěęęęĚ": 1768,
      "ęęęęĚĚĘęęĚ": 1769,
      "ęěĖęęęė": 1770,
      "ĀĀĒĀĕ": 1771,
      "ęĖěęęęĚ": 1772,
      "ĖĘęęĕ": 1773,
      "ĀĀ!ĀĚ": 1774,
      "ęĚęĘęęĘę": 1775,
      "ĀĀ$ĀĘ": 1776,
      "ęĘėęęęęę": 1777,
      "!Ė": 1778,
      "\"#": 1779,
      "#Ě": 1780,
      "#ě": 1781,
      "ďĖ": 1782,
      "ĐĒ": 1783,
      "đęęě": 1784,
      "ĕĚęęė": 1785,
      "ĕęęĚę": 1786,
      "ĚěęęĚ": 1787,
      "ěĘęęĘ": 1788,
      "ĜėęęĚ": 1789,
      "Ĝęęē": 1790,
      "ĜĘęęĜ": 1791,
      "ĝğ": 1792,
      "ĝĀĀ": 1793,
      "ğē": 1794,
      "ĠęęĖ": 1795,
      "Ġęęĝ": 1796,
      "ĠĀĖ": 1797,
      "ęęęęęęė": 1798,
      "ęĚĒ": 1799,
      "ęĘ!": 1800,
      "ęĘęęęęęęęęęęęĚ": 1801,
      "ęĘęĜęęĘ": 1802,
      "ęęĚĚęęė": 1803,
      "ęęĘĘęęęęĘ": 1804,
      "ęėęěęęęę": 1805,
      "ęėęĚęęęęĘ": 1806,
      "ęęęęęęęęĚęęęęęę": 1807,
      "ęęęęęęęęĘęęęęęę": 1808,
      "ęęėęęęĘę": 1809,
      "ęęėĚęęĘę": 1810,
      "ęęěěęęęę": 1811,
      "ęĜ!": 1812,
      "ęĚęęęęęęĘęęęęęę": 1813,
      "ęĝē": 1814,
      "ęĝęęě": 1815,
      "ęĝęęęęĚ": 1816,
      "ęĕęęė": 1817,
      "ęĚĚęęęęęęęęęęęę": 1818,
      "ęĘĘěęęė": 1819,
      "ęĘĘĘęęęęĚ": 1820,
      "ęĘĘĜęęęę": 1821,
      "ęęĕęęęĘ": 1822,
      "ęĘĚĜęęęę": 1823,
      "ęĘĚĚęęĚę": 1824,
      "ėęęęęě": 1825,
      "ęĚěėęęě": 1826,
      "ęĘěĜęęĚ": 1827,
      "ęęęĘęęęęęęĚę": 1828,
      "ĀĝĘ": 1829,
      "ęėęęęęęęĘ": 1830,
      "ęēĖ": 1831,
      "ęėěĚęęęę": 1832,
      "ĘęęĜę": 1833,
      "ęĘĜĘęęĚ": 1834,
      "ęĚĖĚęęĘ": 1835,
      "ęĚĖĘęęė": 1836,
      "ęęęĕęęĚ": 1837,
      "ĀĀēĀĖ": 1838,
      "ęĜėęęęĘ": 1839,
      "ĜĘęęĝ": 1840,
      "ĀĀ!Āė": 1841,
      "ęĚęĘęęĚę": 1842,
      "ĝĚęęĞ": 1843,
      "ĀĀĐĀě": 1844,
      "ĀĀďĀĘ": 1845,
      "ĀĀďĀė": 1846,
      "ĀĀ%ĀĜ": 1847,
      "ĎĚ": 1848,
      "ĔĔ": 1849,
      "ĔęęęęĘ": 1850,
      "Ęęę!": 1851,
      "ĘęęęęęęęęęęęĘ": 1852,
      "Ěěęęęę": 1853,
      "ěĜęęě": 1854,
      "Ĝėęęě": 1855,
      "Ĝěęęě": 1856,
      "Ğęęĝ": 1857,
      "ğĕ": 1858,
      "ęĚĘęęęęĘ": 1859,
      "ęĚęęęęęęęęęęęĚ": 1860,
      "ęęĚěęęĘ": 1861,
      "ęęĚĘęęęęĚ": 1862,
      "ęęĚĚęęęęĘ": 1863,
      "ęęĘĘęęęęĚ": 1864,
      "ĀĀĈ": 1865,
      "ęě!": 1866,
      "ęěĚęęęęę": 1867,
      "ęėęĚęęě": 1868,
      "ęęęęęęęęęĚęęęęę": 1869,
      "Ęęęęęě": 1870,
      "ęĜĒ": 1871,
      "ęęĖĚęęė": 1872,
      "ęęĜėęęĚ": 1873,
      "ęĚĚĚęęęęĘ": 1874,
      "ęĚĚĚęęĚę": 1875,
      "ęęęęĚĚęęęę": 1876,
      "ęęęěęęė": 1877,
      "ėęęęęėĘ": 1878,
      "ęĔęęĚ": 1879,
      "ęĘėęęĘ": 1880,
      "ęĘėĘęęęę": 1881,
      "ęĘėęęęĖ": 1882,
      "ęėĘęęęė": 1883,
      "ęėĘěęęęę": 1884,
      "ęęęęęęęęęęęęęęęęęęęęęęęęęęęęę": 1885,
      "ĘęęęęĘę": 1886,
      "ĚęęęęĚĚęęęę": 1887,
      "ęēĝ": 1888,
      "ęėěĘęęě": 1889,
      "ęėěěęęĚ": 1890,
      "ĀĀĕĀĞ": 1891,
      "ėĚĚęęĚ": 1892,
      "ĀĔĘ": 1893,
      "ęĘĜėęęĚ": 1894,
      "ęĖĘęęęĚ": 1895,
      "ęĖĘĘęęĘ": 1896,
      "ęĜĘęęęė": 1897,
      "ěĘęęęĘ": 1898,
      "ěěęęĝ": 1899,
      "ęęęęĘĘĚęęĘ": 1900,
      "ęėĖĘęęĘ": 1901,
      "ĀĀğĀĕ": 1902,
      "ęęęęĘĚĘęęĚ": 1903,
      "ĜĚęęĝ": 1904,
      "ęĖěĘęęĚ": 1905,
      "ĝĚęęĝ": 1906,
      "ęĘęĘęęĚę": 1907,
      "ęėęęęęĚę": 1908,
      "ĀĀĎĀě": 1909,
      "ĞĚęęĞ": 1910,
      "ęěęĘęęė": 1911,
      "!ęęĘ": 1912,
      "#ĝ": 1913,
      "Đęęęę": 1914,
      "ĐęęĘ": 1915,
      "đęęęę": 1916,
      "ēęęĔ": 1917,
      "ĕęęęė": 1918,
      "ĖėęęĘ": 1919,
      "Ėěęęė": 1920,
      "ĖĖęęĘ": 1921,
      "ėęĜ": 1922,
      "Ęğ": 1923,
      "ęĀĀĘĀ": 1924,
      "ĚęęĒ": 1925,
      "ĝĘęęĚ": 1926,
      "ğęęĜ": 1927,
      "ĠęęęĜ": 1928,
      "ęęęęęęĖ": 1929,
      "ęĚęėęęě": 1930,
      "ęĘęĖ": 1931,
      "ęęĚėęęě": 1932,
      "ęęĚěęęě": 1933,
      "ęęĘĚęęęęĘ": 1934,
      "ęęĘĚęęĘę": 1935,
      "ęěęĘęęęęĘ": 1936,
      "ęěęĚęęė": 1937,
      "ęėęĜęęĚ": 1938,
      "ęęėęęęęĘ": 1939,
      "ęęėĜęęė": 1940,
      "ęęěĖęęĚ": 1941,
      "ęĜėęęęę": 1942,
      "ęęĖę": 1943,
      "ęęĜĚęęě": 1944,
      "ęĚęęęęęęęĚęęęę": 1945,
      "ęĚĚěęęĘ": 1946,
      "ęĚĚĜęęĚ": 1947,
      "ęĘĘĚęęě": 1948,
      "ęĚĘęęęĘęęĘ": 1949,
      "ęĘĚęęęęęęęęęęęę": 1950,
      "ęĘĚĖęęĚ": 1951,
      "ęĘĚĚęęęęĚ": 1952,
      "ęęęď": 1953,
      "ėęęęęęęĘ": 1954,
      "ęęĔę": 1955,
      "ęĚěěęęě": 1956,
      "ęĘėĜęęĘ": 1957,
      "ęĘěěęęě": 1958,
      "ęĚėěęęė": 1959,
      "ęėĘĚęęė": 1960,
      "ęėĘĜęęĘ": 1961,
      "ĘęęęęĚę": 1962,
      "ĘęęęęĘęĘęęęę": 1963,
      "ęěěęęęĘ": 1964,
      "Ĝęęęęė": 1965,
      "Ėęęęęė": 1966,
      "ĚęęęęĘę": 1967,
      "ęĜĚĚęęĚ": 1968,
      "ęĜĚĘęęě": 1969,
      "ęĘĖęęęĖ": 1970,
      "ęĘĖěęęė": 1971,
      "ęĘĜĚęęě": 1972,
      "ęĚĖěęęė": 1973,
      "ĀĀĔĀĕ": 1974,
      "ęĖĚĘęęĚ": 1975,
      "ęęęęĘĘĘęęęę": 1976,
      "ęęęęĘĚěęęęę": 1977,
      "ęęęęĚĚĚęęęę": 1978,
      "ęěĖĚęęė": 1979,
      "ęĜĜėęęĚ": 1980,
      "ĀĀđĀĘ": 1981,
      "ęĜęęęęė": 1982,
      "ĜĜęęĜ": 1983,
      "ĀĀ\"ĀĘ": 1984,
      "ęĚęĚęęĘę": 1985,
      "ęěęęęęĘę": 1986,
      "Ĕěęęĕ": 1987,
      "ğĘęęğ": 1988,
      "#Ę": 1989,
      "ĎĖ": 1990,
      "ďĕ": 1991,
      "ēĒ": 1992,
      "ēē": 1993,
      "Ĕęęęė": 1994,
      "ĖĘęęė": 1995,
      "Ėęę!": 1996,
      "ėęę!": 1997,
      "ĘĚęęė": 1998,
      "Ěęęęě": 1999,
      "Ěęęē": 2000,
      "Ěęę!": 2001,
      "ěĜęęĚ": 2002,
      "ěęęĒ": 2003,
      "ĜęęęęĚĘ": 2004,
      "ĝĔ": 2005,
      "ĝĕ": 2006,
      "ĝĘęęě": 2007,
      "Ğ!": 2008,
      "Ġď": 2009,
      "ęĚ!": 2010,
      "ęĚęĜ": 2011,
      "ęĚęėęęęęĘ": 2012,
      "ęĚęěęęė": 2013,
      "ęĘĜęęęę": 2014,
      "ęęĚĜęęęę": 2015,
      "ęęĘęęęęĚ": 2016,
      "ęęĘĚęęĖ": 2017,
      "ĀĀĄ": 2018,
      "ęěęě": 2019,
      "ęėęĜ": 2020,
      "ęėęĘęęęęĚ": 2021,
      "ęėęĚęęęęĚ": 2022,
      "ęėęėęęĚ": 2023,
      "ęėĘęęęęę": 2024,
      "ęęęęęęęęĚĘ": 2025,
      "ęęěĚęęĘ": 2026,
      "ęęěĜęęĚ": 2027,
      "ęęęĚęęęęęęęęęęę": 2028,
      "ęęęĘęęĜ": 2029,
      "ęęęĘęęęęęęęęęęę": 2030,
      "ęĜĚęęĚ": 2031,
      "ęĜęėęęęę": 2032,
      "ęĜęėęęĘ": 2033,
      "ęęĖėęęĘ": 2034,
      "ęęĖėęęė": 2035,
      "ęęĜėęęě": 2036,
      "ęĕęęęęĘ": 2037,
      "ęĘĘĚęęęęĘ": 2038,
      "ęĚĘęęęě": 2039,
      "ęĚĘĘęęě": 2040,
      "ęĚĘėęęė": 2041,
      "ęęĕęęęę": 2042,
      "ęĘĚęęęė": 2043,
      "ėęęęęęęĚ": 2044,
      "ęĔĒ": 2045,
      "ęĔęęĘ": 2046,
      "ęęĔęĜ": 2047
    },
    "merges": [
      "ę ę",
      "ęę ęę",
      "ę Ě",
      "ę Ę",
      "ęę Ě",
      "ęę Ę",
      "Ā Ā",
      "ę ě",
      "ę ė",
      "ęęęę ęęęę",
      "ęę ė",
      "ęę ě",
      "Ę ęęęę",
      "Ě ęęęę",
      "ęę ęĚ",
      "ęę ęĘ",
      "ę Ĝ",
      "ę Ė",
      "ęę Ė",
      "ęę Ĝ",
      "ęĘ ęęęę",
      "ęĚ ęęęę",
      "ę ĝ",
      "ę ĕ",
      "Ę ęęĚ",
      "Ě ęęĘ",
      "Ę ęęĘ",
      "Ě ęęĚ",
      "ęęęę Ę",
      "ęĚ Ě",
      "ęęęę Ě",
      "ęĘ Ę",
      "ęĚ Ę",
      "ęę ĕ",
      "ęĘ Ě",
      "ęę ĝ",
      "ęę ęė",
      "ęę ęě",
      "ęę ę",
      "ė ęęęę",
      "ě ęęęę",
      "ęęęęęęęę ęęęę",
      "ęęĚ ęęęę",
      "ę Ğ",
      "ęęĘ ęęęę",
      "ęę Ğ",
      "ė ęęĚ",
      "ę Ĕ",
      "ęę Ĕ",
      "Ā Ě",
      "ě ęęĘ",
      "Ā Ę",
      "ĀĀ Ę",
      "ĀĀ ę",
      "Ę ęęě",
      "Ě ęęė",
      "ęĚ ě",
      "ęĘ ė",
      "ęě Ě",
      "Ā ě",
      "ė ęęĘ",
      "Ę ęęė",
      "Ā ė",
      "ě ęęĚ",
      "ęĘ ě",
      "ĀĀ Ě",
      "ęě Ę",
      "ęĚ ė",
      "Ě ęęě",
      "ĀĀ ė",
      "ęė Ě",
      "ęė Ę",
      "Ā Ė",
      "ę ğ",
      "Ā Ĝ",
      "ęęęęęęęę ęęęęęęęę",
      "ęę ē",
      "ĀĀ ě",
      "ęę ęĜ",
      "ęę ęĖ",
      "ęę ğ",
      "ĀĀ Ė",
      "ęęęĘ ęęęę",
      "ęęĚ ę",
      "ęė ė",
      "ě ęęė",
      "Ęęęęę Ě",
      "Ęęęęę Ę",
      "Ā ĕ",
      "ęęĚ ęęęĚ",
      "ė ęęě",
      "Ā ĝ",
      "ęęĘ ę",
      "ęě ęęęę",
      "ęě ě",
      "Ĝ ęęęę",
      "Ė ęęĚ",
      "ęė ęęęę",
      "Ė ęęęę",
      "Ěęęęę Ě",
      "ę ē",
      "ęęęĚ ęęęę",
      "ě ęęě",
      "Ěęęęę Ę",
      "ĀĀ Ĝ",
      "ęě ė",
      "Ĝ ęęĘ",
      "ė ęęė",
      "ęė ě",
      "Ė ęęĘ",
      "ĀĀ ĕ",
      "Ę ęęĜ",
      "ęęęĘ ę",
      "ęĚ Ěęęęę",
      "ęĚ ęęĘ",
      "Ĝ ęęĚ",
      "Ā Ğ",
      "ě Ě",
      "ęĚ Ĝ",
      "ęĘ ęęĚ",
      "ęĘ Ęęęęę",
      "ė Ě",
      "ĀĀ ĝ",
      "ęę Ē",
      "ęęęĚ ę",
      "ęĘ ęęĘ",
      "ęĜ Ě",
      "Ā Ĕ",
      "ęĘęęęę Ě",
      "ęĘ Ė",
      "Ę ęęĖ",
      "ęĚ ęęĚ",
      "ęĘ Ĝ",
      "ęĖ Ę",
      "ęĚ Ė",
      "ęĚęęęę Ě",
      "ĀĀ Ĕ",
      "ęĚęęęę Ę",
      "ęĖ Ě",
      "ęĘęęęę Ę",
      "ęęęęęęęę ęęę",
      "ęĜ Ę",
      "ė Ę",
      "ęĚ Ęęęęę",
      "ęĘ Ěęęęę",
      "ě Ę",
      "ĀĀ Ğ",
      "ě ě",
      "ęę ęĕ",
      "ęě Ĝ",
      "ę Ē",
      "Ė ęęě",
      "Ě ęęĖ",
      "Ā ē",
      "ęęĘ ęęęĘ",
      "Ě ęęĜ",
      "Ĝ ęęė",
      "ęę ęĝ",
      "ęęęęĘ Ę",
      "ė ě",
      "ęė Ė",
      "ĕ ęęęę",
      "ęę !",
      "Ė ęęė",
      "ė ęęĜ",
      "ĀĀ ğ",
      "ęĜ ě",
      "ęė Ĝ",
      "ęęęęĘ Ě",
      "ęę đ",
      "ęęęęĚ Ě",
      "ĀĀ ē",
      "ęĖ ė",
      "ęęęęĚ Ę",
      "ęě Ė",
      "Ĝ ęęě",
      "ě ęęĖ",
      "ė ęęĖ",
      "ĀĀę Ā",
      "ĕ ęęĘ",
      "ęęęĘ ęęĘ",
      "ĕ ęęĚ",
      "ė ė",
      "ĀĀĘ Ā",
      "Ĝ Ě",
      "ĝ ęęęę",
      "ęĜ ė",
      "ě ęęĜ",
      "ĀĀ Ē",
      "ęĖ ě",
      "Ė Ě",
      "Ė Ę",
      "ĝ ęęĘ",
      "ęĜ Ĝ",
      "ęęęĘ ęęĚ",
      "Ĝ Ę",
      "ęĖ ęęęę",
      "ęęęĚ ęęĘ",
      "ę !",
      "ę đ",
      "ĀĀė Ā",
      "ĚęęĘ ę",
      "ęęęĚ ęęĚ",
      "ĀĀ !",
      "ęĕ Ě",
      "Ĝ ě",
      "ĕ Ě",
      "ęĚ ĝ",
      "ęě ęęĘ",
      "ęĚęęęę ęę",
      "ęĘ ęĚęęęę",
      "ęęęę ęęĘ",
      "ęĘ ĕ",
      "ĀĀĚ Ā",
      "ĀĀě Ā",
      "ė Ĝ",
      "ĝ ęęĚ",
      "ĘęęĚ ę",
      "ęĖ Ė",
      "ęĝ Ě",
      "ęĚ ęĘęęęę",
      "ĀĀ đ",
      "ě Ĝ",
      "ęĚ ęĘ",
      "Ę Ě",
      "ęęęę ęęĚ",
      "ęĘ ęĚ",
      "ęę \"",
      "ęĘ ĝ",
      "ĚęęĚ ę",
      "Ěęęęę ę",
      "ęĕ Ę",
      "Ė ęęĜ",
      "ęė ęęĘ",
      "ęĜ ęęęę",
      "ĘęęĘ ę",
      "ęĚĘ ęęęĘ",
      "ęĘĚ ęęęĚ",
      "ęĚ ĕ",
      "Ė ě",
      "ĀĀĖ Ā",
      "ęęę Ğ",
      "ęęĘ Ęęęęę",
      "ęė ęęĚ",
      "Ę ęęĝ",
      "Ě Ě",
      "ĝ ęęė",
      "ęęęęęęęęęęęę ę",
      "ęę Đ",
      "ĕ ęęě",
      "Ė ė",
      "ĝ Ě",
      "ęĝ Ę",
      "ĕ Ę",
      "ęęę Ĕ",
      "ě ė",
      "ĀĀ Đ",
      "ęĘęęęę ęę",
      "ęĚĚ ęęęĚ",
      "ęęęęęęęę ęęęęęęęęęęęę",
      "ĝ ě",
      "ęĘĘ ęęęĘ",
      "Ĝ Ĝ",
      "ęęě ęęęę",
      "Ė ęęĖ",
      "ęě ĝ",
      "ęĘ ęĘęęęę",
      "ĕ ęęė",
      "ęęĚęęęę ę",
      "Ĝ ęęĖ",
      "ęĝ ě",
      "Ę Ę",
      "ęė ĕ",
      "ĀĀ \"",
      "ęĚ ęĚ",
      "ęęĚ ĚęęĚ",
      "ęě ęęĚ",
      "Ė ĝ",
      "ęęė ęęęę",
      "ęĚ ęĚęęęę",
      "ęĘ ęĘ",
      "ęęĚ ĘęęĚ",
      "ęęĘęęęę ę",
      "ęĜ Ė",
      "ęĕ ė",
      "ę \"",
      "ęęĚ Ěęęęę",
      "ĕ ě",
      "Ĝ ĝ",
      "Ę ęęĕ",
      "Ęęęęę ę",
      "ĕ ė",
      "ęĖ Ĝ",
      "ęęĘ ĚęęĘ",
      "ě Ğ",
      "ęĝ ė",
      "Ĕ ęęĚ",
      "ĀĀ $",
      "ĀĀĕ Ā",
      "Ě ęęĕ",
      "ĀĀ #",
      "ĀĀ ď",
      "ęęęęęęęę ęĘ",
      "Ě ęęĝ",
      "ě ęęęęĘ",
      "Ĕ ęęĘ",
      "ęęĘ Ěęęęę",
      "ęęĘ ĘęęĘ",
      "ė ęęĝ",
      "Ěęęęę ęę",
      "Ė Ĝ",
      "ě ĝ",
      "ęęĚ Ęęęęę",
      "Ęęęęę ęę",
      "ĀĀĜ Ā",
      "ęė ĝ",
      "ęě ęęęęĘ",
      "ęĚĚ ĘęęĚ",
      "ęė ęęęęĚ",
      "Ě Ę",
      "ęĜ ĝ",
      "ęĘ ėęęęę",
      "Ĕ ęęęę",
      "ė ęęęęĘ",
      "ęě ĕ",
      "Ě ęęęĚ",
      "Ğ Ğ",
      "ęĕ ě",
      "ęĚĘ ĚęęĘ",
      "ė ęęęęĚ",
      "ĀĀ Ď",
      "Ĕ Ę",
      "ė ĝ",
      "ė ęęĕ",
      "ęęęęęęęę ęĚ",
      "ęĝ Ĝ",
      "ęĘęęęę ęęĚ",
      "ė Ė",
      "Ę Ęęęęę",
      "Ğ ęęĘ",
      "ęĚęęęę ęęĚ",
      "ęĚęęęę ęęĘ",
      "ĀĀĔ Ā",
      "Ĕ ě",
      "ęĖ ĕ",
      "ęĕ Ė",
      "ęĘĘ ĚęęĘ",
      "ĝ Ĝ",
      "Ĕ Ě",
      "ęĚ Ğ",
      "ĀĀ %",
      "ęęė ęęęĘ",
      "ĝ ęęě",
      "ęęęęęęęę ęęęĚ",
      "ĕ Ĝ",
      "ęęě ęęęĚ",
      "ĕ ęęĖ",
      "Ě Ěęęęę",
      "ě ęęęęĚ",
      "ęęęęęęęę ęęęĘ",
      "ĀĀĘ ĀĘ",
      "Ę ęęęĘ",
      "ęė ęęęęĘ",
      "ęęę ē",
      "ę Đ",
      "ęę #",
      "ęĘĚ Ěęęęę",
      "ęĘĚ ĚęęĚ",
      "ğ Ĝ",
      "ĀĀĘ ĀĚ",
      "ĀĀĝ Ā",
      "ĀĀĞ Ā",
      "Ġ Ě",
      "ęĘ ęĚęęĚ",
      "ęĘęęęę ęęĘ",
      "ęĘĚ ĘęęĚ",
      "ęĚĘ ĘęęĘ",
      "ęĘĘ Ěęęęę",
      "ĕ ęęĜ",
      "ě ęęĝ",
      "Ğ ęęęę",
      "ęĚęęęę ę",
      "Ġ Ĝ",
      "ęĚ ęĘęęĚ",
      "ęĚ ęĘęęĘ",
      "Ė ęęĝ",
      "ęęęęęęęęęęęę ęęę",
      "ęęĚęęęĚ ę",
      "Ġ ĝ",
      "ęĚ ěęęęę",
      "Ěęęęę ęęĚ",
      "Ė Ė",
      "Ę ęęĞ",
      "Ğ Ě",
      "ě ęęĕ",
      "ęĚ Ĕ",
      "ęĚĚ Ęęęęę",
      "Ĕ ęęė",
      "ğ Ě",
      "ğ Ğ",
      "ęĞ Ě",
      "ęĚĚ Ěęęęę",
      "ě Ė",
      "ęĜ ĕ",
      "ęĜ ęęĘ",
      "ęĞ Ę",
      "ęęęęęęęęęęęęęęęę ęę",
      "Ě Ęęęęę",
      "ĝ ĝ",
      "Ğ Ĝ",
      "ęę $",
      "ęę ď",
      "ęĘ ęĘęęĚ",
      "ĀĀ &",
      "ęě Ěęęęę",
      "ĀĀę ĀĘ",
      "ė ęęĞ",
      "ęě ęęęęĚ",
      "ęĘ Ĕ",
      "ęĘ ęĚęęĘ",
      "ĀĀę Āė",
      "Ę Ěęęęę",
      "ęě Ğ",
      "ĀĚ Ě",
      "ęĘęęęę ę",
      "ĀĀ '",
      "Ĕ ęęě",
      "ğ ĝ",
      "ęęęęęęęę Ě",
      "ęęęě ę",
      "ęęę ğ",
      "ĀĀĘ Āė",
      "ē ė",
      "ē Ě",
      "Ė ęęĕ",
      "ęęě ĘęęĚ",
      "ĀĀğ Ā",
      "Ęęęęę ęęĘ",
      "ęĖ ęęĚ",
      "ğ Ę",
      "ęĚ ęęė",
      "ęĚ ęęě",
      "ęĕ ęęęę",
      "Ĕ ĝ",
      "ęĘ ęęęĘ",
      "ĀĚ Ę",
      "ĕ ĝ",
      "Ğ ęęĚ",
      "ęĘ Ğ",
      "ęĝ Ė",
      "ęęęě ęęĘ",
      "ĀĀĘ Āě",
      "ęĚ ęĚęęĘ",
      "ęě ęĘ",
      "ęęęė ęęęę",
      "ĀĀę Āě",
      "ĀĀĚ ĀĘ",
      "ĝ Ę",
      "Ęęęęę ęęĚ",
      "Ē Ę",
      "ęĜ ęęĚ",
      "ęęęė ę",
      "ē Ę",
      "Ĝ ė",
      "ęĕ Ĝ",
      "ęĘĘ ĘęęĘ",
      "ęĘė ęęęĘ",
      "Ĕ ė",
      "Ě Ĝ",
      "Ġ Ę",
      "ęĘ ęĘęęĘ",
      "Ěęęęę ęęĘ",
      "ęĔ Ę",
      "ęęęė ęęĚ",
      "ęęęě ęęęę",
      "ęęĘęęęę ęęĘ",
      "Ĕ Ė",
      "Ġ Ğ",
      "ęė ęęě",
      "ĀĀĘ ĀĖ",
      "ęĘĘ Ęęęęę",
      "ęęĚęęęę ęęĚ",
      "ęĚě ęęęĚ",
      "ĀĀė ĀĘ",
      "ęĚĚęęęę ę",
      "ĕ ĕ",
      "ę #",
      "Ě ĚęęĚ",
      "Ġ ğ",
      "ė ęęęĘ",
      "ęė Ĕ",
      "ęęęęęęęę Ę",
      "ęĝ ęęęę",
      "Ė Ğ",
      "Ġ ě",
      "ęę Ď",
      "ęĖ ęęĘ",
      "ğ ě",
      "ęĔ Ě",
      "ęė Ęęęęę",
      "ęęě ĚęęĚ",
      "ĀĀę ĀĚ",
      "Ĝ ęęĕ",
      "Ġ ė",
      "ęě ęęė",
      "ęĚĘ Ęęęęę",
      "ĀĀė Āě",
      "ęĚ ęęęęęęęęęęęę",
      "ęĘ ěęęęę",
      "ęĖ Ĕ",
      "ęĖ ĝ",
      "ęęĘęęęę ęęĚ",
      "ęĚě ĘęęĚ",
      "ęĘě ęęęĚ",
      "ĘęęęęĘ Ę",
      "Ĝ ęęĜ",
      "Ğ ęęė",
      "ęĚĚ ĚęęĚ",
      "ē ęęĘ",
      "Ė ęęĞ",
      "ě ĘęęĚ",
      "ęĚ ęęęĚ",
      "ęě Ęęęęę",
      "ęė Ğ",
      "ęęęė ęęĘ",
      "ęęĘęęęę ęę",
      "Ē Ě",
      "ē ęęĚ",
      "ę ĀĀ",
      "ęęĚęęęę ęęĘ",
      "Ē ė",
      "ĕ ęęĕ",
      "ęě Ĕ",
      "ęęė ĚęęĘ",
      "ęĘĚ Ęęęęę",
      "ĀĀė Āė",
      "ęĘĘęęęę ę",
      "ęĘĚęęęę ę",
      "ė ĘęęĘ",
      "ĀĀĚ Āė",
      "ĀĀē Ā",
      "ĕ Ė",
      "ęĞ Ĝ",
      "ĀĀĚ Āě",
      "ĀĀĚ ĀĖ",
      "ē ęęęę",
      "ĕ ęęĝ",
      "ęė Ěęęęę",
      "ĀĀę Āĕ",
      "ĀĀĚ ĀĚ",
      "ě ğ",
      "ě Ěęęęę",
      "ě ęęęĚ",
      "ęĝ ĝ",
      "ęęęęęęęęęęęęęęęę ęęęęęęęę",
      "ęĘĘ ěęęĘ",
      "ėęęĚ ę",
      "ė Ęęęęę",
      "Ĝ Ğ",
      "ęĚ ęĚęęĚ",
      "ęęęě ęęĚ",
      "ęęęęęęęęęęęęęęęę ęęę",
      "ĘęęęęĘ Ě",
      "Ė ęęęęĘ",
      "Ě ĝ",
      "ğ ęęĘ",
      "Ġ Ā",
      "ęĚ ęęęęęęęę",
      "ęĚ ėęęęę",
      "ęęė ĘęęĘ",
      "ęĘ ęęė",
      "ęĘ ęěęęęę",
      "ĀĀ (",
      "ĀĀė ĀĚ",
      "ĕ Ğ",
      "ĀĀĖ ĀĚ",
      "ęĘęęęę ě",
      "ęĝ Ğ",
      "ĀĀę ĀĜ",
      "ęěĘ ęęęĘ",
      "ĘęęęęĚ Ę",
      "ĀĀĒ Ā",
      "đ Ě",
      "ē ĝ",
      "Ĕ ęęĖ",
      "ęĘ ęęęęęęęę",
      "ęęĚ ęęĘ",
      "ęě ęęě",
      "ęęęĘ ęęė",
      "ęĔ ė",
      "Ė ęęęęĚ",
      "ęĜ Ğ",
      "ęğ Ě",
      "ĚęęęęĘ Ę",
      "ğ ğ",
      "ęĘ ęęě",
      "ęĘĘ ęęęĚ",
      "ęĞ ė",
      "ęĔ Ė",
      "ęĘė ĚęęĘ",
      "ĚęęęęĘ Ě",
      "ē Ė",
      "Ğ ĝ",
      "ğ ė",
      "ęĘ ęęęęęęęęęęęę",
      "ęęĚ ęęęĘ",
      "ĀĀĚ ĀĜ",
      "Ē Ė",
      "Ĕ Ĝ",
      "Ę ęęĔ",
      "ě ĕ",
      "ęęĚęęęę ęę",
      "ĀĀę ĀĖ",
      "ěęęĚ ę",
      "ęėĚ ęęęĚ",
      "ĚęęęęĚ Ę",
      "ě Ęęęęę",
      "ęĚĚ ęęęě",
      "ĀĀě Āė",
      "ē ě",
      "ē ęęė",
      "Ĕ Ğ",
      "Ĝ ęęęęĚ",
      "ęę %",
      "ęĚ ğ",
      "ęęĘ ęęęĚ",
      "ęĘĘ ęęęė",
      "ęĚė ęęęĘ",
      "ęĚ ęė",
      "ęĚ ĚęęĚ",
      "ęĚė ĚęęĘ",
      "đ ė",
      "Ē ĕ",
      "ē Ĝ",
      "ęėĚ ĚęęĚ",
      "ĀĀě ĀĘ",
      "Ę ĝ",
      "ę ď",
      "ęĚ ĘęęĚ",
      "ęĚĘ Ěęęęę",
      "ĀĀĘ Āĕ",
      "ęěĚ ęęęĚ",
      "ĀĀđ Ā",
      "ė ĕ",
      "ė Ğ",
      "Ě ě",
      "Ġ ęęęę",
      "ęęęęęęęę ęęĚ",
      "ęĚĚ ęęęĘ",
      "ęěĘ ĘęęĘ",
      "ĀĀĖ Āė",
      "ė ĚęęĘ",
      "ğ ęęęę",
      "ĀĀ )",
      "ęĜ Ĕ",
      "ęĕ ĕ",
      "ęĚĚ ėęęĚ",
      "ęęę Ē",
      "ęĞ ĝ",
      "ęĔ Ĝ",
      "ĀĀě Āě",
      "ĀĀě ĀĖ",
      "Ğ Ę",
      "ęęė ę",
      "ęĞ ě",
      "ĀĀĐ Ā",
      "! ĝ",
      "ęęĚ ęęęě",
      "ęęĚ Ęęęě",
      "ęęĘ ęęęė",
      "ęęęĘ ęęě",
      "ęĚĚ ĘęęĘ",
      "ęĚĘęęęę ę",
      "! ğ",
      "ęĝ ĕ",
      "ęĞ Ė",
      "ęĚě ĚęęĚ",
      "ęėĘ Ěęęęę",
      "Ĝ ęęęęĘ",
      "ęĚ ęėęęęę",
      "ęęĘ ęęĘ",
      "ĀĀ *",
      "ęĕ ĝ",
      "ėęęĘ ę",
      "ęĚė ĘęęĘ",
      "ĀĀė ĀĖ",
      "ĀĀĖ ĀĘ",
      "ĀĀ! Ā",
      "! ě",
      "Ĕ ęęĜ",
      "Ę Ĝ",
      "ęĘ ęĚęęęęĘ",
      "ęęĚ ėęęĚ",
      "ęě ęĘęęęę",
      "ęė ęĚęęĚ",
      "ęęęęęęęę ęęęęĘ",
      "ĀĀĘ ĀĜ",
      "Ěęęė ę",
      "ęĘė ĘęęĘ",
      "ęĘě ĘęęĚ",
      "ęėĘ ęęęĘ",
      "Ę Ğ",
      "ĝ ęęĖ",
      "ęĚ ęĘęęęęĚ",
      "ęĚ ęėęęĘ",
      "ęĘ ęĚęęęęĚ",
      "ęě ğ",
      "ęė ėęęęę",
      "ęęęęęęęę ęęęęĚ",
      "Ěęęě ę",
      "ĀĀė Āĕ",
      "! Ě",
      "Ē ě",
      "ęė ęĚęęęę",
      "ęĚĘ ęęęė",
      "ęğ Ĝ",
      "ĀĀĕ ĀĚ",
      "ē ęęě",
      "ę $",
      "Ġ Ė",
      "ęĘ ĚęęĘ",
      "ęė ęęė",
      "ęĘĚ ęęęě",
      "ęĔ ě",
      "ęěĚ Ęęęęę",
      "ĀĀė ĀĜ",
      "! Ĝ",
      "! Ğ",
      "Ĕ ęęĝ",
      "Ĝ Ė",
      "ęĚ ęĘęęęęĘ",
      "ęĘ ğ",
      "ęęĘ ěęęĘ",
      "ęě ęĚęęĘ",
      "ęęė ęęęė",
      "ęęęĚ ęęě",
      "ęęęĚ ęęęęĘ",
      "ęęęĘ ęęęęĘ",
      "ĀĀĖ Āě",
      "ĀĀ\" Ā",
      "Ē Ĝ",
      "ė ęęĔ",
      "Ě ęęĔ",
      "ęĘ ē",
      "ęě ęĘęęĘ",
      "ęęĜ ęęęę",
      "ęęĚęęęĚ ęęęę",
      "ęĚęęęęĚ ę",
      "Ē ĝ",
      "ĕ Ĕ",
      "ĕ ğ",
      "ęĘ ĘęęĘ",
      "ęě ěęęęę",
      "ęęęĚ ęęė",
      "ęĘě ĚęęĚ",
      "ĀĀĖ ĀĖ",
      "ęėė ęęęĘ",
      "Āĝ Ě",
      "ĚęęęęĚ Ě",
      "đ Ę",
      "Ġ ĀĀ",
      "ęĘ ęě",
      "ęĚĚ ėęęęę",
      "ęėĘ ĚęęĘ",
      "ĝ ęęĜ",
      "Ġ ĕ",
      "ęĚĘ ęęęĘę",
      "ĘęęęęĚ Ě",
      "ęĘęęęęĚ ę",
      "đ Ė",
      "ě ĚęęĚ",
      "ě ęęĔ",
      "Ġ ęęĘ",
      "ęĚ ęęĜ",
      "ęė ęĘęęęę",
      "ęĖ Ğ",
      "ęĚęęęę ě",
      "ęĞ ęęęę",
      "ęěĚ ĘęęĚ",
      "Ęęęė ę",
      "ĀĀĚ Āĕ",
      "ęęęęęęęęęęęęęęęę ęęęęęęęęęęęęęęęę",
      "ĀĀĔ ĀĘ",
      "ē ęęĜ",
      "ęė ē",
      "ęęęęęęęę ęęĘ",
      "ęęě ęęĘ",
      "ęęě ęęęě",
      "ęĚęęęę ė",
      "ęĝ ęęĘ",
      "ęĚĘ ėęęĘ",
      "ęĘĚ ěęęĚ",
      "ęĔ ĕ",
      "ęğ Ę",
      "ĀĀĜ Āė",
      "ĀĀĕ ĀĖ",
      "ĀĀ$ Ā",
      "Ġ ęęĚ",
      "ęĘ ęėęęęę",
      "ęęęĚ ęęęęĚ",
      "ęĖ ęęė",
      "ęĘĘ ęęęĘę",
      "ĀĀě ĀĚ",
      "ęęęĘęęęę ę",
      "ĀĀĕ ĀĘ",
      "Ğ ě",
      "ęĘ ęěęęĘ",
      "Ęęęęę ė",
      "ęĜ ęęęęĘ",
      "ęĚĚ Ęęęě",
      "ęĚĘ ęęęĚ",
      "ęĘĚ ęęęĚę",
      "ĀĀė Āĝ",
      "ĀĀĖ ĀĜ",
      "ĀĀĜ ĀĘ",
      "ĀĀĜ Āě",
      "ęęęęęęęęęęęęęęęęęęęę ęę",
      "Ę ĘęęĘ",
      "ğ ęęĚ",
      "ęęęęęęęę Ěęęęę",
      "ęęě ę",
      "ęęĖ ęęęę",
      "ęĚė ęęęė",
      "ęėĚ ĘęęĚ",
      "ęęęĘęęęę ęęĚ",
      "ęęęĘęęęę ęęĘ",
      "ĀĀĝ ĀĘ",
      "Ē ē",
      "Ę ě",
      "ęĚ ē",
      "ęě ęĘęęĚ",
      "ęĘĚ ėęęĚ",
      "ęęę !",
      "ĀĀĘ Āĝ",
      "ęęęĚęęęę ę",
      "ęĚęęęęĘ ę",
      "đ ĕ",
      "Ė ĕ",
      "ė ěęęĘ",
      "ė ęęğ",
      "ě Ĕ",
      "ęĚ ęęĘę",
      "ęė ęĚęęĘ",
      "ęĘĘ ĘęęĚ",
      "ęĘĘ ěęęęę",
      "ęĘĘ Ěęęė",
      "ęĚĘ Ěęęė",
      "ęęę đ",
      "ĀĀĘ ĀĔ",
      "ĀĀę ĀĔ",
      "ęĚě ęęęě",
      "ęěĚ ęęęĘ",
      "ęěĘ ĚęęĘ",
      "ęğ ě",
      "ĀĀĜ ĀĚ",
      "ęĘęęęęĘ ę",
      "\" Ě",
      "ė Ěęęęę",
      "Ę ęę",
      "Ę ĚęęĘ",
      "ęĚ ęęĚę",
      "ĀĀ +",
      "ęĜ ğ",
      "ęĖ ęęęęĚ",
      "ęĚĚ ęęęĚę",
      "ęęĘęęęę ęęĚęęęę",
      "ĀĀ# Ā",
      "Ė ęęęĘ",
      "ė ęęęęĘĘ",
      "Ġ !",
      "ęęĚ ĚęęĘ",
      "ęęęĘ ęęęęĚ",
      "ęĜ ęęė",
      "ęĘęęęę ęęęĚ",
      "ęĘĚ ęęęĘ",
      "ěęęĘ ę",
      "ĀĞ Ě",
      "Ē ęęĚ",
      "Ĕ ęęĕ",
      "ė ęęęęĚĚ",
      "ğ ęęė",
      "ęĚ ęęęĚę",
      "ęĘ ęęĘę",
      "ęęĘ ėęęĘ",
      "ęęĘ ęęęĘę",
      "ęĜ ęęęęĚ",
      "ęĖ ęęęęĘ",
      "ęęĜ ęęęĚ",
      "ęĘęęęę ė",
      "ęĘęęęę ęęě",
      "ęĕ Ğ",
      "ęęęęęęęęęęęę ęĚęęęę",
      "ĀĀĜ ĀĖ",
      "Ğ ęęě",
      "Ġ ęęė",
      "ęĘ ęęĚę",
      "ęĘ ęęęęęęęęęęę",
      "ęęĚ ėęęęę",
      "ęĖ ęęě",
      "ęęęĖ ęęęę",
      "ęęęĚęęęę ęęĘ",
      "ĀĀĕ Āě",
      "ĀĀď Ā",
      "Đ Ě",
      "Ē ęęĘ",
      "ē Ğ",
      "Ė ęęĔ",
      "ė ęę",
      "ě ęęĞ",
      "ğ Ė",
      "ęĚ ęęĖ",
      "ęĚ ęėęęĚ",
      "ęęĚ ęęĚ",
      "ęęĘ Ěęęė",
      "ęęė ěęęĘ",
      "ĀĀę Āĝ",
      "ĀĀĝ Āě",
      "ē Ĕ",
      "ę Ď",
      "Ĝ ĕ",
      "Ĝ ęęĝ",
      "ĝ Ė",
      "ęĘ ęėęęĚ",
      "ęęĘ ĘęęĚ",
      "ęęė Ěęęė",
      "ęęĘęęęę ęęĘęęęę",
      "ęĚĜ ęęęĚ",
      "ĀĀĔ ĀĚ",
      "\" Ğ",
      "Ě ęęęęęęęę",
      "Ě ęęĞ",
      "ě ěęęĚ",
      "ęĚ ęĚęęęęĚ",
      "ęĘ ęęĜ",
      "ęĘ ęĘęęęęĘ",
      "ęęĚ ěęęęę",
      "ęęě Ęęęě",
      "ęĖ ğ",
      "ęĘęęęę ęęĚęęęę",
      "ęĕ ęęĚ",
      "ėęęęę ė",
      "ęęęęęęęęęęęę ęĚ",
      "ĀĀě ĀĜ",
      "ęē Ę",
      "ęęęĚęęęę ęęĚ",
      "Ē Ē",
      "ė ęęęęĚĘ",
      "ě ěęęęę",
      "ĀĀ -",
      "ęęęęęęęę Ęęęęę",
      "ęĘęęęę ęęęĘ",
      "ęĝ Ĕ",
      "ęĝ ęęĚ",
      "ęĚĘ ěęęĘ",
      "ĀĀĚ Āĝ",
      "ęěĘ Ęęęęę",
      "ęėĚ Ěęęęę",
      "ęěě ęęęĚ",
      "đ Ĝ",
      "Ē ęęęę",
      "ĕ ęę",
      "Ĝ ęęęĚ",
      "Ġ ęęě",
      "ęęĘ ěęęęę",
      "ĀĀ ,",
      "ęęĖ ęęęĘ",
      "ęĘĚ Ęęęě",
      "ęĘĚ Ěęęě",
      "ęĘė ěęęĘ",
      "ĀĀĚ ĀĔ",
      "ęęęĜ ęęęę",
      "ĀĀĖ Āĕ",
      "ĀĀĝ Āė",
      "ęĘęĚ ęęě",
      "ęęęęęęęęęęęęęęęęęęęęęęęę ę",
      "\" ĝ",
      "Đ ė",
      "Đ Ę",
      "Ē Ĕ",
      "ė ęęęęĘĚ",
      "Ę ęęęęęęęęęęę",
      "Ě Ğ",
      "Ě ĘęęĚ",
      "ğ ęęě",
      "ęĚ ęĚęęęęĘ",
      "ęĚ ęęęęęęęęęęęęę",
      "ęĘ ęęęęęęęęęęęęę",
      "ęęĚ ěęęĚ",
      "ęęĘ Ęęęė",
      "ęĕ Ĕ",
      "ęĚĚ ĚęęĘ",
      "ęĚĘ ėęęęę",
      "ęĘĚ ěęęęę",
      "ĀĀĘ Āē",
      "ęĘė ęęęė",
      "ęĘė Ěęęė",
      "ęėĘ ĚęęĚ",
      "ĀĀě Āĕ",
      "ĀĀě Āĝ",
      "ĀĀĞ ĀĘ",
      "! Ę",
      "ē ğ",
      "Ė ęęğ",
      "ė ėęęĘ",
      "ě ęęęęĘĚ",
      "Ĝ ĘęęĚ",
      "Ġ #",
      "ęė ğ",
      "ęĔ ĝ",
      "ĀĀĚ Āē",
      "ęěĘ ęęęė",
      "ęęęĜ ęęĘ",
      "ęěě ĘęęĚ",
      "ęěė ĘęęĘ",
      "ĀĀĝ ĀĖ",
      "đ ęęė",
      "Ē Ğ",
      "ĕ ęęęęĚ",
      "ė ęęęė",
      "Ġ \"",
      "ęĚ ęě",
      "ęęĘ ėęęęę",
      "ęė ęě",
      "ęė ęěęęĘ",
      "ęęě Ěęęęę",
      "ęĜ ē",
      "ęĜ Ěęęęę",
      "ęĚĚ ěęęęę",
      "ęĚĚ ĘęęęęĘ",
      "ęĚĘ Ęęęė",
      "ęĔ ęęęę",
      "ĀĀĘ ĀĞ",
      "ęĘě Ęęęě",
      "ęěĘ ėęęĘ",
      "ĀĀė ĀĞ",
      "ęğ ĝ",
      "ĀĀě ĀĔ",
      "ęęęĖ ęęĚ",
      "ęē Ě",
      "ĀĀĜ Āĕ",
      "ĀĀē ĀĘ",
      "đ Ĕ",
      "Ē Đ",
      "Ē ęęě",
      "ě ėęęĚ",
      "ě ęęęęĚĘ",
      "ęĘ ęĘęęęęĚ",
      "ęęė Ęęęęę",
      "ęĚęęęę ęęęĚ",
      "ęĕ ęęĘ",
      "ęĘĘ Ęęęė",
      "ęěĚ ėęęĚ",
      "ęĘě ęęęě",
      "ĀĜ Ě",
      "ĀĀĝ ĀĚ",
      "! ĀĀ",
      "\" Ĝ",
      "đ ğ",
      "ē ĕ",
      "ē ęęĖ",
      "Ė ĘęęĘ",
      "Ė ęęĚę",
      "Ę ęęğ",
      "ęĘ ęė",
      "ęě Ē",
      "ęě ęĚęęęę",
      "ęě ĘęęĚ",
      "ęė ęĘęęĚ",
      "ęęė ęęĚ",
      "ęęė Ěęęęę",
      "ęęě ėęęĚ",
      "ęĖ Ęęęęę",
      "ęĝ ğ",
      "ęĘĘ ĚęęĚ",
      "ęĚě Ęęęęę",
      "ęėĘ ęęęĚ",
      "ĀĀě Āē",
      "ęĘĖ ęęęĘ",
      "ĀĀĔ Āě",
      "ė Ĕ",
      "ė ğ",
      "ĝ ęęĕ",
      "ęĚ ęěęęęę",
      "ęė ęěęęĚ",
      "ęĖ ē",
      "ęĚĚ Ěęęě",
      "ęęĚęęęę ęęĚęęęę",
      "ęĚě Ęęęě",
      "ęěĚ ĚęęĚ",
      "ęěĚ ėęęęę",
      "ęĘě ěęęĚ",
      "ęėĘ ĘęęĘ",
      "ęěė ęęęĘ",
      "ęėě ęęęĚ",
      "ėĚ ęęĖ",
      "ęĘęĚ ęęė",
      "ęĘęĘ ęęě",
      "ĀĀ' Ā",
      "Ē đ",
      "Ę ęęęĚ",
      "Ě ęęęęęęęęęęę",
      "ě ęęęęĘĘ",
      "ě ęęęęĚĚ",
      "Ĝ ęęĔ",
      "Ĝ ęęĚę",
      "ĝ Ğ",
      "Ġ ę",
      "ęĘ ęęĖ",
      "ęĘ ęěęęĚ",
      "ęė ĚęęĘ",
      "Ěęęęę ė",
      "ęĜ ęęě",
      "ęĚĘ ĘęęĚ",
      "ęĞ ĕ",
      "ęĞ ğ",
      "ęĘě Ěęęě",
      "ęěě ĚęęĚ",
      "ĀĀĝ Āĕ",
      "ęĘĖ ĚęęĘ",
      "ĀĀĔ Āė",
      "ĀĀĞ Āė",
      "ĀĀ! ĀĘ",
      "ĀĀ% Ā",
      "ĕ ęęĞ",
      "Ė Ĕ",
      "ė ėęęęę",
      "ė ęęē",
      "ęě ęė",
      "ęě ęęęĚ",
      "ęě ęėęęęę",
      "ęě ęėęęĘ",
      "ęęė Ęęęė",
      "ęĜ ęĘęęĘ",
      "ęĘĘ ėęęĘ",
      "ęĚĘ ĚęęĚ",
      "ęĚĘ ĘęęęęĚ",
      "ęęęęęęęęęęęę ęĘęęęę",
      "ęĞ Ğ",
      "ĀĀę Āē",
      "ęĚě ėęęĚ",
      "ęěĚ Ěęęęę",
      "ęěĚ Ęęęě",
      "ęěęęęę ě",
      "ęęęĚęęęę ęę",
      "ęĚĖ ęęęĘ",
      "Ē ęęė",
      "Ę ęęęęęęęę",
      "ĝ ęęĝ",
      "ğ ĀĀ",
      "Ġ ęęĜ",
      "ęęęę ę",
      "ęĘ Ē",
      "ęĘ ęęęĘę",
      "ęęĚ ĘęęĘ",
      "ęė ěęęęę",
      "ęęęęęęęę ĚĚ",
      "ęęĖ ĘęęĘ",
      "ęĘęęęę ęęĘęęęę",
      "ęĕ ğ",
      "ęęęęĘ ęĚęęęę",
      "ęĘĚ ĘęęĘ",
      "ęĞ Ĕ",
      "ęĔ Ğ",
      "ĀĀĚ ĀĞ",
      "ęěĘ Ęęęė",
      "ęĚė Ęęęęę",
      "ęĚė Ěęęė",
      "ĀĀė Āē",
      "ęğ ė",
      "ĀĀĖ Āĝ",
      "ęęęĘęęęę ęę",
      "ęęĚęęęĚ ęęĘ",
      "ęěě ęęęě",
      "ęĘĜ ęęęě",
      "ĀĀĞ ĀĖ",
      "ęęęęĚĘ Ęęęęę",
      "ĕĚ ęęĕ",
      "Đ ĕ",
      "ē ęęĕ",
      "ĝ ė",
      "ęĘ Ėęęęę",
      "ęė ĘęęĘ",
      "ęė ęĘęęĘ",
      "ęęęęęęęę ĘĚ",
      "ęęė ęęĘ",
      "ęęęĘ ęęĚę",
      "ęěĚ ęęęě",
      "ĀĀĕ Āė",
      "ęĚĜ ĘęęĚ",
      "ĀĀē Āė",
      "ęĚęĚ ęęė",
      "! \"",
      "\" ğ",
      "Đ Ğ",
      "ę &",
      "ęĚ Ĝęęęę",
      "ęĚ ęĖęęęę",
      "ęě ē",
      "ęęęęęęęę ĘĘ",
      "ęęęĘ ęęęęęęęę",
      "ęęęĘ ęęĘę",
      "ęęĜ ęęęě",
      "ęęęęĘ ė",
      "ęĚĚ ĘęęĚę",
      "ęĚė Ęęęė",
      "ĀĀĖ ĀĞ",
      "ęėė ĚęęĘ",
      "ęē ě",
      "ĀĀĜ Āĝ",
      "ęėě Ěęęě",
      "ěĚ ęęĜ",
      "ęĘĖ ęęęė",
      "ęĖĚ ęęęĚ",
      "ęĜĘ ĘęęĘ",
      "ĀĀĞ ĀĚ",
      "ĀĀĞ Āě",
      "ĀĀĞ ĀĜ",
      "ęĒ Ę",
      "\" !",
      "Ė ğ",
      "Ę ęęē",
      "Ě ĕ",
      "ě ĀĀ",
      "Ġ Ĕ",
      "ęĚ ęěęęĘ",
      "ęęě ėęęě",
      "Ěęęęę ě",
      "ęĜ ęĘęęęę",
      "ęĖ Ěęęęę",
      "ęĚęęęę ęęĚęęęę",
      "ęęę Đ",
      "ęĘė ěęęė",
      "ĀĀė ĀĔ",
      "ęěě ėęęĚ",
      "ęėęęęę ě",
      "ęėě ĚęęĚ",
      "ĀĀĕ ĀĜ",
      "ĀĀĕ Āĕ",
      "ĀĀĔ ĀĜ",
      "ĀĀē ĀĚ",
      "Ē ęęĖ",
      "ē đ",
      "Ĕ ęę",
      "Ė ĚęęĘ",
      "ě ęęē",
      "Ğ ęęĜ",
      "Ġ ĀĘ",
      "ęęĚ ĖęęĚ",
      "ęęĘ ĚęęĚ",
      "ęě ėęęęę",
      "ęęė ėęęĘ",
      "ęęě Ęęęęę",
      "ęęĖ ęęęė",
      "ęĚęęęę ęęė",
      "ęĚĚ ĘęęęęĚ",
      "ęĚĘ ěęęęę",
      "ĀĀę ĀĞ",
      "ęĘė Ěęęęę",
      "ęěĚ ĚęęĘ",
      "ęěĚ ĘęęĘ",
      "ęěĘ ėęęęę",
      "ęĚė ėęęĘ",
      "ęėĚ ęęęě",
      "ęėė Ęęęęę",
      "ęėė ęęęė",
      "ęėęęęę ęęĚ",
      "ĀĀĜ ĀĞ",
      "ęěė ĚęęĘ",
      "ėęęė ę",
      "ĀĀĕ Āĝ",
      "ęĜĘ ęęęĘ",
      "ĀĀğ ĀĖ",
      "ĀĀĎ Ā",
      "ęęęęęęęęęĚ ę",
      "ĕ ęęĔ",
      "ė ę",
      "ė Ęęęė",
      "Ě ęę",
      "Ě ęęğ",
      "Ĝ ĚęęĚ",
      "ĝ ęęęęĘ",
      "ĝ ęęęęĚ",
      "Ğ ęęĖ",
      "ğ ęęĖ",
      "ęĚ ęęęęęęęęęęę",
      "ęęĚ Ěęęě",
      "ęęĘ ĘęęĘę",
      "ĀĀ .",
      "ĀĀ /",
      "ęė ęęęĘ",
      "Ěęęęę ęęĘęęęę",
      "ęęĜ ĘęęĚ",
      "ęęĜ ĚęęĚ",
      "ęęę \"",
      "ěęęęę ė",
      "Āě Ę",
      "ęĚė ěęęĘ",
      "ęėĚ ęęęĘ",
      "ęęęĜ ę",
      "ęėė ĘęęĘ",
      "ęėė ěęęĘ",
      "ęęĚęęęĚ ęęĚ",
      "ęěęęęę ęę",
      "ęěęęęę ęęĘ",
      "ěęęě ę",
      "ęėě ĘęęĚ",
      "ęĖĘ ęęęĘ",
      "ęĖĚ ĚęęĚ",
      "ęěĜ ęęęĚ",
      "ęĚęĘ ęęě",
      "ęęęęęęęęęĘ ę",
      "ĀĀ& Ā",
      "\" Ę",
      "ď Ě",
      "đ ęęĚ",
      "Ē ę",
      "ē ę",
      "Ė ęę",
      "Ę ęęęęęęęęęęęę",
      "Ĝ ěęęĚ",
      "ęęě Ěęęě",
      "ęęęė ęęě",
      "Ęęęě ę",
      "Āě Ě",
      "ĖĚ ęęĕ",
      "ĀĀ( Ā",
      "! !",
      "\" ě",
      "\" ĀĀ",
      "Đ Ė",
      "đ ē",
      "Ė ę",
      "Ę ėęęęę",
      "Ę ęęĒ",
      "Ě ęęęĚę",
      "ě ęęęě",
      "ě Ęęęě",
      "Ĝ ĀĀ",
      "Ĝ ęęĘę",
      "ęĚ Ėęęęę",
      "ęĘ ęĜ",
      "ęĘ ęėęęĘ",
      "ęęĚ ĘęęĚę",
      "ęęĘ ęęĚ",
      "ęė ęęĜ",
      "Ěęęęę ęęĚęęęę",
      "ęĜ Ęęęęę",
      "ęĘęęęę ęęė",
      "ęĚęęęę ęęęĘ",
      "ęĚęęęę ęęĘęęęę",
      "ęęęęĘ Ęęęęę",
      "ęĚĚ ęęęĜ",
      "ęĚĚ ĖęęĚ",
      "ęĘĚ ėęęęę",
      "ęĘĚ ĜęęĚ",
      "ęęęęęęęęęęęę ęĘ",
      "ęĔ Ĕ",
      "ęĔ ğ",
      "ęĘě ėęęĚ",
      "ęėĚ Ęęęęę",
      "ęğ ęęęę",
      "ęęęęęęęęęęęęęęęę ęęęęęęęęęęę",
      "ĚęęęęĘ Ęęęęę",
      "ĀĀĜ ĀĜ",
      "ĀĀĜ ĀĔ",
      "ĀĀĜ Āē",
      "ěĚ ĘęęĚ",
      "ęęęęĘĘ Ěęęęę",
      "ĀĀğ ĀĚ",
      "ęęęęĘĚ Ěęęęę",
      "ĀĀĒ Āė",
      "ęĚęĘ ęęė",
      "ĀĀĐ ĀĘ",
      "# Ğ",
      "Ē ęęĜ",
      "Ĕ ĕ",
      "Ė ěęęĘ",
      "Ė ęęĘę",
      "ě ęĘęęęę",
      "Ġ ē",
      "ęęęę ęęĚę",
      "ęĚ ęęĝ",
      "ęĚ ėęęĚ",
      "ĀĀ ć",
      "ęęęęęęęę ęęĘęęęę",
      "Ęęęęę ęęĚęęęę",
      "ęęęĘ ęęĖ",
      "ęęĖ ĚęęĘ",
      "ęĘęęęę ĚęęĚ",
      "ęĘĘ ėęęęę",
      "ęĘĚ ĚęęĘ",
      "ęĚě ěęęĚ",
      "ęĘě Ěęęęę",
      "ęğ Ė",
      "ęğ Ğ",
      "ęęęĜ ęęĚ",
      "ęėė Ěęęęę",
      "ęėė Ěęęė",
      "ęĚĜ ęęęě",
      "ĀĀĝ ĀĜ",
      "ĀĀĝ Āē",
      "ęĜĚ ĘęęĚ",
      "ęĘĖ ĘęęĘ",
      "ęĘĜ Ęęęě",
      "ėě ęęĖ",
      "ĀĀğ ĀĘ",
      "ęĘęĚ ęęĚę",
      "Đ Ĝ",
      "Đ ĝ",
      "đ đ",
      "Ē ğ",
      "Ė ē",
      "Ė ęęęęĘĘ",
      "ė ĖęęĘ",
      "Ę ęęęĘę",
      "Ĝ ē",
      "Ĝ ęęğ",
      "ęęęę ęęĘę",
      "ęĚ ĚęęęęĚ",
      "ęĚ ęęęęęęęęęęęęęęęęęęęę",
      "ęĘ ęĜęęęę",
      "ęęĘ ĚęęęęĚ",
      "ęě ĚęęĚ",
      "ęė ęėęęęę",
      "ęęęęęęęę ęęĚęęęę",
      "ęęě ěęęĚ",
      "ęęęĚ ęęęęęęęę",
      "ęĜ ěęęęę",
      "ęĕ ē",
      "ęęęęĘ ę",
      "ęĚĚ ěęęĚ",
      "ęĚĚ ėęęě",
      "ęęęęĚ ę",
      "ęĘĘ ĜęęĘ",
      "ęĘĚ ěęęĘ",
      "ęęę #",
      "ĀĀě ĀĞ",
      "ęęęĖ ę",
      "ĀĀĖ ĀĔ",
      "ęěě Ęęęęę",
      "ęĚĜ ėęęĚ",
      "ęěĜ ĘęęĚ",
      "ĀĀđ ĀĜ",
      "ęĘęĚ ęęĘę",
      "ĕĘ ęęĕ",
      "! ė",
      "# ğ",
      "$ ĝ",
      "Đ ě",
      "đ ĝ",
      "ĕ ęęęęĘ",
      "ė ęĚęęęę",
      "Ě ėęęĚ",
      "ě ěęęě",
      "Ĝ Ĕ",
      "Ĝ Ęęęě",
      "Ğ ĀĀ",
      "ęĚ ęĖęęĚ",
      "ęęĚ ęęęęęęęęęęęę",
      "ęęĚ ĚęęĚę",
      "ĀĀ ą",
      "ęě ęĚęęĚ",
      "ęęė ĘęęĚ",
      "Ęęęęę ęęĘęęęę",
      "Ěęęęę ęęě",
      "ęęęĚ ęęĚę",
      "ęĕ ęęě",
      "ęĚĘ ĘęęĘę",
      "ęĘĚ ĘęęęęĚ",
      "ęėĚ ěęęęę",
      "ęėĘ ĘęęĚ",
      "ęėĘ ěęęĘ",
      "ęğ ĕ",
      "ěęęė ę",
      "ęęĚęęęĚ ęęęęęęęę",
      "ęěě Ęęęě",
      "ęē ė",
      "ĀĀĔ ĀĖ",
      "ęėĖ ęęęĘ",
      "ĀĀğ Āě",
      "ĀĀĒ ĀĘ",
      "ĀĀĒ ĀĖ",
      "đ Ē",
      "Ĕ ęęĔ",
      "ĕ ęęē",
      "Ė ęęē",
      "Ę ěęęęę",
      "ě ęęğ",
      "Ĝ Ěęęě",
      "Ġ $",
      "ęĚ ęĖ",
      "ęĚ ęĔ",
      "ęęĚ ĘęęęęĘ",
      "ęęĚ ĚęęęęĚ",
      "ęęĘ ęęęęęęęęęęęę",
      "ęęė ěęęė",
      "Ěęęęę ęęęĘ",
      "ęęęĚ ęęęęĘĘ",
      "ęĖ Ē",
      "ęĖ ęĚęęęę",
      "ęĖ ėęęęę",
      "ęęĜ ęęĘ",
      "ęęĜ Ęęęě",
      "ęĚĚ ėęęĘ",
      "ęęęęĚ ęĘęęęę",
      "ęĘĘ ěęęĚ",
      "ęĘĘ ĘęęęęĘ",
      "ęĚĘ ĜęęĘ",
      "ęĘĚ ĘęęĚę",
      "ęĔ ē",
      "ęĚě Ěęęęę",
      "ęěĘ Ěęęęę",
      "ęěĘ ĘęęĚ",
      "ęĚė ėęęė",
      "ęėĚ Ěęęě",
      "ęěęęęę ęęĚ",
      "ĚęęęęĘ ęĚęęęę",
      "ęėě ęęęě",
      "ěĚ Ęęęęę",
      "ěĚ ęęęĚ",
      "ĀĀĝ ĀĞ",
      "ĀĀĝ ĀĔ",
      "ęĘĜ ęęęĚ",
      "ęĚĖ ęęęė",
      "ĀĀĔ Āĝ",
      "ęĒ Ė",
      "ęęĘęęęĘ ęęęęęęęę",
      "ęęęĘęęĘ ĚęęĘ",
      "ęĜė Ęęęė",
      "Đ ğ",
      "Ĕ ęęĞ",
      "ĕ ęęğ",
      "Ė Ē",
      "Ę ěęęĘ",
      "Ę ėęęĘ",
      "ě ę",
      "ě ĖęęĚ",
      "Ĝ ğ",
      "Ĝ ęęęě",
      "Ĝ ęęĞ",
      "Ġ Āě",
      "ęĚ ĘęęęęĚ",
      "ęĚ ęěęęĚ",
      "ęĚ ęĜęęĘ",
      "ęĘ ęĜęęĚ",
      "ęęĚ ęęęęęęęę",
      "ęęĘ ĜęęĘ",
      "ęě ęėęęĚ",
      "ęė ęęĖ",
      "ęĘęęęę ĚęęĘ",
      "ęĘęęęę ĘęęĘ",
      "ęĚęęęę ĘęęĘ",
      "ęĘĘ ęęęęęęęęęęęę",
      "ęęĚęęęę ęęĘęęęę",
      "ęĘě ěęęęę",
      "ęĚė ĖęęĘ",
      "ęėĘ Ęęęęę",
      "ĀĀĖ Āē",
      "ęěęęęę ė",
      "ęėęęęę ęę",
      "ęěė ėęęĘ",
      "ęĜĚ ęęęĚ",
      "ęĘĖ Ěęęė",
      "ęĘĜ ĚęęĚ",
      "ęĖĘ Ěęęęę",
      "ĀĀĔ ĀĞ",
      "ěĘ ęęĝ",
      "ĀĀĞ Āĕ",
      "ĀĀğ Āė",
      "ĀĀğ ĀĜ",
      "ĀĀē ĀĜ",
      "ĀĀĒ Āě",
      "ęĚęĚ ęęě",
      "ęĘęĘ ęęė",
      "ęęęęęęęęęęęęęęęęęęęęęęęę ęę",
      "# !",
      "Đ ē",
      "đ Ğ",
      "đ ęęĘ",
      "ē ęęĝ",
      "Ė ęęęė",
      "Ė Ěęęė",
      "ė ęęęĚ",
      "ė ęęęĖ",
      "Ě ğ",
      "Ě ęęęęęęęęęęęę",
      "ě ęę",
      "ě Ěęęě",
      "ĝ ęęĔ",
      "Ğ ęęĕ",
      "ğ Ĕ",
      "Ġ ĀĚ",
      "ęę &",
      "ęĚ ęęĕ",
      "ęęĘ ĖęęĘ",
      "ęě Ĝęęęę",
      "ęě ęĖęęĚ",
      "ęęė ęęęĚ",
      "ęęė ĖęęĘ",
      "Ěęęęę ęęęĚ",
      "ęęęĚ ęęĘę",
      "ęĚĚ ęęęė",
      "ęĘĘ ėęęĚ",
      "ęĚĘ ėęęĚ",
      "ęĚĘ ěęęė",
      "ęĘĚ ėęęě",
      "ęĘĚ ĘęęĜ",
      "ęęęě ęęě",
      "ęĚě ĖęęĚ",
      "ęěĘ ęęęĚ",
      "ęėĚ ěęęĚ",
      "ęėĚ ĜęęĚ",
      "ęğ ğ",
      "ęėė Ęęęė",
      "ĘęęęęĚ ė",
      "ėĚ Ěęęęę",
      "ęĜĚ ĘęęĘ",
      "ęĖĘ ĚęęĘ",
      "ęĚĖ ĘęęĘ",
      "ęěĜ ęęęě",
      "ęĒ ė",
      "ęėĖ ĚęęĘ",
      "ĀĀē Āĕ",
      "ęĖė ęęęĘ",
      "ęĚęĘ ęęĖ",
      "ĀĀ) Ā",
      "\" \"",
      "\" ė",
      "$ Ę",
      "Đ ęęĖ",
      "ĕ ď",
      "ė !",
      "ė ĘęęĚ",
      "ę %",
      "Ě ęęęĘ",
      "Ě Ęęęě",
      "ě !",
      "ě ėęęě",
      "ě ęęęĚę",
      "ĝ Ěęęě",
      "Ġ Āė",
      "Ġ ĀĀęĀ",
      "ęęęę ęęě",
      "ęĚ ĚęęĘ",
      "ęĘ ĘęęęęĘ",
      "ęĘ ęĖęęęę",
      "ęęĚ ęęęĜ",
      "ęęĘ ěęęė",
      "ęęĘ Ėęęęę",
      "ęė Ē",
      "ęė Ėęęęę",
      "ęĖ ęě",
      "ęĖ ęĚęęĘ",
      "ęęĖ Ęęęė",
      "ęĚęęęę ęęě",
      "ęĕ Ē",
      "ęĕ ęęĜ",
      "ęęęęĚ ęĚęęęę",
      "ęĘĘ ęęęě",
      "ęĘĘ ęęęĖ",
      "ęĘĘ ĚęęĘę",
      "ęĚĘ ĚęęęęĚ",
      "ęĘĚ ěęęě",
      "ęĞ ęęĘ",
      "ęĘė Ęęęė",
      "ęĘė Ĝęęė",
      "ęěĘ ěęęĘ",
      "ęěĘ Ěęęė",
      "ęėĚ ėęęĚ",
      "ęėĚ ěęęě",
      "ęğ Ĕ",
      "ęėė ěęęė",
      "ęėęęęę ė",
      "ęē ĕ",
      "ęěė ęęęė",
      "ěĚ ęęĝ",
      "ęĚĜ Ęęęě",
      "ęĖĘ ĚęęĚ",
      "ėĘ Ěęęęę",
      "ėĘ ęęęĘ",
      "ěĘ Ęęęęę",
      "ěě ęęĜ",
      "ĚęęĜ ę",
      "ęėĖ ěęęĘ",
      "ęĜě ęęęĚ",
      "ęęęęĚĚ ĘęęĚ",
      "ęěĖ ęęęė",
      "ĀĀĒ Āĕ",
      "ęĖě ęęęĚ",
      "ĖĘ ęęĕ",
      "ĀĀ! ĀĚ",
      "ęĚęĘ ęęĘę",
      "ĀĀ$ ĀĘ",
      "ęĘėęęęę ę",
      "! Ė",
      "\" #",
      "# Ě",
      "# ě",
      "ď Ė",
      "Đ Ē",
      "đ ęęě",
      "ĕ Ěęęė",
      "ĕ ęęĚę",
      "Ě ěęęĚ",
      "ě ĘęęĘ",
      "Ĝ ėęęĚ",
      "Ĝ ęęē",
      "Ĝ ĘęęĜ",
      "ĝ ğ",
      "ĝ ĀĀ",
      "ğ ē",
      "Ġ ęęĖ",
      "Ġ ęęĝ",
      "Ġ ĀĖ",
      "ęęęę ęęė",
      "ęĚ Ē",
      "ęĘ !",
      "ęĘ ęęęęęęęęęęęĚ",
      "ęĘ ęĜęęĘ",
      "ęęĚ Ěęęė",
      "ęęĘ ĘęęęęĘ",
      "ęė ęěęęęę",
      "ęė ęĚęęęęĘ",
      "ęęęęęęęę Ěęęęęęę",
      "ęęęęęęęę Ęęęęęęę",
      "ęęė ęęęĘę",
      "ęęė ĚęęĘę",
      "ęęě ěęęęę",
      "ęĜ !",
      "ęĚęęęę ęęĘęęęęęę",
      "ęĝ ē",
      "ęĝ ęęě",
      "ęĝ ęęęęĚ",
      "ęĕ ęęė",
      "ęĚĚ ęęęęęęęęęęęę",
      "ęĘĘ ěęęė",
      "ęĘĘ ĘęęęęĚ",
      "ęĘĘ Ĝęęęę",
      "ęęĕ ęęęĘ",
      "ęĘĚ Ĝęęęę",
      "ęĘĚ ĚęęĚę",
      "ėęęęę ě",
      "ęĚě ėęęě",
      "ęĘě ĜęęĚ",
      "ęęęĘęęęę ęęĚę",
      "Āĝ Ę",
      "ęėęęęę ęęĘ",
      "ęē Ė",
      "ęėě Ěęęęę",
      "ĘęęĜ ę",
      "ęĘĜ ĘęęĚ",
      "ęĚĖ ĚęęĘ",
      "ęĚĖ Ęęęė",
      "ęęęĕ ęęĚ",
      "ĀĀē ĀĖ",
      "ęĜė ęęęĘ",
      "ĜĘ ęęĝ",
      "ĀĀ! Āė",
      "ęĚęĘ ęęĚę",
      "ĝĚ ęęĞ",
      "ĀĀĐ Āě",
      "ĀĀď ĀĘ",
      "ĀĀď Āė",
      "ĀĀ% ĀĜ",
      "Ď Ě",
      "Ĕ Ĕ",
      "Ĕ ęęęęĘ",
      "Ę ęę!",
      "Ę ęęęęęęęęęęęĘ",
      "Ě ěęęęę",
      "ě Ĝęęě",
      "Ĝ ėęęě",
      "Ĝ ěęęě",
      "Ğ ęęĝ",
      "ğ ĕ",
      "ęĚ ĘęęęęĘ",
      "ęĚ ęęęęęęęęęęęĚ",
      "ęęĚ ěęęĘ",
      "ęęĚ ĘęęęęĚ",
      "ęęĚ ĚęęęęĘ",
      "ęęĘ ĘęęęęĚ",
      "ĀĀ Ĉ",
      "ęě !",
      "ęě Ěęęęęę",
      "ęė ęĚęęě",
      "ęęęęęęęę ęĚęęęęę",
      "Ęęęęę ě",
      "ęĜ Ē",
      "ęęĖ Ěęęė",
      "ęęĜ ėęęĚ",
      "ęĚĚ ĚęęęęĘ",
      "ęĚĚ ĚęęĚę",
      "ęęęęĚ Ěęęęę",
      "ęęęě ęęė",
      "ėęęęę ėĘ",
      "ęĔ ęęĚ",
      "ęĘė ęęĘ",
      "ęĘė Ęęęęę",
      "ęĘė ęęęĖ",
      "ęėĘ ęęęė",
      "ęėĘ ěęęęę",
      "ęęęęęęęęęęęęęęęę ęęęęęęęęęęęęę",
      "ĘęęęęĘ ę",
      "ĚęęęęĚ Ěęęęę",
      "ęē ĝ",
      "ęėě Ęęęě",
      "ęėě ěęęĚ",
      "ĀĀĕ ĀĞ",
      "ėĚ ĚęęĚ",
      "ĀĔ Ę",
      "ęĘĜ ėęęĚ",
      "ęĖĘ ęęęĚ",
      "ęĖĘ ĘęęĘ",
      "ęĜĘ ęęęė",
      "ěĘ ęęęĘ",
      "ěě ęęĝ",
      "ęęęęĘĘ ĚęęĘ",
      "ęėĖ ĘęęĘ",
      "ĀĀğ Āĕ",
      "ęęęęĘĚ ĘęęĚ",
      "ĜĚ ęęĝ",
      "ęĖě ĘęęĚ",
      "ĝĚ ęęĝ",
      "ęĘęĘ ęęĚę",
      "ęėęęęęĚ ę",
      "ĀĀĎ Āě",
      "ĞĚ ęęĞ",
      "ęěęĘ ęęė",
      "! ęęĘ",
      "# ĝ",
      "Đ ęęęę",
      "Đ ęęĘ",
      "đ ęęęę",
      "ē ęęĔ",
      "ĕ ęęęė",
      "Ė ėęęĘ",
      "Ė ěęęė",
      "Ė ĖęęĘ",
      "ė ęĜ",
      "Ę ğ",
      "ę ĀĀĘĀ",
      "Ě ęęĒ",
      "ĝ ĘęęĚ",
      "ğ ęęĜ",
      "Ġ ęęęĜ",
      "ęęęę ęęĖ",
      "ęĚ ęėęęě",
      "ęĘ ęĖ",
      "ęęĚ ėęęě",
      "ęęĚ ěęęě",
      "ęęĘ ĚęęęęĘ",
      "ęęĘ ĚęęĘę",
      "ęě ęĘęęęęĘ",
      "ęě ęĚęęė",
      "ęė ęĜęęĚ",
      "ęęė ęęęęĘ",
      "ęęė Ĝęęė",
      "ęęě ĖęęĚ",
      "ęĜ ėęęęę",
      "ęęĖ ę",
      "ęęĜ Ěęęě",
      "ęĚęęęę ęęęĚęęęę",
      "ęĚĚ ěęęĘ",
      "ęĚĚ ĜęęĚ",
      "ęĘĘ Ěęęě",
      "ęĚĘ ęęęĘęęĘ",
      "ęĘĚ ęęęęęęęęęęęę",
      "ęĘĚ ĖęęĚ",
      "ęĘĚ ĚęęęęĚ",
      "ęęę ď",
      "ėęęęę ęęĘ",
      "ęęĔ ę",
      "ęĚě ěęęě",
      "ęĘė ĜęęĘ",
      "ęĘě ěęęě",
      "ęĚė ěęęė",
      "ęėĘ Ěęęė",
      "ęėĘ ĜęęĘ",
      "ĘęęęęĚ ę",
      "ĘęęęęĘ ęĘęęęę",
      "ęěě ęęęĘ",
      "Ĝęęęę ė",
      "Ėęęęę ė",
      "ĚęęęęĘ ę",
      "ęĜĚ ĚęęĚ",
      "ęĜĚ Ęęęě",
      "ęĘĖ ęęęĖ",
      "ęĘĖ ěęęė",
      "ęĘĜ Ěęęě",
      "ęĚĖ ěęęė",
      "ĀĀĔ Āĕ",
      "ęĖĚ ĘęęĚ",
      "ęęęęĘĘ Ęęęęę",
      "ęęęęĘĚ ěęęęę",
      "ęęęęĚĚ Ěęęęę",
      "ęěĖ Ěęęė",
      "ęĜĜ ėęęĚ",
      "ĀĀđ ĀĘ",
      "ęĜęęęę ė",
      "ĜĜ ęęĜ",
      "ĀĀ\" ĀĘ",
      "ęĚęĚ ęęĘę",
      "ęěęęęęĘ ę",
      "Ĕě ęęĕ",
      "ğĘ ęęğ",
      "# Ę",
      "Ď Ė",
      "ď ĕ",
      "ē Ē",
      "ē ē",
      "Ĕ ęęęė",
      "Ė Ęęęė",
      "Ė ęę!",
      "ė ęę!",
      "Ę Ěęęė",
      "Ě ęęęě",
      "Ě ęęē",
      "Ě ęę!",
      "ě ĜęęĚ",
      "ě ęęĒ",
      "Ĝ ęęęęĚĘ",
      "ĝ Ĕ",
      "ĝ ĕ",
      "ĝ Ęęęě",
      "Ğ !",
      "Ġ ď",
      "ęĚ !",
      "ęĚ ęĜ",
      "ęĚ ęėęęęęĘ",
      "ęĚ ęěęęė",
      "ęĘ Ĝęęęę",
      "ęęĚ Ĝęęęę",
      "ęęĘ ęęęęĚ",
      "ęęĘ ĚęęĖ",
      "ĀĀ Ą",
      "ęě ęě",
      "ęė ęĜ",
      "ęė ęĘęęęęĚ",
      "ęė ęĚęęęęĚ",
      "ęė ęėęęĚ",
      "ęė Ęęęęęę",
      "ęęęęęęęę ĚĘ",
      "ęęě ĚęęĘ",
      "ęęě ĜęęĚ",
      "ęęęĚ ęęęęęęęęęęę",
      "ęęęĘ ęęĜ",
      "ęęęĘ ęęęęęęęęęęę",
      "ęĜ ĚęęĚ",
      "ęĜ ęėęęęę",
      "ęĜ ęėęęĘ",
      "ęęĖ ėęęĘ",
      "ęęĖ ėęęė",
      "ęęĜ ėęęě",
      "ęĕ ęęęęĘ",
      "ęĘĘ ĚęęęęĘ",
      "ęĚĘ ęęęě",
      "ęĚĘ Ęęęě",
      "ęĚĘ ėęęė",
      "ęęĕ ęęęę",
      "ęĘĚ ęęęė",
      "ėęęęę ęęĚ",
      "ęĔ Ē",
      "ęĔ ęęĘ",
      "ęęĔ ęĜ"
    ]
  }
}