{
  "version": "1.0",
  "truncation": null,
  "padding": null,
  "added_tokens": [],
  "normalizer": null,
  "pre_tokenizer": {
    "type": "ByteLevel",
    "add_prefix_space": false,
    "trim_offsets": true,
    "use_regex": true
  },
  "post_processor": {
    "type": "ByteLevel",
    "add_prefix_space": true,
    "trim_offsets": false,
    "use_regex": true
  },
  "decoder": {
    "type": "ByteLevel",
    "add_prefix_space": true,
    "trim_offsets": true,
    "use_regex": true
  },
  "model": {
    "type": "BPE",
    "dropout": null,
    "unk_token": null,
    "continuing_subword_prefix": null,
    "end_of_word_suffix": null,
    "fuse_unk": false,
    "byte_fallback": false,
    "ignore_merges": false,
    "vocab": {
      "\u0000": 0,
      "\u0001": 1,
      "\u0002": 2,
      "\u0003": 3,
      "\u0004": 4,
      "\u0005": 5,
      "\u0006": 6,
      "\u0007": 7,
      "\b": 8,
      "\t": 9,
      "\n": 10,
      "\u000b": 11,
      "\f": 12,
      "\r": 13,
      "\u000e": 14,
      "\u000f": 15,
      "\u0010": 16,
      "\u0011": 17,
      "\u0012": 18,
      "\u0013": 19,
      "\u0014": 20,
      "\u0015": 21,
      "\u0016": 22,
      "\u0017": 23,
      "\u0018": 24,
      "\u0019": 25,
      "\u001a": 26,
      "\u001b": 27,
      "\u001c": 28,
      "\u001d": 29,
      "\u001e": 30,
      "\u001f": 31,
      " ": 32,
      "!": 33,
      "\"": 34,
      "#": 35,
      "$": 36,
      "%": 37,
      "&": 38,
      "'": 39,
      "(": 40,
      ")": 41,
      "*": 42,
      "+": 43,
      ",": 44,
      "-": 45,
      ".": 46,
      "/": 47,
      "0": 48,
      "1": 49,
      "2": 50,
      "3": 51,
      "4": 52,
      "5": 53,
      "6": 54,
      "7": 55,
      "8": 56,
      "9": 57,
      ":": 58,
      ";": 59,
      "<": 60,
      "=": 61,
      ">": 62,
      "?": 63,
      "@": 64,
      "A": 65,
      "B": 66,
      "C": 67,
      "D": 68,
      "E": 69,
      "F": 70,
      "G": 71,
      "H": 72,
      "I": 73,
      "J": 74,
      "K": 75,
      "L": 76,
      "Ā": 77,
      "ă": 78,
      "Ą": 79,
      "ą": 80,
      "Ć": 81,
      "ć": 82,
      "Ĉ": 83,
      "ĉ": 84,
      "Ċ": 85,
      "ċ": 86,
      "Č": 87,
      "č": 88,
      "Ď": 89,
      "ď": 90,
      "Đ": 91,
      "đ": 92,
      "Ē": 93,
      "ē": 94,
      "Ĕ": 95,
      "ĕ": 96,
      "Ė": 97,
      "ė": 98,
      "Ę": 99,
      "ę": 100,
      "Ě": 101,
      "ě": 102,
      "Ĝ": 103,
      "ĝ": 104,
      "Ğ": 105,
      "ğ": 106,
      "Ġ": 107,
      "&&": 108,
      "&&&&": 109,
      "&'": 110,
      "&%": 111,
      "&&%": 112,
      "&&'": 113,
      "ĀĀ": 114,
      "&(": 115,
      "&$": 116,
      "&&(": 117,
      "&&$": 118,
      "&#": 119,
      "&)": 120,
      "&&#": 121,
      "&&)": 122,
      "%&&&&": 123,
      "'&&&&": 124,
      "&&&'": 125,
      "&*": 126,
      "&&&%": 127,
      "&\"": 128,
      "&&\"": 129,
      "&&*": 130,
      "&+": 131,
      "&!": 132,
      "&&&&'": 133,
      "&&&&%": 134,
      "&&'&": 135,
      "&&%&": 136,
      "&&'&'": 137,
      "%&&": 138,
      "&&%&'": 139,
      "&&&&&&&&": 140,
      "'&&": 141,
      "&&%&%": 142,
      "&&'&%": 143,
      "$&&": 144,
      "(&&": 145,
      "$&&&&": 146,
      "&,": 147,
      "''": 148,
      "#&&": 149,
      "%'": 150,
      "%%": 151,
      "&%&&&&": 152,
      "'%": 153,
      "&'&&&&": 154,
      "(&&&&": 155,
      ")&&": 156,
      "\"&&": 157,
      "&&%&(": 158,
      "&-": 159,
      "('": 160,
      "&&$&'": 161,
      "&&'&(": 162,
      "$'": 163,
      "&&'&$": 164,
      "(%": 165,
      "&&(&": 166,
      "!&&": 167,
      "$%": 168,
      "&&(&%": 169,
      "&&%&$": 170,
      "&&$&%": 171,
      "&&(&'": 172,
      "%$": 173,
      "'(": 174,
      "&&$&": 175,
      "'$": 176,
      "%(": 177,
      "*&&": 178,
      "#&&&&": 179,
      "Ġ&&": 180,
      "+&&": 181,
      "%&&&%": 182,
      "'&&&'": 183,
      "&ğ": 184,
      "&&%&&&&": 185,
      "&$&&&&": 186,
      "%Ā": 187,
      "ĀĀ%Ā": 188,
      "$$": 189,
      "&Ā": 190,
      "ĀĀ&Ā": 191,
      "((": 192,
      "&&'&&&&": 193,
      "''&&&&": 194,
      ")&&&&": 195,
      "&&&(": 196,
      "($": 197,
      "'%&&&&": 198,
      "%%&&&&": 199,
      "&&(&$": 200,
      "Ā)": 201,
      "&&%&)": 202,
      "ĀĀ$": 203,
      "&.": 204,
      "ĀĀ'": 205,
      "&&$&(": 206,
      "#'": 207,
      "$(": 208,
      "ĀĀ(": 209,
      "&&(&(": 210,
      "Ā*": 211,
      "&&&$": 212,
      "&&+": 213,
      "&&)&%": 214,
      "&&%&#": 215,
      "&&#&'": 216,
      "%)": 217,
      "%'&&&&": 218,
      "ĀĀ#": 219,
      "Ā(": 220,
      "&&!": 221,
      "&&$&$": 222,
      "%#": 223,
      "&&'&#": 224,
      "&&'&)": 225,
      ")'": 226,
      "ĀĀ)": 227,
      "&&)&'": 228,
      "&&&": 229,
      "#%": 230,
      "ĀĀ\"": 231,
      "&&&'&": 232,
      "&(&&&&": 233,
      "ĀĀ'Ā": 234,
      ")%": 235,
      "ĀĀ$Ā": 236,
      "'#": 237,
      "&&&%&": 238,
      "&&#&%": 239,
      "ĀĀ(Ā": 240,
      "'\"": 241,
      "ĀĀ)Ā": 242,
      "#$": 243,
      "ĀĀ!": 244,
      "')": 245,
      "&&'&&%": 246,
      "ĀĀ#Ā": 247,
      ")(": 248,
      "%\"": 249,
      "&&%&&%": 250,
      "&Ğ": 251,
      "&&%&&'": 252,
      "&&'&&'": 253,
      "&&)&$": 254,
      "ĀĀ*": 255,
      "&&#&(": 256,
      ")$": 257,
      "ĀĀ\"Ā": 258,
      "ğ&&": 259,
      "%*": 260,
      "&&$&)": 261,
      "$#": 262,
      "&&#&": 263,
      "&&%&*": 264,
      "&&)&": 265,
      "&&'&\"": 266,
      "ĀĀ!Ā": 267,
      "&&,": 268,
      "ĀĀ+": 269,
      "ĀĀğ": 270,
      "&&(&#": 271,
      "ĀĀ*Ā": 272,
      "#(": 273,
      "$)": 274,
      "-&&": 275,
      "'*": 276,
      "(\"": 277,
      "*%": 278,
      "&&&%&'": 279,
      "(#": 280,
      "&&&'&&&&": 281,
      "&ĝ": 282,
      "&&&#": 283,
      "ĀĀ,": 284,
      "&&)&(": 285,
      "\"$": 286,
      "'&&&&&": 287,
      "&/": 288,
      "##": 289,
      "(&&&'": 290,
      "&&\"&'": 291,
      "\"%": 292,
      "\"'": 293,
      "*'": 294,
      "&&&)": 295,
      "ĀĀ-": 296,
      "ĀĀğĀ": 297,
      "&&#&$": 298,
      "&&&&&&&&&&&&": 299,
      "&&%&&&%": 300,
      "&&%&\"": 301,
      "&&*&%": 302,
      "ĀĀ+Ā": 303,
      "%&&&&&": 304,
      "*$": 305,
      "&&\"&%": 306,
      ",&&": 307,
      "&&'&*": 308,
      "&&#&)": 309,
      "&&)&#": 310,
      "ĀĀ,Ā": 311,
      "$\"": 312,
      "%!": 313,
      "ĠĀ": 314,
      "ĀĀ/": 315,
      "&&*&'": 316,
      "(*": 317,
      "&&(&)": 318,
      "()": 319,
      "&&$&#": 320,
      "$*": 321,
      "#)": 322,
      "$%&&&&": 323,
      "'!": 324,
      ")#": 325,
      "&&#&*": 326,
      "&&\"&(": 327,
      "'&&&(": 328,
      "&&ğ": 329,
      "$&&&%": 330,
      "&Ĝ": 331,
      "ĀĀ-Ā": 332,
      "!%": 333,
      "&&&&(": 334,
      "ĀĀĞ": 335,
      "&&*&$": 336,
      "#\"": 337,
      "%&&&$": 338,
      "(&&&(": 339,
      "ĀĀ/Ā": 340,
      "\"(": 341,
      "%&&&'": 342,
      "ĀĀĜ": 343,
      "&&(&\"": 344,
      "))": 345,
      "&&-": 346,
      "&&%&&$": 347,
      "&&(&&'": 348,
      "&&(&*": 349,
      "&&(&&&&": 350,
      "&&*&(": 351,
      "Ġ(": 352,
      "&&&&$": 353,
      "ĀĀĝ": 354,
      "*(": 355,
      "&'&&&&'": 356,
      "'+": 357,
      "&&Ğ": 358,
      "&'&&&&%": 359,
      "&&$&*": 360,
      "Ā,": 361,
      "&'%&&&&": 362,
      "&&$&\"": 363,
      "$&&&$": 364,
      "&&%&+": 365,
      "&&'&+": 366,
      "(+": 367,
      "+#": 368,
      "ĀĀě": 369,
      "%$&&&&": 370,
      "*\"": 371,
      "&&$&&'": 372,
      "&&)&)": 373,
      "'&&&&&%": 374,
      "&&'&&(": 375,
      "&&\"&$": 376,
      "(%&&&&": 377,
      ")*": 378,
      "*#": 379,
      "+'": 380,
      "&&%&!": 381,
      "&&$&&&&": 382,
      "Ġ$": 383,
      "Ġ&&&&": 384,
      "&&&%&&&&": 385,
      "ĀĀĜĀ": 386,
      "$'&&&&": 387,
      "$!": 388,
      "$+": 389,
      "+&'": 390,
      "&&%&&&'": 391,
      "&&\"&": 392,
      "&&*&": 393,
      "ĀĀĞĀ": 394,
      "!$": 395,
      "('&&&&": 396,
      "Ġ'": 397,
      "&&'&!": 398,
      "&&#&#": 399,
      "%&&!": 400,
      "%(&&&&": 401,
      "&&%&&(": 402,
      "&&&%&%": 403,
      "!#": 404,
      "\"\"": 405,
      "'$&&&&": 406,
      "+(": 407,
      "Ġ#": 408,
      "&%&&&&'": 409,
      "&&%'": 410,
      "ĀĀ.": 411,
      "&&)&\"": 412,
      "Ğ&&": 413,
      "ĀĀĝĀ": 414,
      "ĀĀěĀ": 415,
      "!'": 416,
      ")\"": 417,
      "Ġ%": 418,
      "ĀĀĚ": 419,
      "&&\"&)": 420,
      "'&&!": 421,
      "!(": 422,
      "&&'&&&'": 423,
      "&&#&+": 424,
      "&&*&#": 425,
      "!)": 426,
      "\"#": 427,
      "&&&&#": 428,
      "&&&&&%": 429,
      "\")": 430,
      "'(&&&&": 431,
      "+ĀĀ": 432,
      "-'": 433,
      "Ġ&'": 434,
      "&&&&)": 435,
      "&&$&+": 436,
      "&&\"&*": 437,
      "$&&!": 438,
      "*)": 439,
      "+$": 440,
      "&&(&!": 441,
      "&&\"&\"": 442,
      "#&&&$": 443,
      "'&&&'&": 444,
      "ĀĀ.Ā": 445,
      "&%%&&&&": 446,
      "ĀĀę": 447,
      "#+": 448,
      "ĝ&&": 449,
      "&&&&&&": 450,
      "&'%": 451,
      "%&&+": 452,
      "#&&!": 453,
      "',": 454,
      "'&&&%": 455,
      "**": 456,
      "+%": 457,
      "+)": 458,
      "&&\"&#": 459,
      "&&&&&&&&&&&&&&&&": 460,
      "%&&&%&": 461,
      "!\"": 462,
      "$,": 463,
      "Ġ&(": 464,
      "Ġ&)": 465,
      "&&'&&": 466,
      "&&#&\"": 467,
      "'&&&&&'": 468,
      "'&&+": 469,
      "#*": 470,
      ")&&&'": 471,
      ",)": 472,
      "&%&&&&%": 473,
      "&&%%": 474,
      "&&(&+": 475,
      "-ĀĀ": 476,
      "&&*&\"": 477,
      "(&&!": 478,
      "&&%&&&&&": 479,
      "%+": 480,
      "&ĀĀ": 481,
      "'ğ": 482,
      ",*": 483,
      ".&&": 484,
      "Ġ\"": 485,
      "&&$%": 486,
      "&&&'&%": 487,
      "!*": 488,
      "!&&&&": 489,
      "&ě": 490,
      "+\"": 491,
      "&)&&&&": 492,
      "ĀĀĚĀ": 493,
      "%ğ": 494,
      ",'": 495,
      "ğ'": 496,
      "ğ)": 497,
      "&&%&&": 498,
      "&&''": 499,
      "&&$&!": 500,
      "&#&'": 501,
      "&&)&*": 502,
      "&&)&+": 503,
      "$&&+": 504,
      "%#&&&&": 505,
      "+*": 506,
      "Ġ*": 507,
      "Ġ&%": 508,
      "&&(%": 509,
      "&&*&)": 510,
      ")&&&(": 511,
      ",(": 512,
      "Ā.": 513,
      "&&.": 514,
      "&''": 515,
      "%&&&(": 516,
      "(&&+": 517,
      "!+": 518,
      "&'$": 519,
      "&((": 520,
      "&&&'&'": 521,
      "%&&ğ": 522,
      "!!": 523,
      "\"*": 524,
      "),": 525,
      "Ġ+": 526,
      "&%'": 527,
      "&&%&&&&&&&&": 528,
      "&&&&'&": 529,
      "&&&&%&": 530,
      ")&&!": 531,
      "%,": 532,
      "(,": 533,
      ".ĀĀ": 534,
      "ğ%": 535,
      "Ġ)": 536,
      "&&$'": 537,
      "&#&&&&": 538,
      "&&)&!": 539,
      "&&*&!": 540,
      "%&&-": 541,
      "%%&&%&": 542,
      "'%&&'&": 543,
      "ĀĀęĀ": 544,
      "-(": 545,
      "Ġ&": 546,
      "Ġ&$": 547,
      "&%'&&&&": 548,
      "&&%'&&&&": 549,
      "&&(&&(": 550,
      "%&&&&&'": 551,
      "&*&&&&": 552,
      "&&'&ğ": 553,
      "'&&&)": 554,
      "#&&+": 555,
      "%-": 556,
      ")+": 557,
      ",ĀĀ": 558,
      "&%(": 559,
      "&&'&&&(": 560,
      "&&&&%&%": 561,
      "''&&'&": 562,
      "\"&&+": 563,
      "'&&&'&%": 564,
      "#!": 565,
      "'#&&&&": 566,
      "*+": 567,
      ",$": 568,
      "-&": 569,
      ".%": 570,
      "&&Ĝ": 571,
      "&&ĝ": 572,
      "&$&&&&'": 573,
      "%&&&&&&&&": 574,
      "&&%&,": 575,
      "%'&&%&": 576,
      "\"!": 577,
      "#%&&&&": 578,
      ",%": 579,
      "/ĀĀ": 580,
      "ĘĀ": 581,
      "Ġ&#": 582,
      "&&/": 583,
      "&&)&&'": 584,
      "&&&%&$": 585,
      "&&\"&+": 586,
      "&&&&'&'": 587,
      "%&&&%&'": 588,
      "&&'&&&&&": 589,
      "\"&&&&": 590,
      "$&&&&%": 591,
      "(-": 592,
      "++": 593,
      "&&%&&#": 594,
      "&&'&&&%": 595,
      "&#&$": 596,
      "&&&&&&&&&&&": 597,
      "\"+": 598,
      "%Ğ": 599,
      ")!": 600,
      "*&&&&": 601,
      "ğ$": 602,
      "Ġ&*": 603,
      "&'(": 604,
      "&%$": 605,
      "&&%%&&&&": 606,
      "&&(&&&'": 607,
      "'&&&&&&&&": 608,
      "&&'&,": 609,
      "&'&&&&&&": 610,
      "%&&'&": 611,
      "'-": 612,
      "-$": 613,
      "./": 614,
      "ğ&": 615,
      "&&&&\"": 616,
      "&%&&'&": 617,
      "&&'&&$": 618,
      "&&'&&&&&&&&": 619,
      "ĀĀĖ": 620,
      "&&$&,": 621,
      "&&#&!": 622,
      "%&&&&&%": 623,
      "&&&%&(": 624,
      "'&&,": 625,
      "'&&&$": 626,
      "$&&&#": 627,
      "#-": 628,
      "%&&'&'": 629,
      "((&&&&": 630,
      ")ğ": 631,
      "--": 632,
      ".(": 633,
      "ğ(": 634,
      "Ġ!": 635,
      "Ġ-": 636,
      "&''&&&&": 637,
      "&&%&&&$": 638,
      "&&'&&&$": 639,
      "%&&&&'": 640,
      "$&&,": 641,
      "%'&&%&'": 642,
      "%%&&%&'": 643,
      "&%&&&&&&": 644,
      "'%&&'&'": 645,
      ")&&+": 646,
      "!&&+": 647,
      "*&&!": 648,
      "#ğ": 649,
      "#'&&&&": 650,
      "$ğ": 651,
      "')&&&&": 652,
      ",\"": 653,
      "-*": 654,
      "Ā+": 655,
      "ĠĀĀ": 656,
      "&&&&&(": 657,
      "&%&&%&": 658,
      "%&&&&&&": 659,
      "&&*&*": 660,
      "&&&&%&'": 661,
      "#&&,": 662,
      "%ĝ": 663,
      "'ĝ": 664,
      "*,": 665,
      "00": 666,
      "Ğ!": 667,
      "&%&&'&'": 668,
      "&&%(": 669,
      "&&'&&)": 670,
      "&&(&,": 671,
      "&&#&,": 672,
      "&\"&&&&": 673,
      "&&&&'&%": 674,
      "%&&,": 675,
      "(&&,": 676,
      "''&&'&'": 677,
      "#&&&#": 678,
      "#$&&&&": 679,
      "%&&%&": 680,
      "*ĀĀ": 681,
      "-&'": 682,
      ".$": 683,
      "ĀĞ": 684,
      "&'&&'&": 685,
      "&&'%&&&&": 686,
      "ĀĀĕ": 687,
      "&$'": 688,
      "&&$&&(": 689,
      "'&&&&%": 690,
      "$&&&&&%": 691,
      "''&&'&%": 692,
      "&%&&&&(": 693,
      "'%&&'&%": 694,
      "+&&&(": 695,
      "&$&&&&(": 696,
      "#,": 697,
      "'&&'&": 698,
      ")%&&&&": 699,
      "+!": 700,
      ".'": 701,
      "..": 702,
      "Ā$": 703,
      "&&&*": 704,
      "&'&&'&'": 705,
      "&'&&'&%": 706,
      "&&%&&&#": 707,
      "ĀĀ:": 708,
      "ĀĀė": 709,
      "&&(&&$": 710,
      "'&&&&'": 711,
      "'&&&&&&": 712,
      "&&%&-": 713,
      "$&&-": 714,
      "'%&&'&(": 715,
      "\"&&&$": 716,
      "&&(&ğ": 717,
      "!&&!": 718,
      "$%&&%&%": 719,
      "&&%&&%'": 720,
      "&Ě": 721,
      "(!": 722,
      "($&&&&": 723,
      "+&&&&": 724,
      ",#": 725,
      "-%": 726,
      ".&": 727,
      "Ā%": 728,
      "&&%&&)": 729,
      "&&%&&&(": 730,
      "&&$&&&%": 731,
      "%&&&&%": 732,
      "&&&&'&$": 733,
      "%&&Ğ": 734,
      "#&&ğ": 735,
      "\"&&ğ": 736,
      "Ġ&&!": 737,
      "+&&!": 738,
      "'&&&'&'": 739,
      "'&&&'&$": 740,
      "$&&&%&": 741,
      "'Ğ": 742,
      ")'&&&&": 743,
      "*!": 744,
      "*Ğ": 745,
      ",+": 746,
      ",-": 747,
      ",Ğ": 748,
      "ě&&": 749,
      "ĝ$": 750,
      "&&'&&#": 751,
      "&&'&&&'&": 752,
      "&&$&&%": 753,
      "&&$&&#": 754,
      "&&#&-": 755,
      "%&&&#": 756,
      "'&&-": 757,
      "$&&ğ": 758,
      "(&&&*": 759,
      "(&&&&&": 760,
      ")&&&)": 761,
      "(%&&'&": 762,
      "(%&&'&%": 763,
      "&&(&Ğ": 764,
      "#ĀĀ": 765,
      "(ğ": 766,
      ")-": 767,
      "*&&&'": 768,
      ",,": 769,
      "/,": 770,
      "Ā!": 771,
      "Ā-": 772,
      "ğ\"": 773,
      "Ġě": 774,
      "Ġĝ": 775,
      "ĠĞ": 776,
      "Ġ&+": 777,
      "Ġ&!": 778,
      "&&&&&&%": 779,
      "&'&&%&": 780,
      "&'&&%&%": 781,
      "&(#": 782,
      "&($": 783,
      "&('": 784,
      "&(&&&&%": 785,
      "&&$&&": 786,
      "&&\"&!": 787,
      "&&\"&,": 788,
      "&&*&+": 789,
      "&&%&ğ": 790,
      "$&&/": 791,
      "&%&&&&$": 792,
      ")&&,": 793,
      ")&&-": 794,
      "\"&&&\"": 795,
      "!&&&$": 796,
      "$%&&%&": 797,
      "+&&&)": 798,
      "%&&&%&%": 799,
      "&&'&&''": 800,
      "$Ğ": 801,
      "%&&%&'": 802,
      "%)&&&&": 803,
      "&Ę": 804,
      "(&&%&%": 805,
      "(&&&'&": 806,
      ")Ğ": 807,
      ")ĀĀ": 808,
      ".&%": 809,
      "/'": 810,
      "/*": 811,
      "Ĝ$": 812,
      "ĝ#": 813,
      "ĝ'": 814,
      "ğ*": 815,
      "Ġ1": 816,
      "Ġ&,": 817,
      "&&&&*": 818,
      "&%&&%&%": 819,
      "&(&%": 820,
      "&&('": 821,
      "%&&&&(": 822,
      "%&&&&&$": 823,
      "%&&&\"": 824,
      "&&%&%&&&&": 825,
      "(&&&$": 826,
      "&%&&&&&": 827,
      "(&&&&&'": 828,
      "\"&&!": 829,
      "\"&&-": 830,
      "\"&&&#": 831,
      "('&&'&": 832,
      "('&&'&'": 833,
      "!&&&#": 834,
      "%$&&%&'": 835,
      "Ġ&&,": 836,
      "&&+&%": 837,
      "!ĀĀ": 838,
      "\",": 839,
      "\"Ğ": 840,
      "\"ğ": 841,
      "#.": 842,
      "$ĝ": 843,
      "$&&'&%": 844,
      "$$&&&&": 845,
      "$#&&&&": 846,
      "%/": 847,
      "(ĝ": 848,
      "(&&'&'": 849,
      "))&&&&": 850,
      "+.": 851,
      ",&&&&": 852,
      "-)": 853,
      ".*": 854,
      ".&)": 855,
      "/&&": 856,
      "Ā\"": 857,
      "Ā'": 858,
      "Ğ\"": 859,
      "Ġ,": 860,
      "Ġ.": 861,
      "Ġ&\"": 862,
      "Ġ%&&": 863,
      "Ġ'&&": 864,
      "&%&&%&'": 865,
      "&%%'": 866,
      "&&%&&&'&&&&": 867,
      "&$&&&&%": 868,
      "&&$&&$": 869,
      "&&)'": 870,
      "&&)&,": 871,
      "&&)&-": 872,
      "%&&/": 873,
      "&&%&%&'": 874,
      ")&&ğ": 875,
      ")&&&*": 876,
      "'(&&'&": 877,
      "'(&&'&'": 878,
      "*&&&)": 879,
      "*&&&*": 880,
      "'%&&&&'": 881,
      "&&'&&%%": 882,
      "&&&&&&&&&&&&&": 883,
      "!-": 884,
      "$ĀĀ": 885,
      "$&&'&": 886,
      "()&&&&": 887,
      ".&$": 888,
      "/%": 889,
      "/-": 890,
      "Āğ": 891,
      "Ě&&": 892,
      "Ĝ&&": 893,
      "ĝ*": 894,
      "ĝ&%": 895,
      "Ġğ": 896,
      "&'#": 897,
      "&'&&%&'": 898,
      "&&'%": 899,
      "&&''&&&&": 900,
      "&&'&&&'&&&&": 901,
      "&&'&&&%&&&&": 902,
      "ĀĀĔ": 903,
      "&(&&&&'": 904,
      "&(&&%&": 905,
      "&&(&&": 906,
      "&&(&-": 907,
      "&&(&&&(": 908,
      "'&&&&&$": 909,
      "&&\"&-": 910,
      "&&%&'&'&&&&": 911,
      "'&&/": 912,
      "'&&ğ": 913,
      "&&'&%&&&&": 914,
      "(&&Ğ": 915,
      "''&&(&'": 916,
      "%%&&%&%": 917,
      "&'&&&&&": 918,
      "\"&&Ğ": 919,
      "$'&&%&": 920,
      "!&&,": 921,
      "&&+&$": 922,
      "'&&&(&": 923,
      "$&&&$&": 924,
      "!Ğ": 925,
      "#Ğ": 926,
      "$&&'&'": 927,
      "&ę": 928,
      "(&&'&": 929,
      ")&&&'&": 930,
      "-\"": 931,
      "ĝ!": 932,
      "ĝ%": 933,
      "Ġ&-": 934,
      "&&&&&$": 935,
      "&&%$": 936,
      "ĀĀ=": 937,
      "&$&&'&'": 938,
      "&#%": 939,
      "&)*": 940,
      "&&#'": 941,
      "&&#&&%": 942,
      "&&&'&(": 943,
      "&&*'": 944,
      "&&'&Ğ": 945,
      "'&&Ğ": 946,
      "$&&ĝ": 947,
      "(&&-": 948,
      "(&&&)": 949,
      "$&&&&&(": 950,
      "#&&-": 951,
      "%%&&%&$": 952,
      "&'&&&&(": 953,
      "(&&&&&%": 954,
      "('&&(&%": 955,
      "(%&&'&'": 956,
      "!&&-": 957,
      "%$&&%&%": 958,
      "&&$&ğ": 959,
      "*&&ğ": 960,
      "Ġ&&+": 961,
      "&&%&&&&&%": 962,
      "&&'&&%'": 963,
      "&&%&&'%": 964,
      "(&&&'&'": 965,
      "(&&&'&%": 966,
      "&&&&&&&&&&&&&&&": 967,
      "%&&&$&'": 968,
      "(&&&(&": 969,
      "!.": 970,
      "!Ĝ": 971,
      "!ĝ": 972,
      "#Ĝ": 973,
      "(Ğ": 974,
      ".\"": 975,
      ".&&&&": 976,
      ".&(": 977,
      "<Ā": 978,
      "Ā#": 979,
      "ę&&": 980,
      "ęĀĀ": 981,
      "ěĜ": 982,
      "ěĀĀ": 983,
      "Ğ%": 984,
      "ĞĞ": 985,
      "ğ#": 986,
      "ğ-": 987,
      "&&&&&&&": 988,
      "&'*": 989,
      "&%$'": 990,
      "&&%&&&%&": 991,
      "&&'(": 992,
      "&(&&%&%": 993,
      "&&$&-": 994,
      "&&#&&": 995,
      "&&#&&'": 996,
      "&&)&&)": 997,
      "%&&&&&(": 998,
      "&&&'&$": 999,
      "&+&'": 1000,
      "&&&&'&%&&&&": 1001,
      "&&&&%&$": 1002,
      "&&'&-": 1003,
      "&&%&.": 1004,
      "$&&&\"": 1005,
      "(&&ğ": 1006,
      "#&&Ĝ": 1007,
      "#&&&\"": 1008,
      "%'&&'&'": 1009,
      "%'&&$&'": 1010,
      "%%&&'&": 1011,
      "'%&&'&$": 1012,
      "'%&&(&%": 1013,
      "'%&&(&$": 1014,
      "\"&&/": 1015,
      "$'&&$&": 1016,
      "$%&&$&'": 1017,
      "%$&&&&'": 1018,
      "&&$&/": 1019,
      "'$&&'&'": 1020,
      "%(&&&&%": 1021,
      "%(&&%&'": 1022,
      "Ġ&&Ğ": 1023
    },
    "merges": [
      "& &",
      "&& &&",
      "& '",
      "& %",
      "&& %",
      "&& '",
      "Ā Ā",
      "& (",
      "& $",
      "&& (",
      "&& $",
      "& #",
      "& )",
      "&& #",
      "&& )",
      "% &&&&",
      "' &&&&",
      "&& &'",
      "& *",
      "&& &%",
      "& \"",
      "&& \"",
      "&& *",
      "& +",
      "& !",
      "&&&& '",
      "&&&& %",
      "&&' &",
      "&&% &",
      "&&' &'",
      "% &&",
      "&&% &'",
      "&&&& &&&&",
      "' &&",
      "&&% &%",
      "&&' &%",
      "$ &&",
      "( &&",
      "$ &&&&",
      "& ,",
      "' '",
      "# &&",
      "% '",
      "% %",
      "&% &&&&",
      "' %",
      "&' &&&&",
      "( &&&&",
      ") &&",
      "\" &&",
      "&&% &(",
      "& -",
      "( '",
      "&&$ &'",
      "&&' &(",
      "$ '",
      "&&' &$",
      "( %",
      "&&( &",
      "! &&",
      "$ %",
      "&&( &%",
      "&&% &$",
      "&&$ &%",
      "&&( &'",
      "% $",
      "' (",
      "&&$ &",
      "' $",
      "% (",
      "* &&",
      "# &&&&",
      "Ġ &&",
      "+ &&",
      "% &&&%",
      "' &&&'",
      "& ğ",
      "&&% &&&&",
      "&$ &&&&",
      "% Ā",
      "ĀĀ %Ā",
      "$ $",
      "& Ā",
      "ĀĀ &Ā",
      "( (",
      "&&' &&&&",
      "' '&&&&",
      ") &&&&",
      "&& &(",
      "( $",
      "' %&&&&",
      "% %&&&&",
      "&&( &$",
      "Ā )",
      "&&% &)",
      "ĀĀ $",
      "& .",
      "ĀĀ '",
      "&&$ &(",
      "# '",
      "$ (",
      "ĀĀ (",
      "&&( &(",
      "Ā *",
      "&& &$",
      "&& +",
      "&&) &%",
      "&&% &#",
      "&&# &'",
      "% )",
      "% '&&&&",
      "ĀĀ #",
      "Ā (",
      "&& !",
      "&&$ &$",
      "% #",
      "&&' &#",
      "&&' &)",
      ") '",
      "ĀĀ )",
      "&&) &'",
      "&& &",
      "# %",
      "ĀĀ \"",
      "&&&' &",
      "&( &&&&",
      "ĀĀ' Ā",
      ") %",
      "ĀĀ$ Ā",
      "' #",
      "&&&% &",
      "&&# &%",
      "ĀĀ( Ā",
      "' \"",
      "ĀĀ) Ā",
      "# $",
      "ĀĀ !",
      "' )",
      "&&' &&%",
      "ĀĀ# Ā",
      ") (",
      "% \"",
      "&&% &&%",
      "& Ğ",
      "&&% &&'",
      "&&' &&'",
      "&&) &$",
      "ĀĀ *",
      "&&# &(",
      ") $",
      "ĀĀ\" Ā",
      "ğ &&",
      "% *",
      "&&$ &)",
      "$ #",
      "&&# &",
      "&&% &*",
      "&&) &",
      "&&' &\"",
      "ĀĀ! Ā",
      "&& ,",
      "ĀĀ +",
      "ĀĀ ğ",
      "&&( &#",
      "ĀĀ* Ā",
      "# (",
      "$ )",
      "- &&",
      "' *",
      "( \"",
      "* %",
      "&&&% &'",
      "( #",
      "&&&' &&&&",
      "& ĝ",
      "&& &#",
      "ĀĀ ,",
      "&&) &(",
      "\" $",
      "'&&&& &",
      "& /",
      "# #",
      "( &&&'",
      "&&\" &'",
      "\" %",
      "\" '",
      "* '",
      "&& &)",
      "ĀĀ -",
      "ĀĀğ Ā",
      "&&# &$",
      "&&&&&&&& &&&&",
      "&&% &&&%",
      "&&% &\"",
      "&&* &%",
      "ĀĀ+ Ā",
      "%&&&& &",
      "* $",
      "&&\" &%",
      ", &&",
      "&&' &*",
      "&&# &)",
      "&&) &#",
      "ĀĀ, Ā",
      "$ \"",
      "% !",
      "Ġ Ā",
      "ĀĀ /",
      "&&* &'",
      "( *",
      "&&( &)",
      "( )",
      "&&$ &#",
      "$ *",
      "# )",
      "$ %&&&&",
      "' !",
      ") #",
      "&&# &*",
      "&&\" &(",
      "'&& &(",
      "&& ğ",
      "$ &&&%",
      "& Ĝ",
      "ĀĀ- Ā",
      "! %",
      "&&&& (",
      "ĀĀ Ğ",
      "&&* &$",
      "# \"",
      "%&& &$",
      "(&& &(",
      "ĀĀ/ Ā",
      "\" (",
      "% &&&'",
      "ĀĀ Ĝ",
      "&&( &\"",
      ") )",
      "&& -",
      "&&% &&$",
      "&&( &&'",
      "&&( &*",
      "&&( &&&&",
      "&&* &(",
      "Ġ (",
      "&&&& $",
      "ĀĀ ĝ",
      "* (",
      "&' &&&&'",
      "' +",
      "&& Ğ",
      "&' &&&&%",
      "&&$ &*",
      "Ā ,",
      "&' %&&&&",
      "&&$ &\"",
      "$&& &$",
      "&&% &+",
      "&&' &+",
      "( +",
      "+ #",
      "ĀĀ ě",
      "% $&&&&",
      "* \"",
      "&&$ &&'",
      "&&) &)",
      "'&&&& &%",
      "&&' &&(",
      "&&\" &$",
      "( %&&&&",
      ") *",
      "* #",
      "+ '",
      "&&% &!",
      "&&$ &&&&",
      "Ġ $",
      "Ġ &&&&",
      "&&&% &&&&",
      "ĀĀĜ Ā",
      "$ '&&&&",
      "$ !",
      "$ +",
      "+ &'",
      "&&% &&&'",
      "&&\" &",
      "&&* &",
      "ĀĀĞ Ā",
      "! $",
      "( '&&&&",
      "Ġ '",
      "&&' &!",
      "&&# &#",
      "%&& !",
      "% (&&&&",
      "&&% &&(",
      "&&&% &%",
      "! #",
      "\" \"",
      "' $&&&&",
      "+ (",
      "Ġ #",
      "&% &&&&'",
      "&&% '",
      "ĀĀ .",
      "&&) &\"",
      "Ğ &&",
      "ĀĀĝ Ā",
      "ĀĀě Ā",
      "! '",
      ") \"",
      "Ġ %",
      "ĀĀ Ě",
      "&&\" &)",
      "'&& !",
      "! (",
      "&&' &&&'",
      "&&# &+",
      "&&* &#",
      "! )",
      "\" #",
      "&&&& #",
      "&&&& &%",
      "\" )",
      "' (&&&&",
      "+ ĀĀ",
      "- '",
      "Ġ &'",
      "&&&& )",
      "&&$ &+",
      "&&\" &*",
      "$&& !",
      "* )",
      "+ $",
      "&&( &!",
      "&&\" &\"",
      "#&& &$",
      "'&&&' &",
      "ĀĀ. Ā",
      "&% %&&&&",
      "ĀĀ ę",
      "# +",
      "ĝ &&",
      "&&&& &&",
      "&' %",
      "%&& +",
      "#&& !",
      "' ,",
      "' &&&%",
      "* *",
      "+ %",
      "+ )",
      "&&\" &#",
      "&&&&&&&& &&&&&&&&",
      "%&&&% &",
      "! \"",
      "$ ,",
      "Ġ &(",
      "Ġ &)",
      "&&' &&",
      "&&# &\"",
      "'&&&& &'",
      "'&& +",
      "# *",
      ") &&&'",
      ", )",
      "&% &&&&%",
      "&&% %",
      "&&( &+",
      "- ĀĀ",
      "&&* &\"",
      "(&& !",
      "&&%&&&& &",
      "% +",
      "& ĀĀ",
      "' ğ",
      ", *",
      ". &&",
      "Ġ \"",
      "&&$ %",
      "&&&' &%",
      "! *",
      "! &&&&",
      "& ě",
      "+ \"",
      "&) &&&&",
      "ĀĀĚ Ā",
      "% ğ",
      ", '",
      "ğ '",
      "ğ )",
      "&&% &&",
      "&&' '",
      "&&$ &!",
      "&# &'",
      "&&) &*",
      "&&) &+",
      "$&& +",
      "% #&&&&",
      "+ *",
      "Ġ *",
      "Ġ &%",
      "&&( %",
      "&&* &)",
      ")&& &(",
      ", (",
      "Ā .",
      "&& .",
      "&' '",
      "%&& &(",
      "(&& +",
      "! +",
      "&' $",
      "&( (",
      "&&&' &'",
      "%&& ğ",
      "! !",
      "\" *",
      ") ,",
      "Ġ +",
      "&% '",
      "&&% &&&&&&&&",
      "&&&&' &",
      "&&&&% &",
      ")&& !",
      "% ,",
      "( ,",
      ". ĀĀ",
      "ğ %",
      "Ġ )",
      "&&$ '",
      "&# &&&&",
      "&&) &!",
      "&&* &!",
      "%&& -",
      "%% &&%&",
      "'% &&'&",
      "ĀĀę Ā",
      "- (",
      "Ġ &",
      "Ġ &$",
      "&% '&&&&",
      "&&% '&&&&",
      "&&( &&(",
      "%&&&& &'",
      "&* &&&&",
      "&&'& ğ",
      "'&& &)",
      "#&& +",
      "% -",
      ") +",
      ", ĀĀ",
      "&% (",
      "&&' &&&(",
      "&&&&% &%",
      "'' &&'&",
      "\"&& +",
      "'&&&' &%",
      "# !",
      "' #&&&&",
      "* +",
      ", $",
      "- &",
      ". %",
      "&& Ĝ",
      "&& ĝ",
      "&$ &&&&'",
      "%&&&& &&&&",
      "&&%& ,",
      "%' &&%&",
      "\" !",
      "# %&&&&",
      ", %",
      "/ ĀĀ",
      "Ę Ā",
      "Ġ &#",
      "&& /",
      "&&) &&'",
      "&&&% &$",
      "&&\" &+",
      "&&&&' &'",
      "%&&&% &'",
      "&&'&&&& &",
      "\" &&&&",
      "$ &&&&%",
      "( -",
      "+ +",
      "&&% &&#",
      "&&' &&&%",
      "&# &$",
      "&&&&&&&& &&&",
      "\" +",
      "% Ğ",
      ") !",
      "* &&&&",
      "ğ $",
      "Ġ &*",
      "&' (",
      "&% $",
      "&&% %&&&&",
      "&&( &&&'",
      "'&&&& &&&&",
      "&&'& ,",
      "&'&&&& &&",
      "% &&'&",
      "' -",
      "- $",
      ". /",
      "ğ &",
      "&&&& \"",
      "&% &&'&",
      "&&' &&$",
      "&&' &&&&&&&&",
      "ĀĀ Ė",
      "&&$ &,",
      "&&# &!",
      "%&&&& &%",
      "&&&% &(",
      "'&& ,",
      "'&& &$",
      "$&& &#",
      "# -",
      "% &&'&'",
      "( (&&&&",
      ") ğ",
      "- -",
      ". (",
      "ğ (",
      "Ġ !",
      "Ġ -",
      "&' '&&&&",
      "&&% &&&$",
      "&&' &&&$",
      "%&&&& '",
      "$&& ,",
      "%' &&%&'",
      "%% &&%&'",
      "&%&&&& &&",
      "'% &&'&'",
      ")&& +",
      "!&& +",
      "*&& !",
      "# ğ",
      "# '&&&&",
      "$ ğ",
      "' )&&&&",
      ", \"",
      "- *",
      "Ā +",
      "Ġ ĀĀ",
      "&&&& &(",
      "&% &&%&",
      "%&&&& &&",
      "&&* &*",
      "&&&&% &'",
      "#&& ,",
      "% ĝ",
      "' ĝ",
      "* ,",
      "0 0",
      "Ğ !",
      "&% &&'&'",
      "&&% (",
      "&&' &&)",
      "&&( &,",
      "&&# &,",
      "&\" &&&&",
      "&&&&' &%",
      "%&& ,",
      "(&& ,",
      "'' &&'&'",
      "#&& &#",
      "# $&&&&",
      "% &&%&",
      "* ĀĀ",
      "- &'",
      ". $",
      "Ā Ğ",
      "&' &&'&",
      "&&' %&&&&",
      "ĀĀ ĕ",
      "&$ '",
      "&&$ &&(",
      "'&&&& %",
      "$&&&& &%",
      "'' &&'&%",
      "&%&&&& (",
      "'% &&'&%",
      "+&& &(",
      "&$&&&& (",
      "# ,",
      "' &&'&",
      ") %&&&&",
      "+ !",
      ". '",
      ". .",
      "Ā $",
      "&& &*",
      "&' &&'&'",
      "&' &&'&%",
      "&&% &&&#",
      "ĀĀ :",
      "ĀĀ ė",
      "&&( &&$",
      "'&&&& '",
      "'&&&& &&",
      "&&%& -",
      "$&& -",
      "'% &&'&(",
      "\"&& &$",
      "&&(& ğ",
      "!&& !",
      "$% &&%&%",
      "&&%&&% '",
      "& Ě",
      "( !",
      "( $&&&&",
      "+ &&&&",
      ", #",
      "- %",
      ". &",
      "Ā %",
      "&&% &&)",
      "&&% &&&(",
      "&&$ &&&%",
      "%&&&& %",
      "&&&&' &$",
      "%&& Ğ",
      "#&& ğ",
      "\"&& ğ",
      "Ġ&& !",
      "+&& !",
      "'&&&' &'",
      "'&&&' &$",
      "$ &&&%&",
      "' Ğ",
      ") '&&&&",
      "* !",
      "* Ğ",
      ", +",
      ", -",
      ", Ğ",
      "ě &&",
      "ĝ $",
      "&&' &&#",
      "&&' &&&'&",
      "&&$ &&%",
      "&&$ &&#",
      "&&# &-",
      "%&& &#",
      "'&& -",
      "$&& ğ",
      "(&& &*",
      "(&&&& &",
      ")&& &)",
      "(% &&'&",
      "(% &&'&%",
      "&&(& Ğ",
      "# ĀĀ",
      "( ğ",
      ") -",
      "* &&&'",
      ", ,",
      "/ ,",
      "Ā !",
      "Ā -",
      "ğ \"",
      "Ġ ě",
      "Ġ ĝ",
      "Ġ Ğ",
      "Ġ &+",
      "Ġ &!",
      "&&&& &&%",
      "&' &&%&",
      "&' &&%&%",
      "&( #",
      "&( $",
      "&( '",
      "&( &&&&%",
      "&&$ &&",
      "&&\" &!",
      "&&\" &,",
      "&&* &+",
      "&&%& ğ",
      "$&& /",
      "&%&&&& $",
      ")&& ,",
      ")&& -",
      "\"&& &\"",
      "!&& &$",
      "$% &&%&",
      "+&& &)",
      "%&&&% &%",
      "&&'&&' '",
      "$ Ğ",
      "% &&%&'",
      "% )&&&&",
      "& Ę",
      "( &&%&%",
      "( &&&'&",
      ") Ğ",
      ") ĀĀ",
      ". &%",
      "/ '",
      "/ *",
      "Ĝ $",
      "ĝ #",
      "ĝ '",
      "ğ *",
      "Ġ 1",
      "Ġ &,",
      "&&&& *",
      "&% &&%&%",
      "&( &%",
      "&&( '",
      "%&&&& (",
      "%&&&& &$",
      "%&& &\"",
      "&&%&% &&&&",
      "(&& &$",
      "&%&&&& &",
      "(&&&& &'",
      "\"&& !",
      "\"&& -",
      "\"&& &#",
      "(' &&'&",
      "(' &&'&'",
      "!&& &#",
      "%$ &&%&'",
      "Ġ&& ,",
      "&&+ &%",
      "! ĀĀ",
      "\" ,",
      "\" Ğ",
      "\" ğ",
      "# .",
      "$ ĝ",
      "$ &&'&%",
      "$ $&&&&",
      "$ #&&&&",
      "% /",
      "( ĝ",
      "( &&'&'",
      ") )&&&&",
      "+ .",
      ", &&&&",
      "- )",
      ". *",
      ". &)",
      "/ &&",
      "Ā \"",
      "Ā '",
      "Ğ \"",
      "Ġ ,",
      "Ġ .",
      "Ġ &\"",
      "Ġ %&&",
      "Ġ '&&",
      "&% &&%&'",
      "&% %'",
      "&&% &&&'&&&&",
      "&$ &&&&%",
      "&&$ &&$",
      "&&) '",
      "&&) &,",
      "&&) &-",
      "%&& /",
      "&&%&% &'",
      ")&& ğ",
      ")&& &*",
      "'( &&'&",
      "'( &&'&'",
      "*&& &)",
      "*&& &*",
      "'%&&&& '",
      "&&'&&% %",
      "&&&&&&&&&&&& &",
      "! -",
      "$ ĀĀ",
      "$ &&'&",
      "( )&&&&",
      ". &$",
      "/ %",
      "/ -",
      "Ā ğ",
      "Ě &&",
      "Ĝ &&",
      "ĝ *",
      "ĝ &%",
      "Ġ ğ",
      "&' #",
      "&' &&%&'",
      "&&' %",
      "&&' '&&&&",
      "&&' &&&'&&&&",
      "&&' &&&%&&&&",
      "ĀĀ Ĕ",
      "&( &&&&'",
      "&( &&%&",
      "&&( &&",
      "&&( &-",
      "&&( &&&(",
      "'&&&& &$",
      "&&\" &-",
      "&&%&' &'&&&&",
      "'&& /",
      "'&& ğ",
      "&&'&% &&&&",
      "(&& Ğ",
      "'' &&(&'",
      "%% &&%&%",
      "&'&&&& &",
      "\"&& Ğ",
      "$' &&%&",
      "!&& ,",
      "&&+ &$",
      "'&&&( &",
      "$&&&$ &",
      "! Ğ",
      "# Ğ",
      "$ &&'&'",
      "& ę",
      "( &&'&",
      ") &&&'&",
      "- \"",
      "ĝ !",
      "ĝ %",
      "Ġ &-",
      "&&&& &$",
      "&&% $",
      "ĀĀ =",
      "&$ &&'&'",
      "&# %",
      "&) *",
      "&&# '",
      "&&# &&%",
      "&&&' &(",
      "&&* '",
      "&&'& Ğ",
      "'&& Ğ",
      "$&& ĝ",
      "(&& -",
      "(&& &)",
      "$&&&& &(",
      "#&& -",
      "%% &&%&$",
      "&'&&&& (",
      "(&&&& &%",
      "(' &&(&%",
      "(% &&'&'",
      "!&& -",
      "%$ &&%&%",
      "&&$& ğ",
      "*&& ğ",
      "Ġ&& +",
      "&&%&&&& &%",
      "&&'&&% '",
      "&&%&&' %",
      "(&&&' &'",
      "(&&&' &%",
      "&&&&&&&&&&&& &&&",
      "%&&&$ &'",
      "(&&&( &",
      "! .",
      "! Ĝ",
      "! ĝ",
      "# Ĝ",
      "( Ğ",
      ". \"",
      ". &&&&",
      ". &(",
      "< Ā",
      "Ā #",
      "ę &&",
      "ę ĀĀ",
      "ě Ĝ",
      "ě ĀĀ",
      "Ğ %",
      "Ğ Ğ",
      "ğ #",
      "ğ -",
      "&&&& &&&",
      "&' *",
      "&% $'",
      "&&% &&&%&",
      "&&' (",
      "&( &&%&%",
      "&&$ &-",
      "&&# &&",
      "&&# &&'",
      "&&) &&)",
      "%&&&& &(",
      "&&&' &$",
      "&+ &'",
      "&&&&' &%&&&&",
      "&&&&% &$",
      "&&'& -",
      "&&%& .",
      "$&& &\"",
      "(&& ğ",
      "#&& Ĝ",
      "#&& &\"",
      "%' &&'&'",
      "%' &&$&'",
      "%% &&'&",
      "'% &&'&$",
      "'% &&(&%",
      "'% &&(&$",
      "\"&& /",
      "$' &&$&",
      "$% &&$&'",
      "%$ &&&&'",
      "&&$& /",
      "'$ &&'&'",
      "%( &&&&%",
      "%( &&%&'",
      "Ġ&& Ğ"
    ]
  }
}