{
  "version": "1.0",
  "truncation": null,
  "padding": null,
  "added_tokens": [],
  "normalizer": null,
  "pre_tokenizer": {
    "type": "ByteLevel",
    "add_prefix_space": false,
    "trim_offsets": true,
    "use_regex": true
  },
  "post_processor": {
    "type": "ByteLevel",
    "add_prefix_space": true,
    "trim_offsets": false,
    "use_regex": true
  },
  "decoder": {
    "type": "ByteLevel",
    "add_prefix_space": true,
    "trim_offsets": true,
    "use_regex": true
  },
  "model": {
    "type": "BPE",
    "dropout": null,
    "unk_token": null,
    "continuing_subword_prefix": null,
    "end_of_word_suffix": null,
    "fuse_unk": false,
    "byte_fallback": false,
    "ignore_merges": false,
    "vocab": {
      "\u0000": 0,
      "\u0001": 1,
      "\u0002": 2,
      "\u0003": 3,
      "\u0004": 4,
      "\u0005": 5,
      "\u0006": 6,
      "\u0007": 7,
      "\b": 8,
      "\t": 9,
      "\n": 10,
      "\u000b": 11,
      "\f": 12,
      "\r": 13,
      "\u000e": 14,
      "\u000f": 15,
      "\u0010": 16,
      "\u0011": 17,
      "\u0012": 18,
      "\u0013": 19,
      "\u0014": 20,
      "\u0015": 21,
      "\u0016": 22,
      "\u0017": 23,
      "\u0018": 24,
      "\u0019": 25,
      "\u001a": 26,
      "\u001b": 27,
      "\u001c": 28,
      "\u001d": 29,
      "\u001e": 30,
      "\u001f": 31,
      " ": 32,
      "!": 33,
      "\"": 34,
      "#": 35,
      "$": 36,
      "%": 37,
      "&": 38,
      "'": 39,
      "(": 40,
      ")": 41,
      "*": 42,
      "+": 43,
      ",": 44,
      "-": 45,
      ".": 46,
      "/": 47,
      "0": 48,
      "1": 49,
      "2": 50,
      "Ā": 51,
      "ā": 52,
      "Ă": 53,
      "ă": 54,
      "Ą": 55,
      "ą": 56,
      "Ć": 57,
      "ć": 58,
      "Ĉ": 59,
      "ĉ": 60,
      "Ċ": 61,
      "ċ": 62,
      "Č": 63,
      "č": 64,
      "Ď": 65,
      "ď": 66,
      "Đ": 67,
      "đ": 68,
      "Ē": 69,
      "ē": 70,
      "Ĕ": 71,
      "ĕ": 72,
      "Ė": 73,
      "ė": 74,
      "Ę": 75,
      "ę": 76,
      "Ě": 77,
      "ě": 78,
      "Ĝ": 79,
      "ĝ": 80,
      "Ğ": 81,
      "ğ": 82,
      "Ġ": 83,
      "ęę": 84,
      "ęęęę": 85,
      "ęĚ": 86,
      "ęĘ": 87,
      "ęęĘ": 88,
      "ęęĚ": 89,
      "ĀĀ": 90,
      "ęě": 91,
      "ęė": 92,
      "ęęęęęęęę": 93,
      "ęęě": 94,
      "ęęė": 95,
      "Ęęęęę": 96,
      "Ěęęęę": 97,
      "ęęęĚ": 98,
      "ęęęĘ": 99,
      "ęĜ": 100,
      "ęĖ": 101,
      "ęęĖ": 102,
      "ęęĜ": 103,
      "ęĚęęęę": 104,
      "ęĘęęęę": 105,
      "ęĕ": 106,
      "ęĝ": 107,
      "ĘęęĚ": 108,
      "ĘęęĘ": 109,
      "ĚęęĘ": 110,
      "ęĚĚ": 111,
      "ĚęęĚ": 112,
      "ęęęęĘ": 113,
      "ęęĕ": 114,
      "ęęęęĚ": 115,
      "ęĚĘ": 116,
      "ęĘĚ": 117,
      "ęĘĘ": 118,
      "ęęĝ": 119,
      "ęęęė": 120,
      "ęęęě": 121,
      "ęęę": 122,
      "ėęęęę": 123,
      "ěęęęę": 124,
      "ęĞ": 125,
      "ęęęęęęęęęęęę": 126,
      "ęęĘęęęę": 127,
      "ęęĚęęęę": 128,
      "ęęĔ": 129,
      "ĀĘ": 130,
      "ėęęĚ": 131,
      "ęĔ": 132,
      "ęęĞ": 133,
      "ěęęĘ": 134,
      "ĀĚ": 135,
      "Āě": 136,
      "ėęęĘ": 137,
      "ĀĀĘ": 138,
      "ęĚě": 139,
      "ĀĀę": 140,
      "Ęęęě": 141,
      "ęěĘ": 142,
      "ěęęĚ": 143,
      "ęěĚ": 144,
      "Ěęęė": 145,
      "Ęęęė": 146,
      "Ěęęě": 147,
      "ęĚė": 148,
      "ĀĀĚ": 149,
      "ęĘě": 150,
      "ęĘė": 151,
      "ęėĚ": 152,
      "ĀĀė": 153,
      "Āė": 154,
      "ĀĖ": 155,
      "ęėĘ": 156,
      "ęęęęęęęęęęęęęęęę": 157,
      "ęęē": 158,
      "ęęęĜ": 159,
      "ęğ": 160,
      "ĀĜ": 161,
      "ęęğ": 162,
      "ĀĀĖ": 163,
      "ĀĀě": 164,
      "ęęęĖ": 165,
      "ęęĘę": 166,
      "ęē": 167,
      "Āĕ": 168,
      "ėęęě": 169,
      "Ėęęęę": 170,
      "ęěě": 171,
      "Āĝ": 172,
      "ęěęęęę": 173,
      "ęęęĚęęęę": 174,
      "ęęęĘęęęę": 175,
      "ĚĚ": 176,
      "ęėęęęę": 177,
      "ĖęęĚ": 178,
      "ęěė": 179,
      "ęėė": 180,
      "ęęęĚę": 181,
      "ęĘęęĚ": 182,
      "ěęęė": 183,
      "ĚęęęęĘ": 184,
      "ęĚęęĚ": 185,
      "ĀĀĜ": 186,
      "ęęęĘę": 187,
      "ĖęęĘ": 188,
      "ĚĘ": 189,
      "ęĚęęĘ": 190,
      "ėęęė": 191,
      "ęęĒ": 192,
      "ęĘĘęęęę": 193,
      "ĀĀĕ": 194,
      "Ĝęęęę": 195,
      "ĀĞ": 196,
      "ĜęęĘ": 197,
      "ęĚĘęęęę": 198,
      "ĜęęĚ": 199,
      "ęĚĚęęęę": 200,
      "ěęęě": 201,
      "ęĜĚ": 202,
      "ęĚĜ": 203,
      "ĘęęęęĘ": 204,
      "ěĚ": 205,
      "ėĚ": 206,
      "ęĘęęĘ": 207,
      "ęėě": 208,
      "ėĘ": 209,
      "ĀĀĝ": 210,
      "ęĜĘ": 211,
      "ęĘĜ": 212,
      "ęĚęęęęĘ": 213,
      "ĀĔ": 214,
      "ěĘ": 215,
      "ęĚĖ": 216,
      "ĀĀĔ": 217,
      "ęĖĘ": 218,
      "ęĘĖ": 219,
      "ęĘĚęęęę": 220,
      "ęĒ": 221,
      "ęĘęęęęĘ": 222,
      "ęĖĚ": 223,
      "ęĘęęęęĚ": 224,
      "ĘęęĖ": 225,
      "Ėęęě": 226,
      "ĚęęĖ": 227,
      "ĀĀĞ": 228,
      "ęęęęęęęęęęę": 229,
      "ĘęęĜ": 230,
      "ęęęĘęęĚ": 231,
      "ĚęęęęĚ": 232,
      "ęěĜ": 233,
      "ĀĀğ": 234,
      "ęęęĕ": 235,
      "ĘęęęęĚ": 236,
      "ęėĖ": 237,
      "ęęęęĘĘ": 238,
      "Ĝęęė": 239,
      "ěęęĖ": 240,
      "ęęĚęęęĚ": 241,
      "Āğ": 242,
      "ĕęęęę": 243,
      "ĚęęĜ": 244,
      "ęęĚę": 245,
      "ęęęĘęęĘ": 246,
      "ęĜě": 247,
      "ęę!": 248,
      "ęęęĝ": 249,
      "ęĚęęęęĚ": 250,
      "ęęęęĚĚ": 251,
      "ĕęęĘ": 252,
      "ęĖė": 253,
      "Āē": 254,
      "ěě": 255,
      "ĀĀē": 256,
      "ęėĜ": 257,
      "ĀĀĒ": 258,
      "ĕęęĚ": 259,
      "ęęđ": 260,
      "ėęęĖ": 261,
      "ėęęĜ": 262,
      "Ĝęęě": 263,
      "ęęęęĘĚ": 264,
      "Ėęęė": 265,
      "ęĜė": 266,
      "ęęęĚęęĘ": 267,
      "ęĜĜ": 268,
      "ĖĚ": 269,
      "ěĝ": 270,
      "ĘęęĚę": 271,
      "ěęęĜ": 272,
      "ęęęęĚĘ": 273,
      "ęĖĖ": 274,
      "ęĖě": 275,
      "ĀĀĘĀ": 276,
      "ęěĖ": 277,
      "ėė": 278,
      "ę!": 279,
      "ęĚęĘęęęę": 280,
      "ęęęĚęęĚ": 281,
      "ĝęęęę": 282,
      "ĝęęĘ": 283,
      "ęĘęĚęęęę": 284,
      "ĀĀđ": 285,
      "ęĖęęęę": 286,
      "ęĘĕ": 287,
      "ěĜ": 288,
      "ęĚĝ": 289,
      "ĀĀęĀ": 290,
      "ęėęęĘ": 291,
      "ęęęĞ": 292,
      "ęĘĚęęęĚ": 293,
      "ęęęęęęĚ": 294,
      "ęěęęĘ": 295,
      "ĝęęĚ": 296,
      "ęę\"": 297,
      "ĜĚ": 298,
      "ĖęęĜ": 299,
      "Ęęęĕ": 300,
      "ęđ": 301,
      "ěė": 302,
      "ęĕĚ": 303,
      "ęĚĕ": 304,
      "ęĝĘ": 305,
      "ęęĘęęęĘ": 306,
      "ęĚęęęęęę": 307,
      "ĚęęĘę": 308,
      "ĜĘ": 309,
      "ęęĚĚęęĚ": 310,
      "ĕĚ": 311,
      "Ĝě": 312,
      "ėě": 313,
      "ęęĘĘęęęę": 314,
      "ęĜęęęę": 315,
      "ĀĀ!": 316,
      "ęėęęĚ": 317,
      "ĘęęĘę": 318,
      "ęęęęęęęęęęęęę": 319,
      "ĜĜ": 320,
      "ęĕė": 321,
      "ęĕĘ": 322,
      "ĀĀ\"": 323,
      "ęĝĚ": 324,
      "ĀĀĖĀ": 325,
      "ęĘĝ": 326,
      "ęęěęęęę": 327,
      "Ėě": 328,
      "ęęĐ": 329,
      "ęěĝ": 330,
      "ęĘęęęęęę": 331,
      "ęĘęĚ": 332,
      "ĘĚ": 333,
      "ĔęęĚ": 334,
      "ĕęęě": 335,
      "ĀĀěĀ": 336,
      "ėĖ": 337,
      "ęĘęĘęęęę": 338,
      "ĀĀĚĀ": 339,
      "ĕęęė": 340,
      "ĖĘ": 341,
      "Ěęęęęę": 342,
      "ĜęęĖ": 343,
      "ĝęęė": 344,
      "ęĚĘęęęĘ": 345,
      "ĕĘ": 346,
      "Ėė": 347,
      "ęĚęĘ": 348,
      "ęěęęĚ": 349,
      "ĀĀėĀ": 350,
      "ĝĚ": 351,
      "ęĚęĚęęęę": 352,
      "ęęėęęęę": 353,
      "ęĘĘęęęĘ": 354,
      "ĀĀĐ": 355,
      "ęęęęęęęęęĘ": 356,
      "ĖęęĖ": 357,
      "ęĚĚęęęĚ": 358,
      "Ęęęĝ": 359,
      "ĚęęĚę": 360,
      "ėęęĝ": 361,
      "ěĞ": 362,
      "ęĜĖ": 363,
      "Ěęęĕ": 364,
      "ęĚĞ": 365,
      "ĀĀ$": 366,
      "ęĚĚĘęęĚ": 367,
      "ėĜ": 368,
      "ęęĘĚęęĘ": 369,
      "ęęęĔ": 370,
      "ĀĀ#": 371,
      "ęęęęęęęęęęęęęęęęęęęę": 372,
      "ĘĘ": 373,
      "ęęĘĘęęĘ": 374,
      "ęęĘęęęęę": 375,
      "ęĚęĘęęĚ": 376,
      "ęĘęĚęęĚ": 377,
      "ęĖĜ": 378,
      "ęėĕ": 379,
      "ęęĚęęęęę": 380,
      "ėĝ": 381,
      "ěęęęęĘ": 382,
      "ęęĚĚęęęę": 383,
      "ęėĝ": 384,
      "ĔęęĘ": 385,
      "ėęęęęĚ": 386,
      "ę\"": 387,
      "ĜĞ": 388,
      "ĀĀď": 389,
      "Ęęęęęę": 390,
      "ęęęē": 391,
      "ěęęęęĚ": 392,
      "ęęĘĚęęęę": 393,
      "Ěęęęęęę": 394,
      "ęĝě": 395,
      "ęĚĘĚęęĘ": 396,
      "ęęęęęęĘ": 397,
      "Ėĝ": 398,
      "ěęęĕ": 399,
      "ĞĚ": 400,
      "ęěĕ": 401,
      "ęĜĝ": 402,
      "ęĚĚĘęęęę": 403,
      "ęĚęĚ": 404,
      "ęĘėęęęę": 405,
      "ęěĚęęęę": 406,
      "ęėęęęęĚ": 407,
      "ĠĚ": 408,
      "ęęęęęęęęĚ": 409,
      "Ėęęĕ": 410,
      "ėęęęęĘ": 411,
      "ĝęęě": 412,
      "ęęĚĘęęĚ": 413,
      "ĀĀĎ": 414,
      "Ĕęęęę": 415,
      "ęĘęě": 416,
      "ęęĚĘęęęę": 417,
      "ęęęęęęęęęęęęęęę": 418,
      "ĀĀĘĀĘ": 419,
      "ĀĀĜĀ": 420,
      "ęĘęĘ": 421,
      "ęę#": 422,
      "ęėęęęęĘ": 423,
      "ęĚĘĘęęĘ": 424,
      "ęęď": 425,
      "ęĝė": 426,
      "ĕĝ": 427,
      "ĜęęĜ": 428,
      "ęĚęęęęęęĚ": 429,
      "ęĚĚĚęęęę": 430,
      "ęĘĘĚęęĘ": 431,
      "ĀĚĘ": 432,
      "ĀĚĚ": 433,
      "ĀĀĕĀ": 434,
      "Ėęęĝ": 435,
      "ęęěęęęĚ": 436,
      "ĘęęęęęęĘ": 437,
      "ęĘęęęęę": 438,
      "ęęęęęęęęęęęęęęęęęę": 439,
      "ĀĀĔĀ": 440,
      "Ĝĝ": 441,
      "Ġĝ": 442,
      "ęęęęęęęęęĚ": 443,
      "ęĞĘ": 444,
      "ĕęęĖ": 445,
      "ėĞ": 446,
      "ėęęĕ": 447,
      "ěĖ": 448,
      "ęĘęĘęęĚ": 449,
      "ęęęęęęęęęęęĘ": 450,
      "ęĚęęęęę": 451,
      "ĀĀĝĀ": 452,
      "ĕęęĜ": 453,
      "ęĚěęęęę": 454,
      "Ęęęęęęę": 455,
      "ęĜĕ": 456,
      "ęĝĜ": 457,
      "ēĘ": 458,
      "ěęęĝ": 459,
      "ęęėęęęĘ": 460,
      "ęĖĕ": 461,
      "ęĘęęęęęęĚ": 462,
      "ĔĚ": 463,
      "Ĕęęė": 464,
      "ĖĞ": 465,
      "ėęęĞ": 466,
      "ęĚĔ": 467,
      "ęĘęĚęęĘ": 468,
      "ęěĞ": 469,
      "ęěęęęęĘ": 470,
      "ĚęęęęęęĚ": 471,
      "ęĚęęęęęęĘ": 472,
      "ęĚěęęęĚ": 473,
      "ğĚ": 474,
      "ĀĀ%": 475,
      "ęĘĚĘęęĚ": 476,
      "ęĘĚĚęęĚ": 477,
      "ěęęęĚ": 478,
      "ĠĜ": 479,
      "ęĕĖ": 480,
      "ęęęėęęęę": 481,
      "Ĝęęĕ": 482,
      "ĝĞ": 483,
      "ĠĘ": 484,
      "ęęĚęęĘ": 485,
      "ęęęęęęęęęęęĚ": 486,
      "ęĘęęęęęęĘ": 487,
      "ęĔĘ": 488,
      "ĀĀĚĀĘ": 489,
      "ĕě": 490,
      "ęęęęęęęęĘ": 491,
      "ęĞĚ": 492,
      "ęęĘęęęęęęĘ": 493,
      "ęĚęĘęęĘ": 494,
      "ęĜęęĘ": 495,
      "ęĘĚĚęęęę": 496,
      "ĀĀĘĀě": 497,
      "ĀĀęĀĘ": 498,
      "ĖĖ": 499,
      "ę#": 500,
      "Ĝė": 501,
      "ĀĀėĀĘ": 502,
      "ęĐ": 503,
      "ĚĚęęęę": 504,
      "ĠĞ": 505,
      "ęĚęęęĚ": 506,
      "ęĘĔ": 507,
      "ĀĀ&": 508,
      "ęęęğ": 509,
      "ęĘėęęęĘ": 510,
      "ĚęęęęĘĘ": 511,
      "ĒĘ": 512,
      "ěĕ": 513,
      "ĝĘ": 514,
      "ęęėĚęęĘ": 515,
      "ęĖĝ": 516,
      "ęĕě": 517,
      "ęęĚęęęęęęĚ": 518,
      "ēęęĘ": 519,
      "ĔĖ": 520,
      "ęę$": 521,
      "ęĚęęě": 522,
      "ęĚęĚęęĚ": 523,
      "ęĘĞ": 524,
      "ęĘĘĚęęęę": 525,
      "ęĚĚęęęęę": 526,
      "ēė": 527,
      "ēęęė": 528,
      "ĔĘ": 529,
      "Ĕęęě": 530,
      "ěęęĔ": 531,
      "ĝĜ": 532,
      "ęĚęĚęęĘ": 533,
      "ęĘęęęĘ": 534,
      "ęĘĘěęęĘ": 535,
      "ęĞě": 536,
      "ēĚ": 537,
      "ĕĜ": 538,
      "ĝě": 539,
      "ęĘęęė": 540,
      "ĀĀ)": 541,
      "ęěęęęęĚ": 542,
      "ęĝęęęę": 543,
      "ęĚĚĚęęĚ": 544,
      "ęĚĘĘęęęę": 545,
      "ĀĀęĀě": 546,
      "ĀĀĞĀ": 547,
      "ęęěĚęęĚ": 548,
      "ĚęęęęęęĘ": 549,
      "ęĖęęĚ": 550,
      "ęĕęęęę": 551,
      "ĀĀĚĀĖ": 552,
      "Ĕě": 553,
      "ĕęęĕ": 554,
      "ĖĜ": 555,
      "ĘĞ": 556,
      "ęėĘęęęę": 557,
      "ęęęěę": 558,
      "ĀėĘ": 559,
      "ĀĖĘ": 560,
      "ĒĚ": 561,
      "ĔĜ": 562,
      "ğĞ": 563,
      "ĀĀ(": 564,
      "ęėĞ": 565,
      "ęĖęęĘ": 566,
      "ęĘĘĘęęęę": 567,
      "ęęęėę": 568,
      "ĀĀĚĀĚ": 569,
      "ęĘěęęęĚ": 570,
      "ĔęęĖ": 571,
      "ĕė": 572,
      "ĕĞ": 573,
      "Ěęęĝ": 574,
      "ĝęęĖ": 575,
      "ğęęĘ": 576,
      "ęĚęęė": 577,
      "ęęĚęęęě": 578,
      "ęěęęė": 579,
      "ęęěĘęęĚ": 580,
      "ęĝĖ": 581,
      "ęęęėęęĘ": 582,
      "ęĘĘęęęęę": 583,
      "ęĚĘęęęęę": 584,
      "ĀĀğĀ": 585,
      "ėęęĔ": 586,
      "ěğ": 587,
      "ěĘęęęę": 588,
      "ęĚėęęęę": 589,
      "ęĘęęęęęęęęęęęę": 590,
      "ĀĀ'": 591,
      "ęėĚęęęę": 592,
      "ęĜĞ": 593,
      "ęĜęęĚ": 594,
      "ęĘĚĘęęęę": 595,
      "ęĚěĘęęĚ": 596,
      "ĒĖ": 597,
      "ēęęĚ": 598,
      "ęĘęęě": 599,
      "ęėęęě": 600,
      "ęĝĝ": 601,
      "ęęĘęęęęęę": 602,
      "ęęĚęęęęęęĘ": 603,
      "ĀĀėĀě": 604,
      "ĖęęĞ": 605,
      "Ĝęęĝ": 606,
      "ĝĝ": 607,
      "ęęĎ": 608,
      "ęĘěęęęę": 609,
      "ęėĔ": 610,
      "ėęęęĘ": 611,
      "ĘęęĞ": 612,
      "ęėęęė": 613,
      "ęĚĘęęęė": 614,
      "!ğ": 615,
      "ėĘęęęę": 616,
      "ĚĞ": 617,
      "ĝęęĜ": 618,
      "Ġě": 619,
      "ęĘē": 620,
      "ęĘęęęęęęęę": 621,
      "ęęěęęĘ": 622,
      "ęęĘęęęęęęĚ": 623,
      "ĀĀēĀ": 624,
      "ĕęęĝ": 625,
      "ę$": 626,
      "Ġė": 627,
      "ęĚęęęęęęęęęęęę": 628,
      "ęĘęĘęęĘ": 629,
      "ęęĚęęęĘ": 630,
      "ĘęęęęęęĚ": 631,
      "ęęęĘęęė": 632,
      "ęĘĘĘęęĘ": 633,
      "ěęęĚę": 634,
      "ĀĀėĀĚ": 635,
      "ęğĚ": 636,
      "Ĕė": 637,
      "ėĘęęĘ": 638,
      "ĝğ": 639,
      "Ġęęęę": 640,
      "ęęĚęęęĚę": 641,
      "ęěĘęęęę": 642,
      "ęěęĘęęęę": 643,
      "ęĔĚ": 644,
      "ĀĀęĀĖ": 645,
      "ęęęęęęęęęęęęęęęęęęęęęęęę": 646,
      "ĀĜĘ": 647,
      "ĀĀĖĀĚ": 648,
      "ĀĀěĀĘ": 649,
      "ĔĞ": 650,
      "ĕĕ": 651,
      "ĖęęęęĚ": 652,
      "ęĀĀ": 653,
      "ğě": 654,
      "Ġ!": 655,
      "ęęęĘęęě": 656,
      "ęĖĔ": 657,
      "ęĝĕ": 658,
      "ęęęěęęęę": 659,
      "ęęęĒ": 660,
      "ĀěĘ": 661,
      "ĚęęęęĘĚ": 662,
      "ĖęęęęĘ": 663,
      "Ğęęęę": 664,
      "ĠĀ": 665,
      "ęěęĘęęĚ": 666,
      "ĘęęęęĚĘ": 667,
      "ęęęĚęęęęęęęę": 668,
      "ęęęĚęęė": 669,
      "ęęęěęęĘ": 670,
      "ęęę!": 671,
      "ęĞĖ": 672,
      "ęĔė": 673,
      "ĀĀęĀė": 674,
      "ĀĀęĀĕ": 675,
      "ĀĀĚĀė": 676,
      "ęĘěĚęęĚ": 677,
      "ĀĀėĀĖ": 678,
      "ĘęęęęĘĘ": 679,
      "ęĚęęęęĘę": 680,
      "ĀĀ\"Ā": 681,
      "đĘ": 682,
      "ĘęęĔ": 683,
      "ěĚęęęę": 684,
      "ĞĘ": 685,
      "ĠĖ": 686,
      "Ġğ": 687,
      "ęęěę": 688,
      "ĚęęęęĚĘ": 689,
      "ęĜęęęęĘ": 690,
      "ęĕĕ": 691,
      "ęĕĜ": 692,
      "ęĚĚęęęĘ": 693,
      "ęĔě": 694,
      "ĀĀĘĀĕ": 695,
      "ęęęęęęęęęęęęęęęęęęę": 696,
      "ĘęęęęĘĚ": 697,
      "ĀĀĒĀ": 698,
      "!Ĝ": 699,
      "Ēē": 700,
      "ĒĞ": 701,
      "Ĕĝ": 702,
      "ėĕ": 703,
      "ĞęęĘ": 704,
      "Ġĕ": 705,
      "ęěĔ": 706,
      "ęėęĚęęęę": 707,
      "ęĝĞ": 708,
      "ęĚĘĘęęė": 709,
      "ĀĀĘĀė": 710,
      "ĀĀęĀĚ": 711,
      "ęĘěĘęęĚ": 712,
      "ēĞ": 713,
      "Ĕęęĝ": 714,
      "Ěĝ": 715,
      "Ĝğ": 716,
      "ęėęĘęęęę": 717,
      "ęėęĚęęĚ": 718,
      "ęĘĘęęęė": 719,
      "ęęĚęęęęęę": 720,
      "ėęęĘę": 721,
      "ĀĀĘĀĖ": 722,
      "ęěĘĘęęĘ": 723,
      "ęĚėĚęęĘ": 724,
      "ĀĀėĀĝ": 725,
      "ęęęęęęęęęęęęęęęęęęęęęęęęęęęęęęęę": 726,
      "ĀĀĖĀė": 727,
      "ęĘĚęęęęę": 728,
      "ĔęęĜ": 729,
      "ĕĖ": 730,
      "ėğ": 731,
      "ęď": 732,
      "ĜęęęęĘ": 733,
      "ęĚęėęęĘ": 734,
      "ęĘğ": 735,
      "ęęęěęęĚ": 736,
      "ęęęđ": 737,
      "ęėĚęęęĚ": 738,
      "ĒĜ": 739,
      "ēĖ": 740,
      "ēęęęę": 741,
      "ēęęĜ": 742,
      "Ěě": 743,
      "ĜęęęęĚ": 744,
      "ĞęęĚ": 745,
      "ęĘęěęęęę": 746,
      "ęęĘęęęĚ": 747,
      "ęęĚęęĚ": 748,
      "ęęęęęęęęęęĚ": 749,
      "ęęęęęęęęĘęęęę": 750,
      "ęĔĖ": 751,
      "ęĚėęęęĘ": 752,
      "ęĚėĘęęĘ": 753,
      "ĀĀĚĀě": 754,
      "ĀĀěĀě": 755,
      "ęĚęė": 756,
      "ęĚęĘęęęęĘ": 757,
      "ęęėĘęęĘ": 758,
      "ęĚęęęęė": 759,
      "ęĘĘęęęĚ": 760,
      "ęĞė": 761,
      "ĀĘĘ": 762,
      "ĀĀęĀĜ": 763,
      "ęěĘĚęęĘ": 764,
      "ĀĀĚĀĜ": 765,
      "ęĘėĘęęĘ": 766,
      "ęĘėĚęęĘ": 767,
      "ęęęĜęęĚ": 768,
      "đĖ": 769,
      "Ēĕ": 770,
      "ěęęĞ": 771,
      "ĠĀĀ": 772,
      "ęę%": 773,
      "ęĚĘęęĚ": 774,
      "ęĚęĘęęęęĚ": 775,
      "ęĘĚęęĘ": 776,
      "ęĘęęĘę": 777,
      "ęěęĚęęĘ": 778,
      "ęęėę": 779,
      "ĘęęęęĚĚ": 780,
      "ęĜĔ": 781,
      "ęĚęęęęě": 782,
      "ęĘęęęęė": 783,
      "ęĕĝ": 784,
      "ęĚĚęęęě": 785,
      "ęęęėęęĚ": 786,
      "ėęęęęė": 787,
      "ęĔĜ": 788,
      "ęĚěĚęęĚ": 789,
      "!ě": 790,
      "Ā!": 791,
      "đė": 792,
      "ĒĒ": 793,
      "ēęęě": 794,
      "ėęęęęĚĚ": 795,
      "ĚęęĔ": 796,
      "ĚęęĞ": 797,
      "Ěęęē": 798,
      "ěĘęęĚ": 799,
      "ĜĖ": 800,
      "ęĚğ": 801,
      "ęĚęėęęęę": 802,
      "ęĘęęĖ": 803,
      "ęęĘěęęĘ": 804,
      "ęěğ": 805,
      "ęėē": 806,
      "ęėęĚęęĘ": 807,
      "ęęęęęęęęĚęęęę": 808,
      "ęęęęęęęęęęęęĚ": 809,
      "ęęĖęęęę": 810,
      "ęĕęęĘ": 811,
      "ĘęęĘęĚĘ": 812,
      "ęĚĘĚęęęę": 813,
      "ęĚĘėęęĘ": 814,
      "ėęęĚę": 815,
      "ĀĀĘĀĚ": 816,
      "ĀĀėĀė": 817,
      "ĀĀėĀĜ": 818,
      "ĀĀěĀĚ": 819,
      "Ēě": 820,
      "ĒęęĘ": 821,
      "Ĕĕ": 822,
      "ęĚē": 823,
      "ęĚęě": 824,
      "ęęĘęęęė": 825,
      "ĀĀ+": 826,
      "ęęęęęęęęęęĘ": 827,
      "ęęęęęęęęęęęęĘ": 828,
      "ęęėęęęė": 829,
      "ęęęĚęęęęĘ": 830,
      "ęĖğ": 831,
      "ęĘęęęęě": 832,
      "ęĚĚėęęĚ": 833,
      "ęĚĘęęęĘę": 834,
      "ęĘĚęęęě": 835,
      "ęĘĚęęęĚę": 836,
      "ęĞĜ": 837,
      "ĀĘĚ": 838,
      "ĀĀęĀĝ": 839,
      "Ěęęěę": 840,
      "ĀĀĚĀĕ": 841,
      "ęėĚĘęęĚ": 842,
      "ęėĘĚęęęę": 843,
      "ęėĘęęęĘ": 844,
      "ęğĜ": 845,
      "Ēė": 846,
      "ěĚęęĚ": 847,
      "ĝĖ": 848,
      "ĝęęĕ": 849,
      "ęĚęĚęęęęĘ": 850,
      "ęęĚĘęęě": 851,
      "ĀĀ*": 852,
      "ęęěĘęęě": 853,
      "ęĖĞ": 854,
      "ęĚĚėęęęę": 855,
      "ęĞĕ": 856,
      "ěęęĘę": 857,
      "ĀĀĘĀĜ": 858,
      "ęęęĚęęęęęęĘ": 859,
      "ĀĀĕĀě": 860,
      "ĀĀđĀ": 861,
      "ĐĘ": 862,
      "Ěğ": 863,
      "ĚĚęęĚ": 864,
      "ęęęęė": 865,
      "ęĘĘęęĘ": 866,
      "ęėğ": 867,
      "ęėėęęęę": 868,
      "ęĕęęĚ": 869,
      "ęĘĘęęęĘę": 870,
      "ęĞĝ": 871,
      "ĀĀĘĀĝ": 872,
      "Ęęęěę": 873,
      "ĀĀėĀĕ": 874,
      "ĀĀĜĀĘ": 875,
      "ĀĀĜĀė": 876,
      "đě": 877,
      "ēě": 878,
      "ĔĔ": 879,
      "Ėęęğ": 880,
      "ėĚęęĘ": 881,
      "ėěęęĘ": 882,
      "ėęęğ": 883,
      "ėęęęęĘĘ": 884,
      "Ęęęğ": 885,
      "ěęęęęĘĘ": 886,
      "ĠęęĘ": 887,
      "ęĚęėęęĚ": 888,
      "ęĘęęęĘę": 889,
      "ęęĚėęęĚ": 890,
      "ęěěęęęę": 891,
      "ęėęě": 892,
      "ęęěęęęě": 893,
      "Ęęęęęė": 894,
      "ęęęĚęęęęĚ": 895,
      "ęĝęęĘ": 896,
      "ęĚĘĘęęĚ": 897,
      "ęĚěęęęě": 898,
      "ęěĚĘęęĚ": 899,
      "ęėĘĚęęĘ": 900,
      "ĀĀěĀė": 901,
      "ęēĘ": 902,
      "ęęęĘęęęęę": 903,
      "ęęęĘęęęęęęĘ": 904,
      "ĀĀĕĀĘ": 905,
      "ĀĀ!Ā": 906,
      "ĒĐ": 907,
      "ĒĔ": 908,
      "ēđ": 909,
      "ēĝ": 910,
      "ĕğ": 911,
      "ĖęęęĘ": 912,
      "ĘĘęęęę": 913,
      "ĚĘęęęę": 914,
      "ĜęęęĚ": 915,
      "Ğğ": 916,
      "ęęęęę": 917,
      "ęĚęęĜ": 918,
      "ęęĘęęęĘę": 919,
      "ęěęĘęęĘ": 920,
      "ęęěĚęęě": 921,
      "ęęęĘęęęęĘ": 922,
      "ęĜęęė": 923,
      "ęĚĚęęĚ": 924,
      "ęĚĘėęęęę": 925,
      "ęĘĚėęęĚ": 926,
      "ęęĚęęęęęęĚęęęę": 927,
      "ĀĀĘĀĔ": 928,
      "ęěĘĘęęęę": 929,
      "Ěęęėę": 930,
      "ęğğ": 931,
      "ęěėĘęęĘ": 932,
      "ĀĀĜĀĖ": 933,
      "ĀĞĚ": 934,
      "ęĘęęęęĘę": 935,
      "ęĚęęęęĚę": 936,
      "đĞ": 937,
      "ĒęęĚ": 938,
      "Ēęęě": 939,
      "ēĜ": 940,
      "ĕęę": 941,
      "Ėğ": 942,
      "ĚęęęĚ": 943,
      "Ĝĕ": 944,
      "Ġ#": 945,
      "ęęĘĘęęė": 946,
      "ęęėęęĘ": 947,
      "ęęėĘęęęę": 948,
      "ęęęĘęęęęĚ": 949,
      "ęĜęĘęęĘ": 950,
      "ęĖęęė": 951,
      "ęĚęęęęęęęĚ": 952,
      "ęĝęęĚ": 953,
      "ęĚĚĘęęĘ": 954,
      "ęĘĚęęęĘ": 955,
      "ęĘĚěęęĚ": 956,
      "ęěĚęęęĚ": 957,
      "ęėĘĚęęĚ": 958,
      "ĀĀĖĀě": 959,
      "ĀĀĖĀĖ": 960,
      "ĀĀěĀĝ": 961,
      "ĀĀĜĀĚ": 962,
      "ęĚĖĘęęĘ": 963,
      "!Ę": 964,
      "!ĝ": 965,
      "!Ğ": 966,
      "\"ğ": 967,
      "đĚ": 968,
      "Ēęęęę": 969,
      "ēĔ": 970,
      "ĕęęęęĚ": 971,
      "ĖęęĔ": 972,
      "ĖęęĘę": 973,
      "ėĚęęęę": 974,
      "ğęęęę": 975,
      "ęĚęęĘę": 976,
      "ęĘĒ": 977,
      "ęĘęėęęęę": 978,
      "ęĘęĚęęęęĘ": 979,
      "ęęĚĘęęĘ": 980,
      "ęěē": 981,
      "ęęėěęęĘ": 982,
      "ęĜĚęęęę": 983,
      "ęĖē": 984,
      "ęĖęęęęĘ": 985,
      "ęĖęęęęĚ": 986,
      "ęęĜęęęĚ": 987,
      "ęĘęęęęęęęĘ": 988,
      "ęĕĔ": 989,
      "ęĕĞ": 990,
      "ęĚĘěęęĘ": 991,
      "ęęęęęęęęęęęęęĘęęęę": 992,
      "ęĚěĘęęě": 993,
      "ęěĘęęęĘ": 994,
      "ęĘėęęęė": 995,
      "ĀĀĖĀĘ": 996,
      "ĀĀěĀĖ": 997,
      "ęēĖ": 998,
      "ęęęĚęęęęę": 999,
      "ęęęĘęęęęęęĚ": 1000,
      "ĀĀĕĀĚ": 1001,
      "ĀĀĔĀĘ": 1002,
      "ęęęęĘĚĚęęęę": 1003,
      "ęĘęĚęęě": 1004,
      "ĀĀĐĀ": 1005,
      "ĀĀ#Ā": 1006,
      "!\"": 1007,
      "!Ě": 1008,
      "đĕ": 1009,
      "ĕęęęęĘ": 1010,
      "ėęĚęęęę": 1011,
      "ėėęęĘ": 1012,
      "ėęęē": 1013,
      "ėęęęęĚĘ": 1014,
      "ěę": 1015,
      "ğĀĀ": 1016,
      "Ġę": 1017,
      "ęęĘĚęęė": 1018,
      "ęěęĚęęęę": 1019,
      "ęęęęęęęęĘĚ": 1020,
      "ęęěĚęęęę": 1021,
      "ęęėĚęęė": 1022,
      "ęĘęęęęęęě": 1023,
      "ęĕğ": 1024,
      "ęĝĔ": 1025,
      "ęĘĘĘęęĚ": 1026,
      "ęĘĘĘęęė": 1027,
      "ěęęęęė": 1028,
      "ęěĚėęęĚ": 1029,
      "ęĘěėęęĚ": 1030,
      "ęĘėĚęęęę": 1031,
      "ęğě": 1032,
      "ĀĀĖĀĕ": 1033,
      "ęēė": 1034,
      "ĀĀĜĀě": 1035,
      "ĚĘęęĜ": 1036,
      "ĀĀĕĀĜ": 1037,
      "ĀĞĘ": 1038,
      "ęĚĜĘęęĚ": 1039,
      "ĀĀ$Ā": 1040,
      "ęęęęęęęęęęęęęęęęęęęęęęęęę": 1041,
      "\"Ě": 1042,
      "Ĕę": 1043,
      "Ĕęęĕ": 1044,
      "ĖĐ": 1045,
      "Ěęęęęęęęę": 1046,
      "ĜęęĔ": 1047,
      "ĜęęĞ": 1048,
      "ĝęęĝ": 1049,
      "ĞĞ": 1050,
      "ĞęęĜ": 1051,
      "ğęęĚ": 1052,
      "ęĚęěęęęę": 1053,
      "ęęĘĘ": 1054,
      "ęęĘĚęęĚ": 1055,
      "ęęęĚęęě": 1056,
      "ęĜğ": 1057,
      "ęĜęęęęĚ": 1058,
      "ęęĖĘęęĘ": 1059,
      "ęęĜęęęě": 1060,
      "ęĚęęęęęęĚęęęę": 1061,
      "ęĘĘĚęęĘę": 1062,
      "ęęęĐ": 1063,
      "ęĞęęęę": 1064,
      "ĀĀęĀĔ": 1065,
      "ęěĘėęęĘ": 1066,
      "ęěĚĚęęĚ": 1067,
      "ęĚėėęęĘ": 1068,
      "ęĘěęęęě": 1069,
      "ęėĚĚęęĚ": 1070,
      "ĀĀĖĀĜ": 1071,
      "ęęęĖęęęę": 1072,
      "ęęęĖęęĚ": 1073,
      "ęěėėęęĘ": 1074,
      "ĀĀĕĀĖ": 1075,
      "ĀĀĝĀě": 1076,
      "ĕĚęęĕ": 1077,
      "ęęęęęęęęęęęęęęęęęęęęęę": 1078,
      "!ė": 1079,
      "Ēĝ": 1080,
      "ĒęęĜ": 1081,
      "ēē": 1082,
      "Ėĕ": 1083,
      "ĖĘęęĘ": 1084,
      "ėęęęė": 1085,
      "ěęęē": 1086,
      "ĠęęĜ": 1087,
      "ęęęęęęě": 1088,
      "ęĘęěęęĘ": 1089,
      "ęĘęěęęĚ": 1090,
      "ęęĚĘ": 1091,
      "ęęĚěęęęę": 1092,
      "ĀĀ,": 1093,
      "ęěęĚęęĚ": 1094,
      "ęěęėęęĘ": 1095,
      "ęėęęęĘ": 1096,
      "ęėĘęęĘ": 1097,
      "ęęėėęęĘ": 1098,
      "ęĜęęě": 1099,
      "ęĜĘęęęę": 1100,
      "ęĖėęęęę": 1101,
      "ęęĖęęęĘ": 1102,
      "ęĚęęęęęęęĘ": 1103,
      "ęĚęęęęęęĘęęęę": 1104,
      "ęĘęęęęęęė": 1105,
      "ęĝğ": 1106,
      "ęĚĚĚęęĘ": 1107,
      "ęĚĚĘęęě": 1108,
      "ęĚĘęęęĚ": 1109,
      "ęĚĘĚęęĚ": 1110,
      "ęĘĚĘęęě": 1111,
      "ęĘĘĚęęĚ": 1112,
      "ěęęęęėĘ": 1113,
      "ęĔĕ": 1114,
      "ĀĀĘĀē": 1115,
      "ęěĚĘęęęę": 1116,
      "ęěĚĘęęĘ": 1117,
      "ęěĚėęęęę": 1118,
      "ĀĀĚĀĝ": 1119,
      "ĀĀĚĀĔ": 1120,
      "ęĘěĚęęě": 1121,
      "ęĘėĚęęė": 1122,
      "ęėĘęęęĚ": 1123,
      "ęėĘĘęęĘ": 1124,
      "ęğĘ": 1125,
      "ĀĕĘ": 1126,
      "ęěěęęęĚ": 1127,
      "ęěěėęęĚ": 1128,
      "ęěėęęęĘ": 1129,
      "ęěėĚęęĘ": 1130,
      "ĀĀĕĀĝ": 1131,
      "ęĜĚęęęĘ": 1132,
      "ěĚęęĜ": 1133,
      "ęĘĖĚęęĘ": 1134,
      "ĀğĘ": 1135,
      "\"ě": 1136,
      "\"ĀĀ": 1137,
      "Ēęęė": 1138,
      "ēęęĖ": 1139,
      "ėęę": 1140,
      "ėęęęęĘĚ": 1141,
      "ĜęęĘę": 1142,
      "Ğęęě": 1143,
      "Ğęęė": 1144,
      "ĠęęĚ": 1145,
      "Ġęęě": 1146,
      "ęĘęęĜ": 1147,
      "ęęĚěęęĚ": 1148,
      "ęęĚĚęęě": 1149,
      "ęěėęęęę": 1150,
      "ęėęĘęęĘ": 1151,
      "ęėęěęęĚ": 1152,
      "ęĜē": 1153,
      "ęęĜĚęęě": 1154,
      "ęĘęęęęęęęĚ": 1155,
      "ęĚĚęęęęęęęęęęęę": 1156,
      "ęĚĚęęęĚę": 1157,
      "ęĘĚėęęęę": 1158,
      "ęĘĘěęęĚ": 1159,
      "ęęĘęęęęęęĘęęęę": 1160,
      "ęĔĔ": 1161,
      "ęĔĞ": 1162,
      "ĀĀĘĀĞ": 1163,
      "ĀĀęĀē": 1164,
      "ęěĘėęęęę": 1165,
      "Ęęęėę": 1166,
      "ęĚėęęęė": 1167,
      "ĀĀĚĀĞ": 1168,
      "ĀĀėĀĞ": 1169,
      "ęęęĜęęęę": 1170,
      "ęěěęęęě": 1171,
      "ęęęĚęęęęęęĚ": 1172,
      "ĚĚęęĜ": 1173,
      "ęĘęęĚę": 1174,
      "ĚęęęęĘĘęęęę": 1175,
      "ęĜĘĘęęĘ": 1176,
      "ęĚĖęęęĘ": 1177,
      "ĀĀĔĀė": 1178,
      "ęĘĖęęęĘ": 1179,
      "ĀĀĞĀĚ": 1180,
      "ĀĀĞĀė": 1181,
      "ĀĀĞĀĖ": 1182,
      "ęĘęĚęęė": 1183,
      "ĀĀďĀ": 1184,
      "ĀĀĎĀ": 1185,
      "\"Ğ": 1186,
      "Đė": 1187,
      "ĐĚ": 1188,
      "ēę": 1189,
      "ēęęĕ": 1190,
      "ĕĔ": 1191,
      "Ėęę": 1192,
      "ėęę!": 1193,
      "ĘĜ": 1194,
      "ěęęęě": 1195,
      "ěęęęęĚĚ": 1196,
      "ěęęęęĘĚ": 1197,
      "ĠĀě": 1198,
      "ęĚęęęęęęęęęęęęę": 1199,
      "ęĘđ": 1200,
      "ęĘęėęęĚ": 1201,
      "ęĘęęęęęęęęęęęęę": 1202,
      "ęęĘęęĘ": 1203,
      "ęęĘėęęĘ": 1204,
      "ęęĚęęęęęęęęęęęę": 1205,
      "ęėęęĜ": 1206,
      "ęėęěęęĘ": 1207,
      "ĘęęęęěĚ": 1208,
      "ĚęęęęęęĘęęęę": 1209,
      "ęęęĘęęĘę": 1210,
      "ęĖĘęęęę": 1211,
      "ęęĜęęęę": 1212,
      "ęĚęęęęĚĚ": 1213,
      "ęĘĚĚęęĘ": 1214,
      "ęĘĚěęęęę": 1215,
      "ęĘĚĚęęě": 1216,
      "ęĘĚĖęęĚ": 1217,
      "ęęęęęęęęęęęęęĚ": 1218,
      "ęěĚęęęĘ": 1219,
      "ęĘėěęęĘ": 1220,
      "ęęęĜęęĘ": 1221,
      "ĀĀĖĀĝ": 1222,
      "ĀĀěĀĕ": 1223,
      "ĀĀěĀē": 1224,
      "ęėęęęęė": 1225,
      "ęėėęęęĘ": 1226,
      "ęĚęęĚę": 1227,
      "ĀĀĜĀĕ": 1228,
      "ęĚĜęęęĚ": 1229,
      "ėĚęęĖ": 1230,
      "ęėěęęęĚ": 1231,
      "ėĘęęĖ": 1232,
      "ĀĀĝĀĘ": 1233,
      "ęĒĘ": 1234,
      "ęĘęęęęĚę": 1235,
      "ĀĀĞĀě": 1236,
      "ĀĀğĀĘ": 1237,
      "ęĚęĘęęě": 1238,
      "ęĚęĚęęė": 1239,
      "ĀĀ%Ā": 1240,
      "!!": 1241,
      "\"!": 1242,
      "#!": 1243,
      "#Ğ": 1244,
      "Đĕ": 1245,
      "ĐĖ": 1246,
      "đē": 1247,
      "Ēđ": 1248,
      "ēğ": 1249,
      "ĖĚęęĘ": 1250,
      "ėėęęęę": 1251,
      "ĚĘęęĚ": 1252,
      "ěĔ": 1253,
      "ěęĘęęęę": 1254,
      "ěėęęęę": 1255,
      "ěěęęęę": 1256,
      "ěėęęĚ": 1257,
      "ěĘęęě": 1258,
      "ěěęęĚ": 1259,
      "ĜĔ": 1260,
      "ĜĀĀ": 1261,
      "ĜĘęęęę": 1262,
      "ĜĘęęĚ": 1263,
      "ĝĕ": 1264,
      "ĝė": 1265,
      "ęĚęęĖ": 1266,
      "ęĚęěęęĘ": 1267,
      "ęěĒ": 1268,
      "ęėęęĖ": 1269,
      "ęėĚęęĘ": 1270,
      "ęęěĘęęęę": 1271,
      "ĚęęęęĚĚ": 1272,
      "ęĖęęě": 1273,
      "ęĘęęęęęęĘęęęę": 1274,
      "ęĚĚĚęęě": 1275,
      "ęĚĚėęęě": 1276,
      "ęĚĘĚęęė": 1277,
      "ęĘĚěęęě": 1278,
      "ęĞĞ": 1279,
      "ęĔęęĚ": 1280,
      "ęĚěėęęĚ": 1281,
      "ęěĚĚęęĘ": 1282,
      "ęĚėĘęęęę": 1283,
      "ęĘěěęęĚ": 1284,
      "ęğĝ": 1285,
      "ĀĜĚ": 1286,
      "ĀĀĖĀĔ": 1287,
      "ęěěĘęęě": 1288,
      "ęěęęęęė": 1289,
      "ęėėęęęė": 1290,
      "ĀĀĝĀĚ": 1291,
      "ĀĀĝĀĖ": 1292,
      "ĀĀĝĀĕ": 1293,
      "ęĘĜęęęě": 1294,
      "ęĘĜĚęęě": 1295,
      "ĀĀĔĀě": 1296,
      "ęęęĘęęĚę": 1297,
      "ĀĀğĀĔ": 1298,
      "ĀĀēĀĘ": 1299,
      "ĀĀēĀĖ": 1300,
      "ĀĀ&Ā": 1301,
      "#Ě": 1302,
      "đĜ": 1303,
      "đęęĘ": 1304,
      "ēęęĝ": 1305,
      "ĕę": 1306,
      "ĖĔ": 1307,
      "Ėęęē": 1308,
      "ĘęęęĘ": 1309,
      "ęĎ": 1310,
      "ěęęğ": 1311,
      "Ĝęęęě": 1312,
      "ĝ\"": 1313,
      "ĝęęĔ": 1314,
      "Ġ\"": 1315,
      "Ġęęė": 1316,
      "ęĘęĘęęęęĘ": 1317,
      "ęĘęęęęęęęęęęę": 1318,
      "ęęĘĘęęĚ": 1319,
      "ęęĚĖęęĚ": 1320,
      "ĀĀ-": 1321,
      "ęěĘęęĚ": 1322,
      "ęěęėęęĚ": 1323,
      "ęėęĚęęě": 1324,
      "ęęęęęęęęĚĚ": 1325,
      "Ěęęęęė": 1326,
      "ĚęęęęęęĚęęęę": 1327,
      "ĚęęęęěĚ": 1328,
      "ęęęĘęęĖ": 1329,
      "ęĜěęęęę": 1330,
      "ęĕē": 1331,
      "ęĚĚĘęęĚę": 1332,
      "ęęęęĘęĚęęęę": 1333,
      "ęĘĘėęęęę": 1334,
      "ęĘĘėęęĘ": 1335,
      "ęęęėęęě": 1336,
      "ęĔĝ": 1337,
      "ĀĀęĀĞ": 1338,
      "ęěĚĘęęě": 1339,
      "ĀĀĚĀğ": 1340,
      "ęĘěĘęęě": 1341,
      "ęėĚĚęęĘ": 1342,
      "ęěěĚęęĚ": 1343,
      "ęėęęęęě": 1344,
      "ĚęęęęĘęĚęęęę": 1345,
      "ęĜĚĘęęĚ": 1346,
      "ěĘęęĜ": 1347,
      "ĀĀĔĀĚ": 1348,
      "ĀĀĞĀĘ": 1349,
      "ęĖėęęęĘ": 1350,
      "ĀĀēĀĚ": 1351,
      "ęęęęĚĘĘęęęę": 1352,
      "ęęĚĚęęĚę": 1353,
      "!ĀĀ": 1354,
      "\"\"": 1355,
      "ĐĐ": 1356,
      "ĐĜ": 1357,
      "đĒ": 1358,
      "ēĕ": 1359,
      "ēęęĔ": 1360,
      "Ĕęę": 1361,
      "ĖęęęęĘĘ": 1362,
      "Ęğ": 1363,
      "ĘĚęęęę": 1364,
      "ĘĚęęĘ": 1365,
      "ĝęęęęĘ": 1366,
      "Ğ!": 1367,
      "ğğ": 1368,
      "ğęęĖ": 1369,
      "ęĚęęęęęęęę": 1370,
      "ęĘęėęęĘ": 1371,
      "ęęĘėęęęę": 1372,
      "ęęĘĘęęĘę": 1373,
      "ęěęęęĚ": 1374,
      "ęėĒ": 1375,
      "ęėęĘęęĚ": 1376,
      "ęęěėęęĚ": 1377,
      "ęęěěęęĚ": 1378,
      "ęęėęęĚ": 1379,
      "ęęėĚęęęę": 1380,
      "ęęĖĚęęė": 1381,
      "ęĚęęęęĘęęĘ": 1382,
      "ęĚĚĘ": 1383,
      "ęĚĚěęęĚ": 1384,
      "ęĚĘĜęęĘ": 1385,
      "ęĘĚĘęęĘ": 1386,
      "ęĘĚěęęĘ": 1387,
      "ęĘĘěęęęę": 1388,
      "ęęę\"": 1389,
      "ęĞĔ": 1390,
      "ęĞęęĘ": 1391,
      "ęęęęęęęęęęęęęĚęęęę": 1392,
      "ęĔęęęę": 1393,
      "ęĚěĘęęęę": 1394,
      "ęěĘĘęęĚ": 1395,
      "ęěĚĚęęęę": 1396,
      "ęĚėĚęęė": 1397,
      "ęėĚĚęęě": 1398,
      "ĀĀėĀĔ": 1399,
      "ęėĘěęęĘ": 1400,
      "ęğĞ": 1401,
      "ęğęęęę": 1402,
      "ĀĀěĀĜ": 1403,
      "ĀĀěĀĔ": 1404,
      "ęęęĘęęęęęę": 1405,
      "ęėęęęęęęĘ": 1406,
      "ęėėĚęęĘ": 1407,
      "ėęęėę": 1408,
      "ęėěęęęě": 1409,
      "ĀĀĝĀĜ": 1410,
      "ĀĀĝĀĞ": 1411,
      "ęĘĜėęęĚ": 1412,
      "ĀĀ!ĀĘ": 1413,
      "ęęęęęęęęęĘę": 1414,
      "ĀĀ(Ā": 1415,
      "ęęęęęęęęęęęęęęęęęęęęęęęęęę": 1416,
      "!Ė": 1417,
      "\"ĕ": 1418,
      "$ğ": 1419,
      "ďĖ": 1420,
      "đğ": 1421,
      "đęęĚ": 1422,
      "đęęě": 1423,
      "ēęęĞ": 1424,
      "ĔĀĀ": 1425,
      "ĔęęĔ": 1426,
      "Ėęęęė": 1427,
      "ėĎ": 1428,
      "ėĚęęė": 1429,
      "Ěęęęě": 1430,
      "ĚĚęęě": 1431,
      "ĚęęęĚę": 1432,
      "ĜĚęęĚ": 1433,
      "Ĝęęğ": 1434,
      "Ğęęĝ": 1435,
      "ęĚĒ": 1436,
      "ęĚęĕ": 1437,
      "ęĚęęĕ": 1438,
      "ęĚęęęĚę": 1439,
      "ęĘęĜęęęę": 1440,
      "ęĘęĜęęĘ": 1441,
      "ęęĘęęĚ": 1442,
      "ęęĘęęęĘęęĚ": 1443,
      "ęęĚęęęĜ": 1444,
      "ĀĀ.": 1445,
      "ęěĜęęęę": 1446,
      "ęėěęęęę": 1447,
      "ęėęěęęęę": 1448,
      "ęęęęęęęęęęĚęęęę": 1449,
      "ęęęęęęęęęęĚę": 1450,
      "ęęęęęęęęĚęęęęęę": 1451,
      "ęęėĘęęĚ": 1452,
      "ęęėěęęęę": 1453,
      "Ěęęęęě": 1454,
      "ęęęĚęęĘę": 1455,
      "ęĜęęĖ": 1456,
      "ęĖĚęęęę": 1457,
      "ęĖęĚęęęę": 1458,
      "ęęĖęęęė": 1459,
      "ęĕĒ": 1460,
      "ęĚĚěęęĘ": 1461,
      "ęęęęĚęĘęęęę": 1462,
      "ęĚĘĘęęęęĚ": 1463,
      "ęĘĚęęęĜ": 1464,
      "ęĘĚĜęęĚ": 1465,
      "ęĘĘĚęęė": 1466,
      "ėęęęęęęĚ": 1467,
      "ėęęĚęėĚ": 1468,
      "ęĔğ": 1469,
      "ęĚěĚęęęę": 1470,
      "ęěĘęęęė": 1471,
      "ęěĚěęęĚ": 1472,
      "ęėĚęęęě": 1473,
      "ęęęęęęęęęęęęęęęęęęęęęęęęęęę": 1474,
      "ęğĖ": 1475,
      "ęğė": 1476,
      "ęēě": 1477,
      "ęēĜ": 1478,
      "Ėęęęęė": 1479,
      "ęěěĘęęęę": 1480,
      "ęěěĚęęě": 1481,
      "ĀĝĘ": 1482,
      "ĚĚĘęęĚ": 1483,
      "ęėėěęęĘ": 1484,
      "ĀĀĜĀĜ": 1485,
      "ĀĀĕĀė": 1486,
      "ėĚęęęĚ": 1487,
      "ĀĀĝĀė": 1488,
      "ęĜĘęęęĘ": 1489,
      "ęĖĚęęęĚ": 1490,
      "ęĖĚĚęęĚ": 1491,
      "ĀĀĞĀē": 1492,
      "ĚęęęęĚĚęęęę": 1493,
      "ĚęęęęĚęĚęęęę": 1494,
      "ęěĜęęęĚ": 1495,
      "ęěĜęęęě": 1496,
      "ĀĀğĀě": 1497,
      "ĀĀğĀĜ": 1498,
      "ęėĖęęęĘ": 1499,
      "ĚęęĜę": 1500,
      "ęęęĘęęĘęęęĘ": 1501,
      "ĀĀĒĀě": 1502,
      "ęĜėęęęĘ": 1503,
      "ĖĚęęĕ": 1504,
      "ěĝęęě": 1505,
      "ęĖęęęęě": 1506,
      "ĀĀ$ĀĘ": 1507,
      "ęĘęĚęęĚę": 1508,
      "ęėęęęęĚę": 1509,
      "\"Ę": 1510,
      "$ĝ": 1511,
      "ďē": 1512,
      "đęęĖ": 1513,
      "ĒĎ": 1514,
      "ĒęęĖ": 1515,
      "ēĐ": 1516,
      "Ĕęęęė": 1517,
      "ĕď": 1518,
      "ĕĘęęĘ": 1519,
      "ĕęęĔ": 1520,
      "ĕęęęęĚĘ": 1521,
      "Ėę": 1522,
      "ĖĖęęĘ": 1523,
      "ėęęęĚ": 1524,
      "ėĘęęĚ": 1525,
      "ėĖęęĘ": 1526,
      "Ęę": 1527,
      "Ęęę": 1528,
      "ĚĜ": 1529,
      "Ěęę": 1530,
      "ĚęęęĘ": 1531,
      "Ěęęęęęęęęęęę": 1532,
      "ě\"": 1533,
      "ĜĐ": 1534,
      "Ĝę": 1535,
      "Ĝęę": 1536,
      "ĜĘęęĜ": 1537,
      "ĝęęęęĚ": 1538,
      "ĞęęĖ": 1539,
      "ęęęęęęĘę": 1540,
      "ęęęęęęĚę": 1541,
      "ęĚęĖ": 1542,
      "ęĚĜęęęę": 1543,
      "ęĚęęęęęęęęęęęęęęęęęęęę": 1544,
      "ęĚęĜęęĘ": 1545,
      "ęĘęęĔ": 1546,
      "ęĘĖęęęę": 1547,
      "ęĘęĚęęęęĚ": 1548,
      "ęęĘĖęęęę": 1549,
      "ęęĘĚęęĘę": 1550,
      "ęęĚĚęęĘ": 1551,
      "ęęĚėęęęę": 1552,
      "ęęĚĜęęęę": 1553,
      "ĀĀ/": 1554,
      "ĀĀą": 1555,
      "ĀĀć": 1556,
      "ĀĀĈ": 1557,
      "ęěęęĖ": 1558,
      "ęėęĚęęęęĘ": 1559,
      "ęęėĘęęė": 1560,
      "ĚęęęęęĘ": 1561,
      "ĚęęęęęęęĚ": 1562,
      "ęęęĚęęĚę": 1563,
      "ęĖęĚęęĘ": 1564,
      "ęęĜĚęęĚ": 1565,
      "ęĚęęęęęęĘęęęęęę": 1566,
      "ęĘęęęęĘęęĘ": 1567,
      "ęĘęęęęĚęęĚ": 1568,
      "ęĕęęĜ": 1569,
      "ęĝęęě": 1570,
      "ęĚĘĘęęĘę": 1571,
      "ęĘĘęęęě": 1572,
      "ęĘĘĘęęęęĚ": 1573,
      "ęĞğ": 1574,
      "ęęĚęęęęęęĘęęęę": 1575,
      "ęěĘĚęęĚ": 1576,
      "ęěĘĘęęė": 1577,
      "ęěĘĖęęĘ": 1578,
      "ęĚėĖęęĘ": 1579,
      "ĀĀĚĀē": 1580,
      "ęėĚěęęĚ": 1581,
      "ęęęĜę": 1582,
      "ĀĀĖĀĞ": 1583,
      "ĀĀěĀĞ": 1584,
      "ęęęĖę": 1585,
      "ęēĚ": 1586,
      "ęēęęĘ": 1587,
      "Ėęęęęě": 1588,
      "ęěęęęęęęĘ": 1589,
      "ęęęĚęęęęęę": 1590,
      "ĚĚĘęęęę": 1591,
      "ĚęęęęĘęĘęęęę": 1592,
      "ĀĀĜĀĝ": 1593,
      "ĚĘĘęęęę": 1594,
      "ęĜĚĘęęęę": 1595,
      "ęĚĜėęęĚ": 1596,
      "ęĚĜĘęęě": 1597,
      "ěĚĘęęęę": 1598,
      "ėĚĚęęĚ": 1599,
      "ęėěĘęęĚ": 1600,
      "ęėěĚęęĚ": 1601,
      "ęĚĖĚęęĘ": 1602,
      "ĀĀĔĀĜ": 1603,
      "ęĖĘęęęĚ": 1604,
      "ĚęęęęĚęĘęęęę": 1605,
      "ęęęęĚĚĘęęĚ": 1606,
      "ęėĜęęęĚ": 1607,
      "ęėĜĚęęĚ": 1608,
      "ĀĀĒĀė": 1609,
      "ĀĀĒĀĞ": 1610,
      "ęĜėĘęęė": 1611,
      "ĀĀđĀĘ": 1612,
      "ĀĀđĀě": 1613,
      "ęĚęĘęęĖ": 1614,
      "ęĚęĘęęĘę": 1615,
      "ĀĀ)Ā": 1616,
      "\"ĝ": 1617,
      "#ğ": 1618,
      "%ě": 1619,
      "Ďė": 1620,
      "ďĕ": 1621,
      "ďĚ": 1622,
      "Đğ": 1623,
      "ĐęęĚ": 1624,
      "đęęė": 1625,
      "Ē!": 1626,
      "Ēę": 1627,
      "Ĕęęğ": 1628,
      "ĕęęē": 1629,
      "ĕęęĘę": 1630,
      "Ėěęęęę": 1631,
      "ėę": 1632,
      "ėęě": 1633,
      "Ęě": 1634,
      "ĘėęęĘ": 1635,
      "Ęęęē": 1636,
      "ĘęęęĘę": 1637,
      "ęĀĀĘĀ": 1638,
      "Ěęęęęęęęęęęęę": 1639,
      "ěęę": 1640,
      "ěĚęęě": 1641,
      "ěĖęęĚ": 1642,
      "ĜėęęĚ": 1643,
      "ĜĜęęĚ": 1644,
      "ĝĀĀ": 1645,
      "ĝĘęęě": 1646,
      "Ğĕ": 1647,
      "ğęęě": 1648,
      "Ġ$": 1649,
      "ęĚĚęęĘ": 1650,
      "ęĚęęĝ": 1651,
      "ęĚęĔ": 1652,
      "ęĘęęĕ": 1653,
      "ęĘěęęĘ": 1654,
      "ęĘęęęęęęęęęęęęęęęęęęęę": 1655,
      "ęęĘěęęęę": 1656,
      "ęęĚĜęęĚ": 1657,
      "ęęĚĘęęĚę": 1658,
      "ęěđ": 1659,
      "ęěęĖ": 1660,
      "ęėęęĝ": 1661,
      "ęėęėęęęę": 1662,
      "ęėĜęęęę": 1663,
      "ęęęęęęęęęęĘęęęę": 1664,
      "ęęěėęęě": 1665,
      "ęęěęęęĚę": 1666,
      "ęęėěęęė": 1667,
      "ĘęęęęęęĘęęęę": 1668,
      "ĚęęęęĜĚ": 1669,
      "ęęęĘęęęęęęęę": 1670,
      "ęęęĘęęęęęęęęęęę": 1671,
      "ęĜĒ": 1672,
      "ęĜęĘęęęę": 1673,
      "ęĖęěęęęę": 1674,
      "ęęĜėęęĚ": 1675,
      "ęĚęęęęęęĜ": 1676,
      "ęĚęęęęĚęęĚ": 1677,
      "ęĚęęęęęęęĚęęęęę": 1678,
      "ęĘęęęęĚęęĘ": 1679,
      "ęĝē": 1680,
      "ęĝęęęęĚ": 1681,
      "ęĚĚĖęęĚ": 1682,
      "ęĚĚĘęęęęĘ": 1683,
      "ęĚĚĘęęĜ": 1684,
      "ęĚĚĚęęĚę": 1685,
      "ęęęęĚęĚęęęę": 1686,
      "ęĚĘęęęĘęęĘ": 1687,
      "ęĘĘĜęęĘ": 1688,
      "ęęĚęęęęęęĘę": 1689,
      "ęęĚęęęęęĘĘęęęę": 1690,
      "ėęęĚęęĚ": 1691,
      "ĀĀĘĀğ": 1692,
      "ĀĀĘĀĚĘ": 1693,
      "ęĚěėęęě": 1694,
      "ęĚěĖęęĚ": 1695,
      "ĀĀęĀğ": 1696,
      "ęěĘĚęęė": 1697,
      "ęěĚęęęě": 1698,
      "ęĚėĘęęė": 1699,
      "ęĘěĚęęęę": 1700,
      "ęĘėĜęęĘ": 1701,
      "ęėĚĘęęęę": 1702,
      "ęėĚėęęě": 1703,
      "ęėĚĜęęĚ": 1704,
      "ĀĀėĀē": 1705,
      "ęęęĖęęĘ": 1706,
      "ęēĝ": 1707,
      "ęěěĘęęĚ": 1708,
      "ęěęęęęęęĚ": 1709,
      "ęėėĘęęęę": 1710,
      "ęėėĘęęĘ": 1711,
      "ęėėěęęė": 1712,
      "ĀĀĜĀĞ": 1713,
      "ĀĀĕĀğ": 1714,
      "ěęęěę": 1715,
      "ęĜĚęęęĚ": 1716,
      "ęĚĜęęęě": 1717,
      "ėĚęęĕ": 1718,
      "ĀĀĝĀĔ": 1719,
      "ęĘĜęęęĚ": 1720,
      "ęĘĜĘęęě": 1721,
      "ěĘęęĝ": 1722,
      "ęĖĘęęęĘ": 1723,
      "ęĖĚěęęĚ": 1724,
      "ĀĀĞĀĜ": 1725,
      "ęęęęĘĘĚęęęę": 1726,
      "ęęęĘęęĘęęęęęęęę": 1727,
      "ęęęęĚĚĚęęęę": 1728,
      "ęėĜėęęĚ": 1729,
      "ĀĀĒĀĘ": 1730,
      "ĀĀĒĀĖ": 1731,
      "ĀĀĒĀĕ": 1732,
      "ęĖěęęęĜ": 1733,
      "ĀĀđĀĚ": 1734,
      "ĀĀ!Āě": 1735,
      "ĀĀ\"Āě": 1736,
      "Ėěęęĕ": 1737,
      "ĀĀĐĀĖ": 1738,
      "ęĚęĘęęĚę": 1739,
      "ęĘęĘęęě": 1740,
      "ĀĀ'Ā": 1741,
      "\"#": 1742,
      "#Ĝ": 1743,
      "$Ę": 1744,
      "ĎĚ": 1745,
      "ĐĞ": 1746,
      "đĔ": 1747,
      "ēĒ": 1748,
      "Ĕđ": 1749,
      "ĕęęĞ": 1750,
      "ĖĒ": 1751,
      "Ėē": 1752,
      "ĖĘęęęę": 1753,
      "Ėęĝ": 1754,
      "ĖěęęĘ": 1755,
      "ĖĘęęė": 1756,
      "ėď": 1757,
      "ėėęęĚ": 1758,
      "ėĘęęė": 1759,
      "ėěęęė": 1760,
      "Ęĝ": 1761,
      "ĘĘęęĘ": 1762,
      "Ęęęęęęęęęęęęę": 1763,
      "ĘęęĒ": 1764,
      "Ęęęęęęęęęęęę": 1765,
      "ę%": 1766,
      "ĚęĚ": 1767,
      "Ěęęğ": 1768,
      "ěėęęě": 1769,
      "Ĝē": 1770,
      "ĜĚęęě": 1771,
      "ĞęęęęĘ": 1772,
      "ğęęė": 1773,
      "ĠĔ": 1774,
      "Ġęęĝ": 1775,
      "ĠĀĝ": 1776,
      "Ġěęęě": 1777,
      "ĠĀĀĔ": 1778,
      "ęęęęĜ": 1779,
      "ęęęęęęė": 1780,
      "ęĚęęęęęęęęęęęęęęęę": 1781,
      "ęĚĖęęęę": 1782,
      "ęĚęĚęęęęĚ": 1783,
      "ęĚęěęęĚ": 1784,
      "ęĚęĖęęĘ": 1785,
      "ęĚęĜęęĚ": 1786,
      "ęĘęĜ": 1787,
      "ęĘęĔ": 1788,
      "ęĘęĘęęęęĚ": 1789,
      "ęĘęėęęė": 1790,
      "ęęĘęęęęęęęęęęęę": 1791,
      "ęęĚęęęė": 1792,
      "ęěęęě": 1793,
      "ęěęęĜ": 1794,
      "ęěĚęęĚ": 1795,
      "ęěęěęęęę": 1796,
      "ęěęėęęęę": 1797,
      "ęěęĘęęęęĘ": 1798,
      "ęěęěęęĘ": 1799,
      "ęěĚęęęęę": 1800,
      "ęěęĘęęė": 1801,
      "ęėđ": 1802,
      "ęęęęęęęęĘęęęęĚ": 1803,
      "ęęėęęęĘę": 1804,
      "ęęėĖęęĘ": 1805,
      "ĘęęęęęĘ": 1806,
      "Ęęęęęęęě": 1807,
      "Ęęęęęęęė": 1808,
      "ĘęęęęėĘ": 1809,
      "Ěęęęęęęě": 1810,
      "ęĜęĚęęĚ": 1811,
      "ęĖĐ": 1812,
      "ęĖęęĜ": 1813,
      "ęĖęĚęęĚ": 1814,
      "ęęĖęęĚ": 1815,
      "ęęĜĘęęĚ": 1816,
      "ęĘęęęęęęĚęęęę": 1817,
      "ęĕęĚęęĚ": 1818,
      "ęĝ!": 1819,
      "ęĝęęė": 1820,
      "ęęęęĚė": 1821,
      "ęĚĘęęęęęęęęęęęę": 1822,
      "ęĚĘěęęė": 1823,
      "ęĚĘĖęęĘ": 1824,
      "ęĘĚęęęęęęęęęęęę": 1825,
      "ęĘĚĚęęĚę": 1826,
      "ęĘĘėęęĚ": 1827,
      "ęęęěęęě": 1828,
      "ęęęěęęęęĚ": 1829,
      "ęęęĎ": 1830,
      "ęĚěěęęĚ": 1831,
      "ęĚěĚęęě": 1832,
      "ęěĘěęęĘ": 1833,
      "ęěĘęęęĖ": 1834,
      "ęěĘėęęė": 1835,
      "ęĘěěęęęę": 1836,
      "ęėĚĚęęęę": 1837,
      "ęėĚęęęĘ": 1838,
      "ĀĀĖĀğ": 1839,
      "ęēĕ": 1840,
      "ĀĕĚ": 1841,
      "ęęęĘęęęęęęĘęęęę": 1842,
      "ĚĚĚ": 1843,
      "ęěėęęęė": 1844,
      "ęěėėęęė": 1845,
      "ęėėėęęĘ": 1846,
      "ęėėĘęęė": 1847,
      "ĚęęęęĘę": 1848,
      "ĀĀĜĀĔ": 1849,
      "ĚĘęęĞ": 1850,
      "ęęĒęĜ": 1851,
      "ĀĀĕĀĕ": 1852,
      "ĀĀĕĀĞ": 1853,
      "ęĜĚĘęęĘ": 1854,
      "ęĜĚĘęęė": 1855,
      "ĘęęęęĘęĚęęęę": 1856,
      "ěĚęęĝ": 1857,
      "ėĚĘęęĚ": 1858,
      "ėĚęęĔ": 1859,
      "ęėěĚęęě": 1860,
      "ėĘęęĕ": 1861,
      "ęĜĘėęęęę": 1862,
      "ęĜĘėęęĘ": 1863,
      "ęĘĜĚęęĚ": 1864,
      "ěĘĘęęęę": 1865,
      "ěĘęęęĘ": 1866,
      "ęĚĖĘęęė": 1867,
      "ęĘĖĘęęĘ": 1868,
      "ęĘĖęęęė": 1869,
      "ęĘĚęęęęĚ": 1870,
      "ęĒĚ": 1871,
      "ęěĜĘęęęę": 1872,
      "ęěĜĘęęĚ": 1873,
      "ĀĀğĀĖ": 1874,
      "ęęęĕęęĘ": 1875,
      "ęĜěĚęęĚ": 1876,
      "ĀĀĒĀĜ": 1877,
      "ěĝęęĚ": 1878,
      "ę!Ě": 1879,
      "ĀĀđĀė": 1880,
      "ĀĀđĀĜ": 1881,
      "ęĚĝęęęě": 1882,
      "ĀĀ\"Āė": 1883,
      "ĀĀďĀė": 1884,
      "ĀĀĎĀě": 1885,
      "ęęęęęęęęęĚę": 1886,
      "ēĘęęĔ": 1887,
      "ęĚęĚęęĚę": 1888,
      "!$": 1889,
      "#ě": 1890,
      "Ďĝ": 1891,
      "Đĝ": 1892,
      "Ēğ": 1893,
      "ēęę": 1894,
      "ĔĘęęĘ": 1895,
      "ĔęęĞ": 1896,
      "ĕęęęė": 1897,
      "ĕĚęęė": 1898,
      "Ėėęęė": 1899,
      "ĖęęęęĚĘ": 1900,
      "ėĐ": 1901,
      "ėĒ": 1902,
      "ėē": 1903,
      "ėĔ": 1904,
      "ėĚęęĚ": 1905,
      "ėęěęęęę": 1906,
      "ĘĔ": 1907,
      "ěď": 1908,
      "ěęĚęęęę": 1909,
      "ěĜęęęę": 1910,
      "ěĜęęĚ": 1911,
      "ěěęęě": 1912,
      "ěęęęęĚĘ": 1913,
      "ĜĚęęęę": 1914,
      "ĜĘęęě": 1915,
      "ĜěęęĚ": 1916,
      "Ĝěęęě": 1917,
      "ĜęęęęĘĘ": 1918,
      "ĜęęęęĚĚ": 1919,
      "ĝęęęĚ": 1920,
      "ĝęęĞ": 1921,
      "ĝĜęęĚ": 1922,
      "ĞĚęęě": 1923,
      "ĠĒ": 1924,
      "ĠĀĖ": 1925,
      "ĠĀĀĘĀ": 1926,
      "ĠęęęĞ": 1927,
      "ĠĀĀĖĀ": 1928,
      "ĠĀĀĚĀ": 1929,
      "ęĚęęĞ": 1930,
      "ęĚęęęęęęęęęęę": 1931,
      "ęĘęĖęęęę": 1932,
      "ęĘęęęęęęęęęęęĚ": 1933,
      "ęĘęĝęęĘ": 1934,
      "ęęĚĚęęė": 1935,
      "ęęĚĘęęęęĘ": 1936,
      "ĀĀă": 1937,
      "ĀĀĄ": 1938,
      "ęěęė": 1939,
      "ęěęęĕ": 1940,
      "ęěęęęęĚĚ": 1941,
      "ęėėęęĘ": 1942,
      "ęėĖęęęę": 1943,
      "ęėęĚęęė": 1944,
      "ęėęĜęęĚ": 1945,
      "ęęęęęęęęęĚęęęęę": 1946,
      "ęęěęęęĘ": 1947,
      "ęęėęęęĚ": 1948,
      "ęęėęęęĘęęĚ": 1949,
      "ęęęĚęęęęęęęęęęę": 1950,
      "ęĜęĘęęė": 1951,
      "ęĖęęĖ": 1952,
      "ęęĜėęęě": 1953,
      "ęĚęęęęĚęęĘ": 1954,
      "ęĚęęęęęęęĚęęęę": 1955,
      "ęĘęęęęęęĚęęęęęę": 1956,
      "ĘęęĚęęęęęęęę": 1957,
      "ęĚĚěęęęę": 1958,
      "ęĚĚęęęĜ": 1959,
      "ęĚĚĖęęęę": 1960,
      "ęĚĚĘęęĖ": 1961,
      "ęęęęĘę": 1962,
      "ęęęęĚę": 1963,
      "ęęęęĚĚęęęę": 1964,
      "ęĚĘěęęęę": 1965,
      "ęĚĘĘęęě": 1966,
      "ęĚĘėęęě": 1967,
      "ęĚĘĖęęęę": 1968,
      "ęĚĘėęęė": 1969,
      "ęĘĚĚęęęęĘ": 1970,
      "ęĘĚęęęĚęęĚ": 1971,
      "ęĘĘęęęęęęęęęęęę": 1972,
      "ęĘĘĚęęě": 1973,
      "ęĘĘęęęĚę": 1974,
      "ęĘĘĖęęĘ": 1975,
      "ęęĝĚęęĚ": 1976,
      "ęęĝęęęě": 1977,
      "ęęęď": 1978,
      "ėęęęęėĚ": 1979,
      "ęĞęęĚ": 1980,
      "ęĞęęė": 1981,
      "ęęĔę": 1982,
      "ęĔĒ": 1983,
      "ęĚěęęĚ": 1984,
      "ęĚěęęęĜ": 1985,
      "ęěĘěęęęę": 1986,
      "ęěĚĖęęĚ": 1987,
      "ęĚėěęęĘ": 1988,
      "ęĚėęęęĖ": 1989,
      "ęĚėěęęė": 1990,
      "ęĘěėęęě": 1991,
      "ęĘėĘęęęę": 1992,
      "ęĘėĘęęė": 1993,
      "ęĘėĜęęė": 1994,
      "ęėĚėęęĚ": 1995,
      "ęėĚěęęě": 1996,
      "ĀĀėĀğ": 1997,
      "ĀĀėĀĚĚ": 1998,
      "ęėĘĘęęęę": 1999,
      "ęėĘęęęė": 2000,
      "ęęēęĝ": 2001,
      "ĀĀěĀğ": 2002,
      "ęěěėęęě": 2003,
      "ęėęęęęęę": 2004,
      "ĖęęĚę": 2005,
      "ęěėěęęĘ": 2006,
      "ęěėęęęĖ": 2007,
      "ĚęęęęĘĘęęęęę": 2008,
      "ĀĀĕĀĔ": 2009,
      "ĜęęĚę": 2010,
      "ęĜĚėęęĘ": 2011,
      "ĘęęęęĘĚĚęęęę": 2012,
      "ěĚĚęęęę": 2013,
      "ęĘĜĘęęĚ": 2014,
      "ěĘęęĞ": 2015,
      "ĀĀĔĀĝ": 2016,
      "ĀĀĔĀĔ": 2017,
      "ęĖĘĚęęĚ": 2018,
      "ęĘĖĚęęė": 2019,
      "ęěĜĘęęě": 2020,
      "ĀĀğĀĚ": 2021,
      "ĀĀğĀė": 2022,
      "ĀĀğĀĝ": 2023,
      "ęėĖĘęęĘ": 2024,
      "ęėĖĚęęĘ": 2025,
      "ęėĖęęęė": 2026,
      "ęęĚęęęĚęęĚ": 2027,
      "ęĜěęęęĚ": 2028,
      "ěěęęĞ": 2029,
      "ĀĀēĀě": 2030,
      "ĀĀēĀĕ": 2031,
      "ĀĀĒĀĝ": 2032,
      "ĀĀĒĀĔ": 2033,
      "ęęęęĘĚĘęęĚ": 2034,
      "ęĜėĚęęĘ": 2035,
      "ęĜėęęęė": 2036,
      "ęĜĜęęęĚ": 2037,
      "ęĜĜėęęĚ": 2038,
      "ęĖěęęęĚ": 2039,
      "ėėĚęęĘ": 2040,
      "ę!Ę": 2041,
      "ęęęęęęĚęęĚ": 2042,
      "ęĕĚėęęĚ": 2043,
      "ĕĚęęĔ": 2044,
      "ęĘęĚęęĘę": 2045,
      "Ėėęęĕ": 2046,
      "ęęęęęęęęęĘęęęĘę": 2047,
      "ęĜĖĚęęė": 2048,
      "ęĚęĚęęě": 2049,
      "ęĘėęęęęę": 2050,
      "ęĘęěęęė": 2051,
      "ęĘęěęęęęĘ": 2052,
      "ğĚęęĞ": 2053,
      "ĀĀ%ĀĚ": 2054,
      "ĀĀ*Ā": 2055,
      "!ęęĘ": 2056,
      "$!": 2057,
      "$Ğ": 2058,
      "ďęęĚ": 2059,
      "Đē": 2060,
      "ĒĀĀ": 2061,
      "ēĎ": 2062,
      "ĕęęęĘ": 2063,
      "ĕęęğ": 2064,
      "ĕęęęĖ": 2065,
      "ĕęęĚę": 2066,
      "Ėď": 2067,
      "ĖėęęĘ": 2068,
      "ĖęęęĖ": 2069,
      "Ėęę!": 2070,
      "ėěęęĖ": 2071,
      "ėĔęęĘ": 2072,
      "ĚĚęęĘ": 2073,
      "ĚėęęĚ": 2074,
      "Ěęę!": 2075,
      "ěĚęęė": 2076,
      "ěęęęĝ": 2077,
      "ěĘęęĚę": 2078,
      "Ĝđ": 2079,
      "ĜĔęęĚ": 2080,
      "ĝĘęęęę": 2081,
      "ĝęęęě": 2082,
      "ĝěęęĚ": 2083,
      "Ğ\"": 2084,
      "ĞĜ": 2085,
      "Ğĝ": 2086,
      "Ğęęĕ": 2087,
      "ğĐ": 2088,
      "ğĖ": 2089,
      "ğĝ": 2090,
      "ĠęęĖ": 2091,
      "ĠĀĚ": 2092,
      "ĠĀė": 2093,
      "ĠĀĀęĀ": 2094,
      "ĠĀĀĜĀ": 2095,
      "ęęęęě": 2096,
      "ęĚęĜ": 2097,
      "ęĚėęęĚ": 2098,
      "ęĚęĖęęęę": 2099,
      "ęĚęęęęęęęęęęęĚ": 2100,
      "ęĘ!": 2101,
      "ęĘ\"": 2102,
      "ęĘęęĝ": 2103,
      "ęĘęęğ": 2104,
      "ęĘĜęęĘ": 2105,
      "ęĘĚęęĘę": 2106,
      "ęęĘėęęĚ": 2107,
      "ęęĘěęęė": 2108,
      "ęęĘĖęęĘ": 2109,
      "ęęĘĚęęęęĚ": 2110,
      "ęęĘėęęĖ": 2111,
      "ęęĚěęęĘ": 2112,
      "ęęĚĘęęĜ": 2113,
      "ęěęęĚę": 2114,
      "ęěęěęęė": 2115,
      "ęėęĘęęęęĘ": 2116,
      "ęėęėęęĘ": 2117,
      "ęėęĜęęęę": 2118,
      "ęęęęęęęęęĘęęęęę": 2119,
      "ęęěĚęęĘ": 2120,
      "ęęėęęě": 2121,
      "ęęėĘęęĖ": 2122,
      "ęęėĕęęĘ": 2123,
      "Ęęęęęě": 2124,
      "Ěęęęęęęė": 2125,
      "ęęęĚęęĜ": 2126,
      "ęęęĘęĝ": 2127,
      "ęęęĘęęęęĘĘ": 2128,
      "ęĜėęęęę": 2129,
      "ęĜęėęęęę": 2130,
      "ęĜęĚęęĘ": 2131,
      "ęĜęėęęĘ": 2132,
      "ęĖęĘęęĚ": 2133,
      "ęęĖĘęęė": 2134,
      "ęęĖėęęė": 2135,
      "ęęĖĚęęĖ": 2136,
      "ęęĜęęĘ": 2137,
      "ęęĜěęęĚ": 2138,
      "ęęĜęęęĜ": 2139,
      "ęĚęęęęĖ": 2140,
      "ęĘęęęęęęĘęęęęęę": 2141,
      "ęĕęęě": 2142,
      "ęĕęęė": 2143,
      "ęĕęęĖ": 2144,
      "ęĝęęĖ": 2145,
      "ęĝęĚęęĚ": 2146,
      "ĘęęĚęęęęę": 2147,
      "ęĚĚėęęĘ": 2148,
      "ęĚĚęęęĘę": 2149,
      "ęęęęĘĘęęęę": 2150,
      "ęęĕęęęĘ": 2151,
      "ęĚĘęęě": 2152,
      "ęĚĘėęęĚ": 2153,
      "ęĚĘęęęĘęęĚ": 2154,
      "ęĘĚėęęĘ": 2155,
      "ęĘĚĚęęęęĚ": 2156,
      "ęĘĚĘęęęęĚ": 2157,
      "ęĘĘĚ": 2158,
      "ęĘĘĘęęĖ": 2159,
      "ęĘĘĝęęĘ": 2160,
      "ęęĝęĖ": 2161,
      "ęęęėęęęęĘ": 2162,
      "ęęęěęęęęęęęę": 2163,
      "ėęęęęĜ": 2164,
      "ėęęęęęęĘ": 2165,
      "ěęęęęě": 2166,
      "ęĔē": 2167,
      "ęĚěęęęĘ": 2168,
      "ęĚěęęęĚę": 2169,
      "ęĚěĖęęě": 2170,
      "ęěĘĚęęęę": 2171,
      "ęěĘėęęĚ": 2172,
      "ęěĘĖęęęę": 2173,
      "ęěĘĘęęĖ": 2174,
      "ęĚėĕęęĘ": 2175,
      "ĀĀĚĀĚĚ": 2176,
      "ęĘėęęęĚ": 2177,
      "ęĘėěęęė": 2178,
      "ęĘėęęęĘę": 2179,
      "ęėĚĘęęě": 2180,
      "ęėĘĘęęė": 2181,
      "ęėĘěęęė": 2182,
      "ęėĘĜęęĘ": 2183,
      "ęęęęęęęęęęęęęęęęęęęęęęęęęęęęę": 2184,
      "ęęęęęęęęęęęęęęęęęęęęęęęęęęęęęęęęęęęę": 2185,
      "ęęēęěĘ": 2186,
      "ęğĕ": 2187,
      "ęěěĚęęęę": 2188,
      "ęěęęęęęę": 2189,
      "ĚĚĚęęęę": 2190,
      "ęėęęęęęęĚ": 2191,
      "ęėėĚęęęę": 2192,
      "ęėėĚęęė": 2193,
      "ĚĘĚęęęę": 2194,
      "ĚĘęęęĘ": 2195,
      "ęĚĚęęęęĚ": 2196,
      "ęĜĚĚęęęę": 2197,
      "ęĜĚĚęęĘ": 2198,
      "ęĜĚėęęĚ": 2199,
      "ęĚĜĚęęĚ": 2200,
      "ęėěĖęęĚ": 2201,
      "ĀĀĝĀē": 2202,
      "ęĜĘĚęęĘ": 2203,
      "ęĜĘęęęė": 2204,
      "ęĚĖėęęĘ": 2205,
      "ĀĀĔĀĞ": 2206,
      "ĀĀĔĀğ": 2207,
      "ęĖĘĚęęęę": 2208,
      "ęĖĘĚęęĘ": 2209,
      "ęĒĖ": 2210,
      "ęĖĚĚęęęę": 2211,
      "ęĖĚěęęęę": 2212,
      "ęęęĘęęĚęęęĚ": 2213,
      "ęěĜėęęĚ": 2214,
      "ęěĜėęęě": 2215,
      "ĀĀğĀĞ": 2216,
      "ęęęĕęęęę": 2217,
      "ęęęĕęęĚ": 2218,
      "ĘęęęęĚĚęęęę": 2219,
      "ęėĖěęęĘ": 2220,
      "ęęĚęęęĚęęĘ": 2221,
      "ęęęĘęęĘĚęęĘ": 2222,
      "ęĜěĘęęě": 2223,
      "ęĖėęęęė": 2224,
      "ĀĀēĀė": 2225,
      "ĀĀēĀĝ": 2226,
      "ĀĀĒĀĚ": 2227,
      "ęęęęĘĚęęęĚ": 2228,
      "ęĜėĚęęė": 2229,
      "ęęęĚęęĘęęęĘ": 2230,
      "ęĜĜęęęĜ": 2231,
      "ęĖĖĘęęĘ": 2232,
      "ęĖěěęęĚ": 2233,
      "ęěĖĚęęė": 2234,
      "ęę\"ęĖ": 2235,
      "Ĝěęęĝ": 2236,
      "ęęĘĘęęęęę": 2237,
      "ęĜęęęęė": 2238,
      "ęęěęęęęęęĘ": 2239,
      "ęĘęĚęęęęęęęęęęę": 2240,
      "ĀĀĐĀė": 2241,
      "ĀĀ#Āě": 2242,
      "ĘĘĜ": 2243,
      "ĠĚęęĞ": 2244,
      "ęĘęěęęě": 2245,
      "ęĘęĘęęė": 2246,
      "ęĘęĘęęĖ": 2247,
      "ęĘęĘęęĘę": 2248,
      "ęęęęęęęęęęęĘęĚęęęę": 2249,
      "ęęęęęęęęęęęĘęĘęęęę": 2250,
      "ęĚěęęęęę": 2251,
      "ĚęęęęĘĘęęęĘ": 2252,
      "!ęęĚ": 2253,
      "\"ė": 2254,
      "\"ę": 2255,
      "#ė": 2256,
      "#Ę": 2257,
      "%Ę": 2258,
      "&#": 2259,
      "ĎĖ": 2260,
      "đĝ": 2261,
      "Ē%": 2262,
      "ēęęęė": 2263,
      "ēęęğ": 2264,
      "ĔĐ": 2265,
      "ĔęęęęĘ": 2266,
      "ĕĐ": 2267,
      "ĕĘęęĕ": 2268,
      "ĕĜĞ": 2269,
      "ĕęę#": 2270,
      "ĖĚęęė": 2271,
      "ĖęęĒ": 2272,
      "ė!": 2273,
      "ė\"": 2274,
      "ėėęęė": 2275,
      "ėęęĒ": 2276,
      "ĘęęęĚ": 2277,
      "ĘěęęĘ": 2278,
      "ĘĘęęęęĚ": 2279,
      "ęĀĀęĀ": 2280,
      "Ěę": 2281,
      "ĚĘęęě": 2282,
      "ĚĖęęĚ": 2283,
      "ě!": 2284,
      "ěęĚ": 2285,
      "ěęęęĘ": 2286,
      "ěĚęęĘ": 2287,
      "ěęęęĜ": 2288,
      "ěęęęĚę": 2289,
      "ěęęĒ": 2290,
      "ěęęđ": 2291,
      "ěĜęęě": 2292,
      "ĜĒ": 2293,
      "ĜęĚ": 2294,
      "Ĝėęęě": 2295,
      "ĜĜęęě": 2296,
      "ĞĀĀ": 2297,
      "ĞęęĞ": 2298,
      "ğ#": 2299,
      "ğĘ": 2300,
      "ğęęĜ": 2301,
      "ĠĐ": 2302,
      "ĠĀĘ": 2303,
      "ĠĘęęě": 2304,
      "Ġėęęě": 2305,
      "ĠĀğ": 2306,
      "ęę&": 2307,
      "ęęęęęęĖ": 2308,
      "ęĚĘęęĚę": 2309,
      "ęĚęėęęęęĘ": 2310,
      "ęĚęĖęęĚ": 2311,
      "ęĚęĕęęęę": 2312,
      "ęĚęěęęė": 2313,
      "ęĚęėęęě": 2314,
      "ęĘęė": 2315,
      "ęĘėęęĘ": 2316,
      "ęĘęē": 2317,
      "ęĘęėęęě": 2318,
      "ęęĘęęęęĘ": 2319,
      "ęęĘęęęęęęęęęęę": 2320,
      "ęęĚęęě": 2321,
      "ęęĚėęęě": 2322,
      "ęęĚęęęĝ": 2323,
      "ęęĚĕęęĚ": 2324,
      "ęěėęęĚ": 2325,
      "ęěęęęęĘĘ": 2326,
      "ęěęĖęęęę": 2327,
      "ęěęěęęĚ": 2328,
      "ęěęĖęęĚ": 2329,
      "ęěęĘęęě": 2330,
      "ęěęėęęė": 2331,
      "ęėęĜ": 2332,
      "ęėěęęĘ": 2333,
      "ęėęĘęęęęĚ": 2334,
      "ęėęěęęė": 2335,
      "ęėęĘęęě": 2336,
      "ęęęęęęęęęě": 2337,
      "ęęęęęęęęęęęė": 2338,
      "ęęęęęęęęęęęě": 2339,
      "ęęęęęęęęĘĘ": 2340,
      "ęęěęęęęĚ": 2341,
      "ęęěĖęęě": 2342,
      "ęęěĚęęĜ": 2343,
      "ęęěĘęęĚę": 2344,
      "ęęėĚęęĖ": 2345,
      "ęęėĜęęė": 2346,
      "Ęęęęęęě": 2347,
      "ĘęęęęęęęĘ": 2348,
      "ĘęęęęėĚ": 2349,
      "ĘęęęęěĘ": 2350,
      "ĚęęęęĜ": 2351,
      "ĚęęęęėĘ": 2352,
      "ęęęĚęęęęęęęęęęęę": 2353,
      "ęęęĘęęĜ": 2354,
      "ęĜĚęęĚ": 2355,
      "ęĜĚĘ": 2356,
      "ęĜęĘęęĖ": 2357,
      "ęĖĒ": 2358,
      "ęęĖęęě": 2359,
      "ęĚęęęęęęě": 2360,
      "ęĝ\"": 2361,
      "ęĝĒ": 2362,
      "ęĝęęęęĘ": 2363,
      "ĘęęĚęĖ": 2364,
      "ęĚĚęęě": 2365,
      "ęĚĚĜęęęę": 2366,
      "ęĚĚěęęě": 2367,
      "ęĚĚĖęęě": 2368,
      "ęĚĚĚęęęęĚ": 2369,
      "ęĚĚĚęęĜ": 2370,
      "ęĚĚęęĚę": 2371,
      "ęĚĚĕęęĚ": 2372,
      "ęĚĚėęęĜ": 2373,
      "ęęĕĚęęė": 2374,
      "ęĚĘĘ": 2375,
      "ęĚĘęęęě": 2376,
      "ęĚĘĖęęĚ": 2377,
      "ęĚĘĚęęęęĘ": 2378,
      "ęĚĘĖęęě": 2379,
      "ęĚĘĕęęĘ": 2380,
      "ęĚĘĚęęĘę": 2381,
      "ęĚĘėęęęęĘ": 2382,
      "ęĘĚęęęĝ": 2383,
      "ęĘĚĕęęĚ": 2384,
      "ęĘĚĘęęĚę": 2385,
      "ęĘĚęęęěę": 2386,
      "ęĘĘĖęęęę": 2387,
      "ęĘĘěęęė": 2388,
      "ęęĝę": 2389,
      "ėęęęęę": 2390,
      "ěęęęęĜ": 2391,
      "ěęęęęęĘĘęęęę": 2392,
      "ęęęęęęęęęęęęęĘ": 2393,
      "ęęĘęęęęęęĘę": 2394,
      "ėęęĘęěĚ": 2395,
      "ęĚěĘęęĘ": 2396,
      "ęĚěėęęęę": 2397,
      "ĀĀęĀĚĚ": 2398,
      "ęěĘĘęęě": 2399,
      "ęěĘęęęĘę": 2400,
      "ęěĚęęęė": 2401,
      "ęěĚęęęĚę": 2402,
      "ęĚėęęęĘę": 2403,
      "ęĚėėęęė": 2404,
      "ęĚėĜęęĘ": 2405,
      "ęĚėĚęęĖ": 2406,
      "ęĚėĜęęė": 2407,
      "ęĘěęęęĜ": 2408,
      "ęĘěęęęĚę": 2409,
      "ęĘěĜęęĚ": 2410,
      "ęĘėėęęė": 2411,
      "ęėĚĖęęĚ": 2412,
      "ęėĚęęęĚę": 2413,
      "ęėĘĚęęė": 2414,
      "ĀĜĞ": 2415,
      "ęęğęě": 2416,
      "ĀĀĖĀē": 2417,
      "ĀĀĖĀěĘ": 2418,
      "ęěěěęęĚ": 2419,
      "ęěęęęęě": 2420,
      "ęěęęęęęęė": 2421,
      "ęěęęęęęęĘęęęę": 2422,
      "ęęęĚęęęęęęĚęęęę": 2423,
      "ęęęĘęęęęęęĚę": 2424,
      "ĚĚęęęĚ": 2425,
      "ĚĚęęĖ": 2426,
      "ĚĚęęĝ": 2427,
      "ĚĚęęĞ": 2428,
      "ęěėĚęęė": 2429,
      "ęěėĘęęė": 2430,
      "ęěėĖęęĘ": 2431,
      "ęėėĚęęĖ": 2432,
      "ĀĀĜĀē": 2433,
      "ęĚĚęęęęęęĚęęęę": 2434,
      "ęĜĚĚęęĚ": 2435,
      "ęĜĚėęęě": 2436,
      "ęĚĜěęęĚ": 2437,
      "ęĚĜėęęě": 2438,
      "ęĚĜĖęęĚ": 2439,
      "ĘęęęęĘĚęęęę": 2440,
      "ĘęęęęĘęĘęęęę": 2441,
      "ėĚě": 2442,
      "ėĚęęĜ": 2443,
      "ęėěěęęĚ": 2444,
      "ėĘęęĔ": 2445,
      "ĀĀĝĀĝ": 2446,
      "ęĜĘĘęęĚ": 2447,
      "ęĜĘěęęĘ": 2448,
      "ęĘĜęęęĜ": 2449,
      "ęĘĜėęęě": 2450,
      "ęĘĜĚęęĜ": 2451,
      "ěĘĘęęĘ": 2452,
      "ęĚĖęęęĖ": 2453,
      "ĀĀĔĀĖ": 2454,
      "ĀĀĔĀĕ": 2455,
      "ęĖĘĘęęĚ": 2456,
      "ęĖĘĘęęĘ": 2457,
      "ęĘĖěęęĘ": 2458,
      "ęĒĔ": 2459,
      "ęĖĚęęęě": 2460,
      "ĀĀĞĀĝ": 2461,
      "ĀĀğĀĕ": 2462,
      "ĘęęęęĚęĘęęęę": 2463,
      "ęęęęĘĘĘęęęę": 2464,
      "ęęęĘęęĘĘęęęę": 2465,
      "ęĜěĘęęĘ": 2466,
      "ęęęĝęęęę": 2467,
      "ęĖėęęęĚ": 2468,
      "ęĖėĚęęė": 2469,
      "ęĖėĘęęė": 2470,
      "ĀĀēĀĜ": 2471,
      "ĀĀēĀĞ": 2472,
      "ęėĜęęęě": 2473,
      "ęėĜěęęĚ": 2474,
      "ęęęęĘĚĚęęĚ": 2475,
      "ęęęęĘĚěęęĚ": 2476,
      "ĖĚęęĔ": 2477,
      "ęĖĖĚęęĘ": 2478,
      "ęĖĖěęęĘ": 2479,
      "ęĖěĚęęě": 2480,
      "ęěĖęęęĘ": 2481,
      "ęěĖęęęĖ": 2482,
      "ęĘĕęęęĘ": 2483,
      "ĜĚęęĝ": 2484,
      "ęđĘ": 2485,
      "ěėĘęęĘ": 2486,
      "ęĕĚĚęęĚ": 2487,
      "ėěĚęęĚ": 2488,
      "ęĜęęęęě": 2489,
      "ĀĀ!ĀĚ": 2490,
      "ĀĀ!Āė": 2491,
      "ĀĀ!ĀĖ": 2492,
      "ĀĀ!ĀĞ": 2493,
      "ĀĀ\"ĀĘ": 2494,
      "ęĘĝęęęĚ": 2495,
      "ęěĝĘęęě": 2496,
      "ĕĘęęĔ": 2497,
      "ęĚęĘęęė": 2498,
      "ĀĀĐĀĘ": 2499,
      "ĀĀĐĀĚ": 2500,
      "ęĚĞęęęĜ": 2501,
      "ĀĀ$ĀĚ": 2502,
      "ĀĀ$Āė": 2503,
      "ĀĀ$Āĝ": 2504,
      "ĀĀ#ĀĚ": 2505,
      "ęĖĜĚęęě": 2506,
      "ĀĀďĀĖ": 2507,
      "ĀĀďĀĕ": 2508,
      "ęěĕęęęĖ": 2509,
      "ĀĀĎĀĖ": 2510,
      "ęĘęěęęęęĚ": 2511,
      "ĀĀĘĀĘĖ": 2512,
      "ĀĀĜĀđ": 2513,
      "ĀĀ&Āě": 2514,
      "ęĘĘěęęĘę": 2515,
      "ĀĀ+Ā": 2516,
      "ĀĀ-Ā": 2517,
      "\"%": 2518,
      "$ě": 2519,
      "&Ę": 2520,
      "&Ě": 2521,
      "'ĝ": 2522,
      "'ğ": 2523,
      "Ďĕ": 2524,
      "ďĔ": 2525,
      "ďęęė": 2526,
      "ĐĔ": 2527,
      "đ!": 2528,
      "đđ": 2529,
      "đęęęę": 2530,
      "đęęĔ": 2531,
      "đĘęęė": 2532,
      "đęęē": 2533,
      "ē!": 2534,
      "ēď": 2535,
      "ēęęĘę": 2536,
      "ĔęęęĘ": 2537,
      "ĔęęęęĚ": 2538,
      "ĔęĞ": 2539,
      "ĔĚęęė": 2540,
      "Ĕęęē": 2541,
      "ĔĚęęĕ": 2542,
      "ĔĜĞ": 2543,
      "ĕĚęęĘ": 2544,
      "ĕěęęĘ": 2545,
      "ĕĘęęė": 2546,
      "ĕĖęęĘ": 2547,
      "ĕęęęęĘĘ": 2548,
      "Ė$": 2549,
      "ĖĜęęĘ": 2550,
      "ĖėĚ": 2551,
      "ĖĘęęĖ": 2552,
      "Ėęęęĕ": 2553,
      "Ėěĝ": 2554,
      "ĖĖĝ": 2555,
      "ėęĜ": 2556,
      "ėęęęě": 2557,
      "ėěęęęę": 2558,
      "ėęęęĖ": 2559,
      "ėĖęęęę": 2560,
      "ėĜęęĘ": 2561,
      "ėĕęęĘ": 2562,
      "ėęěęęĘ": 2563,
      "Ęęĝ": 2564,
      "ĘęĞ": 2565,
      "Ěėęęęę": 2566,
      "ĚĘęęęęĘ": 2567,
      "Ěěĝ": 2568,
      "ěđ": 2569,
      "ěĀĀ": 2570,
      "ěęě": 2571,
      "ěęĝ": 2572,
      "ěĘęęĘ": 2573,
      "ěęĚęęĘ": 2574,
      "Ĝ%": 2575,
      "Ĝęě": 2576,
      "ĜęĘęęęę": 2577,
      "ĜęęĒ": 2578,
      "ĜĜęęęę": 2579,
      "ĝęĚ": 2580,
      "ĝĘęęĚ": 2581,
      "ĝĚęęě": 2582,
      "ĝęęē": 2583,
      "ĝęęĘę": 2584,
      "ĝęęęęĚĘ": 2585,
      "ĝĀĀĘĀ": 2586,
      "Ğě": 2587,
      "ĞęęęęĚ": 2588,
      "ĞĀĀĘĀ": 2589,
      "ğęęĕ": 2590,
      "Ġęęĕ": 2591,
      "ĠęęĔ": 2592,
      "ĠęęĞ": 2593,
      "ĠęęęĜ": 2594,
      "Ġęē": 2595,
      "ĠĀĕ": 2596,
      "ĠĀĀěĀ": 2597,
      "ĠĘęęĝ": 2598,
      "ĠĔĚ": 2599,
      "ĠėęęĞ": 2600,
      "ęĚ!": 2601,
      "ęĚĘęęĘ": 2602,
      "ęĚęęęě": 2603,
      "ęĚěęęĘ": 2604,
      "ęĚĕęęęę": 2605,
      "ęĘĐ": 2606,
      "ęĘĘęęĚ": 2607,
      "ęĘęęĞ": 2608,
      "ęĘęęęęęęęęęęęęęęęę": 2609,
      "ęĘęĖęęĚ": 2610,
      "ęĘęĜęęė": 2611,
      "ęęĘęęė": 2612,
      "ęęĘėęęė": 2613,
      "ęęĘĘęęĖ": 2614,
      "ęęĘĖęęě": 2615,
      "ęęĘĚęęĖ": 2616,
      "ęęĘĘęęęęĚ": 2617,
      "ęęĘĜęęė": 2618,
      "ęęĘĕęęĘ": 2619,
      "ęęĘĝęęĘ": 2620,
      "ęęĘėęęĘę": 2621,
      "ęęĚĚęęęęĘ": 2622,
      "ęęĚĝęęĚ": 2623,
      "ęęĚĚęęęęĘĘ": 2624,
      "ęěęęęęęęęę": 2625,
      "ęěęęĝ": 2626,
      "ęěĖęęęę": 2627,
      "ęěęĕęęĘ": 2628,
      "ęėĐ": 2629,
      "ęėęė": 2630,
      "ęėęęęė": 2631,
      "ęėęęĚę": 2632,
      "ęėęĘęęĜ": 2633,
      "ęęęęęęęęęęĘę": 2634,
      "ęęęęęęęęĘęęęęęę": 2635,
      "ęęęęęęęęęęęĚęęęęęę": 2636,
      "ęęěęęĚ": 2637,
      "ęęěĘęęĘ": 2638,
      "ęęěěęęęę": 2639,
      "ęęěěęęĘ": 2640,
      "ęęěĖęęĚ": 2641,
      "ęęěęęęęęęĚ": 2642,
      "ęęėěęęĚ": 2643,
      "ęęėĜęęĘ": 2644,
      "ęęėęęęĕ": 2645,
      "ęęėęęęėę": 2646,
      "ĘęęęęęęĚęęęę": 2647,
      "ĘęęęęęęĚęęęęęę": 2648,
      "ĚęęęęĚęęęę": 2649,
      "ĚęęęęėĚ": 2650,
      "ĚęęęęěĘ": 2651,
      "ęęęĚęęĖ": 2652,
      "ęęęĘĘęęęę": 2653,
      "ęęęĘęęęęĚĚ": 2654,
      "ęĜ!": 2655,
      "ęĜęĚęęęę": 2656,
      "ęĜęĘęęĚ": 2657,
      "ęĜĜęęęę": 2658,
      "ęĖěęęęę": 2659,
      "ęĖęęĘę": 2660,
      "ęĖęėęęęę": 2661,
      "ęęĖĚęęĘ": 2662,
      "ęęĖěęęĖ": 2663,
      "ęęĜĘęęě": 2664,
      "ęęĜėęęĜ": 2665,
      "ęĚęęęęęęė": 2666,
      "ęĚęęęęĘęęęę": 2667,
      "ęĚęęęęęĘęĚęęęę": 2668,
      "ęĚęęęęęęęĘęęęęę": 2669,
      "ęĘęęęęęęęĚęęęę": 2670,
      "ęĘęęęęęęĚĚęęęę": 2671,
      "ęĘęęęęęęĚĘęęęę": 2672,
      "ęĕĘęęęę": 2673,
      "ęĕĚęęęę": 2674,
      "ęĕęęęęĚ": 2675,
      "ęĕęĘęęĚ": 2676,
      "ęĝęęĜ": 2677,
      "ĘęęĚęĕ": 2678,
      "ęĚĚęęęĖ": 2679,
      "ęĚĚěęęė": 2680,
      "ęĚĚĜęęĘ": 2681,
      "ęĚĚĜęęĚ": 2682,
      "ęĚĚĘęęęęĚ": 2683,
      "ĚęęĚęęĚ": 2684,
      "ęęĕęĖ": 2685,
      "ęęĕęęęė": 2686,
      "ęĚĘęęęĖ": 2687,
      "ęĚĘĜęęĚ": 2688,
      "ęĚĘėęęęęĚ": 2689,
      "ęĘĚęęęė": 2690,
      "ęĘĚėęęě": 2691,
      "ęĘĚěęęė": 2692,
      "ęĘĚĜęęęę": 2693,
      "ęĘĚĕęęęę": 2694,
      "ęĘĚĝęęęę": 2695,
      "ęĘĚĝęęĚ": 2696,
      "ęĘĘėęęě": 2697,
      "ęĘĘĚęęĖ": 2698,
      "ęĘĘęęęĘęęĚ": 2699,
      "ęĘĘĘęęĘę": 2700,
      "ęĘĘĝęęė": 2701,
      "ęęĝęęęĚ": 2702,
      "ęęęėęęęęĚ": 2703,
      "ęęę#": 2704,
      "ęęęĔęęĚ": 2705,
      "ėęęęęĖ": 2706,
      "ėęęęęě": 2707,
      "ėęęęęęęĘęęęę": 2708,
      "ėęęęęěĘ": 2709,
      "ěęęęęĕ": 2710,
      "ěęęęęę": 2711,
      "ěęęęęęęĘ": 2712,
      "ęĞĒ": 2713,
      "ęĞē": 2714,
      "ęęĚęęęęęęęĘęęęę": 2715,
      "ęęĚęęęęęĘęęęęęę": 2716,
      "ęęĚęęęęęęĚęęęęę": 2717,
      "ęęĔęĖ": 2718,
      "ęęĔęęęė": 2719,
      "ęęĔęĞ": 2720,
      "ėęęĚęęė": 2721,
      "ęĔ!": 2722,
      "ęĔęęĘ": 2723,
      "ęĔęęęęĚ": 2724,
      "ęĔěĝ": 2725,
      "ĀĀĘĀĚĚ": 2726,
      "ęĚěĚęęĘ": 2727,
      "ęĚěėęęĘ": 2728,
      "ęĚěĚęęĜ": 2729,
      "ęĚěĘęęĚę": 2730,
      "ĀĀęĀĖĘ": 2731,
      "ĀĀęĀĜĘ": 2732,
      "ęěĚěęęęę": 2733,
      "ęěĚėęęĘ": 2734,
      "ęěĚėęęě": 2735,
      "ęěĚĘęęĚę": 2736,
      "ęěĚĘęęęęĚĚ": 2737,
      "ĘęęėęĜĘ": 2738,
      "ęĚėĚęęęę": 2739,
      "ęĚėĚęęĚ": 2740,
      "ĀĀĚĀĚĘ": 2741,
      "ęĘěĘęęęę": 2742,
      "ęĘěĖęęĚ": 2743,
      "ęĘěėęęĜ": 2744,
      "ęĘěĜęęě": 2745,
      "ęĘėĘęęĚ": 2746,
      "ęĘėęęęėę": 2747,
      "ęėĚěęęęę": 2748,
      "ęėĚĚęęęęĘ": 2749,
      "ęėĚĚęęĜ": 2750,
      "ĀĀėĀėĘ": 2751,
      "ęėĘĘęęĚ": 2752,
      "ęėĘěęęęę": 2753,
      "ęėĘĚęęě": 2754,
      "ęėĘĜęęęę": 2755,
      "ęėĘĜęęĚ": 2756,
      "ęėĘĘęęĖ": 2757,
      "ęėĘĚęęęęĚ": 2758,
      "ęęēęĕ": 2759,
      "ęēĔ": 2760,
      "ęēęęĚ": 2761,
      "ęēęęě": 2762,
      "ėęęěę": 2763,
      "ĖęęęęėĘ": 2764,
      "ęěěęęęĘ": 2765,
      "ęěěĚęęĘ": 2766,
      "ęěěĘęęĜ": 2767,
      "ęěęęęęĖ": 2768,
      "ęęęĚęęęęęęĘę": 2769,
      "ęęęĘęęęęęęĘę": 2770,
      "ęęęĘęęęęĚęęęęęę": 2771,
      "ęėęęęęĝ": 2772,
      "ęěėĜęęĘ": 2773,
      "ęěėėęęĖ": 2774,
      "ĚęęęęĘĚęęęę": 2775,
      "ęĚęęĚęęęęęęęę": 2776,
      "ĚĘęę": 2777,
      "ĚĘĚęęĘ": 2778,
      "ęĘĘęęęęęĚĚęęęę": 2779,
      "ęĚĘęęęęĘ": 2780,
      "ęĚĘęęęęęęĘęęęę": 2781,
      "ęĜĚĘęęě": 2782,
      "ęĜĚĖęęĚ": 2783,
      "ĘęęęęĘę": 2784,
      "ěĚĘęęĚ": 2785,
      "ėĚęęē": 2786,
      "ęėěĚęęęę": 2787,
      "ęėěěęęęę": 2788,
      "ęėěĘęęě": 2789,
      "ęėěęęęĜ": 2790,
      "ęėěĜęęě": 2791,
      "ęĜĘęęęĚ": 2792,
      "ęĚęęęęĘĘ": 2793,
      "ęĚęęęęĘęęęęęęęę": 2794,
      "ěĘęęĖ": 2795,
      "ęĚĖęęęė": 2796,
      "ęĚĖĚęęė": 2797,
      "ęĘĖėęęĘ": 2798,
      "ęĘĖĘęęė": 2799,
      "ęĘĖĘęęĖ": 2800,
      "ęĘęęęęĘęĚęęęę": 2801,
      "ęĖĚĚęęě": 2802,
      "ęĖĚęęęĖ": 2803,
      "ęĘęęęęĚęĚęęęę": 2804,
      "ęęęĘęęĚęęęĚę": 2805,
      "ęėĖĚęęė": 2806,
      "ęęęęĘĘĚęęĘ": 2807,
      "ęęęĘęęĘęęęęęęęęęęęę": 2808,
      "ęĜěĘęęĚ": 2809,
      "ęĜěěęęĚ": 2810,
      "ęĚęęęęĚęĚęęęę": 2811,
      "ęĚęęęęĚęĘęęęę": 2812,
      "ęęęęĚĚĘęęęę": 2813,
      "ęĖėĚęęĘ": 2814,
      "ęĖėěęęė": 2815,
      "ěěęęĜ": 2816,
      "ěěęęĝ": 2817,
      "ĀĀēĀē": 2818,
      "ęėĜĘęęĚ": 2819,
      "ęęđęĜ": 2820,
      "ėęęĖę": 2821,
      "ęĖĖęęęė": 2822,
      "ęĖěĘęęĚ": 2823,
      "ęĖěĘęęě": 2824,
      "ęěĖĘęęė": 2825,
      "ėėęęĕ": 2826,
      "ęĚęĘęęęęĚęęęęęę": 2827,
      "ĀĀđĀĖ": 2828,
      "ĀĀđĀĕ": 2829,
      "ĀĀđĀĝ": 2830,
      "ĀĀđĀĞ": 2831,
      "ĀĀđĀğ": 2832,
      "ęĘĕĘęęė": 2833,
      "ęĚĝėęęě": 2834,
      "ęđė": 2835,
      "ěėėęęĘ": 2836,
      "ęĕĚęęęĚ": 2837,
      "ęĚĕęęęĖ": 2838,
      "ęĚĕĚęęĖ": 2839,
      "ęĝĘęęęĘ": 2840,
      "ęĝĘėęęĘ": 2841,
      "ęęĘęęęĘęęęęęęęę": 2842,
      "ĜĘęęęĘ": 2843,
      "ęęĘĘęęęęęęĘęęęę": 2844,
      "ĜĜęęĜ": 2845,
      "ęĕėĚęęĘ": 2846,
      "ęĕėĚęęĚ": 2847,
      "ĀĀ\"ĀĖ": 2848,
      "ĀĀ\"Āĝ": 2849,
      "ęĝĚėęęęę": 2850,
      "ĀĀĖĀ!": 2851,
      "ęĘĝĚęęĚ": 2852,
      "ĘĚĜ": 2853,
      "ėĖę": 2854,
      "ęĚęĘęęęęęęęęęęę": 2855,
      "ĝĚęęĞ": 2856,
      "ęĚęĚęęęęęęĚ": 2857,
      "ęĘĘęęęĘęęęęęęęę": 2858,
      "ĀĀĐĀě": 2859,
      "ĀĀĐĀĝ": 2860,
      "ĀĀ$Āě": 2861,
      "ĀĀ#ĀĔ": 2862,
      "ĘĘğ": 2863,
      "ęĖĜęęęĚ": 2864,
      "ęĖĜęęęě": 2865,
      "ĞĚęęĝ": 2866,
      "ęěĕĘęęĘ": 2867,
      "ĀĀĎĀĚ": 2868,
      "ĀĀĎĀĜ": 2869,
      "ĔęęęęĖ": 2870,
      "ęĘęĘęęĜ": 2871,
      "Ġĝęęĝ": 2872,
      "ęęęęęęęęęĚęęęĚę": 2873,
      "ęĝĜĘęęě": 2874,
      "ęĚĔęęęė": 2875,
      "ğĚęę": 2876,
      "ğĚęęĝ": 2877,
      "ĀĀ%Āě": 2878,
      "ĀĀ%Āĕ": 2879,
      "ĠĘęęğ": 2880,
      "ęĘęęęęęęĘĘ": 2881,
      "ĀĀĚĀĘĘ": 2882,
      "ĀĀ&ĀĘ": 2883,
      "ěĕė": 2884,
      "ĀĀ)ĀĘ": 2885,
      "ęĝęęęęě": 2886,
      "ęĘęęęęęęęęęęęęęĚęęęęęę": 2887,
      "ĀĀ'ĀĘ": 2888,
      "ęęĚęęęęęęĘęęęęęęęęęęęęę": 2889,
      "ğěęęğ": 2890,
      "ęĚęėęęĖ": 2891,
      "ęėęěęęě": 2892,
      "ĀĀĈĀ": 2893,
      "!ĀĀėĀ": 2894,
      "\"ęęĘ": 2895,
      "\"ęęĚ": 2896,
      "\"ĀĀĖ": 2897,
      "#%": 2898,
      "#ĕ": 2899,
      "&!": 2900,
      "&ĀĀ": 2901,
      "ĎĘ": 2902,
      "ďđ": 2903,
      "ďĜ": 2904,
      "Đď": 2905,
      "ĐĀĀ": 2906,
      "Đęęĕ": 2907,
      "đęęęĘ": 2908,
      "Ēęęĕ": 2909,
      "ēĘęęė": 2910,
      "ēęęē": 2911,
      "ēęęęĖ": 2912,
      "ēĜęęė": 2913,
      "ĔęęĒ": 2914,
      "ĔėęęĖ": 2915,
      "ĔěĜ": 2916,
      "ĔĜĜ": 2917,
      "ĔěĞ": 2918,
      "Ĕĕęęĕ": 2919,
      "ĕ\"": 2920,
      "ĕĀĀ": 2921,
      "ĕĚęęęę": 2922,
      "ĕęęĒ": 2923,
      "ĕěĚ": 2924,
      "ĕĜęęė": 2925,
      "ĕęęęęĚĚ": 2926,
      "ĕĕęęĘ": 2927,
      "ĕęęęĔ": 2928,
      "Ėđ": 2929,
      "ĖĚęęęę": 2930,
      "Ėěęęė": 2931,
      "ĖĜęęė": 2932,
      "Ėĕęęęę": 2933,
      "ĖęęęęĚĚ": 2934,
      "ĖĕęęĘ": 2935,
      "ĖĜĞ": 2936,
      "ĖēęęĘ": 2937,
      "Ė!ğ": 2938,
      "ėĖęęě": 2939,
      "ėęęęĕ": 2940,
      "ėĜęęė": 2941,
      "ėęę\"": 2942,
      "ėĕęęė": 2943,
      "ėĝęęė": 2944,
      "ėęęęęęęęęęęęĘ": 2945,
      "ĘĖ": 2946,
      "ĘĀĀ": 2947,
      "ĘėĚ": 2948,
      "Ęęę!": 2949,
      "Ęěě": 2950,
      "Ęęęđ": 2951,
      "ĘěĜ": 2952,
      "Ęęę\"": 2953,
      "ęĀĀ!Ā": 2954,
      "Ě!": 2955,
      "ĚĐ": 2956,
      "ĚĀĀ": 2957,
      "Ěęęęė": 2958,
      "ĚęĞ": 2959,
      "ĚěęęĚ": 2960,
      "ĚĜęęĚ": 2961,
      "Ěěęęě": 2962,
      "ĚĕęęĚ": 2963,
      "ĚĖĚ": 2964,
      "ĚĝĚ": 2965,
      "ĚęęęęęęęęęĘ": 2966,
      "ĚĜĞ": 2967,
      "Ěęęęęęęęęęęęęęęęęęę": 2968,
      "ĚēĘ": 2969,
      "ěĕęęĚ": 2970,
      "ěĖĚ": 2971,
      "ěĔęęĚ": 2972,
      "ĜĎ": 2973,
      "ĜęĘ": 2974,
      "Ĝėęęęę": 2975,
      "Ĝěęęęę": 2976,
      "ĜėĘ": 2977,
      "ĜĚęęĜ": 2978,
      "Ĝěě": 2979,
      "ĜęęęęĘĚ": 2980,
      "ĜĀĀĘĀ": 2981,
      "Ĝĝęęęę": 2982,
      "ĜęęĐ": 2983,
      "ĝęĜ": 2984,
      "ĝĚęęĚ": 2985,
      "ĝėęęě": 2986,
      "ĝėęęĜ": 2987,
      "ĝĜęęě": 2988,
      "ĝěęęĜ": 2989,
      "ĝĖęęĜ": 2990,
      "ĝĀĀĖĀ": 2991,
      "ĝĖĘ": 2992,
      "ĞęęęĚ": 2993,
      "Ğęęęě": 2994,
      "ğěęęĜ": 2995,
      "ğĀĀėĀ": 2996,
      "ğĝęęě": 2997,
      "ğěęęĝ": 2998,
      "Ġ&": 2999,
      "Ġđ": 3000,
      "Ġęę": 3001,
      "ĠęĜ": 3002,
      "ĠĀĜ": 3003,
      "Ġęęğ": 3004,
      "ĠĀĔ": 3005,
      "ĠĜęęě": 3006,
      "ĠĀĀĔĀ": 3007,
      "ĠĕęęĜ": 3008,
      "Ġěęęĝ": 3009,
      "ĠĀĀęĀĘ": 3010,
      "Ġęęęğ": 3011,
      "ĠĀĀĖĀĚ": 3012,
      "ĠĀĀęĀė": 3013,
      "ĠĀĀėĀĖ": 3014,
      "ęęĈ": 3015,
      "ęęęęĝ": 3016,
      "ęęęęęęĜ": 3017,
      "ęĚ\"": 3018,
      "ęĚđ": 3019,
      "ęĚęęęĘ": 3020,
      "ęĚęęĔ": 3021,
      "ęĚĝęęęę": 3022,
      "ęĚęęęęęęęęęĘ": 3023,
      "ęĚęěęęęęĘ": 3024,
      "ęĚęĜęęė": 3025,
      "ęĘĎ": 3026,
      "ęĘęęęĚ": 3027,
      "ęĘęĝ": 3028,
      "ęĘĘęęĘę": 3029,
      "ęĘęėęęęęĚ": 3030,
      "ęĘęęęęęęęęęęęęęęęęęę": 3031,
      "ęĘęĜęęĚ": 3032,
      "ęĘęĖęęęęĘ": 3033,
      "ęęĘĚęęě": 3034,
      "ęęĘęęęĚę": 3035,
      "ęęĘęęĚę": 3036,
      "ęęĚęęęęĚ": 3037,
      "ęęĚėęęĘ": 3038,
      "ęęĚĘęęė": 3039,
      "ęęĚĖęęęę": 3040,
      "ęęĚęęęęęęęęęęę": 3041,
      "ęęĚĚęęĜ": 3042,
      "ĀĀĆ": 3043,
      "ęěĐ": 3044,
      "ęěĀĀ": 3045,
      "ęěęęęęęęęęęęęę": 3046,
      "ęěĘęęě": 3047,
      "ęěěęęĚ": 3048,
      "ęěĜęęĚ": 3049,
      "ęěęĘęęęęĚ": 3050,
      "ęěęęěę": 3051,
      "ęėęĕ": 3052,
      "ęėĚęęė": 3053,
      "ęėĕęęęę": 3054,
      "ęėęĖęęęę": 3055,
      "ęėĘęęęęę": 3056,
      "ęėęĜęęĘ": 3057,
      "ęėęĘęęė": 3058,
      "ęęęęęęęęęė": 3059,
      "ęęęęęęęęęĚęęęę": 3060,
      "ęęęęęęęęěęęęę": 3061,
      "ęęęęęęęęėĘ": 3062,
      "ęęęęęęęęęęęĘęęęęęę": 3063,
      "ęęěęęė": 3064,
      "ęęěęęĘę": 3065,
      "ęęěĖęęęę": 3066,
      "ęęěĘęęĜ": 3067,
      "ęęěĝęęęę": 3068,
      "ęęěĝęęĚ": 3069,
      "ęęėęĝ": 3070,
      "ęęėęęęě": 3071,
      "ęęėėęęė": 3072,
      "ęęėĜęęęę": 3073,
      "ęęėĝęęĘ": 3074,
      "Ęęęęęęęęě": 3075,
      "ĘęęęęęĚĚęęęę": 3076,
      "ĘęęęęěĜ": 3077,
      "ĚęęęęĔ": 3078,
      "ĚęęęęęęĚę": 3079,
      "ĚęęęęęęĚĚęęęę": 3080,
      "ęęęĚĚęęęę": 3081,
      "ęęęĚęęęęĘĘ": 3082,
      "ęęęĚęęęęĘĚ": 3083,
      "ęęęĘęęęęęęęęęęęęęęęę": 3084,
      "ęĜĐ": 3085,
      "ęĜěęęě": 3086,
      "ęĜęĖęęĘ": 3087,
      "ęĜęĚęęė": 3088,
      "ęĜęėęęė": 3089,
      "ęĖ\"": 3090,
      "ęĖđ": 3091,
      "ęĖęĘęęĘ": 3092,
      "ęĖęěęęĘ": 3093,
      "ęęĖĖęęĘ": 3094,
      "ęęĖĘęęĖ": 3095,
      "ęęĜĘęęęę": 3096,
      "ęęĜĖęęě": 3097,
      "ęęĜĘęęĜ": 3098,
      "ęĚęęęęęĚĘęęęę": 3099,
      "ęĚęęęęęĚĚęęęę": 3100,
      "ęĘęęęęęęĝ": 3101,
      "ęĘęęęęęĘĘęęęę": 3102,
      "ęĘęęęęĚęęęęęęĚ": 3103,
      "ęĘęęęęęęęĘęęęęę": 3104,
      "ęĕęęęęĘ": 3105,
      "ęĕęěęęĘ": 3106,
      "ęĕęěęęĚ": 3107,
      "ĘęęĘęĞ": 3108,
      "ĘęęĘęėĚ": 3109,
      "ęĚĚęęęęęęęę": 3110,
      "ęĚĚĘęęė": 3111,
      "ęĚĚĖęęĘ": 3112,
      "ęĚĚĚęęĖ": 3113,
      "ęĚĚęęęĚęęĚ": 3114,
      "ęĚĚĘęęęęĘĘ": 3115,
      "ęęĕęęĚ": 3116,
      "ęęĕęęęĖ": 3117,
      "ęęĕĚęęĖ": 3118,
      "ęĚĘěęęĖ": 3119,
      "ęĚĘěęęęęĘ": 3120,
      "ęĚĘĚęęėę": 3121,
      "ęĘĚĚęęė": 3122,
      "ęĘĚĘęęęęĘ": 3123,
      "ęĘĚęęęęęęęęęęę": 3124,
      "ęĘĚĘęęĜ": 3125,
      "ęĘĚĜęęė": 3126,
      "ęĘĚĚęęĜ": 3127,
      "ęĘĚęęęĚęęĘ": 3128,
      "ęĘĚěęęęęĘ": 3129,
      "ęĘĚĘęęĞ": 3130,
      "ęĘĚěęęĚę": 3131,
      "ęĘĚĚęęęęĘĚ": 3132,
      "ęĘĘęęęĜ": 3133,
      "ęĘĘęęęĖ": 3134,
      "ęĘĘĜęęęę": 3135,
      "ęĘĘĘęęĕ": 3136,
      "ęĘĘěęęęęĚ": 3137,
      "ęĘĘėęęęęĘ": 3138,
      "ęęĝĘęęĚ": 3139,
      "ęęęėęęęęęęĚ": 3140,
      "ęęęěęęĖ": 3141,
      "ęęę$": 3142,
      "ėęęęęěė": 3143,
      "ěęęęęĝ": 3144,
      "ęĞ!": 3145,
      "ęęęęęęęęęęęęęęęĚ": 3146,
      "ęęęęęęęęęęęęęĚęęęęęę": 3147,
      "ęęęęęęęęęęęęęĘęęęęę": 3148,
      "ęęęęęęęęęęęęęĚęęęęę": 3149,
      "ęęĘęęęęęęě": 3150,
      "ęęĘęęęęęęė": 3151,
      "ęęĘęęęęęęęĘęęęę": 3152,
      "ęęĚęęęęęĘęęęę": 3153,
      "ęęĚęęęęęĚĘęęęę": 3154,
      "ęęĚęęęęęęĚę": 3155,
      "ęęĔęĝ": 3156,
      "ęęĔęĚĘ": 3157,
      "ęęĔęėė": 3158,
      "ęĔđ": 3159,
      "ęĔęęė": 3160,
      "ęęĞęĜ": 3161,
      "ęęĞęĝ": 3162,
      "ęĚěĖęęęę": 3163,
      "ęĚěĜęęĚ": 3164,
      "ęĚěěęęě": 3165,
      "ĘęęěęėĚ": 3166,
      "ęěĘęęęĚ": 3167,
      "ęěĘěęęė": 3168,
      "ęěĘĘęęęęĚĘ": 3169,
      "ęěĚĚęęė": 3170,
      "ęěĚĘęęė": 3171,
      "ęěĚĚęęě": 3172,
      "ęěĚĜęęĚ": 3173,
      "ęěĚĖęęě": 3174,
      "ęěĚĘęęĜ": 3175,
      "ęěĚĕęęĚ": 3176,
      "ęĚėęęęĚ": 3177,
      "ęĚėėęęęę": 3178,
      "ęĚėėęęĚ": 3179,
      "ęĚėĘęęĖ": 3180,
      "ęĚėęęęĕ": 3181,
      "ęĚėĘęęĘę": 3182,
      "ęĚėĚęęĕ": 3183,
      "ęĘěĘęęĜ": 3184,
      "ęĘěěęęĜ": 3185,
      "ęĘěĖęęĜ": 3186,
      "ęĘėėęęęę": 3187,
      "ęĘėėęęĘ": 3188,
      "ęĘėĘęęĖ": 3189,
      "ęĘėĚęęĖ": 3190,
      "ęĘėĝęęĘ": 3191,
      "ęėĚĚęęė": 3192,
      "ęėĚĚęęĚę": 3193,
      "ęėĘęęęě": 3194,
      "ęėĘěęęĚ": 3195,
      "ęėĘėęęė": 3196,
      "ęėĘěęęęęĘ": 3197,
      "ęęęĜęęĘęęęė": 3198,
      "ĀĀěĀĚĚ": 3199,
      "ĀĀěĀėĘ": 3200,
      "ęęęĖęęě": 3201,
      "ĖęęęęĕĘ": 3202,
      "ęěěĘęęĘ": 3203,
      "ęěěĖęęĚ": 3204,
      "ęěěęęęĚę": 3205,
      "ęěěěęęě": 3206,
      "ęěěĘęęĚę": 3207,
      "ęěęęęęę": 3208,
      "ęěęęęęĝ": 3209,
      "ęěęęęęęęě": 3210,
      "ęěęęęęęęěęęęę": 3211,
      "ęęęĚęęęęęęĚę": 3212,
      "ęęęĘęęęęęęĚęęęę": 3213,
      "ĚĚĘ": 3214,
      "ĚĚĞ": 3215,
      "ĚĚęęğ": 3216,
      "ĚĚĘęęĚę": 3217,
      "ęėęęęęĖ": 3218,
      "ęėęęęęĜ": 3219,
      "ęėęęęęęęě": 3220,
      "ęėęęęęęęĖ": 3221,
      "ęėęęęęĘęęĘ": 3222,
      "ęěėėęęęę": 3223,
      "ęěėěęęė": 3224,
      "ęėėěęęęę": 3225,
      "ęėėęęęĖ": 3226,
      "ęėėĝęęĘ": 3227,
      "ěęęėęė": 3228,
      "ĚęęęęĘĚĚęęęę": 3229,
      "ĀĀĜĀĚĘ": 3230,
      "ĀĀĜĀĚĚ": 3231,
      "ĚĘĝ": 3232,
      "ĚĘĘęęĘ": 3233,
      "ĚĘęęĝ": 3234,
      "ęęĒę": 3235,
      "ęęĒęĞ": 3236,
      "ęĘĘęęęęęęĚęęęę": 3237,
      "ĜęęęęėĘ": 3238,
      "ĜęęęęĜě": 3239,
      "ęĚĘęęęęĚ": 3240,
      "ęĚĘęęęęęęĚ": 3241,
      "ęĚĚęęęęęĚĚęęęę": 3242,
      "ęĚĜĘęęęę": 3243,
      "ęĚĜęęęĜ": 3244,
      "ęĚĜěęęě": 3245,
      "ĘęęęęĘĘęęęę": 3246,
      "ěĚęęĖ": 3247,
      "ěĚęęĞ": 3248,
      "ęėěĖęęĜ": 3249,
      "ėĘĚęęęę": 3250,
      "ėĘęęĜ": 3251,
      "ęĜĘĚęęė": 3252,
      "ęĜĘĖęęĚ": 3253,
      "ęĜĘĖęęĘ": 3254,
      "ęĘĜĘęęĜ": 3255,
      "ęĘĜĜęęě": 3256,
      "ęĚęęęęĘęĘęęęę": 3257,
      "ęĚęęęęĘęĚęęęęĘ": 3258,
      "ěĘĝ": 3259,
      "ěĘęę": 3260,
      "ěĘęęğ": 3261,
      "ěĘĖęęĘ": 3262,
      "ęĚĖęęęĚ": 3263,
      "ęĚĖĖęęĘ": 3264,
      "ęĚĖĜęęĘ": 3265,
      "ęĚĖĚęęĖ": 3266,
      "ęĚĖěęęĖ": 3267,
      "ĀĀĔĀĚĘ": 3268,
      "ęĖĘěęęęę": 3269,
      "ęĖĘěęęĘ": 3270,
      "ęĖĘěęęĚ": 3271,
      "ęĘĖěęęė": 3272,
      "ęĘĖěęęĖ": 3273,
      "ęĘĖĝęęĘ": 3274,
      "ęĘĚęęęęęĘęęęęęę": 3275,
      "ęĒĒ": 3276,
      "ęĒĞ": 3277,
      "ęĒğ": 3278,
      "ęĒęęĚ": 3279,
      "ęĘęęęęĘĘ": 3280,
      "ęĖĚęęęĘ": 3281,
      "ęĖĚĘęęĚ": 3282,
      "ęĖĚĚęęė": 3283,
      "ęĖĚěęęě": 3284,
      "ĚęęęęĚę": 3285,
      "ĚęęęęĚĚęęęęę": 3286,
      "ęěĜęęęĘ": 3287,
      "ęěĜĚęęĚ": 3288,
      "ęěĜęęęĜ": 3289,
      "ęěĜĘęęĜ": 3290,
      "ĀĀğĀğ": 3291,
      "ĀĀğĀē": 3292,
      "ęėĖėęęĘ": 3293,
      "ęėĖěęęė": 3294,
      "Ĝęęėę": 3295,
      "ĕęęęęěĘ": 3296,
      "ęęęĘęęĘęęęĘę": 3297,
      "ęĜěĚęęě": 3298,
      "ęęęĝęęĚ": 3299,
      "ęĖėĚęęĚ": 3300,
      "ęĖėėęęĚ": 3301,
      "ěěě": 3302,
      "ěěęęęĚ": 3303,
      "ěěĚęęĚ": 3304,
      "ęėĜĚęęě": 3305,
      "ĀĀĒĀē": 3306,
      "ĕęęĚęĔ": 3307,
      "ęĜėĘęęĘ": 3308,
      "ęĜėėęęĘ": 3309,
      "ęęęĚęęĘęęęęęęęę": 3310,
      "ęĜĜęęęě": 3311,
      "ęĜĜĘęęě": 3312,
      "ęĜĜĖęęĚ": 3313,
      "ęęęęĚĘĚęęęę": 3314,
      "ęĖĖĚęęė": 3315,
      "ęĖĖěęęĖ": 3316,
      "ęĖěĚęęĚ": 3317,
      "ęĖěęęęě": 3318,
      "ęěĖĘęęĘ": 3319,
      "ėėě": 3320,
      "ėėęęęĘ": 3321,
      "ėėęęĝ": 3322,
      "ėėěęęĘ": 3323,
      "ę!ğ": 3324,
      "ęęęĚęęĚęęęĘ": 3325,
      "ĀĀđĀĔ": 3326,
      "ęĖęęęęė": 3327,
      "ęĖęęęęęę": 3328,
      "ęĘĕęęęė": 3329,
      "ęĚĝĚęęĚ": 3330,
      "ęĚĝĘęęĜ": 3331,
      "ęĘĚęęęĚęęęęęęęę": 3332,
      "ęđĜ": 3333,
      "ęđęęĚ": 3334,
      "ěėĜ": 3335,
      "ěėęęĝ": 3336,
      "ęĚĕęęęĘ": 3337,
      "ęĚĕĚęęĘ": 3338,
      "ęĚĕĘęęė": 3339,
      "ęĝĘėęęĚ": 3340,
      "ĜĘęęĝ": 3341,
      "ĜĘęęĞ": 3342,
      "ĕĚ!": 3343,
      "ęĜęęęęęę": 3344,
      "ęĕėĘęęĘ": 3345,
      "ęĕĘęęęĘ": 3346,
      "ęĕĘĚęęĚ": 3347,
      "ĀĀ\"ĀĜ": 3348,
      "ĀĀ\"ĀĔ": 3349,
      "ęĝĚęęęĜ": 3350,
      "ęĘĝĚęęě": 3351,
      "ęĘĝęęęĜ": 3352,
      "ęĘĝĖęęě": 3353,
      "ęěĝęęęĚ": 3354,
      "ęěĝėęęě": 3355,
      "ęĘęĚęęĖ": 3356,
      "ĘĚě": 3357,
      "ėĖĝ": 3358,
      "ėĖęęĖ": 3359,
      "ėĖęęĕ": 3360,
      "ĀĀĚĀęĕ": 3361,
      "ĖĘęęĒ": 3362,
      "ĝĚĜ": 3363,
      "ĝĚęę": 3364,
      "ĝĚęęğ": 3365,
      "ęęęęęęęęęĘĘęęĘ": 3366,
      "ěĞęęęę": 3367,
      "ěĞęęĚ": 3368,
      "ęĜĖęęęĖ": 3369,
      "ęĜĖĖęęĚ": 3370,
      "ėĜęęĔ": 3371,
      "ĀĀ#ĀĖ": 3372,
      "ĀĀ#Āē": 3373,
      "ĘĘĝ": 3374,
      "ĘĘęęĔ": 3375,
      "ęėĕęęęĘ": 3376,
      "ęėĕęęęė": 3377,
      "ę\"Ě": 3378,
      "ĀĀďĀĚ": 3379,
      "ĀĀďĀě": 3380,
      "ĀĀďĀĜ": 3381,
      "ĀĀďĀĔ": 3382,
      "ęĝěĚęęĚ": 3383,
      "ęĝěęęęě": 3384,
      "Ėĝęęĕ": 3385,
      "ĞĚęęĞ": 3386,
      "ęěĕęęęĘ": 3387,
      "ęěĕęęęė": 3388,
      "ęĜĝęęęĚ": 3389,
      "ęĚęĚęęĘę": 3390,
      "ęĚęĚęęęęęęęęęęę": 3391,
      "ĠĚęęĝ": 3392,
      "ęęęęęęęęĚęĘęęęę": 3393,
      "ęĘęěęęĖ": 3394,
      "ĀĀĘĀĘĘ": 3395,
      "ęėęęęęĘę": 3396,
      "ęĝėĘęęĘ": 3397,
      "ĘęęęęęęĘęęĘ": 3398,
      "ęĘęĘęęĚę": 3399,
      "ęĖĕĚęęĘ": 3400,
      "ęěĞĘęęĚ": 3401,
      "ęĚęęęęęęĘĚęęęĚę": 3402,
      "ĝĞęęĚ": 3403,
      "ęęĚęęĘėęęĘ": 3404,
      "ęęęęęęęęęęęĚęĚęęęę": 3405,
      "ĀĀĚĀĘĚ": 3406,
      "ĕěęęē": 3407,
      "ĀĀėĀĘĘ": 3408,
      "ęĕěĚęęĚ": 3409,
      "ęĕěěęęĚ": 3410,
      "ęęĚęęęęęęĚęęęęęęęę": 3411,
      "ēĚęęē": 3412,
      "ĝěęęĞ": 3413,
      "ĀĀ)ĀĚ": 3414,
      "ęĝęęęęė": 3415,
      "ęĕęęęęě": 3416,
      "ĘĞğ": 3417,
      "ĒĚęęĔ": 3418,
      "ğĞęęě": 3419,
      "ĀĀĚĀĚĞ": 3420,
      "ęęęėęęĘęęęĚ": 3421,
      "ěğĝ": 3422,
      "ĀĀ'Āė": 3423,
      "ęĝĝĘęęĚ": 3424,
      "ĀĀėĀěě": 3425,
      "ęėĔęęęė": 3426,
      "ęĘęęęęęęęęĚęęęę": 3427,
      "ęěęĘęęĚę": 3428,
      "ĒĞ\"": 3429,
      "Ěĝ!": 3430,
      "ęęęęęęęęęęęęęęęęęęęęęęęęęęęęęęęęę": 3431,
      "ėęęęęĚĚėęęĚ": 3432,
      "ęĚęěęęě": 3433,
      "ĀĀ+Āě": 3434,
      "ĀĀ*ĀĘ": 3435,
      "ėęęęęĚĘĘęęĘ": 3436,
      "ęęęęęęęęęęęęęĚę": 3437,
      "ĀĀ.Ā": 3438,
      "ĀĀ/Ā": 3439,
      "!ęęęę": 3440,
      "!Ěęęě": 3441,
      "!ęęęĜ": 3442,
      "!ĀĀęĀ": 3443,
      "!ĀĀĖĀ": 3444,
      "\"ěĘ": 3445,
      "##": 3446,
      "#ĝ": 3447,
      "#ęęĘ": 3448,
      "#ĀĀĝĀ": 3449,
      "#Ĝęęĝ": 3450,
      "$ĕ": 3451,
      "$ĀĀ": 3452,
      "%!": 3453,
      "%Ē": 3454,
      "%ĕ": 3455,
      "%Ě": 3456,
      "%Ĝ": 3457,
      "%ĝ": 3458,
      "%ğ": 3459,
      "&ĕ": 3460,
      "&ě": 3461,
      "&ĝ": 3462,
      "&ĀĀĕĀĖ": 3463,
      "'Ę": 3464,
      "'Ğ": 3465,
      "*Ě": 3466,
      "Ďđ": 3467,
      "ĎĞ": 3468,
      "ĎęęĘ": 3469,
      "ďď": 3470,
      "ďĐ": 3471,
      "ďĝ": 3472,
      "ďğ": 3473,
      "ďęęĖ": 3474,
      "ďęęĕ": 3475,
      "ďęęĝ": 3476,
      "ĐĎ": 3477,
      "ĐęęĖ": 3478,
      "ĐĖęęĕ": 3479,
      "đęė": 3480,
      "đęęĝ": 3481,
      "đęęęĖ": 3482,
      "đęęĐ": 3483,
      "đĘĘ": 3484,
      "Ēęęğ": 3485,
      "ĒĘĚ": 3486,
      "ĒĜĞ": 3487,
      "ĒėĞ": 3488,
      "ĒĔĚ": 3489,
      "Ēěğ": 3490,
      "ē\"": 3491,
      "ē$": 3492,
      "ē%": 3493,
      "ēĀĀ": 3494,
      "ēęęęĘ": 3495,
      "ēęęęęĘ": 3496,
      "ēėęęĘ": 3497,
      "ēęęĒ": 3498,
      "ēėĚ": 3499,
      "ēęęđ": 3500,
      "ēĖęęė": 3501,
      "ēęę\"": 3502,
      "ēęę#": 3503,
      "ēĜĝ": 3504,
      "ēĝĞ": 3505,
      "ēĝğ": 3506,
      "Ĕ#": 3507,
      "ĔĒ": 3508,
      "Ĕğ": 3509,
      "ĔĚęęĘ": 3510,
      "Ĕěęęęę": 3511,
      "ĔěęęĘ": 3512,
      "ĔęęęĖ": 3513,
      "Ĕėęęė": 3514,
      "ĔĜęęĘ": 3515,
      "ĔĘęęĖ": 3516,
      "Ĕěĝ": 3517,
      "Ĕęę\"": 3518,
      "ĔĕĘ": 3519,
      "ĕęė": 3520,
      "ĕęĚęęęę": 3521,
      "ĕėęęĘ": 3522,
      "ĕĚęęě": 3523,
      "ĕėęęė": 3524,
      "ĕĕęęęę": 3525,
      "ĕęęđ": 3526,
      "ĕĖęęė": 3527,
      "ĕěĞ": 3528,
      "ĕėĞ": 3529,
      "ĕĒĘ": 3530,
      "ĕğě": 3531,
      "ĖĚęęĚ": 3532,
      "Ėęęęě": 3533,
      "ĖĖęęęę": 3534,
      "ĖěęęĖ": 3535,
      "ĖĖęęė": 3536,
      "ĖĀĀĘĀ": 3537,
      "ĖĀĀęĀ": 3538,
      "ĖĜĜ": 3539,
      "ĖĖĘ": 3540,
      "Ėęę$": 3541,
      "ĖĔě": 3542,
      "ė#": 3543,
      "ėĘęęě": 3544,
      "ėęęęĜ": 3545,
      "ėĘęęęęĚ": 3546,
      "ėĕęęęę": 3547,
      "ėĕęęĚ": 3548,
      "ėĝęęĘ": 3549,
      "ėęęęĞ": 3550,
      "ėĚęęĘę": 3551,
      "ėĜě": 3552,
      "ėĘęęĘę": 3553,
      "ėĚęęęęę": 3554,
      "ėĕĘ": 3555,
      "ėęę#": 3556,
      "ėĕě": 3557,
      "ėęęĚęęęęęęĘ": 3558,
      "ė\"ğ": 3559,
      "Ę&": 3560,
      "ĘęĚ": 3561,
      "ĘėęęĚ": 3562,
      "Ęęęęęęęęęęęęęęęęę": 3563,
      "ĘĚĚ": 3564,
      "ĘĘęęĖ": 3565,
      "ĘĖĚ": 3566,
      "Ęěĝ": 3567,
      "ĘĜĚ": 3568,
      "ĘĘęęĘę": 3569,
      "ĘĘĚ": 3570,
      "ĘěĞ": 3571,
      "ĘĖĜ": 3572,
      "ę'": 3573,
      "ęĈ": 3574,
      "ęĀĀėĀ": 3575,
      "ęĀĀĝĀ": 3576,
      "ęĀĀēĀ": 3577,
      "ęĀĀěĀĘ": 3578,
      "ęĀĀĕĀě": 3579,
      "Ěė": 3580,
      "Ěęĕ": 3581,
      "ĚĘęęĘ": 3582,
      "ĚěęęĘ": 3583,
      "ĚĚęęęęĘ": 3584,
      "ĚęęĒ": 3585,
      "ĚěĚ": 3586,
      "Ěęęđ": 3587,
      "Ěęę\"": 3588,
      "ĚĕĚ": 3589,
      "Ěėě": 3590,
      "ĚėĜ": 3591,
      "Ěėĝ": 3592,
      "ĚěęęęęĚ": 3593,
      "ĚęęęęęęęęęęęĘ": 3594,
      "ĚĝĜ": 3595,
      "ĚĖĜ": 3596,
      "ĚĖęęğ": 3597,
      "ĚĔę": 3598,
      "Ěĕę": 3599,
      "ěęĖ": 3600,
      "ěęęęęęęęęęęęę": 3601,
      "ěěęęė": 3602,
      "ěĜęęĘ": 3603,
      "ěĘęęęęĘ": 3604,
      "ěěĘ": 3605,
      "ěĖęęě": 3606,
      "ěĜęęė": 3607,
      "ěĀĀęĀ": 3608,
      "ěęęęěę": 3609,
      "ěēęęĚ": 3610,
      "ě!Ĝ": 3611,
      "ěęęęęĘĚĚęęęę": 3612,
      "Ĝď": 3613,
      "Ĝęĕ": 3614,
      "ĜĘęęĘ": 3615,
      "ĜĚęęĘ": 3616,
      "Ĝęęē": 3617,
      "ĜęęęĜ": 3618,
      "ĜĖęęĚ": 3619,
      "ĜėĚ": 3620,
      "ĜĖęęě": 3621,
      "ĜěĜ": 3622,
      "ĜĝęęĚ": 3623,
      "ĜĕĚ": 3624,
      "ĜĖě": 3625,
      "ĜĀĀěĀ": 3626,
      "Ĝėĝ": 3627,
      "ĜĕęęĜ": 3628,
      "ĜĕĜ": 3629,
      "ĝęě": 3630,
      "ĝĚęęęę": 3631,
      "ĝęğ": 3632,
      "ĝĚĚ": 3633,
      "ĝĖęęĘ": 3634,
      "ĝěęęě": 3635,
      "ĝĖęęě": 3636,
      "ĝĘęęĜ": 3637,
      "ĝęęĚę": 3638,
      "ĝęęęęĚĚ": 3639,
      "ĝěě": 3640,
      "ĝĜęęĖ": 3641,
      "ĝĝĚ": 3642,
      "ĝėęęĝ": 3643,
      "ĞĘęęĚ": 3644,
      "Ğěęęęę": 3645,
      "Ğęęęĝ": 3646,
      "ĞęęęĞ": 3647,
      "Ğĝęęě": 3648,
      "Ğĝĝ": 3649,
      "ğ$": 3650,
      "ğĕ": 3651,
      "ğęĞ": 3652,
      "ğęęęĜ": 3653,
      "ğĘęęĜ": 3654,
      "ğĀĀěĀ": 3655,
      "ğěĕ": 3656,
      "ğĘęęğ": 3657,
      "Ġď": 3658,
      "ĠęĚ": 3659,
      "Ġęė": 3660,
      "Ġęĕ": 3661,
      "Ġęĝ": 3662,
      "ĠęęęęĚ": 3663,
      "Ġęęęě": 3664,
      "ĠęĞ": 3665,
      "ĠęĔ": 3666,
      "ĠęěĘ": 3667,
      "ĠĚęęě": 3668,
      "Ġęęē": 3669,
      "Ġęğ": 3670,
      "ĠĀĞ": 3671,
      "ĠęĘĜ": 3672,
      "ĠęĘĖ": 3673,
      "ĠĀĀĞ": 3674,
      "ĠĚęęĜ": 3675,
      "Ġęę!": 3676,
      "ĠěęęĜ": 3677,
      "Ġę!": 3678,
      "Ġĝęęě": 3679,
      "ĠĜęęĜ": 3680,
      "ĠĖęęĝ": 3681,
      "ĠĀĀĞĀ": 3682,
      "ĠĀĀēĀ": 3683,
      "ĠĔęęĝ": 3684,
      "ęę'": 3685,
      "ęę(": 3686,
      "ęĚĐ": 3687,
      "ęĚęĝ": 3688,
      "ęĚęęđ": 3689,
      "ęĚęėęęęęĚ": 3690,
      "ęĚęęęęęęęęęęęĘ": 3691,
      "ęĚęĝęęęę": 3692,
      "ęĚęėęęė": 3693,
      "ęĘęĖ": 3694,
      "ęĘęĕ": 3695,
      "ęĘĚęęęęĘ": 3696,
      "ęĘĜęęęę": 3697,
      "ęĘĝęęĘ": 3698,
      "ęĘĚęęĚę": 3699,
      "ęĘęĖęęĘ": 3700,
      "ęĘęęęęęęęęęęęęęęęęęęę": 3701,
      "ęĘęĕęęĘ": 3702,
      "ęęĘęĖ": 3703,
      "ęęĘęęęęĚ": 3704,
      "ęęĘęęĘę": 3705,
      "ęęĘĜęęęę": 3706,
      "ęęĘĜęęĘ": 3707,
      "ęęĘĜęęĚ": 3708,
      "ęęĘĘęęęęĘ": 3709,
      "ęęĘęęęĕ": 3710,
      "ęęĘěęęĖ": 3711,
      "ęęĘĝęęęę": 3712,
      "ęęĘěęęęęĚ": 3713,
      "ęęĘĚęęęęĘĘ": 3714,
      "ęęĚęęęęĘ": 3715,
      "ęęĚęęęęęęęęęęęęęęęę": 3716,
      "ęęĚěęęě": 3717,
      "ęęĚĚęęęęĚ": 3718,
      "ęęĚĘęęęęĚ": 3719,
      "ęęĚěęęĜ": 3720,
      "ęęĚĔęęĚ": 3721,
      "ęęĚėęęĝ": 3722,
      "ĀĀĂ": 3723,
      "ęě\"": 3724,
      "ęěď": 3725,
      "ęěę": 3726,
      "ęěęĜęęęę": 3727,
      "ęěęĜęęĘ": 3728,
      "ęěęĖęęĘ": 3729,
      "ęěęĖęęě": 3730,
      "ęěĖĚęęĕ": 3731,
      "ęěęĘęęĕ": 3732,
      "ęěĖĚęęĔ": 3733,
      "ęėęğ": 3734,
      "ęėęęĘę": 3735,
      "ęėĜęęĘ": 3736,
      "ęėęėęęĚ": 3737,
      "ęėĘęęĘę": 3738,
      "ęėęĚęęęęęęĚ": 3739,
      "ęėęĝęęęę": 3740,
      "ęėęĚęęĜ": 3741,
      "ęėęėęęĝ": 3742,
      "ęęęęęęęęė": 3743,
      "ęęěęęęė": 3744,
      "ęęěĘęęė": 3745,
      "ęęěěęęė": 3746,
      "ęęěĜęęęę": 3747,
      "ęęěěęęě": 3748,
      "ęęěęĘĖ": 3749,
      "ęęěęęęĘęęĚ": 3750,
      "ęęěĖęęĜ": 3751,
      "ęęěĚęęĚę": 3752,
      "ęęėęęĖ": 3753,
      "ęęėĚęęĚ": 3754,
      "ęęėęęęęĚ": 3755,
      "ęęėęęęĖ": 3756,
      "ęęėĘęęęęĚ": 3757,
      "ęęėęęęęęęĚ": 3758,
      "ęęėĚęęĘę": 3759,
      "ęęėęęęĔ": 3760,
      "ĘęęęęĖ": 3761,
      "ĘęęęęęęęĚęęęę": 3762,
      "ĘęęęęĖĚ": 3763,
      "ĘęęęęęĘęęęęęę": 3764,
      "ĘęęęęĚęęęęęęĚ": 3765,
      "Ěęęęęĕ": 3766,
      "ĚęęęęĘęęĚ": 3767,
      "Ěęęęęęęĝ": 3768,
      "Ěęęęęěęęęę": 3769,
      "ĚęęęęęęĘę": 3770,
      "ĚęęęęęęęĚęęęę": 3771,
      "ĚęęęęęĘĘęęęę": 3772,
      "Ěęęęęėě": 3773,
      "ĚęęęęěĖ": 3774,
      "ĚęęęęęęĘęęęęęę": 3775,
      "ęęęĚęė": 3776,
      "ęęęĚęĕ": 3777,
      "ęęęĚęęĕ": 3778,
      "ęęęĚęĘĚ": 3779,
      "ęęęĚęĖĘ": 3780,
      "ęęęĚęęęęĚĚ": 3781,
      "ęęęĚęĚęĘęęęę": 3782,
      "ęęęĚęęĘęęęęęęĚ": 3783,
      "ęęęĘęęĘęęęę": 3784,
      "ęęęĘęěĚ": 3785,
      "ęęęĘęęęęĚĘ": 3786,
      "ęęęĘęęęęęęęęęĚ": 3787,
      "ęęęĘęĞĘ": 3788,
      "ęĜ#": 3789,
      "ęĜęęĜ": 3790,
      "ęĜėęęě": 3791,
      "ęĜęĖęęęę": 3792,
      "ęĜęěęęĘ": 3793,
      "ęĜęėęęĚ": 3794,
      "ęĜęĖęęė": 3795,
      "ęĜėĚęęĖ": 3796,
      "ęĖęęĞ": 3797,
      "ęĖĚęęė": 3798,
      "ęĖęĜęęęę": 3799,
      "ęĖęĖęęĚ": 3800,
      "ęĖęĘęęě": 3801,
      "ęęĖěęęĘ": 3802,
      "ęęĖėęęĘ": 3803,
      "ęęĖęĚė": 3804,
      "ęęĖęęęĖ": 3805,
      "ęęĖĖęęė": 3806,
      "ęęĖĚęęĕ": 3807,
      "ęęĜęęęęĚ": 3808,
      "ęęĜěęęě": 3809,
      "ęęĜęĜĘ": 3810,
      "ęęĜĞęęĚ": 3811,
      "ęĚęęęęęęĖ": 3812,
      "ęĚęęęęėęęęę": 3813,
      "ęĚęęęęĚĘ": 3814,
      "ęĚęęęęęęěęęęę": 3815,
      "ęĚęęęęĘęęęęęęĘ": 3816,
      "ęĚęęęęęęĚęęęęęę": 3817,
      "ęĘęęęęĚęęė": 3818,
      "ęĘęęęęęęęĘęęęę": 3819,
      "ęĕęę": 3820,
      "ęĕęĚęęęę": 3821,
      "ęĕėęęęę": 3822,
      "ęĕėęęĘ": 3823,
      "ęĕĘęęė": 3824,
      "ęĕęęē": 3825,
      "ęĕĖęęęę": 3826,
      "ęĕęěęęęę": 3827,
      "ęĕęĚęęě": 3828,
      "ęĕĚĘęęĜ": 3829,
      "ęĝėęęęę": 3830,
      "ęĝęĚęęė": 3831,
      "ęĝęėęęĖ": 3832,
      "ĘęęĚęĕĚ": 3833,
      "ĘęęĘęęĝ": 3834,
      "ĘęęĘęĚě": 3835,
      "ĘęęĘęěĘ": 3836,
      "ĘęęĘęęĚĚęęĚ": 3837,
      "ĚęęĘęęęęęęęę": 3838,
      "ęĚĚĚęęė": 3839,
      "ęĚĚĚęęęęĘ": 3840,
      "ęĚĚęęęęęęęęęęę": 3841,
      "ęĚĚęęęĚęęĘ": 3842,
      "ęĚĚĖęęĜ": 3843,
      "ęĚĚěęęęęĘ": 3844,
      "ęĚĚėęęęęĚ": 3845,
      "ęĚĚĜęęĜ": 3846,
      "ĚęęĚęęĚęęęę": 3847,
      "ĚęęĚęĘě": 3848,
      "ęęęęĘęĘęęęę": 3849,
      "ęęęęĘęęęęęęęęęęęęę": 3850,
      "ęęĕę": 3851,
      "ęęĕęęęę": 3852,
      "ęęĕęęě": 3853,
      "ęęĕęĜ": 3854,
      "ęęĕėęęĘ": 3855,
      "ęęĕęĚė": 3856,
      "ęęĕĖęęĘ": 3857,
      "ęęĕěęęĖ": 3858,
      "ęęĕĖęęė": 3859,
      "ęęĕěęęĔ": 3860,
      "ęĚĘěęęĚ": 3861,
      "ęĚĘĚęęě": 3862,
      "ęĚĘęęęĚę": 3863,
      "ęĚĘĜęęęę": 3864,
      "ęĚĘĘęęĖ": 3865,
      "ęĚĘĚęęĖ": 3866,
      "ęĚĘĚęęęęĚ": 3867,
      "ęĚĘĝęęĘ": 3868,
      "ęĚĘěęęęęĚ": 3869,
      "ęĚĘėęęęęĘĚ": 3870,
      "ęĘĚĜęęĘ": 3871,
      "ęĘĚĖęęě": 3872,
      "ęĘĚĜęęě": 3873,
      "ęĘĚĝęęĘ": 3874,
      "ęĘĚĚęęěę": 3875,
      "ęĘĘęęĖ": 3876,
      "ęĘĘĖęęĚ": 3877,
      "ęĘĘěęęě": 3878,
      "ęĘĘęęęęęęęęęęę": 3879,
      "ęĘĘĚęęęęĚ": 3880,
      "ęĘĘĜęęė": 3881,
      "ęĘĘĕęęĚ": 3882,
      "ęĘĘėęęĜ": 3883,
      "ęĘĘĘęęĚę": 3884,
      "ęĘĘĚęęĚę": 3885,
      "ęĘĘěęęęęĘ": 3886,
      "ęĘĘęęęęęęęęęęęęęęęęęęę": 3887,
      "ęĘĘęęęęęęęęęęĚ": 3888,
      "ęęĝęęęę": 3889,
      "ęęĝĚęęě": 3890,
      "ęęĝėęęě": 3891,
      "ęęęėęęĘę": 3892,
      "ęęęėęęęęĘĘ": 3893,
      "ęęęėęęĚęęęě": 3894,
      "ęęęěęęęęęęĘ": 3895,
      "ėęęęęĞ": 3896,
      "ėęęęęęęě": 3897,
      "ėęęęęėė": 3898,
      "ėęęęęĜĘ": 3899,
      "ėęęęęėě": 3900,
      "ěęęęęęęęĘ": 3901,
      "ěęęęęęęĘęęęę": 3902,
      "ęĞęĚęęė": 3903,
      "ęęęęęęęęęęęęĚęęęęęę": 3904,
      "ęęĘęęęęęĘĘęęęę": 3905,
      "ęęĘęęęęęĘęęęęęę": 3906,
      "ęęĚęęęęęĚĚ": 3907,
      "ęęĚęęęęęęĘęęęęę": 3908,
      "ęęĔęęĔ": 3909,
      "ęęĔĚęęĕ": 3910,
      "ėęęĚęęęĚęęęę": 3911,
      "ėęęĚęĘĘęęęę": 3912,
      "ęĔĘęęęę": 3913,
      "ęĔęęęęĘ": 3914,
      "ęĔęęęęė": 3915,
      "ęęĞęęĘ": 3916,
      "ęęĞęĕ": 3917,
      "ęęĞęęęě": 3918,
      "ęęĞęĔ": 3919,
      "ęęĞęęęĝ": 3920,
      "ěęęĘęėĘ": 3921,
      "ęĚěęęęė": 3922,
      "ęĚěěęęęę": 3923,
      "ęĚěĘęęĜ": 3924,
      "ęĚěĘęęęęĚ": 3925,
      "ĀĀęĀėĘ": 3926,
      "ĘęęěęĚĖ": 3927,
      "ęěĘĔ": 3928,
      "ęěĘęęęě": 3929,
      "ęěĘĜęęĘ": 3930,
      "ęěĘĚęęęęĚĘ": 3931,
      "ęěĚęęęĜ": 3932,
      "ęěĚĚęęęęĚ": 3933,
      "ęěĚĜęęě": 3934,
      "ęěĚěęęĜ": 3935,
      "ęěĚĘęęęęĘĘ": 3936,
      "ęěĚĘęęěę": 3937,
      "ĚęęėęęĚ": 3938,
      "Ęęęėęē": 3939,
      "ĘęęėęĒ": 3940,
      "ĘęęėęĖĚ": 3941,
      "ęĚėęęęęĘ": 3942,
      "ęĚėěęęęę": 3943,
      "ęĚėěęęĚ": 3944,
      "ęĚėėęęĝ": 3945,
      "ęĚėĘęęėę": 3946,
      "ĀĀĚĀěĘ": 3947,
      "ĀĀĚĀĞĚ": 3948,
      "ęĘěęęęĘ": 3949,
      "ęĘěěęęě": 3950,
      "ęĘěĝęęĚ": 3951,
      "ęĘěĝęęě": 3952,
      "ęĘėĘęęě": 3953,
      "ęĘėęęęĖ": 3954,
      "ęĘėĖęęĘ": 3955,
      "ęĘėěęęĖ": 3956,
      "ęĘėĚęęĘę": 3957,
      "ęėĚĘęęĘ": 3958,
      "ęėĚėęęęę": 3959,
      "ęėĚęęęęęęęęęęęę": 3960,
      "ęėĚĜęęĘ": 3961,
      "ęėĚĘęęĜ": 3962,
      "ęėĚĜęęě": 3963,
      "ęėĚęęęěę": 3964,
      "ĀĀėĀĜĘ": 3965,
      "ĀėĚ": 3966,
      "ęėĘėęęĘ": 3967,
      "ęėĘęęęĚę": 3968,
      "ęėĘęęęĘę": 3969,
      "ęėĘěęęě": 3970,
      "ęėĘĝęęęę": 3971,
      "ęėĘĘęęĘę": 3972,
      "ęėĘĔęęęę": 3973,
      "ęęęęęęęęęęęęęęęęĘęęęęęęęęęęęę": 3974,
      "ęęēę": 3975,
      "ęęēęĜ": 3976,
      "ęęēęĖ": 3977,
      "ęęēęęĖ": 3978,
      "ęęēęĞ": 3979,
      "ęęēĘęęĖ": 3980,
      "ęęęĜęęęęĚ": 3981,
      "ęğ!": 3982,
      "ęğ#": 3983,
      "ęęğę": 3984,
      "ęęęĖęęĜ": 3985,
      "ęēē": 3986,
      "ęēęĜ": 3987,
      "ęēęęęęě": 3988,
      "ĖęęęęęĘĘęęęę": 3989,
      "ęěěėęęęę": 3990,
      "ęěěėęęė": 3991,
      "ęěěĖęęě": 3992,
      "ęěěėęęĜ": 3993,
      "ĀĝĞ": 3994,
      "ęěęęęęĞ": 3995,
      "ęęęĚęęęęęęě": 3996,
      "ęęęĚęęęęęĘĘęęęę": 3997,
      "ęęęĚęęęęěĚ": 3998,
      "ęęęĚęęęęęęĚęęĘ": 3999,
      "ęęęĘęęęęė": 4000,
      "ęęęĘęęęęęĘĘęęęę": 4001,
      "ęęęĘęęęęęĘęęęĘę": 4002,
      "ĚĚęę": 4003,
      "ĚĚęęęęęęęęęęę": 4004,
      "ĚĚęę!": 4005,
      "ęėęęęęę": 4006,
      "ęėęęęęėĘ": 4007,
      "ęėęęęęęęĚĘ": 4008,
      "ęěėĘęęęę": 4009,
      "ęěėęęęĚ": 4010,
      "ęěėěęęĚ": 4011,
      "ęěėĖęęĕ": 4012,
      "ęėėęęęĚ": 4013,
      "ęėėėęęęę": 4014,
      "ęėėęęęĕ": 4015,
      "ęėėĕęęĘ": 4016,
      "ĖęęĘęĖ": 4017,
      "ĖęęĘęĕ": 4018,
      "ĚĘĚ": 4019,
      "ĚĘĞ": 4020,
      "ĚĘęęĖ": 4021,
      "ĚĘęęğ": 4022,
      "ĚĘęęęĘę": 4023,
      "ęęĒęğ": 4024,
      "ĀĀĕĀėĘ": 4025,
      "ĀĞğ": 4026,
      "ęĚĘęęęęęęęĚęęęę": 4027,
      "ęĚĘęęęęęĚĚęęęę": 4028,
      "ęĚĘęęęęęęĚęęęĚ": 4029,
      "ĜęęĚęĕ": 4030,
      "ęĜĚęęęě": 4031,
      "ęĜĚĖęęęę": 4032,
      "ęĜĚĖęęě": 4033,
      "ęĚĜĚęęĜ": 4034,
      "ęĚĜĝęęĚ": 4035,
      "ęĚĜĚęęĝ": 4036,
      "ěĚě": 4037,
      "ěĚĝ": 4038,
      "ěĚĞ": 4039,
      "ěĚęęęĚ": 4040,
      "ěĚęęĕ": 4041,
      "ěĚėęęęę": 4042,
      "ěĚĖęęęę": 4043,
      "ęĘęęĘęęęĚęęęę": 4044,
      "ęėěĚęęĘ": 4045,
      "ęėěěęęě": 4046,
      "ęėěĝęęě": 4047,
      "ėĘě": 4048,
      "ėĘĜ": 4049,
      "ėĘĘęęĘ": 4050,
      "ėĘĚęęĚ": 4051,
      "ėĘęęĞ": 4052,
      "ėĘęęđ": 4053,
      "ĀĀĝĀĘĚ": 4054,
      "ęĜĘęęęě": 4055,
      "ęĜĘĘęęė": 4056,
      "ęĜĘęęęĖ": 4057,
      "ęĜĘěęęė": 4058,
      "ęĜĘĕęęęę": 4059,
      "ęĜĘĕęęĘ": 4060,
      "ęĘĜěęęęę": 4061,
      "ęĘĜĜęęĚ": 4062,
      "ęĘĜĖęęě": 4063,
      "ěĘě": 4064,
      "ěĘĜ": 4065,
      "ěĘĞ": 4066,
      "ěĘĚęęĘ": 4067,
      "ęĚĖěęęĘ": 4068,
      "ęĚĖėęęė": 4069,
      "ęĚĖĖęęė": 4070,
      "ĀĀĔĀē": 4071,
      "ęĖĘĘęęęę": 4072,
      "ęĖĘęęęė": 4073,
      "ęĖĘėęęĘ": 4074,
      "ęĖĘęęęĖ": 4075,
      "ęĖĘĜęęĘ": 4076,
      "ęĖĘęęęĕ": 4077,
      "ęĘĖėęęĖ": 4078,
      "ęĘĚęęęęęĘĚ": 4079,
      "ęĘĚęęęęęĘĚęęęę": 4080,
      "ęĒĕ": 4081,
      "ęĒęęęę": 4082,
      "ęĘęęęęĘęęęęęęęę": 4083,
      "ęĘęęęęĘęęęęęęęęęęęęęęęęęęęęęę": 4084,
      "ęĖĚĘęęĘ": 4085,
      "ęĖĚėęęĚ": 4086,
      "ęĖĚĜęęęę": 4087,
      "ęĖĚĜęęĘ": 4088,
      "ęĘęęęęĚęęęęęęęę": 4089,
      "ĀĀĞĀĘĘ": 4090,
      "ęěĜĚęęě": 4091,
      "ęęęĕę": 4092,
      "ĘęęęęĚę": 4093,
      "ęėĖęęęĖ": 4094,
      "ęėĖĘęęĖ": 4095
    },
    "merges": [
      "ę ę",
      "ęę ęę",
      "ę Ě",
      "ę Ę",
      "ęę Ę",
      "ęę Ě",
      "Ā Ā",
      "ę ě",
      "ę ė",
      "ęęęę ęęęę",
      "ęę ě",
      "ęę ė",
      "Ę ęęęę",
      "Ě ęęęę",
      "ęę ęĚ",
      "ęę ęĘ",
      "ę Ĝ",
      "ę Ė",
      "ęę Ė",
      "ęę Ĝ",
      "ęĚ ęęęę",
      "ęĘ ęęęę",
      "ę ĕ",
      "ę ĝ",
      "Ę ęęĚ",
      "Ę ęęĘ",
      "Ě ęęĘ",
      "ęĚ Ě",
      "Ě ęęĚ",
      "ęęęę Ę",
      "ęę ĕ",
      "ęęęę Ě",
      "ęĚ Ę",
      "ęĘ Ě",
      "ęĘ Ę",
      "ęę ĝ",
      "ęę ęė",
      "ęę ęě",
      "ęę ę",
      "ė ęęęę",
      "ě ęęęę",
      "ę Ğ",
      "ęęęęęęęę ęęęę",
      "ęęĘ ęęęę",
      "ęęĚ ęęęę",
      "ęę Ĕ",
      "Ā Ę",
      "ė ęęĚ",
      "ę Ĕ",
      "ęę Ğ",
      "ě ęęĘ",
      "Ā Ě",
      "Ā ě",
      "ė ęęĘ",
      "ĀĀ Ę",
      "ęĚ ě",
      "ĀĀ ę",
      "Ę ęęě",
      "ęě Ę",
      "ě ęęĚ",
      "ęě Ě",
      "Ě ęęė",
      "Ę ęęė",
      "Ě ęęě",
      "ęĚ ė",
      "ĀĀ Ě",
      "ęĘ ě",
      "ęĘ ė",
      "ęė Ě",
      "ĀĀ ė",
      "Ā ė",
      "Ā Ė",
      "ęė Ę",
      "ęęęęęęęę ęęęęęęęę",
      "ęę ē",
      "ęę ęĜ",
      "ę ğ",
      "Ā Ĝ",
      "ęę ğ",
      "ĀĀ Ė",
      "ĀĀ ě",
      "ęę ęĖ",
      "ęęĘ ę",
      "ę ē",
      "Ā ĕ",
      "ė ęęě",
      "Ė ęęęę",
      "ęě ě",
      "Ā ĝ",
      "ęě ęęęę",
      "ęęęĚ ęęęę",
      "ęęęĘ ęęęę",
      "Ě Ě",
      "ęė ęęęę",
      "Ė ęęĚ",
      "ęě ė",
      "ęė ė",
      "ęęęĚ ę",
      "ęĘ ęęĚ",
      "ě ęęė",
      "Ěęęęę Ę",
      "ęĚ ęęĚ",
      "ĀĀ Ĝ",
      "ęęęĘ ę",
      "Ė ęęĘ",
      "Ě Ę",
      "ęĚ ęęĘ",
      "ė ęęė",
      "ęę Ē",
      "ęĘ Ęęęęę",
      "ĀĀ ĕ",
      "Ĝ ęęęę",
      "Ā Ğ",
      "Ĝ ęęĘ",
      "ęĚ Ęęęęę",
      "Ĝ ęęĚ",
      "ęĚ Ěęęęę",
      "ě ęęě",
      "ęĜ Ě",
      "ęĚ Ĝ",
      "Ęęęęę Ę",
      "ě Ě",
      "ė Ě",
      "ęĘ ęęĘ",
      "ęė ě",
      "ė Ę",
      "ĀĀ ĝ",
      "ęĜ Ę",
      "ęĘ Ĝ",
      "ęĚęęęę Ę",
      "Ā Ĕ",
      "ě Ę",
      "ęĚ Ė",
      "ĀĀ Ĕ",
      "ęĖ Ę",
      "ęĘ Ė",
      "ęĘ Ěęęęę",
      "ę Ē",
      "ęĘęęęę Ę",
      "ęĖ Ě",
      "ęĘęęęę Ě",
      "Ę ęęĖ",
      "Ė ęęě",
      "Ě ęęĖ",
      "ĀĀ Ğ",
      "ęęęęęęęę ęęę",
      "Ę ęęĜ",
      "ęęęĘ ęęĚ",
      "Ěęęęę Ě",
      "ęě Ĝ",
      "ĀĀ ğ",
      "ęę ęĕ",
      "Ęęęęę Ě",
      "ęė Ė",
      "ęęęęĘ Ę",
      "Ĝ ęęė",
      "ě ęęĖ",
      "ęęĚ ęęęĚ",
      "Ā ğ",
      "ĕ ęęęę",
      "Ě ęęĜ",
      "ęęĚ ę",
      "ęęęĘ ęęĘ",
      "ęĜ ě",
      "ęę !",
      "ęę ęĝ",
      "ęĚęęęę Ě",
      "ęęęęĚ Ě",
      "ĕ ęęĘ",
      "ęĖ ė",
      "Ā ē",
      "ě ě",
      "ĀĀ ē",
      "ęė Ĝ",
      "ĀĀ Ē",
      "ĕ ęęĚ",
      "ęę đ",
      "ė ęęĖ",
      "ė ęęĜ",
      "Ĝ ęęě",
      "ęęęęĘ Ě",
      "Ė ęęė",
      "ęĜ ė",
      "ęęęĚ ęęĘ",
      "ęĜ Ĝ",
      "Ė Ě",
      "ě ĝ",
      "ĘęęĚ ę",
      "ě ęęĜ",
      "ęęęęĚ Ę",
      "ęĖ Ė",
      "ęĖ ě",
      "ĀĀĘ Ā",
      "ęě Ė",
      "ė ė",
      "ę !",
      "ęĚ ęĘęęęę",
      "ęęęĚ ęęĚ",
      "ĝ ęęęę",
      "ĝ ęęĘ",
      "ęĘ ęĚęęęę",
      "ĀĀ đ",
      "ęĖ ęęęę",
      "ęĘ ĕ",
      "ě Ĝ",
      "ęĚ ĝ",
      "ĀĀę Ā",
      "ęė ęęĘ",
      "ęęę Ğ",
      "ęĘĚ ęęęĚ",
      "ęęęę ęęĚ",
      "ęě ęęĘ",
      "ĝ ęęĚ",
      "ęę \"",
      "Ĝ Ě",
      "Ė ęęĜ",
      "Ę ęęĕ",
      "ę đ",
      "ě ė",
      "ęĕ Ě",
      "ęĚ ĕ",
      "ęĝ Ę",
      "ęęĘ ęęęĘ",
      "ęĚęęęę ęę",
      "ĚęęĘ ę",
      "Ĝ Ę",
      "ęęĚ ĚęęĚ",
      "ĕ Ě",
      "Ĝ ě",
      "ė ě",
      "ęęĘ Ęęęęę",
      "ęĜ ęęęę",
      "ĀĀ !",
      "ęė ęęĚ",
      "ĘęęĘ ę",
      "ęęęęęęęęęęęę ę",
      "Ĝ Ĝ",
      "ęĕ ė",
      "ęĕ Ę",
      "ĀĀ \"",
      "ęĝ Ě",
      "ĀĀĖ Ā",
      "ęĘ ĝ",
      "ęęě ęęęę",
      "Ė ě",
      "ęę Đ",
      "ęě ĝ",
      "ęĘęęęę ęę",
      "ęĘ ęĚ",
      "Ę Ě",
      "Ĕ ęęĚ",
      "ĕ ęęě",
      "ĀĀě Ā",
      "ė Ė",
      "ęĘ ęĘęęęę",
      "ĀĀĚ Ā",
      "ĕ ęęė",
      "Ė Ę",
      "Ěęęęę ę",
      "Ĝ ęęĖ",
      "ĝ ęęė",
      "ęĚĘ ęęęĘ",
      "ĕ Ę",
      "Ė ė",
      "ęĚ ęĘ",
      "ęě ęęĚ",
      "ĀĀė Ā",
      "ĝ Ě",
      "ęĚ ęĚęęęę",
      "ęęė ęęęę",
      "ęĘĘ ęęęĘ",
      "ĀĀ Đ",
      "ęęęęęęęę ęĘ",
      "Ė ęęĖ",
      "ęĚĚ ęęęĚ",
      "Ę ęęĝ",
      "ĚęęĚ ę",
      "ė ęęĝ",
      "ě Ğ",
      "ęĜ Ė",
      "Ě ęęĕ",
      "ęĚ Ğ",
      "ĀĀ $",
      "ęĚĚ ĘęęĚ",
      "ė Ĝ",
      "ęęĘ ĚęęĘ",
      "ęęę Ĕ",
      "ĀĀ #",
      "ęęęęęęęę ęęęęęęęęęęęę",
      "Ę Ę",
      "ęęĘ ĘęęĘ",
      "ęęĘęęęę ę",
      "ęĚ ęĘęęĚ",
      "ęĘ ęĚęęĚ",
      "ęĖ Ĝ",
      "ęė ĕ",
      "ęęĚęęęę ę",
      "ė ĝ",
      "ě ęęęęĘ",
      "ęęĚ Ěęęęę",
      "ęė ĝ",
      "Ĕ ęęĘ",
      "ė ęęęęĚ",
      "ę \"",
      "Ĝ Ğ",
      "ĀĀ ď",
      "Ęęęęę ę",
      "ęęę ē",
      "ě ęęęęĚ",
      "ęęĘ Ěęęęę",
      "Ěęęęę ęę",
      "ęĝ ě",
      "ęĚĘ ĚęęĘ",
      "ęęęę ęęĘ",
      "Ė ĝ",
      "ě ęęĕ",
      "Ğ Ě",
      "ęě ĕ",
      "ęĜ ĝ",
      "ęĚĚ Ęęęęę",
      "ęĚ ęĚ",
      "ęĘ ėęęęę",
      "ęě Ěęęęę",
      "ęė ęęęęĚ",
      "Ġ Ě",
      "ęęęęęęęę Ě",
      "Ė ęęĕ",
      "ė ęęęęĘ",
      "ĝ ęęě",
      "ęęĚ ĘęęĚ",
      "ĀĀ Ď",
      "Ĕ ęęęę",
      "ęĘ ęě",
      "ęęĚ Ęęęęę",
      "ęęęęęęęęęęęę ęęę",
      "ĀĀĘ ĀĘ",
      "ĀĀĜ Ā",
      "ęĘ ęĘ",
      "ęę #",
      "ęė ęęęęĘ",
      "ęĚĘ ĘęęĘ",
      "ęę ď",
      "ęĝ ė",
      "ĕ ĝ",
      "Ĝ ęęĜ",
      "ęĚęęęę ęęĚ",
      "ęĚĚ Ěęęęę",
      "ęĘĘ ĚęęĘ",
      "ĀĚ Ę",
      "ĀĚ Ě",
      "ĀĀĕ Ā",
      "Ė ęęĝ",
      "ęęě ęęęĚ",
      "Ęęęęę ęęĘ",
      "ęĘęęęę ę",
      "ęęęęęęęęęęęęęęęę ęę",
      "ĀĀĔ Ā",
      "Ĝ ĝ",
      "Ġ ĝ",
      "ęęęęęęęę ęĚ",
      "ęĞ Ę",
      "ĕ ęęĖ",
      "ė Ğ",
      "ė ęęĕ",
      "ě Ė",
      "ęĘ ęĘęęĚ",
      "ęęęęęęęę ęęęĘ",
      "ęĚęęęę ę",
      "ĀĀĝ Ā",
      "ĕ ęęĜ",
      "ęĚ ěęęęę",
      "Ęęęęę ęę",
      "ęĜ ĕ",
      "ęĝ Ĝ",
      "ē Ę",
      "ě ęęĝ",
      "ęęė ęęęĘ",
      "ęĖ ĕ",
      "ęĘęęęę ęęĚ",
      "Ĕ Ě",
      "Ĕ ęęė",
      "Ė Ğ",
      "ė ęęĞ",
      "ęĚ Ĕ",
      "ęĘ ęĚęęĘ",
      "ęě Ğ",
      "ęě ęęęęĘ",
      "Ěęęęę ęęĚ",
      "ęĚęęęę ęęĘ",
      "ęĚě ęęęĚ",
      "ğ Ě",
      "ĀĀ %",
      "ęĘĚ ĘęęĚ",
      "ęĘĚ ĚęęĚ",
      "ě ęęęĚ",
      "Ġ Ĝ",
      "ęĕ Ė",
      "ęęęė ęęęę",
      "Ĝ ęęĕ",
      "ĝ Ğ",
      "Ġ Ę",
      "ęęĚ ęęĘ",
      "ęęęęęęęę ęęęĚ",
      "ęĘęęęę ęęĘ",
      "ęĔ Ę",
      "ĀĀĚ ĀĘ",
      "ĕ ě",
      "ęęęęęęęę Ę",
      "ęĞ Ě",
      "ęęĘęęęę ęęĘ",
      "ęĚ ęĘęęĘ",
      "ęĜ ęęĘ",
      "ęĘĚ Ěęęęę",
      "ĀĀĘ Āě",
      "ĀĀę ĀĘ",
      "Ė Ė",
      "ę #",
      "Ĝ ė",
      "ĀĀė ĀĘ",
      "ę Đ",
      "Ě Ěęęęę",
      "Ġ Ğ",
      "ęĚ ęęęĚ",
      "ęĘ Ĕ",
      "ĀĀ &",
      "ęęę ğ",
      "ęĘė ęęęĘ",
      "ĚęęęęĘ Ę",
      "Ē Ę",
      "ě ĕ",
      "ĝ Ę",
      "ęęė ĚęęĘ",
      "ęĖ ĝ",
      "ęĕ ě",
      "ęęĚęęęę ęęĚ",
      "ē ęęĘ",
      "Ĕ Ė",
      "ęę $",
      "ęĚ ęęě",
      "ęĚ ęĚęęĚ",
      "ęĘ Ğ",
      "ęĘĘ Ěęęęę",
      "ęĚĚęęęę ę",
      "ē ė",
      "ē ęęė",
      "Ĕ Ę",
      "Ĕ ęęě",
      "ě ęęĔ",
      "ĝ Ĝ",
      "ęĚ ęĚęęĘ",
      "ęĘ ęęęĘ",
      "ęĘĘ ěęęĘ",
      "ęĞ ě",
      "ē Ě",
      "ĕ Ĝ",
      "ĝ ě",
      "ęĘ ęęė",
      "ĀĀ )",
      "ęě ęęęęĚ",
      "ęĝ ęęęę",
      "ęĚĚ ĚęęĚ",
      "ęĚĘ Ęęęęę",
      "ĀĀę Āě",
      "ĀĀĞ Ā",
      "ęęě ĚęęĚ",
      "Ěęęęę ęęĘ",
      "ęĖ ęęĚ",
      "ęĕ ęęęę",
      "ĀĀĚ ĀĖ",
      "Ĕ ě",
      "ĕ ęęĕ",
      "Ė Ĝ",
      "Ę Ğ",
      "ęė Ęęęęę",
      "ęęęě ę",
      "Āė Ę",
      "ĀĖ Ę",
      "Ē Ě",
      "Ĕ Ĝ",
      "ğ Ğ",
      "ĀĀ (",
      "ęė Ğ",
      "ęĖ ęęĘ",
      "ęĘĘ Ęęęęę",
      "ęęęė ę",
      "ĀĀĚ ĀĚ",
      "ęĘě ęęęĚ",
      "Ĕ ęęĖ",
      "ĕ ė",
      "ĕ Ğ",
      "Ě ęęĝ",
      "ĝ ęęĖ",
      "ğ ęęĘ",
      "ęĚ ęęė",
      "ęęĚ ęęęě",
      "ęě ęęė",
      "ęęě ĘęęĚ",
      "ęĝ Ė",
      "ęęęė ęęĘ",
      "ęĘĘęęęę ę",
      "ęĚĘęęęę ę",
      "ĀĀğ Ā",
      "ė ęęĔ",
      "ě ğ",
      "ě Ęęęęę",
      "ęĚ ėęęęę",
      "ęĘ ęęęęęęęęęęęę",
      "ĀĀ '",
      "ęė Ěęęęę",
      "ęĜ Ğ",
      "ęĜ ęęĚ",
      "ęĘĚ Ęęęęę",
      "ęĚě ĘęęĚ",
      "Ē Ė",
      "ē ęęĚ",
      "ęĘ ęęě",
      "ęė ęęě",
      "ęĝ ĝ",
      "ęęĘęęęę ęę",
      "ęęĚęęęę ęęĘ",
      "ĀĀė Āě",
      "Ė ęęĞ",
      "Ĝ ęęĝ",
      "ĝ ĝ",
      "ęę Ď",
      "ęĘ ěęęęę",
      "ęė Ĕ",
      "ė ęęęĘ",
      "Ę ęęĞ",
      "ęė ęęė",
      "ęĚĘ ęęęė",
      "! ğ",
      "ė Ęęęęę",
      "Ě Ğ",
      "ĝ ęęĜ",
      "Ġ ě",
      "ęĘ ē",
      "ęĘ ęęęęęęęę",
      "ęęě ęęĘ",
      "ęęĘęęęę ęęĚ",
      "ĀĀē Ā",
      "ĕ ęęĝ",
      "ę $",
      "Ġ ė",
      "ęĚ ęęęęęęęęęęęę",
      "ęĘ ęĘęęĘ",
      "ęęĚ ęęęĘ",
      "Ęęęęę ęęĚ",
      "ęęęĘ ęęė",
      "ęĘĘ ĘęęĘ",
      "ěęęĚ ę",
      "ĀĀė ĀĚ",
      "ęğ Ě",
      "Ĕ ė",
      "ė ĘęęĘ",
      "ĝ ğ",
      "Ġ ęęęę",
      "ęęĚ ęęęĚę",
      "ęě Ęęęęę",
      "ęě ęĘęęęę",
      "ęĔ Ě",
      "ĀĀę ĀĖ",
      "ęęęęęęęęęęęęęęęę ęęęęęęęę",
      "ĀĜ Ę",
      "ĀĀĖ ĀĚ",
      "ĀĀě ĀĘ",
      "Ĕ Ğ",
      "ĕ ĕ",
      "Ė ęęęęĚ",
      "ę ĀĀ",
      "ğ ě",
      "Ġ !",
      "ęęęĘ ęęě",
      "ęĖ Ĕ",
      "ęĝ ĕ",
      "ęęęě ęęęę",
      "ęęę Ē",
      "Āě Ę",
      "ĚęęęęĘ Ě",
      "Ė ęęęęĘ",
      "Ğ ęęęę",
      "Ġ Ā",
      "ęě ęĘęęĚ",
      "Ęęęęę ĚĘ",
      "ęęęĚ ęęęęęęęę",
      "ęęęĚ ęęė",
      "ęęęě ęęĘ",
      "ęęę !",
      "ęĞ Ė",
      "ęĔ ė",
      "ĀĀę Āė",
      "ĀĀę Āĕ",
      "ĀĀĚ Āė",
      "ęĘě ĚęęĚ",
      "ĀĀė ĀĖ",
      "ĘęęęęĘ Ę",
      "ęĚęęęęĘ ę",
      "ĀĀ\" Ā",
      "đ Ę",
      "Ę ęęĔ",
      "ě Ěęęęę",
      "Ğ Ę",
      "Ġ Ė",
      "Ġ ğ",
      "ęęě ę",
      "Ěęęęę ĚĘ",
      "ęĜ ęęęęĘ",
      "ęĕ ĕ",
      "ęĕ Ĝ",
      "ęĚĚ ęęęĘ",
      "ęĔ ě",
      "ĀĀĘ Āĕ",
      "ęęęęęęęęęęęęęęęę ęęę",
      "ĘęęęęĘ Ě",
      "ĀĀĒ Ā",
      "! Ĝ",
      "Ē ē",
      "Ē Ğ",
      "Ĕ ĝ",
      "ė ĕ",
      "Ğ ęęĘ",
      "Ġ ĕ",
      "ęě Ĕ",
      "ęė ęĚęęęę",
      "ęĝ Ğ",
      "ęĚĘ Ęęęė",
      "ĀĀĘ Āė",
      "ĀĀę ĀĚ",
      "ęĘě ĘęęĚ",
      "ē Ğ",
      "Ĕ ęęĝ",
      "Ě ĝ",
      "Ĝ ğ",
      "ęė ęĘęęęę",
      "ęė ęĚęęĚ",
      "ęĘĘ ęęęė",
      "ęęĚęęęę ęę",
      "ėęęĘ ę",
      "ĀĀĘ ĀĖ",
      "ęěĘ ĘęęĘ",
      "ęĚė ĚęęĘ",
      "ĀĀė Āĝ",
      "ęęęęęęęęęęęęęęęę ęęęęęęęęęęęęęęęę",
      "ĀĀĖ Āė",
      "ęĘĚęęęę ę",
      "Ĕ ęęĜ",
      "ĕ Ė",
      "ė ğ",
      "ę ď",
      "Ĝ ęęęęĘ",
      "ęĚ ęėęęĘ",
      "ęĘ ğ",
      "ęęęě ęęĚ",
      "ęęę đ",
      "ęėĚ ęęęĚ",
      "Ē Ĝ",
      "ē Ė",
      "ē ęęęę",
      "ē ęęĜ",
      "Ě ě",
      "Ĝ ęęęęĚ",
      "Ğ ęęĚ",
      "ęĘ ęěęęęę",
      "ęęĘ ęęęĚ",
      "ęęĚ ęęĚ",
      "ęęęęęęęę ęęĚ",
      "ęęęęęęęę Ęęęęę",
      "ęĔ Ė",
      "ęĚė ęęęĘ",
      "ęĚė ĘęęĘ",
      "ĀĀĚ Āě",
      "ĀĀě Āě",
      "ęĚ ęė",
      "ęĚ ęĘęęęęĘ",
      "ęęė ĘęęĘ",
      "ęĚęęęę ė",
      "ęĘĘ ęęęĚ",
      "ęĞ ė",
      "ĀĘ Ę",
      "ĀĀę ĀĜ",
      "ęěĘ ĚęęĘ",
      "ĀĀĚ ĀĜ",
      "ęĘė ĘęęĘ",
      "ęĘė ĚęęĘ",
      "ęęęĜ ęęĚ",
      "đ Ė",
      "Ē ĕ",
      "ě ęęĞ",
      "Ġ ĀĀ",
      "ęę %",
      "ęĚ ĘęęĚ",
      "ęĚ ęĘęęęęĚ",
      "ęĘ ĚęęĘ",
      "ęĘ ęęĘę",
      "ęě ęĚęęĘ",
      "ęęė ę",
      "Ęęęęę ĚĚ",
      "ęĜ Ĕ",
      "ęĚęęęę ě",
      "ęĘęęęę ė",
      "ęĕ ĝ",
      "ęĚĚ ęęęě",
      "ęęęė ęęĚ",
      "ėęęęę ė",
      "ęĔ Ĝ",
      "ęĚě ĚęęĚ",
      "! ě",
      "Ā !",
      "đ ė",
      "Ē Ē",
      "ē ęęě",
      "ė ęęęęĚĚ",
      "Ě ęęĔ",
      "Ě ęęĞ",
      "Ě ęęē",
      "ě ĘęęĚ",
      "Ĝ Ė",
      "ęĚ ğ",
      "ęĚ ęėęęęę",
      "ęĘ ęęĖ",
      "ęęĘ ěęęĘ",
      "ęě ğ",
      "ęė ē",
      "ęė ęĚęęĘ",
      "ęęęęęęęę Ěęęęę",
      "ęęęęęęęę ęęęęĚ",
      "ęęĖ ęęęę",
      "ęĕ ęęĘ",
      "ĘęęĘ ęĚĘ",
      "ęĚĘ Ěęęęę",
      "ęĚĘ ėęęĘ",
      "ėęęĚ ę",
      "ĀĀĘ ĀĚ",
      "ĀĀė Āė",
      "ĀĀė ĀĜ",
      "ĀĀě ĀĚ",
      "Ē ě",
      "Ē ęęĘ",
      "Ĕ ĕ",
      "ęĚ ē",
      "ęĚ ęě",
      "ęęĘ ęęęė",
      "ĀĀ +",
      "ęęęęęęęę ęęĘ",
      "ęęęęęęęę ęęęęĘ",
      "ęęė ęęęė",
      "ęęęĚ ęęęęĘ",
      "ęĖ ğ",
      "ęĘęęęę ě",
      "ęĚĚ ėęęĚ",
      "ęĚĘ ęęęĘę",
      "ęĘĚ ęęęě",
      "ęĘĚ ęęęĚę",
      "ęĞ Ĝ",
      "ĀĘ Ě",
      "ĀĀę Āĝ",
      "Ěęęě ę",
      "ĀĀĚ Āĕ",
      "ęėĚ ĘęęĚ",
      "ęėĘ Ěęęęę",
      "ęėĘ ęęęĘ",
      "ęğ Ĝ",
      "Ē ė",
      "ě ĚęęĚ",
      "ĝ Ė",
      "ĝ ęęĕ",
      "ęĚ ęĚęęęęĘ",
      "ęęĚ Ęęęě",
      "ĀĀ *",
      "ęęě Ęęęě",
      "ęĖ Ğ",
      "ęĚĚ ėęęęę",
      "ęĞ ĕ",
      "ěęęĘ ę",
      "ĀĀĘ ĀĜ",
      "ęęęĚęęęę ęęĘ",
      "ĀĀĕ Āě",
      "ĀĀđ Ā",
      "Đ Ę",
      "Ě ğ",
      "Ě ĚęęĚ",
      "ęęęę ė",
      "ęĘ ĘęęĘ",
      "ęė ğ",
      "ęė ėęęęę",
      "ęĕ ęęĚ",
      "ęĘĘ ęęęĘę",
      "ęĞ ĝ",
      "ĀĀĘ Āĝ",
      "Ęęęě ę",
      "ĀĀė Āĕ",
      "ĀĀĜ ĀĘ",
      "ĀĀĜ Āė",
      "đ ě",
      "ē ě",
      "Ĕ Ĕ",
      "Ė ęęğ",
      "ė ĚęęĘ",
      "ė ěęęĘ",
      "ė ęęğ",
      "ė ęęęęĘĘ",
      "Ę ęęğ",
      "ě ęęęęĘĘ",
      "Ġ ęęĘ",
      "ęĚ ęėęęĚ",
      "ęĘ ęęęĘę",
      "ęęĚ ėęęĚ",
      "ęě ěęęęę",
      "ęė ęě",
      "ęęě ęęęě",
      "Ęęęęę ė",
      "ęęęĚ ęęęęĚ",
      "ęĝ ęęĘ",
      "ęĚĘ ĘęęĚ",
      "ęĚě ęęęě",
      "ęěĚ ĘęęĚ",
      "ęėĘ ĚęęĘ",
      "ĀĀě Āė",
      "ęē Ę",
      "ęęęĘęęęę ę",
      "ęęęĘęęęę ęęĘ",
      "ĀĀĕ ĀĘ",
      "ĀĀ! Ā",
      "Ē Đ",
      "Ē Ĕ",
      "ē đ",
      "ē ĝ",
      "ĕ ğ",
      "Ė ęęęĘ",
      "Ę Ęęęęę",
      "Ě Ęęęęę",
      "Ĝ ęęęĚ",
      "Ğ ğ",
      "ęęęę ę",
      "ęĚ ęęĜ",
      "ęęĘ ęęęĘę",
      "ęě ęĘęęĘ",
      "ęęě Ěęęě",
      "ęęęĘ ęęęęĘ",
      "ęĜ ęęė",
      "ęĚĚ ęęĚ",
      "ęĚĘ ėęęęę",
      "ęĘĚ ėęęĚ",
      "ęęĚęęęę ęęĚęęęę",
      "ĀĀĘ ĀĔ",
      "ęěĘ Ęęęęę",
      "Ěęęė ę",
      "ęğ ğ",
      "ęěė ĘęęĘ",
      "ĀĀĜ ĀĖ",
      "ĀĞ Ě",
      "ęĘęęęęĘ ę",
      "ęĚęęęęĚ ę",
      "đ Ğ",
      "Ē ęęĚ",
      "Ē ęęě",
      "ē Ĝ",
      "ĕ ęę",
      "Ė ğ",
      "Ě ęęęĚ",
      "Ĝ ĕ",
      "Ġ #",
      "ęęĘ Ęęęė",
      "ęęė ęęĘ",
      "ęęė Ęęęęę",
      "ęęęĘ ęęęęĚ",
      "ęĜ ęĘęęĘ",
      "ęĖ ęęė",
      "ęĚęęęę ęęęĚ",
      "ęĝ ęęĚ",
      "ęĚĚ ĘęęĘ",
      "ęĘĚ ęęęĘ",
      "ęĘĚ ěęęĚ",
      "ęěĚ ęęęĚ",
      "ęėĘ ĚęęĚ",
      "ĀĀĖ Āě",
      "ĀĀĖ ĀĖ",
      "ĀĀě Āĝ",
      "ĀĀĜ ĀĚ",
      "ęĚĖ ĘęęĘ",
      "! Ę",
      "! ĝ",
      "! Ğ",
      "\" ğ",
      "đ Ě",
      "Ē ęęęę",
      "ē Ĕ",
      "ĕ ęęęęĚ",
      "Ė ęęĔ",
      "Ė ęęĘę",
      "ė Ěęęęę",
      "ğ ęęęę",
      "ęĚ ęęĘę",
      "ęĘ Ē",
      "ęĘ ęėęęęę",
      "ęĘ ęĚęęęęĘ",
      "ęęĚ ĘęęĘ",
      "ęě ē",
      "ęęė ěęęĘ",
      "ęĜ Ěęęęę",
      "ęĖ ē",
      "ęĖ ęęęęĘ",
      "ęĖ ęęęęĚ",
      "ęęĜ ęęęĚ",
      "ęĘęęęę ęęęĘ",
      "ęĕ Ĕ",
      "ęĕ Ğ",
      "ęĚĘ ěęęĘ",
      "ęęęęęęęęęęęę ęĘęęęę",
      "ęĚě Ęęęě",
      "ęěĘ ęęęĘ",
      "ęĘė ęęęė",
      "ĀĀĖ ĀĘ",
      "ĀĀě ĀĖ",
      "ęē Ė",
      "ęęęĚęęęę ę",
      "ęęęĘęęęę ęęĚ",
      "ĀĀĕ ĀĚ",
      "ĀĀĔ ĀĘ",
      "ęęęęĘĚ Ěęęęę",
      "ęĘęĚ ęęě",
      "ĀĀĐ Ā",
      "ĀĀ# Ā",
      "! \"",
      "! Ě",
      "đ ĕ",
      "ĕ ęęęęĘ",
      "ė ęĚęęęę",
      "ė ėęęĘ",
      "ė ęęē",
      "ė ęęęęĚĘ",
      "ě ę",
      "ğ ĀĀ",
      "Ġ ę",
      "ęęĘ Ěęęė",
      "ęě ęĚęęęę",
      "ęęęęęęęę ĘĚ",
      "ęęě Ěęęęę",
      "ęęė Ěęęė",
      "ęĘęęęę ęęě",
      "ęĕ ğ",
      "ęĝ Ĕ",
      "ęĘĘ ĘęęĚ",
      "ęĘĘ Ęęęė",
      "ěęęęę ė",
      "ęěĚ ėęęĚ",
      "ęĘě ėęęĚ",
      "ęĘė Ěęęęę",
      "ęğ ě",
      "ĀĀĖ Āĕ",
      "ęē ė",
      "ĀĀĜ Āě",
      "ĚĘ ęęĜ",
      "ĀĀĕ ĀĜ",
      "ĀĞ Ę",
      "ęĚĜ ĘęęĚ",
      "ĀĀ$ Ā",
      "ęęęęęęęęęęęęęęęęęęęęęęęę ę",
      "\" Ě",
      "Ĕ ę",
      "Ĕ ęęĕ",
      "Ė Đ",
      "Ě ęęęęęęęę",
      "Ĝ ęęĔ",
      "Ĝ ęęĞ",
      "ĝ ęęĝ",
      "Ğ Ğ",
      "Ğ ęęĜ",
      "ğ ęęĚ",
      "ęĚ ęěęęęę",
      "ęęĘ Ę",
      "ęęĘ ĚęęĚ",
      "ęęęĚ ęęě",
      "ęĜ ğ",
      "ęĜ ęęęęĚ",
      "ęęĖ ĘęęĘ",
      "ęęĜ ęęęě",
      "ęĚęęęę ęęĚęęęę",
      "ęĘĘ ĚęęĘę",
      "ęęę Đ",
      "ęĞ ęęęę",
      "ĀĀę ĀĔ",
      "ęěĘ ėęęĘ",
      "ęěĚ ĚęęĚ",
      "ęĚė ėęęĘ",
      "ęĘě ęęęě",
      "ęėĚ ĚęęĚ",
      "ĀĀĖ ĀĜ",
      "ęęęĖ ęęęę",
      "ęęęĖ ęęĚ",
      "ęěė ėęęĘ",
      "ĀĀĕ ĀĖ",
      "ĀĀĝ Āě",
      "ĕĚ ęęĕ",
      "ęęęęęęęęęęęęęęęęęęęę ęę",
      "! ė",
      "Ē ĝ",
      "Ē ęęĜ",
      "ē ē",
      "Ė ĕ",
      "Ė ĘęęĘ",
      "ė ęęęė",
      "ě ęęē",
      "Ġ ęęĜ",
      "ęęęę ęęě",
      "ęĘ ęěęęĘ",
      "ęĘ ęěęęĚ",
      "ęęĚ Ę",
      "ęęĚ ěęęęę",
      "ĀĀ ,",
      "ęě ęĚęęĚ",
      "ęě ęėęęĘ",
      "ęė ęęęĘ",
      "ęė ĘęęĘ",
      "ęęė ėęęĘ",
      "ęĜ ęęě",
      "ęĜ Ęęęęę",
      "ęĖ ėęęęę",
      "ęęĖ ęęęĘ",
      "ęĚęęęę ęęęĘ",
      "ęĚęęęę ęęĘęęęę",
      "ęĘęęęę ęęė",
      "ęĝ ğ",
      "ęĚĚ ĚęęĘ",
      "ęĚĚ Ęęęě",
      "ęĚĘ ęęęĚ",
      "ęĚĘ ĚęęĚ",
      "ęĘĚ Ęęęě",
      "ęĘĘ ĚęęĚ",
      "ěęęęę ėĘ",
      "ęĔ ĕ",
      "ĀĀĘ Āē",
      "ęěĚ Ęęęęę",
      "ęěĚ ĘęęĘ",
      "ęěĚ ėęęęę",
      "ĀĀĚ Āĝ",
      "ĀĀĚ ĀĔ",
      "ęĘě Ěęęě",
      "ęĘė Ěęęė",
      "ęėĘ ęęęĚ",
      "ęėĘ ĘęęĘ",
      "ęğ Ę",
      "Āĕ Ę",
      "ęěě ęęęĚ",
      "ęěě ėęęĚ",
      "ęěė ęęęĘ",
      "ęěė ĚęęĘ",
      "ĀĀĕ Āĝ",
      "ęĜĚ ęęęĘ",
      "ěĚ ęęĜ",
      "ęĘĖ ĚęęĘ",
      "Āğ Ę",
      "\" ě",
      "\" ĀĀ",
      "Ē ęęė",
      "ē ęęĖ",
      "ė ęę",
      "ė ęęęęĘĚ",
      "Ĝ ęęĘę",
      "Ğ ęęě",
      "Ğ ęęė",
      "Ġ ęęĚ",
      "Ġ ęęě",
      "ęĘ ęęĜ",
      "ęęĚ ěęęĚ",
      "ęęĚ Ěęęě",
      "ęě ėęęęę",
      "ęė ęĘęęĘ",
      "ęė ęěęęĚ",
      "ęĜ ē",
      "ęęĜ Ěęęě",
      "ęĘęęęę ęęęĚ",
      "ęĚĚ ęęęęęęęęęęęę",
      "ęĚĚ ęęęĚę",
      "ęĘĚ ėęęęę",
      "ęĘĘ ěęęĚ",
      "ęęĘęęęę ęęĘęęęę",
      "ęĔ Ĕ",
      "ęĔ Ğ",
      "ĀĀĘ ĀĞ",
      "ĀĀę Āē",
      "ęěĘ ėęęęę",
      "Ęęęė ę",
      "ęĚė ęęęė",
      "ĀĀĚ ĀĞ",
      "ĀĀė ĀĞ",
      "ęęęĜ ęęęę",
      "ęěě ęęęě",
      "ęęęĚęęęę ęęĚ",
      "ĚĚ ęęĜ",
      "ęĘęęĚ ę",
      "ĚęęęęĘ Ęęęęę",
      "ęĜĘ ĘęęĘ",
      "ęĚĖ ęęęĘ",
      "ĀĀĔ Āė",
      "ęĘĖ ęęęĘ",
      "ĀĀĞ ĀĚ",
      "ĀĀĞ Āė",
      "ĀĀĞ ĀĖ",
      "ęĘęĚ ęęė",
      "ĀĀď Ā",
      "ĀĀĎ Ā",
      "\" Ğ",
      "Đ ė",
      "Đ Ě",
      "ē ę",
      "ē ęęĕ",
      "ĕ Ĕ",
      "Ė ęę",
      "ė ęę!",
      "Ę Ĝ",
      "ě ęęęě",
      "ě ęęęęĚĚ",
      "ě ęęęęĘĚ",
      "Ġ Āě",
      "ęĚ ęęęęęęęęęęęęę",
      "ęĘ đ",
      "ęĘ ęėęęĚ",
      "ęĘ ęęęęęęęęęęęęę",
      "ęęĘ ęęĘ",
      "ęęĘ ėęęĘ",
      "ęęĚ ęęęęęęęęęęęę",
      "ęė ęęĜ",
      "ęė ęěęęĘ",
      "Ęęęęę ěĚ",
      "Ěęęęę ęęĘęęęę",
      "ęęęĘ ęęĘę",
      "ęĖ Ęęęęę",
      "ęęĜ ęęęę",
      "ęĚęęęę ĚĚ",
      "ęĘĚ ĚęęĘ",
      "ęĘĚ ěęęęę",
      "ęĘĚ Ěęęě",
      "ęĘĚ ĖęęĚ",
      "ęęęęęęęęęęęę ęĚ",
      "ęěĚ ęęęĘ",
      "ęĘė ěęęĘ",
      "ęęęĜ ęęĘ",
      "ĀĀĖ Āĝ",
      "ĀĀě Āĕ",
      "ĀĀě Āē",
      "ęėęęęę ė",
      "ęėė ęęęĘ",
      "ęĚęęĚ ę",
      "ĀĀĜ Āĕ",
      "ęĚĜ ęęęĚ",
      "ėĚ ęęĖ",
      "ęėě ęęęĚ",
      "ėĘ ęęĖ",
      "ĀĀĝ ĀĘ",
      "ęĒ Ę",
      "ęĘęęęęĚ ę",
      "ĀĀĞ Āě",
      "ĀĀğ ĀĘ",
      "ęĚęĘ ęęě",
      "ęĚęĚ ęęė",
      "ĀĀ% Ā",
      "! !",
      "\" !",
      "# !",
      "# Ğ",
      "Đ ĕ",
      "Đ Ė",
      "đ ē",
      "Ē đ",
      "ē ğ",
      "Ė ĚęęĘ",
      "ė ėęęęę",
      "Ě ĘęęĚ",
      "ě Ĕ",
      "ě ęĘęęęę",
      "ě ėęęęę",
      "ě ěęęęę",
      "ě ėęęĚ",
      "ě Ęęęě",
      "ě ěęęĚ",
      "Ĝ Ĕ",
      "Ĝ ĀĀ",
      "Ĝ Ęęęęę",
      "Ĝ ĘęęĚ",
      "ĝ ĕ",
      "ĝ ė",
      "ęĚ ęęĖ",
      "ęĚ ęěęęĘ",
      "ęě Ē",
      "ęė ęęĖ",
      "ęė ĚęęĘ",
      "ęęě Ęęęęę",
      "Ěęęęę ĚĚ",
      "ęĖ ęęě",
      "ęĘęęęę ęęĘęęęę",
      "ęĚĚ Ěęęě",
      "ęĚĚ ėęęě",
      "ęĚĘ Ěęęė",
      "ęĘĚ ěęęě",
      "ęĞ Ğ",
      "ęĔ ęęĚ",
      "ęĚě ėęęĚ",
      "ęěĚ ĚęęĘ",
      "ęĚė Ęęęęę",
      "ęĘě ěęęĚ",
      "ęğ ĝ",
      "ĀĜ Ě",
      "ĀĀĖ ĀĔ",
      "ęěě Ęęęě",
      "ęěęęęę ė",
      "ęėė ęęęė",
      "ĀĀĝ ĀĚ",
      "ĀĀĝ ĀĖ",
      "ĀĀĝ Āĕ",
      "ęĘĜ ęęęě",
      "ęĘĜ Ěęęě",
      "ĀĀĔ Āě",
      "ęęęĘęęĚ ę",
      "ĀĀğ ĀĔ",
      "ĀĀē ĀĘ",
      "ĀĀē ĀĖ",
      "ĀĀ& Ā",
      "# Ě",
      "đ Ĝ",
      "đ ęęĘ",
      "ē ęęĝ",
      "ĕ ę",
      "Ė Ĕ",
      "Ė ęęē",
      "Ę ęęęĘ",
      "ę Ď",
      "ě ęęğ",
      "Ĝ ęęęě",
      "ĝ \"",
      "ĝ ęęĔ",
      "Ġ \"",
      "Ġ ęęė",
      "ęĘ ęĘęęęęĘ",
      "ęĘ ęęęęęęęęęęę",
      "ęęĘ ĘęęĚ",
      "ęęĚ ĖęęĚ",
      "ĀĀ -",
      "ęě ĘęęĚ",
      "ęě ęėęęĚ",
      "ęė ęĚęęě",
      "ęęęęęęęę ĚĚ",
      "Ěęęęę ė",
      "Ěęęęę ęęĚęęęę",
      "Ěęęęę ěĚ",
      "ęęęĘ ęęĖ",
      "ęĜ ěęęęę",
      "ęĕ ē",
      "ęĚĚ ĘęęĚę",
      "ęęęęĘ ęĚęęęę",
      "ęĘĘ ėęęęę",
      "ęĘĘ ėęęĘ",
      "ęęęė ęęě",
      "ęĔ ĝ",
      "ĀĀę ĀĞ",
      "ęěĚ Ęęęě",
      "ĀĀĚ Āğ",
      "ęĘě Ęęęě",
      "ęėĚ ĚęęĘ",
      "ęěě ĚęęĚ",
      "ęėęęęę ě",
      "ĚęęęęĘ ęĚęęęę",
      "ęĜĚ ĘęęĚ",
      "ěĘ ęęĜ",
      "ĀĀĔ ĀĚ",
      "ĀĀĞ ĀĘ",
      "ęĖė ęęęĘ",
      "ĀĀē ĀĚ",
      "ęęęęĚĘ Ęęęęę",
      "ęęĚĚęęĚ ę",
      "! ĀĀ",
      "\" \"",
      "Đ Đ",
      "Đ Ĝ",
      "đ Ē",
      "ē ĕ",
      "ē ęęĔ",
      "Ĕ ęę",
      "Ė ęęęęĘĘ",
      "Ę ğ",
      "Ę Ěęęęę",
      "Ę ĚęęĘ",
      "ĝ ęęęęĘ",
      "Ğ !",
      "ğ ğ",
      "ğ ęęĖ",
      "ęĚ ęęęęęęęę",
      "ęĘ ęėęęĘ",
      "ęęĘ ėęęęę",
      "ęęĘ ĘęęĘę",
      "ęě ęęęĚ",
      "ęė Ē",
      "ęė ęĘęęĚ",
      "ęęě ėęęĚ",
      "ęęě ěęęĚ",
      "ęęė ęęĚ",
      "ęęė Ěęęęę",
      "ęęĖ Ěęęė",
      "ęĚęęęę ĘęęĘ",
      "ęĚĚ Ę",
      "ęĚĚ ěęęĚ",
      "ęĚĘ ĜęęĘ",
      "ęĘĚ ĘęęĘ",
      "ęĘĚ ěęęĘ",
      "ęĘĘ ěęęęę",
      "ęęę \"",
      "ęĞ Ĕ",
      "ęĞ ęęĘ",
      "ęęęęęęęęęęęę ęĚęęęę",
      "ęĔ ęęęę",
      "ęĚě Ęęęęę",
      "ęěĘ ĘęęĚ",
      "ęěĚ Ěęęęę",
      "ęĚė Ěęęė",
      "ęėĚ Ěęęě",
      "ĀĀė ĀĔ",
      "ęėĘ ěęęĘ",
      "ęğ Ğ",
      "ęğ ęęęę",
      "ĀĀě ĀĜ",
      "ĀĀě ĀĔ",
      "ęęęĘęęęę ęę",
      "ęėęęęę ęęĘ",
      "ęėė ĚęęĘ",
      "ėęęė ę",
      "ęėě ęęęě",
      "ĀĀĝ ĀĜ",
      "ĀĀĝ ĀĞ",
      "ęĘĜ ėęęĚ",
      "ĀĀ! ĀĘ",
      "ęęęęęęęęęĘ ę",
      "ĀĀ( Ā",
      "ęęęęęęęęęęęęęęęęęęęęęęęę ęę",
      "! Ė",
      "\" ĕ",
      "$ ğ",
      "ď Ė",
      "đ ğ",
      "đ ęęĚ",
      "đ ęęě",
      "ē ęęĞ",
      "Ĕ ĀĀ",
      "Ĕ ęęĔ",
      "Ė ęęęė",
      "ė Ď",
      "ė Ěęęė",
      "Ě ęęęě",
      "Ě Ěęęě",
      "Ě ęęęĚę",
      "Ĝ ĚęęĚ",
      "Ĝ ęęğ",
      "Ğ ęęĝ",
      "ęĚ Ē",
      "ęĚ ęĕ",
      "ęĚ ęęĕ",
      "ęĚ ęęęĚę",
      "ęĘ ęĜęęęę",
      "ęĘ ęĜęęĘ",
      "ęęĘ ęęĚ",
      "ęęĘ ęęęĘęęĚ",
      "ęęĚ ęęęĜ",
      "ĀĀ .",
      "ęě Ĝęęęę",
      "ęė ěęęęę",
      "ęė ęěęęęę",
      "ęęęęęęęę ęęĚęęęę",
      "ęęęęęęęę ęęĚę",
      "ęęęęęęęę Ěęęęęęę",
      "ęęė ĘęęĚ",
      "ęęė ěęęęę",
      "Ěęęęę ě",
      "ęęęĚ ęęĘę",
      "ęĜ ęęĖ",
      "ęĖ Ěęęęę",
      "ęĖ ęĚęęęę",
      "ęęĖ ęęęė",
      "ęĕ Ē",
      "ęĚĚ ěęęĘ",
      "ęęęęĚ ęĘęęęę",
      "ęĚĘ ĘęęęęĚ",
      "ęĘĚ ęęęĜ",
      "ęĘĚ ĜęęĚ",
      "ęĘĘ Ěęęė",
      "ėęęęę ęęĚ",
      "ėęęĚ ęėĚ",
      "ęĔ ğ",
      "ęĚě Ěęęęę",
      "ęěĘ ęęęė",
      "ęěĚ ěęęĚ",
      "ęėĚ ęęęě",
      "ęęęęęęęęęęęęęęęę ęęęęęęęęęęę",
      "ęğ Ė",
      "ęğ ė",
      "ęē ě",
      "ęē Ĝ",
      "Ėęęęę ė",
      "ęěě Ęęęęę",
      "ęěě Ěęęě",
      "Āĝ Ę",
      "ĚĚ ĘęęĚ",
      "ęėė ěęęĘ",
      "ĀĀĜ ĀĜ",
      "ĀĀĕ Āė",
      "ėĚ ęęęĚ",
      "ĀĀĝ Āė",
      "ęĜĘ ęęęĘ",
      "ęĖĚ ęęęĚ",
      "ęĖĚ ĚęęĚ",
      "ĀĀĞ Āē",
      "ĚęęęęĚ Ěęęęę",
      "ĚęęęęĚ ęĚęęęę",
      "ęěĜ ęęęĚ",
      "ęěĜ ęęęě",
      "ĀĀğ Āě",
      "ĀĀğ ĀĜ",
      "ęėĖ ęęęĘ",
      "ĚęęĜ ę",
      "ęęęĘęęĘ ęęęĘ",
      "ĀĀĒ Āě",
      "ęĜė ęęęĘ",
      "ĖĚ ęęĕ",
      "ěĝ ęęě",
      "ęĖęęęę ě",
      "ĀĀ$ ĀĘ",
      "ęĘęĚęęĚ ę",
      "ęėęęęęĚ ę",
      "\" Ę",
      "$ ĝ",
      "ď ē",
      "đ ęęĖ",
      "Ē Ď",
      "Ē ęęĖ",
      "ē Đ",
      "Ĕ ęęęė",
      "ĕ ď",
      "ĕ ĘęęĘ",
      "ĕ ęęĔ",
      "ĕ ęęęęĚĘ",
      "Ė ę",
      "Ė ĖęęĘ",
      "ė ęęęĚ",
      "ė ĘęęĚ",
      "ė ĖęęĘ",
      "Ę ę",
      "Ę ęę",
      "Ě Ĝ",
      "Ě ęę",
      "Ě ęęęĘ",
      "Ě ęęęęęęęęęęę",
      "ě \"",
      "Ĝ Đ",
      "Ĝ ę",
      "Ĝ ęę",
      "Ĝ ĘęęĜ",
      "ĝ ęęęęĚ",
      "Ğ ęęĖ",
      "ęęęę ęęĘę",
      "ęęęę ęęĚę",
      "ęĚ ęĖ",
      "ęĚ Ĝęęęę",
      "ęĚ ęęęęęęęęęęęęęęęęęęęę",
      "ęĚ ęĜęęĘ",
      "ęĘ ęęĔ",
      "ęĘ Ėęęęę",
      "ęĘ ęĚęęęęĚ",
      "ęęĘ Ėęęęę",
      "ęęĘ ĚęęĘę",
      "ęęĚ ĚęęĘ",
      "ęęĚ ėęęęę",
      "ęęĚ Ĝęęęę",
      "ĀĀ /",
      "ĀĀ ą",
      "ĀĀ ć",
      "ĀĀ Ĉ",
      "ęě ęęĖ",
      "ęė ęĚęęęęĘ",
      "ęęė Ęęęė",
      "Ěęęęę ęĘ",
      "Ěęęęę ęęęĚ",
      "ęęęĚ ęęĚę",
      "ęĖ ęĚęęĘ",
      "ęęĜ ĚęęĚ",
      "ęĚęęęę ęęĘęęęęęę",
      "ęĘęęęę ĘęęĘ",
      "ęĘęęęę ĚęęĚ",
      "ęĕ ęęĜ",
      "ęĝ ęęě",
      "ęĚĘ ĘęęĘę",
      "ęĘĘ ęęęě",
      "ęĘĘ ĘęęęęĚ",
      "ęĞ ğ",
      "ęęĚęęęę ęęĘęęęę",
      "ęěĘ ĚęęĚ",
      "ęěĘ Ęęęė",
      "ęěĘ ĖęęĘ",
      "ęĚė ĖęęĘ",
      "ĀĀĚ Āē",
      "ęėĚ ěęęĚ",
      "ęęęĜ ę",
      "ĀĀĖ ĀĞ",
      "ĀĀě ĀĞ",
      "ęęęĖ ę",
      "ęē Ě",
      "ęē ęęĘ",
      "Ėęęęę ě",
      "ęěęęęę ęęĘ",
      "ęęęĚęęęę ęę",
      "ĚĚ Ęęęęę",
      "ĚęęęęĘ ęĘęęęę",
      "ĀĀĜ Āĝ",
      "ĚĘ Ęęęęę",
      "ęĜĚ Ęęęęę",
      "ęĚĜ ėęęĚ",
      "ęĚĜ Ęęęě",
      "ěĚ Ęęęęę",
      "ėĚ ĚęęĚ",
      "ęėě ĘęęĚ",
      "ęėě ĚęęĚ",
      "ęĚĖ ĚęęĘ",
      "ĀĀĔ ĀĜ",
      "ęĖĘ ęęęĚ",
      "ĚęęęęĚ ęĘęęęę",
      "ęęęęĚĚ ĘęęĚ",
      "ęėĜ ęęęĚ",
      "ęėĜ ĚęęĚ",
      "ĀĀĒ Āė",
      "ĀĀĒ ĀĞ",
      "ęĜė Ęęęė",
      "ĀĀđ ĀĘ",
      "ĀĀđ Āě",
      "ęĚęĘ ęęĖ",
      "ęĚęĘ ęęĘę",
      "ĀĀ) Ā",
      "\" ĝ",
      "# ğ",
      "% ě",
      "Ď ė",
      "ď ĕ",
      "ď Ě",
      "Đ ğ",
      "Đ ęęĚ",
      "đ ęęė",
      "Ē !",
      "Ē ę",
      "Ĕ ęęğ",
      "ĕ ęęē",
      "ĕ ęęĘę",
      "Ė ěęęęę",
      "ė ę",
      "ė ęě",
      "Ę ě",
      "Ę ėęęĘ",
      "Ę ęęē",
      "Ę ęęęĘę",
      "ę ĀĀĘĀ",
      "Ě ęęęęęęęęęęęę",
      "ě ęę",
      "ě Ěęęě",
      "ě ĖęęĚ",
      "Ĝ ėęęĚ",
      "Ĝ ĜęęĚ",
      "ĝ ĀĀ",
      "ĝ Ęęęě",
      "Ğ ĕ",
      "ğ ęęě",
      "Ġ $",
      "ęĚ ĚęęĘ",
      "ęĚ ęęĝ",
      "ęĚ ęĔ",
      "ęĘ ęęĕ",
      "ęĘ ěęęĘ",
      "ęĘ ęęęęęęęęęęęęęęęęęęęę",
      "ęęĘ ěęęęę",
      "ęęĚ ĜęęĚ",
      "ęęĚ ĘęęĚę",
      "ęě đ",
      "ęě ęĖ",
      "ęė ęęĝ",
      "ęė ęėęęęę",
      "ęė Ĝęęęę",
      "ęęęęęęęę ęęĘęęęę",
      "ęęě ėęęě",
      "ęęě ęęęĚę",
      "ęęė ěęęė",
      "Ęęęęę ęęĘęęęę",
      "Ěęęęę ĜĚ",
      "ęęęĘ ęęęęęęęę",
      "ęęęĘ ęęęęęęęęęęę",
      "ęĜ Ē",
      "ęĜ ęĘęęęę",
      "ęĖ ęěęęęę",
      "ęęĜ ėęęĚ",
      "ęĚęęęę ęęĜ",
      "ęĚęęęę ĚęęĚ",
      "ęĚęęęę ęęęĚęęęęę",
      "ęĘęęęę ĚęęĘ",
      "ęĝ ē",
      "ęĝ ęęęęĚ",
      "ęĚĚ ĖęęĚ",
      "ęĚĚ ĘęęęęĘ",
      "ęĚĚ ĘęęĜ",
      "ęĚĚ ĚęęĚę",
      "ęęęęĚ ęĚęęęę",
      "ęĚĘ ęęęĘęęĘ",
      "ęĘĘ ĜęęĘ",
      "ęęĚęęęę ęęĘę",
      "ęęĚęęęę ęĘĘęęęę",
      "ėęęĚ ęęĚ",
      "ĀĀĘ Āğ",
      "ĀĀĘ ĀĚĘ",
      "ęĚě ėęęě",
      "ęĚě ĖęęĚ",
      "ĀĀę Āğ",
      "ęěĘ Ěęęė",
      "ęěĚ ęęęě",
      "ęĚė Ęęęė",
      "ęĘě Ěęęęę",
      "ęĘė ĜęęĘ",
      "ęėĚ Ęęęęę",
      "ęėĚ ėęęě",
      "ęėĚ ĜęęĚ",
      "ĀĀė Āē",
      "ęęęĖ ęęĘ",
      "ęē ĝ",
      "ęěě ĘęęĚ",
      "ęěęęęę ęęĚ",
      "ęėė Ęęęęę",
      "ęėė ĘęęĘ",
      "ęėė ěęęė",
      "ĀĀĜ ĀĞ",
      "ĀĀĕ Āğ",
      "ěęęě ę",
      "ęĜĚ ęęęĚ",
      "ęĚĜ ęęęě",
      "ėĚ ęęĕ",
      "ĀĀĝ ĀĔ",
      "ęĘĜ ęęęĚ",
      "ęĘĜ Ęęęě",
      "ěĘ ęęĝ",
      "ęĖĘ ęęęĘ",
      "ęĖĚ ěęęĚ",
      "ĀĀĞ ĀĜ",
      "ęęęęĘĘ Ěęęęę",
      "ęęęĘęęĘ ęęęęęęęę",
      "ęęęęĚĚ Ěęęęę",
      "ęėĜ ėęęĚ",
      "ĀĀĒ ĀĘ",
      "ĀĀĒ ĀĖ",
      "ĀĀĒ Āĕ",
      "ęĖě ęęęĜ",
      "ĀĀđ ĀĚ",
      "ĀĀ! Āě",
      "ĀĀ\" Āě",
      "Ėě ęęĕ",
      "ĀĀĐ ĀĖ",
      "ęĚęĘęęĚ ę",
      "ęĘęĘ ęęě",
      "ĀĀ' Ā",
      "\" #",
      "# Ĝ",
      "$ Ę",
      "Ď Ě",
      "Đ Ğ",
      "đ Ĕ",
      "ē Ē",
      "Ĕ đ",
      "ĕ ęęĞ",
      "Ė Ē",
      "Ė ē",
      "Ė Ęęęęę",
      "Ė ęĝ",
      "Ė ěęęĘ",
      "Ė Ęęęė",
      "ė ď",
      "ė ėęęĚ",
      "ė Ęęęė",
      "ė ěęęė",
      "Ę ĝ",
      "Ę ĘęęĘ",
      "Ę ęęęęęęęęęęęę",
      "Ę ęęĒ",
      "Ę ęęęęęęęęęęę",
      "ę %",
      "Ě ęĚ",
      "Ě ęęğ",
      "ě ėęęě",
      "Ĝ ē",
      "Ĝ Ěęęě",
      "Ğ ęęęęĘ",
      "ğ ęęė",
      "Ġ Ĕ",
      "Ġ ęęĝ",
      "Ġ Āĝ",
      "Ġ ěęęě",
      "Ġ ĀĀĔ",
      "ęęęę Ĝ",
      "ęęęę ęęė",
      "ęĚ ęęęęęęęęęęęęęęęę",
      "ęĚ Ėęęęę",
      "ęĚ ęĚęęęęĚ",
      "ęĚ ęěęęĚ",
      "ęĚ ęĖęęĘ",
      "ęĚ ęĜęęĚ",
      "ęĘ ęĜ",
      "ęĘ ęĔ",
      "ęĘ ęĘęęęęĚ",
      "ęĘ ęėęęė",
      "ęęĘ ęęęęęęęęęęęę",
      "ęęĚ ęęęė",
      "ęě ęęě",
      "ęě ęęĜ",
      "ęě ĚęęĚ",
      "ęě ęěęęęę",
      "ęě ęėęęęę",
      "ęě ęĘęęęęĘ",
      "ęě ęěęęĘ",
      "ęě Ěęęęęę",
      "ęě ęĘęęė",
      "ęė đ",
      "ęęęęęęęę ĘęęęęĚ",
      "ęęė ęęęĘę",
      "ęęė ĖęęĘ",
      "Ęęęęę ęĘ",
      "Ęęęęę ęęě",
      "Ęęęęę ęęė",
      "Ęęęęę ėĘ",
      "Ěęęęę ęęě",
      "ęĜ ęĚęęĚ",
      "ęĖ Đ",
      "ęĖ ęęĜ",
      "ęĖ ęĚęęĚ",
      "ęęĖ ęęĚ",
      "ęęĜ ĘęęĚ",
      "ęĘęęęę ęęĚęęęę",
      "ęĕ ęĚęęĚ",
      "ęĝ !",
      "ęĝ ęęė",
      "ęęęęĚ ė",
      "ęĚĘ ęęęęęęęęęęęę",
      "ęĚĘ ěęęė",
      "ęĚĘ ĖęęĘ",
      "ęĘĚ ęęęęęęęęęęęę",
      "ęĘĚ ĚęęĚę",
      "ęĘĘ ėęęĚ",
      "ęęęě ęęě",
      "ęęęě ęęęęĚ",
      "ęęę Ď",
      "ęĚě ěęęĚ",
      "ęĚě Ěęęě",
      "ęěĘ ěęęĘ",
      "ęěĘ ęęęĖ",
      "ęěĘ ėęęė",
      "ęĘě ěęęęę",
      "ęėĚ Ěęęęę",
      "ęėĚ ęęęĘ",
      "ĀĀĖ Āğ",
      "ęē ĕ",
      "Āĕ Ě",
      "ęęęĘęęęę ęęĘęęęę",
      "ĚĚ Ě",
      "ęěė ęęęė",
      "ęěė ėęęė",
      "ęėė ėęęĘ",
      "ęėė Ęęęė",
      "ĚęęęęĘ ę",
      "ĀĀĜ ĀĔ",
      "ĚĘ ęęĞ",
      "ęęĒ ęĜ",
      "ĀĀĕ Āĕ",
      "ĀĀĕ ĀĞ",
      "ęĜĚ ĘęęĘ",
      "ęĜĚ Ęęęė",
      "ĘęęęęĘ ęĚęęęę",
      "ěĚ ęęĝ",
      "ėĚ ĘęęĚ",
      "ėĚ ęęĔ",
      "ęėě Ěęęě",
      "ėĘ ęęĕ",
      "ęĜĘ ėęęęę",
      "ęĜĘ ėęęĘ",
      "ęĘĜ ĚęęĚ",
      "ěĘ Ęęęęę",
      "ěĘ ęęęĘ",
      "ęĚĖ Ęęęė",
      "ęĘĖ ĘęęĘ",
      "ęĘĖ ęęęė",
      "ęĘĚęęęę Ě",
      "ęĒ Ě",
      "ęěĜ Ęęęęę",
      "ęěĜ ĘęęĚ",
      "ĀĀğ ĀĖ",
      "ęęęĕ ęęĘ",
      "ęĜě ĚęęĚ",
      "ĀĀĒ ĀĜ",
      "ěĝ ęęĚ",
      "ę! Ě",
      "ĀĀđ Āė",
      "ĀĀđ ĀĜ",
      "ęĚĝ ęęęě",
      "ĀĀ\" Āė",
      "ĀĀď Āė",
      "ĀĀĎ Āě",
      "ęęęęęęęęęĚ ę",
      "ēĘ ęęĔ",
      "ęĚęĚęęĚ ę",
      "! $",
      "# ě",
      "Ď ĝ",
      "Đ ĝ",
      "Ē ğ",
      "ē ęę",
      "Ĕ ĘęęĘ",
      "Ĕ ęęĞ",
      "ĕ ęęęė",
      "ĕ Ěęęė",
      "Ė ėęęė",
      "Ė ęęęęĚĘ",
      "ė Đ",
      "ė Ē",
      "ė ē",
      "ė Ĕ",
      "ė ĚęęĚ",
      "ė ęěęęęę",
      "Ę Ĕ",
      "ě ď",
      "ě ęĚęęęę",
      "ě Ĝęęęę",
      "ě ĜęęĚ",
      "ě ěęęě",
      "ě ęęęęĚĘ",
      "Ĝ Ěęęęę",
      "Ĝ Ęęęě",
      "Ĝ ěęęĚ",
      "Ĝ ěęęě",
      "Ĝ ęęęęĘĘ",
      "Ĝ ęęęęĚĚ",
      "ĝ ęęęĚ",
      "ĝ ęęĞ",
      "ĝ ĜęęĚ",
      "Ğ Ěęęě",
      "Ġ Ē",
      "Ġ ĀĖ",
      "Ġ ĀĀĘĀ",
      "Ġ ęęęĞ",
      "Ġ ĀĀĖĀ",
      "Ġ ĀĀĚĀ",
      "ęĚ ęęĞ",
      "ęĚ ęęęęęęęęęęę",
      "ęĘ ęĖęęęę",
      "ęĘ ęęęęęęęęęęęĚ",
      "ęĘ ęĝęęĘ",
      "ęęĚ Ěęęė",
      "ęęĚ ĘęęęęĘ",
      "ĀĀ ă",
      "ĀĀ Ą",
      "ęě ęė",
      "ęě ęęĕ",
      "ęě ęęęęĚĚ",
      "ęė ėęęĘ",
      "ęė Ėęęęę",
      "ęė ęĚęęė",
      "ęė ęĜęęĚ",
      "ęęęęęęęę ęĚęęęęę",
      "ęęě ęęęĘ",
      "ęęė ęęęĚ",
      "ęęė ęęęĘęęĚ",
      "ęęęĚ ęęęęęęęęęęę",
      "ęĜ ęĘęęė",
      "ęĖ ęęĖ",
      "ęęĜ ėęęě",
      "ęĚęęęę ĚęęĘ",
      "ęĚęęęę ęęęĚęęęę",
      "ęĘęęęę ęęĚęęęęęę",
      "ĘęęĚ ęęęęęęęę",
      "ęĚĚ ěęęęę",
      "ęĚĚ ęęęĜ",
      "ęĚĚ Ėęęęę",
      "ęĚĚ ĘęęĖ",
      "ęęęęĘ ę",
      "ęęęęĚ ę",
      "ęęęęĚ Ěęęęę",
      "ęĚĘ ěęęęę",
      "ęĚĘ Ęęęě",
      "ęĚĘ ėęęě",
      "ęĚĘ Ėęęęę",
      "ęĚĘ ėęęė",
      "ęĘĚ ĚęęęęĘ",
      "ęĘĚ ęęęĚęęĚ",
      "ęĘĘ ęęęęęęęęęęęę",
      "ęĘĘ Ěęęě",
      "ęĘĘ ęęęĚę",
      "ęĘĘ ĖęęĘ",
      "ęęĝ ĚęęĚ",
      "ęęĝ ęęęě",
      "ęęę ď",
      "ėęęęę ėĚ",
      "ęĞ ęęĚ",
      "ęĞ ęęė",
      "ęęĔ ę",
      "ęĔ Ē",
      "ęĚě ęęĚ",
      "ęĚě ęęęĜ",
      "ęěĘ ěęęęę",
      "ęěĚ ĖęęĚ",
      "ęĚė ěęęĘ",
      "ęĚė ęęęĖ",
      "ęĚė ěęęė",
      "ęĘě ėęęě",
      "ęĘė Ęęęęę",
      "ęĘė Ęęęė",
      "ęĘė Ĝęęė",
      "ęėĚ ėęęĚ",
      "ęėĚ ěęęě",
      "ĀĀė Āğ",
      "ĀĀė ĀĚĚ",
      "ęėĘ Ęęęęę",
      "ęėĘ ęęęė",
      "ęęē ęĝ",
      "ĀĀě Āğ",
      "ęěě ėęęě",
      "ęėęęęę ęę",
      "ĖęęĚ ę",
      "ęěė ěęęĘ",
      "ęěė ęęęĖ",
      "ĚęęęęĘ Ęęęęęę",
      "ĀĀĕ ĀĔ",
      "ĜęęĚ ę",
      "ęĜĚ ėęęĘ",
      "ĘęęęęĘ ĚĚęęęę",
      "ěĚ Ěęęęę",
      "ęĘĜ ĘęęĚ",
      "ěĘ ęęĞ",
      "ĀĀĔ Āĝ",
      "ĀĀĔ ĀĔ",
      "ęĖĘ ĚęęĚ",
      "ęĘĖ Ěęęė",
      "ęěĜ Ęęęě",
      "ĀĀğ ĀĚ",
      "ĀĀğ Āė",
      "ĀĀğ Āĝ",
      "ęėĖ ĘęęĘ",
      "ęėĖ ĚęęĘ",
      "ęėĖ ęęęė",
      "ęęĚęęęĚ ęęĚ",
      "ęĜě ęęęĚ",
      "ěě ęęĞ",
      "ĀĀē Āě",
      "ĀĀē Āĕ",
      "ĀĀĒ Āĝ",
      "ĀĀĒ ĀĔ",
      "ęęęęĘĚ ĘęęĚ",
      "ęĜė ĚęęĘ",
      "ęĜė ęęęė",
      "ęĜĜ ęęęĚ",
      "ęĜĜ ėęęĚ",
      "ęĖě ęęęĚ",
      "ėė ĚęęĘ",
      "ę! Ę",
      "ęęęęęęĚ ęęĚ",
      "ęĕĚ ėęęĚ",
      "ĕĚ ęęĔ",
      "ęĘęĚ ęęĘę",
      "Ėė ęęĕ",
      "ęęęęęęęęęĘ ęęęĘę",
      "ęĜĖ Ěęęė",
      "ęĚęĚ ęęě",
      "ęĘėęęęę ę",
      "ęĘęě ęęė",
      "ęĘęě ęęęęĘ",
      "ğĚ ęęĞ",
      "ĀĀ% ĀĚ",
      "ĀĀ* Ā",
      "! ęęĘ",
      "$ !",
      "$ Ğ",
      "ď ęęĚ",
      "Đ ē",
      "Ē ĀĀ",
      "ē Ď",
      "ĕ ęęęĘ",
      "ĕ ęęğ",
      "ĕ ęęęĖ",
      "ĕ ęęĚę",
      "Ė ď",
      "Ė ėęęĘ",
      "Ė ęęęĖ",
      "Ė ęę!",
      "ė ěęęĖ",
      "ė ĔęęĘ",
      "Ě ĚęęĘ",
      "Ě ėęęĚ",
      "Ě ęę!",
      "ě Ěęęė",
      "ě ęęęĝ",
      "ě ĘęęĚę",
      "Ĝ đ",
      "Ĝ ĔęęĚ",
      "ĝ Ęęęęę",
      "ĝ ęęęě",
      "ĝ ěęęĚ",
      "Ğ \"",
      "Ğ Ĝ",
      "Ğ ĝ",
      "Ğ ęęĕ",
      "ğ Đ",
      "ğ Ė",
      "ğ ĝ",
      "Ġ ęęĖ",
      "Ġ ĀĚ",
      "Ġ Āė",
      "Ġ ĀĀęĀ",
      "Ġ ĀĀĜĀ",
      "ęęęę ě",
      "ęĚ ęĜ",
      "ęĚ ėęęĚ",
      "ęĚ ęĖęęęę",
      "ęĚ ęęęęęęęęęęęĚ",
      "ęĘ !",
      "ęĘ \"",
      "ęĘ ęęĝ",
      "ęĘ ęęğ",
      "ęĘ ĜęęĘ",
      "ęĘ ĚęęĘę",
      "ęęĘ ėęęĚ",
      "ęęĘ ěęęė",
      "ęęĘ ĖęęĘ",
      "ęęĘ ĚęęęęĚ",
      "ęęĘ ėęęĖ",
      "ęęĚ ěęęĘ",
      "ęęĚ ĘęęĜ",
      "ęě ęęĚę",
      "ęě ęěęęė",
      "ęė ęĘęęęęĘ",
      "ęė ęėęęĘ",
      "ęė ęĜęęęę",
      "ęęęęęęęę ęĘęęęęę",
      "ęęě ĚęęĘ",
      "ęęė ęęě",
      "ęęė ĘęęĖ",
      "ęęė ĕęęĘ",
      "Ęęęęę ě",
      "Ěęęęę ęęė",
      "ęęęĚ ęęĜ",
      "ęęęĘ ęĝ",
      "ęęęĘ ęęęęĘĘ",
      "ęĜ ėęęęę",
      "ęĜ ęėęęęę",
      "ęĜ ęĚęęĘ",
      "ęĜ ęėęęĘ",
      "ęĖ ęĘęęĚ",
      "ęęĖ Ęęęė",
      "ęęĖ ėęęė",
      "ęęĖ ĚęęĖ",
      "ęęĜ ęęĘ",
      "ęęĜ ěęęĚ",
      "ęęĜ ęęęĜ",
      "ęĚęęęę Ė",
      "ęĘęęęę ęęĘęęęęęę",
      "ęĕ ęęě",
      "ęĕ ęęė",
      "ęĕ ęęĖ",
      "ęĝ ęęĖ",
      "ęĝ ęĚęęĚ",
      "ĘęęĚ ęęęęę",
      "ęĚĚ ėęęĘ",
      "ęĚĚ ęęęĘę",
      "ęęęęĘ Ęęęęę",
      "ęęĕ ęęęĘ",
      "ęĚĘ ęęě",
      "ęĚĘ ėęęĚ",
      "ęĚĘ ęęęĘęęĚ",
      "ęĘĚ ėęęĘ",
      "ęĘĚ ĚęęęęĚ",
      "ęĘĚ ĘęęęęĚ",
      "ęĘĘ Ě",
      "ęĘĘ ĘęęĖ",
      "ęĘĘ ĝęęĘ",
      "ęęĝ ęĖ",
      "ęęęė ęęęęĘ",
      "ęęęě ęęęęęęęę",
      "ėęęęę Ĝ",
      "ėęęęę ęęĘ",
      "ěęęęę ě",
      "ęĔ ē",
      "ęĚě ęęęĘ",
      "ęĚě ęęęĚę",
      "ęĚě Ėęęě",
      "ęěĘ Ěęęęę",
      "ęěĘ ėęęĚ",
      "ęěĘ Ėęęęę",
      "ęěĘ ĘęęĖ",
      "ęĚė ĕęęĘ",
      "ĀĀĚ ĀĚĚ",
      "ęĘė ęęęĚ",
      "ęĘė ěęęė",
      "ęĘė ęęęĘę",
      "ęėĚ Ęęęě",
      "ęėĘ Ęęęė",
      "ęėĘ ěęęė",
      "ęėĘ ĜęęĘ",
      "ęęęęęęęęęęęęęęęę ęęęęęęęęęęęęę",
      "ęęęęęęęęęęęęęęęę ęęęęęęęęęęęęęęęęęęęę",
      "ęęē ęěĘ",
      "ęğ ĕ",
      "ęěě Ěęęęę",
      "ęěęęęę ęę",
      "ĚĚ Ěęęęę",
      "ęėęęęę ęęĚ",
      "ęėė Ěęęęę",
      "ęėė Ěęęė",
      "ĚĘ Ěęęęę",
      "ĚĘ ęęęĘ",
      "ęĚĚęęęę Ě",
      "ęĜĚ Ěęęęę",
      "ęĜĚ ĚęęĘ",
      "ęĜĚ ėęęĚ",
      "ęĚĜ ĚęęĚ",
      "ęėě ĖęęĚ",
      "ĀĀĝ Āē",
      "ęĜĘ ĚęęĘ",
      "ęĜĘ ęęęė",
      "ęĚĖ ėęęĘ",
      "ĀĀĔ ĀĞ",
      "ĀĀĔ Āğ",
      "ęĖĘ Ěęęęę",
      "ęĖĘ ĚęęĘ",
      "ęĒ Ė",
      "ęĖĚ Ěęęęę",
      "ęĖĚ ěęęęę",
      "ęęęĘęęĚ ęęęĚ",
      "ęěĜ ėęęĚ",
      "ęěĜ ėęęě",
      "ĀĀğ ĀĞ",
      "ęęęĕ ęęęę",
      "ęęęĕ ęęĚ",
      "ĘęęęęĚ Ěęęęę",
      "ęėĖ ěęęĘ",
      "ęęĚęęęĚ ęęĘ",
      "ęęęĘęęĘ ĚęęĘ",
      "ęĜě Ęęęě",
      "ęĖė ęęęė",
      "ĀĀē Āė",
      "ĀĀē Āĝ",
      "ĀĀĒ ĀĚ",
      "ęęęęĘĚ ęęęĚ",
      "ęĜė Ěęęė",
      "ęęęĚęęĘ ęęęĘ",
      "ęĜĜ ęęęĜ",
      "ęĖĖ ĘęęĘ",
      "ęĖě ěęęĚ",
      "ęěĖ Ěęęė",
      "ęę\" ęĖ",
      "Ĝě ęęĝ",
      "ęęĘĘęęęę ę",
      "ęĜęęęę ė",
      "ęęěęęęę ęęĘ",
      "ęĘęĚ ęęęęęęęęęęę",
      "ĀĀĐ Āė",
      "ĀĀ# Āě",
      "ĘĘ Ĝ",
      "ĠĚ ęęĞ",
      "ęĘęě ęęě",
      "ęĘęĘ ęęė",
      "ęĘęĘ ęęĖ",
      "ęĘęĘ ęęĘę",
      "ęęęęęęęęęęęĘ ęĚęęęę",
      "ęęęęęęęęęęęĘ ęĘęęęę",
      "ęĚěęęęę ę",
      "ĚęęęęĘĘ ęęęĘ",
      "! ęęĚ",
      "\" ė",
      "\" ę",
      "# ė",
      "# Ę",
      "% Ę",
      "& #",
      "Ď Ė",
      "đ ĝ",
      "Ē %",
      "ē ęęęė",
      "ē ęęğ",
      "Ĕ Đ",
      "Ĕ ęęęęĘ",
      "ĕ Đ",
      "ĕ Ęęęĕ",
      "ĕ ĜĞ",
      "ĕ ęę#",
      "Ė Ěęęė",
      "Ė ęęĒ",
      "ė !",
      "ė \"",
      "ė ėęęė",
      "ė ęęĒ",
      "Ę ęęęĚ",
      "Ę ěęęĘ",
      "Ę ĘęęęęĚ",
      "ę ĀĀęĀ",
      "Ě ę",
      "Ě Ęęęě",
      "Ě ĖęęĚ",
      "ě !",
      "ě ęĚ",
      "ě ęęęĘ",
      "ě ĚęęĘ",
      "ě ęęęĜ",
      "ě ęęęĚę",
      "ě ęęĒ",
      "ě ęęđ",
      "ě Ĝęęě",
      "Ĝ Ē",
      "Ĝ ęĚ",
      "Ĝ ėęęě",
      "Ĝ Ĝęęě",
      "Ğ ĀĀ",
      "Ğ ęęĞ",
      "ğ #",
      "ğ Ę",
      "ğ ęęĜ",
      "Ġ Đ",
      "Ġ ĀĘ",
      "Ġ Ęęęě",
      "Ġ ėęęě",
      "Ġ Āğ",
      "ęę &",
      "ęęęę ęęĖ",
      "ęĚ ĘęęĚę",
      "ęĚ ęėęęęęĘ",
      "ęĚ ęĖęęĚ",
      "ęĚ ęĕęęęę",
      "ęĚ ęěęęė",
      "ęĚ ęėęęě",
      "ęĘ ęė",
      "ęĘ ėęęĘ",
      "ęĘ ęē",
      "ęĘ ęėęęě",
      "ęęĘ ęęęęĘ",
      "ęęĘ ęęęęęęęęęęę",
      "ęęĚ ęęě",
      "ęęĚ ėęęě",
      "ęęĚ ęęęĝ",
      "ęęĚ ĕęęĚ",
      "ęě ėęęĚ",
      "ęě ęęęęĘĘ",
      "ęě ęĖęęęę",
      "ęě ęěęęĚ",
      "ęě ęĖęęĚ",
      "ęě ęĘęęě",
      "ęě ęėęęė",
      "ęė ęĜ",
      "ęė ěęęĘ",
      "ęė ęĘęęęęĚ",
      "ęė ęěęęė",
      "ęė ęĘęęě",
      "ęęęęęęęę ęě",
      "ęęęęęęęę ęęęė",
      "ęęęęęęęę ęęęě",
      "ęęęęęęęę ĘĘ",
      "ęęě ęęęęĚ",
      "ęęě Ėęęě",
      "ęęě ĚęęĜ",
      "ęęě ĘęęĚę",
      "ęęė ĚęęĖ",
      "ęęė Ĝęęė",
      "Ęęęęę ęě",
      "Ęęęęę ęęęĘ",
      "Ęęęęę ėĚ",
      "Ęęęęę ěĘ",
      "Ěęęęę Ĝ",
      "Ěęęęę ėĘ",
      "ęęęĚ ęęęęęęęęęęęę",
      "ęęęĘ ęęĜ",
      "ęĜ ĚęęĚ",
      "ęĜ ĚĘ",
      "ęĜ ęĘęęĖ",
      "ęĖ Ē",
      "ęęĖ ęęě",
      "ęĚęęęę ęęě",
      "ęĝ \"",
      "ęĝ Ē",
      "ęĝ ęęęęĘ",
      "ĘęęĚ ęĖ",
      "ęĚĚ ęęě",
      "ęĚĚ Ĝęęęę",
      "ęĚĚ ěęęě",
      "ęĚĚ Ėęęě",
      "ęĚĚ ĚęęęęĚ",
      "ęĚĚ ĚęęĜ",
      "ęĚĚ ęęĚę",
      "ęĚĚ ĕęęĚ",
      "ęĚĚ ėęęĜ",
      "ęęĕ Ěęęė",
      "ęĚĘ Ę",
      "ęĚĘ ęęęě",
      "ęĚĘ ĖęęĚ",
      "ęĚĘ ĚęęęęĘ",
      "ęĚĘ Ėęęě",
      "ęĚĘ ĕęęĘ",
      "ęĚĘ ĚęęĘę",
      "ęĚĘ ėęęęęĘ",
      "ęĘĚ ęęęĝ",
      "ęĘĚ ĕęęĚ",
      "ęĘĚ ĘęęĚę",
      "ęĘĚ ęęęěę",
      "ęĘĘ Ėęęęę",
      "ęĘĘ ěęęė",
      "ęęĝ ę",
      "ėęęęę ę",
      "ěęęęę Ĝ",
      "ěęęęę ęĘĘęęęę",
      "ęęęęęęęęęęęę ęĘ",
      "ęęĘęęęę ęęĘę",
      "ėęęĘ ęěĚ",
      "ęĚě ĘęęĘ",
      "ęĚě ėęęęę",
      "ĀĀę ĀĚĚ",
      "ęěĘ Ęęęě",
      "ęěĘ ęęęĘę",
      "ęěĚ ęęęė",
      "ęěĚ ęęęĚę",
      "ęĚė ęęęĘę",
      "ęĚė ėęęė",
      "ęĚė ĜęęĘ",
      "ęĚė ĚęęĖ",
      "ęĚė Ĝęęė",
      "ęĘě ęęęĜ",
      "ęĘě ęęęĚę",
      "ęĘě ĜęęĚ",
      "ęĘė ėęęė",
      "ęėĚ ĖęęĚ",
      "ęėĚ ęęęĚę",
      "ęėĘ Ěęęė",
      "ĀĜ Ğ",
      "ęęğ ęě",
      "ĀĀĖ Āē",
      "ĀĀĖ ĀěĘ",
      "ęěě ěęęĚ",
      "ęěęęęę ě",
      "ęěęęęę ęęė",
      "ęěęęęę ęęĘęęęę",
      "ęęęĚęęęę ęęĚęęęę",
      "ęęęĘęęęę ęęĚę",
      "ĚĚ ęęęĚ",
      "ĚĚ ęęĖ",
      "ĚĚ ęęĝ",
      "ĚĚ ęęĞ",
      "ęěė Ěęęė",
      "ęěė Ęęęė",
      "ęěė ĖęęĘ",
      "ęėė ĚęęĖ",
      "ĀĀĜ Āē",
      "ęĚĚęęęę ęęĚęęęę",
      "ęĜĚ ĚęęĚ",
      "ęĜĚ ėęęě",
      "ęĚĜ ěęęĚ",
      "ęĚĜ ėęęě",
      "ęĚĜ ĖęęĚ",
      "ĘęęęęĘ Ěęęęę",
      "ĘęęęęĘ ęĘęęęę",
      "ėĚ ě",
      "ėĚ ęęĜ",
      "ęėě ěęęĚ",
      "ėĘ ęęĔ",
      "ĀĀĝ Āĝ",
      "ęĜĘ ĘęęĚ",
      "ęĜĘ ěęęĘ",
      "ęĘĜ ęęęĜ",
      "ęĘĜ ėęęě",
      "ęĘĜ ĚęęĜ",
      "ěĘ ĘęęĘ",
      "ęĚĖ ęęęĖ",
      "ĀĀĔ ĀĖ",
      "ĀĀĔ Āĕ",
      "ęĖĘ ĘęęĚ",
      "ęĖĘ ĘęęĘ",
      "ęĘĖ ěęęĘ",
      "ęĒ Ĕ",
      "ęĖĚ ęęęě",
      "ĀĀĞ Āĝ",
      "ĀĀğ Āĕ",
      "ĘęęęęĚ ęĘęęęę",
      "ęęęęĘĘ Ęęęęę",
      "ęęęĘęęĘ Ęęęęę",
      "ęĜě ĘęęĘ",
      "ęęęĝ ęęęę",
      "ęĖė ęęęĚ",
      "ęĖė Ěęęė",
      "ęĖė Ęęęė",
      "ĀĀē ĀĜ",
      "ĀĀē ĀĞ",
      "ęėĜ ęęęě",
      "ęėĜ ěęęĚ",
      "ęęęęĘĚ ĚęęĚ",
      "ęęęęĘĚ ěęęĚ",
      "ĖĚ ęęĔ",
      "ęĖĖ ĚęęĘ",
      "ęĖĖ ěęęĘ",
      "ęĖě Ěęęě",
      "ęěĖ ęęęĘ",
      "ęěĖ ęęęĖ",
      "ęĘĕ ęęęĘ",
      "ĜĚ ęęĝ",
      "ęđ Ę",
      "ěė ĘęęĘ",
      "ęĕĚ ĚęęĚ",
      "ėě ĚęęĚ",
      "ęĜęęęę ě",
      "ĀĀ! ĀĚ",
      "ĀĀ! Āė",
      "ĀĀ! ĀĖ",
      "ĀĀ! ĀĞ",
      "ĀĀ\" ĀĘ",
      "ęĘĝ ęęęĚ",
      "ęěĝ Ęęęě",
      "ĕĘ ęęĔ",
      "ęĚęĘ ęęė",
      "ĀĀĐ ĀĘ",
      "ĀĀĐ ĀĚ",
      "ęĚĞ ęęęĜ",
      "ĀĀ$ ĀĚ",
      "ĀĀ$ Āė",
      "ĀĀ$ Āĝ",
      "ĀĀ# ĀĚ",
      "ęĖĜ Ěęęě",
      "ĀĀď ĀĖ",
      "ĀĀď Āĕ",
      "ęěĕ ęęęĖ",
      "ĀĀĎ ĀĖ",
      "ęĘęě ęęęęĚ",
      "ĀĀĘĀĘ Ė",
      "ĀĀĜĀ đ",
      "ĀĀ& Āě",
      "ęĘĘěęęĘ ę",
      "ĀĀ+ Ā",
      "ĀĀ- Ā",
      "\" %",
      "$ ě",
      "& Ę",
      "& Ě",
      "' ĝ",
      "' ğ",
      "Ď ĕ",
      "ď Ĕ",
      "ď ęęė",
      "Đ Ĕ",
      "đ !",
      "đ đ",
      "đ ęęęę",
      "đ ęęĔ",
      "đ Ęęęė",
      "đ ęęē",
      "ē !",
      "ē ď",
      "ē ęęĘę",
      "Ĕ ęęęĘ",
      "Ĕ ęęęęĚ",
      "Ĕ ęĞ",
      "Ĕ Ěęęė",
      "Ĕ ęęē",
      "Ĕ Ěęęĕ",
      "Ĕ ĜĞ",
      "ĕ ĚęęĘ",
      "ĕ ěęęĘ",
      "ĕ Ęęęė",
      "ĕ ĖęęĘ",
      "ĕ ęęęęĘĘ",
      "Ė $",
      "Ė ĜęęĘ",
      "Ė ėĚ",
      "Ė ĘęęĖ",
      "Ė ęęęĕ",
      "Ė ěĝ",
      "Ė Ėĝ",
      "ė ęĜ",
      "ė ęęęě",
      "ė ěęęęę",
      "ė ęęęĖ",
      "ė Ėęęęę",
      "ė ĜęęĘ",
      "ė ĕęęĘ",
      "ė ęěęęĘ",
      "Ę ęĝ",
      "Ę ęĞ",
      "Ě ėęęęę",
      "Ě ĘęęęęĘ",
      "Ě ěĝ",
      "ě đ",
      "ě ĀĀ",
      "ě ęě",
      "ě ęĝ",
      "ě ĘęęĘ",
      "ě ęĚęęĘ",
      "Ĝ %",
      "Ĝ ęě",
      "Ĝ ęĘęęęę",
      "Ĝ ęęĒ",
      "Ĝ Ĝęęęę",
      "ĝ ęĚ",
      "ĝ ĘęęĚ",
      "ĝ Ěęęě",
      "ĝ ęęē",
      "ĝ ęęĘę",
      "ĝ ęęęęĚĘ",
      "ĝ ĀĀĘĀ",
      "Ğ ě",
      "Ğ ęęęęĚ",
      "Ğ ĀĀĘĀ",
      "ğ ęęĕ",
      "Ġ ęęĕ",
      "Ġ ęęĔ",
      "Ġ ęęĞ",
      "Ġ ęęęĜ",
      "Ġ ęē",
      "Ġ Āĕ",
      "Ġ ĀĀěĀ",
      "Ġ Ęęęĝ",
      "Ġ ĔĚ",
      "Ġ ėęęĞ",
      "ęĚ !",
      "ęĚ ĘęęĘ",
      "ęĚ ęęęě",
      "ęĚ ěęęĘ",
      "ęĚ ĕęęęę",
      "ęĘ Đ",
      "ęĘ ĘęęĚ",
      "ęĘ ęęĞ",
      "ęĘ ęęęęęęęęęęęęęęęę",
      "ęĘ ęĖęęĚ",
      "ęĘ ęĜęęė",
      "ęęĘ ęęė",
      "ęęĘ ėęęė",
      "ęęĘ ĘęęĖ",
      "ęęĘ Ėęęě",
      "ęęĘ ĚęęĖ",
      "ęęĘ ĘęęęęĚ",
      "ęęĘ Ĝęęė",
      "ęęĘ ĕęęĘ",
      "ęęĘ ĝęęĘ",
      "ęęĘ ėęęĘę",
      "ęęĚ ĚęęęęĘ",
      "ęęĚ ĝęęĚ",
      "ęęĚ ĚęęęęĘĘ",
      "ęě ęęęęęęęę",
      "ęě ęęĝ",
      "ęě Ėęęęę",
      "ęě ęĕęęĘ",
      "ęė Đ",
      "ęė ęė",
      "ęė ęęęė",
      "ęė ęęĚę",
      "ęė ęĘęęĜ",
      "ęęęęęęęę ęęĘę",
      "ęęęęęęęę Ęęęęęęę",
      "ęęęęęęęę ęęęĚęęęęęę",
      "ęęě ęęĚ",
      "ęęě ĘęęĘ",
      "ęęě ěęęęę",
      "ęęě ěęęĘ",
      "ęęě ĖęęĚ",
      "ęęě ęęęęęęĚ",
      "ęęė ěęęĚ",
      "ęęė ĜęęĘ",
      "ęęė ęęęĕ",
      "ęęė ęęęėę",
      "Ęęęęę ęęĚęęęę",
      "Ęęęęę ęęĚęęęęęę",
      "Ěęęęę Ěęęęę",
      "Ěęęęę ėĚ",
      "Ěęęęę ěĘ",
      "ęęęĚ ęęĖ",
      "ęęęĘ Ęęęęę",
      "ęęęĘ ęęęęĚĚ",
      "ęĜ !",
      "ęĜ ęĚęęęę",
      "ęĜ ęĘęęĚ",
      "ęĜ Ĝęęęę",
      "ęĖ ěęęęę",
      "ęĖ ęęĘę",
      "ęĖ ęėęęęę",
      "ęęĖ ĚęęĘ",
      "ęęĖ ěęęĖ",
      "ęęĜ Ęęęě",
      "ęęĜ ėęęĜ",
      "ęĚęęęę ęęė",
      "ęĚęęęę Ęęęęę",
      "ęĚęęęę ęĘęĚęęęę",
      "ęĚęęęę ęęęĘęęęęę",
      "ęĘęęęę ęęęĚęęęę",
      "ęĘęęęę ęęĚĚęęęę",
      "ęĘęęęę ęęĚĘęęęę",
      "ęĕ Ęęęęę",
      "ęĕ Ěęęęę",
      "ęĕ ęęęęĚ",
      "ęĕ ęĘęęĚ",
      "ęĝ ęęĜ",
      "ĘęęĚ ęĕ",
      "ęĚĚ ęęęĖ",
      "ęĚĚ ěęęė",
      "ęĚĚ ĜęęĘ",
      "ęĚĚ ĜęęĚ",
      "ęĚĚ ĘęęęęĚ",
      "ĚęęĚ ęęĚ",
      "ęęĕ ęĖ",
      "ęęĕ ęęęė",
      "ęĚĘ ęęęĖ",
      "ęĚĘ ĜęęĚ",
      "ęĚĘ ėęęęęĚ",
      "ęĘĚ ęęęė",
      "ęĘĚ ėęęě",
      "ęĘĚ ěęęė",
      "ęĘĚ Ĝęęęę",
      "ęĘĚ ĕęęęę",
      "ęĘĚ ĝęęęę",
      "ęĘĚ ĝęęĚ",
      "ęĘĘ ėęęě",
      "ęĘĘ ĚęęĖ",
      "ęĘĘ ęęęĘęęĚ",
      "ęĘĘ ĘęęĘę",
      "ęĘĘ ĝęęė",
      "ęęĝ ęęęĚ",
      "ęęęė ęęęęĚ",
      "ęęę #",
      "ęęę ĔęęĚ",
      "ėęęęę Ė",
      "ėęęęę ě",
      "ėęęęę ęęĘęęęę",
      "ėęęęę ěĘ",
      "ěęęęę ĕ",
      "ěęęęę ę",
      "ěęęęę ęęĘ",
      "ęĞ Ē",
      "ęĞ ē",
      "ęęĚęęęę ęęęĘęęęę",
      "ęęĚęęęę ęĘęęęęęę",
      "ęęĚęęęę ęęĚęęęęę",
      "ęęĔ ęĖ",
      "ęęĔ ęęęė",
      "ęęĔ ęĞ",
      "ėęęĚ ęęė",
      "ęĔ !",
      "ęĔ ęęĘ",
      "ęĔ ęęęęĚ",
      "ęĔ ěĝ",
      "ĀĀĘ ĀĚĚ",
      "ęĚě ĚęęĘ",
      "ęĚě ėęęĘ",
      "ęĚě ĚęęĜ",
      "ęĚě ĘęęĚę",
      "ĀĀę ĀĖĘ",
      "ĀĀę ĀĜĘ",
      "ęěĚ ěęęęę",
      "ęěĚ ėęęĘ",
      "ęěĚ ėęęě",
      "ęěĚ ĘęęĚę",
      "ęěĚ ĘęęęęĚĚ",
      "Ęęęė ęĜĘ",
      "ęĚė Ěęęęę",
      "ęĚė ĚęęĚ",
      "ĀĀĚ ĀĚĘ",
      "ęĘě Ęęęęę",
      "ęĘě ĖęęĚ",
      "ęĘě ėęęĜ",
      "ęĘě Ĝęęě",
      "ęĘė ĘęęĚ",
      "ęĘė ęęęėę",
      "ęėĚ ěęęęę",
      "ęėĚ ĚęęęęĘ",
      "ęėĚ ĚęęĜ",
      "ĀĀė ĀėĘ",
      "ęėĘ ĘęęĚ",
      "ęėĘ ěęęęę",
      "ęėĘ Ěęęě",
      "ęėĘ Ĝęęęę",
      "ęėĘ ĜęęĚ",
      "ęėĘ ĘęęĖ",
      "ęėĘ ĚęęęęĚ",
      "ęęē ęĕ",
      "ęē Ĕ",
      "ęē ęęĚ",
      "ęē ęęě",
      "ėęęě ę",
      "Ėęęęę ėĘ",
      "ęěě ęęęĘ",
      "ęěě ĚęęĘ",
      "ęěě ĘęęĜ",
      "ęěęęęę Ė",
      "ęęęĚęęęę ęęĘę",
      "ęęęĘęęęę ęęĘę",
      "ęęęĘęęęę Ěęęęęęę",
      "ęėęęęę ĝ",
      "ęěė ĜęęĘ",
      "ęěė ėęęĖ",
      "ĚęęęęĘ Ěęęęę",
      "ęĚęęĚ ęęęęęęęę",
      "ĚĘ ęę",
      "ĚĘ ĚęęĘ",
      "ęĘĘęęęę ęĚĚęęęę",
      "ęĚĘęęęę Ę",
      "ęĚĘęęęę ęęĘęęęę",
      "ęĜĚ Ęęęě",
      "ęĜĚ ĖęęĚ",
      "ĘęęęęĘ ę",
      "ěĚ ĘęęĚ",
      "ėĚ ęęē",
      "ęėě Ěęęęę",
      "ęėě ěęęęę",
      "ęėě Ęęęě",
      "ęėě ęęęĜ",
      "ęėě Ĝęęě",
      "ęĜĘ ęęęĚ",
      "ęĚęęęęĘ Ę",
      "ęĚęęęęĘ ęęęęęęęę",
      "ěĘ ęęĖ",
      "ęĚĖ ęęęė",
      "ęĚĖ Ěęęė",
      "ęĘĖ ėęęĘ",
      "ęĘĖ Ęęęė",
      "ęĘĖ ĘęęĖ",
      "ęĘęęęęĘ ęĚęęęę",
      "ęĖĚ Ěęęě",
      "ęĖĚ ęęęĖ",
      "ęĘęęęęĚ ęĚęęęę",
      "ęęęĘęęĚ ęęęĚę",
      "ęėĖ Ěęęė",
      "ęęęęĘĘ ĚęęĘ",
      "ęęęĘęęĘ ęęęęęęęęęęęę",
      "ęĜě ĘęęĚ",
      "ęĜě ěęęĚ",
      "ęĚęęęęĚ ęĚęęęę",
      "ęĚęęęęĚ ęĘęęęę",
      "ęęęęĚĚ Ęęęęę",
      "ęĖė ĚęęĘ",
      "ęĖė ěęęė",
      "ěě ęęĜ",
      "ěě ęęĝ",
      "ĀĀē Āē",
      "ęėĜ ĘęęĚ",
      "ęęđ ęĜ",
      "ėęęĖ ę",
      "ęĖĖ ęęęė",
      "ęĖě ĘęęĚ",
      "ęĖě Ęęęě",
      "ęěĖ Ęęęė",
      "ėė ęęĕ",
      "ęĚęĘęęęę Ěęęęęęę",
      "ĀĀđ ĀĖ",
      "ĀĀđ Āĕ",
      "ĀĀđ Āĝ",
      "ĀĀđ ĀĞ",
      "ĀĀđ Āğ",
      "ęĘĕ Ęęęė",
      "ęĚĝ ėęęě",
      "ęđ ė",
      "ěė ėęęĘ",
      "ęĕĚ ęęęĚ",
      "ęĚĕ ęęęĖ",
      "ęĚĕ ĚęęĖ",
      "ęĝĘ ęęęĘ",
      "ęĝĘ ėęęĘ",
      "ęęĘęęęĘ ęęęęęęęę",
      "ĜĘ ęęęĘ",
      "ęęĘĘęęęę ęęĘęęęę",
      "ĜĜ ęęĜ",
      "ęĕė ĚęęĘ",
      "ęĕė ĚęęĚ",
      "ĀĀ\" ĀĖ",
      "ĀĀ\" Āĝ",
      "ęĝĚ ėęęęę",
      "ĀĀĖĀ !",
      "ęĘĝ ĚęęĚ",
      "ĘĚ Ĝ",
      "ėĖ ę",
      "ęĚęĘ ęęęęęęęęęęę",
      "ĝĚ ęęĞ",
      "ęĚęĚęęęę ęęĚ",
      "ęĘĘęęęĘ ęęęęęęęę",
      "ĀĀĐ Āě",
      "ĀĀĐ Āĝ",
      "ĀĀ$ Āě",
      "ĀĀ# ĀĔ",
      "ĘĘ ğ",
      "ęĖĜ ęęęĚ",
      "ęĖĜ ęęęě",
      "ĞĚ ęęĝ",
      "ęěĕ ĘęęĘ",
      "ĀĀĎ ĀĚ",
      "ĀĀĎ ĀĜ",
      "Ĕęęęę Ė",
      "ęĘęĘ ęęĜ",
      "Ġĝ ęęĝ",
      "ęęęęęęęęęĚ ęęęĚę",
      "ęĝĜ Ęęęě",
      "ęĚĔ ęęęė",
      "ğĚ ęę",
      "ğĚ ęęĝ",
      "ĀĀ% Āě",
      "ĀĀ% Āĕ",
      "ĠĘ ęęğ",
      "ęĘęęęęęęĘ Ę",
      "ĀĀĚĀĘ Ę",
      "ĀĀ& ĀĘ",
      "ěĕ ė",
      "ĀĀ) ĀĘ",
      "ęĝęęęę ě",
      "ęĘęęęęęęęęęęęę ęĚęęęęęę",
      "ĀĀ' ĀĘ",
      "ęęĚęęęęęęĘ ęęęęęęęęęęęęę",
      "ğě ęęğ",
      "ęĚęė ęęĖ",
      "ęėęě ęęě",
      "ĀĀĈ Ā",
      "! ĀĀėĀ",
      "\" ęęĘ",
      "\" ęęĚ",
      "\" ĀĀĖ",
      "# %",
      "# ĕ",
      "& !",
      "& ĀĀ",
      "Ď Ę",
      "ď đ",
      "ď Ĝ",
      "Đ ď",
      "Đ ĀĀ",
      "Đ ęęĕ",
      "đ ęęęĘ",
      "Ē ęęĕ",
      "ē Ęęęė",
      "ē ęęē",
      "ē ęęęĖ",
      "ē Ĝęęė",
      "Ĕ ęęĒ",
      "Ĕ ėęęĖ",
      "Ĕ ěĜ",
      "Ĕ ĜĜ",
      "Ĕ ěĞ",
      "Ĕ ĕęęĕ",
      "ĕ \"",
      "ĕ ĀĀ",
      "ĕ Ěęęęę",
      "ĕ ęęĒ",
      "ĕ ěĚ",
      "ĕ Ĝęęė",
      "ĕ ęęęęĚĚ",
      "ĕ ĕęęĘ",
      "ĕ ęęęĔ",
      "Ė đ",
      "Ė Ěęęęę",
      "Ė ěęęė",
      "Ė Ĝęęė",
      "Ė ĕęęęę",
      "Ė ęęęęĚĚ",
      "Ė ĕęęĘ",
      "Ė ĜĞ",
      "Ė ēęęĘ",
      "Ė !ğ",
      "ė Ėęęě",
      "ė ęęęĕ",
      "ė Ĝęęė",
      "ė ęę\"",
      "ė ĕęęė",
      "ė ĝęęė",
      "ė ęęęęęęęęęęęĘ",
      "Ę Ė",
      "Ę ĀĀ",
      "Ę ėĚ",
      "Ę ęę!",
      "Ę ěě",
      "Ę ęęđ",
      "Ę ěĜ",
      "Ę ęę\"",
      "ę ĀĀ!Ā",
      "Ě !",
      "Ě Đ",
      "Ě ĀĀ",
      "Ě ęęęė",
      "Ě ęĞ",
      "Ě ěęęĚ",
      "Ě ĜęęĚ",
      "Ě ěęęě",
      "Ě ĕęęĚ",
      "Ě ĖĚ",
      "Ě ĝĚ",
      "Ě ęęęęęęęęęĘ",
      "Ě ĜĞ",
      "Ě ęęęęęęęęęęęęęęęęęę",
      "Ě ēĘ",
      "ě ĕęęĚ",
      "ě ĖĚ",
      "ě ĔęęĚ",
      "Ĝ Ď",
      "Ĝ ęĘ",
      "Ĝ ėęęęę",
      "Ĝ ěęęęę",
      "Ĝ ėĘ",
      "Ĝ ĚęęĜ",
      "Ĝ ěě",
      "Ĝ ęęęęĘĚ",
      "Ĝ ĀĀĘĀ",
      "Ĝ ĝęęęę",
      "Ĝ ęęĐ",
      "ĝ ęĜ",
      "ĝ ĚęęĚ",
      "ĝ ėęęě",
      "ĝ ėęęĜ",
      "ĝ Ĝęęě",
      "ĝ ěęęĜ",
      "ĝ ĖęęĜ",
      "ĝ ĀĀĖĀ",
      "ĝ ĖĘ",
      "Ğ ęęęĚ",
      "Ğ ęęęě",
      "ğ ěęęĜ",
      "ğ ĀĀėĀ",
      "ğ ĝęęě",
      "ğ ěęęĝ",
      "Ġ &",
      "Ġ đ",
      "Ġ ęę",
      "Ġ ęĜ",
      "Ġ ĀĜ",
      "Ġ ęęğ",
      "Ġ ĀĔ",
      "Ġ Ĝęęě",
      "Ġ ĀĀĔĀ",
      "Ġ ĕęęĜ",
      "Ġ ěęęĝ",
      "Ġ ĀĀęĀĘ",
      "Ġ ęęęğ",
      "Ġ ĀĀĖĀĚ",
      "Ġ ĀĀęĀė",
      "Ġ ĀĀėĀĖ",
      "ęę Ĉ",
      "ęęęę ĝ",
      "ęęęę ęęĜ",
      "ęĚ \"",
      "ęĚ đ",
      "ęĚ ęęęĘ",
      "ęĚ ęęĔ",
      "ęĚ ĝęęęę",
      "ęĚ ęęęęęęęęęĘ",
      "ęĚ ęěęęęęĘ",
      "ęĚ ęĜęęė",
      "ęĘ Ď",
      "ęĘ ęęęĚ",
      "ęĘ ęĝ",
      "ęĘ ĘęęĘę",
      "ęĘ ęėęęęęĚ",
      "ęĘ ęęęęęęęęęęęęęęęęęę",
      "ęĘ ęĜęęĚ",
      "ęĘ ęĖęęęęĘ",
      "ęęĘ Ěęęě",
      "ęęĘ ęęęĚę",
      "ęęĘ ęęĚę",
      "ęęĚ ęęęęĚ",
      "ęęĚ ėęęĘ",
      "ęęĚ Ęęęė",
      "ęęĚ Ėęęęę",
      "ęęĚ ęęęęęęęęęęę",
      "ęęĚ ĚęęĜ",
      "ĀĀ Ć",
      "ęě Đ",
      "ęě ĀĀ",
      "ęě ęęęęęęęęęęęę",
      "ęě Ęęęě",
      "ęě ěęęĚ",
      "ęě ĜęęĚ",
      "ęě ęĘęęęęĚ",
      "ęě ęęěę",
      "ęė ęĕ",
      "ęė Ěęęė",
      "ęė ĕęęęę",
      "ęė ęĖęęęę",
      "ęė Ęęęęęę",
      "ęė ęĜęęĘ",
      "ęė ęĘęęė",
      "ęęęęęęęę ęė",
      "ęęęęęęęę ęĚęęęę",
      "ęęęęęęęę ěęęęę",
      "ęęęęęęęę ėĘ",
      "ęęęęęęęę ęęęĘęęęęęę",
      "ęęě ęęė",
      "ęęě ęęĘę",
      "ęęě Ėęęęę",
      "ęęě ĘęęĜ",
      "ęęě ĝęęęę",
      "ęęě ĝęęĚ",
      "ęęė ęĝ",
      "ęęė ęęęě",
      "ęęė ėęęė",
      "ęęė Ĝęęęę",
      "ęęė ĝęęĘ",
      "Ęęęęę ęęęě",
      "Ęęęęę ęĚĚęęęę",
      "Ęęęęę ěĜ",
      "Ěęęęę Ĕ",
      "Ěęęęę ęęĚę",
      "Ěęęęę ęęĚĚęęęę",
      "ęęęĚ Ěęęęę",
      "ęęęĚ ęęęęĘĘ",
      "ęęęĚ ęęęęĘĚ",
      "ęęęĘ ęęęęęęęęęęęęęęęę",
      "ęĜ Đ",
      "ęĜ ěęęě",
      "ęĜ ęĖęęĘ",
      "ęĜ ęĚęęė",
      "ęĜ ęėęęė",
      "ęĖ \"",
      "ęĖ đ",
      "ęĖ ęĘęęĘ",
      "ęĖ ęěęęĘ",
      "ęęĖ ĖęęĘ",
      "ęęĖ ĘęęĖ",
      "ęęĜ Ęęęęę",
      "ęęĜ Ėęęě",
      "ęęĜ ĘęęĜ",
      "ęĚęęęę ęĚĘęęęę",
      "ęĚęęęę ęĚĚęęęę",
      "ęĘęęęę ęęĝ",
      "ęĘęęęę ęĘĘęęęę",
      "ęĘęęęę ĚęęęęęęĚ",
      "ęĘęęęę ęęęĘęęęęę",
      "ęĕ ęęęęĘ",
      "ęĕ ęěęęĘ",
      "ęĕ ęěęęĚ",
      "ĘęęĘ ęĞ",
      "ĘęęĘ ęėĚ",
      "ęĚĚ ęęęęęęęę",
      "ęĚĚ Ęęęė",
      "ęĚĚ ĖęęĘ",
      "ęĚĚ ĚęęĖ",
      "ęĚĚ ęęęĚęęĚ",
      "ęĚĚ ĘęęęęĘĘ",
      "ęęĕ ęęĚ",
      "ęęĕ ęęęĖ",
      "ęęĕ ĚęęĖ",
      "ęĚĘ ěęęĖ",
      "ęĚĘ ěęęęęĘ",
      "ęĚĘ Ěęęėę",
      "ęĘĚ Ěęęė",
      "ęĘĚ ĘęęęęĘ",
      "ęĘĚ ęęęęęęęęęęę",
      "ęĘĚ ĘęęĜ",
      "ęĘĚ Ĝęęė",
      "ęĘĚ ĚęęĜ",
      "ęĘĚ ęęęĚęęĘ",
      "ęĘĚ ěęęęęĘ",
      "ęĘĚ ĘęęĞ",
      "ęĘĚ ěęęĚę",
      "ęĘĚ ĚęęęęĘĚ",
      "ęĘĘ ęęęĜ",
      "ęĘĘ ęęęĖ",
      "ęĘĘ Ĝęęęę",
      "ęĘĘ Ęęęĕ",
      "ęĘĘ ěęęęęĚ",
      "ęĘĘ ėęęęęĘ",
      "ęęĝ ĘęęĚ",
      "ęęęė ęęęęęęĚ",
      "ęęęě ęęĖ",
      "ęęę $",
      "ėęęęę ěė",
      "ěęęęę ĝ",
      "ęĞ !",
      "ęęęęęęęęęęęę ęęęĚ",
      "ęęęęęęęęęęęę ęĚęęęęęę",
      "ęęęęęęęęęęęę ęĘęęęęę",
      "ęęęęęęęęęęęę ęĚęęęęę",
      "ęęĘęęęę ęęě",
      "ęęĘęęęę ęęė",
      "ęęĘęęęę ęęęĘęęęę",
      "ęęĚęęęę ęĘęęęę",
      "ęęĚęęęę ęĚĘęęęę",
      "ęęĚęęęę ęęĚę",
      "ęęĔ ęĝ",
      "ęęĔ ęĚĘ",
      "ęęĔ ęėė",
      "ęĔ đ",
      "ęĔ ęęė",
      "ęęĞ ęĜ",
      "ęęĞ ęĝ",
      "ęĚě Ėęęęę",
      "ęĚě ĜęęĚ",
      "ęĚě ěęęě",
      "Ęęęě ęėĚ",
      "ęěĘ ęęęĚ",
      "ęěĘ ěęęė",
      "ęěĘ ĘęęęęĚĘ",
      "ęěĚ Ěęęė",
      "ęěĚ Ęęęė",
      "ęěĚ Ěęęě",
      "ęěĚ ĜęęĚ",
      "ęěĚ Ėęęě",
      "ęěĚ ĘęęĜ",
      "ęěĚ ĕęęĚ",
      "ęĚė ęęęĚ",
      "ęĚė ėęęęę",
      "ęĚė ėęęĚ",
      "ęĚė ĘęęĖ",
      "ęĚė ęęęĕ",
      "ęĚė ĘęęĘę",
      "ęĚė Ěęęĕ",
      "ęĘě ĘęęĜ",
      "ęĘě ěęęĜ",
      "ęĘě ĖęęĜ",
      "ęĘė ėęęęę",
      "ęĘė ėęęĘ",
      "ęĘė ĘęęĖ",
      "ęĘė ĚęęĖ",
      "ęĘė ĝęęĘ",
      "ęėĚ Ěęęė",
      "ęėĚ ĚęęĚę",
      "ęėĘ ęęęě",
      "ęėĘ ěęęĚ",
      "ęėĘ ėęęė",
      "ęėĘ ěęęęęĘ",
      "ęęęĜ ęęĘęęęė",
      "ĀĀě ĀĚĚ",
      "ĀĀě ĀėĘ",
      "ęęęĖ ęęě",
      "Ėęęęę ĕĘ",
      "ęěě ĘęęĘ",
      "ęěě ĖęęĚ",
      "ęěě ęęęĚę",
      "ęěě ěęęě",
      "ęěě ĘęęĚę",
      "ęěęęęę ę",
      "ęěęęęę ĝ",
      "ęěęęęę ęęě",
      "ęěęęęę ęęěęęęę",
      "ęęęĚęęęę ęęĚę",
      "ęęęĘęęęę ęęĚęęęę",
      "ĚĚ Ę",
      "ĚĚ Ğ",
      "ĚĚ ęęğ",
      "ĚĚ ĘęęĚę",
      "ęėęęęę Ė",
      "ęėęęęę Ĝ",
      "ęėęęęę ęęě",
      "ęėęęęę ęęĖ",
      "ęėęęęę ĘęęĘ",
      "ęěė ėęęęę",
      "ęěė ěęęė",
      "ęėė ěęęęę",
      "ęėė ęęęĖ",
      "ęėė ĝęęĘ",
      "ěęęė ęė",
      "ĚęęęęĘ ĚĚęęęę",
      "ĀĀĜ ĀĚĘ",
      "ĀĀĜ ĀĚĚ",
      "ĚĘ ĝ",
      "ĚĘ ĘęęĘ",
      "ĚĘ ęęĝ",
      "ęęĒ ę",
      "ęęĒ ęĞ",
      "ęĘĘęęęę ęęĚęęęę",
      "Ĝęęęę ėĘ",
      "Ĝęęęę Ĝě",
      "ęĚĘęęęę Ě",
      "ęĚĘęęęę ęęĚ",
      "ęĚĚęęęę ęĚĚęęęę",
      "ęĚĜ Ęęęęę",
      "ęĚĜ ęęęĜ",
      "ęĚĜ ěęęě",
      "ĘęęęęĘ Ęęęęę",
      "ěĚ ęęĖ",
      "ěĚ ęęĞ",
      "ęėě ĖęęĜ",
      "ėĘ Ěęęęę",
      "ėĘ ęęĜ",
      "ęĜĘ Ěęęė",
      "ęĜĘ ĖęęĚ",
      "ęĜĘ ĖęęĘ",
      "ęĘĜ ĘęęĜ",
      "ęĘĜ Ĝęęě",
      "ęĚęęęęĘ ęĘęęęę",
      "ęĚęęęęĘ ęĚęęęęĘ",
      "ěĘ ĝ",
      "ěĘ ęę",
      "ěĘ ęęğ",
      "ěĘ ĖęęĘ",
      "ęĚĖ ęęęĚ",
      "ęĚĖ ĖęęĘ",
      "ęĚĖ ĜęęĘ",
      "ęĚĖ ĚęęĖ",
      "ęĚĖ ěęęĖ",
      "ĀĀĔ ĀĚĘ",
      "ęĖĘ ěęęęę",
      "ęĖĘ ěęęĘ",
      "ęĖĘ ěęęĚ",
      "ęĘĖ ěęęė",
      "ęĘĖ ěęęĖ",
      "ęĘĖ ĝęęĘ",
      "ęĘĚęęęę ęĘęęęęęę",
      "ęĒ Ē",
      "ęĒ Ğ",
      "ęĒ ğ",
      "ęĒ ęęĚ",
      "ęĘęęęęĘ Ę",
      "ęĖĚ ęęęĘ",
      "ęĖĚ ĘęęĚ",
      "ęĖĚ Ěęęė",
      "ęĖĚ ěęęě",
      "ĚęęęęĚ ę",
      "ĚęęęęĚ Ěęęęęę",
      "ęěĜ ęęęĘ",
      "ęěĜ ĚęęĚ",
      "ęěĜ ęęęĜ",
      "ęěĜ ĘęęĜ",
      "ĀĀğ Āğ",
      "ĀĀğ Āē",
      "ęėĖ ėęęĘ",
      "ęėĖ ěęęė",
      "Ĝęęė ę",
      "ĕęęęę ěĘ",
      "ęęęĘęęĘ ęęęĘę",
      "ęĜě Ěęęě",
      "ęęęĝ ęęĚ",
      "ęĖė ĚęęĚ",
      "ęĖė ėęęĚ",
      "ěě ě",
      "ěě ęęęĚ",
      "ěě ĚęęĚ",
      "ęėĜ Ěęęě",
      "ĀĀĒ Āē",
      "ĕęęĚ ęĔ",
      "ęĜė ĘęęĘ",
      "ęĜė ėęęĘ",
      "ęęęĚęęĘ ęęęęęęęę",
      "ęĜĜ ęęęě",
      "ęĜĜ Ęęęě",
      "ęĜĜ ĖęęĚ",
      "ęęęęĚĘ Ěęęęę",
      "ęĖĖ Ěęęė",
      "ęĖĖ ěęęĖ",
      "ęĖě ĚęęĚ",
      "ęĖě ęęęě",
      "ęěĖ ĘęęĘ",
      "ėė ě",
      "ėė ęęęĘ",
      "ėė ęęĝ",
      "ėė ěęęĘ",
      "ę! ğ",
      "ęęęĚęęĚ ęęęĘ",
      "ĀĀđ ĀĔ",
      "ęĖęęęę ė",
      "ęĖęęęę ęę",
      "ęĘĕ ęęęė",
      "ęĚĝ ĚęęĚ",
      "ęĚĝ ĘęęĜ",
      "ęĘĚęęęĚ ęęęęęęęę",
      "ęđ Ĝ",
      "ęđ ęęĚ",
      "ěė Ĝ",
      "ěė ęęĝ",
      "ęĚĕ ęęęĘ",
      "ęĚĕ ĚęęĘ",
      "ęĚĕ Ęęęė",
      "ęĝĘ ėęęĚ",
      "ĜĘ ęęĝ",
      "ĜĘ ęęĞ",
      "ĕĚ !",
      "ęĜęęęę ęę",
      "ęĕė ĘęęĘ",
      "ęĕĘ ęęęĘ",
      "ęĕĘ ĚęęĚ",
      "ĀĀ\" ĀĜ",
      "ĀĀ\" ĀĔ",
      "ęĝĚ ęęęĜ",
      "ęĘĝ Ěęęě",
      "ęĘĝ ęęęĜ",
      "ęĘĝ Ėęęě",
      "ęěĝ ęęęĚ",
      "ęěĝ ėęęě",
      "ęĘęĚ ęęĖ",
      "ĘĚ ě",
      "ėĖ ĝ",
      "ėĖ ęęĖ",
      "ėĖ ęęĕ",
      "ĀĀĚĀ ęĕ",
      "ĖĘ ęęĒ",
      "ĝĚ Ĝ",
      "ĝĚ ęę",
      "ĝĚ ęęğ",
      "ęęęęęęęęęĘ ĘęęĘ",
      "ěĞ ęęęę",
      "ěĞ ęęĚ",
      "ęĜĖ ęęęĖ",
      "ęĜĖ ĖęęĚ",
      "ėĜ ęęĔ",
      "ĀĀ# ĀĖ",
      "ĀĀ# Āē",
      "ĘĘ ĝ",
      "ĘĘ ęęĔ",
      "ęėĕ ęęęĘ",
      "ęėĕ ęęęė",
      "ę\" Ě",
      "ĀĀď ĀĚ",
      "ĀĀď Āě",
      "ĀĀď ĀĜ",
      "ĀĀď ĀĔ",
      "ęĝě ĚęęĚ",
      "ęĝě ęęęě",
      "Ėĝ ęęĕ",
      "ĞĚ ęęĞ",
      "ęěĕ ęęęĘ",
      "ęěĕ ęęęė",
      "ęĜĝ ęęęĚ",
      "ęĚęĚ ęęĘę",
      "ęĚęĚ ęęęęęęęęęęę",
      "ĠĚ ęęĝ",
      "ęęęęęęęęĚ ęĘęęęę",
      "ęĘęě ęęĖ",
      "ĀĀĘĀĘ Ę",
      "ęėęęęęĘ ę",
      "ęĝė ĘęęĘ",
      "ĘęęęęęęĘ ęęĘ",
      "ęĘęĘęęĚ ę",
      "ęĖĕ ĚęęĘ",
      "ęěĞ ĘęęĚ",
      "ęĚęęęęęęĘ ĚęęęĚę",
      "ĝĞ ęęĚ",
      "ęęĚęęĘ ėęęĘ",
      "ęęęęęęęęęęęĚ ęĚęęęę",
      "ĀĀĚĀĘ Ě",
      "ĕě ęęē",
      "ĀĀėĀĘ Ę",
      "ęĕě ĚęęĚ",
      "ęĕě ěęęĚ",
      "ęęĚęęęęęęĚ ęęęęęęęę",
      "ēĚ ęęē",
      "ĝě ęęĞ",
      "ĀĀ) ĀĚ",
      "ęĝęęęę ė",
      "ęĕęęęę ě",
      "ĘĞ ğ",
      "ĒĚ ęęĔ",
      "ğĞ ęęě",
      "ĀĀĚĀĚ Ğ",
      "ęęęėęęĘ ęęęĚ",
      "ěğ ĝ",
      "ĀĀ' Āė",
      "ęĝĝ ĘęęĚ",
      "ĀĀėĀě ě",
      "ęėĔ ęęęė",
      "ęĘęęęęęęęę Ěęęęę",
      "ęěęĘęęĚ ę",
      "ĒĞ \"",
      "Ěĝ !",
      "ęęęęęęęęęęęęęęęęęęęęęęęęęęęęęęęę ę",
      "ėęęęęĚĚ ėęęĚ",
      "ęĚęě ęęě",
      "ĀĀ+ Āě",
      "ĀĀ* ĀĘ",
      "ėęęęęĚĘ ĘęęĘ",
      "ęęęęęęęęęęęęęĚ ę",
      "ĀĀ. Ā",
      "ĀĀ/ Ā",
      "! ęęęę",
      "! Ěęęě",
      "! ęęęĜ",
      "! ĀĀęĀ",
      "! ĀĀĖĀ",
      "\" ěĘ",
      "# #",
      "# ĝ",
      "# ęęĘ",
      "# ĀĀĝĀ",
      "# Ĝęęĝ",
      "$ ĕ",
      "$ ĀĀ",
      "% !",
      "% Ē",
      "% ĕ",
      "% Ě",
      "% Ĝ",
      "% ĝ",
      "% ğ",
      "& ĕ",
      "& ě",
      "& ĝ",
      "& ĀĀĕĀĖ",
      "' Ę",
      "' Ğ",
      "* Ě",
      "Ď đ",
      "Ď Ğ",
      "Ď ęęĘ",
      "ď ď",
      "ď Đ",
      "ď ĝ",
      "ď ğ",
      "ď ęęĖ",
      "ď ęęĕ",
      "ď ęęĝ",
      "Đ Ď",
      "Đ ęęĖ",
      "Đ Ėęęĕ",
      "đ ęė",
      "đ ęęĝ",
      "đ ęęęĖ",
      "đ ęęĐ",
      "đ ĘĘ",
      "Ē ęęğ",
      "Ē ĘĚ",
      "Ē ĜĞ",
      "Ē ėĞ",
      "Ē ĔĚ",
      "Ē ěğ",
      "ē \"",
      "ē $",
      "ē %",
      "ē ĀĀ",
      "ē ęęęĘ",
      "ē ęęęęĘ",
      "ē ėęęĘ",
      "ē ęęĒ",
      "ē ėĚ",
      "ē ęęđ",
      "ē Ėęęė",
      "ē ęę\"",
      "ē ęę#",
      "ē Ĝĝ",
      "ē ĝĞ",
      "ē ĝğ",
      "Ĕ #",
      "Ĕ Ē",
      "Ĕ ğ",
      "Ĕ ĚęęĘ",
      "Ĕ ěęęęę",
      "Ĕ ěęęĘ",
      "Ĕ ęęęĖ",
      "Ĕ ėęęė",
      "Ĕ ĜęęĘ",
      "Ĕ ĘęęĖ",
      "Ĕ ěĝ",
      "Ĕ ęę\"",
      "Ĕ ĕĘ",
      "ĕ ęė",
      "ĕ ęĚęęęę",
      "ĕ ėęęĘ",
      "ĕ Ěęęě",
      "ĕ ėęęė",
      "ĕ ĕęęęę",
      "ĕ ęęđ",
      "ĕ Ėęęė",
      "ĕ ěĞ",
      "ĕ ėĞ",
      "ĕ ĒĘ",
      "ĕ ğě",
      "Ė ĚęęĚ",
      "Ė ęęęě",
      "Ė Ėęęęę",
      "Ė ěęęĖ",
      "Ė Ėęęė",
      "Ė ĀĀĘĀ",
      "Ė ĀĀęĀ",
      "Ė ĜĜ",
      "Ė ĖĘ",
      "Ė ęę$",
      "Ė Ĕě",
      "ė #",
      "ė Ęęęě",
      "ė ęęęĜ",
      "ė ĘęęęęĚ",
      "ė ĕęęęę",
      "ė ĕęęĚ",
      "ė ĝęęĘ",
      "ė ęęęĞ",
      "ė ĚęęĘę",
      "ė Ĝě",
      "ė ĘęęĘę",
      "ė Ěęęęęę",
      "ė ĕĘ",
      "ė ęę#",
      "ė ĕě",
      "ė ęęĚęęęęęęĘ",
      "ė \"ğ",
      "Ę &",
      "Ę ęĚ",
      "Ę ėęęĚ",
      "Ę ęęęęęęęęęęęęęęęę",
      "Ę ĚĚ",
      "Ę ĘęęĖ",
      "Ę ĖĚ",
      "Ę ěĝ",
      "Ę ĜĚ",
      "Ę ĘęęĘę",
      "Ę ĘĚ",
      "Ę ěĞ",
      "Ę ĖĜ",
      "ę '",
      "ę Ĉ",
      "ę ĀĀėĀ",
      "ę ĀĀĝĀ",
      "ę ĀĀēĀ",
      "ę ĀĀěĀĘ",
      "ę ĀĀĕĀě",
      "Ě ė",
      "Ě ęĕ",
      "Ě ĘęęĘ",
      "Ě ěęęĘ",
      "Ě ĚęęęęĘ",
      "Ě ęęĒ",
      "Ě ěĚ",
      "Ě ęęđ",
      "Ě ęę\"",
      "Ě ĕĚ",
      "Ě ėě",
      "Ě ėĜ",
      "Ě ėĝ",
      "Ě ěęęęęĚ",
      "Ě ęęęęęęęęęęęĘ",
      "Ě ĝĜ",
      "Ě ĖĜ",
      "Ě Ėęęğ",
      "Ě Ĕę",
      "Ě ĕę",
      "ě ęĖ",
      "ě ęęęęęęęęęęęę",
      "ě ěęęė",
      "ě ĜęęĘ",
      "ě ĘęęęęĘ",
      "ě ěĘ",
      "ě Ėęęě",
      "ě Ĝęęė",
      "ě ĀĀęĀ",
      "ě ęęęěę",
      "ě ēęęĚ",
      "ě !Ĝ",
      "ě ęęęęĘĚĚęęęę",
      "Ĝ ď",
      "Ĝ ęĕ",
      "Ĝ ĘęęĘ",
      "Ĝ ĚęęĘ",
      "Ĝ ęęē",
      "Ĝ ęęęĜ",
      "Ĝ ĖęęĚ",
      "Ĝ ėĚ",
      "Ĝ Ėęęě",
      "Ĝ ěĜ",
      "Ĝ ĝęęĚ",
      "Ĝ ĕĚ",
      "Ĝ Ėě",
      "Ĝ ĀĀěĀ",
      "Ĝ ėĝ",
      "Ĝ ĕęęĜ",
      "Ĝ ĕĜ",
      "ĝ ęě",
      "ĝ Ěęęęę",
      "ĝ ęğ",
      "ĝ ĚĚ",
      "ĝ ĖęęĘ",
      "ĝ ěęęě",
      "ĝ Ėęęě",
      "ĝ ĘęęĜ",
      "ĝ ęęĚę",
      "ĝ ęęęęĚĚ",
      "ĝ ěě",
      "ĝ ĜęęĖ",
      "ĝ ĝĚ",
      "ĝ ėęęĝ",
      "Ğ ĘęęĚ",
      "Ğ ěęęęę",
      "Ğ ęęęĝ",
      "Ğ ęęęĞ",
      "Ğ ĝęęě",
      "Ğ ĝĝ",
      "ğ $",
      "ğ ĕ",
      "ğ ęĞ",
      "ğ ęęęĜ",
      "ğ ĘęęĜ",
      "ğ ĀĀěĀ",
      "ğ ěĕ",
      "ğ Ęęęğ",
      "Ġ ď",
      "Ġ ęĚ",
      "Ġ ęė",
      "Ġ ęĕ",
      "Ġ ęĝ",
      "Ġ ęęęęĚ",
      "Ġ ęęęě",
      "Ġ ęĞ",
      "Ġ ęĔ",
      "Ġ ęěĘ",
      "Ġ Ěęęě",
      "Ġ ęęē",
      "Ġ ęğ",
      "Ġ ĀĞ",
      "Ġ ęĘĜ",
      "Ġ ęĘĖ",
      "Ġ ĀĀĞ",
      "Ġ ĚęęĜ",
      "Ġ ęę!",
      "Ġ ěęęĜ",
      "Ġ ę!",
      "Ġ ĝęęě",
      "Ġ ĜęęĜ",
      "Ġ Ėęęĝ",
      "Ġ ĀĀĞĀ",
      "Ġ ĀĀēĀ",
      "Ġ Ĕęęĝ",
      "ęę '",
      "ęę (",
      "ęĚ Đ",
      "ęĚ ęĝ",
      "ęĚ ęęđ",
      "ęĚ ęėęęęęĚ",
      "ęĚ ęęęęęęęęęęęĘ",
      "ęĚ ęĝęęęę",
      "ęĚ ęėęęė",
      "ęĘ ęĖ",
      "ęĘ ęĕ",
      "ęĘ ĚęęęęĘ",
      "ęĘ Ĝęęęę",
      "ęĘ ĝęęĘ",
      "ęĘ ĚęęĚę",
      "ęĘ ęĖęęĘ",
      "ęĘ ęęęęęęęęęęęęęęęęęęę",
      "ęĘ ęĕęęĘ",
      "ęęĘ ęĖ",
      "ęęĘ ęęęęĚ",
      "ęęĘ ęęĘę",
      "ęęĘ Ĝęęęę",
      "ęęĘ ĜęęĘ",
      "ęęĘ ĜęęĚ",
      "ęęĘ ĘęęęęĘ",
      "ęęĘ ęęęĕ",
      "ęęĘ ěęęĖ",
      "ęęĘ ĝęęęę",
      "ęęĘ ěęęęęĚ",
      "ęęĘ ĚęęęęĘĘ",
      "ęęĚ ęęęęĘ",
      "ęęĚ ęęęęęęęęęęęęęęęę",
      "ęęĚ ěęęě",
      "ęęĚ ĚęęęęĚ",
      "ęęĚ ĘęęęęĚ",
      "ęęĚ ěęęĜ",
      "ęęĚ ĔęęĚ",
      "ęęĚ ėęęĝ",
      "ĀĀ Ă",
      "ęě \"",
      "ęě ď",
      "ęě ę",
      "ęě ęĜęęęę",
      "ęě ęĜęęĘ",
      "ęě ęĖęęĘ",
      "ęě ęĖęęě",
      "ęě ĖĚęęĕ",
      "ęě ęĘęęĕ",
      "ęě ĖĚęęĔ",
      "ęė ęğ",
      "ęė ęęĘę",
      "ęė ĜęęĘ",
      "ęė ęėęęĚ",
      "ęė ĘęęĘę",
      "ęė ęĚęęęęęęĚ",
      "ęė ęĝęęęę",
      "ęė ęĚęęĜ",
      "ęė ęėęęĝ",
      "ęęęęęęęę ė",
      "ęęě ęęęė",
      "ęęě Ęęęė",
      "ęęě ěęęė",
      "ęęě Ĝęęęę",
      "ęęě ěęęě",
      "ęęě ęĘĖ",
      "ęęě ęęęĘęęĚ",
      "ęęě ĖęęĜ",
      "ęęě ĚęęĚę",
      "ęęė ęęĖ",
      "ęęė ĚęęĚ",
      "ęęė ęęęęĚ",
      "ęęė ęęęĖ",
      "ęęė ĘęęęęĚ",
      "ęęė ęęęęęęĚ",
      "ęęė ĚęęĘę",
      "ęęė ęęęĔ",
      "Ęęęęę Ė",
      "Ęęęęę ęęęĚęęęę",
      "Ęęęęę ĖĚ",
      "Ęęęęę ęĘęęęęęę",
      "Ęęęęę ĚęęęęęęĚ",
      "Ěęęęę ĕ",
      "Ěęęęę ĘęęĚ",
      "Ěęęęę ęęĝ",
      "Ěęęęę ěęęęę",
      "Ěęęęę ęęĘę",
      "Ěęęęę ęęęĚęęęę",
      "Ěęęęę ęĘĘęęęę",
      "Ěęęęę ėě",
      "Ěęęęę ěĖ",
      "Ěęęęę ęęĘęęęęęę",
      "ęęęĚ ęė",
      "ęęęĚ ęĕ",
      "ęęęĚ ęęĕ",
      "ęęęĚ ęĘĚ",
      "ęęęĚ ęĖĘ",
      "ęęęĚ ęęęęĚĚ",
      "ęęęĚ ęĚęĘęęęę",
      "ęęęĚ ęęĘęęęęęęĚ",
      "ęęęĘ ęęĘęęęę",
      "ęęęĘ ęěĚ",
      "ęęęĘ ęęęęĚĘ",
      "ęęęĘ ęęęęęęęęęĚ",
      "ęęęĘ ęĞĘ",
      "ęĜ #",
      "ęĜ ęęĜ",
      "ęĜ ėęęě",
      "ęĜ ęĖęęęę",
      "ęĜ ęěęęĘ",
      "ęĜ ęėęęĚ",
      "ęĜ ęĖęęė",
      "ęĜ ėĚęęĖ",
      "ęĖ ęęĞ",
      "ęĖ Ěęęė",
      "ęĖ ęĜęęęę",
      "ęĖ ęĖęęĚ",
      "ęĖ ęĘęęě",
      "ęęĖ ěęęĘ",
      "ęęĖ ėęęĘ",
      "ęęĖ ęĚė",
      "ęęĖ ęęęĖ",
      "ęęĖ Ėęęė",
      "ęęĖ Ěęęĕ",
      "ęęĜ ęęęęĚ",
      "ęęĜ ěęęě",
      "ęęĜ ęĜĘ",
      "ęęĜ ĞęęĚ",
      "ęĚęęęę ęęĖ",
      "ęĚęęęę ėęęęę",
      "ęĚęęęę ĚĘ",
      "ęĚęęęę ęęěęęęę",
      "ęĚęęęę ĘęęęęęęĘ",
      "ęĚęęęę ęęĚęęęęęę",
      "ęĘęęęę Ěęęė",
      "ęĘęęęę ęęęĘęęęę",
      "ęĕ ęę",
      "ęĕ ęĚęęęę",
      "ęĕ ėęęęę",
      "ęĕ ėęęĘ",
      "ęĕ Ęęęė",
      "ęĕ ęęē",
      "ęĕ Ėęęęę",
      "ęĕ ęěęęęę",
      "ęĕ ęĚęęě",
      "ęĕ ĚĘęęĜ",
      "ęĝ ėęęęę",
      "ęĝ ęĚęęė",
      "ęĝ ęėęęĖ",
      "ĘęęĚ ęĕĚ",
      "ĘęęĘ ęęĝ",
      "ĘęęĘ ęĚě",
      "ĘęęĘ ęěĘ",
      "ĘęęĘ ęęĚĚęęĚ",
      "ĚęęĘ ęęęęęęęę",
      "ęĚĚ Ěęęė",
      "ęĚĚ ĚęęęęĘ",
      "ęĚĚ ęęęęęęęęęęę",
      "ęĚĚ ęęęĚęęĘ",
      "ęĚĚ ĖęęĜ",
      "ęĚĚ ěęęęęĘ",
      "ęĚĚ ėęęęęĚ",
      "ęĚĚ ĜęęĜ",
      "ĚęęĚ ęęĚęęęę",
      "ĚęęĚ ęĘě",
      "ęęęęĘ ęĘęęęę",
      "ęęęęĘ ęęęęęęęęęęęęę",
      "ęęĕ ę",
      "ęęĕ ęęęę",
      "ęęĕ ęęě",
      "ęęĕ ęĜ",
      "ęęĕ ėęęĘ",
      "ęęĕ ęĚė",
      "ęęĕ ĖęęĘ",
      "ęęĕ ěęęĖ",
      "ęęĕ Ėęęė",
      "ęęĕ ěęęĔ",
      "ęĚĘ ěęęĚ",
      "ęĚĘ Ěęęě",
      "ęĚĘ ęęęĚę",
      "ęĚĘ Ĝęęęę",
      "ęĚĘ ĘęęĖ",
      "ęĚĘ ĚęęĖ",
      "ęĚĘ ĚęęęęĚ",
      "ęĚĘ ĝęęĘ",
      "ęĚĘ ěęęęęĚ",
      "ęĚĘ ėęęęęĘĚ",
      "ęĘĚ ĜęęĘ",
      "ęĘĚ Ėęęě",
      "ęĘĚ Ĝęęě",
      "ęĘĚ ĝęęĘ",
      "ęĘĚ Ěęęěę",
      "ęĘĘ ęęĖ",
      "ęĘĘ ĖęęĚ",
      "ęĘĘ ěęęě",
      "ęĘĘ ęęęęęęęęęęę",
      "ęĘĘ ĚęęęęĚ",
      "ęĘĘ Ĝęęė",
      "ęĘĘ ĕęęĚ",
      "ęĘĘ ėęęĜ",
      "ęĘĘ ĘęęĚę",
      "ęĘĘ ĚęęĚę",
      "ęĘĘ ěęęęęĘ",
      "ęĘĘ ęęęęęęęęęęęęęęęęęęę",
      "ęĘĘ ęęęęęęęęęęĚ",
      "ęęĝ ęęęę",
      "ęęĝ Ěęęě",
      "ęęĝ ėęęě",
      "ęęęė ęęĘę",
      "ęęęė ęęęęĘĘ",
      "ęęęė ęęĚęęęě",
      "ęęęě ęęęęęęĘ",
      "ėęęęę Ğ",
      "ėęęęę ęęě",
      "ėęęęę ėė",
      "ėęęęę ĜĘ",
      "ėęęęę ėě",
      "ěęęęę ęęęĘ",
      "ěęęęę ęęĘęęęę",
      "ęĞ ęĚęęė",
      "ęęęęęęęęęęęę Ěęęęęęę",
      "ęęĘęęęę ęĘĘęęęę",
      "ęęĘęęęę ęĘęęęęęę",
      "ęęĚęęęę ęĚĚ",
      "ęęĚęęęę ęęĘęęęęę",
      "ęęĔ ęęĔ",
      "ęęĔ Ěęęĕ",
      "ėęęĚ ęęęĚęęęę",
      "ėęęĚ ęĘĘęęęę",
      "ęĔ Ęęęęę",
      "ęĔ ęęęęĘ",
      "ęĔ ęęęęė",
      "ęęĞ ęęĘ",
      "ęęĞ ęĕ",
      "ęęĞ ęęęě",
      "ęęĞ ęĔ",
      "ęęĞ ęęęĝ",
      "ěęęĘ ęėĘ",
      "ęĚě ęęęė",
      "ęĚě ěęęęę",
      "ęĚě ĘęęĜ",
      "ęĚě ĘęęęęĚ",
      "ĀĀę ĀėĘ",
      "Ęęęě ęĚĖ",
      "ęěĘ Ĕ",
      "ęěĘ ęęęě",
      "ęěĘ ĜęęĘ",
      "ęěĘ ĚęęęęĚĘ",
      "ęěĚ ęęęĜ",
      "ęěĚ ĚęęęęĚ",
      "ęěĚ Ĝęęě",
      "ęěĚ ěęęĜ",
      "ęěĚ ĘęęęęĘĘ",
      "ęěĚ Ęęęěę",
      "Ěęęė ęęĚ",
      "Ęęęė ęē",
      "Ęęęė ęĒ",
      "Ęęęė ęĖĚ",
      "ęĚė ęęęęĘ",
      "ęĚė ěęęęę",
      "ęĚė ěęęĚ",
      "ęĚė ėęęĝ",
      "ęĚė Ęęęėę",
      "ĀĀĚ ĀěĘ",
      "ĀĀĚ ĀĞĚ",
      "ęĘě ęęęĘ",
      "ęĘě ěęęě",
      "ęĘě ĝęęĚ",
      "ęĘě ĝęęě",
      "ęĘė Ęęęě",
      "ęĘė ęęęĖ",
      "ęĘė ĖęęĘ",
      "ęĘė ěęęĖ",
      "ęĘė ĚęęĘę",
      "ęėĚ ĘęęĘ",
      "ęėĚ ėęęęę",
      "ęėĚ ęęęęęęęęęęęę",
      "ęėĚ ĜęęĘ",
      "ęėĚ ĘęęĜ",
      "ęėĚ Ĝęęě",
      "ęėĚ ęęęěę",
      "ĀĀė ĀĜĘ",
      "Āė Ě",
      "ęėĘ ėęęĘ",
      "ęėĘ ęęęĚę",
      "ęėĘ ęęęĘę",
      "ęėĘ ěęęě",
      "ęėĘ ĝęęęę",
      "ęėĘ ĘęęĘę",
      "ęėĘ Ĕęęęę",
      "ęęęęęęęęęęęęęęęę Ęęęęęęęęęęęęę",
      "ęęē ę",
      "ęęē ęĜ",
      "ęęē ęĖ",
      "ęęē ęęĖ",
      "ęęē ęĞ",
      "ęęē ĘęęĖ",
      "ęęęĜ ęęęęĚ",
      "ęğ !",
      "ęğ #",
      "ęęğ ę",
      "ęęęĖ ęęĜ",
      "ęē ē",
      "ęē ęĜ",
      "ęē ęęęęě",
      "Ėęęęę ęĘĘęęęę",
      "ęěě ėęęęę",
      "ęěě ėęęė",
      "ęěě Ėęęě",
      "ęěě ėęęĜ",
      "Āĝ Ğ",
      "ęěęęęę Ğ",
      "ęęęĚęęęę ęęě",
      "ęęęĚęęęę ęĘĘęęęę",
      "ęęęĚęęęę ěĚ",
      "ęęęĚęęęę ęęĚęęĘ",
      "ęęęĘęęęę ė",
      "ęęęĘęęęę ęĘĘęęęę",
      "ęęęĘęęęę ęĘęęęĘę",
      "ĚĚ ęę",
      "ĚĚ ęęęęęęęęęęę",
      "ĚĚ ęę!",
      "ęėęęęę ę",
      "ęėęęęę ėĘ",
      "ęėęęęę ęęĚĘ",
      "ęěė Ęęęęę",
      "ęěė ęęęĚ",
      "ęěė ěęęĚ",
      "ęěė Ėęęĕ",
      "ęėė ęęęĚ",
      "ęėė ėęęęę",
      "ęėė ęęęĕ",
      "ęėė ĕęęĘ",
      "ĖęęĘ ęĖ",
      "ĖęęĘ ęĕ",
      "ĚĘ Ě",
      "ĚĘ Ğ",
      "ĚĘ ęęĖ",
      "ĚĘ ęęğ",
      "ĚĘ ęęęĘę",
      "ęęĒ ęğ",
      "ĀĀĕ ĀėĘ",
      "ĀĞ ğ",
      "ęĚĘęęęę ęęęĚęęęę",
      "ęĚĘęęęę ęĚĚęęęę",
      "ęĚĘęęęę ęęĚęęęĚ",
      "ĜęęĚ ęĕ",
      "ęĜĚ ęęęě",
      "ęĜĚ Ėęęęę",
      "ęĜĚ Ėęęě",
      "ęĚĜ ĚęęĜ",
      "ęĚĜ ĝęęĚ",
      "ęĚĜ Ěęęĝ",
      "ěĚ ě",
      "ěĚ ĝ",
      "ěĚ Ğ",
      "ěĚ ęęęĚ",
      "ěĚ ęęĕ",
      "ěĚ ėęęęę",
      "ěĚ Ėęęęę",
      "ęĘęęĘ ęęęĚęęęę",
      "ęėě ĚęęĘ",
      "ęėě ěęęě",
      "ęėě ĝęęě",
      "ėĘ ě",
      "ėĘ Ĝ",
      "ėĘ ĘęęĘ",
      "ėĘ ĚęęĚ",
      "ėĘ ęęĞ",
      "ėĘ ęęđ",
      "ĀĀĝ ĀĘĚ",
      "ęĜĘ ęęęě",
      "ęĜĘ Ęęęė",
      "ęĜĘ ęęęĖ",
      "ęĜĘ ěęęė",
      "ęĜĘ ĕęęęę",
      "ęĜĘ ĕęęĘ",
      "ęĘĜ ěęęęę",
      "ęĘĜ ĜęęĚ",
      "ęĘĜ Ėęęě",
      "ěĘ ě",
      "ěĘ Ĝ",
      "ěĘ Ğ",
      "ěĘ ĚęęĘ",
      "ęĚĖ ěęęĘ",
      "ęĚĖ ėęęė",
      "ęĚĖ Ėęęė",
      "ĀĀĔ Āē",
      "ęĖĘ Ęęęęę",
      "ęĖĘ ęęęė",
      "ęĖĘ ėęęĘ",
      "ęĖĘ ęęęĖ",
      "ęĖĘ ĜęęĘ",
      "ęĖĘ ęęęĕ",
      "ęĘĖ ėęęĖ",
      "ęĘĚęęęę ęĘĚ",
      "ęĘĚęęęę ęĘĚęęęę",
      "ęĒ ĕ",
      "ęĒ ęęęę",
      "ęĘęęęęĘ ęęęęęęęę",
      "ęĘęęęęĘ ęęęęęęęęęęęęęęęęęęęęęę",
      "ęĖĚ ĘęęĘ",
      "ęĖĚ ėęęĚ",
      "ęĖĚ Ĝęęęę",
      "ęĖĚ ĜęęĘ",
      "ęĘęęęęĚ ęęęęęęęę",
      "ĀĀĞ ĀĘĘ",
      "ęěĜ Ěęęě",
      "ęęęĕ ę",
      "ĘęęęęĚ ę",
      "ęėĖ ęęęĖ",
      "ęėĖ ĘęęĖ"
    ]
  }
}