{
  "version": "1.0",
  "truncation": null,
  "padding": null,
  "added_tokens": [],
  "normalizer": null,
  "pre_tokenizer": {
    "type": "ByteLevel",
    "add_prefix_space": false,
    "trim_offsets": true,
    "use_regex": true
  },
  "post_processor": {
    "type": "ByteLevel",
    "add_prefix_space": true,
    "trim_offsets": false,
    "use_regex": true
  },
  "decoder": {
    "type": "ByteLevel",
    "add_prefix_space": true,
    "trim_offsets": true,
    "use_regex": true
  },
  "model": {
    "type": "BPE",
    "dropout": null,
    "unk_token": null,
    "continuing_subword_prefix": null,
    "end_of_word_suffix": null,
    "fuse_unk": false,
    "byte_fallback": false,
    "ignore_merges": false,
    "vocab": {
      "\u0000": 0,
      "\u0001": 1,
      "\u0002": 2,
      "\u0003": 3,
      "\u0004": 4,
      "\u0005": 5,
      "\u0006": 6,
      "\u0007": 7,
      "\b": 8,
      "\t": 9,
      "\n": 10,
      "\u000b": 11,
      "\f": 12,
      "\r": 13,
      "\u000e": 14,
      "\u000f": 15,
      "\u0010": 16,
      "\u0011": 17,
      "\u0012": 18,
      "\u0013": 19,
      "\u0014": 20,
      "\u0015": 21,
      "\u0016": 22,
      "\u0017": 23,
      "\u0018": 24,
      "\u0019": 25,
      "\u001a": 26,
      "\u001b": 27,
      "\u001c": 28,
      "\u001d": 29,
      "\u001e": 30,
      "\u001f": 31,
      " ": 32,
      "!": 33,
      "\"": 34,
      "#": 35,
      "$": 36,
      "%": 37,
      "&": 38,
      "'": 39,
      "(": 40,
      ")": 41,
      "*": 42,
      "+": 43,
      ",": 44,
      "-": 45,
      ".": 46,
      "/": 47,
      "0": 48,
      "1": 49,
      "2": 50,
      "Ā": 51,
      "Ă": 52,
      "ă": 53,
      "Ą": 54,
      "ą": 55,
      "Ć": 56,
      "ć": 57,
      "Ĉ": 58,
      "ĉ": 59,
      "Ċ": 60,
      "ċ": 61,
      "Č": 62,
      "č": 63,
      "Ď": 64,
      "ď": 65,
      "Đ": 66,
      "đ": 67,
      "Ē": 68,
      "ē": 69,
      "Ĕ": 70,
      "ĕ": 71,
      "Ė": 72,
      "ė": 73,
      "Ę": 74,
      "ę": 75,
      "Ě": 76,
      "ě": 77,
      "Ĝ": 78,
      "ĝ": 79,
      "Ğ": 80,
      "ğ": 81,
      "Ġ": 82,
      "ęę": 83,
      "ęęęę": 84,
      "ęĚ": 85,
      "ęĘ": 86,
      "ęęĘ": 87,
      "ęęĚ": 88,
      "ĀĀ": 89,
      "ęě": 90,
      "ęė": 91,
      "ęęęęęęęę": 92,
      "ęęė": 93,
      "ęęě": 94,
      "Ęęęęę": 95,
      "ęęęĚ": 96,
      "Ěęęęę": 97,
      "ęęęĘ": 98,
      "ęĜ": 99,
      "ęĖ": 100,
      "ęęĖ": 101,
      "ęęĜ": 102,
      "ęĚęęęę": 103,
      "ęĘęęęę": 104,
      "ęĝ": 105,
      "ęĕ": 106,
      "ĚĘ": 107,
      "ĚęęĚ": 108,
      "ęĚĘ": 109,
      "ĚęęĘ": 110,
      "ĘęęĘ": 111,
      "ęęĕ": 112,
      "ęęęęĘ": 113,
      "ęĘĘ": 114,
      "ęęęė": 115,
      "ėęęęę": 116,
      "ęęĝ": 117,
      "ęĘĚ": 118,
      "ęĚĚ": 119,
      "ęęę": 120,
      "ęęęě": 121,
      "ęęęęĚ": 122,
      "ĘęęĚ": 123,
      "ęĞ": 124,
      "ěęęęę": 125,
      "ęęĚęęęę": 126,
      "ęęĔ": 127,
      "ęęĞ": 128,
      "ėęęĚ": 129,
      "ęĔ": 130,
      "ęęĘęęęę": 131,
      "ęęęęęęęęęęęę": 132,
      "ěęęĘ": 133,
      "ĀĘ": 134,
      "Āě": 135,
      "ėęęĘ": 136,
      "ęĚě": 137,
      "ĀĚ": 138,
      "ĀĀę": 139,
      "ĀĀĘ": 140,
      "ęĘě": 141,
      "ęěĘ": 142,
      "Ěęęė": 143,
      "Ęęęė": 144,
      "ęĚė": 145,
      "ěęęĚ": 146,
      "ęĘė": 147,
      "Ěęęě": 148,
      "ĀĀĚ": 149,
      "ęęē": 150,
      "Āė": 151,
      "ĀĀė": 152,
      "ęěĚ": 153,
      "ĀĖ": 154,
      "ęėĘ": 155,
      "ĀĜ": 156,
      "ęęĚę": 157,
      "ęęĘę": 158,
      "ęęğ": 159,
      "ęėĚ": 160,
      "Ęęęě": 161,
      "ĀĀě": 162,
      "ęęęĜ": 163,
      "ęęęĖ": 164,
      "ęęęęęęęęęęęęęęęę": 165,
      "ėęęě": 166,
      "ĀĀĖ": 167,
      "Āĝ": 168,
      "ęğ": 169,
      "Ėęęęę": 170,
      "ęęęĘęęęę": 171,
      "ęėė": 172,
      "ĀĞ": 173,
      "ęęĚęęęĚ": 174,
      "ęěęęęę": 175,
      "ęėęęęę": 176,
      "ĚĚ": 177,
      "Āĕ": 178,
      "ĖęęĚ": 179,
      "ęē": 180,
      "ĚĘęęĚ": 181,
      "ěęęė": 182,
      "ĀĀĜ": 183,
      "ęěė": 184,
      "ęěě": 185,
      "ėęęė": 186,
      "ęęĘęĚ": 187,
      "ęęęĘę": 188,
      "ęęĒ": 189,
      "ęĚĚęęęę": 190,
      "ęęęĚęęęę": 191,
      "ęĘęęĚ": 192,
      "ĚęęęęĘ": 193,
      "Ĝęęęę": 194,
      "ęĚĘęęęę": 195,
      "ęėě": 196,
      "ĖęęĘ": 197,
      "ęĚęęĘ": 198,
      "ĀĀĕ": 199,
      "ěęęě": 200,
      "ęĘĘęęęę": 201,
      "ĀĀĔ": 202,
      "ęęęĚę": 203,
      "ĀĀĝ": 204,
      "ĜęęĚ": 205,
      "ěĚ": 206,
      "ĘęęęęĘ": 207,
      "ęĜĘ": 208,
      "ęĚĜ": 209,
      "ęĚęęĚ": 210,
      "ęĖĘ": 211,
      "ĜęęĘ": 212,
      "ěĘ": 213,
      "ęĘĚęęęę": 214,
      "ęĘęęęęĘ": 215,
      "ęĘęęęęĚ": 216,
      "ęĚĖ": 217,
      "ęĘęęĘ": 218,
      "ĘęęęęĚ": 219,
      "ęęęęęęęęęęę": 220,
      "ęĘĖ": 221,
      "ęĚęęęęĘ": 222,
      "ĀĔ": 223,
      "Ėęęě": 224,
      "ĘęęĖ": 225,
      "ęĘĜ": 226,
      "ęĒ": 227,
      "ėĚ": 228,
      "ęěĜ": 229,
      "ęęęĕ": 230,
      "ĀĀĞ": 231,
      "ęĜĚ": 232,
      "ęęęęĘĘ": 233,
      "ĀĀğ": 234,
      "ĘęęĜ": 235,
      "ĚęęĖ": 236,
      "ęę!": 237,
      "ęĜė": 238,
      "ęĚęęęęĚ": 239,
      "ěě": 240,
      "ĕęęęę": 241,
      "ęęĘęęęĘ": 242,
      "ĀĀĒ": 243,
      "ęĖĚ": 244,
      "Āğ": 245,
      "ĀĀē": 246,
      "ėĘ": 247,
      "Ėęęė": 248,
      "Ĝęęė": 249,
      "ĚęęĜ": 250,
      "ęęęĝ": 251,
      "ęėĖ": 252,
      "ęėĜ": 253,
      "ĕęęĘ": 254,
      "ĕęęĚ": 255,
      "ėęęĖ": 256,
      "ĀĀęĀ": 257,
      "ěęęĖ": 258,
      "ĚęęęęĚ": 259,
      "ęĖė": 260,
      "ĀĀĘĀ": 261,
      "ęĖĖ": 262,
      "ęĜě": 263,
      "Ĝęęě": 264,
      "ęęđ": 265,
      "ęęęĘęęĚ": 266,
      "ęĜĜ": 267,
      "ěęęĜ": 268,
      "ėě": 269,
      "ėęęĜ": 270,
      "ĖęęĜ": 271,
      "ĀĀđ": 272,
      "ęęęĘęęĘ": 273,
      "ęĘĚęęęĚ": 274,
      "ĖĚ": 275,
      "ę!": 276,
      "ęęęęĘĚ": 277,
      "ĝęęęę": 278,
      "ęĖęęęę": 279,
      "ęęěęęęę": 280,
      "ęęęĞ": 281,
      "ęĘęĚ": 282,
      "ęĘęĚęęęę": 283,
      "ęęĚĚęęĚ": 284,
      "ęę\"": 285,
      "ęĚęęęęęę": 286,
      "ĀĀěĀ": 287,
      "ęĚęĘ": 288,
      "ĚęęĘę": 289,
      "ěĝ": 290,
      "ĀĀ!": 291,
      "ĕĚ": 292,
      "ęęĘĘęęęę": 293,
      "ęěĖ": 294,
      "ęĖě": 295,
      "ėė": 296,
      "ĜĘ": 297,
      "Ĝě": 298,
      "ęĘĕ": 299,
      "ęĜĖ": 300,
      "ęĜęęęę": 301,
      "ęĕĚ": 302,
      "ĝęęĚ": 303,
      "ęėęęĘ": 304,
      "Āē": 305,
      "ĕęęě": 306,
      "ęđ": 307,
      "ęęėęęęę": 308,
      "ęĝĘ": 309,
      "ęęęĚęęĚ": 310,
      "Ėė": 311,
      "Ėě": 312,
      "ęĚęĘęęęę": 313,
      "ęěęęĘ": 314,
      "ĖĘ": 315,
      "ĜĚ": 316,
      "ĜĜ": 317,
      "ęęĐ": 318,
      "ęėęęĚ": 319,
      "ĕĘ": 320,
      "ę\"": 321,
      "ęĘęĘęęęę": 322,
      "ĀĀ$": 323,
      "ęĝĚ": 324,
      "ęęęĚęęĘ": 325,
      "ęĘęęęęęę": 326,
      "ĕęęė": 327,
      "ęĚĝ": 328,
      "ęęĘĘęęĘ": 329,
      "ĀĀ\"": 330,
      "ęĕĘ": 331,
      "ėęęęęĚ": 332,
      "ėĝ": 333,
      "ęĚĚĘ": 334,
      "ęĘĝ": 335,
      "ęęęęĚĚ": 336,
      "ęęęęęęĚ": 337,
      "ęĚĕ": 338,
      "ęĚęĚ": 339,
      "ęěĝ": 340,
      "ęĚĘęęęĘ": 341,
      "ęęĚęęęęę": 342,
      "ęĕė": 343,
      "ĔęęĚ": 344,
      "ĜęęĖ": 345,
      "ĀĀĐ": 346,
      "ĚęęĚę": 347,
      "ĀĀėĀ": 348,
      "ĖęęĖ": 349,
      "Ěęęęęę": 350,
      "ęĚĚęęęĚ": 351,
      "ęęęęęęęęęęęęę": 352,
      "ęĚęĚęęęę": 353,
      "Ėęęĕ": 354,
      "ĘĘ": 355,
      "ěė": 356,
      "ěĜ": 357,
      "ęěęęĚ": 358,
      "ęęęęęęęęęĘ": 359,
      "ęĘĘęęęĘ": 360,
      "ĀĀĖĀ": 361,
      "Ėĝ": 362,
      "ěĞ": 363,
      "ĝęęĘ": 364,
      "ęęĚĘęęĚ": 365,
      "Ěęęĕ": 366,
      "ęĝė": 367,
      "ěęęęęĚ": 368,
      "ęěĕ": 369,
      "ęęęęęęęęęęęęęęęęęęęę": 370,
      "Ěęęęęęę": 371,
      "ęęęĔ": 372,
      "ęĚĞ": 373,
      "ęĘęĘ": 374,
      "ęĚĘĘęęĘ": 375,
      "Ęęęĕ": 376,
      "ĜĞ": 377,
      "ęęĘĚęęĘ": 378,
      "ĀĀ#": 379,
      "ĀĀĎ": 380,
      "ęėęęęęĚ": 381,
      "ĚĘęęě": 382,
      "ęĚĘĚęęĘ": 383,
      "ĀĀĚĀ": 384,
      "ĕě": 385,
      "ĕęęĖ": 386,
      "Ĝė": 387,
      "ĝęęė": 388,
      "ęęď": 389,
      "ęĚĚĘęęĚ": 390,
      "ęęĚĘęęęę": 391,
      "ěęęęęĘ": 392,
      "Ĝęęĕ": 393,
      "ĠĘ": 394,
      "ĀĀď": 395,
      "ęėĝ": 396,
      "ęęęėęęęę": 397,
      "ĔęęĘ": 398,
      "ĘĚ": 399,
      "ęęĚĚęęęę": 400,
      "ęėĕ": 401,
      "ęęęē": 402,
      "ėęęĝ": 403,
      "ĝě": 404,
      "ĝęęě": 405,
      "ĞĞ": 406,
      "ĠĜ": 407,
      "ęęĘęęęęęęęę": 408,
      "ĚĘęęĘ": 409,
      "ęęĘęęęęę": 410,
      "ęęĚęęęĚę": 411,
      "ĀĀĔĀ": 412,
      "Ĕęęęę": 413,
      "ĖęęĞ": 414,
      "ėĜ": 415,
      "ĝĚ": 416,
      "ęĘėęęęę": 417,
      "Ęęęęęęę": 418,
      "ęęęęęęęęęęęęęęęęęę": 419,
      "ĠĚ": 420,
      "ęĚęĘęęĚ": 421,
      "ęĘęĚęęĚ": 422,
      "ęĖĜ": 423,
      "ĀĀĜĀ": 424,
      "ėĖ": 425,
      "ĝĞ": 426,
      "ęěĚęęęę": 427,
      "ęěęęęęĚ": 428,
      "ęęęęęęęęĚ": 429,
      "ęĚęęęęęęĘ": 430,
      "ęĝĜ": 431,
      "ęĞĘ": 432,
      "ėęęęęĘ": 433,
      "Ęęęĝ": 434,
      "ęěęęęęĘ": 435,
      "Ęęęęęę": 436,
      "ęĝě": 437,
      "ęĘĚĚęęĚ": 438,
      "ĀĚĚ": 439,
      "ĀĀĕĀ": 440,
      "ĕęęĕ": 441,
      "ėęęĕ": 442,
      "Ġĝ": 443,
      "ęęėęęęĘ": 444,
      "ęęěęęęĚ": 445,
      "ęĜĕ": 446,
      "ęĜĝ": 447,
      "ęĚęęęęę": 448,
      "ęęęęęęęęęęęęęęę": 449,
      "ĀĀĝĀ": 450,
      "ĔĖ": 451,
      "ĞĚ": 452,
      "ęęĘĚęęęę": 453,
      "ęĚęęęęęęĚ": 454,
      "ęĘęęęęę": 455,
      "ĘęęĘę": 456,
      "ęĘĘĚęęĘ": 457,
      "ęĚĚĚęęęę": 458,
      "Ĕęęė": 459,
      "Ġė": 460,
      "ęę#": 461,
      "ęęĘęęęĚ": 462,
      "ęěĞ": 463,
      "ęęęęęęęęęęęĚ": 464,
      "ęĕĖ": 465,
      "ęĘĚĚęęęę": 466,
      "ęĘėęęęĘ": 467,
      "ęĚĚęęęęę": 468,
      "ĒĘ": 469,
      "ĕęęĜ": 470,
      "ę#": 471,
      "ěĕ": 472,
      "ěęęĕ": 473,
      "ęęĚęęęě": 474,
      "ĀĀ%": 475,
      "ęĚĚĘęęęę": 476,
      "ĀĀĞĀ": 477,
      "Ĕęęě": 478,
      "ęĐ": 479,
      "ğĚ": 480,
      "ęĘęĘęęĚ": 481,
      "ĀĀ'": 482,
      "ĀĀ)": 483,
      "ęęęęęęęęęęęĘ": 484,
      "ęĘęęęęęęĚ": 485,
      "ęĕě": 486,
      "ęĕęęęę": 487,
      "ęĚěęęęĚ": 488,
      "ĀĀĘĀĘ": 489,
      "ĔĘ": 490,
      "Ėęęĝ": 491,
      "ęĘĚĘęęĚ": 492,
      "ęęĚęęĘ": 493,
      "ęėęęęęĘ": 494,
      "ĚęęęęęęĚ": 495,
      "ęĖĕ": 496,
      "ęĘęęęęęęĘ": 497,
      "ęĔĘ": 498,
      "ĀĀğĀ": 499,
      "ĕĞ": 500,
      "ĖĖ": 501,
      "ęĚěęęęę": 502,
      "ęĘęęęĘ": 503,
      "ęęěę": 504,
      "ęĜęęĘ": 505,
      "ęĖĝ": 506,
      "ęĚĘĘęęęę": 507,
      "ęĞĚ": 508,
      "ĀěĘ": 509,
      "ēĘ": 510,
      "ĖĜ": 511,
      "ėęęĞ": 512,
      "ěęęęĚ": 513,
      "ĝĜ": 514,
      "ĝęęĖ": 515,
      "ğĝ": 516,
      "ęĘē": 517,
      "ęĘęě": 518,
      "ęĘęĚęęĘ": 519,
      "ęĖĔ": 520,
      "ęĝĖ": 521,
      "ęęęěę": 522,
      "ęĞě": 523,
      "ęęĘęęęęęęĘ": 524,
      "ĚęęęęĘĘ": 525,
      "ĕĕ": 526,
      "ĖęęęęĚ": 527,
      "ėĞ": 528,
      "ėęęĔ": 529,
      "ĚĚęęęę": 530,
      "ğĘ": 531,
      "ĠĞ": 532,
      "ęęęęęęĘ": 533,
      "ęĘęęė": 534,
      "ĀĀ&": 535,
      "ęėęęě": 536,
      "ęęěĚęęĚ": 537,
      "ĚęęęęęęĘ": 538,
      "ĀĀĚĀĘ": 539,
      "Ēē": 540,
      "ĔĚ": 541,
      "ĔęęĖ": 542,
      "Ġě": 543,
      "ęęĎ": 544,
      "ęĚĔ": 545,
      "ęĚęęė": 546,
      "ęĘĞ": 547,
      "ęėĚęęęę": 548,
      "ęęėĚęęĘ": 549,
      "ęęěĘęęĚ": 550,
      "ĘęęęęęęĚ": 551,
      "ęĚĚĚęęĚ": 552,
      "ęęęğ": 553,
      "ĀĀęĀĘ": 554,
      "ĕĜ": 555,
      "ĖĞ": 556,
      "Ęē": 557,
      "ğě": 558,
      "ğĜ": 559,
      "ğęęĘ": 560,
      "Ġ!": 561,
      "ęėĞ": 562,
      "ęęęęęęęęĘ": 563,
      "ĘęęęęęĚ": 564,
      "ęĘĘĚęęęę": 565,
      "ęĘĘęęęė": 566,
      "ęęĚęęęęęęĚ": 567,
      "ěęęĚę": 568,
      "ĀĖĘ": 569,
      "Ĕě": 570,
      "ĔĞ": 571,
      "ėęęęĘ": 572,
      "ĚĚęęĚ": 573,
      "ĜęęĜ": 574,
      "Ğęęęę": 575,
      "ęĚęęě": 576,
      "ęĚęĘęęĘ": 577,
      "ęĘěęęęę": 578,
      "ęęęęęęęęęĚ": 579,
      "Ęęęęęě": 580,
      "ĘęęęęęęĘ": 581,
      "ęĖęęĘ": 582,
      "ęĘęęęęě": 583,
      "ęĝęęęę": 584,
      "ĚĘęęĚę": 585,
      "ėęęęęė": 586,
      "ęĚěĘęęĚ": 587,
      "ĀĚĜ": 588,
      "ęĘěĚęęĚ": 589,
      "ĀĀĚĀĖ": 590,
      "ĀĀėĀĘ": 591,
      "ĀĀēĀ": 592,
      "!ğ": 593,
      "ėĘęęĘ": 594,
      "ĚęęęĚ": 595,
      "ĜęęęęĘ": 596,
      "Ġĕ": 597,
      "ęę$": 598,
      "ęĘĔ": 599,
      "ĀĀ(": 600,
      "ęĖęęĚ": 601,
      "ęĝĝ": 602,
      "ĚĘĘęęęę": 603,
      "ĚĘęęĜ": 604,
      "ęĘĘěęęĘ": 605,
      "ęęęėęęĘ": 606,
      "ęĔė": 607,
      "ĀĀęĀě": 608,
      "ĀėĘ": 609,
      "ĒĖ": 610,
      "ēęęęę": 611,
      "ĕĝ": 612,
      "ėĕ": 613,
      "ĘĞ": 614,
      "Ěĝ": 615,
      "Ěęęĝ": 616,
      "ĝĝ": 617,
      "ğęęęę": 618,
      "Ġęęęę": 619,
      "ęěęęė": 620,
      "Ěęęęęě": 621,
      "ęĚęęęęě": 622,
      "ĀĀĘĀě": 623,
      "ĒĚ": 624,
      "Ĕĝ": 625,
      "Ĕęęĝ": 626,
      "ĘĜ": 627,
      "ę$": 628,
      "ěęęĔ": 629,
      "ğĞ": 630,
      "ęěĘęęęę": 631,
      "ęĜęęĚ": 632,
      "ęĝĕ": 633,
      "ęĕĜ": 634,
      "ęĚĘėęęĘ": 635,
      "ęĘĘĘęęĘ": 636,
      "ęęęėęęĚ": 637,
      "ęęęěęęęę": 638,
      "ęĞĖ": 639,
      "ęĞė": 640,
      "ĀĀęĀĕ": 641,
      "ĀĀėĀě": 642,
      "ēđ": 643,
      "ēė": 644,
      "ĖęęęęĘ": 645,
      "ėĘęęęę": 646,
      "ęĚęė": 647,
      "ęĚėęęęę": 648,
      "ęĚęĚęęĘ": 649,
      "ęĚęĚęęĚ": 650,
      "ęĘęěęęęę": 651,
      "ęęėĘęęĘ": 652,
      "ęęėęęęė": 653,
      "ęęęĚęęęęĘ": 654,
      "ęĘĚĘęęęę": 655,
      "ęęęĒ": 656,
      "ĘęęĚę": 657,
      "ėęęĚę": 658,
      "ęęĘęęęęęę": 659,
      "ĀĚė": 660,
      "ęĘěęęęĚ": 661,
      "ęĘěĘęęĚ": 662,
      "ęěĘĘęęĘ": 663,
      "ĀĀėĀĜ": 664,
      "ĀĀėĀĝ": 665,
      "ęĚĘęęęęę": 666,
      "!ě": 667,
      "ēĖ": 668,
      "ēĚ": 669,
      "ēĜ": 670,
      "ēęęĚ": 671,
      "ēęęė": 672,
      "ēęęĜ": 673,
      "ĖęęęĘ": 674,
      "Ėęęğ": 675,
      "ěęęĝ": 676,
      "ĜęęęęĚ": 677,
      "Ġğ": 678,
      "ęĚęęęęęęęęęęęę": 679,
      "ęĚęĘęęęęĚ": 680,
      "ęĘęęě": 681,
      "ęĘęęĘę": 682,
      "ęĘęĘęęĘ": 683,
      "ęėĔ": 684,
      "ęėęĘęęęę": 685,
      "ęęėę": 686,
      "ęĜĔ": 687,
      "ęĜĞ": 688,
      "ęĚęęęęęęĚęęęę": 689,
      "ęĝĞ": 690,
      "ĘęęĘęĚĘ": 691,
      "ėęęęęĚĚ": 692,
      "ęĚĚęęęĘ": 693,
      "ęęęěęęĚ": 694,
      "ęĔě": 695,
      "ĀĀĚĀě": 696,
      "ęğĚ": 697,
      "ęĘĘęęęęę": 698,
      "ęĘĚęęęęę": 699,
      "ĒĒ": 700,
      "Ēĕ": 701,
      "ēĞ": 702,
      "Ĕė": 703,
      "ĔĜ": 704,
      "ĞęęĚ": 705,
      "ęęĘĘęęė": 706,
      "ęėęęė": 707,
      "ęęęĘęęė": 708,
      "ęĚĘęęęė": 709,
      "ęęęđ": 710,
      "ęĔĜ": 711,
      "ĀĀęĀĜ": 712,
      "ĀĀĘĀĕ": 713,
      "ęĚėęęęĘ": 714,
      "ęėĚęęęĚ": 715,
      "ĀĀěĀě": 716,
      "ęęęęęęęęęęęęęęęęęęęęęęęę": 717,
      "ĀĀĒĀ": 718,
      "ĀĀ\"Ā": 719,
      "!Ĝ": 720,
      "đė": 721,
      "ĒĐ": 722,
      "ĖĐ": 723,
      "ĝĘ": 724,
      "ĝęęĜ": 725,
      "ĞęęĘ": 726,
      "ĠĀ": 727,
      "ĠĖ": 728,
      "ęĚĚęęĚ": 729,
      "ęĚęęĚę": 730,
      "ęĘęęęęęęęęęęęę": 731,
      "ęęĚęęęĘ": 732,
      "ęěĔ": 733,
      "ęėĘęęęę": 734,
      "ęęęĘęęě": 735,
      "ęęęĘęęęęĘ": 736,
      "ęĜęęęęĘ": 737,
      "ęĚęęęęė": 738,
      "ęĘĘĘęęęę": 739,
      "ęĘĘęęęĚ": 740,
      "ęęę!": 741,
      "ĀĀęĀĝ": 742,
      "ĀĀĘĀĖ": 743,
      "ęĚėĘęęĘ": 744,
      "ĀĀĚĀĜ": 745,
      "ĀėĚ": 746,
      "ĀĀěĀĘ": 747,
      "ęęęęęęęęęęęęęęęęęęę": 748,
      "ęęĚęęęĚęęęę": 749,
      "ĘęęęęĘĘ": 750,
      "ęĚęęęęĘę": 751,
      "đĚ": 752,
      "ēęęĘ": 753,
      "ĔęęĜ": 754,
      "ĕęęĝ": 755,
      "ĘęęĔ": 756,
      "ęĀĀ": 757,
      "ĚĘęęęę": 758,
      "Ĝĝ": 759,
      "ĠĀĀ": 760,
      "ęĘğ": 761,
      "ęĘęęęęęęęę": 762,
      "ęęĚėęęĚ": 763,
      "ęėęĚęęęę": 764,
      "Ęęęęęė": 765,
      "Ěęęęęė": 766,
      "ęęĖęęęę": 767,
      "ĀĀĘĀĜ": 768,
      "ĀĀĚĀĚ": 769,
      "ĀĀĚĀė": 770,
      "ĀĀ#Ā": 771,
      "!Ě": 772,
      "đĖ": 773,
      "Ēė": 774,
      "Ēęęě": 775,
      "ēęęě": 776,
      "Ĕĕ": 777,
      "ĕĖ": 778,
      "ėęęğ": 779,
      "ĘĘęęęę": 780,
      "ĜĖ": 781,
      "Ġ#": 782,
      "ęĚęĘęęęęĘ": 783,
      "ęĘęęęĘę": 784,
      "ęėē": 785,
      "ęėęĚęęĚ": 786,
      "ęęęęęęęęęęĚ": 787,
      "ęęěĚęęě": 788,
      "ęęęĚęęě": 789,
      "ĚęęęęęęĘęęęę": 790,
      "ęĖęęė": 791,
      "ęęĜęęęĚ": 792,
      "ĚĘęęęĘ": 793,
      "ęĚĘęęęĘę": 794,
      "ęĘĘęęęĘę": 795,
      "ęęęėę": 796,
      "ėęęĘę": 797,
      "ĀĀęĀĖ": 798,
      "ęĘėĘęęĘ": 799,
      "ĀĀĖĀĚ": 800,
      "ĀĀĖĀė": 801,
      "ĀĞĚ": 802,
      "ĀĀ$Ā": 803,
      "\"ě": 804,
      "\"Ğ": 805,
      "đĒ": 806,
      "Ēě": 807,
      "Ĕęęĕ": 808,
      "ĖęęĔ": 809,
      "ğęęě": 810,
      "Ġę": 811,
      "ęę%": 812,
      "ęĚē": 813,
      "ęĚęęęĚ": 814,
      "ęĘĚęęĘ": 815,
      "ęęĘęęĚ": 816,
      "ęęĚĘęęě": 817,
      "ęěęĘęęĚ": 818,
      "ęěęĚęęĘ": 819,
      "ęęėęęĘ": 820,
      "ęęęĚęęęęęęęę": 821,
      "ęęęĚęęė": 822,
      "ĚęęęęęęĚęęęę": 823,
      "ęęęĘęęęęĚ": 824,
      "ęęĜęęęę": 825,
      "ęĚęęęęęęęĚ": 826,
      "ĚĘĘęęĘ": 827,
      "ęĚĘėęęęę": 828,
      "ęĘĚęęęě": 829,
      "ęĔĚ": 830,
      "ęęĘęęęęęęĚ": 831,
      "ěęęĘę": 832,
      "ĀĀęĀĚ": 833,
      "ĀĀęĀė": 834,
      "ĀĀĘĀĝ": 835,
      "ęěĚĘęęęę": 836,
      "ęėĘĚęęęę": 837,
      "ĀĀĖĀĘ": 838,
      "ĀĕĘ": 839,
      "ĀĀĜĀĘ": 840,
      "!\"": 841,
      "!ė": 842,
      "ĒĜ": 843,
      "ēęęĕ": 844,
      "ĔĔ": 845,
      "ĕė": 846,
      "ĖęęĘęĚ": 847,
      "ėęęęė": 848,
      "ĚĞ": 849,
      "ěę": 850,
      "ěĘęęęę": 851,
      "ěĘęęĚ": 852,
      "ĝĖ": 853,
      "ęĚęęęęęęęę": 854,
      "ęĚęėęęęę": 855,
      "ęęĘęęęė": 856,
      "ęęĘĚęęė": 857,
      "ęęĚęęĚ": 858,
      "ĀĀ*": 859,
      "ĚęęęęęĘ": 860,
      "ęęĖĘęęĘ": 861,
      "ęĘęęęęęęě": 862,
      "ęĘęęęęęęęĘ": 863,
      "ęĕĕ": 864,
      "ęĕĞ": 865,
      "ĚĘęęė": 866,
      "ęĚĘĘęęė": 867,
      "ęĘĚęęęĘ": 868,
      "ęĚĚėęęęę": 869,
      "ęĚĚęęęě": 870,
      "ęĞĕ": 871,
      "ĀěĞ": 872,
      "ęĚěĚęęĚ": 873,
      "ęěĘĘęęęę": 874,
      "ĀĀėĀė": 875,
      "ĀĀėĀĖ": 876,
      "ęěĚėęęęę": 877,
      "ęėĘęęęĘ": 878,
      "ęęęęęęęęęęęęęęęęęęęęęęęęęęęęęęęę": 879,
      "ĀĀĜĀĖ": 880,
      "ĀĀĕĀĘ": 881,
      "ĀĀđĀ": 882,
      "ĀĀ!Ā": 883,
      "!Ğ": 884,
      "\"Ě": 885,
      "ĐĘ": 886,
      "ĒĞ": 887,
      "Ēęęęę": 888,
      "ĕęęęęĚ": 889,
      "ĕęęĔ": 890,
      "ĘęęĞ": 891,
      "Ěęęęęęęęę": 892,
      "ĚęęĔ": 893,
      "ěĚęęĚ": 894,
      "Ĝęęĝ": 895,
      "ĝęęĕ": 896,
      "ęĚğ": 897,
      "ęĚęęĜ": 898,
      "ęĚęėęęĘ": 899,
      "ęĘĘęęĘ": 900,
      "ęęĘěęęĘ": 901,
      "ęęĚęęęęęęęęęęęę": 902,
      "ĀĀ+": 903,
      "ęěęĘęęęę": 904,
      "ęęěęęĘ": 905,
      "ęęęĚęęęęĚ": 906,
      "ęĖęęęęĘ": 907,
      "ęĝĔ": 908,
      "ęĕĝ": 909,
      "ęĞĜ": 910,
      "ěęęęęė": 911,
      "ęęĚęęęęęęĘ": 912,
      "ęĔĖ": 913,
      "ĀěĚ": 914,
      "ęĚěĘęęě": 915,
      "ĀĀĘĀė": 916,
      "Ěęęėę": 917,
      "ęĚėĚęęĘ": 918,
      "ęĘėĚęęĘ": 919,
      "Ěęęěę": 920,
      "ĀĀėĀĚ": 921,
      "ęėĘĚęęĘ": 922,
      "ęęęĖęęęę": 923,
      "ęęęĖęęĚ": 924,
      "ĀĀĖĀĜ": 925,
      "ęęęĘęęęęę": 926,
      "ĀĀĜĀĚ": 927,
      "ĀĀĜĀė": 928,
      "ęĚęęęęĚę": 929,
      "ĕĚęęĕ": 930,
      "ĀĀĐĀ": 931,
      "!Ę": 932,
      "\"!": 933,
      "ĒęęĚ": 934,
      "ĒęęĜ": 935,
      "ēĔ": 936,
      "ēě": 937,
      "ĔĐ": 938,
      "Ĕđ": 939,
      "ĖĘęęĘ": 940,
      "ėęęē": 941,
      "ėęęęęĘĘ": 942,
      "ěęęĞ": 943,
      "ěęęē": 944,
      "ĝĕ": 945,
      "ĝğ": 946,
      "ęĘęėęęęę": 947,
      "ĀĀ-": 948,
      "ęěğ": 949,
      "ęěěęęęę": 950,
      "ęėęě": 951,
      "ęėęęĜ": 952,
      "ęėęĚęęĘ": 953,
      "ęėęěęęĚ": 954,
      "ęęėĘęęęę": 955,
      "ęęěęęęě": 956,
      "ĚęęęęĚĘ": 957,
      "ęĜęęęęĚ": 958,
      "ęĖĞ": 959,
      "ęĖğ": 960,
      "ęęĖęęęĘ": 961,
      "ęĝęęĘ": 962,
      "ęĝęęĚ": 963,
      "ęĕĔ": 964,
      "ęĕęęĘ": 965,
      "ęĕęęĚ": 966,
      "ęĚĘęęĚ": 967,
      "ęĚĘĚęęĚ": 968,
      "ęĚĘĘęęĚ": 969,
      "ęĚĘěęęĘ": 970,
      "ęĘĚěęęĚ": 971,
      "ęĘĚęęęĚę": 972,
      "ęĚĚĚęęĘ": 973,
      "ęĚĚėęęĚ": 974,
      "ęĞĝ": 975,
      "ęĞęęęę": 976,
      "ęęĚęęęęęę": 977,
      "ęĚěęęęě": 978,
      "ęěĘėęęęę": 979,
      "Ęęęėę": 980,
      "ĀĀĚĀĝ": 981,
      "ĀĀĚĀĞ": 982,
      "ĀĀĚĀĕ": 983,
      "ĀĀĚĀĔ": 984,
      "ęěĚęęęĚ": 985,
      "ęėĘęęęĚ": 986,
      "ęėĘĘęęĘ": 987,
      "ĀĀěĀė": 988,
      "ĀĀěĀĖ": 989,
      "ĀĀěĀĝ": 990,
      "ĀĀĖĀĖ": 991,
      "ęğĜ": 992,
      "ęęęĘęęęęęęĚ": 993,
      "ęėęęęęė": 994,
      "ĚĚĘęęęę": 995,
      "ĀĀĜĀě": 996,
      "ęěėėęęĘ": 997,
      "ęęęĚęęęęęęĚ": 998,
      "ĀĀĔĀĘ": 999,
      "ĀĀĝĀĘ": 1000,
      "ĘęęęęĘĚ": 1001,
      "ęĘęęęęĘę": 1002,
      "ĀĀĞĀĘ": 1003,
      "ęĘęĚęęě": 1004,
      "!ĀĀ": 1005,
      "\"ğ": 1006,
      "ĐĐ": 1007,
      "Ēđ": 1008,
      "ĒĔ": 1009,
      "ĒęęĘ": 1010,
      "ēğ": 1011,
      "ĖĚęęĘ": 1012,
      "ĖęęĘę": 1013,
      "ėęę": 1014,
      "ėĚęęęę": 1015,
      "ęĎ": 1016,
      "ęď": 1017,
      "ěęęęęĘĘ": 1018,
      "ĜęęĞ": 1019,
      "ĝė": 1020,
      "Ğ!": 1021,
      "ĞĘ": 1022,
      "ĞęęĜ": 1023,
      "ęęęęę": 1024,
      "ęĚęě": 1025,
      "ęĘęęĖ": 1026,
      "ęĘęĔ": 1027,
      "ęĘęęĚę": 1028,
      "ęęĘĘęęĚ": 1029,
      "ęęĘęęęĘę": 1030,
      "ęęĚĚęęĘ": 1031,
      "ęęĚěęęĚ": 1032,
      "ęěęęęĚ": 1033,
      "ęěėęęęę": 1034,
      "ęěĚĘęęĚ": 1035,
      "ęęęęęęęęęęęęĚ": 1036,
      "ęęėěęęĘ": 1037,
      "ĚęęęęĚĚ": 1038,
      "ęęęĘęęĚę": 1039,
      "ęĜęęė": 1040,
      "ęĜęęě": 1041,
      "ęĖęęě": 1042,
      "ęĖęęęęĚ": 1043,
      "ęęĜęęęě": 1044,
      "ęĕęęĜ": 1045,
      "ęęęęĘě": 1046,
      "ęĘĘĘęęĚ": 1047,
      "ęĘĚěęęęę": 1048,
      "ęęĚęęęęęęĚęęęę": 1049,
      "ęĔĕ": 1050,
      "ęęęęęęęęęęęęęĚ": 1051,
      "ęĘěĚęęě": 1052,
      "ęěĘĚęęĘ": 1053,
      "ęěĘėęęĘ": 1054,
      "ęĚėęęęė": 1055,
      "ĀĀėĀĕ": 1056,
      "ęěĚęęęĘ": 1057,
      "ęėĘĚęęĚ": 1058,
      "ĀĜĘ": 1059,
      "ĀĀěĀĚ": 1060,
      "ĀĀĖĀĝ": 1061,
      "ĀĀĖĀĕ": 1062,
      "ęęęĘęęęęęęĘ": 1063,
      "ęėėęęęĘ": 1064,
      "ĀĞĘ": 1065,
      "ęēĘ": 1066,
      "ęěėĚęęĘ": 1067,
      "ęěėĘęęĘ": 1068,
      "ęėěęęęĚ": 1069,
      "ĀĀĕĀĚ": 1070,
      "ĀğĘ": 1071,
      "ęęĚĚęęĚę": 1072,
      "ęęęęęęęęęęęęęęęęęęęęęę": 1073,
      "ĀĀ'Ā": 1074,
      "\"ĕ": 1075,
      "#!": 1076,
      "%ě": 1077,
      "Đĕ": 1078,
      "đĞ": 1079,
      "đęęė": 1080,
      "ēę": 1081,
      "ēęęĖ": 1082,
      "ēęęĝ": 1083,
      "ēęęĔ": 1084,
      "ĕď": 1085,
      "ĖĒ": 1086,
      "ĖĘęęęę": 1087,
      "ėěęęĘ": 1088,
      "ėęę!": 1089,
      "Ěė": 1090,
      "ĚĜ": 1091,
      "ĚęęĞ": 1092,
      "ěĖ": 1093,
      "ěěęęęę": 1094,
      "ĜęęĘęĚ": 1095,
      "ĞĜ": 1096,
      "Ğęęė": 1097,
      "ğ!": 1098,
      "ğğ": 1099,
      "ğęęĚ": 1100,
      "ğęęė": 1101,
      "ĠęęĜ": 1102,
      "ęĚęęĖ": 1103,
      "ęĘĒ": 1104,
      "ęęĘĘ": 1105,
      "ęęĘĚęęĚ": 1106,
      "ĀĀą": 1107,
      "ĀĀĈ": 1108,
      "ęěĒ": 1109,
      "ęěĚĘ": 1110,
      "ęėęęęĘ": 1111,
      "ęėėęęęę": 1112,
      "ęęęęęęęęęęęęĘ": 1113,
      "ęęęęęęęęĘĚ": 1114,
      "ęęėėęęĘ": 1115,
      "ęęėĚęęė": 1116,
      "ęęęĘęęĘę": 1117,
      "ęĜē": 1118,
      "ęĖē": 1119,
      "ęĖĘęęęę": 1120,
      "ęĚęęęęęęęĚęęęę": 1121,
      "ęĘęęęęė": 1122,
      "ęĘęęęęęęĘęęęę": 1123,
      "ęĝğ": 1124,
      "ęĕğ": 1125,
      "ęĚĘęęęĚ": 1126,
      "ęĚĘĘęęęęĚ": 1127,
      "ęĘĘĚęęĚ": 1128,
      "ęĘĘěęęĚ": 1129,
      "ęĘĚĚęęĘ": 1130,
      "ęĚĚėęęě": 1131,
      "ęęęęęęęęęęęęęĘęęęę": 1132,
      "Āěĕ": 1133,
      "ĀĀĘĀĞ": 1134,
      "ĀĀĘĀĔ": 1135,
      "ęĘěěęęĚ": 1136,
      "ęěĘęęęĘ": 1137,
      "ęĚėĘęęęę": 1138,
      "ęĚėėęęĘ": 1139,
      "ĀĀĚĀğ": 1140,
      "ęěĚėęęĚ": 1141,
      "ęęęĜęęęę": 1142,
      "ęęęĜęęĚ": 1143,
      "ęğęęęę": 1144,
      "Ėęęęęė": 1145,
      "ĀĀĜĀĜ": 1146,
      "ęěěĘęęě": 1147,
      "ĚęęęęĘĚ": 1148,
      "ĀĀĕĀĖ": 1149,
      "ĀĀĕĀĜ": 1150,
      "ĀĀĕĀĝ": 1151,
      "ĀĀĔĀė": 1152,
      "ĀĀĝĀĕ": 1153,
      "ěĚęęĜ": 1154,
      "ĀĀĞĀĖ": 1155,
      "ęĜėĘęęė": 1156,
      "ĚęęĜę": 1157,
      "ęĘęĚęęĚę": 1158,
      "ĀĀ%Ā": 1159,
      "ęęęęęęęęęęęęęęęęęęęęęęęęę": 1160,
      "!!": 1161,
      "ĐĚ": 1162,
      "đđ": 1163,
      "đĕ": 1164,
      "đĘ": 1165,
      "đĜ": 1166,
      "ĒęęĖ": 1167,
      "ĔęęĔ": 1168,
      "ĕęę": 1169,
      "Ėĕ": 1170,
      "ėĎ": 1171,
      "ėĚęęĘ": 1172,
      "ę&": 1173,
      "Ěęęğ": 1174,
      "ěĚęęęę": 1175,
      "ěėęęĚ": 1176,
      "ĜęęęĚ": 1177,
      "Ĝęęęě": 1178,
      "ĜĘęęĜ": 1179,
      "ğė": 1180,
      "ĠęęĚ": 1181,
      "ęĚęĚęęęęĚ": 1182,
      "ęĚęėęęĚ": 1183,
      "ęĘęĚęęęęĘ": 1184,
      "ęĘęĚęęęęĚ": 1185,
      "ęĘęěęęĚ": 1186,
      "ęĘĚĘęęě": 1187,
      "ęęĘėęęęę": 1188,
      "ęęĘėęęĘ": 1189,
      "ęęĘęęęĘęęęę": 1190,
      "ęęĚěęęęę": 1191,
      "ĀĀć": 1192,
      "ęěęĚęęęę": 1193,
      "ęěęĘęęĘ": 1194,
      "ęěęėęęĚ": 1195,
      "ęěĚĘęęě": 1196,
      "ęėęęĖ": 1197,
      "ęėĘęęĘ": 1198,
      "ęėĚĘęęĚ": 1199,
      "ęėęĘęęĘ": 1200,
      "ęęęęęęęęĚęęęę": 1201,
      "ęęėĘ": 1202,
      "ęęěėęęě": 1203,
      "ĘęęęęĚĘ": 1204,
      "ĚęęęęěĚ": 1205,
      "ęĜĘęęęę": 1206,
      "ęĕē": 1207,
      "ęĘĘĘęęė": 1208,
      "ęĘĘĚęęĘę": 1209,
      "ėęęęęĜ": 1210,
      "ęĘĚėęęĚ": 1211,
      "ęĘĚĚęęě": 1212,
      "ęęęěęęĘ": 1213,
      "ęĞĔ": 1214,
      "ėęęĚęėĚ": 1215,
      "ęĔĔ": 1216,
      "ęęĘęęęęęęĘęęęę": 1217,
      "ęęęęęęęęęęęęęĚęęęę": 1218,
      "ĀĀĘĀĚ": 1219,
      "ęĘěėęęĚ": 1220,
      "ęĘěĘęęě": 1221,
      "ęĚėĚęęė": 1222,
      "ęĘėěęęĘ": 1223,
      "ęęēęĝ": 1224,
      "ĀĀėĀĞ": 1225,
      "ęėĚĚęęĚ": 1226,
      "ĀĀěĀĜ": 1227,
      "ęğė": 1228,
      "ęğĘ": 1229,
      "ęğĝ": 1230,
      "ĀĞė": 1231,
      "ęėęęęęě": 1232,
      "ĀĀĔĀě": 1233,
      "ĀĀĔĀĜ": 1234,
      "ĀĀĝĀĜ": 1235,
      "ĘęęęęĘęĚęęęę": 1236,
      "ęĚĜęęęĚ": 1237,
      "ęĚĖĘęęĘ": 1238,
      "ĀĀĞĀė": 1239,
      "ęęęęĘĘĚęęęę": 1240,
      "ĀĀğĀĘ": 1241,
      "ĀĀēĀĘ": 1242,
      "ĀĀēĀĚ": 1243,
      "ęĖėęęęĘ": 1244,
      "ĀĀđĀĜ": 1245,
      "ĀĀ!ĀĘ": 1246,
      "ėĝęęė": 1247,
      "ęĚĚĘęęĚę": 1248,
      "ęĚęĚęęė": 1249,
      "ĀĀĎĀ": 1250,
      "ĀĀ(Ā": 1251,
      "\"ĝ": 1252,
      "\"ĀĀ": 1253,
      "ďĖ": 1254,
      "ďęęĚ": 1255,
      "Đė": 1256,
      "ĐĜ": 1257,
      "đē": 1258,
      "đęęĚ": 1259,
      "ĒĎ": 1260,
      "Ēęęė": 1261,
      "ēĎ": 1262,
      "ēĕ": 1263,
      "Ĕęę": 1264,
      "ĕęęęęĘ": 1265,
      "ĕęęĒ": 1266,
      "Ėď": 1267,
      "ėęęęęĘĚ": 1268,
      "ĘĚęęęę": 1269,
      "ěęę": 1270,
      "ěěęęĚ": 1271,
      "ěęęęęĘĚ": 1272,
      "ĜĚęęĚ": 1273,
      "ĜęęĘę": 1274,
      "Ĝęęğ": 1275,
      "ĝęęĝ": 1276,
      "Ğĕ": 1277,
      "Ğęęĝ": 1278,
      "ğĀĀ": 1279,
      "ęęęęė": 1280,
      "ęĚęęĘę": 1281,
      "ęĚęĚęęęęĘ": 1282,
      "ęĚęěęęĘ": 1283,
      "ęĘęęęęęęęęęęę": 1284,
      "ęĘęěęęĘ": 1285,
      "ęĘęėęęĚ": 1286,
      "ęĘĚĘęęĘ": 1287,
      "ęęĚĘ": 1288,
      "ęęĚĘęęĘ": 1289,
      "ęęĚĚęęě": 1290,
      "ęęĚĖęęĚ": 1291,
      "ęěē": 1292,
      "ęěęėęęęę": 1293,
      "ęėĚęęĘ": 1294,
      "ęėěęęęę": 1295,
      "ęęęęęęęęĘęęęę": 1296,
      "ęęėĚęęęę": 1297,
      "ęęėěęęė": 1298,
      "ęęěĘęęęę": 1299,
      "ęęěĘęęě": 1300,
      "ĚęęęęęęęĚ": 1301,
      "ęęęĘęęĖ": 1302,
      "ęĜğ": 1303,
      "ęĜĚęęęę": 1304,
      "ęĜęĘęęĘ": 1305,
      "ęęĖęęęė": 1306,
      "ęĚęęęęęęĜ": 1307,
      "ęĘęęęęęęęĚ": 1308,
      "ĚĘęęĞ": 1309,
      "ęĚĘĚęęė": 1310,
      "ęĘĘėęęęę": 1311,
      "ęĘĘěęęęę": 1312,
      "ęĘĘĚęęė": 1313,
      "ęĘĚĖęęĚ": 1314,
      "ęĚĚěęęęę": 1315,
      "ęĚĚęęęĜ": 1316,
      "ęęęĐ": 1317,
      "ęęęęĚė": 1318,
      "ęĞğ": 1319,
      "ęĞęęĘ": 1320,
      "ęĔĞ": 1321,
      "ĀěĖ": 1322,
      "Āěė": 1323,
      "ęĚěĘęęęę": 1324,
      "ęĘėĚęęė": 1325,
      "ęěĚĚęęęę": 1326,
      "ęěĚĚęęĚ": 1327,
      "ęěĚĚęęĘ": 1328,
      "ęěĚěęęĚ": 1329,
      "ęėĚęęęě": 1330,
      "ęęęĜęęĘ": 1331,
      "ęėėęęęė": 1332,
      "ĀĞğ": 1333,
      "ĚĚĚęęęę": 1334,
      "ĀĕĚ": 1335,
      "ęěėęęęĘ": 1336,
      "ęěěęęęĚ": 1337,
      "ęěěėęęĚ": 1338,
      "ęęĘęĚĜ": 1339,
      "ĚęęęęĘęĚęęęę": 1340,
      "ęėěĚęęĚ": 1341,
      "ĀĀĔĀĚ": 1342,
      "ĀĀĔĀĞ": 1343,
      "ĀĀĝĀė": 1344,
      "ĀĀĝĀĖ": 1345,
      "ĀĀĝĀĞ": 1346,
      "ęĜĘĘęęĘ": 1347,
      "ęĚĜėęęĚ": 1348,
      "ęĚĖęęęĘ": 1349,
      "ęĘĖęęęĘ": 1350,
      "ęĘĜėęęĚ": 1351,
      "ęěĜęęęĚ": 1352,
      "ęėĜėęęĚ": 1353,
      "ęĚęĘęęě": 1354,
      "ęęęęęęęęęĘę": 1355,
      "ęĘęĘęęě": 1356,
      "ĀĀ)Ā": 1357,
      "ĀĀ&Ā": 1358,
      "\"#": 1359,
      "\"ė": 1360,
      "\"Ĝ": 1361,
      "#Ğ": 1362,
      "Ďė": 1363,
      "ĐĖ": 1364,
      "đęęĘ": 1365,
      "ēĐ": 1366,
      "ēĝ": 1367,
      "ēęęĞ": 1368,
      "Ĕē": 1369,
      "Ĕęęğ": 1370,
      "ĕęęē": 1371,
      "ĕęęğ": 1372,
      "Ėęęē": 1373,
      "ĖęęęęĘĘ": 1374,
      "ėęĚęęęę": 1375,
      "ĘęęĒ": 1376,
      "Ěě": 1377,
      "Ěęęęęęęęęęęęę": 1378,
      "ěď": 1379,
      "ěęęęě": 1380,
      "ěĚęęě": 1381,
      "ĜĘęęě": 1382,
      "ğ\"": 1383,
      "ğęęĖ": 1384,
      "ĠęęĘ": 1385,
      "Ġęęě": 1386,
      "ĠęęęĞ": 1387,
      "ęęęęęęĚę": 1388,
      "ęĘđ": 1389,
      "ęĘęĘęęęęĘ": 1390,
      "ĀĀ,": 1391,
      "ęěęě": 1392,
      "ęěęėęęĘ": 1393,
      "ęėđ": 1394,
      "ęėğ": 1395,
      "ęėęĘ": 1396,
      "ęėęęĘęĚ": 1397,
      "ęėęĘęęĚ": 1398,
      "ęėęěęęĘ": 1399,
      "ęęęęęęęęĚęęęęęę": 1400,
      "ęęėęęĚ": 1401,
      "ęęėĘęęĚ": 1402,
      "ęęěĚęęęę": 1403,
      "ęęěěęęĚ": 1404,
      "ĘęęęęěĚ": 1405,
      "ęĜĚĘęęĚ": 1406,
      "ęĖęě": 1407,
      "ęĖĚęęęę": 1408,
      "ęĖėęęęę": 1409,
      "ęĖęěęęęę": 1410,
      "ęęĜĚęęě": 1411,
      "ęĚęęęęĘęęęę": 1412,
      "ęĚęęęęĘęęĘ": 1413,
      "ęĚęęęęęęĘęęęęęę": 1414,
      "ęĘęęęęĚęęĘ": 1415,
      "ęĘęęęęĘęęĘ": 1416,
      "ęĝęęě": 1417,
      "ęĕĒ": 1418,
      "ĚĘĚęęęę": 1419,
      "ĚĘęęĖ": 1420,
      "ĚĘĚęęĘ": 1421,
      "ęĚĘĚęęęę": 1422,
      "ęĚĘĖęęęę": 1423,
      "ęĚĘėęęė": 1424,
      "ęĚĘęęęĘęęĘ": 1425,
      "ęęęęĘęĚęęęę": 1426,
      "ęĘĘėęęĚ": 1427,
      "ęĘĘėęęĘ": 1428,
      "ęęęėęęě": 1429,
      "ęĘĚėęęęę": 1430,
      "ęĚĚęęęĚę": 1431,
      "ęĞĞ": 1432,
      "ęęĚęęęęęęĘę": 1433,
      "ęęĚęęęęęĘĘęęęę": 1434,
      "ęĔĝ": 1435,
      "ěęęĘęęĚ": 1436,
      "ęĚěėęęĚ": 1437,
      "ęĚěĖęęĚ": 1438,
      "ęĚěęęęĚę": 1439,
      "ĀĀęĀĔ": 1440,
      "ęĘěęęęě": 1441,
      "ęěĘĚęęĚ": 1442,
      "ęĚėĘęęė": 1443,
      "ęĘėęęęė": 1444,
      "ĀĀěĀĕ": 1445,
      "ĀĀěĀĔ": 1446,
      "ęęęĖę": 1447,
      "ĀĀĖĀĞ": 1448,
      "ęğĞ": 1449,
      "ęėėĘęęęę": 1450,
      "ęėėěęęĘ": 1451,
      "ęěęęęęė": 1452,
      "ĚĚęęęĚ": 1453,
      "ęēĖ": 1454,
      "ęēė": 1455,
      "ęēě": 1456,
      "ęēęęĘ": 1457,
      "ĀĀĜĀĝ": 1458,
      "ĀĀĜĀĞ": 1459,
      "ęěěĚęęĚ": 1460,
      "ęĚĚęęęęĚ": 1461,
      "ęęęĚęęęęęęĘ": 1462,
      "ĚęęęęĘĘęęęę": 1463,
      "ęėěęęęě": 1464,
      "ĀĀĝĀĚ": 1465,
      "ęĜĘėęęĘ": 1466,
      "ęĚĜĘęęĚ": 1467,
      "ęĚĜĘęęě": 1468,
      "ęĘęęęęĚę": 1469,
      "ęĘĖĚęęĘ": 1470,
      "ęĘĖęęęė": 1471,
      "ęĘĜĚęęĚ": 1472,
      "ĀĀĞĀĚ": 1473,
      "ĀĀğĀĜ": 1474,
      "ĀĀğĀĝ": 1475,
      "ĀĀĒĀĘ": 1476,
      "ĀĀĒĀė": 1477,
      "ęĖĚĚęęĚ": 1478,
      "ĀĀēĀĕ": 1479,
      "ĚęęęęĚęĚęęęę": 1480,
      "ĖĚęęĕ": 1481,
      "ęĖęęęęě": 1482,
      "ęęěęęęęęęĚ": 1483,
      "ęĘęĚęęė": 1484,
      "ęĘęĚęęĘę": 1485,
      "ęĚęĘęęĖ": 1486,
      "Ėėęęĕ": 1487,
      "ĀĀ$ĀĘ": 1488,
      "ęęĘĘęęĘę": 1489,
      "ęĚĚĘęęĘ": 1490,
      "ĀĀĐĀĘ": 1491,
      "ĀĀďĀ": 1492,
      "!$": 1493,
      "!ĝ": 1494,
      "\"ĀĀěĀ": 1495,
      "ĀĚĘ": 1496,
      "ĎĚ": 1497,
      "ďĚ": 1498,
      "Đď": 1499,
      "Đē": 1500,
      "ĐĞ": 1501,
      "đĔ": 1502,
      "đęęě": 1503,
      "ēď": 1504,
      "Ĕęęęė": 1505,
      "ĔěęęĘ": 1506,
      "ĕğ": 1507,
      "Ė$": 1508,
      "ĖĔ": 1509,
      "Ėęĝ": 1510,
      "ĖěęęĘ": 1511,
      "ĖĘęęė": 1512,
      "ėĔ": 1513,
      "ėęě": 1514,
      "Ęě": 1515,
      "ĘėęęĘ": 1516,
      "Ęęęğ": 1517,
      "Ęęęęęęęęęęęę": 1518,
      "ĚĀĀ": 1519,
      "ĚęęęĚę": 1520,
      "ěęĚęęęę": 1521,
      "ěĚęęė": 1522,
      "ěĘęęě": 1523,
      "Ĝę": 1524,
      "ĜęęĔ": 1525,
      "ĝęęĔ": 1526,
      "ĝĘęęě": 1527,
      "Ğęęě": 1528,
      "ĞęęĖ": 1529,
      "Ğęęĕ": 1530,
      "ĞęęęęĘ": 1531,
      "ğęęĜ": 1532,
      "ĠĒ": 1533,
      "Ġęęė": 1534,
      "ĠĀě": 1535,
      "ĠĀĝ": 1536,
      "ęęęęęęě": 1537,
      "ęęęęęęĘę": 1538,
      "ęĚęęĕ": 1539,
      "ęĚęęęęęęęęęęęęę": 1540,
      "ęĚęęęęęęęęęęęĚ": 1541,
      "ęĘęĜ": 1542,
      "ęĘėęęĘ": 1543,
      "ęĘĖęęęę": 1544,
      "ęĘęĜęęęę": 1545,
      "ęĘęėęęĘ": 1546,
      "ęęĘęęĘ": 1547,
      "ęęĘěęęęę": 1548,
      "ęęĘėęęĚ": 1549,
      "ęęĚěęęĘ": 1550,
      "ĀĀ.": 1551,
      "ęěęĘęęęęĘ": 1552,
      "ęěĚĘęęĘ": 1553,
      "ęėęĚęęě": 1554,
      "ęęęęęęęęęęĘ": 1555,
      "ęęęęęęęęęęĚę": 1556,
      "ęęęęęęęęęęęĘęęęę": 1557,
      "ęęėęęęĚ": 1558,
      "ęęěėęęĚ": 1559,
      "ęęęĘęęęęĘĘ": 1560,
      "ęĜěęęęę": 1561,
      "ęĖęęĘę": 1562,
      "ęęĜĚęęĚ": 1563,
      "ęęĜėęęĚ": 1564,
      "ęĚęęęęęęęĘ": 1565,
      "ęĘęęęęęęė": 1566,
      "ęĘęęęęĚęęĚ": 1567,
      "ęĘęęęęęęęĚęęęę": 1568,
      "ęĝęęęęĚ": 1569,
      "ęĝęĚęęĚ": 1570,
      "ęĕęęě": 1571,
      "ĚĘęęĝ": 1572,
      "ęĚĘėęęě": 1573,
      "ęĚĘĘęęęęĘ": 1574,
      "ęĚĘĜęęĘ": 1575,
      "ęĘĘęęęě": 1576,
      "ėęęęęęęĚ": 1577,
      "ėęęęęĚĘ": 1578,
      "ėęęęęėĚ": 1579,
      "ęęĝęě": 1580,
      "ęĘĚěęęĘ": 1581,
      "ęĘĚěęęě": 1582,
      "ęĘĚĜęęĚ": 1583,
      "ęĘĚĚęęĚę": 1584,
      "ęĚĚěęęĚ": 1585,
      "ęĚĚĚęęě": 1586,
      "ęęęĎ": 1587,
      "ęęęď": 1588,
      "ęęęěęęě": 1589,
      "ęĔğ": 1590,
      "ęĔęęęę": 1591,
      "Āěě": 1592,
      "ęĚěĚęęęę": 1593,
      "ęĚěęęęĜ": 1594,
      "ęĚěėęęě": 1595,
      "ęĘěĚęęęę": 1596,
      "ęěĘęęęė": 1597,
      "ęěĘĘęęě": 1598,
      "ęěĘęęęĖ": 1599,
      "ęěĘėęęė": 1600,
      "ęěĘĖęęĘ": 1601,
      "ęĚėėęęė": 1602,
      "ęĘėĚęęęę": 1603,
      "ęĘėĘęęė": 1604,
      "ĀĀĚĀē": 1605,
      "ĀĀėĀĔ": 1606,
      "ęęĚęē": 1607,
      "ęėĚęęęĘ": 1608,
      "ęėĚěęęě": 1609,
      "ĀĀěĀğ": 1610,
      "ĀĀĖĀğ": 1611,
      "ęėėĘęęė": 1612,
      "ęėėěęęė": 1613,
      "ęěęęęęęęĚ": 1614,
      "ĚĚęęĜ": 1615,
      "ęēĝ": 1616,
      "ěęęėę": 1617,
      "ĀĀĜĀĔ": 1618,
      "ęěėęęęė": 1619,
      "ęěėęęęĖ": 1620,
      "ęěěĘęęęę": 1621,
      "ęěěęęęě": 1622,
      "ęęĘęĚęĘęęęę": 1623,
      "ęėěĚęęě": 1624,
      "ěęęěę": 1625,
      "ĀĀĔĀĔ": 1626,
      "ęĜĘęęęĘ": 1627,
      "ęĚĜĖęęĚ": 1628,
      "ęĖĘęęęĘ": 1629,
      "ěĘęęęĘ": 1630,
      "ěĘęęĜ": 1631,
      "ěĘęęĞ": 1632,
      "ęĚĖĘęęė": 1633,
      "ĘęęęęĚĚęęęę": 1634,
      "ęĘĜĘęęě": 1635,
      "ęĒĘ": 1636,
      "ęęęĕęęĚ": 1637,
      "ęĜĚęęęĘ": 1638,
      "ĀĀğĀĔ": 1639,
      "ęĜėęęęĘ": 1640,
      "ĀĀĒĀĖ": 1641,
      "ĀĀĒĀĕ": 1642,
      "ęĖĚęęęĚ": 1643,
      "ĀĀēĀĖ": 1644,
      "ęėĖęęęĘ": 1645,
      "ęėĖěęęĘ": 1646,
      "ęĜĜėęęĚ": 1647,
      "ęęęęĘĚĚęęęę": 1648,
      "ęĖěęęęĜ": 1649,
      "ęđė": 1650,
      "ĖĘęęĕ": 1651,
      "ĕĘęęĕ": 1652,
      "ę\"Ę": 1653,
      "ĀĀ$Āė": 1654,
      "ęęĚĘęęĚę": 1655,
      "ęĘęĘęęė": 1656,
      "ęĚĘĘęęĘę": 1657,
      "ĀĀĎĀě": 1658,
      "ęėęęęęĚę": 1659,
      "ęĚęęęęęęĚĘ": 1660,
      "ęęęęęęęęęęęęęęęęęęęęęęęęęę": 1661,
      "\"Ę": 1662,
      "$ĀĀ": 1663,
      "%Ę": 1664,
      "ďĕ": 1665,
      "ĐĒ": 1666,
      "Đğ": 1667,
      "đĐ": 1668,
      "đě": 1669,
      "Ē!": 1670,
      "Ēę": 1671,
      "Ēĝ": 1672,
      "ēē": 1673,
      "ĔĘęęĘ": 1674,
      "ĔęęęęĘ": 1675,
      "ĔęęĞ": 1676,
      "ĕĔ": 1677,
      "ĕęęĚę": 1678,
      "ĕęęĘę": 1679,
      "Ėę": 1680,
      "Ėęęęė": 1681,
      "ĖėęęĘ": 1682,
      "ĖĖęęĘ": 1683,
      "Ėĕęęęę": 1684,
      "ė\"": 1685,
      "ėėęęĘ": 1686,
      "Ęęę!": 1687,
      "ęĀĀĘĀ": 1688,
      "Ěęę": 1689,
      "ĚęĚ": 1690,
      "Ěęęęęęęęęęęę": 1691,
      "Ěęę!": 1692,
      "ě\"": 1693,
      "ěęęğ": 1694,
      "ěėęęě": 1695,
      "ěĜęęě": 1696,
      "ĜĐ": 1697,
      "ĜĘęęęę": 1698,
      "ĜĘęęĚ": 1699,
      "ĜėęęĚ": 1700,
      "ĜěęęĚ": 1701,
      "ĜęęĚę": 1702,
      "ĜęęęęĘĘ": 1703,
      "ĝď": 1704,
      "ĝęĚ": 1705,
      "ĝĘęęęę": 1706,
      "ĝęęęęĚ": 1707,
      "ĝĘęęĚ": 1708,
      "ĝęęē": 1709,
      "ĝęęĘęĚ": 1710,
      "ĞĀĀ": 1711,
      "ĞęęĞ": 1712,
      "ĞĚęęě": 1713,
      "ğĐ": 1714,
      "Ġ\"": 1715,
      "ĠĔ": 1716,
      "ĠęęĖ": 1717,
      "Ġěęęě": 1718,
      "ĠĀĀęĀ": 1719,
      "ĠĀĀĘĀ": 1720,
      "ęę&": 1721,
      "ęęęęĜ": 1722,
      "ęĚęĔ": 1723,
      "ęĚęęęęęęęęęęęęęęęę": 1724,
      "ęĚĖęęęę": 1725,
      "ęĚęęĘęĚ": 1726,
      "ęĚĜęęęę": 1727,
      "ęĚęęęĚę": 1728,
      "ęĚęĖęęęę": 1729,
      "ęĚęěęęĚ": 1730,
      "ęĘęė": 1731,
      "ęĘęē": 1732,
      "ęĘęĘęęęęĚ": 1733,
      "ęĘęęęęęęęęęęęęę": 1734,
      "ęĘęęęęęęęęęęęęęęęęęęęę": 1735,
      "ęĘęěęęęęĚ": 1736,
      "ęĘęęęęęęęęęęęĚ": 1737,
      "ęĘęĜęęĘ": 1738,
      "ęęĘęęė": 1739,
      "ęęĘĖęęĘ": 1740,
      "ęęĚėęęęę": 1741,
      "ęęĚĜęęĚ": 1742,
      "ęěđ": 1743,
      "ęěęęĜ": 1744,
      "ęěĘęęĚ": 1745,
      "ęėĒ": 1746,
      "ęėęĜ": 1747,
      "ęėęėęęęę": 1748,
      "ęėĜęęęę": 1749,
      "ęėęĚęęė": 1750,
      "ęėęĜęęĚ": 1751,
      "ęęėěęęęę": 1752,
      "ęęėĘęęė": 1753,
      "ęęėęęęĘę": 1754,
      "ęęěĚęęĘ": 1755,
      "ĘęęęęėĘ": 1756,
      "ęęęĚęęĘę": 1757,
      "ĚęęęęęęęĘ": 1758,
      "ęĜęĚęęęę": 1759,
      "ęĜęĘęęęę": 1760,
      "ęĜėęęęę": 1761,
      "ęĜęėęęĘ": 1762,
      "ęĜĚĘęęĘ": 1763,
      "ęĖęė": 1764,
      "ęĖęęĖ": 1765,
      "ęĖęĚęęęę": 1766,
      "ęĖęĚęęĘ": 1767,
      "ęęĖĚęęė": 1768,
      "ęęĜĘęęĚ": 1769,
      "ęęĜěęęĚ": 1770,
      "ęęĜėęęě": 1771,
      "ęĚęęęęĖ": 1772,
      "ęĚęęęęęĘęęęę": 1773,
      "ęĚęęęęĚęęĚ": 1774,
      "ęĘęęęęęęĚĘęęęę": 1775,
      "ęĝ!": 1776,
      "ęĝē": 1777,
      "ęĕęęĖ": 1778,
      "ĚĘęęĕ": 1779,
      "ęĚĘęęęě": 1780,
      "ęĚĘęęĚę": 1781,
      "ęĚĘĘęęě": 1782,
      "ęĚĘĖęęě": 1783,
      "ęĘĘĚęęě": 1784,
      "ęĘĘĖęęĘ": 1785,
      "ęĘĘęęęĚę": 1786,
      "ęĘĘĘęęęęĚ": 1787,
      "ęĘĘěęęęęĚ": 1788,
      "ėęęęęě": 1789,
      "ėęęęęęęĘ": 1790,
      "ęęĝęĕ": 1791,
      "ęĘĚęęęĜ": 1792,
      "ęĘĚęęęěę": 1793,
      "ęĚĚęęęęęęęęęęęę": 1794,
      "ęĚĚĖęęęę": 1795,
      "ęĚĚĘęęęęĘ": 1796,
      "ęĚĚĖęęě": 1797,
      "ęĚĚĕęęĚ": 1798,
      "ęęęęĚęĚęęęę": 1799,
      "ęęęęĚęĘęęęę": 1800,
      "ĘęęĚęĖ": 1801,
      "ěęęęęėĘ": 1802,
      "ęęĔę": 1803,
      "ęęĞęě": 1804,
      "ęĔęęĚ": 1805,
      "Āěğ": 1806,
      "ęĚěĚęęě": 1807,
      "ĀĀęĀĞ": 1808,
      "ęěĘĘęęĚ": 1809,
      "ęěĘĘęęė": 1810,
      "ęěĘĖęęęę": 1811,
      "ĘęęėęĜĘ": 1812,
      "ęĚėĜęęĘ": 1813,
      "ęĘėĘęęęę": 1814,
      "ęĘėėęęė": 1815,
      "ęĘėĜęęė": 1816,
      "ęěĚęęęě": 1817,
      "ęěĚĖęęĚ": 1818,
      "ęėĘěęęĘ": 1819,
      "ĀĜĚ": 1820,
      "ĀĜĜ": 1821,
      "ęėĚĘęęęę": 1822,
      "ęėĚĚęęĘ": 1823,
      "ęėĚĚęęě": 1824,
      "ęėĚėęęě": 1825,
      "ęėĚĜęęĚ": 1826,
      "ĀĀĖĀě": 1827,
      "ĀĀĖĀē": 1828,
      "ęğğ": 1829,
      "ęęęĘęęęęęęĘęęęę": 1830,
      "ęėėĚęęė": 1831,
      "ęęĚęęęĚęęĘ": 1832,
      "ęęĚęęęĚęęĚ": 1833,
      "ęěęęęęęęĘ": 1834,
      "ęěęęęęęęě": 1835,
      "ęěęęęęęęĘęęęę": 1836,
      "ĚĚęęĞ": 1837,
      "ęěěĘęęĚ": 1838,
      "ęěěėęęě": 1839,
      "ęęĒęĜ": 1840,
      "ęęęĚęęęęęę": 1841,
      "Ĝęęęęė": 1842,
      "ęėěĚęęęę": 1843,
      "ĀĀĕĀĞ": 1844,
      "ĀĀĔĀĝ": 1845,
      "ĀĀĝĀě": 1846,
      "ĀĀĝĀĔ": 1847,
      "ĘęęęęĘęĘęęęę": 1848,
      "ęĜĘęęęė": 1849,
      "ęĚĜęęęě": 1850,
      "ęĖĘĚęęęę": 1851,
      "ęĖĘĚęęĚ": 1852,
      "ęĖĘĘęęĘ": 1853,
      "ěĘĘęęęę": 1854,
      "ĘęęęęĚė": 1855,
      "ĘęęęęĚęĘęęęę": 1856,
      "ęĘĜĚęęě": 1857,
      "ėĚęęęĚ": 1858,
      "ėĚęęĕ": 1859,
      "ęěĜĘęęĚ": 1860,
      "ęěĜėęęĚ": 1861,
      "ęěĜĘęęě": 1862,
      "ęěĜėęęě": 1863,
      "ęĜĚęęęĚ": 1864,
      "ęĜĚĚęęĚ": 1865,
      "ęęęęĘĘĘęęęę": 1866,
      "ĀĀğĀĖ": 1867,
      "ĀĀğĀĞ": 1868,
      "ęĜėĚęęĘ": 1869,
      "ęĜėęęęė": 1870,
      "ĀĀĒĀĞ": 1871,
      "ĀĀēĀĞ": 1872,
      "ęėĖęęęė": 1873,
      "ĕęęĚęĔ": 1874,
      "ĚęęęęĚęĘęęęę": 1875,
      "ėěĚęęĚ": 1876,
      "ĀĀđĀĘ": 1877,
      "ĀĀđĀğ": 1878,
      "ę!Ě": 1879,
      "ęĚęĘęęĚę": 1880,
      "ěĝęęě": 1881,
      "ĀĀ!Āė": 1882,
      "ĕĚęęĔ": 1883,
      "ęęĘĘęęęęę": 1884,
      "ęĕĚĚęęĚ": 1885,
      "ęĕĚėęęĚ": 1886,
      "ęĚĚĘęęě": 1887,
      "ęęęęĚĚĚęęęę": 1888,
      "ęĘĘęęęĘęęęęęęęę": 1889,
      "ěĞęęęę": 1890,
      "ĠĘęęğ": 1891,
      "ĠĚęęĞ": 1892,
      "ęĘęěęęě": 1893,
      "!Ė": 1894,
      "!ĀĀėĀ": 1895,
      "#ė": 1896,
      "#ě": 1897,
      "#ğ": 1898,
      "$Ę": 1899,
      "$ě": 1900,
      "$ĝ": 1901,
      "%ĕ": 1902,
      "&#": 1903,
      "Ā#": 1904,
      "Ďĕ": 1905,
      "ďē": 1906,
      "Đđ": 1907,
      "đęęĖ": 1908,
      "ē$": 1909,
      "ĔěĜ": 1910,
      "ĕĘęęĘ": 1911,
      "ĕęęĞ": 1912,
      "ĕĚęęė": 1913,
      "ĕęęęĖ": 1914,
      "Ėē": 1915,
      "Ėğ": 1916,
      "Ėęę": 1917,
      "Ėěęęęę": 1918,
      "ĖęęĚę": 1919,
      "Ėėęęė": 1920,
      "Ėęę!": 1921,
      "ėĘęęĚ": 1922,
      "ėėęęĚ": 1923,
      "ėĘęęė": 1924,
      "ėĖęęĘ": 1925,
      "Ę\"": 1926,
      "Ęęę": 1927,
      "ĘęęęĘ": 1928,
      "Ęęęęęęęęęęęęę": 1929,
      "ĘĘęęęęĚ": 1930,
      "ęĀĀęĀ": 1931,
      "Ěğ": 1932,
      "Ěęęęě": 1933,
      "ĚěęęĚ": 1934,
      "Ěęęē": 1935,
      "Ěęęęęęęęęęęęęęęęęęę": 1936,
      "ěğ": 1937,
      "ěęĘęęęę": 1938,
      "ěĚęęĘ": 1939,
      "ěĘęęĘ": 1940,
      "ěĜęęĚ": 1941,
      "ĜĎ": 1942,
      "ĜĔ": 1943,
      "Ĝěęęęę": 1944,
      "Ĝęęē": 1945,
      "Ĝėęęě": 1946,
      "ĜĔęęĚ": 1947,
      "ĝęęęĚ": 1948,
      "ĝęęęě": 1949,
      "ĝĚęęě": 1950,
      "ĝęęĚę": 1951,
      "ĝĜęęĚ": 1952,
      "ğ&": 1953,
      "ğęęĕ": 1954,
      "Ġ$": 1955,
      "Ġď": 1956,
      "Ġē": 1957,
      "Ġęęĝ": 1958,
      "ĠęęĔ": 1959,
      "ĠĀĘ": 1960,
      "Ġėęęě": 1961,
      "ĠęęĘęĚ": 1962,
      "ĠęĘĜ": 1963,
      "ęęęęęęĖ": 1964,
      "ęĚėęęĚ": 1965,
      "ęĚęěęęęę": 1966,
      "ęĚęęęęęęęęęęę": 1967,
      "ęĚęėęęě": 1968,
      "ęĘĐ": 1969,
      "ęĘęėęęě": 1970,
      "ęĘĚĘęęĚę": 1971,
      "ęĘĚĘęęĜ": 1972,
      "ęĘęĜęęĚ": 1973,
      "ęĘęėęęė": 1974,
      "ęĘęĝęęĘ": 1975,
      "ęęĘĖęęęę": 1976,
      "ęęĘěęęė": 1977,
      "ęęĘęęęĚę": 1978,
      "ęęĘĖęęě": 1979,
      "ęęĘĚęęęęĚ": 1980,
      "ęęĘĚęęĘę": 1981,
      "ęęĚĚęęė": 1982,
      "ęęĚęęęĜ": 1983,
      "ęęĚĚęęęęĘ": 1984,
      "ęęĚĜęęęę": 1985,
      "ĀĀă": 1986,
      "ĀĀĄ": 1987,
      "ęěęĘ": 1988,
      "ęěęė": 1989,
      "ęěęęĘęĚ": 1990,
      "ęěĜęęęę": 1991,
      "ęěęĚęęĚ": 1992,
      "ęěęĘęęęęĚ": 1993,
      "ęěęęęęĘĘ": 1994,
      "ęěęĘęęė": 1995,
      "ęěęĖęęĚ": 1996,
      "ęėęĚ": 1997,
      "ęėęė": 1998,
      "ęėęĘęęęęĚ": 1999,
      "ęėęĖęęęę": 2000,
      "ęęęęęęęęęęęė": 2001,
      "ęęęęęęęęęęĚęęęę": 2002,
      "ęęęęęęęęĚęęęęĘ": 2003,
      "ęęęęęęęęęęęęĘĚ": 2004,
      "ęęęęęęęęĘĘ": 2005,
      "ęęęęęęęęĘęęęęęę": 2006,
      "ęęėęĝ": 2007,
      "ęęėĖęęĘ": 2008,
      "ęęėĚęęĖ": 2009,
      "ęęėĜęęė": 2010,
      "ęęěęęęĚę": 2011,
      "Ęęęęęęė": 2012,
      "ĘęęęęęęĘęęęę": 2013,
      "ĘęęęęĚĚ": 2014,
      "ęęęĚĚęęęę": 2015,
      "ęęęĚęęĘęęęę": 2016,
      "ęęęĚęęĚę": 2017,
      "ĚęęęęęĚĚęęęę": 2018,
      "ĚęęęęėĘ": 2019,
      "ęęęĘęęĜ": 2020,
      "ęĜĜęęęę": 2021,
      "ęĜęĚęęĚ": 2022,
      "ęĜĚĘęęė": 2023,
      "ęĖĐ": 2024,
      "ęĖĒ": 2025,
      "ęĖęęĜ": 2026,
      "ęęĖėęęė": 2027,
      "ęęĜęęĘ": 2028,
      "ęĚęęęęęęě": 2029,
      "ęĚęęęęĚęęĘ": 2030,
      "ęĚęęęęėęęęę": 2031,
      "ęĚęęęęęęĘęęęę": 2032,
      "ęĘęęęęęęĚĚęęęę": 2033,
      "ęĝĒ": 2034,
      "ęĝęęęęĘ": 2035,
      "ęĕĘęęęę": 2036,
      "ęĕęĘęęĚ": 2037,
      "ĚĘęę": 2038,
      "ĚĘęęĘę": 2039,
      "ĚĘĚęęĘę": 2040,
      "ĚęęĚęĘĚ": 2041,
      "ĚęęĚęĘě": 2042,
      "ęĚĘĘ": 2043,
      "ęĚĘėęęĚ": 2044,
      "ęĚĘěęęė": 2045,
      "ęĚĘĕęęĘ": 2046,
      "ęĚĘęęęĘęęĚ": 2047,
      "ęĚĘĚęęĘę": 2048,
      "ĚęęĘęęęęęęęę": 2049,
      "ĚęęĘęĜ": 2050,
      "ĘęęĘęěě": 2051,
      "ęęĕęęě": 2052,
      "ęęęęĘę": 2053,
      "ęĘĘęęęęęęęęęęęę": 2054,
      "ęĘĘėęęě": 2055,
      "ęĘĘĚęęĖ": 2056,
      "ęęęėęęęęĘ": 2057,
      "ęęęėęėĜ": 2058,
      "ėęęęęĞ": 2059,
      "ėęęęęėě": 2060,
      "ęęĝęęęě": 2061,
      "ęĘĚęęęęęęęęęęęę": 2062,
      "ęĘĚĘęęęęĚ": 2063,
      "ęĚĚěęęĘ": 2064,
      "ęĚĚėęęĘ": 2065,
      "ęĚĚĖęęĚ": 2066,
      "ęĚĚěęęě": 2067,
      "ęĚĚĜęęĚ": 2068,
      "ęĚĚĚęęĜ": 2069,
      "ęĚĚĚęęĚę": 2070,
      "ęęęěęęĖ": 2071,
      "ęęęěęęęęĚ": 2072,
      "ęęęęĚę": 2073,
      "ěęęęęĜ": 2074,
      "ęęĚęęęęęęĘęęęę": 2075,
      "ęęĚęęęęęĘęęęęęę": 2076,
      "ęęĞęĜ": 2077,
      "ęęĞęĕ": 2078,
      "ęĔęęě": 2079,
      "ęĔĘęęęę": 2080,
      "ęęĘęęęęęęė": 2081,
      "ęĚěėęęĘ": 2082,
      "ęĚěěęęĚ": 2083,
      "ęĚěĖęęęę": 2084,
      "ĀĚĞ": 2085,
      "ĀĀęĀğ": 2086,
      "ĀĀĘĀğ": 2087,
      "ęĘěęęęĜ": 2088,
      "ęĘěĖęęĚ": 2089,
      "ęĘěĖęęĜ": 2090,
      "ęěĘěęęĘ": 2091,
      "ęěĘĚęęė": 2092,
      "ęěĘęęęĘę": 2093,
      "ęěĘĘęęĖ": 2094,
      "Ęęęėęē": 2095,
      "ęĚėęęęĘę": 2096,
      "ęĚėĚęęĖ": 2097,
      "ęĘėęęęĘę": 2098,
      "ęęēęě": 2099,
      "ęęēęěĘ": 2100,
      "ęęēęĜĚ": 2101,
      "ĀĀėĀē": 2102,
      "ĀĀėĀĚĚ": 2103,
      "ęěĚěęęęę": 2104,
      "ęěĚėęęě": 2105,
      "ęěĚęęęĚę": 2106,
      "ęėĘęęęė": 2107,
      "ęėĘěęęęę": 2108,
      "ęėĘėęęė": 2109,
      "ęėĘĜęęĘ": 2110,
      "ĀĜĞ": 2111,
      "ęęĘęğ": 2112,
      "ęęğęě": 2113,
      "ęėĚĚęęęę": 2114,
      "ęėĚėęęęę": 2115,
      "ęėĚěęęęę": 2116,
      "ęėĚěęęĚ": 2117,
      "Ęęęěę": 2118,
      "ęęęĜę": 2119,
      "ęęęęęęęęęęęęęęęęęęęęęęęęęęę": 2120,
      "ęęęęęęęęęęęęęęęęęęęęęęęęęęęęę": 2121,
      "ĀĀĖĀĔ": 2122,
      "ĀĀĖĀěĘ": 2123,
      "ęğĖ": 2124,
      "ęğě": 2125,
      "ęėėĚęęĘ": 2126,
      "ęěęęęęě": 2127,
      "ęěęęęęęęė": 2128,
      "ęėęęęęęę": 2129,
      "ęėęęęęęęĘ": 2130,
      "ĚĚęęğ": 2131,
      "ĀĀĜĀĕ": 2132,
      "ęěėĚęęė": 2133,
      "ęěėėęęė": 2134,
      "ęěěĚęęęę": 2135,
      "ęěěęęęĘ": 2136,
      "ęěěĘęęĜ": 2137,
      "ęęĘęĚĚęęęę": 2138,
      "ęęęĚęęęęę": 2139,
      "ĚęęęęĘě": 2140,
      "ęėěěęęęę": 2141,
      "ĀĀĕĀě": 2142,
      "ĀĀĕĀė": 2143,
      "ĀĀĕĀğ": 2144,
      "ęĘĘęęęęęĚĚęęęę": 2145,
      "ĀĀĔĀĖ": 2146,
      "ĀĀĝĀĝ": 2147,
      "ĀĀĝĀē": 2148,
      "ěĚĘęęęę": 2149,
      "ěĚęęĝ": 2150,
      "ęĜĘęęęĚ": 2151,
      "ęĜĘėęęęę": 2152,
      "ęĜĘĘęęĚ": 2153,
      "ęĚĜėęęě": 2154,
      "ĜęęĘęėě": 2155,
      "ěĘĘęęĘ": 2156,
      "ěĘęęĝ": 2157,
      "ęĘĚęęęęĚ": 2158,
      "ęĚĖęęęė": 2159,
      "ęĚĖęęęĖ": 2160,
      "ęĘĖĘęęė": 2161,
      "ęĘĖěęęė": 2162,
      "ęĚęęęęĘęĚęęęęĘ": 2163,
      "ĖęęěęĖė": 2164,
      "ėĚĚęęęę": 2165,
      "ęěĜęęęě": 2166,
      "ęęęĕęęęę": 2167,
      "ęęęĕęęĘ": 2168,
      "ĀĀĞĀē": 2169,
      "ęĜĚėęęĘ": 2170,
      "ęęęęĘĘĚęęĘ": 2171,
      "ĀĀğĀė": 2172,
      "ęĜėėęęĘ": 2173,
      "ěěě": 2174,
      "ěěęęĝ": 2175,
      "ĕęęęęęĜ": 2176,
      "ĀĀĒĀĝ": 2177,
      "ęĖĚěęęęę": 2178,
      "ĀĀēĀė": 2179,
      "ĀĀēĀĝ": 2180,
      "ėĘĘęęĘ": 2181,
      "Ėęęėęęė": 2182,
      "ęęęĝę": 2183,
      "ęėĖĚęęĘ": 2184,
      "ęĖėęęęė": 2185,
      "ęĖĖęęęė": 2186,
      "ęĜĜęęęĜ": 2187,
      "ęĜĜĖęęĚ": 2188,
      "ĀĀđĀĚ": 2189,
      "ĀĀđĀė": 2190,
      "ĀĀđĀĝ": 2191,
      "ęęęęĘĚĚęęĚ": 2192,
      "ęęęęĘĚěęęĚ": 2193,
      "ęęěęęęęęęĘ": 2194,
      "ęĘęĚęęęęęęęęęęę": 2195,
      "ęę\"ęĖ": 2196,
      "ĀĀěĀđ": 2197,
      "ęĚęĘęęĘę": 2198,
      "ęĚęĘęęęęęęęęęęę": 2199,
      "ĀĀ!ĀĚ": 2200,
      "ĀĀ!Āĝ": 2201,
      "ęěĖęęęĖ": 2202,
      "ęĖěĘęęĚ": 2203,
      "ęĖěěęęĚ": 2204,
      "Ĝěęęĝ": 2205,
      "ęĘĕęęęĘ": 2206,
      "ęĘĕĘęęė": 2207,
      "ęĜĖĚęęė": 2208,
      "ęĜęęęęě": 2209,
      "ęĕĚęęęĚ": 2210,
      "ęđĕ": 2211,
      "Ėěęęĕ": 2212,
      "ę\"Ě": 2213,
      "ĀĀ$Āĝ": 2214,
      "ęĚĝęęęě": 2215,
      "ĀĀ\"Āě": 2216,
      "ęĚĚĘęęĖ": 2217,
      "ęęęęęęĚęęĚ": 2218,
      "ęĚęĚęęě": 2219,
      "ęĕėĘęęĘ": 2220,
      "ĀĀĐĀĖ": 2221,
      "ĀĀĐĀĝ": 2222,
      "ęĚĚęęęĚęęęęęęęę": 2223,
      "ęęęęęęęęęĘęęęĘę": 2224,
      "ęĝėĘęęĘ": 2225,
      "ęĚĞęęęĜ": 2226,
      "ęĘęĘęęĖ": 2227,
      "ĀĀĎĀĚ": 2228,
      "ĀĀďĀė": 2229,
      "ĀĀďĀĕ": 2230,
      "ęĘėęęęęę": 2231,
      "ĝĞęęĚ": 2232,
      "ĔĖęęĔ": 2233,
      "ğĚęęĞ": 2234,
      "ęĕęęęęě": 2235,
      "ĀĀĘĀĘĖ": 2236,
      "ęĘęęęęęęĘĘ": 2237,
      "ğĘęęĞ": 2238,
      "ğĘęęğ": 2239,
      "ĚęęęęęęĘĘ": 2240,
      "ĀĀĚĀĘĚ": 2241,
      "ęĚĔęęęė": 2242,
      "ęęęęęęęęęĚę": 2243,
      "ęĘĘěęęĘę": 2244,
      "ėęęęęĚĚėęęĚ": 2245,
      "ĀĀ+Ā": 2246,
      "ĀĀ-Ā": 2247,
      "ĀĀ,Ā": 2248,
      "!ĀĀęĀ": 2249,
      "##": 2250,
      "#Ě": 2251,
      "$ĕ": 2252,
      "$ğ": 2253,
      "%!": 2254,
      "%#": 2255,
      "%Ĝ": 2256,
      "%ĝ": 2257,
      "%ĀĀęĀ": 2258,
      "&Ě": 2259,
      "&ě": 2260,
      "'Ę": 2261,
      "'ĝ": 2262,
      "ĎęęĘ": 2263,
      "ďĜ": 2264,
      "ďęęĕ": 2265,
      "ďęęĝ": 2266,
      "ĐĎ": 2267,
      "Đĝ": 2268,
      "ĐęęĚ": 2269,
      "Đęęĝ": 2270,
      "đĝ": 2271,
      "đęęęę": 2272,
      "đęęęĘ": 2273,
      "đęęĝ": 2274,
      "đęęĔ": 2275,
      "đęęĞ": 2276,
      "đĘęęė": 2277,
      "đęęĒ": 2278,
      "Ēď": 2279,
      "ĒęęĒ": 2280,
      "ē!": 2281,
      "ēĘęęĘ": 2282,
      "ēęęęė": 2283,
      "ēęęğ": 2284,
      "ēęęęĖ": 2285,
      "ĔĀĀ": 2286,
      "ĔĚęęĘ": 2287,
      "ĔĚęęė": 2288,
      "Ĕĕęęĕ": 2289,
      "ĕ\"": 2290,
      "ĕę": 2291,
      "ĕĀĀ": 2292,
      "ĕĚęęęę": 2293,
      "ĕęęĘęĚ": 2294,
      "ĕěĚ": 2295,
      "ĕęęęęĘĘ": 2296,
      "ĕęęđ": 2297,
      "ĕĜĞ": 2298,
      "ĕĒĘ": 2299,
      "Ė#": 2300,
      "Ėęě": 2301,
      "ĖĚęęė": 2302,
      "ĖęęęĖ": 2303,
      "Ėęěęęęę": 2304,
      "ĖĜęęė": 2305,
      "ĖĀĀęĀ": 2306,
      "ĖĞĞ": 2307,
      "ėđ": 2308,
      "ėę": 2309,
      "ėęęęęęęęę": 2310,
      "ėęĜ": 2311,
      "ėęęęĖ": 2312,
      "ėĜęęė": 2313,
      "ėęę\"": 2314,
      "ėĚęęęęę": 2315,
      "ėęęęęęęęęęęęĘ": 2316,
      "Ęė": 2317,
      "Ęę": 2318,
      "ĘęĘęęęę": 2319,
      "ĘĘęęĘ": 2320,
      "ĚĔ": 2321,
      "ĚĖęęĚ": 2322,
      "ĚęęĒ": 2323,
      "ĚĖĚ": 2324,
      "ĚĕĚ": 2325,
      "ĚęęęęęęęęęęęĘ": 2326,
      "ěęĚ": 2327,
      "ěĖęęĚ": 2328,
      "ěęęđ": 2329,
      "ěĘęęĚę": 2330,
      "Ĝęę": 2331,
      "ĜĀĀ": 2332,
      "ĜęĘęęęę": 2333,
      "ĜėĘ": 2334,
      "ĜęęęęĚĚ": 2335,
      "ĝę": 2336,
      "ĝĀĀ": 2337,
      "ĝĚęęĚ": 2338,
      "ĝęęĞ": 2339,
      "ĝěęęĚ": 2340,
      "ĝęęĘę": 2341,
      "ĝĖęęĘ": 2342,
      "ĝĖęęĜ": 2343,
      "ĝĀĀ!": 2344,
      "ĝĜęęĖ": 2345,
      "ĞĘęęĚ": 2346,
      "Ğěęęęę": 2347,
      "Ğğęęě": 2348,
      "ğěĕ": 2349,
      "ĠĐ": 2350,
      "Ġęė": 2351,
      "ĠęęęęĘ": 2352,
      "ĠęęĞ": 2353,
      "ĠĚęęě": 2354,
      "Ġęę!": 2355,
      "ĠĀĀĚĀ": 2356,
      "ĠĀĀĜĀ": 2357,
      "ĠĕęęĜ": 2358,
      "ĠĔĚ": 2359,
      "ĠĀĀ\"Ā": 2360,
      "ęĚĒ": 2361,
      "ęĚęęęĘ": 2362,
      "ęĚęęęě": 2363,
      "ęĚęęĔ": 2364,
      "ęĚęęęęęęęęęęęęęęęęęęęę": 2365,
      "ęĚęĖęęĚ": 2366,
      "ęĘ!": 2367,
      "ęĘ\"": 2368,
      "ęĘęęĜ": 2369,
      "ęĘęĕ": 2370,
      "ęĘęęğ": 2371,
      "ęĘęęęęęęęęęęęęęęęę": 2372,
      "ęĘęĖęęęę": 2373,
      "ęĘĚęęĘę": 2374,
      "ęĘĚęęĚę": 2375,
      "ęęĘęęęęĘ": 2376,
      "ęęĘĚęęęęĘ": 2377,
      "ęęĘĘęęęęĚ": 2378,
      "ęęĘėęęĖ": 2379,
      "ęęĚėęęĘ": 2380,
      "ęęĚěęęě": 2381,
      "ęęĚĘęęęęĘ": 2382,
      "ęęĚĘęęĜ": 2383,
      "ęęĚĚęęęęĚ": 2384,
      "ęęĚĔęęĚ": 2385,
      "ĀĀ/": 2386,
      "ĀĀĆ": 2387,
      "ęěĐ": 2388,
      "ęěęęĝ": 2389,
      "ęěęęęě": 2390,
      "ęěĖęęęę": 2391,
      "ęěęĖęęęę": 2392,
      "ęěęęęęĚĚ": 2393,
      "ęěĚęęęęę": 2394,
      "ęěęěęęĚ": 2395,
      "ęěęėęęė": 2396,
      "ęěęĖęęě": 2397,
      "ęėĐ": 2398,
      "ęėęĖ": 2399,
      "ęėęĕ": 2400,
      "ęėěęęĘ": 2401,
      "ęėėęęĘ": 2402,
      "ęėęęĚę": 2403,
      "ęėĖęęęę": 2404,
      "ęėęěęęęę": 2405,
      "ęėęē": 2406,
      "ęėęĘęęęęĘ": 2407,
      "ęėęĚęęęęĘ": 2408,
      "ęėĕęęęę": 2409,
      "ęėęĜęęęę": 2410,
      "ęėęėęęĘ": 2411,
      "ęėĘęęĘę": 2412,
      "ęėęĜęęĘ": 2413,
      "ęėęěęęė": 2414,
      "ęęęęęęęęęęĘęęęę": 2415,
      "ęęęęęęęęĘęęęęĘ": 2416,
      "ęęėęęęęĘ": 2417,
      "ęęėęęęĕ": 2418,
      "ęęėęęęĔ": 2419,
      "ęęėĚęęĔ": 2420,
      "ęęěĘęęĘ": 2421,
      "ęęěěęęęę": 2422,
      "ęęěęęĘę": 2423,
      "ęęěĖęęęę": 2424,
      "ęęěĖęęě": 2425,
      "ęęěĘęęĜ": 2426,
      "ęęěęęęĘęęĚ": 2427,
      "Ęęęęęĝ": 2428,
      "Ęęęęęęęě": 2429,
      "ĘęęęęěĘ": 2430,
      "ĘęęęęėĚ": 2431,
      "ĘęęęęěĜ": 2432,
      "ĘęęęęęĘęęęęę": 2433,
      "ęęęĚęĚĚ": 2434,
      "ęęęĚęęĘęĚ": 2435,
      "ęęęĚęęęęęęęęęęę": 2436,
      "ęęęĚęęęęĚĚ": 2437,
      "ęęęĚęĚĘęęęĘ": 2438,
      "ĚęęęęĔ": 2439,
      "ęęęĘęĘė": 2440,
      "ęęęĘęęęęęęęęęęę": 2441,
      "ęĜĒ": 2442,
      "ęĜĚęęĚ": 2443,
      "ęĜęėęęęę": 2444,
      "ęĜęĘęęė": 2445,
      "ęĜęėęęė": 2446,
      "ęĜęĖęęė": 2447,
      "ęĖđ": 2448,
      "ęĖęėęęęę": 2449,
      "ęĖĚĘęęĚ": 2450,
      "ęĖęĘęęĚ": 2451,
      "ęęĖęęĚ": 2452,
      "ęęĖęĖ": 2453,
      "ęęĖĘęęĖ": 2454,
      "ęęĖĖęęė": 2455,
      "ęęĜę": 2456,
      "ęęĜĘęęĜ": 2457,
      "ęęĜėęęĜ": 2458,
      "ęĚęęęęęĚĚęęęę": 2459,
      "ęĚęęęęęĚęęęęęę": 2460,
      "ęĚęęęęęęęĘęęęęę": 2461,
      "ęĘęęęęĚęęęę": 2462,
      "ęĝęęė": 2463,
      "ęĝĚęęęę": 2464,
      "ęĝęęĖ": 2465,
      "ęĝęęĜ": 2466,
      "ęĝĜĚ": 2467,
      "ęĕĚęęęę": 2468,
      "ęĕėęęęę": 2469,
      "ĚĘėęęęę": 2470,
      "ĚĘėęęĘ": 2471,
      "ĚĘĚęęė": 2472,
      "ĚĘęęęĘę": 2473,
      "ĚĘęęęęęęęęęęę": 2474,
      "ęĚĘěęęęę": 2475,
      "ęĚĘęęęęęęęęęęęę": 2476,
      "ęĚĘĚęęęęĘ": 2477,
      "ęĚĘęęęĚę": 2478,
      "ęęĕęęęĘ": 2479,
      "ęęĕęęęĖ": 2480,
      "ęęĕĚęęĖ": 2481,
      "ęĘĘęęęĜ": 2482,
      "ęĘĘęęęĖ": 2483,
      "ęĘĘĜęęĘ": 2484,
      "ęĘĘĘęęĖ": 2485,
      "ęĘĘęęęĘęęĚ": 2486,
      "ęĘĘęęęĘęęĘ": 2487,
      "ęĘĘĝęęė": 2488,
      "ęęęėęĘĚ": 2489,
      "ęęęėęęĚęęęě": 2490,
      "ėęęęęĖ": 2491,
      "ėęęęęęęě": 2492,
      "ėęęęęęęĚęęęę": 2493,
      "ėęęęęėė": 2494,
      "ėęęęęėĝ": 2495,
      "ęęĝęĚ": 2496,
      "ęęĝęĖ": 2497,
      "ęęĝĘęęĚ": 2498,
      "ęęĝęĜė": 2499,
      "ęęĝęĘĞ": 2500,
      "ęĘĚėęęĘ": 2501,
      "ęĘĚĚęęė": 2502,
      "ęĘĚėęęě": 2503,
      "ęĘĚĜęęęę": 2504,
      "ęĘĚęęęęęęęęęęę": 2505,
      "ęĚĚęęě": 2506,
      "ęĚĚęęęĘę": 2507,
      "ęĚĚĘęęęęĚ": 2508,
      "ęęę\"": 2509,
      "ęęęěęęęęęęęę": 2510,
      "ęęęěęęė": 2511,
      "ęęęęĚĘęęęę": 2512,
      "ęĞ!": 2513,
      "ęĞęęė": 2514,
      "ěęęęęę": 2515,
      "ěęęęęęęĘ": 2516,
      "ěęęęęęęęĘ": 2517,
      "ęęĚęęęęęęĚę": 2518,
      "ęęĚęęęęęęęĘęęęę": 2519,
      "ęęĔęė": 2520,
      "ęęĔęęęė": 2521,
      "ęęĔęĞ": 2522,
      "ėęęĚęĘĘęęęę": 2523,
      "ęĔĒ": 2524,
      "ęĔē": 2525,
      "ęĔęęĘ": 2526,
      "ęĔęęė": 2527,
      "ęĔěĝ": 2528,
      "ęęĘęęęęęęě": 2529,
      "ęęĘęęęęęĘęęęęęę": 2530,
      "ęęęęęęęęęęęęęĘ": 2531,
      "ęĚěĘęęĘ": 2532,
      "ęĚěėęęęę": 2533,
      "ęĚěĚęęĜ": 2534,
      "ęĘěěęęęę": 2535,
      "ęĘěĜęęĚ": 2536,
      "ęĘěĜęęě": 2537,
      "ęĘěěęęĜ": 2538,
      "ęěĘĚęęęę": 2539,
      "ęěĘėęęĚ": 2540,
      "ęěĘěęęė": 2541,
      "ĘęęėęĒ": 2542,
      "ęĚėęęęĚ": 2543,
      "ęĚėėęęĚ": 2544,
      "ęĚėěęęĘ": 2545,
      "ęĚėęęęĖ": 2546,
      "ęĚėěęęė": 2547,
      "ęĚėĖęęĘ": 2548,
      "ęĚėęęęĕ": 2549,
      "ęĚėĕęęĘ": 2550,
      "ęĚėĚęęĕ": 2551,
      "ěęęĚęĚĚ": 2552,
      "ěęęĚęęĚĚęęĚ": 2553,
      "ęĘėĘęęĚ": 2554,
      "ęĘėěęęĖ": 2555,
      "ĀĀĚĀĚĚ": 2556,
      "ĀĀĚĀěĘ": 2557,
      "ęęēę": 2558,
      "ęęēęęĘ": 2559,
      "ęęēęĖ": 2560,
      "ĀĀėĀėĘ": 2561,
      "ęěĚĚęęęęĘ": 2562,
      "ęěĚĜęęĚ": 2563,
      "ęěĚĖęęě": 2564,
      "ęěĚĕęęĚ": 2565,
      "ęėĘĘęęĚ": 2566,
      "ęėĘěęęĚ": 2567,
      "ęėĘĜęęĚ": 2568,
      "ęėĘěęęęęĘ": 2569,
      "ĀĜė": 2570,
      "ęėĚėęęĚ": 2571,
      "ęėĚęęęĚę": 2572,
      "ęėĚĚęęĚę": 2573,
      "ĀĀěĀĞ": 2574,
      "ĀĀěĀĚĚ": 2575,
      "ĀĀěĀĚė": 2576,
      "ęęęĜęĖĘ": 2577,
      "ęęęĜęęĘęęęė": 2578,
      "ęęęĖęęĜ": 2579,
      "ęęęĖęĚĚ": 2580,
      "ęğĕ": 2581,
      "ĖęęęęėĘ": 2582,
      "ĖęęęęĕĘ": 2583,
      "ęėėĘęęĘ": 2584,
      "ęėėėęęęę": 2585,
      "ęėėěęęęę": 2586,
      "ęėėėęęĘ": 2587,
      "ęěęęęęę": 2588,
      "ęěęęęęęęěęęęę": 2589,
      "ęėęęęęę": 2590,
      "ęėęęęęęęĚ": 2591,
      "ęėęęęęęęě": 2592,
      "ęėęęęęęęĚĘ": 2593,
      "ęēĜ": 2594,
      "ĀĀĜĀē": 2595,
      "ęěėěęęĘ": 2596,
      "ęěėěęęė": 2597,
      "ęěėĖęęĘ": 2598,
      "ęěěĘęęĘ": 2599,
      "ęěěėęęęę": 2600,
      "ęěěěęęě": 2601,
      "ėęęėę": 2602,
      "ęęĒę": 2603,
      "ęĚĚęęęęęęĚęęęę": 2604,
      "ęęęĚęęęęęĘęęęę": 2605,
      "ĚęęęęĘĚęęęę": 2606,
      "ęĚĘęęęęĚ": 2607,
      "ęĚĘęęęęęęĘęęęę": 2608,
      "ęėěĘęęě": 2609,
      "ĖęęĘęĖ": 2610,
      "ĀĀĕĀĕ": 2611,
      "ĀĀĔĀğ": 2612,
      "ěĚĚęęęę": 2613,
      "ĘęęęęĘĚĚęęęę": 2614,
      "ęĚĜĚęęĚ": 2615,
      "ęĚĜěęęě": 2616,
      "ęĚęęĚęęęęęęęę": 2617,
      "ęĖĘěęęęę": 2618,
      "ěĘĖęęĘ": 2619,
      "ęĘęęęęĘęĚęęęę": 2620,
      "ęĚĖėęęĘ": 2621,
      "ĘęęęęĚę": 2622,
      "ĘęęęęĚĘęęęę": 2623,
      "ęĘĖĘęęĘ": 2624,
      "ęĘĖěęęĘ": 2625,
      "ęĘĖėęęĘ": 2626,
      "ĖęęěęĜĚ": 2627,
      "ęĘĜęęęĚ": 2628,
      "ęĘĜęęęě": 2629,
      "ęĘĜęęęĜ": 2630,
      "ėĚě": 2631,
      "ėĚęęĖ": 2632,
      "ėĚęęĜ": 2633,
      "ėĚĚęęĚ": 2634,
      "ęěĜęęęĘ": 2635,
      "ęěĜĘęęĜ": 2636,
      "ęĜĚĚęęęę": 2637,
      "ęĜĚėęęě": 2638,
      "ęĜĚĖęęęę": 2639,
      "ĀĀğĀĚ": 2640,
      "ęĜėĚęęė": 2641,
      "ęĚęęęęĚęĚęęęę": 2642,
      "ĕęęęęě": 2643,
      "ĕęęęęĝ": 2644,
      "ĕęęęęěĘ": 2645,
      "ęęĘęęęĘęęęęęęęę": 2646,
      "ĀĀĒĀĚ": 2647,
      "ĀĀĒĀĜ": 2648,
      "ĀĀĒĀē": 2649,
      "ęĖĚęęęě": 2650,
      "ęĖĚęęęĖ": 2651,
      "ĀĀēĀē": 2652,
      "ęęęĝęęęę": 2653,
      "ęėĖĚęęė": 2654,
      "ęėĖęęęĖ": 2655,
      "ęėĜęęęĚ": 2656,
      "ęėĜĚęęĚ": 2657,
      "ęėĜěęęĜ": 2658,
      "ęĖėęęęĚ": 2659,
      "ęĖėěęęĘ": 2660,
      "ęĖĖĚęęĘ": 2661,
      "ęĜěęęęĚ": 2662,
      "ęĜěĚęęĚ": 2663,
      "ęĜěĘęęĘ": 2664,
      "ęĜěĘęęĚ": 2665,
      "ęĜěěęęĚ": 2666,
      "ęĜĜęęęĚ": 2667,
      "ĀĀđĀĖ": 2668,
      "ĀĀđĀĞ": 2669,
      "ęęęĘęęĘęęęęęęęę": 2670,
      "ĖĚė": 2671,
      "ę!Ę": 2672,
      "ęęěęęęęęęĚęęęę": 2673,
      "ęĘęĚęęĖ": 2674,
      "ęĘęĚęęęęě": 2675,
      "ęĚęĘęęė": 2676,
      "ęĚęĘęęĜ": 2677,
      "ęĚęĘęęĘęĚ": 2678,
      "ěĝęęĚ": 2679,
      "ěĝęęĜ": 2680,
      "ęęĘĘęęęęęęĘęęęę": 2681,
      "ęěĖĚęęė": 2682,
      "ęěĖĘęęĖ": 2683,
      "ęĖěĚęęě": 2684,
      "ęĖěĘęęě": 2685,
      "ėėęęęĘ": 2686,
      "ėėĚęęĘ": 2687,
      "ėėęęĝ": 2688,
      "ĜĘęęęĘ": 2689,
      "ĜĘęęĞ": 2690,
      "ęĜĖęęęĖ": 2691,
      "ęĜĖĖęęĚ": 2692,
      "ęĜęęęęė": 2693,
      "ęđęęĚ": 2694,
      "ęĝĘėęęĚ": 2695,
      "ęĝĘėęęĘ": 2696,
      "ĖĘęęĒ": 2697,
      "ĕĘęęē": 2698,
      "ę\"Ė": 2699,
      "ĀĀ$ĀĔ": 2700,
      "ęĚĝĚęęĚ": 2701,
      "ĀĀ\"Āĝ": 2702,
      "ĀĀ\"ĀĔ": 2703,
      "ęĕĘęęęĚ": 2704,
      "ęĚĚĘęęĚęęęĚ": 2705,
      "ęĘĝęęęĜ": 2706,
      "ęĚęĚęęĘę": 2707,
      "ęĚęĚęęĘęĚ": 2708,
      "ęĚęĚęęęęęęęęęęę": 2709,
      "ęĚĘęęęĘęęęęęęęę": 2710,
      "ęĕėęęęĘ": 2711,
      "ęĕėĚęęĘ": 2712,
      "ĀĀĐĀě": 2713,
      "ĖęęĖęĘĚ": 2714,
      "ĘĘĝ": 2715,
      "ěėĘęęĘ": 2716,
      "ĖĝĞ": 2717,
      "ěĞğ": 2718,
      "ĀĀĎĀĖ": 2719,
      "ĕěęęĕ": 2720,
      "ĠĘęęĝ": 2721,
      "ĀĀďĀĘ": 2722,
      "ęęęėęęęęęęĘ": 2723,
      "ĀĀĔĀęĜ": 2724,
      "ĔęęęęĖ": 2725,
      "ĝĚęęĞ": 2726,
      "ęĖĜęęęĚ": 2727,
      "ęĚęęęęęęĘĘ": 2728,
      "ĕęęĕę": 2729,
      "ęĜĝęęęĚ": 2730,
      "ĀĀ%Āě": 2731,
      "ğĚęę": 2732,
      "ĀĀ'ĀĘ": 2733,
      "ĀĀ)ĀĘ": 2734,
      "ĀĀ)ĀĚ": 2735,
      "ęęęęęęęęęęęĘęĚęęęę": 2736,
      "ęĕěěęęĚ": 2737,
      "ęĘęęęęęęĘęęęęęęęęęęę": 2738,
      "ēĘęęĔ": 2739,
      "ęĘęěęęė": 2740,
      "ĚęęęęĘĘĘęęęę": 2741,
      "ĚęęęęĘĘęęęĘ": 2742,
      "ĔĚě": 2743,
      "ğĜęęĝ": 2744,
      "ęĝęęęęě": 2745,
      "ęĞĖĘęęĖ": 2746,
      "ĀĀęĀĕĘ": 2747,
      "ęęėęęęėę": 2748,
      "ęėĔęęęė": 2749,
      "ĀĀ*Ā": 2750,
      "ęĘęęęęęęęĘĚęęęę": 2751,
      "ęęęęęęęęęęęęęĚę": 2752,
      "ęĚęęęęęęęĚęęęęę": 2753,
      "ĀĀĚĀğĚ": 2754,
      "ęęęęęęęęęęęĘęęęęęę": 2755,
      "ęęęęęęęęĚęęęęĘę": 2756,
      "!%": 2757,
      "!ĕ": 2758,
      "!ęęĘ": 2759,
      "!Ěęęě": 2760,
      "!ęęęĜ": 2761,
      "!ĀĀĔ": 2762,
      "!ĀĀĞĀ": 2763,
      "!ĀĀęĀĘ": 2764,
      "\"%": 2765,
      "\"(": 2766,
      "\"Ē": 2767,
      "\"Ė": 2768,
      "\"ěĘ": 2769,
      "\"ĀĀĕĀ": 2770,
      "\"Ěęęĝ": 2771,
      "\"ĀĀĖĀĘ": 2772,
      "#$": 2773,
      "#ĕ": 2774,
      "#Ė": 2775,
      "#Ę": 2776,
      "#ĀĀĘĀĕ": 2777,
      "#ĀĀęĀė": 2778,
      "$!": 2779,
      "$'": 2780,
      "$Ė": 2781,
      "$ĀĀęĀ": 2782,
      "%Ē": 2783,
      "&Ę": 2784,
      "'ě": 2785,
      "'Ğ": 2786,
      "(ď": 2787,
      "ĀęĘ": 2788,
      "ĎĖ": 2789,
      "ĎĜ": 2790,
      "Ďĝ": 2791,
      "ĎĞ": 2792,
      "Ďęęě": 2793,
      "ďė": 2794,
      "ďě": 2795,
      "ďğ": 2796,
      "ďęęĘ": 2797,
      "ďęęė": 2798,
      "ĐĔ": 2799,
      "ĐęęĖ": 2800,
      "ĐĜĜ": 2801,
      "ĐĖęęĕ": 2802,
      "đ&": 2803,
      "đęę": 2804,
      "đęęęęĘ": 2805,
      "đęęē": 2806,
      "đęęęĖ": 2807,
      "ĒęęĔ": 2808,
      "ĒėęęĖ": 2809,
      "ĒĖĚ": 2810,
      "ĒĖě": 2811,
      "ĒĝĚ": 2812,
      "ē%": 2813,
      "ēĒ": 2814,
      "ēęę": 2815,
      "ēęęęęĚ": 2816,
      "ēęęĘę": 2817,
      "ēęęĒ": 2818,
      "ēěęęĖ": 2819,
      "ēęęđ": 2820,
      "ēĀĀěĀ": 2821,
      "ēĜęęĖ": 2822,
      "ĔĎ": 2823,
      "Ĕď": 2824,
      "ĔęęęęĚ": 2825,
      "ĔęĞ": 2826,
      "ĔĘęęė": 2827,
      "Ĕęęē": 2828,
      "ĔĚĚ": 2829,
      "Ĕėęęė": 2830,
      "ĔęęĒ": 2831,
      "ĔĖęęĘ": 2832,
      "ĔĘęęĖ": 2833,
      "Ĕęęđ": 2834,
      "ĔěęęĜ": 2835,
      "Ĕęę\"": 2836,
      "ĔĕĚ": 2837,
      "ĔĜĜ": 2838,
      "ĔęęĐ": 2839,
      "ĔĚęęĕ": 2840,
      "ĔĀĀĜĀ": 2841,
      "ĔĝĞ": 2842,
      "ĕĐ": 2843,
      "ĕęęęĘ": 2844,
      "ĕęęęė": 2845,
      "ĕĖęęė": 2846,
      "ĕęęęęĚĚ": 2847,
      "ĕęęęęęęęęęĘ": 2848,
      "ĕĖĝ": 2849,
      "ĕěĞ": 2850,
      "ĕęęęĔ": 2851,
      "ĕĝě": 2852,
      "ĕėęęęĘ": 2853,
      "ĕĀĀğĀĞ": 2854,
      "Ė!": 2855,
      "ĖęęęĚ": 2856,
      "ĖęĜ": 2857,
      "ĖęĖ": 2858,
      "ĖĖęęęę": 2859,
      "ĖĖęęĚ": 2860,
      "Ėěęęė": 2861,
      "ĖęęęĘę": 2862,
      "ĖęęĒ": 2863,
      "ĖĘęęĖ": 2864,
      "ĖėĚ": 2865,
      "ĖĕęęĘ": 2866,
      "ĖěęęĖ": 2867,
      "ĖĜě": 2868,
      "ĖęęęęĚĚ": 2869,
      "ĖĖęęĖ": 2870,
      "ĖĖĝ": 2871,
      "ĖĜĞ": 2872,
      "ĖĀĀēĀ": 2873,
      "Ė!ğ": 2874,
      "Ėęę$": 2875,
      "ėęęęĚ": 2876,
      "ėĚęęĚ": 2877,
      "ėėęęęę": 2878,
      "ėęęęě": 2879,
      "ėĚęęė": 2880,
      "ėĖęęęę": 2881,
      "ėĚĘęęĚ": 2882,
      "ėěęęė": 2883,
      "ėęęĒ": 2884,
      "ėĜęęęę": 2885,
      "ėęęęĕ": 2886,
      "ėĚęęĘę": 2887,
      "ėĕĘ": 2888,
      "ėĕęęė": 2889,
      "ėĖĝ": 2890,
      "ėĞĞ": 2891,
      "ėĘęęĘę": 2892,
      "ėęę#": 2893,
      "ėĕĞ": 2894,
      "ėęę$": 2895,
      "ėđė": 2896,
      "Ę&": 2897,
      "Ęĝ": 2898,
      "ĘęĚ": 2899,
      "ĘęĘ": 2900,
      "ĘęĞ": 2901,
      "Ęěęęęę": 2902,
      "ĘėĚ": 2903,
      "ĘęęęęęęęęęęęĚ": 2904,
      "ĘĖĜ": 2905,
      "Ęęę$": 2906,
      "ę'": 2907,
      "ęĀĀėĀ": 2908,
      "ęĀĀĐĀ": 2909,
      "ęĀĀĞĀĘ": 2910,
      "Ě$": 2911,
      "Ěęĕ": 2912,
      "ĚėęęĚ": 2913,
      "ĚĖęęĘ": 2914,
      "Ěěęęě": 2915,
      "ĚĕęęĚ": 2916,
      "ĚĚęęęęĚ": 2917,
      "Ěěĝ": 2918,
      "ĚĜě": 2919,
      "ĚĜĜ": 2920,
      "ĚęęęęęęęęęĘ": 2921,
      "ĚĞĞ": 2922,
      "ĚĖĜ": 2923,
      "ĚęęęęęęęęęĚ": 2924,
      "Ěěę": 2925,
      "ě!": 2926,
      "ěĒ": 2927,
      "ěęĝ": 2928,
      "ěęę!": 2929,
      "ěęęęĝ": 2930,
      "ěĀĀĘĀ": 2931,
      "ěĖĚ": 2932,
      "ěę!": 2933,
      "ěęęęĞ": 2934,
      "ěĕęęě": 2935,
      "ěęęęęĚĚ": 2936,
      "ěĖĜ": 2937,
      "ě!Ĝ": 2938,
      "Ĝđ": 2939,
      "Ĝē": 2940,
      "ĜęĚ": 2941,
      "ĜęĘ": 2942,
      "Ĝęě": 2943,
      "ĜĚęęě": 2944,
      "ĜęęĒ": 2945,
      "ĜĜęęęę": 2946,
      "Ĝěęęě": 2947,
      "ĜęĘęęĘ": 2948,
      "ĜęĒ": 2949,
      "ĜĚęęĜ": 2950,
      "ĜĜęęě": 2951,
      "ĜĕĘ": 2952,
      "Ĝėĝ": 2953,
      "ĜĕęęĜ": 2954,
      "ĜĕĜ": 2955,
      "ĜĕĖ": 2956,
      "ĜĚęęĜę": 2957,
      "ĝđ": 2958,
      "ĝĒ": 2959,
      "ĝęę": 2960,
      "ĝĘęęĘ": 2961,
      "ĝėęęĚ": 2962,
      "ĝėęęě": 2963,
      "ĝęėęęęę": 2964,
      "ĝěĚ": 2965,
      "ĝĖęęě": 2966,
      "ĝĘęęĜ": 2967,
      "ĝĜęęě": 2968,
      "ĝěęęĜ": 2969,
      "ĝėęęĜ": 2970,
      "ĝĖĘ": 2971,
      "ĝĜĞ": 2972,
      "ĝĀĀĖĀĚ": 2973,
      "ĞĔ": 2974,
      "ĞęęęĚ": 2975,
      "ĞĜęęĚ": 2976,
      "Ğĝĝ": 2977,
      "ğ$": 2978,
      "ğē": 2979,
      "ğĕ": 2980,
      "ğęęĝ": 2981,
      "ğęęĔ": 2982,
      "ğĘęęě": 2983,
      "ğęęęĜ": 2984,
      "ğĀĀęĀ": 2985,
      "ğĀĀĘĀ": 2986,
      "ğěęęĜ": 2987,
      "ğĀĀěĀ": 2988,
      "ğĀĀĚĀ": 2989,
      "ğĝě": 2990,
      "ğĖĖ": 2991,
      "Ġ&": 2992,
      "Ġęę": 2993,
      "ĠęĚ": 2994,
      "ĠęĜ": 2995,
      "Ġęĝ": 2996,
      "Ġęĕ": 2997,
      "ĠĘęęĘ": 2998,
      "Ġęęĕ": 2999,
      "ĠęĘĘ": 3000,
      "ĠęęęęĚ": 3001,
      "ĠęĔ": 3002,
      "ĠĀĚ": 3003,
      "ĠĚęęė": 3004,
      "ĠĀĖ": 3005,
      "ĠĀĜ": 3006,
      "Ġęęğ": 3007,
      "ĠęęęĜ": 3008,
      "ĠĀĞ": 3009,
      "Ġęē": 3010,
      "ĠĀĀĜ": 3011,
      "ĠĀĀĔ": 3012,
      "ĠęěĜ": 3013,
      "ĠĀĀĞ": 3014,
      "ĠĀğ": 3015,
      "Ġęęęĝ": 3016,
      "ĠěęęĜ": 3017,
      "ĠĜĘ": 3018,
      "ĠĀĀĖĀ": 3019,
      "Ġĝęęě": 3020,
      "ĠĀĀĔĀ": 3021,
      "ĠĀĀĞĀ": 3022,
      "ĠęĖĔ": 3023,
      "Ġęęęğ": 3024,
      "ĠĀĖĘ": 3025,
      "ĠĀĀėĀĘ": 3026,
      "ĠĀĀēĀ": 3027,
      "ĠĀĀđĀĜ": 3028,
      "ęęęęęęĘęęęĚ": 3029,
      "ęĚ\"": 3030,
      "ęĚĎ": 3031,
      "ęĚę": 3032,
      "ęĚęĜ": 3033,
      "ęĚęĖ": 3034,
      "ęĚĚęęĘ": 3035,
      "ęĚęęĞ": 3036,
      "ęĚĕęęęę": 3037,
      "ęĚĝęęęę": 3038,
      "ęĚęėęęęęĚ": 3039,
      "ęĚęęęęęęęęęęęęęęęęęę": 3040,
      "ęĚęęěę": 3041,
      "ęĚęĜęęĘ": 3042,
      "ęĚęĖęęĘ": 3043,
      "ęĚęĝęęęę": 3044,
      "ęĚęěęęė": 3045,
      "ęĚęĜęęė": 3046,
      "ęĘ#": 3047,
      "ęĘĎ": 3048,
      "ęĘęĝ": 3049,
      "ęĘěęęĘ": 3050,
      "ęĘęęĘęĚ": 3051,
      "ęĘĚęęęęĘ": 3052,
      "ęĘĜęęęę": 3053,
      "ęĘĜęęĘ": 3054,
      "ęĘę!": 3055,
      "ęĘęėęęęęĚ": 3056,
      "ęĘęęęęęęęęęęęęęęęęęęę": 3057,
      "ęĘęęĚęęęĚęęęę": 3058,
      "ęęĘęęě": 3059,
      "ęęĘęĖ": 3060,
      "ęęĘęęęęęęęęęęęę": 3061,
      "ęęĘĚęęě": 3062,
      "ęęĘęęęĖ": 3063,
      "ęęĘĘęęęęĘ": 3064,
      "ęęĘęęęęęęęęęęę": 3065,
      "ęęĘĘęęĖ": 3066,
      "ęęĘĚęęĖ": 3067,
      "ęęĘĜęęė": 3068,
      "ęęĘĕęęĘ": 3069,
      "ęęĘěęęęęĚ": 3070,
      "ęęĘĖęęĞ": 3071,
      "ęęĘęęęėęęĘ": 3072,
      "ęęĚęęęė": 3073,
      "ęęĚęęĞ": 3074,
      "ęęĚęĔ": 3075,
      "ęęĚėęęě": 3076,
      "ęęĚęęęĘęęęę": 3077,
      "ęęĚĜęęĘ": 3078,
      "ęęĚęęęęęęęęęęę": 3079,
      "ęęĚęęęĝ": 3080,
      "ęęĚĕęęĚ": 3081,
      "ęęĚėęęĖ": 3082,
      "ęęĚĝęęĚ": 3083,
      "ęęĚėęęęęĚ": 3084,
      "ęęĚėęęĝ": 3085,
      "ęěęęęęęęęę": 3086,
      "ęěęĖ": 3087,
      "ęěęęĖ": 3088,
      "ęěĚęęĚ": 3089,
      "ęěęęĕ": 3090,
      "ęěėęęĚ": 3091,
      "ęěěęęĚ": 3092,
      "ęěęęĚę": 3093,
      "ęěęěęęęę": 3094,
      "ęěęęęĚę": 3095,
      "ęěęěęęĘ": 3096,
      "ęěĞĞ": 3097,
      "ęěęĜęęĘ": 3098,
      "ęěĚĘęęĚę": 3099,
      "ęěęĘęęě": 3100,
      "ęěęĚęęĚę": 3101,
      "ęėęęęė": 3102,
      "ęėęęęęęęęęęęęę": 3103,
      "ęėęėęęĚ": 3104,
      "ęėęęęęĚĚ": 3105,
      "ęėęěęęęęĚ": 3106,
      "ęėĘęęęęę": 3107,
      "ęėęĚęęęęęęĚ": 3108,
      "ęėęęęęęęęęęęęĘ": 3109,
      "ęėęĘęęė": 3110,
      "ęėĚĘęęĜ": 3111,
      "ęėęĚęęęęě": 3112,
      "ęėęĝęęĘ": 3113,
      "ęęęęęęęęěęęęę": 3114,
      "ęęęęęęęęęęĘę": 3115,
      "ęęęęęęęęěĚ": 3116,
      "ęęęęęęęęĘęęęęĚ": 3117,
      "ęęęęęęęęęęęęĚĚ": 3118,
      "ęęęęęęęęęĘęęęęę": 3119,
      "ęęęęęęęęĚĚęęęĚ": 3120,
      "ęęėęęě": 3121,
      "ęęėęĚĚ": 3122,
      "ęęėęęęęĚ": 3123,
      "ęęėėęęė": 3124,
      "ęęėĜęęęę": 3125,
      "ęęėĜęęĚ": 3126,
      "ęęėĜęęĘ": 3127,
      "ęęėĘęęĖ": 3128,
      "ęęėĕęęĘ": 3129,
      "ęęėĚęęęęĚ": 3130,
      "ęęėĞęęĘ": 3131,
      "ęęėēęęĘ": 3132,
      "ęęěęęė": 3133,
      "ęęěęęęė": 3134,
      "ęęěĜęęęę": 3135,
      "ęęěėęęĜ": 3136,
      "ęęěĖęęĜ": 3137,
      "ęęěĝęęĚ": 3138,
      "ęęěęęęĚęęĚ": 3139,
      "ęęěęęĘęęęęęęęę": 3140,
      "ęęěęęĚėęęĚ": 3141,
      "Ęęęęęğ": 3142,
      "ĘęęęęĘęęęę": 3143,
      "Ęęęęęęęęě": 3144,
      "ĘęęęęęęęĘęęęę": 3145,
      "ĘęęęęęĚĖ": 3146,
      "ĘęęęęĖĚ": 3147,
      "ĘęęęęęęĚęęęęęę": 3148,
      "ęęęĚęęĖ": 3149,
      "ęęęĚęęęęĘĘ": 3150,
      "ęęęĚęĚęęęęĚ": 3151,
      "ęęęĚęęĘęęęęę": 3152,
      "ęęęĚęęĘęęęęęęĚ": 3153,
      "Ěęęęęęęė": 3154,
      "Ěęęęęęęĝ": 3155,
      "ĚęęęęęĘĘęęęę": 3156,
      "ĚęęęęěĘ": 3157,
      "ĚęęęęęĘęęęęęę": 3158,
      "ĚęęęęęęĚĚęęęę": 3159,
      "ęęęĘęěĚ": 3160,
      "ęęęĘęęĘęĚ": 3161,
      "ęęęĘęęęęĘĚ": 3162,
      "ęęęĘęęĚęęęĚę": 3163,
      "ęĜĐ": 3164,
      "ęĜęęĖ": 3165,
      "ęĜęĕ": 3166,
      "ęĜĘęęě": 3167,
      "ęĜęĚęęĘ": 3168,
      "ęĜęėęęĚ": 3169,
      "ęĜĒē": 3170,
      "ęĜęĚęęė": 3171,
      "ęĖęĘ": 3172,
      "ęĖěęęęę": 3173,
      "ęĖĚęęė": 3174,
      "ęĖęęē": 3175,
      "ęĖęĘęęĘ": 3176,
      "ęĖęĜęęęę": 3177,
      "ęĖĚĘęęĘ": 3178,
      "ęęĖĚęęĘ": 3179,
      "ęęĖėęęĘ": 3180,
      "ęęĖĘęęė": 3181,
      "ęęĖęĚė": 3182,
      "ęęĖĜęęęę": 3183,
      "ęęĖěęęĖ": 3184,
      "ęęĖĖęęĘęĚ": 3185,
      "ęęĜęĚ": 3186,
      "ęęĜęęęęĚ": 3187,
      "ęęĜęĘė": 3188,
      "ęęĜĘęęě": 3189,
      "ęęĜĖęęě": 3190,
      "ęęĜĚęęĜ": 3191,
      "ęĚęęęęęęė": 3192,
      "ęĚęęęęęĘĘ": 3193,
      "ęĚęęęęęĚĘęęęę": 3194,
      "ęĚęęęęęęěęęęę": 3195,
      "ęĚęęęęĘęęęęęęĘ": 3196,
      "ęĘęęęęĘęęęę": 3197,
      "ęĘęęęęęęĝ": 3198,
      "ęĘęęęęęęĚęęęę": 3199,
      "ęĘęęęęęęęĘęęęę": 3200,
      "ęĘęęęęĚĚ": 3201,
      "ęĘęęęęęĚĚęęęę": 3202,
      "ęĘęęęęęĘĘęęęę": 3203,
      "ęĘęęęęęĘĚęęęę": 3204,
      "ęĘęęęęęęĚęęęęę": 3205,
      "ęĘęęęęĚęęęęęę": 3206,
      "ęĘęęęęĘęęęęęęĚ": 3207,
      "ęĘęęęęęęĚęęęęęę": 3208,
      "ęĝęĕ": 3209,
      "ęĝėęęęę": 3210,
      "ęĝęĚęęĘ": 3211,
      "ęĝĜĜ": 3212,
      "ęĝĝě": 3213,
      "ęĝęĚęęė": 3214,
      "ęĝęĖęęĘ": 3215,
      "ęĝęĘęęě": 3216,
      "ęĕęę": 3217,
      "ęĕėęęĘ": 3218,
      "ęĕĖęęęę": 3219,
      "ęĕęęĘęĚ": 3220,
      "ęĕęěęęĚ": 3221,
      "ęĕĚĘęęě": 3222,
      "ĚĘĞ": 3223,
      "ĚĘĘęęĚ": 3224,
      "ĚĘĘęęęęĚ": 3225,
      "ĚęęĚęęęęęęĚ": 3226,
      "ęĚĘęęě": 3227,
      "ęĚĘĚęęě": 3228,
      "ęĚĘęęęĖ": 3229,
      "ęĚĘĖęęĚ": 3230,
      "ęĚĘĖęęĘ": 3231,
      "ęĚĘĜęęĚ": 3232,
      "ęĚĘěęęĖ": 3233,
      "ęĚĘĚęęęęĚ": 3234,
      "ęĚĘėęęęęĚ": 3235,
      "ęĚĘĝęęĘ": 3236,
      "ęĚĘěęęęęĚ": 3237,
      "ęĚĘěęęęęĘ": 3238,
      "ęĚĘĜęęęęĘ": 3239,
      "ęĚĘĖęęęęĘ": 3240,
      "ęĚĘĚęęėę": 3241,
      "ęĚĘĚęęęęĚęĚęęęę": 3242,
      "ĚęęĘęęĘęęęę": 3243,
      "ĚęęĘęĚĚęęęę": 3244,
      "ĚęęĘęĘĚęęęę": 3245,
      "ĘęęĘęĞ": 3246,
      "ęęĕėęęĘ": 3247,
      "ęęĕĚęęė": 3248,
      "ęęĕęĚĜ": 3249,
      "ęęĕěęęĖ": 3250,
      "ęęĕěęęĔ": 3251,
      "ęęęęĘė": 3252,
      "ęęęęĘĘęęęę": 3253,
      "ęęęęĘęĚęęęęĚ": 3254,
      "ęęęęĘęĚęęęęęęĚęęęę": 3255,
      "ęĘĘěęęė": 3256,
      "ęĘĘěęęě": 3257,
      "ęĘĘĜęęė": 3258,
      "ęĘĘĕęęĚ": 3259,
      "ęĘĘėęęĜ": 3260,
      "ęĘĘĚęęĚę": 3261,
      "ęĘĘĝęęĘ": 3262,
      "ęĘĘĘęęĚę": 3263,
      "ęęęėęęęęĚ": 3264,
      "ęęęėęĝė": 3265,
      "ėęęęęęę": 3266,
      "ėęęęęěě": 3267,
      "ėęęęęĝĚ": 3268,
      "ėęęęęĚĘĘęęĘ": 3269,
      "ęęĝę": 3270,
      "ęęĝęęęĚ": 3271,
      "ęęĝęěĘ": 3272,
      "ęęĝęěě": 3273,
      "ęĘĚęęęė": 3274,
      "ęĘĚĖęęęę": 3275,
      "ęĘĚėęęė": 3276,
      "ęĘĚĚęęęęĘ": 3277,
      "ęĘĚĜęęĘ": 3278,
      "ęĘĚĕęęĘ": 3279,
      "ęĘĚĜęęě": 3280,
      "ęĘĚěęęĜ": 3281,
      "ęĘĚĝęęęę": 3282,
      "ęĘĚĝęęĚ": 3283,
      "ęĘĚėęęęęĚ": 3284,
      "ęĘĚĝęęĘ": 3285,
      "ęĘĚĞęęęę": 3286,
      "ęĘĚĚęęęęĘĚ": 3287,
      "ęĚĚĜęęĘ": 3288,
      "ęĚĚĝęęęę": 3289,
      "ęĚĚęęęĚęęĚ": 3290,
      "ęĚĚěęęęęĘ": 3291,
      "ęĚĚĔęęě": 3292,
      "ęĚĚĘęęęęĘĘ": 3293,
      "ęęę#": 3294,
      "ęęęĔęęĚ": 3295,
      "ęęęěęęĘęĚ": 3296,
      "ęęęěęĚĚęęęę": 3297,
      "ęęęěęĝĘ": 3298,
      "ęęęęĚĚęęęę": 3299,
      "ĘęęĚęėė": 3300,
      "ĘęęĚęęęęę": 3301,
      "ęĞĒ": 3302,
      "ęĞęęĚ": 3303,
      "ęĞĚĘęęĚ": 3304,
      "ěęęęęęę": 3305,
      "ěęęęęęė": 3306,
      "ęęĚęęęęęęĚęęęęę": 3307,
      "ęęĚęęęęęęěęęęĚ": 3308,
      "ęęĔęęĜ": 3309,
      "ęęĞęĝ": 3310,
      "ęęĞęĚė": 3311,
      "ęęĞęęęĜ": 3312,
      "ęęĞęĒ": 3313,
      "ęęĞęĝĚ": 3314,
      "ėęęĚęĘĚĘęęĚ": 3315,
      "ęĔđ": 3316,
      "ęĔęęęęĚ": 3317,
      "ęĔĖęęęę": 3318,
      "ęĔĝĞ": 3319,
      "ęęĘęęęęęęĘę": 3320,
      "ęęĘęęęęęęėęęęę": 3321,
      "ęęĘęęęęęĘęĘęęęę": 3322,
      "ęęĘęęęęęęĘęęęęęęĘ": 3323,
      "ęęęęęęęęęęęęęĚĚęęęę": 3324,
      "ęęęęęęęęęęęęęęęĚęęęęĚ": 3325,
      "ěęęĘęěě": 3326,
      "ěęęĘęĚęĘ": 3327,
      "Āěđ": 3328,
      "ėęęĘęěė": 3329,
      "ėęęĘęĚĜ": 3330,
      "ęĚěęęĚ": 3331,
      "ęĚěĚęęĘ": 3332,
      "ęĚěěęęě": 3333,
      "ęĚěĜęęĚ": 3334,
      "ęĚěĖęęě": 3335,
      "ęĚěĚęęęęĚ": 3336,
      "ęĚěĕęęě": 3337,
      "ęĚěĘęęĝ": 3338,
      "ęĚěĚęęęęĘĘ": 3339,
      "ĀĀęĀěĘ": 3340,
      "ĀĀęĀĚĜ": 3341,
      "ĀĀęĀėĘ": 3342,
      "ĀĀĘĀĚĚ": 3343,
      "ĀĀĘĀěĘ": 3344,
      "ĀĀĘĀĖĘ": 3345,
      "ĀĀĘĀĚĜ": 3346,
      "ĀĀĘĀĚė": 3347,
      "ęĘěęęęęĚ": 3348,
      "ęĘěęęęĚę": 3349,
      "ęĘěėęęĜ": 3350,
      "ęěĘěęęęę": 3351,
      "ęěĘĚęęęęĚĘ": 3352,
      "ęĚėĘęęĖ": 3353,
      "ęĚėĘęęĘę": 3354,
      "ęĚėĝęęĕ": 3355,
      "ěęęĚęĘě": 3356,
      "ěęęĚęĚĘęęęę": 3357,
      "ęĘėėęęĘ": 3358,
      "ęĘėěęęė": 3359,
      "ęĘėĜęęĘ": 3360,
      "ęĘėĘęęĖ": 3361,
      "ęĘėĚęęĖ": 3362,
      "ęĘėĚęęĘę": 3363,
      "ĀĀĚĀĚĜ": 3364,
      "ęęēęęě": 3365,
      "ęęēęęĖ": 3366,
      "ęęēęĞ": 3367,
      "ĀĀėĀěĘ": 3368,
      "ęěĚĚęęė": 3369,
      "ęěĚĕęęęę": 3370,
      "ęěĚĚęęęęĚ": 3371,
      "ęěĚėęęęęĚ": 3372,
      "ęėĘĘęęęę": 3373,
      "ęėĘĚęęė": 3374,
      "ęėĘĘęęė": 3375,
      "ęėĘĚęęě": 3376,
      "ęėĘěęęė": 3377,
      "ęėĘĜęęęę": 3378,
      "ęėĘěęęě": 3379,
      "ęėĘĘęęĖ": 3380,
      "ĀĜĕ": 3381,
      "ĀĜĖ": 3382,
      "ęęğęėĜ": 3383,
      "ęęğęěĖ": 3384,
      "ęėĚĖęęĚ": 3385,
      "ęėĚĚęęęęĘ": 3386,
      "ęėĚĜęęĘ": 3387,
      "ęėĚĚęęĝ": 3388,
      "ĘęęěęĚĖ": 3389,
      "ĘęęěęĚĕ": 3390,
      "ĘęęěęěĞ": 3391,
      "ĀĀěĀėĚ": 3392,
      "ęęęĜęĖ": 3393,
      "ęęęęęęęęęęęęęęęęĚ": 3394,
      "ėęęěę": 3395,
      "ĀĀĖĀĚė": 3396,
      "ĀĀĖĀěĞ": 3397,
      "ĀĝĞ": 3398,
      "ęğē": 3399,
      "ęęęĘęęęęęęĚęęęę": 3400,
      "ęęęĘęęęęĚęęęęęę": 3401,
      "ęęęĘęęęęęęĘęęęęęęęę": 3402,
      "ęėėĚęęęę": 3403,
      "ęėėęęęĕ": 3404,
      "ęėėĚęęĖ": 3405,
      "ęėėĚęęĘę": 3406,
      "ęėėĝęęĘ": 3407,
      "ęęĚęęęĚęęĚę": 3408,
      "ęęĚęęęĚęęęęęęĘ": 3409,
      "ęěęęęęęę": 3410,
      "ęěęęęęĚĘ": 3411,
      "ęěęęęęęęĚęęęęęę": 3412,
      "ęėęęęęĜ": 3413,
      "ęėęęęęĝ": 3414,
      "ęėęęęęĚęęęę": 3415,
      "ęėęęęęęęĖ": 3416,
      "ęėęęęęĘęęĘ": 3417,
      "ęėęęęęęęĘęęęę": 3418,
      "ĚĚĚ": 3419,
      "ĚĚĝ": 3420,
      "ĚĚĞ": 3421,
      "ĚĚęęĖ": 3422,
      "ĚĚęęĝ": 3423,
      "ĚĚęę!": 3424,
      "ęēĒ": 3425,
      "ęēē": 3426,
      "ęēĕ": 3427,
      "ęēęęĚ": 3428,
      "ęēęęĔ": 3429,
      "ěęęėęė": 3430,
      "ěęęėęĘĘěęęĘ": 3431,
      "ĀĀĜĀėĚ": 3432,
      "ĀĀĜĀĞĘ": 3433,
      "ęěėĚęęĚ": 3434,
      "ęěėĘęęė": 3435,
      "ęěėėęęĖ": 3436,
      "ęěěĚęęĘ": 3437,
      "ęěěęęęĚę": 3438,
      "ėęęėęĖė": 3439,
      "ęęĘęĚęęęęęęęęęęęęę": 3440,
      "ęęĒęğ": 3441,
      "ęęĒęĜě": 3442,
      "ęęęĚęęęęěĚ": 3443,
      "ęĚĘęęęęęęĚęęęĚ": 3444,
      "ęĚĘęęęęęĚĚęęęę": 3445,
      "ęĚĘęęęęęĘĘęęęę": 3446,
      "ęėěĚęęĘ": 3447,
      "ęėěĜęęě": 3448,
      "ęėěĖęęĜ": 3449,
      "ęėěĝęęě": 3450,
      "ęėěĜęęĜ": 3451,
      "ęĚęęĘęĚĘĘęęĘ": 3452,
      "ĀĀĕĀĔ": 3453,
      "ęĘĘęęęęęĘĘęęęę": 3454,
      "ęĘĘęęęęęĚęęęęęę": 3455,
      "ĀĀĝĀěĖ": 3456,
      "ĜęęĚęĕ": 3457,
      "ěĚęęĞ": 3458,
      "ěĚĖęęęę": 3459,
      "ĘęęęęĘėęęęĘ": 3460,
      "ĘęęęęĘĚęęęĚ": 3461,
      "ęĜĘĚęęĘ": 3462,
      "ęĜĘěęęĘ": 3463,
      "ęĜĘĚęęė": 3464,
      "ęĜĘĕęęĘ": 3465,
      "ęĖĘĚęęĘ": 3466,
      "ęĖĘęęęě": 3467,
      "ęĖĘěęęĘ": 3468,
      "ęĖĘěęęė": 3469,
      "ęĖĘęęęĕ": 3470,
      "ęĖĘĚęęĖ": 3471,
      "ęĖĘěęęĖ": 3472,
      "ĜęęĘęęĖ": 3473,
      "ěĘęę": 3474,
      "ěĘĘęęė": 3475,
      "ęĘęęęęĘęęęęęęęę": 3476,
      "ęĘęęęęĘęęęęęęęęęęęęęęęęęęęęęę": 3477,
      "ęĘęęęęĚęĚęęęę": 3478,
      "ęĚĖęęęĚ": 3479,
      "ęĚĖĚęęĘ": 3480,
      "ęĚĖėęęęę": 3481,
      "ęĚĖĘęęě": 3482,
      "ęĚĖĚęęĖ": 3483,
      "ęĘęęĘęęęĚęęęę": 3484,
      "ĘęęęęĚęĘęęĘ": 3485,
      "ĘęęęęĚęĘęęĘę": 3486,
      "ęĘĖĚęęė": 3487,
      "ęĘĖĜęęĘ": 3488,
      "ęĘĖĜęęė": 3489,
      "ęĘĖėęęĖ": 3490,
      "ęĘĖėęęęęĚ": 3491,
      "ęĚęęęęĘĚ": 3492,
      "ęĚęęęęĘęĚęęęęęę": 3493,
      "ĘęęĖęĘĜ": 3494,
      "ęĘĜėęęě": 3495,
      "ęĘĜĚęęĜ": 3496,
      "ęĘĜĜęęě": 3497,
      "ęĘĜĘęęğ": 3498,
      "ęĒė": 3499,
      "ęĒĜ": 3500,
      "ęĒğ": 3501,
      "ęĒęęęę": 3502,
      "ėĚ!": 3503,
      "ėĚĝ": 3504,
      "ėĚĘęęęę": 3505,
      "ėĚęęĔ": 3506,
      "ėĚěęęĚ": 3507,
      "ėĚęęē": 3508,
      "ęěĜĚęęĚ": 3509,
      "ęěĜęęęĜ": 3510,
      "ęęęĕę": 3511,
      "ĀĀĞĀĜ": 3512,
      "ĀĀĞĀĝ": 3513,
      "ęĜĚĚęęĘ": 3514,
      "ęĜĚĘęęęęě": 3515,
      "ĀĀğĀğ": 3516,
      "ĀĀğĀĞğ": 3517,
      "ĘęęĜęĚĜ": 3518,
      "ĘęęĜęėĖ": 3519,
      "ęĜėĘęęĘ": 3520,
      "ęĚęęęęĚęĘęęęęęę": 3521,
      "ěěęęęĚ": 3522,
      "ěěęęęęĘ": 3523,
      "ěěěęęĚ": 3524,
      "ęęĘęęęĘęęĘęęęęę": 3525,
      "ęęĘęęęĘęęĚęęęĚę": 3526,
      "ĀĀĒĀğ": 3527,
      "ĀĀĒĀĕĘ": 3528,
      "ĀĀĒĀěĕ": 3529,
      "ĀĀĒĀěė": 3530,
      "ęĖĚęęęĘ": 3531,
      "ęĖĚęęęė": 3532,
      "ęĖĚĚęęė": 3533,
      "ęĖĚěęęĚ": 3534,
      "ęĖĚĚęęě": 3535,
      "ęĖĚěęęě": 3536,
      "ĀĀēĀğ": 3537,
      "ėĘĚęęęę": 3538,
      "ėĘęęĕ": 3539,
      "ėĘęęĔ": 3540,
      "ĜęęėęĜě": 3541,
      "ęėĖĘęęĚ": 3542,
      "ęėĖěęęė": 3543,
      "ęėĜęęęĜ": 3544,
      "ęėĜĝęęĚ": 3545,
      "ĕęęĚęĕ": 3546,
      "ĕęęĚęĚĚ": 3547,
      "ėęęĖę": 3548,
      "ĚęęęęĚę": 3549,
      "ęĖėĚęęĚ": 3550,
      "ĀĀĘĀēĖ": 3551,
      "ęĖĖęęęĘ": 3552,
      "ęĖĖĘęęĘ": 3553,
      "ęĖĖěęęė": 3554,
      "ęĖĖěęęĖ": 3555,
      "ęĜěėęęĚ": 3556,
      "ęĜěėęęĘ": 3557,
      "ęĜěĚęęě": 3558,
      "ęęđęĜ": 3559,
      "ęęęĘęęĚęęęęęęęę": 3560,
      "ęĜĜęęęě": 3561,
      "ėěĞ": 3562,
      "ėěęęęĚ": 3563,
      "ėěęęĕ": 3564,
      "ĖęęĜęĚĖ": 3565,
      "ĖęęĜęĞĚ": 3566,
      "ĀĀđĀě": 3567,
      "ęęęĘęęĘĘęęęę": 3568,
      "ęęęĘęęĘėęęęę": 3569,
      "ęęęĘęęĘęęęęęęęęęęęę": 3570,
      "ęĘĚęęęĚęęęęęęęę": 3571,
      "ĖĚęęĔ": 3572,
      "ę!Ĝ": 3573,
      "ę!ğ": 3574,
      "ęĖęęęęė": 3575,
      "ęĖęęęęęę": 3576,
      "ęĘęĚęęĚęęęęęęĚ": 3577,
      "ęę\"ęĘĚ": 3578,
      "ęĚęĘęęĔ": 3579,
      "ěĝĘ": 3580,
      "ěĝęęĘ": 3581,
      "ĀĀ!Āě": 3582,
      "ĀĀ!ĀĖ": 3583,
      "ĀĀ!ĀĞ": 3584,
      "ĕĚ!": 3585,
      "ĕĚĞ": 3586,
      "ĕĚęęē": 3587,
      "ęęĘĘęęęęęĚĘęęęę": 3588,
      "ęęĘĘęęęęęĚęęęęę": 3589,
      "ęěĖėęęĘ": 3590,
      "ęěĖĘęęė": 3591,
      "ęĖěęęęĚ": 3592,
      "ėėĘęęĘ": 3593,
      "ėėěęęĘ": 3594,
      "ĜĘĚęęĘ": 3595,
      "Ĝěęę": 3596,
      "ęĘĕėęęė": 3597,
      "ęĘĕĖęęĘ": 3598,
      "ęĘĕěęęĖ": 3599,
      "ęĜĖęęęĘ": 3600,
      "ęĜĖęęęė": 3601,
      "ęĜĖĘęęė": 3602,
      "ęĜĖėęęė": 3603,
      "ęĜĖĖęęė": 3604,
      "ęĜęęęęĖ": 3605,
      "ęĜęęęęęę": 3606,
      "ęđĜ": 3607,
      "ęęėęęęęęęĚ": 3608,
      "ęĝĘĚęęĘ": 3609,
      "ęĝĘĕęęĚ": 3610,
      "ĖėĚęęĘ": 3611,
      "ĖėěęęĘ": 3612,
      "ęĚęĘęęęęęęĘęęĚ": 3613,
      "ĜĚē": 3614,
      "ĜĚęęĝ": 3615,
      "ęęĐęĖ": 3616,
      "ĕĘě": 3617,
      "ĕĘęęĔ": 3618,
      "ĕĘęęđ": 3619,
      "ę\"ĕ": 3620,
      "ęĘęĘęęęęė": 3621,
      "ĀĀ$Āě": 3622,
      "ĀĀ$ĀĕĘ": 3623,
      "ęĝĚęęęė": 3624,
      "ęĝĚėęęĚ": 3625,
      "ęęęĚęęĘĖęęĘ": 3626,
      "ęĚĝĘęęĜ": 3627,
      "ęĚĝĚęęĝ": 3628,
      "ĀĀ\"ĀĘ": 3629,
      "ĀĀ\"Āė": 3630,
      "ĀĀ\"ĀĖ": 3631,
      "ĀĀ\"ĀĜ": 3632,
      "ĀĀ\"Āğ": 3633,
      "ęĕĘĘęęęę": 3634,
      "ęĕĘĘęęĘ": 3635,
      "ęĕĘĖęęęę": 3636,
      "ęĕĘĖęęė": 3637,
      "ėęęęęĚęĘęęĘ": 3638,
      "ėĝě": 3639,
      "ęĘĝęęęĚ": 3640,
      "ęĘĝĚęęĚ": 3641,
      "ęĘĝėęęě": 3642,
      "ęĚĕėęęė": 3643,
      "ęĚęĚęęęęęęęę": 3644,
      "ęĚęĚęęĚę": 3645,
      "ęěĝėęęě": 3646,
      "ęěĝĘęęĜ": 3647,
      "ęĕėĕęęĘ": 3648,
      "ĀĀėĀ!": 3649,
      "ęĚęĚęęęęęęĚęęęę": 3650,
      "ĘĘ\"": 3651,
      "ĘĘĚ": 3652,
      "ĘĘĜ": 3653,
      "ĘĘęęĞ": 3654,
      "ěĜęę!": 3655,
      "ęęęęęęęęęĘęęęęęęęę": 3656,
      "ęęęęęęęęęĘęęęęęęęęęęęę": 3657,
      "ęěĕęęęĘ": 3658,
      "ęěĕĘęęĘ": 3659,
      "ęěĕęęęė": 3660,
      "ęěĕęęęĖ": 3661,
      "ęĚĞęęęę": 3662,
      "ęĚĞĖęęĚ": 3663,
      "ęĚĞĘęęĝ": 3664,
      "ęĘęĘęęĜ": 3665,
      "ęĘęĘęęĚę": 3666,
      "ęĘęĘęęęęęęęęęęęęęęęęęę": 3667,
      "ĜĞęęęę": 3668,
      "ĀĀ#ĀĜ": 3669,
      "ĀĀ#ĀĔ": 3670,
      "ĀĀĎĀĘ": 3671,
      "ĀĀĎĀė": 3672,
      "ĀĀĎĀĜ": 3673,
      "ĀĀĎĀĝ": 3674,
      "ĕěęęĔ": 3675,
      "ĕęęĖę": 3676,
      "ęęĚĘęęęęėě": 3677,
      "ěęęęęĘė": 3678,
      "ĀĀďĀĞ": 3679,
      "ĀĀďĀĔ": 3680,
      "ęėĝĚęęĜ": 3681,
      "ęęęėęęęęě": 3682,
      "ęęęėęęęęęĘĘęęĘ": 3683,
      "ęęęēęęĚ": 3684,
      "ėęęĝęĖ": 3685,
      "ĠĜęęĞ": 3686,
      "ĠĜęęğ": 3687,
      "Ĕęęęęęęě": 3688,
      "ėĜęęĔ": 3689,
      "ėĜĜęęě": 3690,
      "ĠĚęęĝ": 3691,
      "ĠĚęę!": 3692,
      "ęĚęĘęęĚęęęĘ": 3693,
      "ęĖĜĚęęĚ": 3694,
      "ęĖĜęęęě": 3695,
      "ęĖĜĘęęě": 3696,
      "ęĖĜĜęęĚ": 3697,
      "ęĖĜĖęęě": 3698,
      "ĀĀĜĀđ": 3699,
      "ėĖę": 3700,
      "ėĖĜ": 3701,
      "ĝĞęęě": 3702,
      "ęęęęęęęęĚęĚęęęę": 3703,
      "ęęęęęęęęĚęĘęęęę": 3704,
      "ęęęęęęęęĚęęęęęęęęęęęęę": 3705,
      "ęĚęęęęęęĘĚęęęĚ": 3706,
      "ęĝĜĘęęě": 3707,
      "ęĝĜėęęě": 3708,
      "ęĞĘĘęęė": 3709,
      "ėęęęęĘĚęęęę": 3710,
      "ėęęęęĘęěęęęę": 3711,
      "ęěęęęęĘę": 3712,
      "ęĝěĚęęĚ": 3713,
      "ęĝěĘęęĚ": 3714,
      "ĀĚĚĚęęĚ": 3715,
      "ėęęĕę": 3716,
      "ęęėęęęĘęęęĘęęęę": 3717,
      "ęĜĕĘęęė": 3718,
      "ęĜĕęęęĖ": 3719,
      "ĔĖęęĒ": 3720,
      "ĞĚęę!": 3721,
      "ęĚĚĚęęęęęęĘęęęę": 3722,
      "ĠėęęĞ": 3723,
      "ęę#ęęě": 3724,
      "ęę#ęĞ": 3725,
      "ęęęęęęęęęęęĚĘ": 3726,
      "ęĕĖĘęęĘ": 3727,
      "ęĕĖĚęęė": 3728,
      "ę#ĕ": 3729,
      "ę#Ę": 3730,
      "ę#ě": 3731,
      "ę#ęęĘ": 3732,
      "ěĕė": 3733,
      "ěĕęęĝ": 3734,
      "ęęĚęęęěęęęęęęĚ": 3735,
      "ĀĀ%ĀĚ": 3736,
      "ęĐĘ": 3737,
      "ęĕęęęęĖ": 3738,
      "ĔĘęęē": 3739,
      "ęĘĚĘęęĚęęĚęęęĚ": 3740,
      "ęęĚęęĘėęęĘ": 3741,
      "ęĖĕĘęęė": 3742,
      "ęĖĕęęęĖ": 3743,
      "ĀĀğĀ$": 3744,
      "ĀĀğĀĒ": 3745,
      "ĖĖęęē": 3746,
      "ęĘęęęĘęęęęęęęę": 3747,
      "ęĞĚęęęĘ": 3748,
      "ęĘēęęęę": 3749,
      "ęĘęěęęĖ": 3750,
      "ęĖĔĘęęĖ": 3751,
      "ęĝĖėęęė": 3752,
      "ęĝĖĚęęĖ": 3753,
      "ęĞěĘęęĚ": 3754,
      "ĚęęęęĘĘĚęęęę": 3755,
      "ĕĕę": 3756,
      "ĖęęęęĚęěęęęę": 3757,
      "ĚĚęęęęĚĚĘęęęę": 3758,
      "ĠĞĀĀ": 3759,
      "ĀĀ&Āě": 3760,
      "ęĚĔěęęė": 3761,
      "ęęěĘęęĚę": 3762,
      "ğěęęĝ": 3763,
      "Ġ!ęęě": 3764,
      "ęėĞęęęě": 3765,
      "ęęęęęęęęĘęĘęęęę": 3766,
      "ĘęęęęęĚęęęĚ": 3767,
      "ęęĚęęęęęęĚęęęęęęęę": 3768,
      "Ĕě#": 3769,
      "ĔĞęęė": 3770,
      "ĘęęęęěęĘęęęę": 3771,
      "ĘęęęęęęĘęęĘ": 3772,
      "ęĘęęęęěęĚęęęę": 3773,
      "ęĘęęęęěęĘęęęę": 3774,
      "ėęęęęėęĘęęęę": 3775,
      "ĀĀēĀ$": 3776,
      "ĀĀēĀ'": 3777,
      "ęĝĝĘęęĚ": 3778,
      "ĀĀęĀěğ": 3779,
      "Ĕĝęęĕ": 3780,
      "ĘĜğ": 3781,
      "ğĞęęě": 3782,
      "ğĞĀĀĚĀė": 3783,
      "ęĕĜĘęęě": 3784,
      "ęĚĘėęęĘęĚęĘęęęę": 3785,
      "ęęęěęęęęęęĘęęęę": 3786,
      "ęĞĖęęęĖ": 3787,
      "ĀĀėĀěě": 3788,
      "ęĚęėęęĖ": 3789,
      "ęĚęėęęĘę": 3790,
      "ęĚęėęęĘęĚ": 3791,
      "ēĜğ": 3792,
      "ĖęęęĘęĘĘęęęę": 3793,
      "ęėĔěęęė": 3794,
      "ęĜĔĘęęė": 3795,
      "ęĜĞęęęĚ": 3796,
      "ėęęęęĚĚĘęęęę": 3797,
      "ęĚĚęęęĘęęęęęęęę": 3798,
      "ęęęĘęęėĚęęęę": 3799,
      "ęĔĜęęęĜ": 3800,
      "ĀĀęĀĜĘ": 3801,
      "ĝĘĘęęĘ": 3802,
      "ęĘęęęęęęęęęęęęęĚęęęęęę": 3803,
      "ęęęĘęęęęĘęĘęęęę": 3804,
      "ĘęęęęĘĘĚęęĘ": 3805,
      "ęęĖęęęęęęė": 3806,
      "ĀĀĚĀĚĞ": 3807,
      "ĀĀĚĀėĞ": 3808,
      "ĚĘęęęĘęęęęęęęę": 3809,
      "ęęęĘęęęęĚĚęęęęę": 3810,
      "ęĚęęęęęęęĚĘęęĚ": 3811,
      "ęĔĚěęęĚ": 3812,
      "ĀĀ*ĀĘ": 3813,
      "ęĝĔęęęĖ": 3814,
      "ęĕĝěęęě": 3815,
      "ēěęę": 3816,
      "ęėęěęęě": 3817,
      "ĒĔęęē": 3818,
      "ęęęęęęęęęęęęęĚęęęęęęęęęęę": 3819,
      "ĀĀĕĀĚĕ": 3820,
      "%ěĐ": 3821,
      "ĀĀĈĀ#": 3822,
      "ęěĚĘęęĘę": 3823,
      "ĀĀĘĀĔĕ": 3824,
      "ęĘęĚęęęęĚęĘęęęę": 3825,
      "ęęĘęęęĘęęęęęęĚę": 3826,
      "ĀĀćĀĝ": 3827,
      "Ěě#": 3828,
      "ęėęĘęęĜ": 3829,
      "ęĖęěęęĕ": 3830,
      "ęĘęęęęĚęęĘęęęĘ": 3831,
      "ęĘęėęęĚęęęĚ": 3832,
      "ĀĀăĀ": 3833,
      "ęęęęęęęęĘĘęęęĘę": 3834,
      "ĀĀĘĀğĕ": 3835,
      "ęĚęęęęĘęĚęęęęĘĚęęęęę": 3836,
      "ęĚĚĘęęęęĘĘěęęĘ": 3837,
      "!#": 3838,
      "!ęę": 3839,
      "!ęęęę": 3840,
      "!ęęě": 3841,
      "!ęĖ": 3842,
      "!ęęęě": 3843,
      "!ęęĔ": 3844,
      "!ĀĀĒ": 3845,
      "!ĚęęĜ": 3846,
      "!ĖęęĜ": 3847,
      "!ĝęęęę": 3848,
      "!ėĜ": 3849,
      "!ĀĀĝĀ": 3850,
      "!ęęěę": 3851,
      "!ĀĀĘĀĖ": 3852,
      "!ęęĚęęĚ": 3853,
      "!ĀĀėĀĖ": 3854,
      "!ĝĕ": 3855,
      "!ĀĀĒĀĖ": 3856,
      "\"'": 3857,
      "\"ę": 3858,
      "\"ęęĘ": 3859,
      "\"ęęĚ": 3860,
      "\"ęęĕ": 3861,
      "\"ęęęĞ": 3862,
      "\"ĖęęĞ": 3863,
      "\"ĀĀęĀĘ": 3864,
      "\"ĀĀ(": 3865,
      "\"ĖĐ": 3866,
      "\"ĀĀėĀĖ": 3867,
      "\"ĀĀĜĀĖ": 3868,
      "\"ĀĀĜĀě": 3869,
      "\"ėęę": 3870,
      "\"ĀĀĖĀĝ": 3871,
      "\"ĀĀĔĀě": 3872,
      "\"\"ĀĀěĀ": 3873,
      "\"ĀĀğĀĖ": 3874,
      "#đ": 3875,
      "#ę": 3876,
      "#Ĝ": 3877,
      "#ęęĘ": 3878,
      "#ėĘ": 3879,
      "#ĀĀĘĀ": 3880,
      "#ĀĀĖĀ": 3881,
      "#ĀĀĝĀ": 3882,
      "#ĞĚ": 3883,
      "#ĀĀĚĀĖ": 3884,
      "#ĒĐ": 3885,
      "#ĞĜ": 3886,
      "#ĀĀĝĀĕ": 3887,
      "#Ěęęğ": 3888,
      "#ĀĀĞĀē": 3889,
      "$ė": 3890,
      "$Ěęęě": 3891,
      "$ĀĀěĀ": 3892,
      "$ĀĀĔĀ": 3893,
      "$ĀĀĔĀė": 3894,
      "$Ğęęĝ": 3895,
      "%ğ": 3896,
      "%ęē": 3897,
      "%ĀĀđ": 3898,
      "%ĀĀĚĀĚ": 3899,
      "%ĀĀėĀė": 3900,
      "&!": 3901,
      "&ĀĀ": 3902,
      "&ĖĔ": 3903,
      "&Ĝěęę": 3904,
      "'$": 3905,
      "'ğ": 3906,
      "(#": 3907,
      "(ęęęę": 3908,
      "(ĀĀĘĀ": 3909,
      "*Ě": 3910,
      "ĀĒ": 3911,
      "Āę": 3912,
      "Ďęę": 3913,
      "Ďęęęę": 3914,
      "ĎęęĚ": 3915,
      "Ďęĝ": 3916,
      "Ďęęĝ": 3917,
      "ĎĀĀěĀ": 3918,
      "Ďĕęęĕ": 3919,
      "Ď!ğ": 3920,
      "ď$": 3921,
      "ďď": 3922,
      "ďĐ": 3923,
      "ďđ": 3924,
      "ďĘ": 3925,
      "ďĝ": 3926,
      "ďęęě": 3927,
      "ďĖĚ": 3928,
      "ďĔĖ": 3929,
      "ďĔęęĖ": 3930,
      "ďĕęęĒ": 3931,
      "Đě": 3932,
      "ĐęęĘ": 3933,
      "ĐĀĀ": 3934,
      "Đęęě": 3935,
      "ĐęęĜ": 3936,
      "ĐęęęęĘ": 3937,
      "Đęęęė": 3938,
      "ĐĜęęĖ": 3939,
      "ĐĀĀėĀ": 3940,
      "ĐęęęĔ": 3941,
      "ĐĜĞ": 3942,
      "ĐĔęęė": 3943,
      "Đěęęĕ": 3944,
      "Đēě": 3945,
      "ĐĞ!": 3946,
      "đę": 3947,
      "đęęĜ": 3948,
      "đęĝ": 3949,
      "đęęĕ": 3950,
      "đěęęęę": 3951,
      "đėęęĘ": 3952,
      "đĖęęĘ": 3953,
      "đĖęęě": 3954,
      "đęęęĕ": 3955,
      "đěě": 3956,
      "đĀĀęĀ": 3957,
      "đĖĚ": 3958,
      "đęęĐ": 3959,
      "đěĞ": 3960,
      "đĝĚ": 3961,
      "đĀĀĝĀ": 3962,
      "đĔęęė": 3963,
      "đĀĀęĀĕ": 3964,
      "đĀĀĜĀė": 3965,
      "đěęęē": 3966,
      "Ē$": 3967,
      "Ēęę": 3968,
      "ĒĀĀ": 3969,
      "ĒĚęęęę": 3970,
      "ĒęĜ": 3971,
      "Ēęĝ": 3972,
      "Ēęęĕ": 3973,
      "ĒęęęęĘ": 3974,
      "Ēėęęęę": 3975,
      "ĒęęĞ": 3976,
      "ĒėĚ": 3977,
      "ĒėĘ": 3978,
      "Ēęę\"": 3979,
      "ĒĜě": 3980,
      "ĒĜęęĖ": 3981,
      "ĒěĞ": 3982,
      "ĒĜĞ": 3983,
      "ĒĘĚ": 3984,
      "ĒĝĞ": 3985,
      "ĒėĞ": 3986,
      "ĒęęĎ": 3987,
      "ĒĖĞ": 3988,
      "Ēę$": 3989,
      "ĒĔė": 3990,
      "Ē!Ğ": 3991,
      "Ē!!": 3992,
      "Ēğ\"": 3993,
      "ēęęęĚ": 3994,
      "ēĚęęĘ": 3995,
      "ēęęęęĘ": 3996,
      "ēęęęě": 3997,
      "ēĘęęĚ": 3998,
      "ēėęęĘ": 3999,
      "ēĘęęė": 4000,
      "ēęęē": 4001,
      "ēęğ": 4002,
      "ēęęĘęĚ": 4003,
      "ēěĚ": 4004,
      "ēĜęęĘ": 4005,
      "ēĖęęě": 4006,
      "ēĘęęĖ": 4007,
      "ēėĚ": 4008,
      "ēęęęĕ": 4009,
      "ēęęęęĘĘ": 4010,
      "ēĖęęė": 4011,
      "ēĜęęė": 4012,
      "ēęęĐ": 4013,
      "ēę\"": 4014,
      "ēėĝ": 4015,
      "ēĖęęĕ": 4016,
      "ēĚęęĕ": 4017,
      "ēęęęĔ": 4018,
      "ēĕęęĖ": 4019,
      "ēĝĞ": 4020,
      "ēę#": 4021,
      "ēĖĜ": 4022,
      "ēĚĝ": 4023,
      "ēĔĜ": 4024,
      "ēĝğ": 4025,
      "ē!$": 4026,
      "ĔęęęĚ": 4027,
      "ĔęęęĘ": 4028,
      "ĔĚĘ": 4029,
      "Ĕėęęęę": 4030,
      "Ĕęęęě": 4031,
      "Ĕěęęęę": 4032,
      "ĔęęĚę": 4033,
      "ĔęęĘę": 4034,
      "ĔęęęĖ": 4035,
      "ĔĖęęĚ": 4036,
      "ĔęęĘęĚ": 4037,
      "Ĕęę!": 4038,
      "ĔĖęęė": 4039,
      "ĔěęęĖ": 4040,
      "Ĕę!": 4041,
      "ĔĀĀ!": 4042,
      "ĔĕĘ": 4043,
      "Ĕę\"": 4044,
      "ĔĜęęĖ": 4045,
      "ĔĖęęĕ": 4046,
      "ĔĘĘ": 4047,
      "ĔěĞ": 4048,
      "ĔĜĞ": 4049,
      "Ĕĕě": 4050,
      "Ĕęęęē": 4051,
      "Ĕėęęĝ": 4052,
      "Ĕĝě": 4053,
      "ĔĝĚ": 4054,
      "ĔĔęęė": 4055,
      "ĔĕĜ": 4056,
      "Ĕğě": 4057,
      "Ĕĕĝ": 4058,
      "ĔĔĝ": 4059,
      "Ĕ\"Ğ": 4060,
      "ĔğĀĀ": 4061,
      "ĔĀĀ&Ā": 4062,
      "ĕ!": 4063,
      "ĕ#": 4064,
      "ĕĎ": 4065,
      "ĕęě": 4066,
      "ĕęė": 4067,
      "ĕęĚęęęę": 4068,
      "ĕęęęě": 4069,
      "ĕĘęęĚ": 4070,
      "ĕęĞ": 4071,
      "ĕęğ": 4072,
      "ĕĖęęĘ": 4073,
      "ĕĜęęě": 4074,
      "ĕĖĚ": 4075,
      "ĕęĖęęęę": 4076,
      "ĕěĝ": 4077,
      "ĕĕĚ": 4078,
      "ĕĜĚ": 4079,
      "ĕĕě": 4080,
      "ĕĀĀď": 4081,
      "ĕĖęęĞ": 4082,
      "ĕėĜ": 4083,
      "ĕĞĚ": 4084,
      "ĕĝĜ": 4085,
      "ĕėĞ": 4086,
      "ĕėĕ": 4087,
      "ĕĒĚ": 4088,
      "ĕ\"!": 4089,
      "ĕėĝęęė": 4090,
      "ĕ\"Ĝ": 4091,
      "ĕęę\"ęĖ": 4092,
      "ĕğĞĀĀĚĀė": 4093,
      "Ė%": 4094,
      "ĖĀĀ": 4095
    },
    "merges": [
      "ę ę",
      "ęę ęę",
      "ę Ě",
      "ę Ę",
      "ęę Ę",
      "ęę Ě",
      "Ā Ā",
      "ę ě",
      "ę ė",
      "ęęęę ęęęę",
      "ęę ė",
      "ęę ě",
      "Ę ęęęę",
      "ęę ęĚ",
      "Ě ęęęę",
      "ęę ęĘ",
      "ę Ĝ",
      "ę Ė",
      "ęę Ė",
      "ęę Ĝ",
      "ęĚ ęęęę",
      "ęĘ ęęęę",
      "ę ĝ",
      "ę ĕ",
      "Ě Ę",
      "Ě ęęĚ",
      "ęĚ Ę",
      "Ě ęęĘ",
      "Ę ęęĘ",
      "ęę ĕ",
      "ęęęę Ę",
      "ęĘ Ę",
      "ęę ęė",
      "ė ęęęę",
      "ęę ĝ",
      "ęĘ Ě",
      "ęĚ Ě",
      "ęę ę",
      "ęę ęě",
      "ęęęę Ě",
      "Ę ęęĚ",
      "ę Ğ",
      "ě ęęęę",
      "ęęĚ ęęęę",
      "ęę Ĕ",
      "ęę Ğ",
      "ė ęęĚ",
      "ę Ĕ",
      "ęęĘ ęęęę",
      "ęęęęęęęę ęęęę",
      "ě ęęĘ",
      "Ā Ę",
      "Ā ě",
      "ė ęęĘ",
      "ęĚ ě",
      "Ā Ě",
      "ĀĀ ę",
      "ĀĀ Ę",
      "ęĘ ě",
      "ęě Ę",
      "Ě ęęė",
      "Ę ęęė",
      "ęĚ ė",
      "ě ęęĚ",
      "ęĘ ė",
      "Ě ęęě",
      "ĀĀ Ě",
      "ęę ē",
      "Ā ė",
      "ĀĀ ė",
      "ęě Ě",
      "Ā Ė",
      "ęė Ę",
      "Ā Ĝ",
      "ęęĚ ę",
      "ęęĘ ę",
      "ęę ğ",
      "ęė Ě",
      "Ę ęęě",
      "ĀĀ ě",
      "ęę ęĜ",
      "ęę ęĖ",
      "ęęęęęęęę ęęęęęęęę",
      "ė ęęě",
      "ĀĀ Ė",
      "Ā ĝ",
      "ę ğ",
      "Ė ęęęę",
      "ęęęĘ ęęęę",
      "ęė ė",
      "Ā Ğ",
      "ęęĚ ęęęĚ",
      "ęě ęęęę",
      "ęė ęęęę",
      "Ě Ě",
      "Ā ĕ",
      "Ė ęęĚ",
      "ę ē",
      "ĚĘ ęęĚ",
      "ě ęęė",
      "ĀĀ Ĝ",
      "ęě ė",
      "ęě ě",
      "ė ęęė",
      "ęęĘ ęĚ",
      "ęęęĘ ę",
      "ęę Ē",
      "ęĚ Ěęęęę",
      "ęęęĚ ęęęę",
      "ęĘ ęęĚ",
      "Ěęęęę Ę",
      "Ĝ ęęęę",
      "ęĚ Ęęęęę",
      "ęė ě",
      "Ė ęęĘ",
      "ęĚ ęęĘ",
      "ĀĀ ĕ",
      "ě ęęě",
      "ęĘ Ęęęęę",
      "ĀĀ Ĕ",
      "ęęęĚ ę",
      "ĀĀ ĝ",
      "Ĝ ęęĚ",
      "ě Ě",
      "Ęęęęę Ę",
      "ęĜ Ę",
      "ęĚ Ĝ",
      "ęĚ ęęĚ",
      "ęĖ Ę",
      "Ĝ ęęĘ",
      "ě Ę",
      "ęĘ Ěęęęę",
      "ęĘęęęę Ę",
      "ęĘęęęę Ě",
      "ęĚ Ė",
      "ęĘ ęęĘ",
      "Ęęęęę Ě",
      "ęęęęęęęę ęęę",
      "ęĘ Ė",
      "ęĚęęęę Ę",
      "Ā Ĕ",
      "Ė ęęě",
      "Ę ęęĖ",
      "ęĘ Ĝ",
      "ę Ē",
      "ė Ě",
      "ęě Ĝ",
      "ęę ęĕ",
      "ĀĀ Ğ",
      "ęĜ Ě",
      "ęęęęĘ Ę",
      "ĀĀ ğ",
      "Ę ęęĜ",
      "Ě ęęĖ",
      "ęę !",
      "ęĜ ė",
      "ęĚęęęę Ě",
      "ě ě",
      "ĕ ęęęę",
      "ęęĘ ęęęĘ",
      "ĀĀ Ē",
      "ęĖ Ě",
      "Ā ğ",
      "ĀĀ ē",
      "ė Ę",
      "Ė ęęė",
      "Ĝ ęęė",
      "Ě ęęĜ",
      "ęę ęĝ",
      "ęė Ė",
      "ęė Ĝ",
      "ĕ ęęĘ",
      "ĕ ęęĚ",
      "ė ęęĖ",
      "ĀĀę Ā",
      "ě ęęĖ",
      "Ěęęęę Ě",
      "ęĖ ė",
      "ĀĀĘ Ā",
      "ęĖ Ė",
      "ęĜ ě",
      "Ĝ ęęě",
      "ęę đ",
      "ęęęĘ ęęĚ",
      "ęĜ Ĝ",
      "ě ęęĜ",
      "ė ě",
      "ė ęęĜ",
      "Ė ęęĜ",
      "ĀĀ đ",
      "ęęęĘ ęęĘ",
      "ęĘĚ ęęęĚ",
      "Ė Ě",
      "ę !",
      "ęęęęĘ Ě",
      "ĝ ęęęę",
      "ęĖ ęęęę",
      "ęęě ęęęę",
      "ęęę Ğ",
      "ęĘ ęĚ",
      "ęĘ ęĚęęęę",
      "ęęĚ ĚęęĚ",
      "ęę \"",
      "ęĚęęęę ęę",
      "ĀĀě Ā",
      "ęĚ ęĘ",
      "ĚęęĘ ę",
      "ě ĝ",
      "ĀĀ !",
      "ĕ Ě",
      "ęęĘ Ęęęęę",
      "ęě Ė",
      "ęĖ ě",
      "ė ė",
      "Ĝ Ę",
      "Ĝ ě",
      "ęĘ ĕ",
      "ęĜ Ė",
      "ęĜ ęęęę",
      "ęĕ Ě",
      "ĝ ęęĚ",
      "ęė ęęĘ",
      "Ā ē",
      "ĕ ęęě",
      "ę đ",
      "ęęė ęęęę",
      "ęĝ Ę",
      "ęęęĚ ęęĚ",
      "Ė ė",
      "Ė ě",
      "ęĚ ęĘęęęę",
      "ęě ęęĘ",
      "Ė Ę",
      "Ĝ Ě",
      "Ĝ Ĝ",
      "ęę Đ",
      "ęė ęęĚ",
      "ĕ Ę",
      "ę \"",
      "ęĘ ęĘęęęę",
      "ĀĀ $",
      "ęĝ Ě",
      "ęęęĚ ęęĘ",
      "ęĘęęęę ęę",
      "ĕ ęęė",
      "ęĚ ĝ",
      "ęęĘ ĘęęĘ",
      "ĀĀ \"",
      "ęĕ Ę",
      "ėęęęę Ě",
      "ė ĝ",
      "ęĚ ĚĘ",
      "ęĘ ĝ",
      "ęęęęĚ Ě",
      "ęęęę ęęĚ",
      "ęĚ ĕ",
      "ęĚ ęĚ",
      "ęě ĝ",
      "ęĚĘ ęęęĘ",
      "ęęĚęęęę ę",
      "ęĕ ė",
      "Ĕ ęęĚ",
      "Ĝ ęęĖ",
      "ĀĀ Đ",
      "ĚęęĚ ę",
      "ĀĀė Ā",
      "Ė ęęĖ",
      "Ěęęęę ę",
      "ęĚĚ ęęęĚ",
      "ęęęęęęęęęęęę ę",
      "ęĚ ęĚęęęę",
      "Ė ęęĕ",
      "Ę Ę",
      "ě ė",
      "ě Ĝ",
      "ęě ęęĚ",
      "ęęęęęęęę ęĘ",
      "ęĘĘ ęęęĘ",
      "ĀĀĖ Ā",
      "Ė ĝ",
      "ě Ğ",
      "ĝ ęęĘ",
      "ęęĚ ĘęęĚ",
      "Ě ęęĕ",
      "ęĝ ė",
      "ě ęęęęĚ",
      "ęě ĕ",
      "ęęęęęęęę ęęęęęęęęęęęę",
      "Ěęęęę ęę",
      "ęęę Ĕ",
      "ęĚ Ğ",
      "ęĘ ęĘ",
      "ęĚĘ ĘęęĘ",
      "Ę ęęĕ",
      "Ĝ Ğ",
      "ęęĘ ĚęęĘ",
      "ĀĀ #",
      "ĀĀ Ď",
      "ęė ęęęęĚ",
      "ĚĘ ęęě",
      "ęĚĘ ĚęęĘ",
      "ĀĀĚ Ā",
      "ĕ ě",
      "ĕ ęęĖ",
      "Ĝ ė",
      "ĝ ęęė",
      "ęę ď",
      "ęĚ ĚĘęęĚ",
      "ęęĚ Ęęęęę",
      "ě ęęęęĘ",
      "Ĝ ęęĕ",
      "Ġ Ę",
      "ĀĀ ď",
      "ęė ĝ",
      "ęęęė ęęęę",
      "Ĕ ęęĘ",
      "Ę Ě",
      "ęęĚ Ěęęęę",
      "ęė ĕ",
      "ęęę ē",
      "ė ęęĝ",
      "ĝ ě",
      "ĝ ęęě",
      "Ğ Ğ",
      "Ġ Ĝ",
      "ęęĘ ęęęęęęęę",
      "ĚĘ ęęĘ",
      "ęęĘęęęę ę",
      "ęęĚęęęĚ ę",
      "ĀĀĔ Ā",
      "Ĕ ęęęę",
      "Ė ęęĞ",
      "ė Ĝ",
      "ĝ Ě",
      "ęĘ ėęęęę",
      "Ęęęęę ęę",
      "ęęęęęęęęęęęęęęęę ęę",
      "Ġ Ě",
      "ęĚ ęĘęęĚ",
      "ęĘ ęĚęęĚ",
      "ęĖ Ĝ",
      "ĀĀĜ Ā",
      "ė Ė",
      "ĝ Ğ",
      "ęě Ěęęęę",
      "ęě ęęęęĚ",
      "ęęęęęęęę Ě",
      "ęĚęęęę ęęĘ",
      "ęĝ Ĝ",
      "ęĞ Ę",
      "ė ęęęęĘ",
      "Ę ęęĝ",
      "ęě ęęęęĘ",
      "Ęęęęę ę",
      "ęĝ ě",
      "ęĘĚ ĚęęĚ",
      "ĀĚ Ě",
      "ĀĀĕ Ā",
      "ĕ ęęĕ",
      "ė ęęĕ",
      "Ġ ĝ",
      "ęęė ęęęĘ",
      "ęęě ęęęĚ",
      "ęĜ ĕ",
      "ęĜ ĝ",
      "ęĚęęęę ę",
      "ęęęęęęęęęęęę ęęę",
      "ĀĀĝ Ā",
      "Ĕ Ė",
      "Ğ Ě",
      "ęęĘ Ěęęęę",
      "ęĚęęęę ęęĚ",
      "ęĘęęęę ę",
      "ĘęęĘ ę",
      "ęĘĘ ĚęęĘ",
      "ęĚĚ Ěęęęę",
      "Ĕ ęęė",
      "Ġ ė",
      "ęę #",
      "ęęĘ ęęęĚ",
      "ęě Ğ",
      "ęęęęęęęę ęęęĚ",
      "ęĕ Ė",
      "ęĘĚ Ěęęęę",
      "ęĘė ęęęĘ",
      "ęĚĚęęęę ę",
      "Ē Ę",
      "ĕ ęęĜ",
      "ę #",
      "ě ĕ",
      "ě ęęĕ",
      "ęęĚ ęęęě",
      "ĀĀ %",
      "ęĚĚ Ęęęęę",
      "ĀĀĞ Ā",
      "Ĕ ęęě",
      "ę Đ",
      "ğ Ě",
      "ęĘ ęĘęęĚ",
      "ĀĀ '",
      "ĀĀ )",
      "ęęęęęęęę ęęęĘ",
      "ęĘęęęę ęęĚ",
      "ęĕ ě",
      "ęĕ ęęęę",
      "ęĚě ęęęĚ",
      "ĀĀĘ ĀĘ",
      "Ĕ Ę",
      "Ė ęęĝ",
      "ęĘ ĚĘęęĚ",
      "ęęĚ ęęĘ",
      "ęė ęęęęĘ",
      "Ěęęęę ęęĚ",
      "ęĖ ĕ",
      "ęĘęęęę ęęĘ",
      "ęĔ Ę",
      "ĀĀğ Ā",
      "ĕ Ğ",
      "Ė Ė",
      "ęĚ ěęęęę",
      "ęĘ ęęęĘ",
      "ęęě ę",
      "ęĜ ęęĘ",
      "ęĖ ĝ",
      "ęĚĘ Ęęęęę",
      "ęĞ Ě",
      "Āě Ę",
      "ē Ę",
      "Ė Ĝ",
      "ė ęęĞ",
      "ě ęęęĚ",
      "ĝ Ĝ",
      "ĝ ęęĖ",
      "ğ ĝ",
      "ęĘ ē",
      "ęĘ ęě",
      "ęĘ ęĚęęĘ",
      "ęĖ Ĕ",
      "ęĝ Ė",
      "ęęęě ę",
      "ęĞ ě",
      "ęęĘęęęę ęęĘ",
      "ĚęęęęĘ Ę",
      "ĕ ĕ",
      "Ė ęęęęĚ",
      "ė Ğ",
      "ė ęęĔ",
      "Ě Ěęęęę",
      "ğ Ę",
      "Ġ Ğ",
      "ęęęę ęęĘ",
      "ęĘ ęęė",
      "ĀĀ &",
      "ęė ęęě",
      "ęęě ĚęęĚ",
      "Ěęęęę ęęĘ",
      "ĀĀĚ ĀĘ",
      "Ē ē",
      "Ĕ Ě",
      "Ĕ ęęĖ",
      "Ġ ě",
      "ęę Ď",
      "ęĚ Ĕ",
      "ęĚ ęęė",
      "ęĘ Ğ",
      "ęė Ěęęęę",
      "ęęė ĚęęĘ",
      "ęęě ĘęęĚ",
      "Ęęęęę ęęĚ",
      "ęĚĚ ĚęęĚ",
      "ęęę ğ",
      "ĀĀę ĀĘ",
      "ĕ Ĝ",
      "Ė Ğ",
      "Ę ē",
      "ğ ě",
      "ğ Ĝ",
      "ğ ęęĘ",
      "Ġ !",
      "ęė Ğ",
      "ęęęęęęęę Ę",
      "Ęęęęę ęĚ",
      "ęĘĘ Ěęęęę",
      "ęĘĘ ęęęė",
      "ęęĚęęęę ęęĚ",
      "ěęęĚ ę",
      "ĀĖ Ę",
      "Ĕ ě",
      "Ĕ Ğ",
      "ė ęęęĘ",
      "Ě ĚęęĚ",
      "Ĝ ęęĜ",
      "Ğ ęęęę",
      "ęĚ ęęě",
      "ęĚ ęĘęęĘ",
      "ęĘ ěęęęę",
      "ęęęęęęęę ęĚ",
      "Ęęęęę ě",
      "Ęęęęę ęęĘ",
      "ęĖ ęęĘ",
      "ęĘęęęę ě",
      "ęĝ ęęęę",
      "ĚĘ ęęĚę",
      "ėęęęę ė",
      "ęĚě ĘęęĚ",
      "ĀĚ Ĝ",
      "ęĘě ĚęęĚ",
      "ĀĀĚ ĀĖ",
      "ĀĀė ĀĘ",
      "ĀĀē Ā",
      "! ğ",
      "ė ĘęęĘ",
      "Ě ęęęĚ",
      "Ĝ ęęęęĘ",
      "Ġ ĕ",
      "ęę $",
      "ęĘ Ĕ",
      "ĀĀ (",
      "ęĖ ęęĚ",
      "ęĝ ĝ",
      "ĚĘ Ęęęęę",
      "ĚĘ ęęĜ",
      "ęĘĘ ěęęĘ",
      "ęęęė ęęĘ",
      "ęĔ ė",
      "ĀĀę Āě",
      "Āė Ę",
      "Ē Ė",
      "ē ęęęę",
      "ĕ ĝ",
      "ė ĕ",
      "Ę Ğ",
      "Ě ĝ",
      "Ě ęęĝ",
      "ĝ ĝ",
      "ğ ęęęę",
      "Ġ ęęęę",
      "ęě ęęė",
      "Ěęęęę ě",
      "ęĚęęęę ě",
      "ĀĀĘ Āě",
      "Ē Ě",
      "Ĕ ĝ",
      "Ĕ ęęĝ",
      "Ę Ĝ",
      "ę $",
      "ě ęęĔ",
      "ğ Ğ",
      "ęě Ęęęęę",
      "ęĜ ęęĚ",
      "ęĝ ĕ",
      "ęĕ Ĝ",
      "ęĚĘ ėęęĘ",
      "ęĘĘ ĘęęĘ",
      "ęęęė ęęĚ",
      "ęęęě ęęęę",
      "ęĞ Ė",
      "ęĞ ė",
      "ĀĀę Āĕ",
      "ĀĀė Āě",
      "ē đ",
      "ē ė",
      "Ė ęęęęĘ",
      "ė Ęęęęę",
      "ęĚ ęė",
      "ęĚ ėęęęę",
      "ęĚ ęĚęęĘ",
      "ęĚ ęĚęęĚ",
      "ęĘ ęěęęęę",
      "ęęė ĘęęĘ",
      "ęęė ęęęė",
      "ęęęĚ ęęęęĘ",
      "ęĘĚ Ęęęęę",
      "ęęę Ē",
      "ĘęęĚ ę",
      "ėęęĚ ę",
      "ęęĘęęęę ęę",
      "ĀĚ ė",
      "ęĘě ęęęĚ",
      "ęĘě ĘęęĚ",
      "ęěĘ ĘęęĘ",
      "ĀĀė ĀĜ",
      "ĀĀė Āĝ",
      "ęĚĘęęęę ę",
      "! ě",
      "ē Ė",
      "ē Ě",
      "ē Ĝ",
      "ē ęęĚ",
      "ē ęęė",
      "ē ęęĜ",
      "Ė ęęęĘ",
      "Ė ęęğ",
      "ě ęęĝ",
      "Ĝ ęęęęĚ",
      "Ġ ğ",
      "ęĚ ęęęęęęęęęęęę",
      "ęĚ ęĘęęęęĚ",
      "ęĘ ęęě",
      "ęĘ ęęĘę",
      "ęĘ ęĘęęĘ",
      "ęė Ĕ",
      "ęė ęĘęęęę",
      "ęęė ę",
      "ęĜ Ĕ",
      "ęĜ Ğ",
      "ęĚęęęę ęęĚęęęę",
      "ęĝ Ğ",
      "ĘęęĘ ęĚĘ",
      "ėęęęę ĚĚ",
      "ęĚĚ ęęęĘ",
      "ęęęě ęęĚ",
      "ęĔ ě",
      "ĀĀĚ Āě",
      "ęğ Ě",
      "ęĘĘęęęę ę",
      "ęĘĚęęęę ę",
      "Ē Ē",
      "Ē ĕ",
      "ē Ğ",
      "Ĕ ė",
      "Ĕ Ĝ",
      "Ğ ęęĚ",
      "ęęĘ Ęęęė",
      "ęė ęęė",
      "ęęęĘ ęęė",
      "ęĚĘ ęęęė",
      "ęęę đ",
      "ęĔ Ĝ",
      "ĀĀę ĀĜ",
      "ĀĀĘ Āĕ",
      "ęĚė ęęęĘ",
      "ęėĚ ęęęĚ",
      "ĀĀě Āě",
      "ęęęęęęęęęęęęęęęę ęęęęęęęę",
      "ĀĀĒ Ā",
      "ĀĀ\" Ā",
      "! Ĝ",
      "đ ė",
      "Ē Đ",
      "Ė Đ",
      "ĝ Ę",
      "ĝ ęęĜ",
      "Ğ ęęĘ",
      "Ġ Ā",
      "Ġ Ė",
      "ęĚ ĚęęĚ",
      "ęĚ ęęĚę",
      "ęĘ ęęęęęęęęęęęę",
      "ęęĚ ęęęĘ",
      "ęě Ĕ",
      "ęė Ęęęęę",
      "ęęęĘ ęęě",
      "ęęęĘ ęęęęĘ",
      "ęĜ ęęęęĘ",
      "ęĚęęęę ė",
      "ęĘĘ Ęęęęę",
      "ęĘĘ ęęęĚ",
      "ęęę !",
      "ĀĀę Āĝ",
      "ĀĀĘ ĀĖ",
      "ęĚė ĘęęĘ",
      "ĀĀĚ ĀĜ",
      "Āė Ě",
      "ĀĀě ĀĘ",
      "ęęęęęęęęęęęęęęęę ęęę",
      "ęęĚęęęĚ ęęęę",
      "ĘęęęęĘ Ę",
      "ęĚęęęęĘ ę",
      "đ Ě",
      "ē ęęĘ",
      "Ĕ ęęĜ",
      "ĕ ęęĝ",
      "Ę ęęĔ",
      "ę ĀĀ",
      "Ě Ęęęęę",
      "Ĝ ĝ",
      "Ġ ĀĀ",
      "ęĘ ğ",
      "ęĘ ęęęęęęęę",
      "ęęĚ ėęęĚ",
      "ęė ęĚęęęę",
      "Ęęęęę ė",
      "Ěęęęę ė",
      "ęęĖ ęęęę",
      "ĀĀĘ ĀĜ",
      "ĀĀĚ ĀĚ",
      "ĀĀĚ Āė",
      "ĀĀ# Ā",
      "! Ě",
      "đ Ė",
      "Ē ė",
      "Ē ęęě",
      "ē ęęě",
      "Ĕ ĕ",
      "ĕ Ė",
      "ė ęęğ",
      "Ę Ęęęęę",
      "Ĝ Ė",
      "Ġ #",
      "ęĚ ęĘęęęęĘ",
      "ęĘ ęęęĘę",
      "ęė ē",
      "ęė ęĚęęĚ",
      "ęęęęęęęę ęęĚ",
      "ęęě Ěęęě",
      "ęęęĚ ęęě",
      "Ěęęęę ęęĘęęęę",
      "ęĖ ęęė",
      "ęęĜ ęęęĚ",
      "ĚĘ ęęęĘ",
      "ęĚĘ ęęęĘę",
      "ęĘĘ ęęęĘę",
      "ęęęė ę",
      "ėęęĘ ę",
      "ĀĀę ĀĖ",
      "ęĘė ĘęęĘ",
      "ĀĀĖ ĀĚ",
      "ĀĀĖ Āė",
      "ĀĞ Ě",
      "ĀĀ$ Ā",
      "\" ě",
      "\" Ğ",
      "đ Ē",
      "Ē ě",
      "Ĕ ęęĕ",
      "Ė ęęĔ",
      "ğ ęęě",
      "Ġ ę",
      "ęę %",
      "ęĚ ē",
      "ęĚ ęęęĚ",
      "ęĘ ĚęęĘ",
      "ęęĘ ęęĚ",
      "ęęĚ Ęęęě",
      "ęě ęĘęęĚ",
      "ęě ęĚęęĘ",
      "ęęė ęęĘ",
      "ęęęĚ ęęęęęęęę",
      "ęęęĚ ęęė",
      "Ěęęęę ęęĚęęęę",
      "ęęęĘ ęęęęĚ",
      "ęęĜ ęęęę",
      "ęĚęęęę ęęęĚ",
      "ĚĘ ĘęęĘ",
      "ęĚĘ ėęęęę",
      "ęĘĚ ęęęě",
      "ęĔ Ě",
      "ęęĘęęęę ęęĚ",
      "ěęęĘ ę",
      "ĀĀę ĀĚ",
      "ĀĀę Āė",
      "ĀĀĘ Āĝ",
      "ęěĚ Ęęęęę",
      "ęėĘ Ěęęęę",
      "ĀĀĖ ĀĘ",
      "Āĕ Ę",
      "ĀĀĜ ĀĘ",
      "! \"",
      "! ė",
      "Ē Ĝ",
      "ē ęęĕ",
      "Ĕ Ĕ",
      "ĕ ė",
      "Ė ęęĘęĚ",
      "ė ęęęė",
      "Ě Ğ",
      "ě ę",
      "ě Ęęęęę",
      "ě ĘęęĚ",
      "ĝ Ė",
      "ęĚ ęęęęęęęę",
      "ęĚ ęėęęęę",
      "ęęĘ ęęęė",
      "ęęĘ Ěęęė",
      "ęęĚ ęęĚ",
      "ĀĀ *",
      "Ěęęęę ęĘ",
      "ęęĖ ĘęęĘ",
      "ęĘęęęę ęęě",
      "ęĘęęęę ęęęĘ",
      "ęĕ ĕ",
      "ęĕ Ğ",
      "ĚĘ ęęė",
      "ęĚĘ Ęęęė",
      "ęĘĚ ęęęĘ",
      "ęĚĚ ėęęęę",
      "ęĚĚ ęęęě",
      "ęĞ ĕ",
      "Āě Ğ",
      "ęĚě ĚęęĚ",
      "ęěĘ Ęęęęę",
      "ĀĀė Āė",
      "ĀĀė ĀĖ",
      "ęěĚ ėęęęę",
      "ęėĘ ęęęĘ",
      "ęęęęęęęęęęęęęęęę ęęęęęęęęęęęęęęęę",
      "ĀĀĜ ĀĖ",
      "ĀĀĕ ĀĘ",
      "ĀĀđ Ā",
      "ĀĀ! Ā",
      "! Ğ",
      "\" Ě",
      "Đ Ę",
      "Ē Ğ",
      "Ē ęęęę",
      "ĕ ęęęęĚ",
      "ĕ ęęĔ",
      "Ę ęęĞ",
      "Ě ęęęęęęęę",
      "Ě ęęĔ",
      "ě ĚęęĚ",
      "Ĝ ęęĝ",
      "ĝ ęęĕ",
      "ęĚ ğ",
      "ęĚ ęęĜ",
      "ęĚ ęėęęĘ",
      "ęĘ ĘęęĘ",
      "ęęĘ ěęęĘ",
      "ęęĚ ęęęęęęęęęęęę",
      "ĀĀ +",
      "ęě ęĘęęęę",
      "ęęě ęęĘ",
      "ęęęĚ ęęęęĚ",
      "ęĖ ęęęęĘ",
      "ęĝ Ĕ",
      "ęĕ ĝ",
      "ęĞ Ĝ",
      "ěęęęę ė",
      "ęęĚęęęę ęęĘ",
      "ęĔ Ė",
      "Āě Ě",
      "ęĚě Ęęęě",
      "ĀĀĘ Āė",
      "Ěęęė ę",
      "ęĚė ĚęęĘ",
      "ęĘė ĚęęĘ",
      "Ěęęě ę",
      "ĀĀė ĀĚ",
      "ęėĘ ĚęęĘ",
      "ęęęĖ ęęęę",
      "ęęęĖ ęęĚ",
      "ĀĀĖ ĀĜ",
      "ęęęĘęęęę ę",
      "ĀĀĜ ĀĚ",
      "ĀĀĜ Āė",
      "ęĚęęęęĚ ę",
      "ĕĚ ęęĕ",
      "ĀĀĐ Ā",
      "! Ę",
      "\" !",
      "Ē ęęĚ",
      "Ē ęęĜ",
      "ē Ĕ",
      "ē ě",
      "Ĕ Đ",
      "Ĕ đ",
      "Ė ĘęęĘ",
      "ė ęęē",
      "ė ęęęęĘĘ",
      "ě ęęĞ",
      "ě ęęē",
      "ĝ ĕ",
      "ĝ ğ",
      "ęĘ ęėęęęę",
      "ĀĀ -",
      "ęě ğ",
      "ęě ěęęęę",
      "ęė ęě",
      "ęė ęęĜ",
      "ęė ęĚęęĘ",
      "ęė ęěęęĚ",
      "ęęė Ęęęęę",
      "ęęě ęęęě",
      "Ěęęęę ĚĘ",
      "ęĜ ęęęęĚ",
      "ęĖ Ğ",
      "ęĖ ğ",
      "ęęĖ ęęęĘ",
      "ęĝ ęęĘ",
      "ęĝ ęęĚ",
      "ęĕ Ĕ",
      "ęĕ ęęĘ",
      "ęĕ ęęĚ",
      "ęĚĘ ęęĚ",
      "ęĚĘ ĚęęĚ",
      "ęĚĘ ĘęęĚ",
      "ęĚĘ ěęęĘ",
      "ęĘĚ ěęęĚ",
      "ęĘĚ ęęęĚę",
      "ęĚĚ ĚęęĘ",
      "ęĚĚ ėęęĚ",
      "ęĞ ĝ",
      "ęĞ ęęęę",
      "ęęĚęęęę ęę",
      "ęĚě ęęęě",
      "ęěĘ ėęęęę",
      "Ęęęė ę",
      "ĀĀĚ Āĝ",
      "ĀĀĚ ĀĞ",
      "ĀĀĚ Āĕ",
      "ĀĀĚ ĀĔ",
      "ęěĚ ęęęĚ",
      "ęėĘ ęęęĚ",
      "ęėĘ ĘęęĘ",
      "ĀĀě Āė",
      "ĀĀě ĀĖ",
      "ĀĀě Āĝ",
      "ĀĀĖ ĀĖ",
      "ęğ Ĝ",
      "ęęęĘęęęę ęęĚ",
      "ęėęęęę ė",
      "ĚĚ Ęęęęę",
      "ĀĀĜ Āě",
      "ęěė ėęęĘ",
      "ęęęĚęęęę ęęĚ",
      "ĀĀĔ ĀĘ",
      "ĀĀĝ ĀĘ",
      "ĘęęęęĘ Ě",
      "ęĘęęęęĘ ę",
      "ĀĀĞ ĀĘ",
      "ęĘęĚ ęęě",
      "! ĀĀ",
      "\" ğ",
      "Đ Đ",
      "Ē đ",
      "Ē Ĕ",
      "Ē ęęĘ",
      "ē ğ",
      "Ė ĚęęĘ",
      "Ė ęęĘę",
      "ė ęę",
      "ė Ěęęęę",
      "ę Ď",
      "ę ď",
      "ě ęęęęĘĘ",
      "Ĝ ęęĞ",
      "ĝ ė",
      "Ğ !",
      "Ğ Ę",
      "Ğ ęęĜ",
      "ęęęę ę",
      "ęĚ ęě",
      "ęĘ ęęĖ",
      "ęĘ ęĔ",
      "ęĘ ęęĚę",
      "ęęĘ ĘęęĚ",
      "ęęĘ ęęęĘę",
      "ęęĚ ĚęęĘ",
      "ęęĚ ěęęĚ",
      "ęě ęęęĚ",
      "ęě ėęęęę",
      "ęě ĚĘęęĚ",
      "ęęęęęęęę ęęęęĚ",
      "ęęė ěęęĘ",
      "Ěęęęę ĚĚ",
      "ęęęĘ ęęĚę",
      "ęĜ ęęė",
      "ęĜ ęęě",
      "ęĖ ęęě",
      "ęĖ ęęęęĚ",
      "ęęĜ ęęęě",
      "ęĕ ęęĜ",
      "ęęęęĘ ě",
      "ęĘĘ ĘęęĚ",
      "ęĘĚ ěęęęę",
      "ęęĚęęęę ęęĚęęęę",
      "ęĔ ĕ",
      "ęęęęęęęęęęęę ęĚ",
      "ęĘě Ěęęě",
      "ęěĘ ĚęęĘ",
      "ęěĘ ėęęĘ",
      "ęĚė ęęęė",
      "ĀĀė Āĕ",
      "ęěĚ ęęęĘ",
      "ęėĘ ĚęęĚ",
      "ĀĜ Ę",
      "ĀĀě ĀĚ",
      "ĀĀĖ Āĝ",
      "ĀĀĖ Āĕ",
      "ęęęĘęęęę ęęĘ",
      "ęėė ęęęĘ",
      "ĀĞ Ę",
      "ęē Ę",
      "ęěė ĚęęĘ",
      "ęěė ĘęęĘ",
      "ęėě ęęęĚ",
      "ĀĀĕ ĀĚ",
      "Āğ Ę",
      "ęęĚĚęęĚ ę",
      "ęęęęęęęęęęęęęęęęęęęę ęę",
      "ĀĀ' Ā",
      "\" ĕ",
      "# !",
      "% ě",
      "Đ ĕ",
      "đ Ğ",
      "đ ęęė",
      "ē ę",
      "ē ęęĖ",
      "ē ęęĝ",
      "ē ęęĔ",
      "ĕ ď",
      "Ė Ē",
      "Ė Ęęęęę",
      "ė ěęęĘ",
      "ė ęę!",
      "Ě ė",
      "Ě Ĝ",
      "Ě ęęĞ",
      "ě Ė",
      "ě ěęęęę",
      "Ĝ ęęĘęĚ",
      "Ğ Ĝ",
      "Ğ ęęė",
      "ğ !",
      "ğ ğ",
      "ğ ęęĚ",
      "ğ ęęė",
      "Ġ ęęĜ",
      "ęĚ ęęĖ",
      "ęĘ Ē",
      "ęęĘ Ę",
      "ęęĘ ĚęęĚ",
      "ĀĀ ą",
      "ĀĀ Ĉ",
      "ęě Ē",
      "ęě ĚĘ",
      "ęė ęęęĘ",
      "ęė ėęęęę",
      "ęęęęęęęę ęęęęĘ",
      "ęęęęęęęę ĘĚ",
      "ęęė ėęęĘ",
      "ęęė Ěęęė",
      "ęęęĘ ęęĘę",
      "ęĜ ē",
      "ęĖ ē",
      "ęĖ Ęęęęę",
      "ęĚęęęę ęęęĚęęęę",
      "ęĘęęęę ė",
      "ęĘęęęę ęęĘęęęę",
      "ęĝ ğ",
      "ęĕ ğ",
      "ęĚĘ ęęęĚ",
      "ęĚĘ ĘęęęęĚ",
      "ęĘĘ ĚęęĚ",
      "ęĘĘ ěęęĚ",
      "ęĘĚ ĚęęĘ",
      "ęĚĚ ėęęě",
      "ęęęęęęęęęęęę ęĘęęęę",
      "Āě ĕ",
      "ĀĀĘ ĀĞ",
      "ĀĀĘ ĀĔ",
      "ęĘě ěęęĚ",
      "ęěĘ ęęęĘ",
      "ęĚė Ęęęęę",
      "ęĚė ėęęĘ",
      "ĀĀĚ Āğ",
      "ęěĚ ėęęĚ",
      "ęęęĜ ęęęę",
      "ęęęĜ ęęĚ",
      "ęğ ęęęę",
      "Ėęęęę ė",
      "ĀĀĜ ĀĜ",
      "ęěě Ęęęě",
      "ĚęęęęĘ Ě",
      "ĀĀĕ ĀĖ",
      "ĀĀĕ ĀĜ",
      "ĀĀĕ Āĝ",
      "ĀĀĔ Āė",
      "ĀĀĝ Āĕ",
      "ěĚ ęęĜ",
      "ĀĀĞ ĀĖ",
      "ęĜė Ęęęė",
      "ĚęęĜ ę",
      "ęĘęĚ ęęĚę",
      "ĀĀ% Ā",
      "ęęęęęęęęęęęęęęęęęęęęęęęę ę",
      "! !",
      "Đ Ě",
      "đ đ",
      "đ ĕ",
      "đ Ę",
      "đ Ĝ",
      "Ē ęęĖ",
      "Ĕ ęęĔ",
      "ĕ ęę",
      "Ė ĕ",
      "ė Ď",
      "ė ĚęęĘ",
      "ę &",
      "Ě ęęğ",
      "ě Ěęęęę",
      "ě ėęęĚ",
      "Ĝ ęęęĚ",
      "Ĝ ęęęě",
      "Ĝ ĘęęĜ",
      "ğ ė",
      "Ġ ęęĚ",
      "ęĚ ęĚęęęęĚ",
      "ęĚ ęėęęĚ",
      "ęĘ ęĚęęęęĘ",
      "ęĘ ęĚęęęęĚ",
      "ęĘ ęěęęĚ",
      "ęĘ ĚĘęęě",
      "ęęĘ ėęęęę",
      "ęęĘ ėęęĘ",
      "ęęĘ ęęęĘęęęę",
      "ęęĚ ěęęęę",
      "ĀĀ ć",
      "ęě ęĚęęęę",
      "ęě ęĘęęĘ",
      "ęě ęėęęĚ",
      "ęě ĚĘęęě",
      "ęė ęęĖ",
      "ęė ĘęęĘ",
      "ęė ĚĘęęĚ",
      "ęė ęĘęęĘ",
      "ęęęęęęęę Ěęęęę",
      "ęęė Ę",
      "ęęě ėęęě",
      "Ęęęęę ĚĘ",
      "Ěęęęę ěĚ",
      "ęĜ Ęęęęę",
      "ęĕ ē",
      "ęĘĘ Ęęęė",
      "ęĘĘ ĚęęĘę",
      "ėęęęę Ĝ",
      "ęĘĚ ėęęĚ",
      "ęĘĚ Ěęęě",
      "ęęęě ęęĘ",
      "ęĞ Ĕ",
      "ėęęĚ ęėĚ",
      "ęĔ Ĕ",
      "ęęĘęęęę ęęĘęęęę",
      "ęęęęęęęęęęęę ęĚęęęę",
      "ĀĀĘ ĀĚ",
      "ęĘě ėęęĚ",
      "ęĘě Ęęęě",
      "ęĚė Ěęęė",
      "ęĘė ěęęĘ",
      "ęęē ęĝ",
      "ĀĀė ĀĞ",
      "ęėĚ ĚęęĚ",
      "ĀĀě ĀĜ",
      "ęğ ė",
      "ęğ Ę",
      "ęğ ĝ",
      "ĀĞ ė",
      "ęėęęęę ě",
      "ĀĀĔ Āě",
      "ĀĀĔ ĀĜ",
      "ĀĀĝ ĀĜ",
      "ĘęęęęĘ ęĚęęęę",
      "ęĚĜ ęęęĚ",
      "ęĚĖ ĘęęĘ",
      "ĀĀĞ Āė",
      "ęęęęĘĘ Ěęęęę",
      "ĀĀğ ĀĘ",
      "ĀĀē ĀĘ",
      "ĀĀē ĀĚ",
      "ęĖė ęęęĘ",
      "ĀĀđ ĀĜ",
      "ĀĀ! ĀĘ",
      "ėĝ ęęė",
      "ęĚĚĘ ęęĚę",
      "ęĚęĚ ęęė",
      "ĀĀĎ Ā",
      "ĀĀ( Ā",
      "\" ĝ",
      "\" ĀĀ",
      "ď Ė",
      "ď ęęĚ",
      "Đ ė",
      "Đ Ĝ",
      "đ ē",
      "đ ęęĚ",
      "Ē Ď",
      "Ē ęęė",
      "ē Ď",
      "ē ĕ",
      "Ĕ ęę",
      "ĕ ęęęęĘ",
      "ĕ ęęĒ",
      "Ė ď",
      "ė ęęęęĘĚ",
      "Ę Ěęęęę",
      "ě ęę",
      "ě ěęęĚ",
      "ě ęęęęĘĚ",
      "Ĝ ĚęęĚ",
      "Ĝ ęęĘę",
      "Ĝ ęęğ",
      "ĝ ęęĝ",
      "Ğ ĕ",
      "Ğ ęęĝ",
      "ğ ĀĀ",
      "ęęęę ė",
      "ęĚ ęęĘę",
      "ęĚ ęĚęęęęĘ",
      "ęĚ ęěęęĘ",
      "ęĘ ęęęęęęęęęęę",
      "ęĘ ęěęęĘ",
      "ęĘ ęėęęĚ",
      "ęĘ ĚĘęęĘ",
      "ęęĚ Ę",
      "ęęĚ ĘęęĘ",
      "ęęĚ Ěęęě",
      "ęęĚ ĖęęĚ",
      "ęě ē",
      "ęě ęėęęęę",
      "ęė ĚęęĘ",
      "ęė ěęęęę",
      "ęęęęęęęę Ęęęęę",
      "ęęė Ěęęęę",
      "ęęė ěęęė",
      "ęęě Ęęęęę",
      "ęęě Ęęęě",
      "Ěęęęę ęęęĚ",
      "ęęęĘ ęęĖ",
      "ęĜ ğ",
      "ęĜ Ěęęęę",
      "ęĜ ęĘęęĘ",
      "ęęĖ ęęęė",
      "ęĚęęęę ęęĜ",
      "ęĘęęęę ęęęĚ",
      "ĚĘ ęęĞ",
      "ęĚĘ Ěęęė",
      "ęĘĘ ėęęęę",
      "ęĘĘ ěęęęę",
      "ęĘĘ Ěęęė",
      "ęĘĚ ĖęęĚ",
      "ęĚĚ ěęęęę",
      "ęĚĚ ęęęĜ",
      "ęęę Đ",
      "ęęęęĚ ė",
      "ęĞ ğ",
      "ęĞ ęęĘ",
      "ęĔ Ğ",
      "Āě Ė",
      "Āě ė",
      "ęĚě Ęęęęę",
      "ęĘė Ěęęė",
      "ęěĚ Ěęęęę",
      "ęěĚ ĚęęĚ",
      "ęěĚ ĚęęĘ",
      "ęěĚ ěęęĚ",
      "ęėĚ ęęęě",
      "ęęęĜ ęęĘ",
      "ęėė ęęęė",
      "ĀĞ ğ",
      "ĚĚ Ěęęęę",
      "Āĕ Ě",
      "ęěė ęęęĘ",
      "ęěě ęęęĚ",
      "ęěě ėęęĚ",
      "ęęĘęĚ Ĝ",
      "ĚęęęęĘ ęĚęęęę",
      "ęėě ĚęęĚ",
      "ĀĀĔ ĀĚ",
      "ĀĀĔ ĀĞ",
      "ĀĀĝ Āė",
      "ĀĀĝ ĀĖ",
      "ĀĀĝ ĀĞ",
      "ęĜĘ ĘęęĘ",
      "ęĚĜ ėęęĚ",
      "ęĚĖ ęęęĘ",
      "ęĘĖ ęęęĘ",
      "ęĘĜ ėęęĚ",
      "ęěĜ ęęęĚ",
      "ęėĜ ėęęĚ",
      "ęĚęĘ ęęě",
      "ęęęęęęęęęĘ ę",
      "ęĘęĘ ęęě",
      "ĀĀ) Ā",
      "ĀĀ& Ā",
      "\" #",
      "\" ė",
      "\" Ĝ",
      "# Ğ",
      "Ď ė",
      "Đ Ė",
      "đ ęęĘ",
      "ē Đ",
      "ē ĝ",
      "ē ęęĞ",
      "Ĕ ē",
      "Ĕ ęęğ",
      "ĕ ęęē",
      "ĕ ęęğ",
      "Ė ęęē",
      "Ė ęęęęĘĘ",
      "ė ęĚęęęę",
      "Ę ęęĒ",
      "Ě ě",
      "Ě ęęęęęęęęęęęę",
      "ě ď",
      "ě ęęęě",
      "ě Ěęęě",
      "Ĝ Ęęęě",
      "ğ \"",
      "ğ ęęĖ",
      "Ġ ęęĘ",
      "Ġ ęęě",
      "Ġ ęęęĞ",
      "ęęęę ęęĚę",
      "ęĘ đ",
      "ęĘ ęĘęęęęĘ",
      "ĀĀ ,",
      "ęě ęě",
      "ęě ęėęęĘ",
      "ęė đ",
      "ęė ğ",
      "ęė ęĘ",
      "ęė ęęĘęĚ",
      "ęė ęĘęęĚ",
      "ęė ęěęęĘ",
      "ęęęęęęęę Ěęęęęęę",
      "ęęė ęęĚ",
      "ęęė ĘęęĚ",
      "ęęě Ěęęęę",
      "ęęě ěęęĚ",
      "Ęęęęę ěĚ",
      "ęĜ ĚĘęęĚ",
      "ęĖ ęě",
      "ęĖ Ěęęęę",
      "ęĖ ėęęęę",
      "ęĖ ęěęęęę",
      "ęęĜ Ěęęě",
      "ęĚęęęę Ęęęęę",
      "ęĚęęęę ĘęęĘ",
      "ęĚęęęę ęęĘęęęęęę",
      "ęĘęęęę ĚęęĘ",
      "ęĘęęęę ĘęęĘ",
      "ęĝ ęęě",
      "ęĕ Ē",
      "ĚĘ Ěęęęę",
      "ĚĘ ęęĖ",
      "ĚĘ ĚęęĘ",
      "ęĚĘ Ěęęęę",
      "ęĚĘ Ėęęęę",
      "ęĚĘ ėęęė",
      "ęĚĘ ęęęĘęęĘ",
      "ęęęęĘ ęĚęęęę",
      "ęĘĘ ėęęĚ",
      "ęĘĘ ėęęĘ",
      "ęęęė ęęě",
      "ęĘĚ ėęęęę",
      "ęĚĚ ęęęĚę",
      "ęĞ Ğ",
      "ęęĚęęęę ęęĘę",
      "ęęĚęęęę ęĘĘęęęę",
      "ęĔ ĝ",
      "ěęęĘ ęęĚ",
      "ęĚě ėęęĚ",
      "ęĚě ĖęęĚ",
      "ęĚě ęęęĚę",
      "ĀĀę ĀĔ",
      "ęĘě ęęęě",
      "ęěĘ ĚęęĚ",
      "ęĚė Ęęęė",
      "ęĘė ęęęė",
      "ĀĀě Āĕ",
      "ĀĀě ĀĔ",
      "ęęęĖ ę",
      "ĀĀĖ ĀĞ",
      "ęğ Ğ",
      "ęėė Ęęęęę",
      "ęėė ěęęĘ",
      "ęěęęęę ė",
      "ĚĚ ęęęĚ",
      "ęē Ė",
      "ęē ė",
      "ęē ě",
      "ęē ęęĘ",
      "ĀĀĜ Āĝ",
      "ĀĀĜ ĀĞ",
      "ęěě ĚęęĚ",
      "ęĚĚęęęę Ě",
      "ęęęĚęęęę ęęĘ",
      "ĚęęęęĘ Ęęęęę",
      "ęėě ęęęě",
      "ĀĀĝ ĀĚ",
      "ęĜĘ ėęęĘ",
      "ęĚĜ ĘęęĚ",
      "ęĚĜ Ęęęě",
      "ęĘęęęęĚ ę",
      "ęĘĖ ĚęęĘ",
      "ęĘĖ ęęęė",
      "ęĘĜ ĚęęĚ",
      "ĀĀĞ ĀĚ",
      "ĀĀğ ĀĜ",
      "ĀĀğ Āĝ",
      "ĀĀĒ ĀĘ",
      "ĀĀĒ Āė",
      "ęĖĚ ĚęęĚ",
      "ĀĀē Āĕ",
      "ĚęęęęĚ ęĚęęęę",
      "ĖĚ ęęĕ",
      "ęĖęęęę ě",
      "ęęěęęęę ęęĚ",
      "ęĘęĚ ęęė",
      "ęĘęĚ ęęĘę",
      "ęĚęĘ ęęĖ",
      "Ėė ęęĕ",
      "ĀĀ$ ĀĘ",
      "ęęĘĘęęĘ ę",
      "ęĚĚĘ ęęĘ",
      "ĀĀĐ ĀĘ",
      "ĀĀď Ā",
      "! $",
      "! ĝ",
      "\" ĀĀěĀ",
      "Ā ĚĘ",
      "Ď Ě",
      "ď Ě",
      "Đ ď",
      "Đ ē",
      "Đ Ğ",
      "đ Ĕ",
      "đ ęęě",
      "ē ď",
      "Ĕ ęęęė",
      "Ĕ ěęęĘ",
      "ĕ ğ",
      "Ė $",
      "Ė Ĕ",
      "Ė ęĝ",
      "Ė ěęęĘ",
      "Ė Ęęęė",
      "ė Ĕ",
      "ė ęě",
      "Ę ě",
      "Ę ėęęĘ",
      "Ę ęęğ",
      "Ę ęęęęęęęęęęę",
      "Ě ĀĀ",
      "Ě ęęęĚę",
      "ě ęĚęęęę",
      "ě Ěęęė",
      "ě Ęęęě",
      "Ĝ ę",
      "Ĝ ęęĔ",
      "ĝ ęęĔ",
      "ĝ Ęęęě",
      "Ğ ęęě",
      "Ğ ęęĖ",
      "Ğ ęęĕ",
      "Ğ ęęęęĘ",
      "ğ ęęĜ",
      "Ġ Ē",
      "Ġ ęęė",
      "Ġ Āě",
      "Ġ Āĝ",
      "ęęęę ęęě",
      "ęęęę ęęĘę",
      "ęĚ ęęĕ",
      "ęĚ ęęęęęęęęęęęęę",
      "ęĚ ęęęęęęęęęęęĚ",
      "ęĘ ęĜ",
      "ęĘ ėęęĘ",
      "ęĘ Ėęęęę",
      "ęĘ ęĜęęęę",
      "ęĘ ęėęęĘ",
      "ęęĘ ęęĘ",
      "ęęĘ ěęęęę",
      "ęęĘ ėęęĚ",
      "ęęĚ ěęęĘ",
      "ĀĀ .",
      "ęě ęĘęęęęĘ",
      "ęě ĚĘęęĘ",
      "ęė ęĚęęě",
      "ęęęęęęęę ęęĘ",
      "ęęęęęęęę ęęĚę",
      "ęęęęęęęę ęęęĘęęęę",
      "ęęė ęęęĚ",
      "ęęě ėęęĚ",
      "ęęęĘ ęęęęĘĘ",
      "ęĜ ěęęęę",
      "ęĖ ęęĘę",
      "ęęĜ ĚęęĚ",
      "ęęĜ ėęęĚ",
      "ęĚęęęę ęęęĘ",
      "ęĘęęęę ęęė",
      "ęĘęęęę ĚęęĚ",
      "ęĘęęęę ęęęĚęęęę",
      "ęĝ ęęęęĚ",
      "ęĝ ęĚęęĚ",
      "ęĕ ęęě",
      "ĚĘ ęęĝ",
      "ęĚĘ ėęęě",
      "ęĚĘ ĘęęęęĘ",
      "ęĚĘ ĜęęĘ",
      "ęĘĘ ęęęě",
      "ėęęęę ęęĚ",
      "ėęęęę ĚĘ",
      "ėęęęę ėĚ",
      "ęęĝ ęě",
      "ęĘĚ ěęęĘ",
      "ęĘĚ ěęęě",
      "ęĘĚ ĜęęĚ",
      "ęĘĚ ĚęęĚę",
      "ęĚĚ ěęęĚ",
      "ęĚĚ Ěęęě",
      "ęęę Ď",
      "ęęę ď",
      "ęęęě ęęě",
      "ęĔ ğ",
      "ęĔ ęęęę",
      "Āě ě",
      "ęĚě Ěęęęę",
      "ęĚě ęęęĜ",
      "ęĚě ėęęě",
      "ęĘě Ěęęęę",
      "ęěĘ ęęęė",
      "ęěĘ Ęęęě",
      "ęěĘ ęęęĖ",
      "ęěĘ ėęęė",
      "ęěĘ ĖęęĘ",
      "ęĚė ėęęė",
      "ęĘė Ěęęęę",
      "ęĘė Ęęęė",
      "ĀĀĚ Āē",
      "ĀĀė ĀĔ",
      "ęęĚę ē",
      "ęėĚ ęęęĘ",
      "ęėĚ ěęęě",
      "ĀĀě Āğ",
      "ĀĀĖ Āğ",
      "ęėė Ęęęė",
      "ęėė ěęęė",
      "ęěęęęę ęęĚ",
      "ĚĚ ęęĜ",
      "ęē ĝ",
      "ěęęė ę",
      "ĀĀĜ ĀĔ",
      "ęěė ęęęė",
      "ęěė ęęęĖ",
      "ęěě Ęęęęę",
      "ęěě ęęęě",
      "ęęĘęĚ ęĘęęęę",
      "ęėě Ěęęě",
      "ěęęě ę",
      "ĀĀĔ ĀĔ",
      "ęĜĘ ęęęĘ",
      "ęĚĜ ĖęęĚ",
      "ęĖĘ ęęęĘ",
      "ěĘ ęęęĘ",
      "ěĘ ęęĜ",
      "ěĘ ęęĞ",
      "ęĚĖ Ęęęė",
      "ĘęęęęĚ Ěęęęę",
      "ęĘĜ Ęęęě",
      "ęĒ Ę",
      "ęęęĕ ęęĚ",
      "ęĜĚ ęęęĘ",
      "ĀĀğ ĀĔ",
      "ęĜė ęęęĘ",
      "ĀĀĒ ĀĖ",
      "ĀĀĒ Āĕ",
      "ęĖĚ ęęęĚ",
      "ĀĀē ĀĖ",
      "ęėĖ ęęęĘ",
      "ęėĖ ěęęĘ",
      "ęĜĜ ėęęĚ",
      "ęęęęĘĚ Ěęęęę",
      "ęĖě ęęęĜ",
      "ęđ ė",
      "ĖĘ ęęĕ",
      "ĕĘ ęęĕ",
      "ę\" Ę",
      "ĀĀ$ Āė",
      "ęęĚĘęęĚ ę",
      "ęĘęĘ ęęė",
      "ęĚĘĘęęĘ ę",
      "ĀĀĎ Āě",
      "ęėęęęęĚ ę",
      "ęĚęęęęęęĚ Ę",
      "ęęęęęęęęęęęęęęęęęęęęęęęę ęę",
      "\" Ę",
      "$ ĀĀ",
      "% Ę",
      "ď ĕ",
      "Đ Ē",
      "Đ ğ",
      "đ Đ",
      "đ ě",
      "Ē !",
      "Ē ę",
      "Ē ĝ",
      "ē ē",
      "Ĕ ĘęęĘ",
      "Ĕ ęęęęĘ",
      "Ĕ ęęĞ",
      "ĕ Ĕ",
      "ĕ ęęĚę",
      "ĕ ęęĘę",
      "Ė ę",
      "Ė ęęęė",
      "Ė ėęęĘ",
      "Ė ĖęęĘ",
      "Ė ĕęęęę",
      "ė \"",
      "ė ėęęĘ",
      "Ę ęę!",
      "ę ĀĀĘĀ",
      "Ě ęę",
      "Ě ęĚ",
      "Ě ęęęęęęęęęęę",
      "Ě ęę!",
      "ě \"",
      "ě ęęğ",
      "ě ėęęě",
      "ě Ĝęęě",
      "Ĝ Đ",
      "Ĝ Ęęęęę",
      "Ĝ ĘęęĚ",
      "Ĝ ėęęĚ",
      "Ĝ ěęęĚ",
      "Ĝ ęęĚę",
      "Ĝ ęęęęĘĘ",
      "ĝ ď",
      "ĝ ęĚ",
      "ĝ Ęęęęę",
      "ĝ ęęęęĚ",
      "ĝ ĘęęĚ",
      "ĝ ęęē",
      "ĝ ęęĘęĚ",
      "Ğ ĀĀ",
      "Ğ ęęĞ",
      "Ğ Ěęęě",
      "ğ Đ",
      "Ġ \"",
      "Ġ Ĕ",
      "Ġ ęęĖ",
      "Ġ ěęęě",
      "Ġ ĀĀęĀ",
      "Ġ ĀĀĘĀ",
      "ęę &",
      "ęęęę Ĝ",
      "ęĚ ęĔ",
      "ęĚ ęęęęęęęęęęęęęęęę",
      "ęĚ Ėęęęę",
      "ęĚ ęęĘęĚ",
      "ęĚ Ĝęęęę",
      "ęĚ ęęęĚę",
      "ęĚ ęĖęęęę",
      "ęĚ ęěęęĚ",
      "ęĘ ęė",
      "ęĘ ęē",
      "ęĘ ęĘęęęęĚ",
      "ęĘ ęęęęęęęęęęęęę",
      "ęĘ ęęęęęęęęęęęęęęęęęęęę",
      "ęĘ ęěęęęęĚ",
      "ęĘ ęęęęęęęęęęęĚ",
      "ęĘ ęĜęęĘ",
      "ęęĘ ęęė",
      "ęęĘ ĖęęĘ",
      "ęęĚ ėęęęę",
      "ęęĚ ĜęęĚ",
      "ęě đ",
      "ęě ęęĜ",
      "ęě ĘęęĚ",
      "ęė Ē",
      "ęė ęĜ",
      "ęė ęėęęęę",
      "ęė Ĝęęęę",
      "ęė ęĚęęė",
      "ęė ęĜęęĚ",
      "ęęė ěęęęę",
      "ęęė Ęęęė",
      "ęęė ęęęĘę",
      "ęęě ĚęęĘ",
      "Ęęęęę ėĘ",
      "ęęęĚ ęęĘę",
      "Ěęęęę ęęęĘ",
      "ęĜ ęĚęęęę",
      "ęĜ ęĘęęęę",
      "ęĜ ėęęęę",
      "ęĜ ęėęęĘ",
      "ęĜ ĚĘęęĘ",
      "ęĖ ęė",
      "ęĖ ęęĖ",
      "ęĖ ęĚęęęę",
      "ęĖ ęĚęęĘ",
      "ęęĖ Ěęęė",
      "ęęĜ ĘęęĚ",
      "ęęĜ ěęęĚ",
      "ęęĜ ėęęě",
      "ęĚęęęę Ė",
      "ęĚęęęę ęĘęęęę",
      "ęĚęęęę ĚęęĚ",
      "ęĘęęęę ęęĚĘęęęę",
      "ęĝ !",
      "ęĝ ē",
      "ęĕ ęęĖ",
      "ĚĘ ęęĕ",
      "ęĚĘ ęęęě",
      "ęĚĘ ęęĚę",
      "ęĚĘ Ęęęě",
      "ęĚĘ Ėęęě",
      "ęĘĘ Ěęęě",
      "ęĘĘ ĖęęĘ",
      "ęĘĘ ęęęĚę",
      "ęĘĘ ĘęęęęĚ",
      "ęĘĘ ěęęęęĚ",
      "ėęęęę ě",
      "ėęęęę ęęĘ",
      "ęęĝ ęĕ",
      "ęĘĚ ęęęĜ",
      "ęĘĚ ęęęěę",
      "ęĚĚ ęęęęęęęęęęęę",
      "ęĚĚ Ėęęęę",
      "ęĚĚ ĘęęęęĘ",
      "ęĚĚ Ėęęě",
      "ęĚĚ ĕęęĚ",
      "ęęęęĚ ęĚęęęę",
      "ęęęęĚ ęĘęęęę",
      "ĘęęĚ ęĖ",
      "ěęęęę ėĘ",
      "ęęĔ ę",
      "ęęĞ ęě",
      "ęĔ ęęĚ",
      "Āě ğ",
      "ęĚě Ěęęě",
      "ĀĀę ĀĞ",
      "ęěĘ ĘęęĚ",
      "ęěĘ Ęęęė",
      "ęěĘ Ėęęęę",
      "Ęęęė ęĜĘ",
      "ęĚė ĜęęĘ",
      "ęĘė Ęęęęę",
      "ęĘė ėęęė",
      "ęĘė Ĝęęė",
      "ęěĚ ęęęě",
      "ęěĚ ĖęęĚ",
      "ęėĘ ěęęĘ",
      "ĀĜ Ě",
      "ĀĜ Ĝ",
      "ęėĚ Ęęęęę",
      "ęėĚ ĚęęĘ",
      "ęėĚ Ěęęě",
      "ęėĚ ėęęě",
      "ęėĚ ĜęęĚ",
      "ĀĀĖ Āě",
      "ĀĀĖ Āē",
      "ęğ ğ",
      "ęęęĘęęęę ęęĘęęęę",
      "ęėė Ěęęė",
      "ęęĚęęęĚ ęęĘ",
      "ęęĚęęęĚ ęęĚ",
      "ęěęęęę ęęĘ",
      "ęěęęęę ęęě",
      "ęěęęęę ęęĘęęęę",
      "ĚĚ ęęĞ",
      "ęěě ĘęęĚ",
      "ęěě ėęęě",
      "ęęĒ ęĜ",
      "ęęęĚęęęę ęę",
      "Ĝęęęę ė",
      "ęėě Ěęęęę",
      "ĀĀĕ ĀĞ",
      "ĀĀĔ Āĝ",
      "ĀĀĝ Āě",
      "ĀĀĝ ĀĔ",
      "ĘęęęęĘ ęĘęęęę",
      "ęĜĘ ęęęė",
      "ęĚĜ ęęęě",
      "ęĖĘ Ěęęęę",
      "ęĖĘ ĚęęĚ",
      "ęĖĘ ĘęęĘ",
      "ěĘ Ęęęęę",
      "ĘęęęęĚ ė",
      "ĘęęęęĚ ęĘęęęę",
      "ęĘĜ Ěęęě",
      "ėĚ ęęęĚ",
      "ėĚ ęęĕ",
      "ęěĜ ĘęęĚ",
      "ęěĜ ėęęĚ",
      "ęěĜ Ęęęě",
      "ęěĜ ėęęě",
      "ęĜĚ ęęęĚ",
      "ęĜĚ ĚęęĚ",
      "ęęęęĘĘ Ęęęęę",
      "ĀĀğ ĀĖ",
      "ĀĀğ ĀĞ",
      "ęĜė ĚęęĘ",
      "ęĜė ęęęė",
      "ĀĀĒ ĀĞ",
      "ĀĀē ĀĞ",
      "ęėĖ ęęęė",
      "ĕęęĚ ęĔ",
      "ĚęęęęĚ ęĘęęęę",
      "ėě ĚęęĚ",
      "ĀĀđ ĀĘ",
      "ĀĀđ Āğ",
      "ę! Ě",
      "ęĚęĘ ęęĚę",
      "ěĝ ęęě",
      "ĀĀ! Āė",
      "ĕĚ ęęĔ",
      "ęęĘĘęęęę ę",
      "ęĕĚ ĚęęĚ",
      "ęĕĚ ėęęĚ",
      "ęĚĚĘ ęęě",
      "ęęęęĚĚ Ěęęęę",
      "ęĘĘęęęĘ ęęęęęęęę",
      "ěĞ ęęęę",
      "ĠĘ ęęğ",
      "ĠĚ ęęĞ",
      "ęĘęě ęęě",
      "! Ė",
      "! ĀĀėĀ",
      "# ė",
      "# ě",
      "# ğ",
      "$ Ę",
      "$ ě",
      "$ ĝ",
      "% ĕ",
      "& #",
      "Ā #",
      "Ď ĕ",
      "ď ē",
      "Đ đ",
      "đ ęęĖ",
      "ē $",
      "Ĕ ěĜ",
      "ĕ ĘęęĘ",
      "ĕ ęęĞ",
      "ĕ Ěęęė",
      "ĕ ęęęĖ",
      "Ė ē",
      "Ė ğ",
      "Ė ęę",
      "Ė ěęęęę",
      "Ė ęęĚę",
      "Ė ėęęė",
      "Ė ęę!",
      "ė ĘęęĚ",
      "ė ėęęĚ",
      "ė Ęęęė",
      "ė ĖęęĘ",
      "Ę \"",
      "Ę ęę",
      "Ę ęęęĘ",
      "Ę ęęęęęęęęęęęę",
      "Ę ĘęęęęĚ",
      "ę ĀĀęĀ",
      "Ě ğ",
      "Ě ęęęě",
      "Ě ěęęĚ",
      "Ě ęęē",
      "Ě ęęęęęęęęęęęęęęęęęę",
      "ě ğ",
      "ě ęĘęęęę",
      "ě ĚęęĘ",
      "ě ĘęęĘ",
      "ě ĜęęĚ",
      "Ĝ Ď",
      "Ĝ Ĕ",
      "Ĝ ěęęęę",
      "Ĝ ęęē",
      "Ĝ ėęęě",
      "Ĝ ĔęęĚ",
      "ĝ ęęęĚ",
      "ĝ ęęęě",
      "ĝ Ěęęě",
      "ĝ ęęĚę",
      "ĝ ĜęęĚ",
      "ğ &",
      "ğ ęęĕ",
      "Ġ $",
      "Ġ ď",
      "Ġ ē",
      "Ġ ęęĝ",
      "Ġ ęęĔ",
      "Ġ ĀĘ",
      "Ġ ėęęě",
      "Ġ ęęĘęĚ",
      "Ġ ęĘĜ",
      "ęęęę ęęĖ",
      "ęĚ ėęęĚ",
      "ęĚ ęěęęęę",
      "ęĚ ęęęęęęęęęęę",
      "ęĚ ęėęęě",
      "ęĘ Đ",
      "ęĘ ęėęęě",
      "ęĘ ĚĘęęĚę",
      "ęĘ ĚĘęęĜ",
      "ęĘ ęĜęęĚ",
      "ęĘ ęėęęė",
      "ęĘ ęĝęęĘ",
      "ęęĘ Ėęęęę",
      "ęęĘ ěęęė",
      "ęęĘ ęęęĚę",
      "ęęĘ Ėęęě",
      "ęęĘ ĚęęęęĚ",
      "ęęĘ ĚęęĘę",
      "ęęĚ Ěęęė",
      "ęęĚ ęęęĜ",
      "ęęĚ ĚęęęęĘ",
      "ęęĚ Ĝęęęę",
      "ĀĀ ă",
      "ĀĀ Ą",
      "ęě ęĘ",
      "ęě ęė",
      "ęě ęęĘęĚ",
      "ęě Ĝęęęę",
      "ęě ęĚęęĚ",
      "ęě ęĘęęęęĚ",
      "ęě ęęęęĘĘ",
      "ęě ęĘęęė",
      "ęě ęĖęęĚ",
      "ęė ęĚ",
      "ęė ęė",
      "ęė ęĘęęęęĚ",
      "ęė ęĖęęęę",
      "ęęęęęęęę ęęęė",
      "ęęęęęęęę ęęĚęęęę",
      "ęęęęęęęę ĚęęęęĘ",
      "ęęęęęęęę ęęęęĘĚ",
      "ęęęęęęęę ĘĘ",
      "ęęęęęęęę Ęęęęęęę",
      "ęęė ęĝ",
      "ęęė ĖęęĘ",
      "ęęė ĚęęĖ",
      "ęęė Ĝęęė",
      "ęęě ęęęĚę",
      "Ęęęęę ęė",
      "Ęęęęę ęęĘęęęę",
      "Ęęęęę ĚĚ",
      "ęęęĚ Ěęęęę",
      "ęęęĚ ęęĘęęęę",
      "ęęęĚ ęęĚę",
      "Ěęęęę ęĚĚęęęę",
      "Ěęęęę ėĘ",
      "ęęęĘ ęęĜ",
      "ęĜ Ĝęęęę",
      "ęĜ ęĚęęĚ",
      "ęĜ ĚĘęęė",
      "ęĖ Đ",
      "ęĖ Ē",
      "ęĖ ęęĜ",
      "ęęĖ ėęęė",
      "ęęĜ ęęĘ",
      "ęĚęęęę ęęě",
      "ęĚęęęę ĚęęĘ",
      "ęĚęęęę ėęęęę",
      "ęĚęęęę ęęĘęęęę",
      "ęĘęęęę ęęĚĚęęęę",
      "ęĝ Ē",
      "ęĝ ęęęęĘ",
      "ęĕ Ęęęęę",
      "ęĕ ęĘęęĚ",
      "ĚĘ ęę",
      "ĚĘ ęęĘę",
      "ĚĘ ĚęęĘę",
      "ĚęęĚ ęĘĚ",
      "ĚęęĚ ęĘě",
      "ęĚĘ Ę",
      "ęĚĘ ėęęĚ",
      "ęĚĘ ěęęė",
      "ęĚĘ ĕęęĘ",
      "ęĚĘ ęęęĘęęĚ",
      "ęĚĘ ĚęęĘę",
      "ĚęęĘ ęęęęęęęę",
      "ĚęęĘ ęĜ",
      "ĘęęĘ ęěě",
      "ęęĕ ęęě",
      "ęęęęĘ ę",
      "ęĘĘ ęęęęęęęęęęęę",
      "ęĘĘ ėęęě",
      "ęĘĘ ĚęęĖ",
      "ęęęė ęęęęĘ",
      "ęęęė ęėĜ",
      "ėęęęę Ğ",
      "ėęęęę ėě",
      "ęęĝ ęęęě",
      "ęĘĚ ęęęęęęęęęęęę",
      "ęĘĚ ĘęęęęĚ",
      "ęĚĚ ěęęĘ",
      "ęĚĚ ėęęĘ",
      "ęĚĚ ĖęęĚ",
      "ęĚĚ ěęęě",
      "ęĚĚ ĜęęĚ",
      "ęĚĚ ĚęęĜ",
      "ęĚĚ ĚęęĚę",
      "ęęęě ęęĖ",
      "ęęęě ęęęęĚ",
      "ęęęęĚ ę",
      "ěęęęę Ĝ",
      "ęęĚęęęę ęęĘęęęę",
      "ęęĚęęęę ęĘęęęęęę",
      "ęęĞ ęĜ",
      "ęęĞ ęĕ",
      "ęĔ ęęě",
      "ęĔ Ęęęęę",
      "ęęĘęęęę ęęė",
      "ęĚě ėęęĘ",
      "ęĚě ěęęĚ",
      "ęĚě Ėęęęę",
      "ĀĚ Ğ",
      "ĀĀę Āğ",
      "ĀĀĘ Āğ",
      "ęĘě ęęęĜ",
      "ęĘě ĖęęĚ",
      "ęĘě ĖęęĜ",
      "ęěĘ ěęęĘ",
      "ęěĘ Ěęęė",
      "ęěĘ ęęęĘę",
      "ęěĘ ĘęęĖ",
      "Ęęęė ęē",
      "ęĚė ęęęĘę",
      "ęĚė ĚęęĖ",
      "ęĘė ęęęĘę",
      "ęęē ęě",
      "ęęē ęěĘ",
      "ęęē ęĜĚ",
      "ĀĀė Āē",
      "ĀĀė ĀĚĚ",
      "ęěĚ ěęęęę",
      "ęěĚ ėęęě",
      "ęěĚ ęęęĚę",
      "ęėĘ ęęęė",
      "ęėĘ ěęęęę",
      "ęėĘ ėęęė",
      "ęėĘ ĜęęĘ",
      "ĀĜ Ğ",
      "ęęĘę ğ",
      "ęęğ ęě",
      "ęėĚ Ěęęęę",
      "ęėĚ ėęęęę",
      "ęėĚ ěęęęę",
      "ęėĚ ěęęĚ",
      "Ęęęě ę",
      "ęęęĜ ę",
      "ęęęęęęęęęęęęęęęę ęęęęęęęęęęę",
      "ęęęęęęęęęęęęęęęę ęęęęęęęęęęęęę",
      "ĀĀĖ ĀĔ",
      "ĀĀĖ ĀěĘ",
      "ęğ Ė",
      "ęğ ě",
      "ęėė ĚęęĘ",
      "ęěęęęę ě",
      "ęěęęęę ęęė",
      "ęėęęęę ęę",
      "ęėęęęę ęęĘ",
      "ĚĚ ęęğ",
      "ĀĀĜ Āĕ",
      "ęěė Ěęęė",
      "ęěė ėęęė",
      "ęěě Ěęęęę",
      "ęěě ęęęĘ",
      "ęěě ĘęęĜ",
      "ęęĘęĚ Ěęęęę",
      "ęęęĚęęęę ę",
      "ĚęęęęĘ ě",
      "ęėě ěęęęę",
      "ĀĀĕ Āě",
      "ĀĀĕ Āė",
      "ĀĀĕ Āğ",
      "ęĘĘęęęę ęĚĚęęęę",
      "ĀĀĔ ĀĖ",
      "ĀĀĝ Āĝ",
      "ĀĀĝ Āē",
      "ěĚ Ęęęęę",
      "ěĚ ęęĝ",
      "ęĜĘ ęęęĚ",
      "ęĜĘ ėęęęę",
      "ęĜĘ ĘęęĚ",
      "ęĚĜ ėęęě",
      "ĜęęĘ ęėě",
      "ěĘ ĘęęĘ",
      "ěĘ ęęĝ",
      "ęĘĚęęęę Ě",
      "ęĚĖ ęęęė",
      "ęĚĖ ęęęĖ",
      "ęĘĖ Ęęęė",
      "ęĘĖ ěęęė",
      "ęĚęęęęĘ ęĚęęęęĘ",
      "Ėęęě ęĖė",
      "ėĚ Ěęęęę",
      "ęěĜ ęęęě",
      "ęęęĕ ęęęę",
      "ęęęĕ ęęĘ",
      "ĀĀĞ Āē",
      "ęĜĚ ėęęĘ",
      "ęęęęĘĘ ĚęęĘ",
      "ĀĀğ Āė",
      "ęĜė ėęęĘ",
      "ěě ě",
      "ěě ęęĝ",
      "ĕęęęę ęĜ",
      "ĀĀĒ Āĝ",
      "ęĖĚ ěęęęę",
      "ĀĀē Āė",
      "ĀĀē Āĝ",
      "ėĘ ĘęęĘ",
      "Ėęęė ęęė",
      "ęęęĝ ę",
      "ęėĖ ĚęęĘ",
      "ęĖė ęęęė",
      "ęĖĖ ęęęė",
      "ęĜĜ ęęęĜ",
      "ęĜĜ ĖęęĚ",
      "ĀĀđ ĀĚ",
      "ĀĀđ Āė",
      "ĀĀđ Āĝ",
      "ęęęęĘĚ ĚęęĚ",
      "ęęęęĘĚ ěęęĚ",
      "ęęěęęęę ęęĘ",
      "ęĘęĚ ęęęęęęęęęęę",
      "ęę\" ęĖ",
      "ĀĀěĀ đ",
      "ęĚęĘ ęęĘę",
      "ęĚęĘ ęęęęęęęęęęę",
      "ĀĀ! ĀĚ",
      "ĀĀ! Āĝ",
      "ęěĖ ęęęĖ",
      "ęĖě ĘęęĚ",
      "ęĖě ěęęĚ",
      "Ĝě ęęĝ",
      "ęĘĕ ęęęĘ",
      "ęĘĕ Ęęęė",
      "ęĜĖ Ěęęė",
      "ęĜęęęę ě",
      "ęĕĚ ęęęĚ",
      "ęđ ĕ",
      "Ėě ęęĕ",
      "ę\" Ě",
      "ĀĀ$ Āĝ",
      "ęĚĝ ęęęě",
      "ĀĀ\" Āě",
      "ęĚĚĘ ęęĖ",
      "ęęęęęęĚ ęęĚ",
      "ęĚęĚ ęęě",
      "ęĕė ĘęęĘ",
      "ĀĀĐ ĀĖ",
      "ĀĀĐ Āĝ",
      "ęĚĚęęęĚ ęęęęęęęę",
      "ęęęęęęęęęĘ ęęęĘę",
      "ęĝė ĘęęĘ",
      "ęĚĞ ęęęĜ",
      "ęĘęĘ ęęĖ",
      "ĀĀĎ ĀĚ",
      "ĀĀď Āė",
      "ĀĀď Āĕ",
      "ęĘėęęęę ę",
      "ĝĞ ęęĚ",
      "ĔĖ ęęĔ",
      "ğĚ ęęĞ",
      "ęĕęęęę ě",
      "ĀĀĘĀĘ Ė",
      "ęĘęęęęęęĘ Ę",
      "ğĘ ęęĞ",
      "ğĘ ęęğ",
      "ĚęęęęęęĘ Ę",
      "ĀĀĚĀĘ Ě",
      "ęĚĔ ęęęė",
      "ęęęęęęęęęĚ ę",
      "ęĘĘěęęĘ ę",
      "ėęęęęĚĚ ėęęĚ",
      "ĀĀ+ Ā",
      "ĀĀ- Ā",
      "ĀĀ, Ā",
      "! ĀĀęĀ",
      "# #",
      "# Ě",
      "$ ĕ",
      "$ ğ",
      "% !",
      "% #",
      "% Ĝ",
      "% ĝ",
      "% ĀĀęĀ",
      "& Ě",
      "& ě",
      "' Ę",
      "' ĝ",
      "Ď ęęĘ",
      "ď Ĝ",
      "ď ęęĕ",
      "ď ęęĝ",
      "Đ Ď",
      "Đ ĝ",
      "Đ ęęĚ",
      "Đ ęęĝ",
      "đ ĝ",
      "đ ęęęę",
      "đ ęęęĘ",
      "đ ęęĝ",
      "đ ęęĔ",
      "đ ęęĞ",
      "đ Ęęęė",
      "đ ęęĒ",
      "Ē ď",
      "Ē ęęĒ",
      "ē !",
      "ē ĘęęĘ",
      "ē ęęęė",
      "ē ęęğ",
      "ē ęęęĖ",
      "Ĕ ĀĀ",
      "Ĕ ĚęęĘ",
      "Ĕ Ěęęė",
      "Ĕ ĕęęĕ",
      "ĕ \"",
      "ĕ ę",
      "ĕ ĀĀ",
      "ĕ Ěęęęę",
      "ĕ ęęĘęĚ",
      "ĕ ěĚ",
      "ĕ ęęęęĘĘ",
      "ĕ ęęđ",
      "ĕ ĜĞ",
      "ĕ ĒĘ",
      "Ė #",
      "Ė ęě",
      "Ė Ěęęė",
      "Ė ęęęĖ",
      "Ė ęěęęęę",
      "Ė Ĝęęė",
      "Ė ĀĀęĀ",
      "Ė ĞĞ",
      "ė đ",
      "ė ę",
      "ė ęęęęęęęę",
      "ė ęĜ",
      "ė ęęęĖ",
      "ė Ĝęęė",
      "ė ęę\"",
      "ė Ěęęęęę",
      "ė ęęęęęęęęęęęĘ",
      "Ę ė",
      "Ę ę",
      "Ę ęĘęęęę",
      "Ę ĘęęĘ",
      "Ě Ĕ",
      "Ě ĖęęĚ",
      "Ě ęęĒ",
      "Ě ĖĚ",
      "Ě ĕĚ",
      "Ě ęęęęęęęęęęęĘ",
      "ě ęĚ",
      "ě ĖęęĚ",
      "ě ęęđ",
      "ě ĘęęĚę",
      "Ĝ ęę",
      "Ĝ ĀĀ",
      "Ĝ ęĘęęęę",
      "Ĝ ėĘ",
      "Ĝ ęęęęĚĚ",
      "ĝ ę",
      "ĝ ĀĀ",
      "ĝ ĚęęĚ",
      "ĝ ęęĞ",
      "ĝ ěęęĚ",
      "ĝ ęęĘę",
      "ĝ ĖęęĘ",
      "ĝ ĖęęĜ",
      "ĝ ĀĀ!",
      "ĝ ĜęęĖ",
      "Ğ ĘęęĚ",
      "Ğ ěęęęę",
      "Ğ ğęęě",
      "ğ ěĕ",
      "Ġ Đ",
      "Ġ ęė",
      "Ġ ęęęęĘ",
      "Ġ ęęĞ",
      "Ġ Ěęęě",
      "Ġ ęę!",
      "Ġ ĀĀĚĀ",
      "Ġ ĀĀĜĀ",
      "Ġ ĕęęĜ",
      "Ġ ĔĚ",
      "Ġ ĀĀ\"Ā",
      "ęĚ Ē",
      "ęĚ ęęęĘ",
      "ęĚ ęęęě",
      "ęĚ ęęĔ",
      "ęĚ ęęęęęęęęęęęęęęęęęęęę",
      "ęĚ ęĖęęĚ",
      "ęĘ !",
      "ęĘ \"",
      "ęĘ ęęĜ",
      "ęĘ ęĕ",
      "ęĘ ęęğ",
      "ęĘ ęęęęęęęęęęęęęęęę",
      "ęĘ ęĖęęęę",
      "ęĘ ĚęęĘę",
      "ęĘ ĚęęĚę",
      "ęęĘ ęęęęĘ",
      "ęęĘ ĚęęęęĘ",
      "ęęĘ ĘęęęęĚ",
      "ęęĘ ėęęĖ",
      "ęęĚ ėęęĘ",
      "ęęĚ ěęęě",
      "ęęĚ ĘęęęęĘ",
      "ęęĚ ĘęęĜ",
      "ęęĚ ĚęęęęĚ",
      "ęęĚ ĔęęĚ",
      "ĀĀ /",
      "ĀĀ Ć",
      "ęě Đ",
      "ęě ęęĝ",
      "ęě ęęęě",
      "ęě Ėęęęę",
      "ęě ęĖęęęę",
      "ęě ęęęęĚĚ",
      "ęě Ěęęęęę",
      "ęě ęěęęĚ",
      "ęě ęėęęė",
      "ęě ęĖęęě",
      "ęė Đ",
      "ęė ęĖ",
      "ęė ęĕ",
      "ęė ěęęĘ",
      "ęė ėęęĘ",
      "ęė ęęĚę",
      "ęė Ėęęęę",
      "ęė ęěęęęę",
      "ęė ęē",
      "ęė ęĘęęęęĘ",
      "ęė ęĚęęęęĘ",
      "ęė ĕęęęę",
      "ęė ęĜęęęę",
      "ęė ęėęęĘ",
      "ęė ĘęęĘę",
      "ęė ęĜęęĘ",
      "ęė ęěęęė",
      "ęęęęęęęę ęęĘęęęę",
      "ęęęęęęęę ĘęęęęĘ",
      "ęęė ęęęęĘ",
      "ęęė ęęęĕ",
      "ęęė ęęęĔ",
      "ęęė ĚęęĔ",
      "ęęě ĘęęĘ",
      "ęęě ěęęęę",
      "ęęě ęęĘę",
      "ęęě Ėęęęę",
      "ęęě Ėęęě",
      "ęęě ĘęęĜ",
      "ęęě ęęęĘęęĚ",
      "Ęęęęę ĝ",
      "Ęęęęę ęęě",
      "Ęęęęę ěĘ",
      "Ęęęęę ėĚ",
      "Ęęęęę ěĜ",
      "Ęęęęę ęĘęęęęę",
      "ęęęĚ ęĚĚ",
      "ęęęĚ ęęĘęĚ",
      "ęęęĚ ęęęęęęęęęęę",
      "ęęęĚ ęęęęĚĚ",
      "ęęęĚ ęĚĘęęęĘ",
      "Ěęęęę Ĕ",
      "ęęęĘ ęĘė",
      "ęęęĘ ęęęęęęęęęęę",
      "ęĜ Ē",
      "ęĜ ĚęęĚ",
      "ęĜ ęėęęęę",
      "ęĜ ęĘęęė",
      "ęĜ ęėęęė",
      "ęĜ ęĖęęė",
      "ęĖ đ",
      "ęĖ ęėęęęę",
      "ęĖ ĚĘęęĚ",
      "ęĖ ęĘęęĚ",
      "ęęĖ ęęĚ",
      "ęęĖ ęĖ",
      "ęęĖ ĘęęĖ",
      "ęęĖ Ėęęė",
      "ęęĜ ę",
      "ęęĜ ĘęęĜ",
      "ęęĜ ėęęĜ",
      "ęĚęęęę ęĚĚęęęę",
      "ęĚęęęę ęĚęęęęęę",
      "ęĚęęęę ęęęĘęęęęę",
      "ęĘęęęę Ěęęęę",
      "ęĝ ęęė",
      "ęĝ Ěęęęę",
      "ęĝ ęęĖ",
      "ęĝ ęęĜ",
      "ęĝ ĜĚ",
      "ęĕ Ěęęęę",
      "ęĕ ėęęęę",
      "ĚĘ ėęęęę",
      "ĚĘ ėęęĘ",
      "ĚĘ Ěęęė",
      "ĚĘ ęęęĘę",
      "ĚĘ ęęęęęęęęęęę",
      "ęĚĘ ěęęęę",
      "ęĚĘ ęęęęęęęęęęęę",
      "ęĚĘ ĚęęęęĘ",
      "ęĚĘ ęęęĚę",
      "ęęĕ ęęęĘ",
      "ęęĕ ęęęĖ",
      "ęęĕ ĚęęĖ",
      "ęĘĘ ęęęĜ",
      "ęĘĘ ęęęĖ",
      "ęĘĘ ĜęęĘ",
      "ęĘĘ ĘęęĖ",
      "ęĘĘ ęęęĘęęĚ",
      "ęĘĘ ęęęĘęęĘ",
      "ęĘĘ ĝęęė",
      "ęęęė ęĘĚ",
      "ęęęė ęęĚęęęě",
      "ėęęęę Ė",
      "ėęęęę ęęě",
      "ėęęęę ęęĚęęęę",
      "ėęęęę ėė",
      "ėęęęę ėĝ",
      "ęęĝ ęĚ",
      "ęęĝ ęĖ",
      "ęęĝ ĘęęĚ",
      "ęęĝ ęĜė",
      "ęęĝ ęĘĞ",
      "ęĘĚ ėęęĘ",
      "ęĘĚ Ěęęė",
      "ęĘĚ ėęęě",
      "ęĘĚ Ĝęęęę",
      "ęĘĚ ęęęęęęęęęęę",
      "ęĚĚ ęęě",
      "ęĚĚ ęęęĘę",
      "ęĚĚ ĘęęęęĚ",
      "ęęę \"",
      "ęęęě ęęęęęęęę",
      "ęęęě ęęė",
      "ęęęęĚ Ęęęęę",
      "ęĞ !",
      "ęĞ ęęė",
      "ěęęęę ę",
      "ěęęęę ęęĘ",
      "ěęęęę ęęęĘ",
      "ęęĚęęęę ęęĚę",
      "ęęĚęęęę ęęęĘęęęę",
      "ęęĔ ęė",
      "ęęĔ ęęęė",
      "ęęĔ ęĞ",
      "ėęęĚ ęĘĘęęęę",
      "ęĔ Ē",
      "ęĔ ē",
      "ęĔ ęęĘ",
      "ęĔ ęęė",
      "ęĔ ěĝ",
      "ęęĘęęęę ęęě",
      "ęęĘęęęę ęĘęęęęęę",
      "ęęęęęęęęęęęę ęĘ",
      "ęĚě ĘęęĘ",
      "ęĚě ėęęęę",
      "ęĚě ĚęęĜ",
      "ęĘě ěęęęę",
      "ęĘě ĜęęĚ",
      "ęĘě Ĝęęě",
      "ęĘě ěęęĜ",
      "ęěĘ Ěęęęę",
      "ęěĘ ėęęĚ",
      "ęěĘ ěęęė",
      "Ęęęė ęĒ",
      "ęĚė ęęęĚ",
      "ęĚė ėęęĚ",
      "ęĚė ěęęĘ",
      "ęĚė ęęęĖ",
      "ęĚė ěęęė",
      "ęĚė ĖęęĘ",
      "ęĚė ęęęĕ",
      "ęĚė ĕęęĘ",
      "ęĚė Ěęęĕ",
      "ěęęĚ ęĚĚ",
      "ěęęĚ ęęĚĚęęĚ",
      "ęĘė ĘęęĚ",
      "ęĘė ěęęĖ",
      "ĀĀĚ ĀĚĚ",
      "ĀĀĚ ĀěĘ",
      "ęęē ę",
      "ęęē ęęĘ",
      "ęęē ęĖ",
      "ĀĀė ĀėĘ",
      "ęěĚ ĚęęęęĘ",
      "ęěĚ ĜęęĚ",
      "ęěĚ Ėęęě",
      "ęěĚ ĕęęĚ",
      "ęėĘ ĘęęĚ",
      "ęėĘ ěęęĚ",
      "ęėĘ ĜęęĚ",
      "ęėĘ ěęęęęĘ",
      "ĀĜ ė",
      "ęėĚ ėęęĚ",
      "ęėĚ ęęęĚę",
      "ęėĚ ĚęęĚę",
      "ĀĀě ĀĞ",
      "ĀĀě ĀĚĚ",
      "ĀĀě ĀĚė",
      "ęęęĜ ęĖĘ",
      "ęęęĜ ęęĘęęęė",
      "ęęęĖ ęęĜ",
      "ęęęĖ ęĚĚ",
      "ęğ ĕ",
      "Ėęęęę ėĘ",
      "Ėęęęę ĕĘ",
      "ęėė ĘęęĘ",
      "ęėė ėęęęę",
      "ęėė ěęęęę",
      "ęėė ėęęĘ",
      "ęěęęęę ę",
      "ęěęęęę ęęěęęęę",
      "ęėęęęę ę",
      "ęėęęęę ęęĚ",
      "ęėęęęę ęęě",
      "ęėęęęę ęęĚĘ",
      "ęē Ĝ",
      "ĀĀĜ Āē",
      "ęěė ěęęĘ",
      "ęěė ěęęė",
      "ęěė ĖęęĘ",
      "ęěě ĘęęĘ",
      "ęěě ėęęęę",
      "ęěě ěęęě",
      "ėęęė ę",
      "ęęĒ ę",
      "ęĚĚęęęę ęęĚęęęę",
      "ęęęĚęęęę ęĘęęęę",
      "ĚęęęęĘ Ěęęęę",
      "ęĚĘęęęę Ě",
      "ęĚĘęęęę ęęĘęęęę",
      "ęėě Ęęęě",
      "ĖęęĘ ęĖ",
      "ĀĀĕ Āĕ",
      "ĀĀĔ Āğ",
      "ěĚ Ěęęęę",
      "ĘęęęęĘ ĚĚęęęę",
      "ęĚĜ ĚęęĚ",
      "ęĚĜ ěęęě",
      "ęĚęęĚ ęęęęęęęę",
      "ęĖĘ ěęęęę",
      "ěĘ ĖęęĘ",
      "ęĘęęęęĘ ęĚęęęę",
      "ęĚĖ ėęęĘ",
      "ĘęęęęĚ ę",
      "ĘęęęęĚ Ęęęęę",
      "ęĘĖ ĘęęĘ",
      "ęĘĖ ěęęĘ",
      "ęĘĖ ėęęĘ",
      "Ėęęě ęĜĚ",
      "ęĘĜ ęęęĚ",
      "ęĘĜ ęęęě",
      "ęĘĜ ęęęĜ",
      "ėĚ ě",
      "ėĚ ęęĖ",
      "ėĚ ęęĜ",
      "ėĚ ĚęęĚ",
      "ęěĜ ęęęĘ",
      "ęěĜ ĘęęĜ",
      "ęĜĚ Ěęęęę",
      "ęĜĚ ėęęě",
      "ęĜĚ Ėęęęę",
      "ĀĀğ ĀĚ",
      "ęĜė Ěęęė",
      "ęĚęęęęĚ ęĚęęęę",
      "ĕęęęę ě",
      "ĕęęęę ĝ",
      "ĕęęęę ěĘ",
      "ęęĘęęęĘ ęęęęęęęę",
      "ĀĀĒ ĀĚ",
      "ĀĀĒ ĀĜ",
      "ĀĀĒ Āē",
      "ęĖĚ ęęęě",
      "ęĖĚ ęęęĖ",
      "ĀĀē Āē",
      "ęęęĝ ęęęę",
      "ęėĖ Ěęęė",
      "ęėĖ ęęęĖ",
      "ęėĜ ęęęĚ",
      "ęėĜ ĚęęĚ",
      "ęėĜ ěęęĜ",
      "ęĖė ęęęĚ",
      "ęĖė ěęęĘ",
      "ęĖĖ ĚęęĘ",
      "ęĜě ęęęĚ",
      "ęĜě ĚęęĚ",
      "ęĜě ĘęęĘ",
      "ęĜě ĘęęĚ",
      "ęĜě ěęęĚ",
      "ęĜĜ ęęęĚ",
      "ĀĀđ ĀĖ",
      "ĀĀđ ĀĞ",
      "ęęęĘęęĘ ęęęęęęęę",
      "ĖĚ ė",
      "ę! Ę",
      "ęęěęęęę ęęĚęęęę",
      "ęĘęĚ ęęĖ",
      "ęĘęĚęęęę ě",
      "ęĚęĘ ęęė",
      "ęĚęĘ ęęĜ",
      "ęĚęĘ ęęĘęĚ",
      "ěĝ ęęĚ",
      "ěĝ ęęĜ",
      "ęęĘĘęęęę ęęĘęęęę",
      "ęěĖ Ěęęė",
      "ęěĖ ĘęęĖ",
      "ęĖě Ěęęě",
      "ęĖě Ęęęě",
      "ėė ęęęĘ",
      "ėė ĚęęĘ",
      "ėė ęęĝ",
      "ĜĘ ęęęĘ",
      "ĜĘ ęęĞ",
      "ęĜĖ ęęęĖ",
      "ęĜĖ ĖęęĚ",
      "ęĜęęęę ė",
      "ęđ ęęĚ",
      "ęĝĘ ėęęĚ",
      "ęĝĘ ėęęĘ",
      "ĖĘ ęęĒ",
      "ĕĘ ęęē",
      "ę\" Ė",
      "ĀĀ$ ĀĔ",
      "ęĚĝ ĚęęĚ",
      "ĀĀ\" Āĝ",
      "ĀĀ\" ĀĔ",
      "ęĕĘ ęęęĚ",
      "ęĚĚĘ ęęĚęęęĚ",
      "ęĘĝ ęęęĜ",
      "ęĚęĚ ęęĘę",
      "ęĚęĚ ęęĘęĚ",
      "ęĚęĚ ęęęęęęęęęęę",
      "ęĚĘęęęĘ ęęęęęęęę",
      "ęĕė ęęęĘ",
      "ęĕė ĚęęĘ",
      "ĀĀĐ Āě",
      "ĖęęĖ ęĘĚ",
      "ĘĘ ĝ",
      "ěė ĘęęĘ",
      "Ėĝ Ğ",
      "ěĞ ğ",
      "ĀĀĎ ĀĖ",
      "ĕě ęęĕ",
      "ĠĘ ęęĝ",
      "ĀĀď ĀĘ",
      "ęęęėęęęę ęęĘ",
      "ĀĀĔĀ ęĜ",
      "Ĕęęęę Ė",
      "ĝĚ ęęĞ",
      "ęĖĜ ęęęĚ",
      "ęĚęęęęęęĘ Ę",
      "ĕęęĕ ę",
      "ęĜĝ ęęęĚ",
      "ĀĀ% Āě",
      "ğĚ ęę",
      "ĀĀ' ĀĘ",
      "ĀĀ) ĀĘ",
      "ĀĀ) ĀĚ",
      "ęęęęęęęęęęęĘ ęĚęęęę",
      "ęĕě ěęęĚ",
      "ęĘęęęęęęĘ ęęęęęęęęęęę",
      "ēĘ ęęĔ",
      "ęĘęě ęęė",
      "ĚęęęęĘĘ Ęęęęę",
      "ĚęęęęĘĘ ęęęĘ",
      "ĔĚ ě",
      "ğĜ ęęĝ",
      "ęĝęęęę ě",
      "ęĞĖ ĘęęĖ",
      "ĀĀęĀĕ Ę",
      "ęęėęęęė ę",
      "ęėĔ ęęęė",
      "ĀĀ* Ā",
      "ęĘęęęęęęęĘ Ěęęęę",
      "ęęęęęęęęęęęęęĚ ę",
      "ęĚęęęęęęęĚęęęę ę",
      "ĀĀĚĀğ Ě",
      "ęęęęęęęęęęęĘęęęę ęę",
      "ęęęęęęęęĚęęęęĘ ę",
      "! %",
      "! ĕ",
      "! ęęĘ",
      "! Ěęęě",
      "! ęęęĜ",
      "! ĀĀĔ",
      "! ĀĀĞĀ",
      "! ĀĀęĀĘ",
      "\" %",
      "\" (",
      "\" Ē",
      "\" Ė",
      "\" ěĘ",
      "\" ĀĀĕĀ",
      "\" Ěęęĝ",
      "\" ĀĀĖĀĘ",
      "# $",
      "# ĕ",
      "# Ė",
      "# Ę",
      "# ĀĀĘĀĕ",
      "# ĀĀęĀė",
      "$ !",
      "$ '",
      "$ Ė",
      "$ ĀĀęĀ",
      "% Ē",
      "& Ę",
      "' ě",
      "' Ğ",
      "( ď",
      "Ā ęĘ",
      "Ď Ė",
      "Ď Ĝ",
      "Ď ĝ",
      "Ď Ğ",
      "Ď ęęě",
      "ď ė",
      "ď ě",
      "ď ğ",
      "ď ęęĘ",
      "ď ęęė",
      "Đ Ĕ",
      "Đ ęęĖ",
      "Đ ĜĜ",
      "Đ Ėęęĕ",
      "đ &",
      "đ ęę",
      "đ ęęęęĘ",
      "đ ęęē",
      "đ ęęęĖ",
      "Ē ęęĔ",
      "Ē ėęęĖ",
      "Ē ĖĚ",
      "Ē Ėě",
      "Ē ĝĚ",
      "ē %",
      "ē Ē",
      "ē ęę",
      "ē ęęęęĚ",
      "ē ęęĘę",
      "ē ęęĒ",
      "ē ěęęĖ",
      "ē ęęđ",
      "ē ĀĀěĀ",
      "ē ĜęęĖ",
      "Ĕ Ď",
      "Ĕ ď",
      "Ĕ ęęęęĚ",
      "Ĕ ęĞ",
      "Ĕ Ęęęė",
      "Ĕ ęęē",
      "Ĕ ĚĚ",
      "Ĕ ėęęė",
      "Ĕ ęęĒ",
      "Ĕ ĖęęĘ",
      "Ĕ ĘęęĖ",
      "Ĕ ęęđ",
      "Ĕ ěęęĜ",
      "Ĕ ęę\"",
      "Ĕ ĕĚ",
      "Ĕ ĜĜ",
      "Ĕ ęęĐ",
      "Ĕ Ěęęĕ",
      "Ĕ ĀĀĜĀ",
      "Ĕ ĝĞ",
      "ĕ Đ",
      "ĕ ęęęĘ",
      "ĕ ęęęė",
      "ĕ Ėęęė",
      "ĕ ęęęęĚĚ",
      "ĕ ęęęęęęęęęĘ",
      "ĕ Ėĝ",
      "ĕ ěĞ",
      "ĕ ęęęĔ",
      "ĕ ĝě",
      "ĕ ėęęęĘ",
      "ĕ ĀĀğĀĞ",
      "Ė !",
      "Ė ęęęĚ",
      "Ė ęĜ",
      "Ė ęĖ",
      "Ė Ėęęęę",
      "Ė ĖęęĚ",
      "Ė ěęęė",
      "Ė ęęęĘę",
      "Ė ęęĒ",
      "Ė ĘęęĖ",
      "Ė ėĚ",
      "Ė ĕęęĘ",
      "Ė ěęęĖ",
      "Ė Ĝě",
      "Ė ęęęęĚĚ",
      "Ė ĖęęĖ",
      "Ė Ėĝ",
      "Ė ĜĞ",
      "Ė ĀĀēĀ",
      "Ė !ğ",
      "Ė ęę$",
      "ė ęęęĚ",
      "ė ĚęęĚ",
      "ė ėęęęę",
      "ė ęęęě",
      "ė Ěęęė",
      "ė Ėęęęę",
      "ė ĚĘęęĚ",
      "ė ěęęė",
      "ė ęęĒ",
      "ė Ĝęęęę",
      "ė ęęęĕ",
      "ė ĚęęĘę",
      "ė ĕĘ",
      "ė ĕęęė",
      "ė Ėĝ",
      "ė ĞĞ",
      "ė ĘęęĘę",
      "ė ęę#",
      "ė ĕĞ",
      "ė ęę$",
      "ė đė",
      "Ę &",
      "Ę ĝ",
      "Ę ęĚ",
      "Ę ęĘ",
      "Ę ęĞ",
      "Ę ěęęęę",
      "Ę ėĚ",
      "Ę ęęęęęęęęęęęĚ",
      "Ę ĖĜ",
      "Ę ęę$",
      "ę '",
      "ę ĀĀėĀ",
      "ę ĀĀĐĀ",
      "ę ĀĀĞĀĘ",
      "Ě $",
      "Ě ęĕ",
      "Ě ėęęĚ",
      "Ě ĖęęĘ",
      "Ě ěęęě",
      "Ě ĕęęĚ",
      "Ě ĚęęęęĚ",
      "Ě ěĝ",
      "Ě Ĝě",
      "Ě ĜĜ",
      "Ě ęęęęęęęęęĘ",
      "Ě ĞĞ",
      "Ě ĖĜ",
      "Ě ęęęęęęęęęĚ",
      "Ě ěę",
      "ě !",
      "ě Ē",
      "ě ęĝ",
      "ě ęę!",
      "ě ęęęĝ",
      "ě ĀĀĘĀ",
      "ě ĖĚ",
      "ě ę!",
      "ě ęęęĞ",
      "ě ĕęęě",
      "ě ęęęęĚĚ",
      "ě ĖĜ",
      "ě !Ĝ",
      "Ĝ đ",
      "Ĝ ē",
      "Ĝ ęĚ",
      "Ĝ ęĘ",
      "Ĝ ęě",
      "Ĝ Ěęęě",
      "Ĝ ęęĒ",
      "Ĝ Ĝęęęę",
      "Ĝ ěęęě",
      "Ĝ ęĘęęĘ",
      "Ĝ ęĒ",
      "Ĝ ĚęęĜ",
      "Ĝ Ĝęęě",
      "Ĝ ĕĘ",
      "Ĝ ėĝ",
      "Ĝ ĕęęĜ",
      "Ĝ ĕĜ",
      "Ĝ ĕĖ",
      "Ĝ ĚęęĜę",
      "ĝ đ",
      "ĝ Ē",
      "ĝ ęę",
      "ĝ ĘęęĘ",
      "ĝ ėęęĚ",
      "ĝ ėęęě",
      "ĝ ęėęęęę",
      "ĝ ěĚ",
      "ĝ Ėęęě",
      "ĝ ĘęęĜ",
      "ĝ Ĝęęě",
      "ĝ ěęęĜ",
      "ĝ ėęęĜ",
      "ĝ ĖĘ",
      "ĝ ĜĞ",
      "ĝ ĀĀĖĀĚ",
      "Ğ Ĕ",
      "Ğ ęęęĚ",
      "Ğ ĜęęĚ",
      "Ğ ĝĝ",
      "ğ $",
      "ğ ē",
      "ğ ĕ",
      "ğ ęęĝ",
      "ğ ęęĔ",
      "ğ Ęęęě",
      "ğ ęęęĜ",
      "ğ ĀĀęĀ",
      "ğ ĀĀĘĀ",
      "ğ ěęęĜ",
      "ğ ĀĀěĀ",
      "ğ ĀĀĚĀ",
      "ğ ĝě",
      "ğ ĖĖ",
      "Ġ &",
      "Ġ ęę",
      "Ġ ęĚ",
      "Ġ ęĜ",
      "Ġ ęĝ",
      "Ġ ęĕ",
      "Ġ ĘęęĘ",
      "Ġ ęęĕ",
      "Ġ ęĘĘ",
      "Ġ ęęęęĚ",
      "Ġ ęĔ",
      "Ġ ĀĚ",
      "Ġ Ěęęė",
      "Ġ ĀĖ",
      "Ġ ĀĜ",
      "Ġ ęęğ",
      "Ġ ęęęĜ",
      "Ġ ĀĞ",
      "Ġ ęē",
      "Ġ ĀĀĜ",
      "Ġ ĀĀĔ",
      "Ġ ęěĜ",
      "Ġ ĀĀĞ",
      "Ġ Āğ",
      "Ġ ęęęĝ",
      "Ġ ěęęĜ",
      "Ġ ĜĘ",
      "Ġ ĀĀĖĀ",
      "Ġ ĝęęě",
      "Ġ ĀĀĔĀ",
      "Ġ ĀĀĞĀ",
      "Ġ ęĖĔ",
      "Ġ ęęęğ",
      "Ġ ĀĖĘ",
      "Ġ ĀĀėĀĘ",
      "Ġ ĀĀēĀ",
      "Ġ ĀĀđĀĜ",
      "ęęęę ęęĘęęęĚ",
      "ęĚ \"",
      "ęĚ Ď",
      "ęĚ ę",
      "ęĚ ęĜ",
      "ęĚ ęĖ",
      "ęĚ ĚęęĘ",
      "ęĚ ęęĞ",
      "ęĚ ĕęęęę",
      "ęĚ ĝęęęę",
      "ęĚ ęėęęęęĚ",
      "ęĚ ęęęęęęęęęęęęęęęęęę",
      "ęĚ ęęěę",
      "ęĚ ęĜęęĘ",
      "ęĚ ęĖęęĘ",
      "ęĚ ęĝęęęę",
      "ęĚ ęěęęė",
      "ęĚ ęĜęęė",
      "ęĘ #",
      "ęĘ Ď",
      "ęĘ ęĝ",
      "ęĘ ěęęĘ",
      "ęĘ ęęĘęĚ",
      "ęĘ ĚęęęęĘ",
      "ęĘ Ĝęęęę",
      "ęĘ ĜęęĘ",
      "ęĘ ę!",
      "ęĘ ęėęęęęĚ",
      "ęĘ ęęęęęęęęęęęęęęęęęęę",
      "ęĘ ęęĚęęęĚęęęę",
      "ęęĘ ęęě",
      "ęęĘ ęĖ",
      "ęęĘ ęęęęęęęęęęęę",
      "ęęĘ Ěęęě",
      "ęęĘ ęęęĖ",
      "ęęĘ ĘęęęęĘ",
      "ęęĘ ęęęęęęęęęęę",
      "ęęĘ ĘęęĖ",
      "ęęĘ ĚęęĖ",
      "ęęĘ Ĝęęė",
      "ęęĘ ĕęęĘ",
      "ęęĘ ěęęęęĚ",
      "ęęĘ ĖęęĞ",
      "ęęĘ ęęęėęęĘ",
      "ęęĚ ęęęė",
      "ęęĚ ęęĞ",
      "ęęĚ ęĔ",
      "ęęĚ ėęęě",
      "ęęĚ ęęęĘęęęę",
      "ęęĚ ĜęęĘ",
      "ęęĚ ęęęęęęęęęęę",
      "ęęĚ ęęęĝ",
      "ęęĚ ĕęęĚ",
      "ęęĚ ėęęĖ",
      "ęęĚ ĝęęĚ",
      "ęęĚ ėęęęęĚ",
      "ęęĚ ėęęĝ",
      "ęě ęęęęęęęę",
      "ęě ęĖ",
      "ęě ęęĖ",
      "ęě ĚęęĚ",
      "ęě ęęĕ",
      "ęě ėęęĚ",
      "ęě ěęęĚ",
      "ęě ęęĚę",
      "ęě ęěęęęę",
      "ęě ęęęĚę",
      "ęě ęěęęĘ",
      "ęě ĞĞ",
      "ęě ęĜęęĘ",
      "ęě ĚĘęęĚę",
      "ęě ęĘęęě",
      "ęě ęĚęęĚę",
      "ęė ęęęė",
      "ęė ęęęęęęęęęęęę",
      "ęė ęėęęĚ",
      "ęė ęęęęĚĚ",
      "ęė ęěęęęęĚ",
      "ęė Ęęęęęę",
      "ęė ęĚęęęęęęĚ",
      "ęė ęęęęęęęęęęęĘ",
      "ęė ęĘęęė",
      "ęė ĚĘęęĜ",
      "ęė ęĚęęęęě",
      "ęė ęĝęęĘ",
      "ęęęęęęęę ěęęęę",
      "ęęęęęęęę ęęĘę",
      "ęęęęęęęę ěĚ",
      "ęęęęęęęę ĘęęęęĚ",
      "ęęęęęęęę ęęęęĚĚ",
      "ęęęęęęęę ęĘęęęęę",
      "ęęęęęęęę ĚĚęęęĚ",
      "ęęė ęęě",
      "ęęė ęĚĚ",
      "ęęė ęęęęĚ",
      "ęęė ėęęė",
      "ęęė Ĝęęęę",
      "ęęė ĜęęĚ",
      "ęęė ĜęęĘ",
      "ęęė ĘęęĖ",
      "ęęė ĕęęĘ",
      "ęęė ĚęęęęĚ",
      "ęęė ĞęęĘ",
      "ęęė ēęęĘ",
      "ęęě ęęė",
      "ęęě ęęęė",
      "ęęě Ĝęęęę",
      "ęęě ėęęĜ",
      "ęęě ĖęęĜ",
      "ęęě ĝęęĚ",
      "ęęě ęęęĚęęĚ",
      "ęęě ęęĘęęęęęęęę",
      "ęęě ęęĚėęęĚ",
      "Ęęęęę ğ",
      "Ęęęęę Ęęęęę",
      "Ęęęęę ęęęě",
      "Ęęęęę ęęęĘęęęę",
      "Ęęęęę ęĚĖ",
      "Ęęęęę ĖĚ",
      "Ęęęęę ęęĚęęęęęę",
      "ęęęĚ ęęĖ",
      "ęęęĚ ęęęęĘĘ",
      "ęęęĚ ęĚęęęęĚ",
      "ęęęĚ ęęĘęęęęę",
      "ęęęĚ ęęĘęęęęęęĚ",
      "Ěęęęę ęęė",
      "Ěęęęę ęęĝ",
      "Ěęęęę ęĘĘęęęę",
      "Ěęęęę ěĘ",
      "Ěęęęę ęĘęęęęęę",
      "Ěęęęę ęęĚĚęęęę",
      "ęęęĘ ęěĚ",
      "ęęęĘ ęęĘęĚ",
      "ęęęĘ ęęęęĘĚ",
      "ęęęĘ ęęĚęęęĚę",
      "ęĜ Đ",
      "ęĜ ęęĖ",
      "ęĜ ęĕ",
      "ęĜ Ęęęě",
      "ęĜ ęĚęęĘ",
      "ęĜ ęėęęĚ",
      "ęĜ Ēē",
      "ęĜ ęĚęęė",
      "ęĖ ęĘ",
      "ęĖ ěęęęę",
      "ęĖ Ěęęė",
      "ęĖ ęęē",
      "ęĖ ęĘęęĘ",
      "ęĖ ęĜęęęę",
      "ęĖ ĚĘęęĘ",
      "ęęĖ ĚęęĘ",
      "ęęĖ ėęęĘ",
      "ęęĖ Ęęęė",
      "ęęĖ ęĚė",
      "ęęĖ Ĝęęęę",
      "ęęĖ ěęęĖ",
      "ęęĖ ĖęęĘęĚ",
      "ęęĜ ęĚ",
      "ęęĜ ęęęęĚ",
      "ęęĜ ęĘė",
      "ęęĜ Ęęęě",
      "ęęĜ Ėęęě",
      "ęęĜ ĚęęĜ",
      "ęĚęęęę ęęė",
      "ęĚęęęę ęĘĘ",
      "ęĚęęęę ęĚĘęęęę",
      "ęĚęęęę ęęěęęęę",
      "ęĚęęęę ĘęęęęęęĘ",
      "ęĘęęęę Ęęęęę",
      "ęĘęęęę ęęĝ",
      "ęĘęęęę ęęĚęęęę",
      "ęĘęęęę ęęęĘęęęę",
      "ęĘęęęę ĚĚ",
      "ęĘęęęę ęĚĚęęęę",
      "ęĘęęęę ęĘĘęęęę",
      "ęĘęęęę ęĘĚęęęę",
      "ęĘęęęę ęęĚęęęęę",
      "ęĘęęęę Ěęęęęęę",
      "ęĘęęęę ĘęęęęęęĚ",
      "ęĘęęęę ęęĚęęęęęę",
      "ęĝ ęĕ",
      "ęĝ ėęęęę",
      "ęĝ ęĚęęĘ",
      "ęĝ ĜĜ",
      "ęĝ ĝě",
      "ęĝ ęĚęęė",
      "ęĝ ęĖęęĘ",
      "ęĝ ęĘęęě",
      "ęĕ ęę",
      "ęĕ ėęęĘ",
      "ęĕ Ėęęęę",
      "ęĕ ęęĘęĚ",
      "ęĕ ęěęęĚ",
      "ęĕ ĚĘęęě",
      "ĚĘ Ğ",
      "ĚĘ ĘęęĚ",
      "ĚĘ ĘęęęęĚ",
      "ĚęęĚ ęęęęęęĚ",
      "ęĚĘ ęęě",
      "ęĚĘ Ěęęě",
      "ęĚĘ ęęęĖ",
      "ęĚĘ ĖęęĚ",
      "ęĚĘ ĖęęĘ",
      "ęĚĘ ĜęęĚ",
      "ęĚĘ ěęęĖ",
      "ęĚĘ ĚęęęęĚ",
      "ęĚĘ ėęęęęĚ",
      "ęĚĘ ĝęęĘ",
      "ęĚĘ ěęęęęĚ",
      "ęĚĘ ěęęęęĘ",
      "ęĚĘ ĜęęęęĘ",
      "ęĚĘ ĖęęęęĘ",
      "ęĚĘ Ěęęėę",
      "ęĚĘ ĚęęęęĚęĚęęęę",
      "ĚęęĘ ęęĘęęęę",
      "ĚęęĘ ęĚĚęęęę",
      "ĚęęĘ ęĘĚęęęę",
      "ĘęęĘ ęĞ",
      "ęęĕ ėęęĘ",
      "ęęĕ Ěęęė",
      "ęęĕ ęĚĜ",
      "ęęĕ ěęęĖ",
      "ęęĕ ěęęĔ",
      "ęęęęĘ ė",
      "ęęęęĘ Ęęęęę",
      "ęęęęĘ ęĚęęęęĚ",
      "ęęęęĘ ęĚęęęęęęĚęęęę",
      "ęĘĘ ěęęė",
      "ęĘĘ ěęęě",
      "ęĘĘ Ĝęęė",
      "ęĘĘ ĕęęĚ",
      "ęĘĘ ėęęĜ",
      "ęĘĘ ĚęęĚę",
      "ęĘĘ ĝęęĘ",
      "ęĘĘ ĘęęĚę",
      "ęęęė ęęęęĚ",
      "ęęęė ęĝė",
      "ėęęęę ęę",
      "ėęęęę ěě",
      "ėęęęę ĝĚ",
      "ėęęęę ĚĘĘęęĘ",
      "ęęĝ ę",
      "ęęĝ ęęęĚ",
      "ęęĝ ęěĘ",
      "ęęĝ ęěě",
      "ęĘĚ ęęęė",
      "ęĘĚ Ėęęęę",
      "ęĘĚ ėęęė",
      "ęĘĚ ĚęęęęĘ",
      "ęĘĚ ĜęęĘ",
      "ęĘĚ ĕęęĘ",
      "ęĘĚ Ĝęęě",
      "ęĘĚ ěęęĜ",
      "ęĘĚ ĝęęęę",
      "ęĘĚ ĝęęĚ",
      "ęĘĚ ėęęęęĚ",
      "ęĘĚ ĝęęĘ",
      "ęĘĚ Ğęęęę",
      "ęĘĚ ĚęęęęĘĚ",
      "ęĚĚ ĜęęĘ",
      "ęĚĚ ĝęęęę",
      "ęĚĚ ęęęĚęęĚ",
      "ęĚĚ ěęęęęĘ",
      "ęĚĚ Ĕęęě",
      "ęĚĚ ĘęęęęĘĘ",
      "ęęę #",
      "ęęę ĔęęĚ",
      "ęęęě ęęĘęĚ",
      "ęęęě ęĚĚęęęę",
      "ęęęě ęĝĘ",
      "ęęęęĚ Ěęęęę",
      "ĘęęĚ ęėė",
      "ĘęęĚ ęęęęę",
      "ęĞ Ē",
      "ęĞ ęęĚ",
      "ęĞ ĚĘęęĚ",
      "ěęęęę ęę",
      "ěęęęę ęė",
      "ęęĚęęęę ęęĚęęęęę",
      "ęęĚęęęę ęęěęęęĚ",
      "ęęĔ ęęĜ",
      "ęęĞ ęĝ",
      "ęęĞ ęĚė",
      "ęęĞ ęęęĜ",
      "ęęĞ ęĒ",
      "ęęĞ ęĝĚ",
      "ėęęĚ ęĘĚĘęęĚ",
      "ęĔ đ",
      "ęĔ ęęęęĚ",
      "ęĔ Ėęęęę",
      "ęĔ ĝĞ",
      "ęęĘęęęę ęęĘę",
      "ęęĘęęęę ęęėęęęę",
      "ęęĘęęęę ęĘęĘęęęę",
      "ęęĘęęęę ęęĘęęęęęęĘ",
      "ęęęęęęęęęęęę ęĚĚęęęę",
      "ęęęęęęęęęęęę ęęęĚęęęęĚ",
      "ěęęĘ ęěě",
      "ěęęĘ ęĚęĘ",
      "Āě đ",
      "ėęęĘ ęěė",
      "ėęęĘ ęĚĜ",
      "ęĚě ęęĚ",
      "ęĚě ĚęęĘ",
      "ęĚě ěęęě",
      "ęĚě ĜęęĚ",
      "ęĚě Ėęęě",
      "ęĚě ĚęęęęĚ",
      "ęĚě ĕęęě",
      "ęĚě Ęęęĝ",
      "ęĚě ĚęęęęĘĘ",
      "ĀĀę ĀěĘ",
      "ĀĀę ĀĚĜ",
      "ĀĀę ĀėĘ",
      "ĀĀĘ ĀĚĚ",
      "ĀĀĘ ĀěĘ",
      "ĀĀĘ ĀĖĘ",
      "ĀĀĘ ĀĚĜ",
      "ĀĀĘ ĀĚė",
      "ęĘě ęęęęĚ",
      "ęĘě ęęęĚę",
      "ęĘě ėęęĜ",
      "ęěĘ ěęęęę",
      "ęěĘ ĚęęęęĚĘ",
      "ęĚė ĘęęĖ",
      "ęĚė ĘęęĘę",
      "ęĚė ĝęęĕ",
      "ěęęĚ ęĘě",
      "ěęęĚ ęĚĘęęęę",
      "ęĘė ėęęĘ",
      "ęĘė ěęęė",
      "ęĘė ĜęęĘ",
      "ęĘė ĘęęĖ",
      "ęĘė ĚęęĖ",
      "ęĘė ĚęęĘę",
      "ĀĀĚ ĀĚĜ",
      "ęęē ęęě",
      "ęęē ęęĖ",
      "ęęē ęĞ",
      "ĀĀė ĀěĘ",
      "ęěĚ Ěęęė",
      "ęěĚ ĕęęęę",
      "ęěĚ ĚęęęęĚ",
      "ęěĚ ėęęęęĚ",
      "ęėĘ Ęęęęę",
      "ęėĘ Ěęęė",
      "ęėĘ Ęęęė",
      "ęėĘ Ěęęě",
      "ęėĘ ěęęė",
      "ęėĘ Ĝęęęę",
      "ęėĘ ěęęě",
      "ęėĘ ĘęęĖ",
      "ĀĜ ĕ",
      "ĀĜ Ė",
      "ęęğ ęėĜ",
      "ęęğ ęěĖ",
      "ęėĚ ĖęęĚ",
      "ęėĚ ĚęęęęĘ",
      "ęėĚ ĜęęĘ",
      "ęėĚ Ěęęĝ",
      "Ęęęě ęĚĖ",
      "Ęęęě ęĚĕ",
      "Ęęęě ęěĞ",
      "ĀĀě ĀėĚ",
      "ęęęĜ ęĖ",
      "ęęęęęęęęęęęęęęęę Ě",
      "ėęęě ę",
      "ĀĀĖ ĀĚė",
      "ĀĀĖ ĀěĞ",
      "Āĝ Ğ",
      "ęğ ē",
      "ęęęĘęęęę ęęĚęęęę",
      "ęęęĘęęęę Ěęęęęęę",
      "ęęęĘęęęę ęęĘęęęęęęęę",
      "ęėė Ěęęęę",
      "ęėė ęęęĕ",
      "ęėė ĚęęĖ",
      "ęėė ĚęęĘę",
      "ęėė ĝęęĘ",
      "ęęĚęęęĚ ęęĚę",
      "ęęĚęęęĚ ęęęęęęĘ",
      "ęěęęęę ęę",
      "ęěęęęę ĚĘ",
      "ęěęęęę ęęĚęęęęęę",
      "ęėęęęę Ĝ",
      "ęėęęęę ĝ",
      "ęėęęęę Ěęęęę",
      "ęėęęęę ęęĖ",
      "ęėęęęę ĘęęĘ",
      "ęėęęęę ęęĘęęęę",
      "ĚĚ Ě",
      "ĚĚ ĝ",
      "ĚĚ Ğ",
      "ĚĚ ęęĖ",
      "ĚĚ ęęĝ",
      "ĚĚ ęę!",
      "ęē Ē",
      "ęē ē",
      "ęē ĕ",
      "ęē ęęĚ",
      "ęē ęęĔ",
      "ěęęė ęė",
      "ěęęė ęĘĘěęęĘ",
      "ĀĀĜ ĀėĚ",
      "ĀĀĜ ĀĞĘ",
      "ęěė ĚęęĚ",
      "ęěė Ęęęė",
      "ęěė ėęęĖ",
      "ęěě ĚęęĘ",
      "ęěě ęęęĚę",
      "ėęęė ęĖė",
      "ęęĘęĚ ęęęęęęęęęęęęę",
      "ęęĒ ęğ",
      "ęęĒ ęĜě",
      "ęęęĚęęęę ěĚ",
      "ęĚĘęęęę ęęĚęęęĚ",
      "ęĚĘęęęę ęĚĚęęęę",
      "ęĚĘęęęę ęĘĘęęęę",
      "ęėě ĚęęĘ",
      "ęėě Ĝęęě",
      "ęėě ĖęęĜ",
      "ęėě ĝęęě",
      "ęėě ĜęęĜ",
      "ęĚęęĘ ęĚĘĘęęĘ",
      "ĀĀĕ ĀĔ",
      "ęĘĘęęęę ęĘĘęęęę",
      "ęĘĘęęęę ęĚęęęęęę",
      "ĀĀĝ ĀěĖ",
      "ĜęęĚ ęĕ",
      "ěĚ ęęĞ",
      "ěĚ Ėęęęę",
      "ĘęęęęĘ ėęęęĘ",
      "ĘęęęęĘ ĚęęęĚ",
      "ęĜĘ ĚęęĘ",
      "ęĜĘ ěęęĘ",
      "ęĜĘ Ěęęė",
      "ęĜĘ ĕęęĘ",
      "ęĖĘ ĚęęĘ",
      "ęĖĘ ęęęě",
      "ęĖĘ ěęęĘ",
      "ęĖĘ ěęęė",
      "ęĖĘ ęęęĕ",
      "ęĖĘ ĚęęĖ",
      "ęĖĘ ěęęĖ",
      "ĜęęĘ ęęĖ",
      "ěĘ ęę",
      "ěĘ Ęęęė",
      "ęĘęęęęĘ ęęęęęęęę",
      "ęĘęęęęĘ ęęęęęęęęęęęęęęęęęęęęęę",
      "ęĘęęęęĚ ęĚęęęę",
      "ęĚĖ ęęęĚ",
      "ęĚĖ ĚęęĘ",
      "ęĚĖ ėęęęę",
      "ęĚĖ Ęęęě",
      "ęĚĖ ĚęęĖ",
      "ęĘęęĘ ęęęĚęęęę",
      "ĘęęęęĚ ęĘęęĘ",
      "ĘęęęęĚ ęĘęęĘę",
      "ęĘĖ Ěęęė",
      "ęĘĖ ĜęęĘ",
      "ęĘĖ Ĝęęė",
      "ęĘĖ ėęęĖ",
      "ęĘĖ ėęęęęĚ",
      "ęĚęęęęĘ Ě",
      "ęĚęęęęĘ ęĚęęęęęę",
      "ĘęęĖ ęĘĜ",
      "ęĘĜ ėęęě",
      "ęĘĜ ĚęęĜ",
      "ęĘĜ Ĝęęě",
      "ęĘĜ Ęęęğ",
      "ęĒ ė",
      "ęĒ Ĝ",
      "ęĒ ğ",
      "ęĒ ęęęę",
      "ėĚ !",
      "ėĚ ĝ",
      "ėĚ Ęęęęę",
      "ėĚ ęęĔ",
      "ėĚ ěęęĚ",
      "ėĚ ęęē",
      "ęěĜ ĚęęĚ",
      "ęěĜ ęęęĜ",
      "ęęęĕ ę",
      "ĀĀĞ ĀĜ",
      "ĀĀĞ Āĝ",
      "ęĜĚ ĚęęĘ",
      "ęĜĚ Ęęęęęě",
      "ĀĀğ Āğ",
      "ĀĀğ ĀĞğ",
      "ĘęęĜ ęĚĜ",
      "ĘęęĜ ęėĖ",
      "ęĜė ĘęęĘ",
      "ęĚęęęęĚ ęĘęęęęęę",
      "ěě ęęęĚ",
      "ěě ęęęęĘ",
      "ěě ěęęĚ",
      "ęęĘęęęĘ ęęĘęęęęę",
      "ęęĘęęęĘ ęęĚęęęĚę",
      "ĀĀĒ Āğ",
      "ĀĀĒ ĀĕĘ",
      "ĀĀĒ Āěĕ",
      "ĀĀĒ Āěė",
      "ęĖĚ ęęęĘ",
      "ęĖĚ ęęęė",
      "ęĖĚ Ěęęė",
      "ęĖĚ ěęęĚ",
      "ęĖĚ Ěęęě",
      "ęĖĚ ěęęě",
      "ĀĀē Āğ",
      "ėĘ Ěęęęę",
      "ėĘ ęęĕ",
      "ėĘ ęęĔ",
      "Ĝęęė ęĜě",
      "ęėĖ ĘęęĚ",
      "ęėĖ ěęęė",
      "ęėĜ ęęęĜ",
      "ęėĜ ĝęęĚ",
      "ĕęęĚ ęĕ",
      "ĕęęĚ ęĚĚ",
      "ėęęĖ ę",
      "ĚęęęęĚ ę",
      "ęĖė ĚęęĚ",
      "ĀĀĘĀ ēĖ",
      "ęĖĖ ęęęĘ",
      "ęĖĖ ĘęęĘ",
      "ęĖĖ ěęęė",
      "ęĖĖ ěęęĖ",
      "ęĜě ėęęĚ",
      "ęĜě ėęęĘ",
      "ęĜě Ěęęě",
      "ęęđ ęĜ",
      "ęęęĘęęĚ ęęęęęęęę",
      "ęĜĜ ęęęě",
      "ėě Ğ",
      "ėě ęęęĚ",
      "ėě ęęĕ",
      "ĖęęĜ ęĚĖ",
      "ĖęęĜ ęĞĚ",
      "ĀĀđ Āě",
      "ęęęĘęęĘ Ęęęęę",
      "ęęęĘęęĘ ėęęęę",
      "ęęęĘęęĘ ęęęęęęęęęęęę",
      "ęĘĚęęęĚ ęęęęęęęę",
      "ĖĚ ęęĔ",
      "ę! Ĝ",
      "ę! ğ",
      "ęĖęęęę ė",
      "ęĖęęęę ęę",
      "ęĘęĚ ęęĚęęęęęęĚ",
      "ęę\" ęĘĚ",
      "ęĚęĘ ęęĔ",
      "ěĝ Ę",
      "ěĝ ęęĘ",
      "ĀĀ! Āě",
      "ĀĀ! ĀĖ",
      "ĀĀ! ĀĞ",
      "ĕĚ !",
      "ĕĚ Ğ",
      "ĕĚ ęęē",
      "ęęĘĘęęęę ęĚĘęęęę",
      "ęęĘĘęęęę ęĚęęęęę",
      "ęěĖ ėęęĘ",
      "ęěĖ Ęęęė",
      "ęĖě ęęęĚ",
      "ėė ĘęęĘ",
      "ėė ěęęĘ",
      "ĜĘ ĚęęĘ",
      "Ĝě ęę",
      "ęĘĕ ėęęė",
      "ęĘĕ ĖęęĘ",
      "ęĘĕ ěęęĖ",
      "ęĜĖ ęęęĘ",
      "ęĜĖ ęęęė",
      "ęĜĖ Ęęęė",
      "ęĜĖ ėęęė",
      "ęĜĖ Ėęęė",
      "ęĜęęęę Ė",
      "ęĜęęęę ęę",
      "ęđ Ĝ",
      "ęęėęęęę ęęĚ",
      "ęĝĘ ĚęęĘ",
      "ęĝĘ ĕęęĚ",
      "Ėė ĚęęĘ",
      "Ėė ěęęĘ",
      "ęĚęĘęęęę ęęĘęęĚ",
      "ĜĚ ē",
      "ĜĚ ęęĝ",
      "ęęĐ ęĖ",
      "ĕĘ ě",
      "ĕĘ ęęĔ",
      "ĕĘ ęęđ",
      "ę\" ĕ",
      "ęĘęĘęęęę ė",
      "ĀĀ$ Āě",
      "ĀĀ$ ĀĕĘ",
      "ęĝĚ ęęęė",
      "ęĝĚ ėęęĚ",
      "ęęęĚęęĘ ĖęęĘ",
      "ęĚĝ ĘęęĜ",
      "ęĚĝ Ěęęĝ",
      "ĀĀ\" ĀĘ",
      "ĀĀ\" Āė",
      "ĀĀ\" ĀĖ",
      "ĀĀ\" ĀĜ",
      "ĀĀ\" Āğ",
      "ęĕĘ Ęęęęę",
      "ęĕĘ ĘęęĘ",
      "ęĕĘ Ėęęęę",
      "ęĕĘ Ėęęė",
      "ėęęęęĚ ęĘęęĘ",
      "ėĝ ě",
      "ęĘĝ ęęęĚ",
      "ęĘĝ ĚęęĚ",
      "ęĘĝ ėęęě",
      "ęĚĕ ėęęė",
      "ęĚęĚ ęęęęęęęę",
      "ęĚęĚ ęęĚę",
      "ęěĝ ėęęě",
      "ęěĝ ĘęęĜ",
      "ęĕė ĕęęĘ",
      "ĀĀėĀ !",
      "ęĚęĚęęęę ęęĚęęęę",
      "ĘĘ \"",
      "ĘĘ Ě",
      "ĘĘ Ĝ",
      "ĘĘ ęęĞ",
      "ěĜ ęę!",
      "ęęęęęęęęęĘ ęęęęęęęę",
      "ęęęęęęęęęĘ ęęęęęęęęęęęę",
      "ęěĕ ęęęĘ",
      "ęěĕ ĘęęĘ",
      "ęěĕ ęęęė",
      "ęěĕ ęęęĖ",
      "ęĚĞ ęęęę",
      "ęĚĞ ĖęęĚ",
      "ęĚĞ Ęęęĝ",
      "ęĘęĘ ęęĜ",
      "ęĘęĘ ęęĚę",
      "ęĘęĘ ęęęęęęęęęęęęęęęęęę",
      "ĜĞ ęęęę",
      "ĀĀ# ĀĜ",
      "ĀĀ# ĀĔ",
      "ĀĀĎ ĀĘ",
      "ĀĀĎ Āė",
      "ĀĀĎ ĀĜ",
      "ĀĀĎ Āĝ",
      "ĕě ęęĔ",
      "ĕęęĖ ę",
      "ęęĚĘęęęę ėě",
      "ěęęęęĘ ė",
      "ĀĀď ĀĞ",
      "ĀĀď ĀĔ",
      "ęėĝ ĚęęĜ",
      "ęęęėęęęę ě",
      "ęęęėęęęę ęĘĘęęĘ",
      "ęęęē ęęĚ",
      "ėęęĝ ęĖ",
      "ĠĜ ęęĞ",
      "ĠĜ ęęğ",
      "Ĕęęęę ęęě",
      "ėĜ ęęĔ",
      "ėĜ Ĝęęě",
      "ĠĚ ęęĝ",
      "ĠĚ ęę!",
      "ęĚęĘęęĚ ęęęĘ",
      "ęĖĜ ĚęęĚ",
      "ęĖĜ ęęęě",
      "ęĖĜ Ęęęě",
      "ęĖĜ ĜęęĚ",
      "ęĖĜ Ėęęě",
      "ĀĀĜĀ đ",
      "ėĖ ę",
      "ėĖ Ĝ",
      "ĝĞ ęęě",
      "ęęęęęęęęĚ ęĚęęęę",
      "ęęęęęęęęĚ ęĘęęęę",
      "ęęęęęęęęĚ ęęęęęęęęęęęęę",
      "ęĚęęęęęęĘ ĚęęęĚ",
      "ęĝĜ Ęęęě",
      "ęĝĜ ėęęě",
      "ęĞĘ Ęęęė",
      "ėęęęęĘ Ěęęęę",
      "ėęęęęĘ ęěęęęę",
      "ęěęęęęĘ ę",
      "ęĝě ĚęęĚ",
      "ęĝě ĘęęĚ",
      "ĀĚĚ ĚęęĚ",
      "ėęęĕ ę",
      "ęęėęęęĘ ęęęĘęęęę",
      "ęĜĕ Ęęęė",
      "ęĜĕ ęęęĖ",
      "ĔĖ ęęĒ",
      "ĞĚ ęę!",
      "ęĚĚĚęęęę ęęĘęęęę",
      "Ġė ęęĞ",
      "ęę# ęęě",
      "ęę# ęĞ",
      "ęęęęęęęęęęęĚ Ę",
      "ęĕĖ ĘęęĘ",
      "ęĕĖ Ěęęė",
      "ę# ĕ",
      "ę# Ę",
      "ę# ě",
      "ę# ęęĘ",
      "ěĕ ė",
      "ěĕ ęęĝ",
      "ęęĚęęęě ęęęęęęĚ",
      "ĀĀ% ĀĚ",
      "ęĐ Ę",
      "ęĕęęęę Ė",
      "ĔĘ ęęē",
      "ęĘĚĘęęĚ ęęĚęęęĚ",
      "ęęĚęęĘ ėęęĘ",
      "ęĖĕ Ęęęė",
      "ęĖĕ ęęęĖ",
      "ĀĀğĀ $",
      "ĀĀğĀ Ē",
      "ĖĖ ęęē",
      "ęĘęęęĘ ęęęęęęęę",
      "ęĞĚ ęęęĘ",
      "ęĘē ęęęę",
      "ęĘęě ęęĖ",
      "ęĖĔ ĘęęĖ",
      "ęĝĖ ėęęė",
      "ęĝĖ ĚęęĖ",
      "ęĞě ĘęęĚ",
      "ĚęęęęĘĘ Ěęęęę",
      "ĕĕ ę",
      "ĖęęęęĚ ęěęęęę",
      "ĚĚęęęę ĚĚĘęęęę",
      "ĠĞ ĀĀ",
      "ĀĀ& Āě",
      "ęĚĔ ěęęė",
      "ęęěĘęęĚ ę",
      "ğě ęęĝ",
      "Ġ! ęęě",
      "ęėĞ ęęęě",
      "ęęęęęęęęĘ ęĘęęęę",
      "ĘęęęęęĚ ęęęĚ",
      "ęęĚęęęęęęĚ ęęęęęęęę",
      "Ĕě #",
      "ĔĞ ęęė",
      "Ęęęęęě ęĘęęęę",
      "ĘęęęęęęĘ ęęĘ",
      "ęĘęęęęě ęĚęęęę",
      "ęĘęęęęě ęĘęęęę",
      "ėęęęęė ęĘęęęę",
      "ĀĀēĀ $",
      "ĀĀēĀ '",
      "ęĝĝ ĘęęĚ",
      "ĀĀęĀě ğ",
      "Ĕĝ ęęĕ",
      "ĘĜ ğ",
      "ğĞ ęęě",
      "ğĞ ĀĀĚĀė",
      "ęĕĜ Ęęęě",
      "ęĚĘėęęĘ ęĚęĘęęęę",
      "ęęęěęęęę ęęĘęęęę",
      "ęĞĖ ęęęĖ",
      "ĀĀėĀě ě",
      "ęĚęė ęęĖ",
      "ęĚęė ęęĘę",
      "ęĚęė ęęĘęĚ",
      "ēĜ ğ",
      "ĖęęęĘ ęĘĘęęęę",
      "ęėĔ ěęęė",
      "ęĜĔ Ęęęė",
      "ęĜĞ ęęęĚ",
      "ėęęęęĚĚ Ęęęęę",
      "ęĚĚęęęĘ ęęęęęęęę",
      "ęęęĘęęė Ěęęęę",
      "ęĔĜ ęęęĜ",
      "ĀĀęĀĜ Ę",
      "ĝĘ ĘęęĘ",
      "ęĘęęęęęęęęęęęę ęĚęęęęęę",
      "ęęęĘęęęęĘ ęĘęęęę",
      "ĘęęęęĘĘ ĚęęĘ",
      "ęęĖęęęę ęęė",
      "ĀĀĚĀĚ Ğ",
      "ĀĀĚĀė Ğ",
      "ĚĘęęęĘ ęęęęęęęę",
      "ęęęĘęęęęĚ Ěęęęęę",
      "ęĚęęęęęęęĚ ĘęęĚ",
      "ęĔĚ ěęęĚ",
      "ĀĀ* ĀĘ",
      "ęĝĔ ęęęĖ",
      "ęĕĝ ěęęě",
      "ēě ęę",
      "ęėęě ęęě",
      "ĒĔ ęęē",
      "ęęęęęęęęęęęęęĚ ęęęęęęęęęęę",
      "ĀĀĕĀĚ ĕ",
      "%ě Đ",
      "ĀĀĈ Ā#",
      "ęěĚĘ ęęĘę",
      "ĀĀĘĀĔ ĕ",
      "ęĘęĚęęęęĚ ęĘęęęę",
      "ęęĘęęęĘęęęę ęęĚę",
      "ĀĀć Āĝ",
      "Ěě #",
      "ęėęĘ ęęĜ",
      "ęĖęě ęęĕ",
      "ęĘęęęęĚęęĘ ęęęĘ",
      "ęĘęė ęęĚęęęĚ",
      "ĀĀă Ā",
      "ęęęęęęęęĘĘ ęęęĘę",
      "ĀĀĘĀğ ĕ",
      "ęĚęęęęĘęĚęęęęĘ Ěęęęęę",
      "ęĚĚĘęęęęĘĘ ěęęĘ",
      "! #",
      "! ęę",
      "! ęęęę",
      "! ęęě",
      "! ęĖ",
      "! ęęęě",
      "! ęęĔ",
      "! ĀĀĒ",
      "! ĚęęĜ",
      "! ĖęęĜ",
      "! ĝęęęę",
      "! ėĜ",
      "! ĀĀĝĀ",
      "! ęęěę",
      "! ĀĀĘĀĖ",
      "! ęęĚęęĚ",
      "! ĀĀėĀĖ",
      "! ĝĕ",
      "! ĀĀĒĀĖ",
      "\" '",
      "\" ę",
      "\" ęęĘ",
      "\" ęęĚ",
      "\" ęęĕ",
      "\" ęęęĞ",
      "\" ĖęęĞ",
      "\" ĀĀęĀĘ",
      "\" ĀĀ(",
      "\" ĖĐ",
      "\" ĀĀėĀĖ",
      "\" ĀĀĜĀĖ",
      "\" ĀĀĜĀě",
      "\" ėęę",
      "\" ĀĀĖĀĝ",
      "\" ĀĀĔĀě",
      "\" \"ĀĀěĀ",
      "\" ĀĀğĀĖ",
      "# đ",
      "# ę",
      "# Ĝ",
      "# ęęĘ",
      "# ėĘ",
      "# ĀĀĘĀ",
      "# ĀĀĖĀ",
      "# ĀĀĝĀ",
      "# ĞĚ",
      "# ĀĀĚĀĖ",
      "# ĒĐ",
      "# ĞĜ",
      "# ĀĀĝĀĕ",
      "# Ěęęğ",
      "# ĀĀĞĀē",
      "$ ė",
      "$ Ěęęě",
      "$ ĀĀěĀ",
      "$ ĀĀĔĀ",
      "$ ĀĀĔĀė",
      "$ Ğęęĝ",
      "% ğ",
      "% ęē",
      "% ĀĀđ",
      "% ĀĀĚĀĚ",
      "% ĀĀėĀė",
      "& !",
      "& ĀĀ",
      "& ĖĔ",
      "& Ĝěęę",
      "' $",
      "' ğ",
      "( #",
      "( ęęęę",
      "( ĀĀĘĀ",
      "* Ě",
      "Ā Ē",
      "Ā ę",
      "Ď ęę",
      "Ď ęęęę",
      "Ď ęęĚ",
      "Ď ęĝ",
      "Ď ęęĝ",
      "Ď ĀĀěĀ",
      "Ď ĕęęĕ",
      "Ď !ğ",
      "ď $",
      "ď ď",
      "ď Đ",
      "ď đ",
      "ď Ę",
      "ď ĝ",
      "ď ęęě",
      "ď ĖĚ",
      "ď ĔĖ",
      "ď ĔęęĖ",
      "ď ĕęęĒ",
      "Đ ě",
      "Đ ęęĘ",
      "Đ ĀĀ",
      "Đ ęęě",
      "Đ ęęĜ",
      "Đ ęęęęĘ",
      "Đ ęęęė",
      "Đ ĜęęĖ",
      "Đ ĀĀėĀ",
      "Đ ęęęĔ",
      "Đ ĜĞ",
      "Đ Ĕęęė",
      "Đ ěęęĕ",
      "Đ ēě",
      "Đ Ğ!",
      "đ ę",
      "đ ęęĜ",
      "đ ęĝ",
      "đ ęęĕ",
      "đ ěęęęę",
      "đ ėęęĘ",
      "đ ĖęęĘ",
      "đ Ėęęě",
      "đ ęęęĕ",
      "đ ěě",
      "đ ĀĀęĀ",
      "đ ĖĚ",
      "đ ęęĐ",
      "đ ěĞ",
      "đ ĝĚ",
      "đ ĀĀĝĀ",
      "đ Ĕęęė",
      "đ ĀĀęĀĕ",
      "đ ĀĀĜĀė",
      "đ ěęęē",
      "Ē $",
      "Ē ęę",
      "Ē ĀĀ",
      "Ē Ěęęęę",
      "Ē ęĜ",
      "Ē ęĝ",
      "Ē ęęĕ",
      "Ē ęęęęĘ",
      "Ē ėęęęę",
      "Ē ęęĞ",
      "Ē ėĚ",
      "Ē ėĘ",
      "Ē ęę\"",
      "Ē Ĝě",
      "Ē ĜęęĖ",
      "Ē ěĞ",
      "Ē ĜĞ",
      "Ē ĘĚ",
      "Ē ĝĞ",
      "Ē ėĞ",
      "Ē ęęĎ",
      "Ē ĖĞ",
      "Ē ę$",
      "Ē Ĕė",
      "Ē !Ğ",
      "Ē !!",
      "Ē ğ\"",
      "ē ęęęĚ",
      "ē ĚęęĘ",
      "ē ęęęęĘ",
      "ē ęęęě",
      "ē ĘęęĚ",
      "ē ėęęĘ",
      "ē Ęęęė",
      "ē ęęē",
      "ē ęğ",
      "ē ęęĘęĚ",
      "ē ěĚ",
      "ē ĜęęĘ",
      "ē Ėęęě",
      "ē ĘęęĖ",
      "ē ėĚ",
      "ē ęęęĕ",
      "ē ęęęęĘĘ",
      "ē Ėęęė",
      "ē Ĝęęė",
      "ē ęęĐ",
      "ē ę\"",
      "ē ėĝ",
      "ē Ėęęĕ",
      "ē Ěęęĕ",
      "ē ęęęĔ",
      "ē ĕęęĖ",
      "ē ĝĞ",
      "ē ę#",
      "ē ĖĜ",
      "ē Ěĝ",
      "ē ĔĜ",
      "ē ĝğ",
      "ē !$",
      "Ĕ ęęęĚ",
      "Ĕ ęęęĘ",
      "Ĕ ĚĘ",
      "Ĕ ėęęęę",
      "Ĕ ęęęě",
      "Ĕ ěęęęę",
      "Ĕ ęęĚę",
      "Ĕ ęęĘę",
      "Ĕ ęęęĖ",
      "Ĕ ĖęęĚ",
      "Ĕ ęęĘęĚ",
      "Ĕ ęę!",
      "Ĕ Ėęęė",
      "Ĕ ěęęĖ",
      "Ĕ ę!",
      "Ĕ ĀĀ!",
      "Ĕ ĕĘ",
      "Ĕ ę\"",
      "Ĕ ĜęęĖ",
      "Ĕ Ėęęĕ",
      "Ĕ ĘĘ",
      "Ĕ ěĞ",
      "Ĕ ĜĞ",
      "Ĕ ĕě",
      "Ĕ ęęęē",
      "Ĕ ėęęĝ",
      "Ĕ ĝě",
      "Ĕ ĝĚ",
      "Ĕ Ĕęęė",
      "Ĕ ĕĜ",
      "Ĕ ğě",
      "Ĕ ĕĝ",
      "Ĕ Ĕĝ",
      "Ĕ \"Ğ",
      "Ĕ ğĀĀ",
      "Ĕ ĀĀ&Ā",
      "ĕ !",
      "ĕ #",
      "ĕ Ď",
      "ĕ ęě",
      "ĕ ęė",
      "ĕ ęĚęęęę",
      "ĕ ęęęě",
      "ĕ ĘęęĚ",
      "ĕ ęĞ",
      "ĕ ęğ",
      "ĕ ĖęęĘ",
      "ĕ Ĝęęě",
      "ĕ ĖĚ",
      "ĕ ęĖęęęę",
      "ĕ ěĝ",
      "ĕ ĕĚ",
      "ĕ ĜĚ",
      "ĕ ĕě",
      "ĕ ĀĀď",
      "ĕ ĖęęĞ",
      "ĕ ėĜ",
      "ĕ ĞĚ",
      "ĕ ĝĜ",
      "ĕ ėĞ",
      "ĕ ėĕ",
      "ĕ ĒĚ",
      "ĕ \"!",
      "ĕ ėĝęęė",
      "ĕ \"Ĝ",
      "ĕ ęę\"ęĖ",
      "ĕ ğĞĀĀĚĀė",
      "Ė %",
      "Ė ĀĀ"
    ]
  }
}