{
  "version": "1.0",
  "truncation": null,
  "padding": null,
  "added_tokens": [],
  "normalizer": null,
  "pre_tokenizer": {
    "type": "ByteLevel",
    "add_prefix_space": false,
    "trim_offsets": true,
    "use_regex": true
  },
  "post_processor": {
    "type": "ByteLevel",
    "add_prefix_space": true,
    "trim_offsets": false,
    "use_regex": true
  },
  "decoder": {
    "type": "ByteLevel",
    "add_prefix_space": true,
    "trim_offsets": true,
    "use_regex": true
  },
  "model": {
    "type": "BPE",
    "dropout": null,
    "unk_token": null,
    "continuing_subword_prefix": null,
    "end_of_word_suffix": null,
    "fuse_unk": false,
    "byte_fallback": false,
    "ignore_merges": false,
    "vocab": {
      "\u0000": 0,
      "\u0001": 1,
      "\u0002": 2,
      "\u0003": 3,
      "\u0004": 4,
      "\u0005": 5,
      "\u0006": 6,
      "\u0007": 7,
      "\b": 8,
      "\t": 9,
      "\n": 10,
      "\u000b": 11,
      "\f": 12,
      "\r": 13,
      "\u000e": 14,
      "\u000f": 15,
      "\u0010": 16,
      "\u0011": 17,
      "\u0012": 18,
      "\u0013": 19,
      "\u0014": 20,
      "\u0015": 21,
      "\u0016": 22,
      "\u0017": 23,
      "\u0018": 24,
      "\u0019": 25,
      "\u001a": 26,
      "\u001b": 27,
      "\u001c": 28,
      "\u001d": 29,
      "\u001e": 30,
      "\u001f": 31,
      " ": 32,
      "!": 33,
      "\"": 34,
      "#": 35,
      "$": 36,
      "%": 37,
      "&": 38,
      "'": 39,
      "(": 40,
      ")": 41,
      "*": 42,
      "+": 43,
      ",": 44,
      "-": 45,
      ".": 46,
      "/": 47,
      "0": 48,
      "1": 49,
      "2": 50,
      "Ā": 51,
      "ā": 52,
      "Ă": 53,
      "ă": 54,
      "Ą": 55,
      "ą": 56,
      "Ć": 57,
      "ć": 58,
      "Ĉ": 59,
      "ĉ": 60,
      "Ċ": 61,
      "ċ": 62,
      "Č": 63,
      "č": 64,
      "Ď": 65,
      "ď": 66,
      "Đ": 67,
      "đ": 68,
      "Ē": 69,
      "ē": 70,
      "Ĕ": 71,
      "ĕ": 72,
      "Ė": 73,
      "ė": 74,
      "Ę": 75,
      "ę": 76,
      "Ě": 77,
      "ě": 78,
      "Ĝ": 79,
      "ĝ": 80,
      "Ğ": 81,
      "ğ": 82,
      "Ġ": 83,
      "ęę": 84,
      "ęęęę": 85,
      "ęĚ": 86,
      "ęĘ": 87,
      "ęęĘ": 88,
      "ęęĚ": 89,
      "ĀĀ": 90,
      "ęě": 91,
      "ęė": 92,
      "ęęęęęęęę": 93,
      "ęęě": 94,
      "ęęė": 95,
      "Ęęęęę": 96,
      "Ěęęęę": 97,
      "ęęęĚ": 98,
      "ęęęĘ": 99,
      "ęĜ": 100,
      "ęĖ": 101,
      "ęęĖ": 102,
      "ęęĜ": 103,
      "ęĚęęęę": 104,
      "ęĘęęęę": 105,
      "ęĕ": 106,
      "ęĝ": 107,
      "ĘęęĚ": 108,
      "ĘęęĘ": 109,
      "ĚęęĘ": 110,
      "ęĚĚ": 111,
      "ĚęęĚ": 112,
      "ęęęęĘ": 113,
      "ęęĕ": 114,
      "ęęęęĚ": 115,
      "ęĚĘ": 116,
      "ęĘĚ": 117,
      "ęĘĘ": 118,
      "ęęĝ": 119,
      "ęęęė": 120,
      "ęęęě": 121,
      "ęęę": 122,
      "ėęęęę": 123,
      "ěęęęę": 124,
      "ęĞ": 125,
      "ęęęęęęęęęęęę": 126,
      "ęęĘęęęę": 127,
      "ęęĚęęęę": 128,
      "ęęĔ": 129,
      "ĀĘ": 130,
      "ėęęĚ": 131,
      "ęĔ": 132,
      "ęęĞ": 133,
      "ěęęĘ": 134,
      "ĀĚ": 135,
      "Āě": 136,
      "ėęęĘ": 137,
      "ĀĀĘ": 138,
      "ęĚě": 139,
      "ĀĀę": 140,
      "Ęęęě": 141,
      "ęěĘ": 142,
      "ěęęĚ": 143,
      "ęěĚ": 144,
      "Ěęęė": 145,
      "Ęęęė": 146,
      "Ěęęě": 147,
      "ęĚė": 148,
      "ĀĀĚ": 149,
      "ęĘě": 150,
      "ęĘė": 151,
      "ęėĚ": 152,
      "ĀĀė": 153,
      "Āė": 154,
      "ĀĖ": 155,
      "ęėĘ": 156,
      "ęęęęęęęęęęęęęęęę": 157,
      "ęęē": 158,
      "ęęęĜ": 159,
      "ęğ": 160,
      "ĀĜ": 161,
      "ęęğ": 162,
      "ĀĀĖ": 163,
      "ĀĀě": 164,
      "ęęęĖ": 165,
      "ęęĘę": 166,
      "ęē": 167,
      "Āĕ": 168,
      "ėęęě": 169,
      "Ėęęęę": 170,
      "ęěě": 171,
      "Āĝ": 172,
      "ęěęęęę": 173,
      "ęęęĚęęęę": 174,
      "ęęęĘęęęę": 175,
      "ĚĚ": 176,
      "ęėęęęę": 177,
      "ĖęęĚ": 178,
      "ęěė": 179,
      "ęėė": 180,
      "ęęęĚę": 181,
      "ęĘęęĚ": 182,
      "ěęęė": 183,
      "ĚęęęęĘ": 184,
      "ęĚęęĚ": 185,
      "ĀĀĜ": 186,
      "ęęęĘę": 187,
      "ĖęęĘ": 188,
      "ĚĘ": 189,
      "ęĚęęĘ": 190,
      "ėęęė": 191,
      "ęęĒ": 192,
      "ęĘĘęęęę": 193,
      "ĀĀĕ": 194,
      "Ĝęęęę": 195,
      "ĀĞ": 196,
      "ĜęęĘ": 197,
      "ęĚĘęęęę": 198,
      "ĜęęĚ": 199,
      "ęĚĚęęęę": 200,
      "ěęęě": 201,
      "ęĜĚ": 202,
      "ęĚĜ": 203,
      "ĘęęęęĘ": 204,
      "ěĚ": 205,
      "ėĚ": 206,
      "ęĘęęĘ": 207,
      "ęėě": 208,
      "ėĘ": 209,
      "ĀĀĝ": 210,
      "ęĜĘ": 211,
      "ęĘĜ": 212,
      "ęĚęęęęĘ": 213,
      "ĀĔ": 214,
      "ěĘ": 215,
      "ęĚĖ": 216,
      "ĀĀĔ": 217,
      "ęĖĘ": 218,
      "ęĘĖ": 219,
      "ęĘĚęęęę": 220,
      "ęĒ": 221,
      "ęĘęęęęĘ": 222,
      "ęĖĚ": 223,
      "ęĘęęęęĚ": 224,
      "ĘęęĖ": 225,
      "Ėęęě": 226,
      "ĚęęĖ": 227,
      "ĀĀĞ": 228,
      "ęęęęęęęęęęę": 229,
      "ĘęęĜ": 230,
      "ęęęĘęęĚ": 231,
      "ĚęęęęĚ": 232,
      "ęěĜ": 233,
      "ĀĀğ": 234,
      "ęęęĕ": 235,
      "ĘęęęęĚ": 236,
      "ęėĖ": 237,
      "ęęęęĘĘ": 238,
      "Ĝęęė": 239,
      "ěęęĖ": 240,
      "ęęĚęęęĚ": 241,
      "Āğ": 242,
      "ĕęęęę": 243,
      "ĚęęĜ": 244,
      "ęęĚę": 245,
      "ęęęĘęęĘ": 246,
      "ęĜě": 247,
      "ęę!": 248,
      "ęęęĝ": 249,
      "ęĚęęęęĚ": 250,
      "ęęęęĚĚ": 251,
      "ĕęęĘ": 252,
      "ęĖė": 253,
      "Āē": 254,
      "ěě": 255,
      "ĀĀē": 256,
      "ęėĜ": 257,
      "ĀĀĒ": 258,
      "ĕęęĚ": 259,
      "ęęđ": 260,
      "ėęęĖ": 261,
      "ėęęĜ": 262,
      "Ĝęęě": 263,
      "ęęęęĘĚ": 264,
      "Ėęęė": 265,
      "ęĜė": 266,
      "ęęęĚęęĘ": 267,
      "ęĜĜ": 268,
      "ĖĚ": 269,
      "ěĝ": 270,
      "ĘęęĚę": 271,
      "ěęęĜ": 272,
      "ęęęęĚĘ": 273,
      "ęĖĖ": 274,
      "ęĖě": 275,
      "ĀĀĘĀ": 276,
      "ęěĖ": 277,
      "ėė": 278,
      "ę!": 279,
      "ęĚęĘęęęę": 280,
      "ęęęĚęęĚ": 281,
      "ĝęęęę": 282,
      "ĝęęĘ": 283,
      "ęĘęĚęęęę": 284,
      "ĀĀđ": 285,
      "ęĖęęęę": 286,
      "ęĘĕ": 287,
      "ěĜ": 288,
      "ęĚĝ": 289,
      "ĀĀęĀ": 290,
      "ęėęęĘ": 291,
      "ęęęĞ": 292,
      "ęĘĚęęęĚ": 293,
      "ęęęęęęĚ": 294,
      "ęěęęĘ": 295,
      "ĝęęĚ": 296,
      "ęę\"": 297,
      "ĜĚ": 298,
      "ĖęęĜ": 299,
      "Ęęęĕ": 300,
      "ęđ": 301,
      "ěė": 302,
      "ęĕĚ": 303,
      "ęĚĕ": 304,
      "ęĝĘ": 305,
      "ęęĘęęęĘ": 306,
      "ęĚęęęęęę": 307,
      "ĚęęĘę": 308,
      "ĜĘ": 309,
      "ęęĚĚęęĚ": 310,
      "ĕĚ": 311,
      "Ĝě": 312,
      "ėě": 313,
      "ęęĘĘęęęę": 314,
      "ęĜęęęę": 315,
      "ĀĀ!": 316,
      "ęėęęĚ": 317,
      "ĘęęĘę": 318,
      "ęęęęęęęęęęęęę": 319,
      "ĜĜ": 320,
      "ęĕė": 321,
      "ęĕĘ": 322,
      "ĀĀ\"": 323,
      "ęĝĚ": 324,
      "ĀĀĖĀ": 325,
      "ęĘĝ": 326,
      "ęęěęęęę": 327,
      "Ėě": 328,
      "ęęĐ": 329,
      "ęěĝ": 330,
      "ęĘęęęęęę": 331,
      "ęĘęĚ": 332,
      "ĘĚ": 333,
      "ĔęęĚ": 334,
      "ĕęęě": 335,
      "ĀĀěĀ": 336,
      "ėĖ": 337,
      "ęĘęĘęęęę": 338,
      "ĀĀĚĀ": 339,
      "ĕęęė": 340,
      "ĖĘ": 341,
      "Ěęęęęę": 342,
      "ĜęęĖ": 343,
      "ĝęęė": 344,
      "ęĚĘęęęĘ": 345,
      "ĕĘ": 346,
      "Ėė": 347,
      "ęĚęĘ": 348,
      "ęěęęĚ": 349,
      "ĀĀėĀ": 350,
      "ĝĚ": 351,
      "ęĚęĚęęęę": 352,
      "ęęėęęęę": 353,
      "ęĘĘęęęĘ": 354,
      "ĀĀĐ": 355,
      "ęęęęęęęęęĘ": 356,
      "ĖęęĖ": 357,
      "ęĚĚęęęĚ": 358,
      "Ęęęĝ": 359,
      "ĚęęĚę": 360,
      "ėęęĝ": 361,
      "ěĞ": 362,
      "ęĜĖ": 363,
      "Ěęęĕ": 364,
      "ęĚĞ": 365,
      "ĀĀ$": 366,
      "ęĚĚĘęęĚ": 367,
      "ėĜ": 368,
      "ęęĘĚęęĘ": 369,
      "ęęęĔ": 370,
      "ĀĀ#": 371,
      "ęęęęęęęęęęęęęęęęęęęę": 372,
      "ĘĘ": 373,
      "ęęĘĘęęĘ": 374,
      "ęęĘęęęęę": 375,
      "ęĚęĘęęĚ": 376,
      "ęĘęĚęęĚ": 377,
      "ęĖĜ": 378,
      "ęėĕ": 379,
      "ęęĚęęęęę": 380,
      "ėĝ": 381,
      "ěęęęęĘ": 382,
      "ęęĚĚęęęę": 383,
      "ęėĝ": 384,
      "ĔęęĘ": 385,
      "ėęęęęĚ": 386,
      "ę\"": 387,
      "ĜĞ": 388,
      "ĀĀď": 389,
      "Ęęęęęę": 390,
      "ęęęē": 391,
      "ěęęęęĚ": 392,
      "ęęĘĚęęęę": 393,
      "Ěęęęęęę": 394,
      "ęĝě": 395,
      "ęĚĘĚęęĘ": 396,
      "ęęęęęęĘ": 397,
      "Ėĝ": 398,
      "ěęęĕ": 399,
      "ĞĚ": 400,
      "ęěĕ": 401,
      "ęĜĝ": 402,
      "ęĚĚĘęęęę": 403,
      "ęĚęĚ": 404,
      "ęĘėęęęę": 405,
      "ęěĚęęęę": 406,
      "ęėęęęęĚ": 407,
      "ĠĚ": 408,
      "ęęęęęęęęĚ": 409,
      "Ėęęĕ": 410,
      "ėęęęęĘ": 411,
      "ĝęęě": 412,
      "ęęĚĘęęĚ": 413,
      "ĀĀĎ": 414,
      "Ĕęęęę": 415,
      "ęĘęě": 416,
      "ęęĚĘęęęę": 417,
      "ęęęęęęęęęęęęęęę": 418,
      "ĀĀĘĀĘ": 419,
      "ĀĀĜĀ": 420,
      "ęĘęĘ": 421,
      "ęę#": 422,
      "ęėęęęęĘ": 423,
      "ęĚĘĘęęĘ": 424,
      "ęęď": 425,
      "ęĝė": 426,
      "ĕĝ": 427,
      "ĜęęĜ": 428,
      "ęĚęęęęęęĚ": 429,
      "ęĚĚĚęęęę": 430,
      "ęĘĘĚęęĘ": 431,
      "ĀĚĘ": 432,
      "ĀĚĚ": 433,
      "ĀĀĕĀ": 434,
      "Ėęęĝ": 435,
      "ęęěęęęĚ": 436,
      "ĘęęęęęęĘ": 437,
      "ęĘęęęęę": 438,
      "ęęęęęęęęęęęęęęęęęę": 439,
      "ĀĀĔĀ": 440,
      "Ĝĝ": 441,
      "Ġĝ": 442,
      "ęęęęęęęęęĚ": 443,
      "ęĞĘ": 444,
      "ĕęęĖ": 445,
      "ėĞ": 446,
      "ėęęĕ": 447,
      "ěĖ": 448,
      "ęĘęĘęęĚ": 449,
      "ęęęęęęęęęęęĘ": 450,
      "ęĚęęęęę": 451,
      "ĀĀĝĀ": 452,
      "ĕęęĜ": 453,
      "ęĚěęęęę": 454,
      "Ęęęęęęę": 455,
      "ęĜĕ": 456,
      "ęĝĜ": 457,
      "ēĘ": 458,
      "ěęęĝ": 459,
      "ęęėęęęĘ": 460,
      "ęĖĕ": 461,
      "ęĘęęęęęęĚ": 462,
      "ĔĚ": 463,
      "Ĕęęė": 464,
      "ĖĞ": 465,
      "ėęęĞ": 466,
      "ęĚĔ": 467,
      "ęĘęĚęęĘ": 468,
      "ęěĞ": 469,
      "ęěęęęęĘ": 470,
      "ĚęęęęęęĚ": 471,
      "ęĚęęęęęęĘ": 472,
      "ęĚěęęęĚ": 473,
      "ğĚ": 474,
      "ĀĀ%": 475,
      "ęĘĚĘęęĚ": 476,
      "ęĘĚĚęęĚ": 477,
      "ěęęęĚ": 478,
      "ĠĜ": 479,
      "ęĕĖ": 480,
      "ęęęėęęęę": 481,
      "Ĝęęĕ": 482,
      "ĝĞ": 483,
      "ĠĘ": 484,
      "ęęĚęęĘ": 485,
      "ęęęęęęęęęęęĚ": 486,
      "ęĘęęęęęęĘ": 487,
      "ęĔĘ": 488,
      "ĀĀĚĀĘ": 489,
      "ĕě": 490,
      "ęęęęęęęęĘ": 491,
      "ęĞĚ": 492,
      "ęęĘęęęęęęĘ": 493,
      "ęĚęĘęęĘ": 494,
      "ęĜęęĘ": 495,
      "ęĘĚĚęęęę": 496,
      "ĀĀĘĀě": 497,
      "ĀĀęĀĘ": 498,
      "ĖĖ": 499,
      "ę#": 500,
      "Ĝė": 501,
      "ĀĀėĀĘ": 502,
      "ęĐ": 503,
      "ĚĚęęęę": 504,
      "ĠĞ": 505,
      "ęĚęęęĚ": 506,
      "ęĘĔ": 507,
      "ĀĀ&": 508,
      "ęęęğ": 509,
      "ęĘėęęęĘ": 510,
      "ĚęęęęĘĘ": 511,
      "ĒĘ": 512,
      "ěĕ": 513,
      "ĝĘ": 514,
      "ęęėĚęęĘ": 515,
      "ęĖĝ": 516,
      "ęĕě": 517,
      "ęęĚęęęęęęĚ": 518,
      "ēęęĘ": 519,
      "ĔĖ": 520,
      "ęę$": 521,
      "ęĚęęě": 522,
      "ęĚęĚęęĚ": 523,
      "ęĘĞ": 524,
      "ęĘĘĚęęęę": 525,
      "ęĚĚęęęęę": 526,
      "ēė": 527,
      "ēęęė": 528,
      "ĔĘ": 529,
      "Ĕęęě": 530,
      "ěęęĔ": 531,
      "ĝĜ": 532,
      "ęĚęĚęęĘ": 533,
      "ęĘęęęĘ": 534,
      "ęĘĘěęęĘ": 535,
      "ęĞě": 536,
      "ēĚ": 537,
      "ĕĜ": 538,
      "ĝě": 539,
      "ęĘęęė": 540,
      "ĀĀ)": 541,
      "ęěęęęęĚ": 542,
      "ęĝęęęę": 543,
      "ęĚĚĚęęĚ": 544,
      "ęĚĘĘęęęę": 545,
      "ĀĀęĀě": 546,
      "ĀĀĞĀ": 547,
      "ęęěĚęęĚ": 548,
      "ĚęęęęęęĘ": 549,
      "ęĖęęĚ": 550,
      "ęĕęęęę": 551,
      "ĀĀĚĀĖ": 552,
      "Ĕě": 553,
      "ĕęęĕ": 554,
      "ĖĜ": 555,
      "ĘĞ": 556,
      "ęėĘęęęę": 557,
      "ęęęěę": 558,
      "ĀėĘ": 559,
      "ĀĖĘ": 560,
      "ĒĚ": 561,
      "ĔĜ": 562,
      "ğĞ": 563,
      "ĀĀ(": 564,
      "ęėĞ": 565,
      "ęĖęęĘ": 566,
      "ęĘĘĘęęęę": 567,
      "ęęęėę": 568,
      "ĀĀĚĀĚ": 569,
      "ęĘěęęęĚ": 570,
      "ĔęęĖ": 571,
      "ĕė": 572,
      "ĕĞ": 573,
      "Ěęęĝ": 574,
      "ĝęęĖ": 575,
      "ğęęĘ": 576,
      "ęĚęęė": 577,
      "ęęĚęęęě": 578,
      "ęěęęė": 579,
      "ęęěĘęęĚ": 580,
      "ęĝĖ": 581,
      "ęęęėęęĘ": 582,
      "ęĘĘęęęęę": 583,
      "ęĚĘęęęęę": 584,
      "ĀĀğĀ": 585,
      "ėęęĔ": 586,
      "ěğ": 587,
      "ěĘęęęę": 588,
      "ęĚėęęęę": 589,
      "ęĘęęęęęęęęęęęę": 590,
      "ĀĀ'": 591,
      "ęėĚęęęę": 592,
      "ęĜĞ": 593,
      "ęĜęęĚ": 594,
      "ęĘĚĘęęęę": 595,
      "ęĚěĘęęĚ": 596,
      "ĒĖ": 597,
      "ēęęĚ": 598,
      "ęĘęęě": 599,
      "ęėęęě": 600,
      "ęĝĝ": 601,
      "ęęĘęęęęęę": 602,
      "ęęĚęęęęęęĘ": 603,
      "ĀĀėĀě": 604,
      "ĖęęĞ": 605,
      "Ĝęęĝ": 606,
      "ĝĝ": 607,
      "ęęĎ": 608,
      "ęĘěęęęę": 609,
      "ęėĔ": 610,
      "ėęęęĘ": 611,
      "ĘęęĞ": 612,
      "ęėęęė": 613,
      "ęĚĘęęęė": 614,
      "!ğ": 615,
      "ėĘęęęę": 616,
      "ĚĞ": 617,
      "ĝęęĜ": 618,
      "Ġě": 619,
      "ęĘē": 620,
      "ęĘęęęęęęęę": 621,
      "ęęěęęĘ": 622,
      "ęęĘęęęęęęĚ": 623,
      "ĀĀēĀ": 624,
      "ĕęęĝ": 625,
      "ę$": 626,
      "Ġė": 627,
      "ęĚęęęęęęęęęęęę": 628,
      "ęĘęĘęęĘ": 629,
      "ęęĚęęęĘ": 630,
      "ĘęęęęęęĚ": 631,
      "ęęęĘęęė": 632,
      "ęĘĘĘęęĘ": 633,
      "ěęęĚę": 634,
      "ĀĀėĀĚ": 635,
      "ęğĚ": 636,
      "Ĕė": 637,
      "ėĘęęĘ": 638,
      "ĝğ": 639,
      "Ġęęęę": 640,
      "ęęĚęęęĚę": 641,
      "ęěĘęęęę": 642,
      "ęěęĘęęęę": 643,
      "ęĔĚ": 644,
      "ĀĀęĀĖ": 645,
      "ęęęęęęęęęęęęęęęęęęęęęęęę": 646,
      "ĀĜĘ": 647,
      "ĀĀĖĀĚ": 648,
      "ĀĀěĀĘ": 649,
      "ĔĞ": 650,
      "ĕĕ": 651,
      "ĖęęęęĚ": 652,
      "ęĀĀ": 653,
      "ğě": 654,
      "Ġ!": 655,
      "ęęęĘęęě": 656,
      "ęĖĔ": 657,
      "ęĝĕ": 658,
      "ęęęěęęęę": 659,
      "ęęęĒ": 660,
      "ĀěĘ": 661,
      "ĚęęęęĘĚ": 662,
      "ĖęęęęĘ": 663,
      "Ğęęęę": 664,
      "ĠĀ": 665,
      "ęěęĘęęĚ": 666,
      "ĘęęęęĚĘ": 667,
      "ęęęĚęęęęęęęę": 668,
      "ęęęĚęęė": 669,
      "ęęęěęęĘ": 670,
      "ęęę!": 671,
      "ęĞĖ": 672,
      "ęĔė": 673,
      "ĀĀęĀė": 674,
      "ĀĀęĀĕ": 675,
      "ĀĀĚĀė": 676,
      "ęĘěĚęęĚ": 677,
      "ĀĀėĀĖ": 678,
      "ĘęęęęĘĘ": 679,
      "ęĚęęęęĘę": 680,
      "ĀĀ\"Ā": 681,
      "đĘ": 682,
      "ĘęęĔ": 683,
      "ěĚęęęę": 684,
      "ĞĘ": 685,
      "ĠĖ": 686,
      "Ġğ": 687,
      "ęęěę": 688,
      "ĚęęęęĚĘ": 689,
      "ęĜęęęęĘ": 690,
      "ęĕĕ": 691,
      "ęĕĜ": 692,
      "ęĚĚęęęĘ": 693,
      "ęĔě": 694,
      "ĀĀĘĀĕ": 695,
      "ęęęęęęęęęęęęęęęęęęę": 696,
      "ĘęęęęĘĚ": 697,
      "ĀĀĒĀ": 698,
      "!Ĝ": 699,
      "Ēē": 700,
      "ĒĞ": 701,
      "Ĕĝ": 702,
      "ėĕ": 703,
      "ĞęęĘ": 704,
      "Ġĕ": 705,
      "ęěĔ": 706,
      "ęėęĚęęęę": 707,
      "ęĝĞ": 708,
      "ęĚĘĘęęė": 709,
      "ĀĀĘĀė": 710,
      "ĀĀęĀĚ": 711,
      "ęĘěĘęęĚ": 712,
      "ēĞ": 713,
      "Ĕęęĝ": 714,
      "Ěĝ": 715,
      "Ĝğ": 716,
      "ęėęĘęęęę": 717,
      "ęėęĚęęĚ": 718,
      "ęĘĘęęęė": 719,
      "ęęĚęęęęęę": 720,
      "ėęęĘę": 721,
      "ĀĀĘĀĖ": 722,
      "ęěĘĘęęĘ": 723,
      "ęĚėĚęęĘ": 724,
      "ĀĀėĀĝ": 725,
      "ęęęęęęęęęęęęęęęęęęęęęęęęęęęęęęęę": 726,
      "ĀĀĖĀė": 727,
      "ęĘĚęęęęę": 728,
      "ĔęęĜ": 729,
      "ĕĖ": 730,
      "ėğ": 731,
      "ęď": 732,
      "ĜęęęęĘ": 733,
      "ęĚęėęęĘ": 734,
      "ęĘğ": 735,
      "ęęęěęęĚ": 736,
      "ęęęđ": 737,
      "ęėĚęęęĚ": 738,
      "ĒĜ": 739,
      "ēĖ": 740,
      "ēęęęę": 741,
      "ēęęĜ": 742,
      "Ěě": 743,
      "ĜęęęęĚ": 744,
      "ĞęęĚ": 745,
      "ęĘęěęęęę": 746,
      "ęęĘęęęĚ": 747,
      "ęęĚęęĚ": 748,
      "ęęęęęęęęęęĚ": 749,
      "ęęęęęęęęĘęęęę": 750,
      "ęĔĖ": 751,
      "ęĚėęęęĘ": 752,
      "ęĚėĘęęĘ": 753,
      "ĀĀĚĀě": 754,
      "ĀĀěĀě": 755,
      "ęĚęė": 756,
      "ęĚęĘęęęęĘ": 757,
      "ęęėĘęęĘ": 758,
      "ęĚęęęęė": 759,
      "ęĘĘęęęĚ": 760,
      "ęĞė": 761,
      "ĀĘĘ": 762,
      "ĀĀęĀĜ": 763,
      "ęěĘĚęęĘ": 764,
      "ĀĀĚĀĜ": 765,
      "ęĘėĘęęĘ": 766,
      "ęĘėĚęęĘ": 767,
      "ęęęĜęęĚ": 768,
      "đĖ": 769,
      "Ēĕ": 770,
      "ěęęĞ": 771,
      "ĠĀĀ": 772,
      "ęę%": 773,
      "ęĚĘęęĚ": 774,
      "ęĚęĘęęęęĚ": 775,
      "ęĘĚęęĘ": 776,
      "ęĘęęĘę": 777,
      "ęěęĚęęĘ": 778,
      "ęęėę": 779,
      "ĘęęęęĚĚ": 780,
      "ęĜĔ": 781,
      "ęĚęęęęě": 782,
      "ęĘęęęęė": 783,
      "ęĕĝ": 784,
      "ęĚĚęęęě": 785,
      "ęęęėęęĚ": 786,
      "ėęęęęė": 787,
      "ęĔĜ": 788,
      "ęĚěĚęęĚ": 789,
      "!ě": 790,
      "Ā!": 791,
      "đė": 792,
      "ĒĒ": 793,
      "ēęęě": 794,
      "ėęęęęĚĚ": 795,
      "ĚęęĔ": 796,
      "ĚęęĞ": 797,
      "Ěęęē": 798,
      "ěĘęęĚ": 799,
      "ĜĖ": 800,
      "ęĚğ": 801,
      "ęĚęėęęęę": 802,
      "ęĘęęĖ": 803,
      "ęęĘěęęĘ": 804,
      "ęěğ": 805,
      "ęėē": 806,
      "ęėęĚęęĘ": 807,
      "ęęęęęęęęĚęęęę": 808,
      "ęęęęęęęęęęęęĚ": 809,
      "ęęĖęęęę": 810,
      "ęĕęęĘ": 811,
      "ĘęęĘęĚĘ": 812,
      "ęĚĘĚęęęę": 813,
      "ęĚĘėęęĘ": 814,
      "ėęęĚę": 815,
      "ĀĀĘĀĚ": 816,
      "ĀĀėĀė": 817,
      "ĀĀėĀĜ": 818,
      "ĀĀěĀĚ": 819,
      "Ēě": 820,
      "ĒęęĘ": 821,
      "Ĕĕ": 822,
      "ęĚē": 823,
      "ęĚęě": 824,
      "ęęĘęęęė": 825,
      "ĀĀ+": 826,
      "ęęęęęęęęęęĘ": 827,
      "ęęęęęęęęęęęęĘ": 828,
      "ęęėęęęė": 829,
      "ęęęĚęęęęĘ": 830,
      "ęĖğ": 831,
      "ęĘęęęęě": 832,
      "ęĚĚėęęĚ": 833,
      "ęĚĘęęęĘę": 834,
      "ęĘĚęęęě": 835,
      "ęĘĚęęęĚę": 836,
      "ęĞĜ": 837,
      "ĀĘĚ": 838,
      "ĀĀęĀĝ": 839,
      "Ěęęěę": 840,
      "ĀĀĚĀĕ": 841,
      "ęėĚĘęęĚ": 842,
      "ęėĘĚęęęę": 843,
      "ęėĘęęęĘ": 844,
      "ęğĜ": 845,
      "Ēė": 846,
      "ěĚęęĚ": 847,
      "ĝĖ": 848,
      "ĝęęĕ": 849,
      "ęĚęĚęęęęĘ": 850,
      "ęęĚĘęęě": 851,
      "ĀĀ*": 852,
      "ęęěĘęęě": 853,
      "ęĖĞ": 854,
      "ęĚĚėęęęę": 855,
      "ęĞĕ": 856,
      "ěęęĘę": 857,
      "ĀĀĘĀĜ": 858,
      "ęęęĚęęęęęęĘ": 859,
      "ĀĀĕĀě": 860,
      "ĀĀđĀ": 861,
      "ĐĘ": 862,
      "Ěğ": 863,
      "ĚĚęęĚ": 864,
      "ęęęęė": 865,
      "ęĘĘęęĘ": 866,
      "ęėğ": 867,
      "ęėėęęęę": 868,
      "ęĕęęĚ": 869,
      "ęĘĘęęęĘę": 870,
      "ęĞĝ": 871,
      "ĀĀĘĀĝ": 872,
      "Ęęęěę": 873,
      "ĀĀėĀĕ": 874,
      "ĀĀĜĀĘ": 875,
      "ĀĀĜĀė": 876,
      "đě": 877,
      "ēě": 878,
      "ĔĔ": 879,
      "Ėęęğ": 880,
      "ėĚęęĘ": 881,
      "ėěęęĘ": 882,
      "ėęęğ": 883,
      "ėęęęęĘĘ": 884,
      "Ęęęğ": 885,
      "ěęęęęĘĘ": 886,
      "ĠęęĘ": 887,
      "ęĚęėęęĚ": 888,
      "ęĘęęęĘę": 889,
      "ęęĚėęęĚ": 890,
      "ęěěęęęę": 891,
      "ęėęě": 892,
      "ęęěęęęě": 893,
      "Ęęęęęė": 894,
      "ęęęĚęęęęĚ": 895,
      "ęĝęęĘ": 896,
      "ęĚĘĘęęĚ": 897,
      "ęĚěęęęě": 898,
      "ęěĚĘęęĚ": 899,
      "ęėĘĚęęĘ": 900,
      "ĀĀěĀė": 901,
      "ęēĘ": 902,
      "ęęęĘęęęęę": 903,
      "ęęęĘęęęęęęĘ": 904,
      "ĀĀĕĀĘ": 905,
      "ĀĀ!Ā": 906,
      "ĒĐ": 907,
      "ĒĔ": 908,
      "ēđ": 909,
      "ēĝ": 910,
      "ĕğ": 911,
      "ĖęęęĘ": 912,
      "ĘĘęęęę": 913,
      "ĚĘęęęę": 914,
      "ĜęęęĚ": 915,
      "Ğğ": 916,
      "ęęęęę": 917,
      "ęĚęęĜ": 918,
      "ęęĘęęęĘę": 919,
      "ęěęĘęęĘ": 920,
      "ęęěĚęęě": 921,
      "ęęęĘęęęęĘ": 922,
      "ęĜęęė": 923,
      "ęĚĚęęĚ": 924,
      "ęĚĘėęęęę": 925,
      "ęĘĚėęęĚ": 926,
      "ęęĚęęęęęęĚęęęę": 927,
      "ĀĀĘĀĔ": 928,
      "ęěĘĘęęęę": 929,
      "Ěęęėę": 930,
      "ęğğ": 931,
      "ęěėĘęęĘ": 932,
      "ĀĀĜĀĖ": 933,
      "ĀĞĚ": 934,
      "ęĘęęęęĘę": 935,
      "ęĚęęęęĚę": 936,
      "đĞ": 937,
      "ĒęęĚ": 938,
      "Ēęęě": 939,
      "ēĜ": 940,
      "ĕęę": 941,
      "Ėğ": 942,
      "ĚęęęĚ": 943,
      "Ĝĕ": 944,
      "Ġ#": 945,
      "ęęĘĘęęė": 946,
      "ęęėęęĘ": 947,
      "ęęėĘęęęę": 948,
      "ęęęĘęęęęĚ": 949,
      "ęĜęĘęęĘ": 950,
      "ęĖęęė": 951,
      "ęĚęęęęęęęĚ": 952,
      "ęĝęęĚ": 953,
      "ęĚĚĘęęĘ": 954,
      "ęĘĚęęęĘ": 955,
      "ęĘĚěęęĚ": 956,
      "ęěĚęęęĚ": 957,
      "ęėĘĚęęĚ": 958,
      "ĀĀĖĀě": 959,
      "ĀĀĖĀĖ": 960,
      "ĀĀěĀĝ": 961,
      "ĀĀĜĀĚ": 962,
      "ęĚĖĘęęĘ": 963,
      "!Ę": 964,
      "!ĝ": 965,
      "!Ğ": 966,
      "\"ğ": 967,
      "đĚ": 968,
      "Ēęęęę": 969,
      "ēĔ": 970,
      "ĕęęęęĚ": 971,
      "ĖęęĔ": 972,
      "ĖęęĘę": 973,
      "ėĚęęęę": 974,
      "ğęęęę": 975,
      "ęĚęęĘę": 976,
      "ęĘĒ": 977,
      "ęĘęėęęęę": 978,
      "ęĘęĚęęęęĘ": 979,
      "ęęĚĘęęĘ": 980,
      "ęěē": 981,
      "ęęėěęęĘ": 982,
      "ęĜĚęęęę": 983,
      "ęĖē": 984,
      "ęĖęęęęĘ": 985,
      "ęĖęęęęĚ": 986,
      "ęęĜęęęĚ": 987,
      "ęĘęęęęęęęĘ": 988,
      "ęĕĔ": 989,
      "ęĕĞ": 990,
      "ęĚĘěęęĘ": 991,
      "ęęęęęęęęęęęęęĘęęęę": 992,
      "ęĚěĘęęě": 993,
      "ęěĘęęęĘ": 994,
      "ęĘėęęęė": 995,
      "ĀĀĖĀĘ": 996,
      "ĀĀěĀĖ": 997,
      "ęēĖ": 998,
      "ęęęĚęęęęę": 999,
      "ęęęĘęęęęęęĚ": 1000,
      "ĀĀĕĀĚ": 1001,
      "ĀĀĔĀĘ": 1002,
      "ęęęęĘĚĚęęęę": 1003,
      "ęĘęĚęęě": 1004,
      "ĀĀĐĀ": 1005,
      "ĀĀ#Ā": 1006,
      "!\"": 1007,
      "!Ě": 1008,
      "đĕ": 1009,
      "ĕęęęęĘ": 1010,
      "ėęĚęęęę": 1011,
      "ėėęęĘ": 1012,
      "ėęęē": 1013,
      "ėęęęęĚĘ": 1014,
      "ěę": 1015,
      "ğĀĀ": 1016,
      "Ġę": 1017,
      "ęęĘĚęęė": 1018,
      "ęěęĚęęęę": 1019,
      "ęęęęęęęęĘĚ": 1020,
      "ęęěĚęęęę": 1021,
      "ęęėĚęęė": 1022,
      "ęĘęęęęęęě": 1023,
      "ęĕğ": 1024,
      "ęĝĔ": 1025,
      "ęĘĘĘęęĚ": 1026,
      "ęĘĘĘęęė": 1027,
      "ěęęęęė": 1028,
      "ęěĚėęęĚ": 1029,
      "ęĘěėęęĚ": 1030,
      "ęĘėĚęęęę": 1031,
      "ęğě": 1032,
      "ĀĀĖĀĕ": 1033,
      "ęēė": 1034,
      "ĀĀĜĀě": 1035,
      "ĚĘęęĜ": 1036,
      "ĀĀĕĀĜ": 1037,
      "ĀĞĘ": 1038,
      "ęĚĜĘęęĚ": 1039,
      "ĀĀ$Ā": 1040,
      "ęęęęęęęęęęęęęęęęęęęęęęęęę": 1041,
      "\"Ě": 1042,
      "Ĕę": 1043,
      "Ĕęęĕ": 1044,
      "ĖĐ": 1045,
      "Ěęęęęęęęę": 1046,
      "ĜęęĔ": 1047,
      "ĜęęĞ": 1048,
      "ĝęęĝ": 1049,
      "ĞĞ": 1050,
      "ĞęęĜ": 1051,
      "ğęęĚ": 1052,
      "ęĚęěęęęę": 1053,
      "ęęĘĘ": 1054,
      "ęęĘĚęęĚ": 1055,
      "ęęęĚęęě": 1056,
      "ęĜğ": 1057,
      "ęĜęęęęĚ": 1058,
      "ęęĖĘęęĘ": 1059,
      "ęęĜęęęě": 1060,
      "ęĚęęęęęęĚęęęę": 1061,
      "ęĘĘĚęęĘę": 1062,
      "ęęęĐ": 1063,
      "ęĞęęęę": 1064,
      "ĀĀęĀĔ": 1065,
      "ęěĘėęęĘ": 1066,
      "ęěĚĚęęĚ": 1067,
      "ęĚėėęęĘ": 1068,
      "ęĘěęęęě": 1069,
      "ęėĚĚęęĚ": 1070,
      "ĀĀĖĀĜ": 1071,
      "ęęęĖęęęę": 1072,
      "ęęęĖęęĚ": 1073,
      "ęěėėęęĘ": 1074,
      "ĀĀĕĀĖ": 1075,
      "ĀĀĝĀě": 1076,
      "ĕĚęęĕ": 1077,
      "ęęęęęęęęęęęęęęęęęęęęęę": 1078,
      "!ė": 1079,
      "Ēĝ": 1080,
      "ĒęęĜ": 1081,
      "ēē": 1082,
      "Ėĕ": 1083,
      "ĖĘęęĘ": 1084,
      "ėęęęė": 1085,
      "ěęęē": 1086,
      "ĠęęĜ": 1087,
      "ęęęęęęě": 1088,
      "ęĘęěęęĘ": 1089,
      "ęĘęěęęĚ": 1090,
      "ęęĚĘ": 1091,
      "ęęĚěęęęę": 1092,
      "ĀĀ,": 1093,
      "ęěęĚęęĚ": 1094,
      "ęěęėęęĘ": 1095,
      "ęėęęęĘ": 1096,
      "ęėĘęęĘ": 1097,
      "ęęėėęęĘ": 1098,
      "ęĜęęě": 1099,
      "ęĜĘęęęę": 1100,
      "ęĖėęęęę": 1101,
      "ęęĖęęęĘ": 1102,
      "ęĚęęęęęęęĘ": 1103,
      "ęĚęęęęęęĘęęęę": 1104,
      "ęĘęęęęęęė": 1105,
      "ęĝğ": 1106,
      "ęĚĚĚęęĘ": 1107,
      "ęĚĚĘęęě": 1108,
      "ęĚĘęęęĚ": 1109,
      "ęĚĘĚęęĚ": 1110,
      "ęĘĚĘęęě": 1111,
      "ęĘĘĚęęĚ": 1112,
      "ěęęęęėĘ": 1113,
      "ęĔĕ": 1114,
      "ĀĀĘĀē": 1115,
      "ęěĚĘęęęę": 1116,
      "ęěĚĘęęĘ": 1117,
      "ęěĚėęęęę": 1118,
      "ĀĀĚĀĝ": 1119,
      "ĀĀĚĀĔ": 1120,
      "ęĘěĚęęě": 1121,
      "ęĘėĚęęė": 1122,
      "ęėĘęęęĚ": 1123,
      "ęėĘĘęęĘ": 1124,
      "ęğĘ": 1125,
      "ĀĕĘ": 1126,
      "ęěěęęęĚ": 1127,
      "ęěěėęęĚ": 1128,
      "ęěėęęęĘ": 1129,
      "ęěėĚęęĘ": 1130,
      "ĀĀĕĀĝ": 1131,
      "ęĜĚęęęĘ": 1132,
      "ěĚęęĜ": 1133,
      "ęĘĖĚęęĘ": 1134,
      "ĀğĘ": 1135,
      "\"ě": 1136,
      "\"ĀĀ": 1137,
      "Ēęęė": 1138,
      "ēęęĖ": 1139,
      "ėęę": 1140,
      "ėęęęęĘĚ": 1141,
      "ĜęęĘę": 1142,
      "Ğęęě": 1143,
      "Ğęęė": 1144,
      "ĠęęĚ": 1145,
      "Ġęęě": 1146,
      "ęĘęęĜ": 1147,
      "ęęĚěęęĚ": 1148,
      "ęęĚĚęęě": 1149,
      "ęěėęęęę": 1150,
      "ęėęĘęęĘ": 1151,
      "ęėęěęęĚ": 1152,
      "ęĜē": 1153,
      "ęęĜĚęęě": 1154,
      "ęĘęęęęęęęĚ": 1155,
      "ęĚĚęęęęęęęęęęęę": 1156,
      "ęĚĚęęęĚę": 1157,
      "ęĘĚėęęęę": 1158,
      "ęĘĘěęęĚ": 1159,
      "ęęĘęęęęęęĘęęęę": 1160,
      "ęĔĔ": 1161,
      "ęĔĞ": 1162,
      "ĀĀĘĀĞ": 1163,
      "ĀĀęĀē": 1164,
      "ęěĘėęęęę": 1165,
      "Ęęęėę": 1166,
      "ęĚėęęęė": 1167,
      "ĀĀĚĀĞ": 1168,
      "ĀĀėĀĞ": 1169,
      "ęęęĜęęęę": 1170,
      "ęěěęęęě": 1171,
      "ęęęĚęęęęęęĚ": 1172,
      "ĚĚęęĜ": 1173,
      "ęĘęęĚę": 1174,
      "ĚęęęęĘĘęęęę": 1175,
      "ęĜĘĘęęĘ": 1176,
      "ęĚĖęęęĘ": 1177,
      "ĀĀĔĀė": 1178,
      "ęĘĖęęęĘ": 1179,
      "ĀĀĞĀĚ": 1180,
      "ĀĀĞĀė": 1181,
      "ĀĀĞĀĖ": 1182,
      "ęĘęĚęęė": 1183,
      "ĀĀďĀ": 1184,
      "ĀĀĎĀ": 1185,
      "\"Ğ": 1186,
      "Đė": 1187,
      "ĐĚ": 1188,
      "ēę": 1189,
      "ēęęĕ": 1190,
      "ĕĔ": 1191,
      "Ėęę": 1192,
      "ėęę!": 1193,
      "ĘĜ": 1194,
      "ěęęęě": 1195,
      "ěęęęęĚĚ": 1196,
      "ěęęęęĘĚ": 1197,
      "ĠĀě": 1198,
      "ęĚęęęęęęęęęęęęę": 1199,
      "ęĘđ": 1200,
      "ęĘęėęęĚ": 1201,
      "ęĘęęęęęęęęęęęęę": 1202,
      "ęęĘęęĘ": 1203,
      "ęęĘėęęĘ": 1204,
      "ęęĚęęęęęęęęęęęę": 1205,
      "ęėęęĜ": 1206,
      "ęėęěęęĘ": 1207,
      "ĘęęęęěĚ": 1208,
      "ĚęęęęęęĘęęęę": 1209,
      "ęęęĘęęĘę": 1210,
      "ęĖĘęęęę": 1211,
      "ęęĜęęęę": 1212,
      "ęĚęęęęĚĚ": 1213,
      "ęĘĚĚęęĘ": 1214,
      "ęĘĚěęęęę": 1215,
      "ęĘĚĚęęě": 1216,
      "ęĘĚĖęęĚ": 1217,
      "ęęęęęęęęęęęęęĚ": 1218,
      "ęěĚęęęĘ": 1219,
      "ęĘėěęęĘ": 1220,
      "ęęęĜęęĘ": 1221,
      "ĀĀĖĀĝ": 1222,
      "ĀĀěĀĕ": 1223,
      "ĀĀěĀē": 1224,
      "ęėęęęęė": 1225,
      "ęėėęęęĘ": 1226,
      "ęĚęęĚę": 1227,
      "ĀĀĜĀĕ": 1228,
      "ęĚĜęęęĚ": 1229,
      "ėĚęęĖ": 1230,
      "ęėěęęęĚ": 1231,
      "ėĘęęĖ": 1232,
      "ĀĀĝĀĘ": 1233,
      "ęĒĘ": 1234,
      "ęĘęęęęĚę": 1235,
      "ĀĀĞĀě": 1236,
      "ĀĀğĀĘ": 1237,
      "ęĚęĘęęě": 1238,
      "ęĚęĚęęė": 1239,
      "ĀĀ%Ā": 1240,
      "!!": 1241,
      "\"!": 1242,
      "#!": 1243,
      "#Ğ": 1244,
      "Đĕ": 1245,
      "ĐĖ": 1246,
      "đē": 1247,
      "Ēđ": 1248,
      "ēğ": 1249,
      "ĖĚęęĘ": 1250,
      "ėėęęęę": 1251,
      "ĚĘęęĚ": 1252,
      "ěĔ": 1253,
      "ěęĘęęęę": 1254,
      "ěėęęęę": 1255,
      "ěěęęęę": 1256,
      "ěėęęĚ": 1257,
      "ěĘęęě": 1258,
      "ěěęęĚ": 1259,
      "ĜĔ": 1260,
      "ĜĀĀ": 1261,
      "ĜĘęęęę": 1262,
      "ĜĘęęĚ": 1263,
      "ĝĕ": 1264,
      "ĝė": 1265,
      "ęĚęęĖ": 1266,
      "ęĚęěęęĘ": 1267,
      "ęěĒ": 1268,
      "ęėęęĖ": 1269,
      "ęėĚęęĘ": 1270,
      "ęęěĘęęęę": 1271,
      "ĚęęęęĚĚ": 1272,
      "ęĖęęě": 1273,
      "ęĘęęęęęęĘęęęę": 1274,
      "ęĚĚĚęęě": 1275,
      "ęĚĚėęęě": 1276,
      "ęĚĘĚęęė": 1277,
      "ęĘĚěęęě": 1278,
      "ęĞĞ": 1279,
      "ęĔęęĚ": 1280,
      "ęĚěėęęĚ": 1281,
      "ęěĚĚęęĘ": 1282,
      "ęĚėĘęęęę": 1283,
      "ęĘěěęęĚ": 1284,
      "ęğĝ": 1285,
      "ĀĜĚ": 1286,
      "ĀĀĖĀĔ": 1287,
      "ęěěĘęęě": 1288,
      "ęěęęęęė": 1289,
      "ęėėęęęė": 1290,
      "ĀĀĝĀĚ": 1291,
      "ĀĀĝĀĖ": 1292,
      "ĀĀĝĀĕ": 1293,
      "ęĘĜęęęě": 1294,
      "ęĘĜĚęęě": 1295,
      "ĀĀĔĀě": 1296,
      "ęęęĘęęĚę": 1297,
      "ĀĀğĀĔ": 1298,
      "ĀĀēĀĘ": 1299,
      "ĀĀēĀĖ": 1300,
      "ĀĀ&Ā": 1301,
      "#Ě": 1302,
      "đĜ": 1303,
      "đęęĘ": 1304,
      "ēęęĝ": 1305,
      "ĕę": 1306,
      "ĖĔ": 1307,
      "Ėęęē": 1308,
      "ĘęęęĘ": 1309,
      "ęĎ": 1310,
      "ěęęğ": 1311,
      "Ĝęęęě": 1312,
      "ĝ\"": 1313,
      "ĝęęĔ": 1314,
      "Ġ\"": 1315,
      "Ġęęė": 1316,
      "ęĘęĘęęęęĘ": 1317,
      "ęĘęęęęęęęęęęę": 1318,
      "ęęĘĘęęĚ": 1319,
      "ęęĚĖęęĚ": 1320,
      "ĀĀ-": 1321,
      "ęěĘęęĚ": 1322,
      "ęěęėęęĚ": 1323,
      "ęėęĚęęě": 1324,
      "ęęęęęęęęĚĚ": 1325,
      "Ěęęęęė": 1326,
      "ĚęęęęęęĚęęęę": 1327,
      "ĚęęęęěĚ": 1328,
      "ęęęĘęęĖ": 1329,
      "ęĜěęęęę": 1330,
      "ęĕē": 1331,
      "ęĚĚĘęęĚę": 1332,
      "ęęęęĘęĚęęęę": 1333,
      "ęĘĘėęęęę": 1334,
      "ęĘĘėęęĘ": 1335,
      "ęęęėęęě": 1336,
      "ęĔĝ": 1337,
      "ĀĀęĀĞ": 1338,
      "ęěĚĘęęě": 1339,
      "ĀĀĚĀğ": 1340,
      "ęĘěĘęęě": 1341,
      "ęėĚĚęęĘ": 1342,
      "ęěěĚęęĚ": 1343,
      "ęėęęęęě": 1344,
      "ĚęęęęĘęĚęęęę": 1345,
      "ęĜĚĘęęĚ": 1346,
      "ěĘęęĜ": 1347,
      "ĀĀĔĀĚ": 1348,
      "ĀĀĞĀĘ": 1349,
      "ęĖėęęęĘ": 1350,
      "ĀĀēĀĚ": 1351,
      "ęęęęĚĘĘęęęę": 1352,
      "ęęĚĚęęĚę": 1353,
      "!ĀĀ": 1354,
      "\"\"": 1355,
      "ĐĐ": 1356,
      "ĐĜ": 1357,
      "đĒ": 1358,
      "ēĕ": 1359,
      "ēęęĔ": 1360,
      "Ĕęę": 1361,
      "ĖęęęęĘĘ": 1362,
      "Ęğ": 1363,
      "ĘĚęęęę": 1364,
      "ĘĚęęĘ": 1365,
      "ĝęęęęĘ": 1366,
      "Ğ!": 1367,
      "ğğ": 1368,
      "ğęęĖ": 1369,
      "ęĚęęęęęęęę": 1370,
      "ęĘęėęęĘ": 1371,
      "ęęĘėęęęę": 1372,
      "ęęĘĘęęĘę": 1373,
      "ęěęęęĚ": 1374,
      "ęėĒ": 1375,
      "ęėęĘęęĚ": 1376,
      "ęęěėęęĚ": 1377,
      "ęęěěęęĚ": 1378,
      "ęęėęęĚ": 1379,
      "ęęėĚęęęę": 1380,
      "ęęĖĚęęė": 1381,
      "ęĚęęęęĘęęĘ": 1382,
      "ęĚĚĘ": 1383,
      "ęĚĚěęęĚ": 1384,
      "ęĚĘĜęęĘ": 1385,
      "ęĘĚĘęęĘ": 1386,
      "ęĘĚěęęĘ": 1387,
      "ęĘĘěęęęę": 1388,
      "ęęę\"": 1389,
      "ęĞĔ": 1390,
      "ęĞęęĘ": 1391,
      "ęęęęęęęęęęęęęĚęęęę": 1392,
      "ęĔęęęę": 1393,
      "ęĚěĘęęęę": 1394,
      "ęěĘĘęęĚ": 1395,
      "ęěĚĚęęęę": 1396,
      "ęĚėĚęęė": 1397,
      "ęėĚĚęęě": 1398,
      "ĀĀėĀĔ": 1399,
      "ęėĘěęęĘ": 1400,
      "ęğĞ": 1401,
      "ęğęęęę": 1402,
      "ĀĀěĀĜ": 1403,
      "ĀĀěĀĔ": 1404,
      "ęęęĘęęęęęę": 1405,
      "ęėęęęęęęĘ": 1406,
      "ęėėĚęęĘ": 1407,
      "ėęęėę": 1408,
      "ęėěęęęě": 1409,
      "ĀĀĝĀĜ": 1410,
      "ĀĀĝĀĞ": 1411,
      "ęĘĜėęęĚ": 1412,
      "ĀĀ!ĀĘ": 1413,
      "ęęęęęęęęęĘę": 1414,
      "ĀĀ(Ā": 1415,
      "ęęęęęęęęęęęęęęęęęęęęęęęęęę": 1416,
      "!Ė": 1417,
      "\"ĕ": 1418,
      "$ğ": 1419,
      "ďĖ": 1420,
      "đğ": 1421,
      "đęęĚ": 1422,
      "đęęě": 1423,
      "ēęęĞ": 1424,
      "ĔĀĀ": 1425,
      "ĔęęĔ": 1426,
      "Ėęęęė": 1427,
      "ėĎ": 1428,
      "ėĚęęė": 1429,
      "Ěęęęě": 1430,
      "ĚĚęęě": 1431,
      "ĚęęęĚę": 1432,
      "ĜĚęęĚ": 1433,
      "Ĝęęğ": 1434,
      "Ğęęĝ": 1435,
      "ęĚĒ": 1436,
      "ęĚęĕ": 1437,
      "ęĚęęĕ": 1438,
      "ęĚęęęĚę": 1439,
      "ęĘęĜęęęę": 1440,
      "ęĘęĜęęĘ": 1441,
      "ęęĘęęĚ": 1442,
      "ęęĘęęęĘęęĚ": 1443,
      "ęęĚęęęĜ": 1444,
      "ĀĀ.": 1445,
      "ęěĜęęęę": 1446,
      "ęėěęęęę": 1447,
      "ęėęěęęęę": 1448,
      "ęęęęęęęęęęĚęęęę": 1449,
      "ęęęęęęęęęęĚę": 1450,
      "ęęęęęęęęĚęęęęęę": 1451,
      "ęęėĘęęĚ": 1452,
      "ęęėěęęęę": 1453,
      "Ěęęęęě": 1454,
      "ęęęĚęęĘę": 1455,
      "ęĜęęĖ": 1456,
      "ęĖĚęęęę": 1457,
      "ęĖęĚęęęę": 1458,
      "ęęĖęęęė": 1459,
      "ęĕĒ": 1460,
      "ęĚĚěęęĘ": 1461,
      "ęęęęĚęĘęęęę": 1462,
      "ęĚĘĘęęęęĚ": 1463,
      "ęĘĚęęęĜ": 1464,
      "ęĘĚĜęęĚ": 1465,
      "ęĘĘĚęęė": 1466,
      "ėęęęęęęĚ": 1467,
      "ėęęĚęėĚ": 1468,
      "ęĔğ": 1469,
      "ęĚěĚęęęę": 1470,
      "ęěĘęęęė": 1471,
      "ęěĚěęęĚ": 1472,
      "ęėĚęęęě": 1473,
      "ęęęęęęęęęęęęęęęęęęęęęęęęęęę": 1474,
      "ęğĖ": 1475,
      "ęğė": 1476,
      "ęēě": 1477,
      "ęēĜ": 1478,
      "Ėęęęęė": 1479,
      "ęěěĘęęęę": 1480,
      "ęěěĚęęě": 1481,
      "ĀĝĘ": 1482,
      "ĚĚĘęęĚ": 1483,
      "ęėėěęęĘ": 1484,
      "ĀĀĜĀĜ": 1485,
      "ĀĀĕĀė": 1486,
      "ėĚęęęĚ": 1487,
      "ĀĀĝĀė": 1488,
      "ęĜĘęęęĘ": 1489,
      "ęĖĚęęęĚ": 1490,
      "ęĖĚĚęęĚ": 1491,
      "ĀĀĞĀē": 1492,
      "ĚęęęęĚĚęęęę": 1493,
      "ĚęęęęĚęĚęęęę": 1494,
      "ęěĜęęęĚ": 1495,
      "ęěĜęęęě": 1496,
      "ĀĀğĀě": 1497,
      "ĀĀğĀĜ": 1498,
      "ęėĖęęęĘ": 1499,
      "ĚęęĜę": 1500,
      "ęęęĘęęĘęęęĘ": 1501,
      "ĀĀĒĀě": 1502,
      "ęĜėęęęĘ": 1503,
      "ĖĚęęĕ": 1504,
      "ěĝęęě": 1505,
      "ęĖęęęęě": 1506,
      "ĀĀ$ĀĘ": 1507,
      "ęĘęĚęęĚę": 1508,
      "ęėęęęęĚę": 1509,
      "\"Ę": 1510,
      "$ĝ": 1511,
      "ďē": 1512,
      "đęęĖ": 1513,
      "ĒĎ": 1514,
      "ĒęęĖ": 1515,
      "ēĐ": 1516,
      "Ĕęęęė": 1517,
      "ĕď": 1518,
      "ĕĘęęĘ": 1519,
      "ĕęęĔ": 1520,
      "ĕęęęęĚĘ": 1521,
      "Ėę": 1522,
      "ĖĖęęĘ": 1523,
      "ėęęęĚ": 1524,
      "ėĘęęĚ": 1525,
      "ėĖęęĘ": 1526,
      "Ęę": 1527,
      "Ęęę": 1528,
      "ĚĜ": 1529,
      "Ěęę": 1530,
      "ĚęęęĘ": 1531,
      "Ěęęęęęęęęęęę": 1532,
      "ě\"": 1533,
      "ĜĐ": 1534,
      "Ĝę": 1535,
      "Ĝęę": 1536,
      "ĜĘęęĜ": 1537,
      "ĝęęęęĚ": 1538,
      "ĞęęĖ": 1539,
      "ęęęęęęĘę": 1540,
      "ęęęęęęĚę": 1541,
      "ęĚęĖ": 1542,
      "ęĚĜęęęę": 1543,
      "ęĚęęęęęęęęęęęęęęęęęęęę": 1544,
      "ęĚęĜęęĘ": 1545,
      "ęĘęęĔ": 1546,
      "ęĘĖęęęę": 1547,
      "ęĘęĚęęęęĚ": 1548,
      "ęęĘĖęęęę": 1549,
      "ęęĘĚęęĘę": 1550,
      "ęęĚĚęęĘ": 1551,
      "ęęĚėęęęę": 1552,
      "ęęĚĜęęęę": 1553,
      "ĀĀ/": 1554,
      "ĀĀą": 1555,
      "ĀĀć": 1556,
      "ĀĀĈ": 1557,
      "ęěęęĖ": 1558,
      "ęėęĚęęęęĘ": 1559,
      "ęęėĘęęė": 1560,
      "ĚęęęęęĘ": 1561,
      "ĚęęęęęęęĚ": 1562,
      "ęęęĚęęĚę": 1563,
      "ęĖęĚęęĘ": 1564,
      "ęęĜĚęęĚ": 1565,
      "ęĚęęęęęęĘęęęęęę": 1566,
      "ęĘęęęęĘęęĘ": 1567,
      "ęĘęęęęĚęęĚ": 1568,
      "ęĕęęĜ": 1569,
      "ęĝęęě": 1570,
      "ęĚĘĘęęĘę": 1571,
      "ęĘĘęęęě": 1572,
      "ęĘĘĘęęęęĚ": 1573,
      "ęĞğ": 1574,
      "ęęĚęęęęęęĘęęęę": 1575,
      "ęěĘĚęęĚ": 1576,
      "ęěĘĘęęė": 1577,
      "ęěĘĖęęĘ": 1578,
      "ęĚėĖęęĘ": 1579,
      "ĀĀĚĀē": 1580,
      "ęėĚěęęĚ": 1581,
      "ęęęĜę": 1582,
      "ĀĀĖĀĞ": 1583,
      "ĀĀěĀĞ": 1584,
      "ęęęĖę": 1585,
      "ęēĚ": 1586,
      "ęēęęĘ": 1587,
      "Ėęęęęě": 1588,
      "ęěęęęęęęĘ": 1589,
      "ęęęĚęęęęęę": 1590,
      "ĚĚĘęęęę": 1591,
      "ĚęęęęĘęĘęęęę": 1592,
      "ĀĀĜĀĝ": 1593,
      "ĚĘĘęęęę": 1594,
      "ęĜĚĘęęęę": 1595,
      "ęĚĜėęęĚ": 1596,
      "ęĚĜĘęęě": 1597,
      "ěĚĘęęęę": 1598,
      "ėĚĚęęĚ": 1599,
      "ęėěĘęęĚ": 1600,
      "ęėěĚęęĚ": 1601,
      "ęĚĖĚęęĘ": 1602,
      "ĀĀĔĀĜ": 1603,
      "ęĖĘęęęĚ": 1604,
      "ĚęęęęĚęĘęęęę": 1605,
      "ęęęęĚĚĘęęĚ": 1606,
      "ęėĜęęęĚ": 1607,
      "ęėĜĚęęĚ": 1608,
      "ĀĀĒĀė": 1609,
      "ĀĀĒĀĞ": 1610,
      "ęĜėĘęęė": 1611,
      "ĀĀđĀĘ": 1612,
      "ĀĀđĀě": 1613,
      "ęĚęĘęęĖ": 1614,
      "ęĚęĘęęĘę": 1615,
      "ĀĀ)Ā": 1616,
      "\"ĝ": 1617,
      "#ğ": 1618,
      "%ě": 1619,
      "Ďė": 1620,
      "ďĕ": 1621,
      "ďĚ": 1622,
      "Đğ": 1623,
      "ĐęęĚ": 1624,
      "đęęė": 1625,
      "Ē!": 1626,
      "Ēę": 1627,
      "Ĕęęğ": 1628,
      "ĕęęē": 1629,
      "ĕęęĘę": 1630,
      "Ėěęęęę": 1631,
      "ėę": 1632,
      "ėęě": 1633,
      "Ęě": 1634,
      "ĘėęęĘ": 1635,
      "Ęęęē": 1636,
      "ĘęęęĘę": 1637,
      "ęĀĀĘĀ": 1638,
      "Ěęęęęęęęęęęęę": 1639,
      "ěęę": 1640,
      "ěĚęęě": 1641,
      "ěĖęęĚ": 1642,
      "ĜėęęĚ": 1643,
      "ĜĜęęĚ": 1644,
      "ĝĀĀ": 1645,
      "ĝĘęęě": 1646,
      "Ğĕ": 1647,
      "ğęęě": 1648,
      "Ġ$": 1649,
      "ęĚĚęęĘ": 1650,
      "ęĚęęĝ": 1651,
      "ęĚęĔ": 1652,
      "ęĘęęĕ": 1653,
      "ęĘěęęĘ": 1654,
      "ęĘęęęęęęęęęęęęęęęęęęęę": 1655,
      "ęęĘěęęęę": 1656,
      "ęęĚĜęęĚ": 1657,
      "ęęĚĘęęĚę": 1658,
      "ęěđ": 1659,
      "ęěęĖ": 1660,
      "ęėęęĝ": 1661,
      "ęėęėęęęę": 1662,
      "ęėĜęęęę": 1663,
      "ęęęęęęęęęęĘęęęę": 1664,
      "ęęěėęęě": 1665,
      "ęęěęęęĚę": 1666,
      "ęęėěęęė": 1667,
      "ĘęęęęęęĘęęęę": 1668,
      "ĚęęęęĜĚ": 1669,
      "ęęęĘęęęęęęęę": 1670,
      "ęęęĘęęęęęęęęęęę": 1671,
      "ęĜĒ": 1672,
      "ęĜęĘęęęę": 1673,
      "ęĖęěęęęę": 1674,
      "ęęĜėęęĚ": 1675,
      "ęĚęęęęęęĜ": 1676,
      "ęĚęęęęĚęęĚ": 1677,
      "ęĚęęęęęęęĚęęęęę": 1678,
      "ęĘęęęęĚęęĘ": 1679,
      "ęĝē": 1680,
      "ęĝęęęęĚ": 1681,
      "ęĚĚĖęęĚ": 1682,
      "ęĚĚĘęęęęĘ": 1683,
      "ęĚĚĘęęĜ": 1684,
      "ęĚĚĚęęĚę": 1685,
      "ęęęęĚęĚęęęę": 1686,
      "ęĚĘęęęĘęęĘ": 1687,
      "ęĘĘĜęęĘ": 1688,
      "ęęĚęęęęęęĘę": 1689,
      "ęęĚęęęęęĘĘęęęę": 1690,
      "ėęęĚęęĚ": 1691,
      "ĀĀĘĀğ": 1692,
      "ĀĀĘĀĚĘ": 1693,
      "ęĚěėęęě": 1694,
      "ęĚěĖęęĚ": 1695,
      "ĀĀęĀğ": 1696,
      "ęěĘĚęęė": 1697,
      "ęěĚęęęě": 1698,
      "ęĚėĘęęė": 1699,
      "ęĘěĚęęęę": 1700,
      "ęĘėĜęęĘ": 1701,
      "ęėĚĘęęęę": 1702,
      "ęėĚėęęě": 1703,
      "ęėĚĜęęĚ": 1704,
      "ĀĀėĀē": 1705,
      "ęęęĖęęĘ": 1706,
      "ęēĝ": 1707,
      "ęěěĘęęĚ": 1708,
      "ęěęęęęęęĚ": 1709,
      "ęėėĘęęęę": 1710,
      "ęėėĘęęĘ": 1711,
      "ęėėěęęė": 1712,
      "ĀĀĜĀĞ": 1713,
      "ĀĀĕĀğ": 1714,
      "ěęęěę": 1715,
      "ęĜĚęęęĚ": 1716,
      "ęĚĜęęęě": 1717,
      "ėĚęęĕ": 1718,
      "ĀĀĝĀĔ": 1719,
      "ęĘĜęęęĚ": 1720,
      "ęĘĜĘęęě": 1721,
      "ěĘęęĝ": 1722,
      "ęĖĘęęęĘ": 1723,
      "ęĖĚěęęĚ": 1724,
      "ĀĀĞĀĜ": 1725,
      "ęęęęĘĘĚęęęę": 1726,
      "ęęęĘęęĘęęęęęęęę": 1727,
      "ęęęęĚĚĚęęęę": 1728,
      "ęėĜėęęĚ": 1729,
      "ĀĀĒĀĘ": 1730,
      "ĀĀĒĀĖ": 1731,
      "ĀĀĒĀĕ": 1732,
      "ęĖěęęęĜ": 1733,
      "ĀĀđĀĚ": 1734,
      "ĀĀ!Āě": 1735,
      "ĀĀ\"Āě": 1736,
      "Ėěęęĕ": 1737,
      "ĀĀĐĀĖ": 1738,
      "ęĚęĘęęĚę": 1739,
      "ęĘęĘęęě": 1740,
      "ĀĀ'Ā": 1741,
      "\"#": 1742,
      "#Ĝ": 1743,
      "$Ę": 1744,
      "ĎĚ": 1745,
      "ĐĞ": 1746,
      "đĔ": 1747,
      "ēĒ": 1748,
      "Ĕđ": 1749,
      "ĕęęĞ": 1750,
      "ĖĒ": 1751,
      "Ėē": 1752,
      "ĖĘęęęę": 1753,
      "Ėęĝ": 1754,
      "ĖěęęĘ": 1755,
      "ĖĘęęė": 1756,
      "ėď": 1757,
      "ėėęęĚ": 1758,
      "ėĘęęė": 1759,
      "ėěęęė": 1760,
      "Ęĝ": 1761,
      "ĘĘęęĘ": 1762,
      "Ęęęęęęęęęęęęę": 1763,
      "ĘęęĒ": 1764,
      "Ęęęęęęęęęęęę": 1765,
      "ę%": 1766,
      "ĚęĚ": 1767,
      "Ěęęğ": 1768,
      "ěėęęě": 1769,
      "Ĝē": 1770,
      "ĜĚęęě": 1771,
      "ĞęęęęĘ": 1772,
      "ğęęė": 1773,
      "ĠĔ": 1774,
      "Ġęęĝ": 1775,
      "ĠĀĝ": 1776,
      "Ġěęęě": 1777,
      "ĠĀĀĔ": 1778,
      "ęęęęĜ": 1779,
      "ęęęęęęė": 1780,
      "ęĚęęęęęęęęęęęęęęęę": 1781,
      "ęĚĖęęęę": 1782,
      "ęĚęĚęęęęĚ": 1783,
      "ęĚęěęęĚ": 1784,
      "ęĚęĖęęĘ": 1785,
      "ęĚęĜęęĚ": 1786,
      "ęĘęĜ": 1787,
      "ęĘęĔ": 1788,
      "ęĘęĘęęęęĚ": 1789,
      "ęĘęėęęė": 1790,
      "ęęĘęęęęęęęęęęęę": 1791,
      "ęęĚęęęė": 1792,
      "ęěęęě": 1793,
      "ęěęęĜ": 1794,
      "ęěĚęęĚ": 1795,
      "ęěęěęęęę": 1796,
      "ęěęėęęęę": 1797,
      "ęěęĘęęęęĘ": 1798,
      "ęěęěęęĘ": 1799,
      "ęěĚęęęęę": 1800,
      "ęěęĘęęė": 1801,
      "ęėđ": 1802,
      "ęęęęęęęęĘęęęęĚ": 1803,
      "ęęėęęęĘę": 1804,
      "ęęėĖęęĘ": 1805,
      "ĘęęęęęĘ": 1806,
      "Ęęęęęęęě": 1807,
      "Ęęęęęęęė": 1808,
      "ĘęęęęėĘ": 1809,
      "Ěęęęęęęě": 1810,
      "ęĜęĚęęĚ": 1811,
      "ęĖĐ": 1812,
      "ęĖęęĜ": 1813,
      "ęĖęĚęęĚ": 1814,
      "ęęĖęęĚ": 1815,
      "ęęĜĘęęĚ": 1816,
      "ęĘęęęęęęĚęęęę": 1817,
      "ęĕęĚęęĚ": 1818,
      "ęĝ!": 1819,
      "ęĝęęė": 1820,
      "ęęęęĚė": 1821,
      "ęĚĘęęęęęęęęęęęę": 1822,
      "ęĚĘěęęė": 1823,
      "ęĚĘĖęęĘ": 1824,
      "ęĘĚęęęęęęęęęęęę": 1825,
      "ęĘĚĚęęĚę": 1826,
      "ęĘĘėęęĚ": 1827,
      "ęęęěęęě": 1828,
      "ęęęěęęęęĚ": 1829,
      "ęęęĎ": 1830,
      "ęĚěěęęĚ": 1831,
      "ęĚěĚęęě": 1832,
      "ęěĘěęęĘ": 1833,
      "ęěĘęęęĖ": 1834,
      "ęěĘėęęė": 1835,
      "ęĘěěęęęę": 1836,
      "ęėĚĚęęęę": 1837,
      "ęėĚęęęĘ": 1838,
      "ĀĀĖĀğ": 1839,
      "ęēĕ": 1840,
      "ĀĕĚ": 1841,
      "ęęęĘęęęęęęĘęęęę": 1842,
      "ĚĚĚ": 1843,
      "ęěėęęęė": 1844,
      "ęěėėęęė": 1845,
      "ęėėėęęĘ": 1846,
      "ęėėĘęęė": 1847,
      "ĚęęęęĘę": 1848,
      "ĀĀĜĀĔ": 1849,
      "ĚĘęęĞ": 1850,
      "ęęĒęĜ": 1851,
      "ĀĀĕĀĕ": 1852,
      "ĀĀĕĀĞ": 1853,
      "ęĜĚĘęęĘ": 1854,
      "ęĜĚĘęęė": 1855,
      "ĘęęęęĘęĚęęęę": 1856,
      "ěĚęęĝ": 1857,
      "ėĚĘęęĚ": 1858,
      "ėĚęęĔ": 1859,
      "ęėěĚęęě": 1860,
      "ėĘęęĕ": 1861,
      "ęĜĘėęęęę": 1862,
      "ęĜĘėęęĘ": 1863,
      "ęĘĜĚęęĚ": 1864,
      "ěĘĘęęęę": 1865,
      "ěĘęęęĘ": 1866,
      "ęĚĖĘęęė": 1867,
      "ęĘĖĘęęĘ": 1868,
      "ęĘĖęęęė": 1869,
      "ęĘĚęęęęĚ": 1870,
      "ęĒĚ": 1871,
      "ęěĜĘęęęę": 1872,
      "ęěĜĘęęĚ": 1873,
      "ĀĀğĀĖ": 1874,
      "ęęęĕęęĘ": 1875,
      "ęĜěĚęęĚ": 1876,
      "ĀĀĒĀĜ": 1877,
      "ěĝęęĚ": 1878,
      "ę!Ě": 1879,
      "ĀĀđĀė": 1880,
      "ĀĀđĀĜ": 1881,
      "ęĚĝęęęě": 1882,
      "ĀĀ\"Āė": 1883,
      "ĀĀďĀė": 1884,
      "ĀĀĎĀě": 1885,
      "ęęęęęęęęęĚę": 1886,
      "ēĘęęĔ": 1887,
      "ęĚęĚęęĚę": 1888,
      "!$": 1889,
      "#ě": 1890,
      "Ďĝ": 1891,
      "Đĝ": 1892,
      "Ēğ": 1893,
      "ēęę": 1894,
      "ĔĘęęĘ": 1895,
      "ĔęęĞ": 1896,
      "ĕęęęė": 1897,
      "ĕĚęęė": 1898,
      "Ėėęęė": 1899,
      "ĖęęęęĚĘ": 1900,
      "ėĐ": 1901,
      "ėĒ": 1902,
      "ėē": 1903,
      "ėĔ": 1904,
      "ėĚęęĚ": 1905,
      "ėęěęęęę": 1906,
      "ĘĔ": 1907,
      "ěď": 1908,
      "ěęĚęęęę": 1909,
      "ěĜęęęę": 1910,
      "ěĜęęĚ": 1911,
      "ěěęęě": 1912,
      "ěęęęęĚĘ": 1913,
      "ĜĚęęęę": 1914,
      "ĜĘęęě": 1915,
      "ĜěęęĚ": 1916,
      "Ĝěęęě": 1917,
      "ĜęęęęĘĘ": 1918,
      "ĜęęęęĚĚ": 1919,
      "ĝęęęĚ": 1920,
      "ĝęęĞ": 1921,
      "ĝĜęęĚ": 1922,
      "ĞĚęęě": 1923,
      "ĠĒ": 1924,
      "ĠĀĖ": 1925,
      "ĠĀĀĘĀ": 1926,
      "ĠęęęĞ": 1927,
      "ĠĀĀĖĀ": 1928,
      "ĠĀĀĚĀ": 1929,
      "ęĚęęĞ": 1930,
      "ęĚęęęęęęęęęęę": 1931,
      "ęĘęĖęęęę": 1932,
      "ęĘęęęęęęęęęęęĚ": 1933,
      "ęĘęĝęęĘ": 1934,
      "ęęĚĚęęė": 1935,
      "ęęĚĘęęęęĘ": 1936,
      "ĀĀă": 1937,
      "ĀĀĄ": 1938,
      "ęěęė": 1939,
      "ęěęęĕ": 1940,
      "ęěęęęęĚĚ": 1941,
      "ęėėęęĘ": 1942,
      "ęėĖęęęę": 1943,
      "ęėęĚęęė": 1944,
      "ęėęĜęęĚ": 1945,
      "ęęęęęęęęęĚęęęęę": 1946,
      "ęęěęęęĘ": 1947,
      "ęęėęęęĚ": 1948,
      "ęęėęęęĘęęĚ": 1949,
      "ęęęĚęęęęęęęęęęę": 1950,
      "ęĜęĘęęė": 1951,
      "ęĖęęĖ": 1952,
      "ęęĜėęęě": 1953,
      "ęĚęęęęĚęęĘ": 1954,
      "ęĚęęęęęęęĚęęęę": 1955,
      "ęĘęęęęęęĚęęęęęę": 1956,
      "ĘęęĚęęęęęęęę": 1957,
      "ęĚĚěęęęę": 1958,
      "ęĚĚęęęĜ": 1959,
      "ęĚĚĖęęęę": 1960,
      "ęĚĚĘęęĖ": 1961,
      "ęęęęĘę": 1962,
      "ęęęęĚę": 1963,
      "ęęęęĚĚęęęę": 1964,
      "ęĚĘěęęęę": 1965,
      "ęĚĘĘęęě": 1966,
      "ęĚĘėęęě": 1967,
      "ęĚĘĖęęęę": 1968,
      "ęĚĘėęęė": 1969,
      "ęĘĚĚęęęęĘ": 1970,
      "ęĘĚęęęĚęęĚ": 1971,
      "ęĘĘęęęęęęęęęęęę": 1972,
      "ęĘĘĚęęě": 1973,
      "ęĘĘęęęĚę": 1974,
      "ęĘĘĖęęĘ": 1975,
      "ęęĝĚęęĚ": 1976,
      "ęęĝęęęě": 1977,
      "ęęęď": 1978,
      "ėęęęęėĚ": 1979,
      "ęĞęęĚ": 1980,
      "ęĞęęė": 1981,
      "ęęĔę": 1982,
      "ęĔĒ": 1983,
      "ęĚěęęĚ": 1984,
      "ęĚěęęęĜ": 1985,
      "ęěĘěęęęę": 1986,
      "ęěĚĖęęĚ": 1987,
      "ęĚėěęęĘ": 1988,
      "ęĚėęęęĖ": 1989,
      "ęĚėěęęė": 1990,
      "ęĘěėęęě": 1991,
      "ęĘėĘęęęę": 1992,
      "ęĘėĘęęė": 1993,
      "ęĘėĜęęė": 1994,
      "ęėĚėęęĚ": 1995,
      "ęėĚěęęě": 1996,
      "ĀĀėĀğ": 1997,
      "ĀĀėĀĚĚ": 1998,
      "ęėĘĘęęęę": 1999,
      "ęėĘęęęė": 2000,
      "ęęēęĝ": 2001,
      "ĀĀěĀğ": 2002,
      "ęěěėęęě": 2003,
      "ęėęęęęęę": 2004,
      "ĖęęĚę": 2005,
      "ęěėěęęĘ": 2006,
      "ęěėęęęĖ": 2007,
      "ĚęęęęĘĘęęęęę": 2008,
      "ĀĀĕĀĔ": 2009,
      "ĜęęĚę": 2010,
      "ęĜĚėęęĘ": 2011,
      "ĘęęęęĘĚĚęęęę": 2012,
      "ěĚĚęęęę": 2013,
      "ęĘĜĘęęĚ": 2014,
      "ěĘęęĞ": 2015,
      "ĀĀĔĀĝ": 2016,
      "ĀĀĔĀĔ": 2017,
      "ęĖĘĚęęĚ": 2018,
      "ęĘĖĚęęė": 2019,
      "ęěĜĘęęě": 2020,
      "ĀĀğĀĚ": 2021,
      "ĀĀğĀė": 2022,
      "ĀĀğĀĝ": 2023,
      "ęėĖĘęęĘ": 2024,
      "ęėĖĚęęĘ": 2025,
      "ęėĖęęęė": 2026,
      "ęęĚęęęĚęęĚ": 2027,
      "ęĜěęęęĚ": 2028,
      "ěěęęĞ": 2029,
      "ĀĀēĀě": 2030,
      "ĀĀēĀĕ": 2031,
      "ĀĀĒĀĝ": 2032,
      "ĀĀĒĀĔ": 2033,
      "ęęęęĘĚĘęęĚ": 2034,
      "ęĜėĚęęĘ": 2035,
      "ęĜėęęęė": 2036,
      "ęĜĜęęęĚ": 2037,
      "ęĜĜėęęĚ": 2038,
      "ęĖěęęęĚ": 2039,
      "ėėĚęęĘ": 2040,
      "ę!Ę": 2041,
      "ęęęęęęĚęęĚ": 2042,
      "ęĕĚėęęĚ": 2043,
      "ĕĚęęĔ": 2044,
      "ęĘęĚęęĘę": 2045,
      "Ėėęęĕ": 2046,
      "ęęęęęęęęęĘęęęĘę": 2047
    },
    "merges": [
      "ę ę",
      "ęę ęę",
      "ę Ě",
      "ę Ę",
      "ęę Ę",
      "ęę Ě",
      "Ā Ā",
      "ę ě",
      "ę ė",
      "ęęęę ęęęę",
      "ęę ě",
      "ęę ė",
      "Ę ęęęę",
      "Ě ęęęę",
      "ęę ęĚ",
      "ęę ęĘ",
      "ę Ĝ",
      "ę Ė",
      "ęę Ė",
      "ęę Ĝ",
      "ęĚ ęęęę",
      "ęĘ ęęęę",
      "ę ĕ",
      "ę ĝ",
      "Ę ęęĚ",
      "Ę ęęĘ",
      "Ě ęęĘ",
      "ęĚ Ě",
      "Ě ęęĚ",
      "ęęęę Ę",
      "ęę ĕ",
      "ęęęę Ě",
      "ęĚ Ę",
      "ęĘ Ě",
      "ęĘ Ę",
      "ęę ĝ",
      "ęę ęė",
      "ęę ęě",
      "ęę ę",
      "ė ęęęę",
      "ě ęęęę",
      "ę Ğ",
      "ęęęęęęęę ęęęę",
      "ęęĘ ęęęę",
      "ęęĚ ęęęę",
      "ęę Ĕ",
      "Ā Ę",
      "ė ęęĚ",
      "ę Ĕ",
      "ęę Ğ",
      "ě ęęĘ",
      "Ā Ě",
      "Ā ě",
      "ė ęęĘ",
      "ĀĀ Ę",
      "ęĚ ě",
      "ĀĀ ę",
      "Ę ęęě",
      "ęě Ę",
      "ě ęęĚ",
      "ęě Ě",
      "Ě ęęė",
      "Ę ęęė",
      "Ě ęęě",
      "ęĚ ė",
      "ĀĀ Ě",
      "ęĘ ě",
      "ęĘ ė",
      "ęė Ě",
      "ĀĀ ė",
      "Ā ė",
      "Ā Ė",
      "ęė Ę",
      "ęęęęęęęę ęęęęęęęę",
      "ęę ē",
      "ęę ęĜ",
      "ę ğ",
      "Ā Ĝ",
      "ęę ğ",
      "ĀĀ Ė",
      "ĀĀ ě",
      "ęę ęĖ",
      "ęęĘ ę",
      "ę ē",
      "Ā ĕ",
      "ė ęęě",
      "Ė ęęęę",
      "ęě ě",
      "Ā ĝ",
      "ęě ęęęę",
      "ęęęĚ ęęęę",
      "ęęęĘ ęęęę",
      "Ě Ě",
      "ęė ęęęę",
      "Ė ęęĚ",
      "ęě ė",
      "ęė ė",
      "ęęęĚ ę",
      "ęĘ ęęĚ",
      "ě ęęė",
      "Ěęęęę Ę",
      "ęĚ ęęĚ",
      "ĀĀ Ĝ",
      "ęęęĘ ę",
      "Ė ęęĘ",
      "Ě Ę",
      "ęĚ ęęĘ",
      "ė ęęė",
      "ęę Ē",
      "ęĘ Ęęęęę",
      "ĀĀ ĕ",
      "Ĝ ęęęę",
      "Ā Ğ",
      "Ĝ ęęĘ",
      "ęĚ Ęęęęę",
      "Ĝ ęęĚ",
      "ęĚ Ěęęęę",
      "ě ęęě",
      "ęĜ Ě",
      "ęĚ Ĝ",
      "Ęęęęę Ę",
      "ě Ě",
      "ė Ě",
      "ęĘ ęęĘ",
      "ęė ě",
      "ė Ę",
      "ĀĀ ĝ",
      "ęĜ Ę",
      "ęĘ Ĝ",
      "ęĚęęęę Ę",
      "Ā Ĕ",
      "ě Ę",
      "ęĚ Ė",
      "ĀĀ Ĕ",
      "ęĖ Ę",
      "ęĘ Ė",
      "ęĘ Ěęęęę",
      "ę Ē",
      "ęĘęęęę Ę",
      "ęĖ Ě",
      "ęĘęęęę Ě",
      "Ę ęęĖ",
      "Ė ęęě",
      "Ě ęęĖ",
      "ĀĀ Ğ",
      "ęęęęęęęę ęęę",
      "Ę ęęĜ",
      "ęęęĘ ęęĚ",
      "Ěęęęę Ě",
      "ęě Ĝ",
      "ĀĀ ğ",
      "ęę ęĕ",
      "Ęęęęę Ě",
      "ęė Ė",
      "ęęęęĘ Ę",
      "Ĝ ęęė",
      "ě ęęĖ",
      "ęęĚ ęęęĚ",
      "Ā ğ",
      "ĕ ęęęę",
      "Ě ęęĜ",
      "ęęĚ ę",
      "ęęęĘ ęęĘ",
      "ęĜ ě",
      "ęę !",
      "ęę ęĝ",
      "ęĚęęęę Ě",
      "ęęęęĚ Ě",
      "ĕ ęęĘ",
      "ęĖ ė",
      "Ā ē",
      "ě ě",
      "ĀĀ ē",
      "ęė Ĝ",
      "ĀĀ Ē",
      "ĕ ęęĚ",
      "ęę đ",
      "ė ęęĖ",
      "ė ęęĜ",
      "Ĝ ęęě",
      "ęęęęĘ Ě",
      "Ė ęęė",
      "ęĜ ė",
      "ęęęĚ ęęĘ",
      "ęĜ Ĝ",
      "Ė Ě",
      "ě ĝ",
      "ĘęęĚ ę",
      "ě ęęĜ",
      "ęęęęĚ Ę",
      "ęĖ Ė",
      "ęĖ ě",
      "ĀĀĘ Ā",
      "ęě Ė",
      "ė ė",
      "ę !",
      "ęĚ ęĘęęęę",
      "ęęęĚ ęęĚ",
      "ĝ ęęęę",
      "ĝ ęęĘ",
      "ęĘ ęĚęęęę",
      "ĀĀ đ",
      "ęĖ ęęęę",
      "ęĘ ĕ",
      "ě Ĝ",
      "ęĚ ĝ",
      "ĀĀę Ā",
      "ęė ęęĘ",
      "ęęę Ğ",
      "ęĘĚ ęęęĚ",
      "ęęęę ęęĚ",
      "ęě ęęĘ",
      "ĝ ęęĚ",
      "ęę \"",
      "Ĝ Ě",
      "Ė ęęĜ",
      "Ę ęęĕ",
      "ę đ",
      "ě ė",
      "ęĕ Ě",
      "ęĚ ĕ",
      "ęĝ Ę",
      "ęęĘ ęęęĘ",
      "ęĚęęęę ęę",
      "ĚęęĘ ę",
      "Ĝ Ę",
      "ęęĚ ĚęęĚ",
      "ĕ Ě",
      "Ĝ ě",
      "ė ě",
      "ęęĘ Ęęęęę",
      "ęĜ ęęęę",
      "ĀĀ !",
      "ęė ęęĚ",
      "ĘęęĘ ę",
      "ęęęęęęęęęęęę ę",
      "Ĝ Ĝ",
      "ęĕ ė",
      "ęĕ Ę",
      "ĀĀ \"",
      "ęĝ Ě",
      "ĀĀĖ Ā",
      "ęĘ ĝ",
      "ęęě ęęęę",
      "Ė ě",
      "ęę Đ",
      "ęě ĝ",
      "ęĘęęęę ęę",
      "ęĘ ęĚ",
      "Ę Ě",
      "Ĕ ęęĚ",
      "ĕ ęęě",
      "ĀĀě Ā",
      "ė Ė",
      "ęĘ ęĘęęęę",
      "ĀĀĚ Ā",
      "ĕ ęęė",
      "Ė Ę",
      "Ěęęęę ę",
      "Ĝ ęęĖ",
      "ĝ ęęė",
      "ęĚĘ ęęęĘ",
      "ĕ Ę",
      "Ė ė",
      "ęĚ ęĘ",
      "ęě ęęĚ",
      "ĀĀė Ā",
      "ĝ Ě",
      "ęĚ ęĚęęęę",
      "ęęė ęęęę",
      "ęĘĘ ęęęĘ",
      "ĀĀ Đ",
      "ęęęęęęęę ęĘ",
      "Ė ęęĖ",
      "ęĚĚ ęęęĚ",
      "Ę ęęĝ",
      "ĚęęĚ ę",
      "ė ęęĝ",
      "ě Ğ",
      "ęĜ Ė",
      "Ě ęęĕ",
      "ęĚ Ğ",
      "ĀĀ $",
      "ęĚĚ ĘęęĚ",
      "ė Ĝ",
      "ęęĘ ĚęęĘ",
      "ęęę Ĕ",
      "ĀĀ #",
      "ęęęęęęęę ęęęęęęęęęęęę",
      "Ę Ę",
      "ęęĘ ĘęęĘ",
      "ęęĘęęęę ę",
      "ęĚ ęĘęęĚ",
      "ęĘ ęĚęęĚ",
      "ęĖ Ĝ",
      "ęė ĕ",
      "ęęĚęęęę ę",
      "ė ĝ",
      "ě ęęęęĘ",
      "ęęĚ Ěęęęę",
      "ęė ĝ",
      "Ĕ ęęĘ",
      "ė ęęęęĚ",
      "ę \"",
      "Ĝ Ğ",
      "ĀĀ ď",
      "Ęęęęę ę",
      "ęęę ē",
      "ě ęęęęĚ",
      "ęęĘ Ěęęęę",
      "Ěęęęę ęę",
      "ęĝ ě",
      "ęĚĘ ĚęęĘ",
      "ęęęę ęęĘ",
      "Ė ĝ",
      "ě ęęĕ",
      "Ğ Ě",
      "ęě ĕ",
      "ęĜ ĝ",
      "ęĚĚ Ęęęęę",
      "ęĚ ęĚ",
      "ęĘ ėęęęę",
      "ęě Ěęęęę",
      "ęė ęęęęĚ",
      "Ġ Ě",
      "ęęęęęęęę Ě",
      "Ė ęęĕ",
      "ė ęęęęĘ",
      "ĝ ęęě",
      "ęęĚ ĘęęĚ",
      "ĀĀ Ď",
      "Ĕ ęęęę",
      "ęĘ ęě",
      "ęęĚ Ęęęęę",
      "ęęęęęęęęęęęę ęęę",
      "ĀĀĘ ĀĘ",
      "ĀĀĜ Ā",
      "ęĘ ęĘ",
      "ęę #",
      "ęė ęęęęĘ",
      "ęĚĘ ĘęęĘ",
      "ęę ď",
      "ęĝ ė",
      "ĕ ĝ",
      "Ĝ ęęĜ",
      "ęĚęęęę ęęĚ",
      "ęĚĚ Ěęęęę",
      "ęĘĘ ĚęęĘ",
      "ĀĚ Ę",
      "ĀĚ Ě",
      "ĀĀĕ Ā",
      "Ė ęęĝ",
      "ęęě ęęęĚ",
      "Ęęęęę ęęĘ",
      "ęĘęęęę ę",
      "ęęęęęęęęęęęęęęęę ęę",
      "ĀĀĔ Ā",
      "Ĝ ĝ",
      "Ġ ĝ",
      "ęęęęęęęę ęĚ",
      "ęĞ Ę",
      "ĕ ęęĖ",
      "ė Ğ",
      "ė ęęĕ",
      "ě Ė",
      "ęĘ ęĘęęĚ",
      "ęęęęęęęę ęęęĘ",
      "ęĚęęęę ę",
      "ĀĀĝ Ā",
      "ĕ ęęĜ",
      "ęĚ ěęęęę",
      "Ęęęęę ęę",
      "ęĜ ĕ",
      "ęĝ Ĝ",
      "ē Ę",
      "ě ęęĝ",
      "ęęė ęęęĘ",
      "ęĖ ĕ",
      "ęĘęęęę ęęĚ",
      "Ĕ Ě",
      "Ĕ ęęė",
      "Ė Ğ",
      "ė ęęĞ",
      "ęĚ Ĕ",
      "ęĘ ęĚęęĘ",
      "ęě Ğ",
      "ęě ęęęęĘ",
      "Ěęęęę ęęĚ",
      "ęĚęęęę ęęĘ",
      "ęĚě ęęęĚ",
      "ğ Ě",
      "ĀĀ %",
      "ęĘĚ ĘęęĚ",
      "ęĘĚ ĚęęĚ",
      "ě ęęęĚ",
      "Ġ Ĝ",
      "ęĕ Ė",
      "ęęęė ęęęę",
      "Ĝ ęęĕ",
      "ĝ Ğ",
      "Ġ Ę",
      "ęęĚ ęęĘ",
      "ęęęęęęęę ęęęĚ",
      "ęĘęęęę ęęĘ",
      "ęĔ Ę",
      "ĀĀĚ ĀĘ",
      "ĕ ě",
      "ęęęęęęęę Ę",
      "ęĞ Ě",
      "ęęĘęęęę ęęĘ",
      "ęĚ ęĘęęĘ",
      "ęĜ ęęĘ",
      "ęĘĚ Ěęęęę",
      "ĀĀĘ Āě",
      "ĀĀę ĀĘ",
      "Ė Ė",
      "ę #",
      "Ĝ ė",
      "ĀĀė ĀĘ",
      "ę Đ",
      "Ě Ěęęęę",
      "Ġ Ğ",
      "ęĚ ęęęĚ",
      "ęĘ Ĕ",
      "ĀĀ &",
      "ęęę ğ",
      "ęĘė ęęęĘ",
      "ĚęęęęĘ Ę",
      "Ē Ę",
      "ě ĕ",
      "ĝ Ę",
      "ęęė ĚęęĘ",
      "ęĖ ĝ",
      "ęĕ ě",
      "ęęĚęęęę ęęĚ",
      "ē ęęĘ",
      "Ĕ Ė",
      "ęę $",
      "ęĚ ęęě",
      "ęĚ ęĚęęĚ",
      "ęĘ Ğ",
      "ęĘĘ Ěęęęę",
      "ęĚĚęęęę ę",
      "ē ė",
      "ē ęęė",
      "Ĕ Ę",
      "Ĕ ęęě",
      "ě ęęĔ",
      "ĝ Ĝ",
      "ęĚ ęĚęęĘ",
      "ęĘ ęęęĘ",
      "ęĘĘ ěęęĘ",
      "ęĞ ě",
      "ē Ě",
      "ĕ Ĝ",
      "ĝ ě",
      "ęĘ ęęė",
      "ĀĀ )",
      "ęě ęęęęĚ",
      "ęĝ ęęęę",
      "ęĚĚ ĚęęĚ",
      "ęĚĘ Ęęęęę",
      "ĀĀę Āě",
      "ĀĀĞ Ā",
      "ęęě ĚęęĚ",
      "Ěęęęę ęęĘ",
      "ęĖ ęęĚ",
      "ęĕ ęęęę",
      "ĀĀĚ ĀĖ",
      "Ĕ ě",
      "ĕ ęęĕ",
      "Ė Ĝ",
      "Ę Ğ",
      "ęė Ęęęęę",
      "ęęęě ę",
      "Āė Ę",
      "ĀĖ Ę",
      "Ē Ě",
      "Ĕ Ĝ",
      "ğ Ğ",
      "ĀĀ (",
      "ęė Ğ",
      "ęĖ ęęĘ",
      "ęĘĘ Ęęęęę",
      "ęęęė ę",
      "ĀĀĚ ĀĚ",
      "ęĘě ęęęĚ",
      "Ĕ ęęĖ",
      "ĕ ė",
      "ĕ Ğ",
      "Ě ęęĝ",
      "ĝ ęęĖ",
      "ğ ęęĘ",
      "ęĚ ęęė",
      "ęęĚ ęęęě",
      "ęě ęęė",
      "ęęě ĘęęĚ",
      "ęĝ Ė",
      "ęęęė ęęĘ",
      "ęĘĘęęęę ę",
      "ęĚĘęęęę ę",
      "ĀĀğ Ā",
      "ė ęęĔ",
      "ě ğ",
      "ě Ęęęęę",
      "ęĚ ėęęęę",
      "ęĘ ęęęęęęęęęęęę",
      "ĀĀ '",
      "ęė Ěęęęę",
      "ęĜ Ğ",
      "ęĜ ęęĚ",
      "ęĘĚ Ęęęęę",
      "ęĚě ĘęęĚ",
      "Ē Ė",
      "ē ęęĚ",
      "ęĘ ęęě",
      "ęė ęęě",
      "ęĝ ĝ",
      "ęęĘęęęę ęę",
      "ęęĚęęęę ęęĘ",
      "ĀĀė Āě",
      "Ė ęęĞ",
      "Ĝ ęęĝ",
      "ĝ ĝ",
      "ęę Ď",
      "ęĘ ěęęęę",
      "ęė Ĕ",
      "ė ęęęĘ",
      "Ę ęęĞ",
      "ęė ęęė",
      "ęĚĘ ęęęė",
      "! ğ",
      "ė Ęęęęę",
      "Ě Ğ",
      "ĝ ęęĜ",
      "Ġ ě",
      "ęĘ ē",
      "ęĘ ęęęęęęęę",
      "ęęě ęęĘ",
      "ęęĘęęęę ęęĚ",
      "ĀĀē Ā",
      "ĕ ęęĝ",
      "ę $",
      "Ġ ė",
      "ęĚ ęęęęęęęęęęęę",
      "ęĘ ęĘęęĘ",
      "ęęĚ ęęęĘ",
      "Ęęęęę ęęĚ",
      "ęęęĘ ęęė",
      "ęĘĘ ĘęęĘ",
      "ěęęĚ ę",
      "ĀĀė ĀĚ",
      "ęğ Ě",
      "Ĕ ė",
      "ė ĘęęĘ",
      "ĝ ğ",
      "Ġ ęęęę",
      "ęęĚ ęęęĚę",
      "ęě Ęęęęę",
      "ęě ęĘęęęę",
      "ęĔ Ě",
      "ĀĀę ĀĖ",
      "ęęęęęęęęęęęęęęęę ęęęęęęęę",
      "ĀĜ Ę",
      "ĀĀĖ ĀĚ",
      "ĀĀě ĀĘ",
      "Ĕ Ğ",
      "ĕ ĕ",
      "Ė ęęęęĚ",
      "ę ĀĀ",
      "ğ ě",
      "Ġ !",
      "ęęęĘ ęęě",
      "ęĖ Ĕ",
      "ęĝ ĕ",
      "ęęęě ęęęę",
      "ęęę Ē",
      "Āě Ę",
      "ĚęęęęĘ Ě",
      "Ė ęęęęĘ",
      "Ğ ęęęę",
      "Ġ Ā",
      "ęě ęĘęęĚ",
      "Ęęęęę ĚĘ",
      "ęęęĚ ęęęęęęęę",
      "ęęęĚ ęęė",
      "ęęęě ęęĘ",
      "ęęę !",
      "ęĞ Ė",
      "ęĔ ė",
      "ĀĀę Āė",
      "ĀĀę Āĕ",
      "ĀĀĚ Āė",
      "ęĘě ĚęęĚ",
      "ĀĀė ĀĖ",
      "ĘęęęęĘ Ę",
      "ęĚęęęęĘ ę",
      "ĀĀ\" Ā",
      "đ Ę",
      "Ę ęęĔ",
      "ě Ěęęęę",
      "Ğ Ę",
      "Ġ Ė",
      "Ġ ğ",
      "ęęě ę",
      "Ěęęęę ĚĘ",
      "ęĜ ęęęęĘ",
      "ęĕ ĕ",
      "ęĕ Ĝ",
      "ęĚĚ ęęęĘ",
      "ęĔ ě",
      "ĀĀĘ Āĕ",
      "ęęęęęęęęęęęęęęęę ęęę",
      "ĘęęęęĘ Ě",
      "ĀĀĒ Ā",
      "! Ĝ",
      "Ē ē",
      "Ē Ğ",
      "Ĕ ĝ",
      "ė ĕ",
      "Ğ ęęĘ",
      "Ġ ĕ",
      "ęě Ĕ",
      "ęė ęĚęęęę",
      "ęĝ Ğ",
      "ęĚĘ Ęęęė",
      "ĀĀĘ Āė",
      "ĀĀę ĀĚ",
      "ęĘě ĘęęĚ",
      "ē Ğ",
      "Ĕ ęęĝ",
      "Ě ĝ",
      "Ĝ ğ",
      "ęė ęĘęęęę",
      "ęė ęĚęęĚ",
      "ęĘĘ ęęęė",
      "ęęĚęęęę ęę",
      "ėęęĘ ę",
      "ĀĀĘ ĀĖ",
      "ęěĘ ĘęęĘ",
      "ęĚė ĚęęĘ",
      "ĀĀė Āĝ",
      "ęęęęęęęęęęęęęęęę ęęęęęęęęęęęęęęęę",
      "ĀĀĖ Āė",
      "ęĘĚęęęę ę",
      "Ĕ ęęĜ",
      "ĕ Ė",
      "ė ğ",
      "ę ď",
      "Ĝ ęęęęĘ",
      "ęĚ ęėęęĘ",
      "ęĘ ğ",
      "ęęęě ęęĚ",
      "ęęę đ",
      "ęėĚ ęęęĚ",
      "Ē Ĝ",
      "ē Ė",
      "ē ęęęę",
      "ē ęęĜ",
      "Ě ě",
      "Ĝ ęęęęĚ",
      "Ğ ęęĚ",
      "ęĘ ęěęęęę",
      "ęęĘ ęęęĚ",
      "ęęĚ ęęĚ",
      "ęęęęęęęę ęęĚ",
      "ęęęęęęęę Ęęęęę",
      "ęĔ Ė",
      "ęĚė ęęęĘ",
      "ęĚė ĘęęĘ",
      "ĀĀĚ Āě",
      "ĀĀě Āě",
      "ęĚ ęė",
      "ęĚ ęĘęęęęĘ",
      "ęęė ĘęęĘ",
      "ęĚęęęę ė",
      "ęĘĘ ęęęĚ",
      "ęĞ ė",
      "ĀĘ Ę",
      "ĀĀę ĀĜ",
      "ęěĘ ĚęęĘ",
      "ĀĀĚ ĀĜ",
      "ęĘė ĘęęĘ",
      "ęĘė ĚęęĘ",
      "ęęęĜ ęęĚ",
      "đ Ė",
      "Ē ĕ",
      "ě ęęĞ",
      "Ġ ĀĀ",
      "ęę %",
      "ęĚ ĘęęĚ",
      "ęĚ ęĘęęęęĚ",
      "ęĘ ĚęęĘ",
      "ęĘ ęęĘę",
      "ęě ęĚęęĘ",
      "ęęė ę",
      "Ęęęęę ĚĚ",
      "ęĜ Ĕ",
      "ęĚęęęę ě",
      "ęĘęęęę ė",
      "ęĕ ĝ",
      "ęĚĚ ęęęě",
      "ęęęė ęęĚ",
      "ėęęęę ė",
      "ęĔ Ĝ",
      "ęĚě ĚęęĚ",
      "! ě",
      "Ā !",
      "đ ė",
      "Ē Ē",
      "ē ęęě",
      "ė ęęęęĚĚ",
      "Ě ęęĔ",
      "Ě ęęĞ",
      "Ě ęęē",
      "ě ĘęęĚ",
      "Ĝ Ė",
      "ęĚ ğ",
      "ęĚ ęėęęęę",
      "ęĘ ęęĖ",
      "ęęĘ ěęęĘ",
      "ęě ğ",
      "ęė ē",
      "ęė ęĚęęĘ",
      "ęęęęęęęę Ěęęęę",
      "ęęęęęęęę ęęęęĚ",
      "ęęĖ ęęęę",
      "ęĕ ęęĘ",
      "ĘęęĘ ęĚĘ",
      "ęĚĘ Ěęęęę",
      "ęĚĘ ėęęĘ",
      "ėęęĚ ę",
      "ĀĀĘ ĀĚ",
      "ĀĀė Āė",
      "ĀĀė ĀĜ",
      "ĀĀě ĀĚ",
      "Ē ě",
      "Ē ęęĘ",
      "Ĕ ĕ",
      "ęĚ ē",
      "ęĚ ęě",
      "ęęĘ ęęęė",
      "ĀĀ +",
      "ęęęęęęęę ęęĘ",
      "ęęęęęęęę ęęęęĘ",
      "ęęė ęęęė",
      "ęęęĚ ęęęęĘ",
      "ęĖ ğ",
      "ęĘęęęę ě",
      "ęĚĚ ėęęĚ",
      "ęĚĘ ęęęĘę",
      "ęĘĚ ęęęě",
      "ęĘĚ ęęęĚę",
      "ęĞ Ĝ",
      "ĀĘ Ě",
      "ĀĀę Āĝ",
      "Ěęęě ę",
      "ĀĀĚ Āĕ",
      "ęėĚ ĘęęĚ",
      "ęėĘ Ěęęęę",
      "ęėĘ ęęęĘ",
      "ęğ Ĝ",
      "Ē ė",
      "ě ĚęęĚ",
      "ĝ Ė",
      "ĝ ęęĕ",
      "ęĚ ęĚęęęęĘ",
      "ęęĚ Ęęęě",
      "ĀĀ *",
      "ęęě Ęęęě",
      "ęĖ Ğ",
      "ęĚĚ ėęęęę",
      "ęĞ ĕ",
      "ěęęĘ ę",
      "ĀĀĘ ĀĜ",
      "ęęęĚęęęę ęęĘ",
      "ĀĀĕ Āě",
      "ĀĀđ Ā",
      "Đ Ę",
      "Ě ğ",
      "Ě ĚęęĚ",
      "ęęęę ė",
      "ęĘ ĘęęĘ",
      "ęė ğ",
      "ęė ėęęęę",
      "ęĕ ęęĚ",
      "ęĘĘ ęęęĘę",
      "ęĞ ĝ",
      "ĀĀĘ Āĝ",
      "Ęęęě ę",
      "ĀĀė Āĕ",
      "ĀĀĜ ĀĘ",
      "ĀĀĜ Āė",
      "đ ě",
      "ē ě",
      "Ĕ Ĕ",
      "Ė ęęğ",
      "ė ĚęęĘ",
      "ė ěęęĘ",
      "ė ęęğ",
      "ė ęęęęĘĘ",
      "Ę ęęğ",
      "ě ęęęęĘĘ",
      "Ġ ęęĘ",
      "ęĚ ęėęęĚ",
      "ęĘ ęęęĘę",
      "ęęĚ ėęęĚ",
      "ęě ěęęęę",
      "ęė ęě",
      "ęęě ęęęě",
      "Ęęęęę ė",
      "ęęęĚ ęęęęĚ",
      "ęĝ ęęĘ",
      "ęĚĘ ĘęęĚ",
      "ęĚě ęęęě",
      "ęěĚ ĘęęĚ",
      "ęėĘ ĚęęĘ",
      "ĀĀě Āė",
      "ęē Ę",
      "ęęęĘęęęę ę",
      "ęęęĘęęęę ęęĘ",
      "ĀĀĕ ĀĘ",
      "ĀĀ! Ā",
      "Ē Đ",
      "Ē Ĕ",
      "ē đ",
      "ē ĝ",
      "ĕ ğ",
      "Ė ęęęĘ",
      "Ę Ęęęęę",
      "Ě Ęęęęę",
      "Ĝ ęęęĚ",
      "Ğ ğ",
      "ęęęę ę",
      "ęĚ ęęĜ",
      "ęęĘ ęęęĘę",
      "ęě ęĘęęĘ",
      "ęęě Ěęęě",
      "ęęęĘ ęęęęĘ",
      "ęĜ ęęė",
      "ęĚĚ ęęĚ",
      "ęĚĘ ėęęęę",
      "ęĘĚ ėęęĚ",
      "ęęĚęęęę ęęĚęęęę",
      "ĀĀĘ ĀĔ",
      "ęěĘ Ęęęęę",
      "Ěęęė ę",
      "ęğ ğ",
      "ęěė ĘęęĘ",
      "ĀĀĜ ĀĖ",
      "ĀĞ Ě",
      "ęĘęęęęĘ ę",
      "ęĚęęęęĚ ę",
      "đ Ğ",
      "Ē ęęĚ",
      "Ē ęęě",
      "ē Ĝ",
      "ĕ ęę",
      "Ė ğ",
      "Ě ęęęĚ",
      "Ĝ ĕ",
      "Ġ #",
      "ęęĘ Ęęęė",
      "ęęė ęęĘ",
      "ęęė Ęęęęę",
      "ęęęĘ ęęęęĚ",
      "ęĜ ęĘęęĘ",
      "ęĖ ęęė",
      "ęĚęęęę ęęęĚ",
      "ęĝ ęęĚ",
      "ęĚĚ ĘęęĘ",
      "ęĘĚ ęęęĘ",
      "ęĘĚ ěęęĚ",
      "ęěĚ ęęęĚ",
      "ęėĘ ĚęęĚ",
      "ĀĀĖ Āě",
      "ĀĀĖ ĀĖ",
      "ĀĀě Āĝ",
      "ĀĀĜ ĀĚ",
      "ęĚĖ ĘęęĘ",
      "! Ę",
      "! ĝ",
      "! Ğ",
      "\" ğ",
      "đ Ě",
      "Ē ęęęę",
      "ē Ĕ",
      "ĕ ęęęęĚ",
      "Ė ęęĔ",
      "Ė ęęĘę",
      "ė Ěęęęę",
      "ğ ęęęę",
      "ęĚ ęęĘę",
      "ęĘ Ē",
      "ęĘ ęėęęęę",
      "ęĘ ęĚęęęęĘ",
      "ęęĚ ĘęęĘ",
      "ęě ē",
      "ęęė ěęęĘ",
      "ęĜ Ěęęęę",
      "ęĖ ē",
      "ęĖ ęęęęĘ",
      "ęĖ ęęęęĚ",
      "ęęĜ ęęęĚ",
      "ęĘęęęę ęęęĘ",
      "ęĕ Ĕ",
      "ęĕ Ğ",
      "ęĚĘ ěęęĘ",
      "ęęęęęęęęęęęę ęĘęęęę",
      "ęĚě Ęęęě",
      "ęěĘ ęęęĘ",
      "ęĘė ęęęė",
      "ĀĀĖ ĀĘ",
      "ĀĀě ĀĖ",
      "ęē Ė",
      "ęęęĚęęęę ę",
      "ęęęĘęęęę ęęĚ",
      "ĀĀĕ ĀĚ",
      "ĀĀĔ ĀĘ",
      "ęęęęĘĚ Ěęęęę",
      "ęĘęĚ ęęě",
      "ĀĀĐ Ā",
      "ĀĀ# Ā",
      "! \"",
      "! Ě",
      "đ ĕ",
      "ĕ ęęęęĘ",
      "ė ęĚęęęę",
      "ė ėęęĘ",
      "ė ęęē",
      "ė ęęęęĚĘ",
      "ě ę",
      "ğ ĀĀ",
      "Ġ ę",
      "ęęĘ Ěęęė",
      "ęě ęĚęęęę",
      "ęęęęęęęę ĘĚ",
      "ęęě Ěęęęę",
      "ęęė Ěęęė",
      "ęĘęęęę ęęě",
      "ęĕ ğ",
      "ęĝ Ĕ",
      "ęĘĘ ĘęęĚ",
      "ęĘĘ Ęęęė",
      "ěęęęę ė",
      "ęěĚ ėęęĚ",
      "ęĘě ėęęĚ",
      "ęĘė Ěęęęę",
      "ęğ ě",
      "ĀĀĖ Āĕ",
      "ęē ė",
      "ĀĀĜ Āě",
      "ĚĘ ęęĜ",
      "ĀĀĕ ĀĜ",
      "ĀĞ Ę",
      "ęĚĜ ĘęęĚ",
      "ĀĀ$ Ā",
      "ęęęęęęęęęęęęęęęęęęęęęęęę ę",
      "\" Ě",
      "Ĕ ę",
      "Ĕ ęęĕ",
      "Ė Đ",
      "Ě ęęęęęęęę",
      "Ĝ ęęĔ",
      "Ĝ ęęĞ",
      "ĝ ęęĝ",
      "Ğ Ğ",
      "Ğ ęęĜ",
      "ğ ęęĚ",
      "ęĚ ęěęęęę",
      "ęęĘ Ę",
      "ęęĘ ĚęęĚ",
      "ęęęĚ ęęě",
      "ęĜ ğ",
      "ęĜ ęęęęĚ",
      "ęęĖ ĘęęĘ",
      "ęęĜ ęęęě",
      "ęĚęęęę ęęĚęęęę",
      "ęĘĘ ĚęęĘę",
      "ęęę Đ",
      "ęĞ ęęęę",
      "ĀĀę ĀĔ",
      "ęěĘ ėęęĘ",
      "ęěĚ ĚęęĚ",
      "ęĚė ėęęĘ",
      "ęĘě ęęęě",
      "ęėĚ ĚęęĚ",
      "ĀĀĖ ĀĜ",
      "ęęęĖ ęęęę",
      "ęęęĖ ęęĚ",
      "ęěė ėęęĘ",
      "ĀĀĕ ĀĖ",
      "ĀĀĝ Āě",
      "ĕĚ ęęĕ",
      "ęęęęęęęęęęęęęęęęęęęę ęę",
      "! ė",
      "Ē ĝ",
      "Ē ęęĜ",
      "ē ē",
      "Ė ĕ",
      "Ė ĘęęĘ",
      "ė ęęęė",
      "ě ęęē",
      "Ġ ęęĜ",
      "ęęęę ęęě",
      "ęĘ ęěęęĘ",
      "ęĘ ęěęęĚ",
      "ęęĚ Ę",
      "ęęĚ ěęęęę",
      "ĀĀ ,",
      "ęě ęĚęęĚ",
      "ęě ęėęęĘ",
      "ęė ęęęĘ",
      "ęė ĘęęĘ",
      "ęęė ėęęĘ",
      "ęĜ ęęě",
      "ęĜ Ęęęęę",
      "ęĖ ėęęęę",
      "ęęĖ ęęęĘ",
      "ęĚęęęę ęęęĘ",
      "ęĚęęęę ęęĘęęęę",
      "ęĘęęęę ęęė",
      "ęĝ ğ",
      "ęĚĚ ĚęęĘ",
      "ęĚĚ Ęęęě",
      "ęĚĘ ęęęĚ",
      "ęĚĘ ĚęęĚ",
      "ęĘĚ Ęęęě",
      "ęĘĘ ĚęęĚ",
      "ěęęęę ėĘ",
      "ęĔ ĕ",
      "ĀĀĘ Āē",
      "ęěĚ Ęęęęę",
      "ęěĚ ĘęęĘ",
      "ęěĚ ėęęęę",
      "ĀĀĚ Āĝ",
      "ĀĀĚ ĀĔ",
      "ęĘě Ěęęě",
      "ęĘė Ěęęė",
      "ęėĘ ęęęĚ",
      "ęėĘ ĘęęĘ",
      "ęğ Ę",
      "Āĕ Ę",
      "ęěě ęęęĚ",
      "ęěě ėęęĚ",
      "ęěė ęęęĘ",
      "ęěė ĚęęĘ",
      "ĀĀĕ Āĝ",
      "ęĜĚ ęęęĘ",
      "ěĚ ęęĜ",
      "ęĘĖ ĚęęĘ",
      "Āğ Ę",
      "\" ě",
      "\" ĀĀ",
      "Ē ęęė",
      "ē ęęĖ",
      "ė ęę",
      "ė ęęęęĘĚ",
      "Ĝ ęęĘę",
      "Ğ ęęě",
      "Ğ ęęė",
      "Ġ ęęĚ",
      "Ġ ęęě",
      "ęĘ ęęĜ",
      "ęęĚ ěęęĚ",
      "ęęĚ Ěęęě",
      "ęě ėęęęę",
      "ęė ęĘęęĘ",
      "ęė ęěęęĚ",
      "ęĜ ē",
      "ęęĜ Ěęęě",
      "ęĘęęęę ęęęĚ",
      "ęĚĚ ęęęęęęęęęęęę",
      "ęĚĚ ęęęĚę",
      "ęĘĚ ėęęęę",
      "ęĘĘ ěęęĚ",
      "ęęĘęęęę ęęĘęęęę",
      "ęĔ Ĕ",
      "ęĔ Ğ",
      "ĀĀĘ ĀĞ",
      "ĀĀę Āē",
      "ęěĘ ėęęęę",
      "Ęęęė ę",
      "ęĚė ęęęė",
      "ĀĀĚ ĀĞ",
      "ĀĀė ĀĞ",
      "ęęęĜ ęęęę",
      "ęěě ęęęě",
      "ęęęĚęęęę ęęĚ",
      "ĚĚ ęęĜ",
      "ęĘęęĚ ę",
      "ĚęęęęĘ Ęęęęę",
      "ęĜĘ ĘęęĘ",
      "ęĚĖ ęęęĘ",
      "ĀĀĔ Āė",
      "ęĘĖ ęęęĘ",
      "ĀĀĞ ĀĚ",
      "ĀĀĞ Āė",
      "ĀĀĞ ĀĖ",
      "ęĘęĚ ęęė",
      "ĀĀď Ā",
      "ĀĀĎ Ā",
      "\" Ğ",
      "Đ ė",
      "Đ Ě",
      "ē ę",
      "ē ęęĕ",
      "ĕ Ĕ",
      "Ė ęę",
      "ė ęę!",
      "Ę Ĝ",
      "ě ęęęě",
      "ě ęęęęĚĚ",
      "ě ęęęęĘĚ",
      "Ġ Āě",
      "ęĚ ęęęęęęęęęęęęę",
      "ęĘ đ",
      "ęĘ ęėęęĚ",
      "ęĘ ęęęęęęęęęęęęę",
      "ęęĘ ęęĘ",
      "ęęĘ ėęęĘ",
      "ęęĚ ęęęęęęęęęęęę",
      "ęė ęęĜ",
      "ęė ęěęęĘ",
      "Ęęęęę ěĚ",
      "Ěęęęę ęęĘęęęę",
      "ęęęĘ ęęĘę",
      "ęĖ Ęęęęę",
      "ęęĜ ęęęę",
      "ęĚęęęę ĚĚ",
      "ęĘĚ ĚęęĘ",
      "ęĘĚ ěęęęę",
      "ęĘĚ Ěęęě",
      "ęĘĚ ĖęęĚ",
      "ęęęęęęęęęęęę ęĚ",
      "ęěĚ ęęęĘ",
      "ęĘė ěęęĘ",
      "ęęęĜ ęęĘ",
      "ĀĀĖ Āĝ",
      "ĀĀě Āĕ",
      "ĀĀě Āē",
      "ęėęęęę ė",
      "ęėė ęęęĘ",
      "ęĚęęĚ ę",
      "ĀĀĜ Āĕ",
      "ęĚĜ ęęęĚ",
      "ėĚ ęęĖ",
      "ęėě ęęęĚ",
      "ėĘ ęęĖ",
      "ĀĀĝ ĀĘ",
      "ęĒ Ę",
      "ęĘęęęęĚ ę",
      "ĀĀĞ Āě",
      "ĀĀğ ĀĘ",
      "ęĚęĘ ęęě",
      "ęĚęĚ ęęė",
      "ĀĀ% Ā",
      "! !",
      "\" !",
      "# !",
      "# Ğ",
      "Đ ĕ",
      "Đ Ė",
      "đ ē",
      "Ē đ",
      "ē ğ",
      "Ė ĚęęĘ",
      "ė ėęęęę",
      "Ě ĘęęĚ",
      "ě Ĕ",
      "ě ęĘęęęę",
      "ě ėęęęę",
      "ě ěęęęę",
      "ě ėęęĚ",
      "ě Ęęęě",
      "ě ěęęĚ",
      "Ĝ Ĕ",
      "Ĝ ĀĀ",
      "Ĝ Ęęęęę",
      "Ĝ ĘęęĚ",
      "ĝ ĕ",
      "ĝ ė",
      "ęĚ ęęĖ",
      "ęĚ ęěęęĘ",
      "ęě Ē",
      "ęė ęęĖ",
      "ęė ĚęęĘ",
      "ęęě Ęęęęę",
      "Ěęęęę ĚĚ",
      "ęĖ ęęě",
      "ęĘęęęę ęęĘęęęę",
      "ęĚĚ Ěęęě",
      "ęĚĚ ėęęě",
      "ęĚĘ Ěęęė",
      "ęĘĚ ěęęě",
      "ęĞ Ğ",
      "ęĔ ęęĚ",
      "ęĚě ėęęĚ",
      "ęěĚ ĚęęĘ",
      "ęĚė Ęęęęę",
      "ęĘě ěęęĚ",
      "ęğ ĝ",
      "ĀĜ Ě",
      "ĀĀĖ ĀĔ",
      "ęěě Ęęęě",
      "ęěęęęę ė",
      "ęėė ęęęė",
      "ĀĀĝ ĀĚ",
      "ĀĀĝ ĀĖ",
      "ĀĀĝ Āĕ",
      "ęĘĜ ęęęě",
      "ęĘĜ Ěęęě",
      "ĀĀĔ Āě",
      "ęęęĘęęĚ ę",
      "ĀĀğ ĀĔ",
      "ĀĀē ĀĘ",
      "ĀĀē ĀĖ",
      "ĀĀ& Ā",
      "# Ě",
      "đ Ĝ",
      "đ ęęĘ",
      "ē ęęĝ",
      "ĕ ę",
      "Ė Ĕ",
      "Ė ęęē",
      "Ę ęęęĘ",
      "ę Ď",
      "ě ęęğ",
      "Ĝ ęęęě",
      "ĝ \"",
      "ĝ ęęĔ",
      "Ġ \"",
      "Ġ ęęė",
      "ęĘ ęĘęęęęĘ",
      "ęĘ ęęęęęęęęęęę",
      "ęęĘ ĘęęĚ",
      "ęęĚ ĖęęĚ",
      "ĀĀ -",
      "ęě ĘęęĚ",
      "ęě ęėęęĚ",
      "ęė ęĚęęě",
      "ęęęęęęęę ĚĚ",
      "Ěęęęę ė",
      "Ěęęęę ęęĚęęęę",
      "Ěęęęę ěĚ",
      "ęęęĘ ęęĖ",
      "ęĜ ěęęęę",
      "ęĕ ē",
      "ęĚĚ ĘęęĚę",
      "ęęęęĘ ęĚęęęę",
      "ęĘĘ ėęęęę",
      "ęĘĘ ėęęĘ",
      "ęęęė ęęě",
      "ęĔ ĝ",
      "ĀĀę ĀĞ",
      "ęěĚ Ęęęě",
      "ĀĀĚ Āğ",
      "ęĘě Ęęęě",
      "ęėĚ ĚęęĘ",
      "ęěě ĚęęĚ",
      "ęėęęęę ě",
      "ĚęęęęĘ ęĚęęęę",
      "ęĜĚ ĘęęĚ",
      "ěĘ ęęĜ",
      "ĀĀĔ ĀĚ",
      "ĀĀĞ ĀĘ",
      "ęĖė ęęęĘ",
      "ĀĀē ĀĚ",
      "ęęęęĚĘ Ęęęęę",
      "ęęĚĚęęĚ ę",
      "! ĀĀ",
      "\" \"",
      "Đ Đ",
      "Đ Ĝ",
      "đ Ē",
      "ē ĕ",
      "ē ęęĔ",
      "Ĕ ęę",
      "Ė ęęęęĘĘ",
      "Ę ğ",
      "Ę Ěęęęę",
      "Ę ĚęęĘ",
      "ĝ ęęęęĘ",
      "Ğ !",
      "ğ ğ",
      "ğ ęęĖ",
      "ęĚ ęęęęęęęę",
      "ęĘ ęėęęĘ",
      "ęęĘ ėęęęę",
      "ęęĘ ĘęęĘę",
      "ęě ęęęĚ",
      "ęė Ē",
      "ęė ęĘęęĚ",
      "ęęě ėęęĚ",
      "ęęě ěęęĚ",
      "ęęė ęęĚ",
      "ęęė Ěęęęę",
      "ęęĖ Ěęęė",
      "ęĚęęęę ĘęęĘ",
      "ęĚĚ Ę",
      "ęĚĚ ěęęĚ",
      "ęĚĘ ĜęęĘ",
      "ęĘĚ ĘęęĘ",
      "ęĘĚ ěęęĘ",
      "ęĘĘ ěęęęę",
      "ęęę \"",
      "ęĞ Ĕ",
      "ęĞ ęęĘ",
      "ęęęęęęęęęęęę ęĚęęęę",
      "ęĔ ęęęę",
      "ęĚě Ęęęęę",
      "ęěĘ ĘęęĚ",
      "ęěĚ Ěęęęę",
      "ęĚė Ěęęė",
      "ęėĚ Ěęęě",
      "ĀĀė ĀĔ",
      "ęėĘ ěęęĘ",
      "ęğ Ğ",
      "ęğ ęęęę",
      "ĀĀě ĀĜ",
      "ĀĀě ĀĔ",
      "ęęęĘęęęę ęę",
      "ęėęęęę ęęĘ",
      "ęėė ĚęęĘ",
      "ėęęė ę",
      "ęėě ęęęě",
      "ĀĀĝ ĀĜ",
      "ĀĀĝ ĀĞ",
      "ęĘĜ ėęęĚ",
      "ĀĀ! ĀĘ",
      "ęęęęęęęęęĘ ę",
      "ĀĀ( Ā",
      "ęęęęęęęęęęęęęęęęęęęęęęęę ęę",
      "! Ė",
      "\" ĕ",
      "$ ğ",
      "ď Ė",
      "đ ğ",
      "đ ęęĚ",
      "đ ęęě",
      "ē ęęĞ",
      "Ĕ ĀĀ",
      "Ĕ ęęĔ",
      "Ė ęęęė",
      "ė Ď",
      "ė Ěęęė",
      "Ě ęęęě",
      "Ě Ěęęě",
      "Ě ęęęĚę",
      "Ĝ ĚęęĚ",
      "Ĝ ęęğ",
      "Ğ ęęĝ",
      "ęĚ Ē",
      "ęĚ ęĕ",
      "ęĚ ęęĕ",
      "ęĚ ęęęĚę",
      "ęĘ ęĜęęęę",
      "ęĘ ęĜęęĘ",
      "ęęĘ ęęĚ",
      "ęęĘ ęęęĘęęĚ",
      "ęęĚ ęęęĜ",
      "ĀĀ .",
      "ęě Ĝęęęę",
      "ęė ěęęęę",
      "ęė ęěęęęę",
      "ęęęęęęęę ęęĚęęęę",
      "ęęęęęęęę ęęĚę",
      "ęęęęęęęę Ěęęęęęę",
      "ęęė ĘęęĚ",
      "ęęė ěęęęę",
      "Ěęęęę ě",
      "ęęęĚ ęęĘę",
      "ęĜ ęęĖ",
      "ęĖ Ěęęęę",
      "ęĖ ęĚęęęę",
      "ęęĖ ęęęė",
      "ęĕ Ē",
      "ęĚĚ ěęęĘ",
      "ęęęęĚ ęĘęęęę",
      "ęĚĘ ĘęęęęĚ",
      "ęĘĚ ęęęĜ",
      "ęĘĚ ĜęęĚ",
      "ęĘĘ Ěęęė",
      "ėęęęę ęęĚ",
      "ėęęĚ ęėĚ",
      "ęĔ ğ",
      "ęĚě Ěęęęę",
      "ęěĘ ęęęė",
      "ęěĚ ěęęĚ",
      "ęėĚ ęęęě",
      "ęęęęęęęęęęęęęęęę ęęęęęęęęęęę",
      "ęğ Ė",
      "ęğ ė",
      "ęē ě",
      "ęē Ĝ",
      "Ėęęęę ė",
      "ęěě Ęęęęę",
      "ęěě Ěęęě",
      "Āĝ Ę",
      "ĚĚ ĘęęĚ",
      "ęėė ěęęĘ",
      "ĀĀĜ ĀĜ",
      "ĀĀĕ Āė",
      "ėĚ ęęęĚ",
      "ĀĀĝ Āė",
      "ęĜĘ ęęęĘ",
      "ęĖĚ ęęęĚ",
      "ęĖĚ ĚęęĚ",
      "ĀĀĞ Āē",
      "ĚęęęęĚ Ěęęęę",
      "ĚęęęęĚ ęĚęęęę",
      "ęěĜ ęęęĚ",
      "ęěĜ ęęęě",
      "ĀĀğ Āě",
      "ĀĀğ ĀĜ",
      "ęėĖ ęęęĘ",
      "ĚęęĜ ę",
      "ęęęĘęęĘ ęęęĘ",
      "ĀĀĒ Āě",
      "ęĜė ęęęĘ",
      "ĖĚ ęęĕ",
      "ěĝ ęęě",
      "ęĖęęęę ě",
      "ĀĀ$ ĀĘ",
      "ęĘęĚęęĚ ę",
      "ęėęęęęĚ ę",
      "\" Ę",
      "$ ĝ",
      "ď ē",
      "đ ęęĖ",
      "Ē Ď",
      "Ē ęęĖ",
      "ē Đ",
      "Ĕ ęęęė",
      "ĕ ď",
      "ĕ ĘęęĘ",
      "ĕ ęęĔ",
      "ĕ ęęęęĚĘ",
      "Ė ę",
      "Ė ĖęęĘ",
      "ė ęęęĚ",
      "ė ĘęęĚ",
      "ė ĖęęĘ",
      "Ę ę",
      "Ę ęę",
      "Ě Ĝ",
      "Ě ęę",
      "Ě ęęęĘ",
      "Ě ęęęęęęęęęęę",
      "ě \"",
      "Ĝ Đ",
      "Ĝ ę",
      "Ĝ ęę",
      "Ĝ ĘęęĜ",
      "ĝ ęęęęĚ",
      "Ğ ęęĖ",
      "ęęęę ęęĘę",
      "ęęęę ęęĚę",
      "ęĚ ęĖ",
      "ęĚ Ĝęęęę",
      "ęĚ ęęęęęęęęęęęęęęęęęęęę",
      "ęĚ ęĜęęĘ",
      "ęĘ ęęĔ",
      "ęĘ Ėęęęę",
      "ęĘ ęĚęęęęĚ",
      "ęęĘ Ėęęęę",
      "ęęĘ ĚęęĘę",
      "ęęĚ ĚęęĘ",
      "ęęĚ ėęęęę",
      "ęęĚ Ĝęęęę",
      "ĀĀ /",
      "ĀĀ ą",
      "ĀĀ ć",
      "ĀĀ Ĉ",
      "ęě ęęĖ",
      "ęė ęĚęęęęĘ",
      "ęęė Ęęęė",
      "Ěęęęę ęĘ",
      "Ěęęęę ęęęĚ",
      "ęęęĚ ęęĚę",
      "ęĖ ęĚęęĘ",
      "ęęĜ ĚęęĚ",
      "ęĚęęęę ęęĘęęęęęę",
      "ęĘęęęę ĘęęĘ",
      "ęĘęęęę ĚęęĚ",
      "ęĕ ęęĜ",
      "ęĝ ęęě",
      "ęĚĘ ĘęęĘę",
      "ęĘĘ ęęęě",
      "ęĘĘ ĘęęęęĚ",
      "ęĞ ğ",
      "ęęĚęęęę ęęĘęęęę",
      "ęěĘ ĚęęĚ",
      "ęěĘ Ęęęė",
      "ęěĘ ĖęęĘ",
      "ęĚė ĖęęĘ",
      "ĀĀĚ Āē",
      "ęėĚ ěęęĚ",
      "ęęęĜ ę",
      "ĀĀĖ ĀĞ",
      "ĀĀě ĀĞ",
      "ęęęĖ ę",
      "ęē Ě",
      "ęē ęęĘ",
      "Ėęęęę ě",
      "ęěęęęę ęęĘ",
      "ęęęĚęęęę ęę",
      "ĚĚ Ęęęęę",
      "ĚęęęęĘ ęĘęęęę",
      "ĀĀĜ Āĝ",
      "ĚĘ Ęęęęę",
      "ęĜĚ Ęęęęę",
      "ęĚĜ ėęęĚ",
      "ęĚĜ Ęęęě",
      "ěĚ Ęęęęę",
      "ėĚ ĚęęĚ",
      "ęėě ĘęęĚ",
      "ęėě ĚęęĚ",
      "ęĚĖ ĚęęĘ",
      "ĀĀĔ ĀĜ",
      "ęĖĘ ęęęĚ",
      "ĚęęęęĚ ęĘęęęę",
      "ęęęęĚĚ ĘęęĚ",
      "ęėĜ ęęęĚ",
      "ęėĜ ĚęęĚ",
      "ĀĀĒ Āė",
      "ĀĀĒ ĀĞ",
      "ęĜė Ęęęė",
      "ĀĀđ ĀĘ",
      "ĀĀđ Āě",
      "ęĚęĘ ęęĖ",
      "ęĚęĘ ęęĘę",
      "ĀĀ) Ā",
      "\" ĝ",
      "# ğ",
      "% ě",
      "Ď ė",
      "ď ĕ",
      "ď Ě",
      "Đ ğ",
      "Đ ęęĚ",
      "đ ęęė",
      "Ē !",
      "Ē ę",
      "Ĕ ęęğ",
      "ĕ ęęē",
      "ĕ ęęĘę",
      "Ė ěęęęę",
      "ė ę",
      "ė ęě",
      "Ę ě",
      "Ę ėęęĘ",
      "Ę ęęē",
      "Ę ęęęĘę",
      "ę ĀĀĘĀ",
      "Ě ęęęęęęęęęęęę",
      "ě ęę",
      "ě Ěęęě",
      "ě ĖęęĚ",
      "Ĝ ėęęĚ",
      "Ĝ ĜęęĚ",
      "ĝ ĀĀ",
      "ĝ Ęęęě",
      "Ğ ĕ",
      "ğ ęęě",
      "Ġ $",
      "ęĚ ĚęęĘ",
      "ęĚ ęęĝ",
      "ęĚ ęĔ",
      "ęĘ ęęĕ",
      "ęĘ ěęęĘ",
      "ęĘ ęęęęęęęęęęęęęęęęęęęę",
      "ęęĘ ěęęęę",
      "ęęĚ ĜęęĚ",
      "ęęĚ ĘęęĚę",
      "ęě đ",
      "ęě ęĖ",
      "ęė ęęĝ",
      "ęė ęėęęęę",
      "ęė Ĝęęęę",
      "ęęęęęęęę ęęĘęęęę",
      "ęęě ėęęě",
      "ęęě ęęęĚę",
      "ęęė ěęęė",
      "Ęęęęę ęęĘęęęę",
      "Ěęęęę ĜĚ",
      "ęęęĘ ęęęęęęęę",
      "ęęęĘ ęęęęęęęęęęę",
      "ęĜ Ē",
      "ęĜ ęĘęęęę",
      "ęĖ ęěęęęę",
      "ęęĜ ėęęĚ",
      "ęĚęęęę ęęĜ",
      "ęĚęęęę ĚęęĚ",
      "ęĚęęęę ęęęĚęęęęę",
      "ęĘęęęę ĚęęĘ",
      "ęĝ ē",
      "ęĝ ęęęęĚ",
      "ęĚĚ ĖęęĚ",
      "ęĚĚ ĘęęęęĘ",
      "ęĚĚ ĘęęĜ",
      "ęĚĚ ĚęęĚę",
      "ęęęęĚ ęĚęęęę",
      "ęĚĘ ęęęĘęęĘ",
      "ęĘĘ ĜęęĘ",
      "ęęĚęęęę ęęĘę",
      "ęęĚęęęę ęĘĘęęęę",
      "ėęęĚ ęęĚ",
      "ĀĀĘ Āğ",
      "ĀĀĘ ĀĚĘ",
      "ęĚě ėęęě",
      "ęĚě ĖęęĚ",
      "ĀĀę Āğ",
      "ęěĘ Ěęęė",
      "ęěĚ ęęęě",
      "ęĚė Ęęęė",
      "ęĘě Ěęęęę",
      "ęĘė ĜęęĘ",
      "ęėĚ Ęęęęę",
      "ęėĚ ėęęě",
      "ęėĚ ĜęęĚ",
      "ĀĀė Āē",
      "ęęęĖ ęęĘ",
      "ęē ĝ",
      "ęěě ĘęęĚ",
      "ęěęęęę ęęĚ",
      "ęėė Ęęęęę",
      "ęėė ĘęęĘ",
      "ęėė ěęęė",
      "ĀĀĜ ĀĞ",
      "ĀĀĕ Āğ",
      "ěęęě ę",
      "ęĜĚ ęęęĚ",
      "ęĚĜ ęęęě",
      "ėĚ ęęĕ",
      "ĀĀĝ ĀĔ",
      "ęĘĜ ęęęĚ",
      "ęĘĜ Ęęęě",
      "ěĘ ęęĝ",
      "ęĖĘ ęęęĘ",
      "ęĖĚ ěęęĚ",
      "ĀĀĞ ĀĜ",
      "ęęęęĘĘ Ěęęęę",
      "ęęęĘęęĘ ęęęęęęęę",
      "ęęęęĚĚ Ěęęęę",
      "ęėĜ ėęęĚ",
      "ĀĀĒ ĀĘ",
      "ĀĀĒ ĀĖ",
      "ĀĀĒ Āĕ",
      "ęĖě ęęęĜ",
      "ĀĀđ ĀĚ",
      "ĀĀ! Āě",
      "ĀĀ\" Āě",
      "Ėě ęęĕ",
      "ĀĀĐ ĀĖ",
      "ęĚęĘęęĚ ę",
      "ęĘęĘ ęęě",
      "ĀĀ' Ā",
      "\" #",
      "# Ĝ",
      "$ Ę",
      "Ď Ě",
      "Đ Ğ",
      "đ Ĕ",
      "ē Ē",
      "Ĕ đ",
      "ĕ ęęĞ",
      "Ė Ē",
      "Ė ē",
      "Ė Ęęęęę",
      "Ė ęĝ",
      "Ė ěęęĘ",
      "Ė Ęęęė",
      "ė ď",
      "ė ėęęĚ",
      "ė Ęęęė",
      "ė ěęęė",
      "Ę ĝ",
      "Ę ĘęęĘ",
      "Ę ęęęęęęęęęęęę",
      "Ę ęęĒ",
      "Ę ęęęęęęęęęęę",
      "ę %",
      "Ě ęĚ",
      "Ě ęęğ",
      "ě ėęęě",
      "Ĝ ē",
      "Ĝ Ěęęě",
      "Ğ ęęęęĘ",
      "ğ ęęė",
      "Ġ Ĕ",
      "Ġ ęęĝ",
      "Ġ Āĝ",
      "Ġ ěęęě",
      "Ġ ĀĀĔ",
      "ęęęę Ĝ",
      "ęęęę ęęė",
      "ęĚ ęęęęęęęęęęęęęęęę",
      "ęĚ Ėęęęę",
      "ęĚ ęĚęęęęĚ",
      "ęĚ ęěęęĚ",
      "ęĚ ęĖęęĘ",
      "ęĚ ęĜęęĚ",
      "ęĘ ęĜ",
      "ęĘ ęĔ",
      "ęĘ ęĘęęęęĚ",
      "ęĘ ęėęęė",
      "ęęĘ ęęęęęęęęęęęę",
      "ęęĚ ęęęė",
      "ęě ęęě",
      "ęě ęęĜ",
      "ęě ĚęęĚ",
      "ęě ęěęęęę",
      "ęě ęėęęęę",
      "ęě ęĘęęęęĘ",
      "ęě ęěęęĘ",
      "ęě Ěęęęęę",
      "ęě ęĘęęė",
      "ęė đ",
      "ęęęęęęęę ĘęęęęĚ",
      "ęęė ęęęĘę",
      "ęęė ĖęęĘ",
      "Ęęęęę ęĘ",
      "Ęęęęę ęęě",
      "Ęęęęę ęęė",
      "Ęęęęę ėĘ",
      "Ěęęęę ęęě",
      "ęĜ ęĚęęĚ",
      "ęĖ Đ",
      "ęĖ ęęĜ",
      "ęĖ ęĚęęĚ",
      "ęęĖ ęęĚ",
      "ęęĜ ĘęęĚ",
      "ęĘęęęę ęęĚęęęę",
      "ęĕ ęĚęęĚ",
      "ęĝ !",
      "ęĝ ęęė",
      "ęęęęĚ ė",
      "ęĚĘ ęęęęęęęęęęęę",
      "ęĚĘ ěęęė",
      "ęĚĘ ĖęęĘ",
      "ęĘĚ ęęęęęęęęęęęę",
      "ęĘĚ ĚęęĚę",
      "ęĘĘ ėęęĚ",
      "ęęęě ęęě",
      "ęęęě ęęęęĚ",
      "ęęę Ď",
      "ęĚě ěęęĚ",
      "ęĚě Ěęęě",
      "ęěĘ ěęęĘ",
      "ęěĘ ęęęĖ",
      "ęěĘ ėęęė",
      "ęĘě ěęęęę",
      "ęėĚ Ěęęęę",
      "ęėĚ ęęęĘ",
      "ĀĀĖ Āğ",
      "ęē ĕ",
      "Āĕ Ě",
      "ęęęĘęęęę ęęĘęęęę",
      "ĚĚ Ě",
      "ęěė ęęęė",
      "ęěė ėęęė",
      "ęėė ėęęĘ",
      "ęėė Ęęęė",
      "ĚęęęęĘ ę",
      "ĀĀĜ ĀĔ",
      "ĚĘ ęęĞ",
      "ęęĒ ęĜ",
      "ĀĀĕ Āĕ",
      "ĀĀĕ ĀĞ",
      "ęĜĚ ĘęęĘ",
      "ęĜĚ Ęęęė",
      "ĘęęęęĘ ęĚęęęę",
      "ěĚ ęęĝ",
      "ėĚ ĘęęĚ",
      "ėĚ ęęĔ",
      "ęėě Ěęęě",
      "ėĘ ęęĕ",
      "ęĜĘ ėęęęę",
      "ęĜĘ ėęęĘ",
      "ęĘĜ ĚęęĚ",
      "ěĘ Ęęęęę",
      "ěĘ ęęęĘ",
      "ęĚĖ Ęęęė",
      "ęĘĖ ĘęęĘ",
      "ęĘĖ ęęęė",
      "ęĘĚęęęę Ě",
      "ęĒ Ě",
      "ęěĜ Ęęęęę",
      "ęěĜ ĘęęĚ",
      "ĀĀğ ĀĖ",
      "ęęęĕ ęęĘ",
      "ęĜě ĚęęĚ",
      "ĀĀĒ ĀĜ",
      "ěĝ ęęĚ",
      "ę! Ě",
      "ĀĀđ Āė",
      "ĀĀđ ĀĜ",
      "ęĚĝ ęęęě",
      "ĀĀ\" Āė",
      "ĀĀď Āė",
      "ĀĀĎ Āě",
      "ęęęęęęęęęĚ ę",
      "ēĘ ęęĔ",
      "ęĚęĚęęĚ ę",
      "! $",
      "# ě",
      "Ď ĝ",
      "Đ ĝ",
      "Ē ğ",
      "ē ęę",
      "Ĕ ĘęęĘ",
      "Ĕ ęęĞ",
      "ĕ ęęęė",
      "ĕ Ěęęė",
      "Ė ėęęė",
      "Ė ęęęęĚĘ",
      "ė Đ",
      "ė Ē",
      "ė ē",
      "ė Ĕ",
      "ė ĚęęĚ",
      "ė ęěęęęę",
      "Ę Ĕ",
      "ě ď",
      "ě ęĚęęęę",
      "ě Ĝęęęę",
      "ě ĜęęĚ",
      "ě ěęęě",
      "ě ęęęęĚĘ",
      "Ĝ Ěęęęę",
      "Ĝ Ęęęě",
      "Ĝ ěęęĚ",
      "Ĝ ěęęě",
      "Ĝ ęęęęĘĘ",
      "Ĝ ęęęęĚĚ",
      "ĝ ęęęĚ",
      "ĝ ęęĞ",
      "ĝ ĜęęĚ",
      "Ğ Ěęęě",
      "Ġ Ē",
      "Ġ ĀĖ",
      "Ġ ĀĀĘĀ",
      "Ġ ęęęĞ",
      "Ġ ĀĀĖĀ",
      "Ġ ĀĀĚĀ",
      "ęĚ ęęĞ",
      "ęĚ ęęęęęęęęęęę",
      "ęĘ ęĖęęęę",
      "ęĘ ęęęęęęęęęęęĚ",
      "ęĘ ęĝęęĘ",
      "ęęĚ Ěęęė",
      "ęęĚ ĘęęęęĘ",
      "ĀĀ ă",
      "ĀĀ Ą",
      "ęě ęė",
      "ęě ęęĕ",
      "ęě ęęęęĚĚ",
      "ęė ėęęĘ",
      "ęė Ėęęęę",
      "ęė ęĚęęė",
      "ęė ęĜęęĚ",
      "ęęęęęęęę ęĚęęęęę",
      "ęęě ęęęĘ",
      "ęęė ęęęĚ",
      "ęęė ęęęĘęęĚ",
      "ęęęĚ ęęęęęęęęęęę",
      "ęĜ ęĘęęė",
      "ęĖ ęęĖ",
      "ęęĜ ėęęě",
      "ęĚęęęę ĚęęĘ",
      "ęĚęęęę ęęęĚęęęę",
      "ęĘęęęę ęęĚęęęęęę",
      "ĘęęĚ ęęęęęęęę",
      "ęĚĚ ěęęęę",
      "ęĚĚ ęęęĜ",
      "ęĚĚ Ėęęęę",
      "ęĚĚ ĘęęĖ",
      "ęęęęĘ ę",
      "ęęęęĚ ę",
      "ęęęęĚ Ěęęęę",
      "ęĚĘ ěęęęę",
      "ęĚĘ Ęęęě",
      "ęĚĘ ėęęě",
      "ęĚĘ Ėęęęę",
      "ęĚĘ ėęęė",
      "ęĘĚ ĚęęęęĘ",
      "ęĘĚ ęęęĚęęĚ",
      "ęĘĘ ęęęęęęęęęęęę",
      "ęĘĘ Ěęęě",
      "ęĘĘ ęęęĚę",
      "ęĘĘ ĖęęĘ",
      "ęęĝ ĚęęĚ",
      "ęęĝ ęęęě",
      "ęęę ď",
      "ėęęęę ėĚ",
      "ęĞ ęęĚ",
      "ęĞ ęęė",
      "ęęĔ ę",
      "ęĔ Ē",
      "ęĚě ęęĚ",
      "ęĚě ęęęĜ",
      "ęěĘ ěęęęę",
      "ęěĚ ĖęęĚ",
      "ęĚė ěęęĘ",
      "ęĚė ęęęĖ",
      "ęĚė ěęęė",
      "ęĘě ėęęě",
      "ęĘė Ęęęęę",
      "ęĘė Ęęęė",
      "ęĘė Ĝęęė",
      "ęėĚ ėęęĚ",
      "ęėĚ ěęęě",
      "ĀĀė Āğ",
      "ĀĀė ĀĚĚ",
      "ęėĘ Ęęęęę",
      "ęėĘ ęęęė",
      "ęęē ęĝ",
      "ĀĀě Āğ",
      "ęěě ėęęě",
      "ęėęęęę ęę",
      "ĖęęĚ ę",
      "ęěė ěęęĘ",
      "ęěė ęęęĖ",
      "ĚęęęęĘ Ęęęęęę",
      "ĀĀĕ ĀĔ",
      "ĜęęĚ ę",
      "ęĜĚ ėęęĘ",
      "ĘęęęęĘ ĚĚęęęę",
      "ěĚ Ěęęęę",
      "ęĘĜ ĘęęĚ",
      "ěĘ ęęĞ",
      "ĀĀĔ Āĝ",
      "ĀĀĔ ĀĔ",
      "ęĖĘ ĚęęĚ",
      "ęĘĖ Ěęęė",
      "ęěĜ Ęęęě",
      "ĀĀğ ĀĚ",
      "ĀĀğ Āė",
      "ĀĀğ Āĝ",
      "ęėĖ ĘęęĘ",
      "ęėĖ ĚęęĘ",
      "ęėĖ ęęęė",
      "ęęĚęęęĚ ęęĚ",
      "ęĜě ęęęĚ",
      "ěě ęęĞ",
      "ĀĀē Āě",
      "ĀĀē Āĕ",
      "ĀĀĒ Āĝ",
      "ĀĀĒ ĀĔ",
      "ęęęęĘĚ ĘęęĚ",
      "ęĜė ĚęęĘ",
      "ęĜė ęęęė",
      "ęĜĜ ęęęĚ",
      "ęĜĜ ėęęĚ",
      "ęĖě ęęęĚ",
      "ėė ĚęęĘ",
      "ę! Ę",
      "ęęęęęęĚ ęęĚ",
      "ęĕĚ ėęęĚ",
      "ĕĚ ęęĔ",
      "ęĘęĚ ęęĘę",
      "Ėė ęęĕ",
      "ęęęęęęęęęĘ ęęęĘę"
    ]
  }
}