{
  "version": "1.0",
  "truncation": null,
  "padding": null,
  "added_tokens": [],
  "normalizer": null,
  "pre_tokenizer": {
    "type": "ByteLevel",
    "add_prefix_space": false,
    "trim_offsets": true,
    "use_regex": true
  },
  "post_processor": {
    "type": "ByteLevel",
    "add_prefix_space": true,
    "trim_offsets": false,
    "use_regex": true
  },
  "decoder": {
    "type": "ByteLevel",
    "add_prefix_space": true,
    "trim_offsets": true,
    "use_regex": true
  },
  "model": {
    "type": "BPE",
    "dropout": null,
    "unk_token": null,
    "continuing_subword_prefix": null,
    "end_of_word_suffix": null,
    "fuse_unk": false,
    "byte_fallback": false,
    "ignore_merges": false,
    "vocab": {
      "\u0000": 0,
      "\u0001": 1,
      "\u0002": 2,
      "\u0003": 3,
      "\u0004": 4,
      "\u0005": 5,
      "\u0006": 6,
      "\u0007": 7,
      "\b": 8,
      "\t": 9,
      "\n": 10,
      "\u000b": 11,
      "\f": 12,
      "\r": 13,
      "\u000e": 14,
      "\u000f": 15,
      "\u0010": 16,
      "\u0011": 17,
      "\u0012": 18,
      "\u0013": 19,
      "\u0014": 20,
      "\u0015": 21,
      "\u0016": 22,
      "\u0017": 23,
      "\u0018": 24,
      "\u0019": 25,
      "\u001a": 26,
      "\u001b": 27,
      "\u001c": 28,
      "\u001d": 29,
      "\u001e": 30,
      "\u001f": 31,
      " ": 32,
      "!": 33,
      "\"": 34,
      "#": 35,
      "$": 36,
      "%": 37,
      "&": 38,
      "'": 39,
      "(": 40,
      ")": 41,
      "*": 42,
      "+": 43,
      ",": 44,
      "-": 45,
      ".": 46,
      "/": 47,
      "0": 48,
      "1": 49,
      "2": 50,
      "3": 51,
      "4": 52,
      "5": 53,
      "6": 54,
      "7": 55,
      "8": 56,
      "9": 57,
      ":": 58,
      ";": 59,
      "<": 60,
      "=": 61,
      ">": 62,
      "?": 63,
      "@": 64,
      "A": 65,
      "B": 66,
      "C": 67,
      "D": 68,
      "E": 69,
      "F": 70,
      "G": 71,
      "H": 72,
      "I": 73,
      "J": 74,
      "K": 75,
      "L": 76,
      "Ā": 77,
      "ā": 78,
      "ă": 79,
      "Ą": 80,
      "ą": 81,
      "Ć": 82,
      "ć": 83,
      "Ĉ": 84,
      "ĉ": 85,
      "Ċ": 86,
      "ċ": 87,
      "Č": 88,
      "č": 89,
      "Ď": 90,
      "ď": 91,
      "Đ": 92,
      "đ": 93,
      "Ē": 94,
      "ē": 95,
      "Ĕ": 96,
      "ĕ": 97,
      "Ė": 98,
      "ė": 99,
      "Ę": 100,
      "ę": 101,
      "Ě": 102,
      "ě": 103,
      "Ĝ": 104,
      "ĝ": 105,
      "Ğ": 106,
      "ğ": 107,
      "Ġ": 108,
      "&&": 109,
      "&&&&": 110,
      "&'": 111,
      "&%": 112,
      "&&%": 113,
      "&&'": 114,
      "ĀĀ": 115,
      "&(": 116,
      "&$": 117,
      "&&(": 118,
      "&&$": 119,
      "&)": 120,
      "&#": 121,
      "%&&": 122,
      "'&&": 123,
      "%&&&&": 124,
      "'&&&&": 125,
      "&*": 126,
      "&\"": 127,
      "&&#": 128,
      "&&)": 129,
      "&'&&&&": 130,
      "&%&&&&": 131,
      "$&&": 132,
      "(&&": 133,
      "&&%&": 134,
      "&&'&": 135,
      "&+": 136,
      ")&&": 137,
      "#&&": 138,
      "&!": 139,
      "$&&&&": 140,
      "(&&&&": 141,
      "&&&&&&&&": 142,
      "&&%&'": 143,
      "&&'&'": 144,
      "&&%&%": 145,
      "\"&&": 146,
      "&&'&%": 147,
      "'%": 148,
      "*&&": 149,
      "''": 150,
      "%%": 151,
      "&,": 152,
      "&&&%": 153,
      "%'": 154,
      "&&&'": 155,
      "&&\"": 156,
      "&&%&(": 157,
      "&&*": 158,
      "&-": 159,
      "&&'&$": 160,
      "&&'&(": 161,
      "&&$&'": 162,
      "#&&&&": 163,
      "&&%&$": 164,
      "'(": 165,
      "&&(&": 166,
      "&$&&&&": 167,
      ")&&&&": 168,
      "%$": 169,
      "&&(&'": 170,
      "!&&": 171,
      "&&(&%": 172,
      "&(&&&&": 173,
      "('": 174,
      "&&$&": 175,
      "$'": 176,
      "&&$&%": 177,
      "+&&": 178,
      "%(": 179,
      "&&%&&&&": 180,
      "$%": 181,
      "%&&&%": 182,
      "'&&&'": 183,
      "Ā(": 184,
      "&&'&&&&": 185,
      "&ğ": 186,
      "ĀĀ%": 187,
      "Ā)": 188,
      "'$": 189,
      "Ā$": 190,
      "Ġ&&": 191,
      "(%": 192,
      "ĀĀ&": 193,
      "&&'&&": 194,
      "ĀĀ$": 195,
      "ĀĀ'": 196,
      "%%&&&&": 197,
      "&&%&&": 198,
      "''&&&&": 199,
      "&&%&)": 200,
      "Ā%": 201,
      "ĀĀ(": 202,
      "Ā\"": 203,
      "&.": 204,
      "&&(&$": 205,
      "'%&&&&": 206,
      "ĀĀ#": 207,
      "Ā#": 208,
      "Ā*": 209,
      "&&$&(": 210,
      "&&'&#": 211,
      "Ā!": 212,
      "&&(&(": 213,
      "$$": 214,
      "\"&&&&": 215,
      "&&%&#": 216,
      "%'&&&&": 217,
      "Ā'": 218,
      "ĀĀ\"": 219,
      "($": 220,
      "&&$&$": 221,
      ",&&": 222,
      "&&'&)": 223,
      "%&&)": 224,
      "((": 225,
      "&Ğ": 226,
      "'&&)": 227,
      "ĀĀ)": 228,
      "*&&&&": 229,
      "'&&#": 230,
      "$(": 231,
      "ğ&&": 232,
      "Ā+": 233,
      "#'": 234,
      "%)": 235,
      "-&&": 236,
      "&&'&&'": 237,
      "ĀĀ!": 238,
      "%&&#": 239,
      "%#": 240,
      "Ā,": 241,
      "'#": 242,
      "&&%&&%": 243,
      ")'": 244,
      "(&&&'": 245,
      "&&&": 246,
      "&&'&&%": 247,
      ")%": 248,
      ")(": 249,
      "ĀĀ*": 250,
      "&&)&'": 251,
      "$&&&%": 252,
      "&&$&)": 253,
      "&&)&%": 254,
      "&ĝ": 255,
      "Ā-": 256,
      "&&#&'": 257,
      "&&%&*": 258,
      ")$": 259,
      "&/": 260,
      "&&!": 261,
      "&&%&&'": 262,
      "&&+": 263,
      "&&'&\"": 264,
      "#%": 265,
      "#$": 266,
      "&#&&&&": 267,
      "&&#&%": 268,
      "&&(&#": 269,
      "(#": 270,
      "ĀĀ+": 271,
      "!&&&&": 272,
      "&&(&&": 273,
      "Āğ": 274,
      "ĀĀğ": 275,
      "&)&&&&": 276,
      "#(": 277,
      "&&$&#": 278,
      "&&$&&": 279,
      "')": 280,
      "ĀĀ,": 281,
      "&&#&(": 282,
      "%&&&'": 283,
      "+&&&&": 284,
      "Ā.": 285,
      "&&%&\"": 286,
      "&&'&*": 287,
      "$#": 288,
      "&Ĝ": 289,
      "&&(&)": 290,
      "'&&\"": 291,
      "%&&\"": 292,
      "'&&&%": 293,
      "%&&*": 294,
      "$)": 295,
      "&'%": 296,
      "&&)&$": 297,
      "ĀĀ%Ā": 298,
      "ĀĀ-": 299,
      "&'&&&&%": 300,
      "'\"": 301,
      "Ğ&&": 302,
      "Ġ(": 303,
      "Ġ&&&&": 304,
      "'&&*": 305,
      "&$&'": 306,
      "&'&&&&'": 307,
      "$%&&&&": 308,
      "*%": 309,
      "ĀĀ/": 310,
      "*(": 311,
      "ĀĀ&Ā": 312,
      "\"'": 313,
      "ĝ&&": 314,
      "&'%&&&&": 315,
      ")&&&'": 316,
      "ĀĀ$Ā": 317,
      "\"$": 318,
      "&&%&&&%": 319,
      "%*": 320,
      "&(&%": 321,
      "%(&&&&": 322,
      "()": 323,
      "&%'": 324,
      "&&)&(": 325,
      "&&(&&&&": 326,
      ")#": 327,
      "&&'&&&'": 328,
      "*$": 329,
      "*'": 330,
      "+ĀĀ": 331,
      "&%&&&&'": 332,
      "(&&\"": 333,
      "&&&&&&&&&&&&": 334,
      "%\"": 335,
      "'&&&&&": 336,
      "ĀĀ'Ā": 337,
      "&''": 338,
      "&&$&*": 339,
      "&&#&": 340,
      "&&)&": 341,
      "##": 342,
      "&%%&&&&": 343,
      "&&(&*": 344,
      "&&(&\"": 345,
      ".&&": 346,
      "ĀĀĞ": 347,
      "&&$&\"": 348,
      "\"(": 349,
      "&(&'": 350,
      "&&$&&&&": 351,
      "%&&&$": 352,
      "$&&\"": 353,
      "$&&*": 354,
      "'*": 355,
      "'$&&&&": 356,
      "$*": 357,
      "(\"": 358,
      "ĀĀĜ": 359,
      "&&&'&&&&": 360,
      "&&%&!": 361,
      "'(&&&&": 362,
      "&&#&$": 363,
      "%&&+": 364,
      "#)": 365,
      "&&%&+": 366,
      "&&'&+": 367,
      ")&&\"": 368,
      "ĀĞ": 369,
      "ĀĀ.": 370,
      "&&(&&'": 371,
      "\"%": 372,
      "$'&&&&": 373,
      "(%&&&&": 374,
      "ĀĀě": 375,
      "&&#&)": 376,
      "$&&&$": 377,
      "&&'&!": 378,
      "(*": 379,
      "('&&&&": 380,
      "))": 381,
      "&%&'": 382,
      "ĀĀĝ": 383,
      "&&'&&(": 384,
      "(&&*": 385,
      "&&,": 386,
      "&\"&&&&": 387,
      "&%&&&&%": 388,
      "$\"": 389,
      "Ġ%": 390,
      "ĀĀ(Ā": 391,
      "%&&!": 392,
      "&&)&#": 393,
      "&'&&&&&&": 394,
      "#&&\"": 395,
      "&&%&&&&&&&&": 396,
      "&(&": 397,
      "%&&&%&": 398,
      "ĀĀ\"Ā": 399,
      "%$&&&&": 400,
      "Ġ$": 401,
      "'!": 402,
      "(+": 403,
      "&'&%": 404,
      "&%&&&&&&&&": 405,
      "'&&&'&": 406,
      "ĀĀ)Ā": 407,
      ")*": 408,
      "&%'&&&&": 409,
      "&&%&&$": 410,
      "&&$&+": 411,
      "ĀĀ#Ā": 412,
      "ĀĀĚ": 413,
      "'&&+": 414,
      "&''&&&&": 415,
      "'&&!": 416,
      "*#": 417,
      "+(": 418,
      ",&&&&": 419,
      "#&&*": 420,
      "Ġ'": 421,
      "&%%": 422,
      "&&%'": 423,
      ")&&*": 424,
      "Ġ!": 425,
      "&%$": 426,
      "#\"": 427,
      "&&(&+": 428,
      "&&#&*": 429,
      "&&)&)": 430,
      "&&'&&&&&&&&": 431,
      "&&&%&": 432,
      "&&&'&": 433,
      "&%&&&&&&": 434,
      "+$": 435,
      "Ġ#": 436,
      "$&&!": 437,
      "%!": 438,
      "&ě": 439,
      "Ġ&(": 440,
      "&&%&&(": 441,
      ")\"": 442,
      "&'&'": 443,
      "&&$&&'": 444,
      "&*&&&&": 445,
      "(&&!": 446,
      "#&&&%": 447,
      "((&&&&": 448,
      "*)": 449,
      "ĀĀ!Ā": 450,
      "!%": 451,
      "!'": 452,
      "Ġ\"": 453,
      "&&(&!": 454,
      "%&&&&&": 455,
      "&'&&&&&&&&": 456,
      "+#": 457,
      "&$%": 458,
      "$&&+": 459,
      "+'": 460,
      "-ĀĀ": 461,
      "ğ&&&&": 462,
      "&$&%": 463,
      "&&#&#": 464,
      "ĀĀ*Ā": 465,
      ",ĀĀ": 466,
      "\"&&*": 467,
      "$!": 468,
      "&ĀĀ": 469,
      "&(&(": 470,
      "\")": 471,
      "Ġ*": 472,
      "&&&&&&&&&&&&&&&&": 473,
      "&&%&&&&&": 474,
      "!$": 475,
      "Ġ&'": 476,
      "&&ğ": 477,
      "(&&+": 478,
      "*&&\"": 479,
      ",)": 480,
      "&('": 481,
      "#&&!": 482,
      "\"#": 483,
      "&&-": 484,
      "&%(": 485,
      "&&%%": 486,
      "#&&+": 487,
      "Ġ)": 488,
      "&$'": 489,
      "&&#&&": 490,
      "Ġ&)": 491,
      "&&%&&&'": 492,
      "#+": 493,
      "%+": 494,
      "+%": 495,
      "&&)&&": 496,
      "&&)&\"": 497,
      "\"\"": 498,
      "',": 499,
      "&(&$": 500,
      "&&$&!": 501,
      "%#&&&&": 502,
      "+)": 503,
      "ĀĀę": 504,
      "'&&&)": 505,
      "*&&*": 506,
      "!#": 507,
      "!(": 508,
      "*+": 509,
      "Ĝ&&": 510,
      "ĠĀ": 511,
      "&&&&%": 512,
      "&&&&'": 513,
      "&&%&,": 514,
      "\"&&\"": 515,
      "&&'&&&&&": 516,
      "&&'&&$": 517,
      "ĀĀ+Ā": 518,
      "*\"": 519,
      "Ġ&%": 520,
      "&#&'": 521,
      "'%&&'&": 522,
      "#!": 523,
      "#*": 524,
      ")+": 525,
      "&%&%": 526,
      "&&#&\"": 527,
      ".ĀĀ": 528,
      "%&&&&'": 529,
      "')&&&&": 530,
      "),": 531,
      "&($": 532,
      "(&&&(": 533,
      "'+": 534,
      "/ĀĀ": 535,
      "Ġ&": 536,
      "&&&%&&&&": 537,
      "&'$": 538,
      "&&(%": 539,
      "'&&&&%": 540,
      "\"&&+": 541,
      "!)": 542,
      "(,": 543,
      "&&#&+": 544,
      "Āĝ": 545,
      "ğ)": 546,
      "&&(&&$": 547,
      ")&&!": 548,
      "%,": 549,
      "(!": 550,
      "/&&": 551,
      "%&&&&%": 552,
      ")&&+": 553,
      "*&&&'": 554,
      "$+": 555,
      ")!": 556,
      "**": 557,
      "Ā/": 558,
      "Ġ+": 559,
      "&((": 560,
      "%&&ğ": 561,
      "'&&&(": 562,
      "'&&&&&&&&": 563,
      "&&)&*": 564,
      "''&&'&": 565,
      "&&$&&%": 566,
      "&&$&&$": 567,
      "'&&,": 568,
      "%&&&&&&&&": 569,
      "Ġ&$": 570,
      "Ġ&*": 571,
      "&%&'&&&&": 572,
      "&&'&&)": 573,
      "&&$&,": 574,
      "%&&&&&&": 575,
      "#&&&$": 576,
      "&Ě": 577,
      ",'": 578,
      "Ġ&#": 579,
      "&&Ğ": 580,
      "&&''": 581,
      "&$$": 582,
      "&%&&&&(": 583,
      ")&&&(": 584,
      "&'(": 585,
      "&&%&'&&&&": 586,
      "&&'&&&%": 587,
      "&$(": 588,
      "$&&,": 589,
      "$&&&#": 590,
      "*&&!": 591,
      "%&&'&": 592,
      "(ĀĀ": 593,
      "&%%'": 594,
      "'&&&&'": 595,
      "(&&,": 596,
      "&&%&-": 597,
      "&&'&ğ": 598,
      "#&&,": 599,
      "%&&&%&'": 600,
      "$&&&%&": 601,
      "ĀĀ,Ā": 602,
      "\"!": 603,
      "\"+": 604,
      "'#&&&&": 605,
      "-&&&&": 606,
      "\"*": 607,
      "*!": 608,
      "-&": 609,
      "Ġ,": 610,
      "&&(&&%": 611,
      "&&$&&(": 612,
      "%&&,": 613,
      "&&*&%": 614,
      "&&%&&&%&&&&": 615,
      "ĀĀĞĀ": 616,
      "$,": 617,
      "$$&&&&": 618,
      "'ğ": 619,
      "*ĀĀ": 620,
      "++": 621,
      "&&%&&#": 622,
      "&(%": 623,
      "&#%": 624,
      "(&&&%": 625,
      "'&&&'&%": 626,
      "ĀĀğĀ": 627,
      "($&&&&": 628,
      ")ĀĀ": 629,
      "'&&ğ": 630,
      "&+&&&&": 631,
      "&(&&&&%": 632,
      "Ġ-": 633,
      "&&.": 634,
      "&&'%": 635,
      "&&'&'&&&&": 636,
      "&(#": 637,
      "&$&(": 638,
      "&&)&!": 639,
      "\"&&&%": 640,
      "&&\"&%": 641,
      "&$&&&&'": 642,
      "!!": 643,
      "$ĀĀ": 644,
      "'ĀĀ": 645,
      "+*": 646,
      ",+": 647,
      "&$&": 648,
      "%&&-": 649,
      "&&)&+": 650,
      ")&&&)": 651,
      "#&&&#": 652,
      "&!&&&&": 653,
      "&'\"": 654,
      "&&(&&(": 655,
      "&&$&&&%": 656,
      "'&&&&&&": 657,
      "'&&&&&%": 658,
      "%%&&%&": 659,
      "(&&&'&": 660,
      "ĀĀ-Ā": 661,
      "!\"": 662,
      "%&'&&&&": 663,
      "%)&&&&": 664,
      "'-": 665,
      "Ğ!": 666,
      "ğ$": 667,
      "&&%%&&&&": 668,
      "&&%&%&&&&": 669,
      "%&&Ğ": 670,
      "&*&%": 671,
      "&&'&,": 672,
      "(-": 673,
      "(ğ": 674,
      "&%#": 675,
      "&$&$": 676,
      "!&&+": 677,
      "ĀĀ/Ā": 678,
      "!+": 679,
      "#ğ": 680,
      "%-": 681,
      ")ğ": 682,
      ")%&&&&": 683,
      ",*": 684,
      "ě&&": 685,
      "Ġğ": 686,
      "&%&&'&": 687,
      "&&'&%&&&&": 688,
      "&&(&,": 689,
      "'&&&&&'": 690,
      ")&&,": 691,
      "*&&&)": 692,
      "%'&&%&": 693,
      "#ĀĀ": 694,
      "%&&%&": 695,
      "'&&'&": 696,
      ".&": 697,
      "&&&$": 698,
      "&&%&&)": 699,
      "&&(&&&'": 700,
      "&)$": 701,
      "%&&&#": 702,
      "&\"&'": 703,
      "&'&&&&(": 704,
      "$&&-": 705,
      "(&&-": 706,
      "!&&!": 707,
      "'&&&'&'": 708,
      "&&'&&&'&&&&": 709,
      "%&&)&%": 710,
      "&ę": 711,
      "'&&%&": 712,
      "ğ(": 713,
      "ĠĀĀ": 714,
      "Ġ&&\"": 715,
      "&&ĝ": 716,
      "&&&&$": 717,
      "&&'%&&&&": 718,
      "&$#": 719,
      "'&&-": 720,
      "\"&&&#": 721,
      "''&&'&%": 722,
      "&&*&'": 723,
      "+&&&)": 724,
      "&&'&&&%&&&&": 725,
      "ĀĀĜĀ": 726,
      "'&&%&'": 727,
      ")'&&&&": 728,
      "*,": 729,
      "Ğ\"": 730,
      "Ġ&&*": 731,
      "&%&&&&&": 732,
      "(&&&)": 733,
      "$&&&&%": 734,
      "\"&&-": 735,
      "'%&&'&'": 736,
      "$%&&%&": 737,
      "&&'&&&(": 738,
      "ĀĀĝĀ": 739,
      "#,": 740,
      "%ĝ": 741,
      "&Ę": 742,
      ",%": 743,
      "Ġ&+": 744,
      "&&'&&#": 745,
      "&##": 746,
      "&'&&&&&": 747,
      "#&&ğ": 748,
      "'%%&&&&": 749,
      "''&&'&'": 750,
      "&&(&ğ": 751,
      "&(&&&&'": 752,
      "&&%&&&$": 753,
      "\",": 754,
      "$#&&&&": 755,
      "(#&&&&": 756,
      "*-": 757,
      "-)": 758,
      "ğ%": 759,
      "&'*": 760,
      "&'(&&&&": 761,
      "&%)": 762,
      "&&''&&&&": 763,
      "&$*": 764,
      "&)'": 765,
      "&&#&!": 766,
      "$&&ğ": 767,
      "&&%&.": 768,
      "\"&&,": 769,
      "&&&'&'": 770,
      "+&&!": 771,
      "&&%&&&'&&&&": 772,
      "+\"": 773,
      ",#": 774,
      ",$": 775,
      "-$": 776,
      ".$": 777,
      "&%&&%&": 778,
      "&%$&&&&": 779,
      "&(*": 780,
      "&#'": 781,
      "$&&/": 782,
      "\"&&!": 783,
      "&&'&%&'": 784,
      "&&&'&%": 785,
      "+&&&(": 786,
      "()&&&&": 787,
      "+!": 788,
      ",(": 789,
      "-*": 790,
      "..": 791,
      "Ě&&": 792,
      "Ğ&": 793,
      "Ġ&\"": 794,
      "&&%'&&&&": 795,
      "ĀĀė": 796,
      "%&&.": 797,
      "&%&&&&$": 798,
      "*&&ğ": 799,
      "&&&%&'": 800,
      "!&&&#": 801,
      "Ġ&&!": 802,
      ",&&!": 803,
      "ĀĀ.Ā": 804,
      "#-": 805,
      "#$&&&&": 806,
      ".(": 807,
      "./": 808,
      "00": 809,
      "ĝ$": 810,
      "Ğ&&&&": 811,
      "&%&&'&'": 812,
      "&()": 813,
      "&))": 814,
      "%&&&&(": 815,
      "&&#&,": 816,
      "$&&&'": 817,
      "&&%&ğ": 818,
      ")&&-": 819,
      "#&&-": 820,
      "&&%&%&'": 821,
      "\"&&ğ": 822,
      "'''&&&&": 823,
      "%%&&%&'": 824,
      "%'&&%&'": 825,
      "&&(&Ğ": 826,
      "+&&+": 827,
      "%&&&%&%": 828,
      "'&&)&": 829,
      "!*": 830,
      "$(&&&&": 831,
      "%&'": 832,
      ",,": 833,
      "-%": 834,
      "-'": 835,
      ".&&&&": 836,
      "Ĝ$": 837,
      "Ġ1": 838,
      "Ġě": 839,
      "&')": 840,
      "&%*": 841,
      "ĀĀĖ": 842,
      "&(+": 843,
      "&$)": 844,
      "'&&ĝ": 845,
      "'&&Ğ": 846,
      "(&&.": 847,
      "(&&ğ": 848,
      ")&&ğ": 849,
      "'%&&'&(": 850,
      "''%&&&&": 851,
      "%%'&&&&": 852,
      "%'%&&&&": 853,
      "&&\"&": 854,
      "(%&&'&%": 855,
      "&&'&&&$": 856,
      "#'&&&&": 857,
      "%\"&&&&": 858,
      "(&&%&'": 859,
      ")-": 860,
      ",\"": 861,
      "-(": 862,
      "/&&&&": 863,
      "ĝ!": 864,
      "ĝ#": 865,
      "ĝ'": 866,
      "Ğ$": 867,
      "&$&&": 868,
      "&&(&-": 869,
      "&&$&-": 870,
      "%&&&(": 871,
      "%&&&)": 872,
      "'%%": 873,
      "*&&&*": 874,
      "%''&&&&": 875,
      "&&\"&*": 876,
      "'&&&'&$": 877,
      "ĀĀ%Ā$": 878,
      "&&'&&&'&": 879,
      "ĀĀěĀ": 880,
      "#%&&&&": 881,
      "(&&%&%": 882,
      "))&&&&": 883,
      ".%": 884,
      "ğ\"": 885,
      "Ġĝ": 886,
      "Ġ&,": 887,
      "&'&&'&": 888,
      "ĀĀĕ": 889,
      "&&$&&#": 890,
      "&)%": 891,
      "'&&&$": 892,
      "&\"(": 893,
      "&'&&&&$": 894,
      "(&&&*": 895,
      "(&&&&&": 896,
      "'(&&'&": 897,
      "&$&&&&%": 898,
      "&$&&&&(": 899,
      "$'&&%&'": 900,
      "+&&,": 901,
      "ĀĀ&Ā$": 902,
      "'&&#&'": 903,
      "%&&#&%": 904,
      "%&&&'&": 905,
      "&&%&&&%&": 906,
      "ĀĀĚĀ": 907,
      "!ĀĀ": 908,
      "\"ğ": 909,
      "$Ğ": 910,
      "$&&'&": 911,
      "'&%&&&&": 912,
      "'&&%&%": 913,
      "*.": 914,
      "-#": 915,
      "ğ#": 916,
      "Ġ.": 917,
      "Ġ%&&": 918,
      "&%&%&&&&": 919,
      "&#*": 920,
      "'%&&'&%": 921,
      "*&&+": 922,
      "&&$&ğ": 923,
      "%&&)&": 924,
      "&&$&&&$": 925,
      "$-": 926,
      "$&&'&%": 927,
      "%&&'&'": 928,
      "'&'": 929,
      "(ĝ": 930,
      "(Ğ": 931,
      ")Ğ": 932,
      "&'#": 933,
      "&'&%&&&&": 934,
      "&)\"": 935,
      "&)(": 936,
      "&)&&": 937,
      "&#&$": 938,
      "&\"#": 939,
      "&&)&,": 940,
      "$&&Ğ": 941,
      "#&&.": 942,
      "%%%&&&&": 943,
      "!&&,": 944,
      "('&&'&'": 945,
      "ĀĀ%Ā(": 946,
      "ĀĀ%Ā)": 947,
      "Ġ&&,": 948,
      "(%&&'&": 949,
      "ĀĀ(Ā$": 950,
      "(&&&'&%": 951,
      "&'&&&&'&": 952,
      "$&&&$&": 953,
      "%ĀĀ": 954,
      "%&%&&&&": 955,
      "'*&&&&": 956,
      "*ğ": 957,
      "+.": 958,
      "/&": 959,
      "ğ*": 960,
      "ĠĞ": 961,
      "&'$&&&&": 962,
      "&'%%&&&&": 963,
      "&%!": 964,
      "&%\"": 965,
      "&%$'": 966,
      "ĀĀ:": 967,
      "&(\"": 968,
      "&)*": 969,
      "%&&&&&'": 970,
      "&*(": 971,
      "&&)&&&&": 972,
      "&&)&&'": 973,
      "&%&&&&&&&&&&&&": 974,
      "$&&.": 975,
      "&&'&Ğ": 976,
      "#&&&'": 977,
      "#&&&\"": 978,
      "\"&&&\"": 979,
      "&&\"&$": 980,
      "&&*&$": 981,
      "&&'&&''": 982,
      "&'&&&&%&": 983,
      "%&&&$&": 984,
      "$&&'&'": 985,
      "'&'&&&&": 986,
      ")(&&&&": 987,
      ".+": 988,
      "ĘĀ": 989,
      "ę&&": 990,
      "ĝ&": 991,
      "ğ'": 992,
      "Ġ/": 993,
      "&%(&&&&": 994,
      "&%''": 995,
      "&&%&&&&&&&&&&&&": 996,
      "&&('": 997,
      "&&$'": 998,
      "'&&&&(": 999,
      "&*'": 1000,
      "\"&&&$": 1001,
      "&&\"&'": 1002,
      "&&*&\"": 1003,
      "!&&&\"": 1004,
      "('&&'&": 1005,
      "Ġ&&+": 1006,
      "ĀĀ&Ā\"": 1007,
      "ĀĀ$Ā#": 1008,
      "ĀĀ#Ā(": 1009,
      "'&&)&$": 1010,
      "'&&#&%": 1011,
      "&&'&&%%": 1012,
      "&'%&&&&&": 1013,
      "&%%&&&&&": 1014,
      "!-": 1015,
      "$)&&&&": 1016,
      "%ğ": 1017,
      "(&&'&'": 1018,
      "(\"&&&&": 1019,
      ")$&&&&": 1020,
      "ĝ&&&&": 1021,
      "Ğ(": 1022,
      "ĠĜ": 1023
    },
    "merges": [
      "& &",
      "&& &&",
      "& '",
      "& %",
      "&& %",
      "&& '",
      "Ā Ā",
      "& (",
      "& $",
      "&& (",
      "&& $",
      "& )",
      "& #",
      "% &&",
      "' &&",
      "% &&&&",
      "' &&&&",
      "& *",
      "& \"",
      "&& #",
      "&& )",
      "&' &&&&",
      "&% &&&&",
      "$ &&",
      "( &&",
      "&&% &",
      "&&' &",
      "& +",
      ") &&",
      "# &&",
      "& !",
      "$ &&&&",
      "( &&&&",
      "&&&& &&&&",
      "&&% &'",
      "&&' &'",
      "&&% &%",
      "\" &&",
      "&&' &%",
      "' %",
      "* &&",
      "' '",
      "% %",
      "& ,",
      "&& &%",
      "% '",
      "&& &'",
      "&& \"",
      "&&% &(",
      "&& *",
      "& -",
      "&&' &$",
      "&&' &(",
      "&&$ &'",
      "# &&&&",
      "&&% &$",
      "' (",
      "&&( &",
      "&$ &&&&",
      ") &&&&",
      "% $",
      "&&( &'",
      "! &&",
      "&&( &%",
      "&( &&&&",
      "( '",
      "&&$ &",
      "$ '",
      "&&$ &%",
      "+ &&",
      "% (",
      "&&% &&&&",
      "$ %",
      "%&& &%",
      "'&& &'",
      "Ā (",
      "&&' &&&&",
      "& ğ",
      "ĀĀ %",
      "Ā )",
      "' $",
      "Ā $",
      "Ġ &&",
      "( %",
      "ĀĀ &",
      "&&' &&",
      "ĀĀ $",
      "ĀĀ '",
      "% %&&&&",
      "&&% &&",
      "' '&&&&",
      "&&% &)",
      "Ā %",
      "ĀĀ (",
      "Ā \"",
      "& .",
      "&&( &$",
      "' %&&&&",
      "ĀĀ #",
      "Ā #",
      "Ā *",
      "&&$ &(",
      "&&' &#",
      "Ā !",
      "&&( &(",
      "$ $",
      "\" &&&&",
      "&&% &#",
      "% '&&&&",
      "Ā '",
      "ĀĀ \"",
      "( $",
      "&&$ &$",
      ", &&",
      "&&' &)",
      "%&& )",
      "( (",
      "& Ğ",
      "'&& )",
      "ĀĀ )",
      "* &&&&",
      "'&& #",
      "$ (",
      "ğ &&",
      "Ā +",
      "# '",
      "% )",
      "- &&",
      "&&' &&'",
      "ĀĀ !",
      "%&& #",
      "% #",
      "Ā ,",
      "' #",
      "&&% &&%",
      ") '",
      "(&& &'",
      "&& &",
      "&&' &&%",
      ") %",
      ") (",
      "ĀĀ *",
      "&&) &'",
      "$&& &%",
      "&&$ &)",
      "&&) &%",
      "& ĝ",
      "Ā -",
      "&&# &'",
      "&&% &*",
      ") $",
      "& /",
      "&& !",
      "&&% &&'",
      "&& +",
      "&&' &\"",
      "# %",
      "# $",
      "&# &&&&",
      "&&# &%",
      "&&( &#",
      "( #",
      "ĀĀ +",
      "! &&&&",
      "&&( &&",
      "Ā ğ",
      "ĀĀ ğ",
      "&) &&&&",
      "# (",
      "&&$ &#",
      "&&$ &&",
      "' )",
      "ĀĀ ,",
      "&&# &(",
      "%&& &'",
      "+ &&&&",
      "Ā .",
      "&&% &\"",
      "&&' &*",
      "$ #",
      "& Ĝ",
      "&&( &)",
      "'&& \"",
      "%&& \"",
      "'&& &%",
      "%&& *",
      "$ )",
      "&' %",
      "&&) &$",
      "ĀĀ% Ā",
      "ĀĀ -",
      "&'&&&& %",
      "' \"",
      "Ğ &&",
      "Ġ (",
      "Ġ &&&&",
      "'&& *",
      "&$ &'",
      "&'&&&& '",
      "$ %&&&&",
      "* %",
      "ĀĀ /",
      "* (",
      "ĀĀ& Ā",
      "\" '",
      "ĝ &&",
      "&' %&&&&",
      ")&& &'",
      "ĀĀ$ Ā",
      "\" $",
      "&&% &&&%",
      "% *",
      "&( &%",
      "% (&&&&",
      "( )",
      "&% '",
      "&&) &(",
      "&&( &&&&",
      ") #",
      "&&' &&&'",
      "* $",
      "* '",
      "+ ĀĀ",
      "&%&&&& '",
      "(&& \"",
      "&&&&&&&& &&&&",
      "% \"",
      "'&&&& &",
      "ĀĀ' Ā",
      "&' '",
      "&&$ &*",
      "&&# &",
      "&&) &",
      "# #",
      "&% %&&&&",
      "&&( &*",
      "&&( &\"",
      ". &&",
      "ĀĀ Ğ",
      "&&$ &\"",
      "\" (",
      "&( &'",
      "&&$ &&&&",
      "%&& &$",
      "$&& \"",
      "$&& *",
      "' *",
      "' $&&&&",
      "$ *",
      "( \"",
      "ĀĀ Ĝ",
      "&& &'&&&&",
      "&&%& !",
      "' (&&&&",
      "&&# &$",
      "%&& +",
      "# )",
      "&&%& +",
      "&&'& +",
      ")&& \"",
      "Ā Ğ",
      "ĀĀ .",
      "&&( &&'",
      "\" %",
      "$ '&&&&",
      "( %&&&&",
      "ĀĀ ě",
      "&&# &)",
      "$&& &$",
      "&&'& !",
      "( *",
      "( '&&&&",
      ") )",
      "&% &'",
      "ĀĀ ĝ",
      "&&' &&(",
      "(&& *",
      "&& ,",
      "&\" &&&&",
      "&%&&&& %",
      "$ \"",
      "Ġ %",
      "ĀĀ( Ā",
      "%&& !",
      "&&) &#",
      "&'&&&& &&",
      "#&& \"",
      "&&% &&&&&&&&",
      "&( &",
      "%&&&% &",
      "ĀĀ\" Ā",
      "% $&&&&",
      "Ġ $",
      "' !",
      "( +",
      "&' &%",
      "&%&&&& &&&&",
      "'&&&' &",
      "ĀĀ) Ā",
      ") *",
      "&% '&&&&",
      "&&% &&$",
      "&&$ &+",
      "ĀĀ# Ā",
      "ĀĀ Ě",
      "'&& +",
      "&' '&&&&",
      "'&& !",
      "* #",
      "+ (",
      ", &&&&",
      "#&& *",
      "Ġ '",
      "&% %",
      "&&% '",
      ")&& *",
      "Ġ !",
      "&% $",
      "# \"",
      "&&( &+",
      "&&# &*",
      "&&) &)",
      "&&' &&&&&&&&",
      "&&&% &",
      "&&&' &",
      "&%&&&& &&",
      "+ $",
      "Ġ #",
      "$&& !",
      "% !",
      "& ě",
      "Ġ &(",
      "&&% &&(",
      ") \"",
      "&' &'",
      "&&$ &&'",
      "&* &&&&",
      "(&& !",
      "#&& &%",
      "( (&&&&",
      "* )",
      "ĀĀ! Ā",
      "! %",
      "! '",
      "Ġ \"",
      "&&( &!",
      "%&&&& &",
      "&'&&&& &&&&",
      "+ #",
      "&$ %",
      "$&& +",
      "+ '",
      "- ĀĀ",
      "ğ &&&&",
      "&$ &%",
      "&&# &#",
      "ĀĀ* Ā",
      ", ĀĀ",
      "\"&& *",
      "$ !",
      "& ĀĀ",
      "&( &(",
      "\" )",
      "Ġ *",
      "&&&&&&&& &&&&&&&&",
      "&&%&&&& &",
      "! $",
      "Ġ &'",
      "&& ğ",
      "(&& +",
      "*&& \"",
      ", )",
      "&( '",
      "#&& !",
      "\" #",
      "&& -",
      "&% (",
      "&&% %",
      "#&& +",
      "Ġ )",
      "&$ '",
      "&&# &&",
      "Ġ &)",
      "&&% &&&'",
      "# +",
      "% +",
      "+ %",
      "&&) &&",
      "&&) &\"",
      "\" \"",
      "' ,",
      "&( &$",
      "&&$ &!",
      "% #&&&&",
      "+ )",
      "ĀĀ ę",
      "'&& &)",
      "*&& *",
      "! #",
      "! (",
      "* +",
      "Ĝ &&",
      "Ġ Ā",
      "&&&& %",
      "&&&& '",
      "&&%& ,",
      "\"&& \"",
      "&&'&&&& &",
      "&&' &&$",
      "ĀĀ+ Ā",
      "* \"",
      "Ġ &%",
      "&# &'",
      "'% &&'&",
      "# !",
      "# *",
      ") +",
      "&% &%",
      "&&# &\"",
      ". ĀĀ",
      "%&&&& '",
      "' )&&&&",
      ") ,",
      "&( $",
      "(&& &(",
      "' +",
      "/ ĀĀ",
      "Ġ &",
      "&& &%&&&&",
      "&' $",
      "&&( %",
      "'&&&& %",
      "\"&& +",
      "! )",
      "( ,",
      "&&# &+",
      "Ā ĝ",
      "ğ )",
      "&&( &&$",
      ")&& !",
      "% ,",
      "( !",
      "/ &&",
      "%&&&& %",
      ")&& +",
      "*&& &'",
      "$ +",
      ") !",
      "* *",
      "Ā /",
      "Ġ +",
      "&( (",
      "%&& ğ",
      "'&& &(",
      "'&&&& &&&&",
      "&&) &*",
      "'' &&'&",
      "&&$ &&%",
      "&&$ &&$",
      "'&& ,",
      "%&&&& &&&&",
      "Ġ &$",
      "Ġ &*",
      "&% &'&&&&",
      "&&' &&)",
      "&&$ &,",
      "%&&&& &&",
      "#&& &$",
      "& Ě",
      ", '",
      "Ġ &#",
      "&& Ğ",
      "&&' '",
      "&$ $",
      "&%&&&& (",
      ")&& &(",
      "&' (",
      "&&% &'&&&&",
      "&&' &&&%",
      "&$ (",
      "$&& ,",
      "$&& &#",
      "*&& !",
      "% &&'&",
      "( ĀĀ",
      "&% %'",
      "'&&&& '",
      "(&& ,",
      "&&%& -",
      "&&'& ğ",
      "#&& ,",
      "%&&&% &'",
      "$&&&% &",
      "ĀĀ, Ā",
      "\" !",
      "\" +",
      "' #&&&&",
      "- &&&&",
      "\" *",
      "* !",
      "- &",
      "Ġ ,",
      "&&( &&%",
      "&&$ &&(",
      "%&& ,",
      "&&* &%",
      "&&%&& &%&&&&",
      "ĀĀĞ Ā",
      "$ ,",
      "$ $&&&&",
      "' ğ",
      "* ĀĀ",
      "+ +",
      "&&% &&#",
      "&( %",
      "&# %",
      "(&& &%",
      "'&&&' &%",
      "ĀĀğ Ā",
      "( $&&&&",
      ") ĀĀ",
      "'&& ğ",
      "&+ &&&&",
      "&(&&&& %",
      "Ġ -",
      "&& .",
      "&&' %",
      "&&' &'&&&&",
      "&( #",
      "&$ &(",
      "&&) &!",
      "\"&& &%",
      "&&\" &%",
      "&$&&&& '",
      "! !",
      "$ ĀĀ",
      "' ĀĀ",
      "+ *",
      ", +",
      "&$ &",
      "%&& -",
      "&&) &+",
      ")&& &)",
      "#&& &#",
      "&! &&&&",
      "&' \"",
      "&&( &&(",
      "&&$ &&&%",
      "'&&&& &&",
      "'&&&& &%",
      "%% &&%&",
      "(&&&' &",
      "ĀĀ- Ā",
      "! \"",
      "% &'&&&&",
      "% )&&&&",
      "' -",
      "Ğ !",
      "ğ $",
      "&&% %&&&&",
      "&&% &%&&&&",
      "%&& Ğ",
      "&* &%",
      "&&'& ,",
      "( -",
      "( ğ",
      "&% #",
      "&$ &$",
      "!&& +",
      "ĀĀ/ Ā",
      "! +",
      "# ğ",
      "% -",
      ") ğ",
      ") %&&&&",
      ", *",
      "ě &&",
      "Ġ ğ",
      "&% &&'&",
      "&&' &%&&&&",
      "&&( &,",
      "'&&&& &'",
      ")&& ,",
      "*&& &)",
      "%' &&%&",
      "# ĀĀ",
      "% &&%&",
      "' &&'&",
      ". &",
      "&& &$",
      "&&% &&)",
      "&&( &&&'",
      "&) $",
      "%&& &#",
      "&\" &'",
      "&'&&&& (",
      "$&& -",
      "(&& -",
      "!&& !",
      "'&&&' &'",
      "&&'&& &'&&&&",
      "%&&) &%",
      "& ę",
      "' &&%&",
      "ğ (",
      "Ġ ĀĀ",
      "Ġ &&\"",
      "&& ĝ",
      "&&&& $",
      "&&' %&&&&",
      "&$ #",
      "'&& -",
      "\"&& &#",
      "'' &&'&%",
      "&&* &'",
      "+&& &)",
      "&&'&& &%&&&&",
      "ĀĀĜ Ā",
      "' &&%&'",
      ") '&&&&",
      "* ,",
      "Ğ \"",
      "Ġ &&*",
      "&%&&&& &",
      "(&& &)",
      "$&&&& %",
      "\"&& -",
      "'% &&'&'",
      "$% &&%&",
      "&&'&& &(",
      "ĀĀĝ Ā",
      "# ,",
      "% ĝ",
      "& Ę",
      ", %",
      "Ġ &+",
      "&&' &&#",
      "&# #",
      "&'&&&& &",
      "#&& ğ",
      "'% %&&&&",
      "'' &&'&'",
      "&&(& ğ",
      "&(&&&& '",
      "&&%&& &$",
      "\" ,",
      "$ #&&&&",
      "( #&&&&",
      "* -",
      "- )",
      "ğ %",
      "&' *",
      "&' (&&&&",
      "&% )",
      "&&' '&&&&",
      "&$ *",
      "&) '",
      "&&# &!",
      "$&& ğ",
      "&&%& .",
      "\"&& ,",
      "&&&' &'",
      "+&& !",
      "&&%&& &'&&&&",
      "+ \"",
      ", #",
      ", $",
      "- $",
      ". $",
      "&% &&%&",
      "&% $&&&&",
      "&( *",
      "&# '",
      "$&& /",
      "\"&& !",
      "&&'&% &'",
      "&&&' &%",
      "+&& &(",
      "( )&&&&",
      "+ !",
      ", (",
      "- *",
      ". .",
      "Ě &&",
      "Ğ &",
      "Ġ &\"",
      "&&% '&&&&",
      "ĀĀ ė",
      "%&& .",
      "&%&&&& $",
      "*&& ğ",
      "&&&% &'",
      "!&& &#",
      "Ġ&& !",
      ",&& !",
      "ĀĀ. Ā",
      "# -",
      "# $&&&&",
      ". (",
      ". /",
      "0 0",
      "ĝ $",
      "Ğ &&&&",
      "&% &&'&'",
      "&( )",
      "&) )",
      "%&&&& (",
      "&&# &,",
      "$&& &'",
      "&&%& ğ",
      ")&& -",
      "#&& -",
      "&&%&% &'",
      "\"&& ğ",
      "'' '&&&&",
      "%% &&%&'",
      "%' &&%&'",
      "&&(& Ğ",
      "+&& +",
      "%&&&% &%",
      "'&&) &",
      "! *",
      "$ (&&&&",
      "% &'",
      ", ,",
      "- %",
      "- '",
      ". &&&&",
      "Ĝ $",
      "Ġ 1",
      "Ġ ě",
      "&' )",
      "&% *",
      "ĀĀ Ė",
      "&( +",
      "&$ )",
      "'&& ĝ",
      "'&& Ğ",
      "(&& .",
      "(&& ğ",
      ")&& ğ",
      "'% &&'&(",
      "'' %&&&&",
      "%% '&&&&",
      "%' %&&&&",
      "&&\" &",
      "(% &&'&%",
      "&&'&& &$",
      "# '&&&&",
      "% \"&&&&",
      "( &&%&'",
      ") -",
      ", \"",
      "- (",
      "/ &&&&",
      "ĝ !",
      "ĝ #",
      "ĝ '",
      "Ğ $",
      "&$ &&",
      "&&( &-",
      "&&$ &-",
      "%&& &(",
      "%&& &)",
      "'% %",
      "*&& &*",
      "%' '&&&&",
      "&&\" &*",
      "'&&&' &$",
      "ĀĀ% Ā$",
      "&&'&&&' &",
      "ĀĀě Ā",
      "# %&&&&",
      "( &&%&%",
      ") )&&&&",
      ". %",
      "ğ \"",
      "Ġ ĝ",
      "Ġ &,",
      "&' &&'&",
      "ĀĀ ĕ",
      "&&$ &&#",
      "&) %",
      "'&& &$",
      "&\" (",
      "&'&&&& $",
      "(&& &*",
      "(&&&& &",
      "'( &&'&",
      "&$&&&& %",
      "&$&&&& (",
      "$' &&%&'",
      "+&& ,",
      "ĀĀ& Ā$",
      "'&&# &'",
      "%&&# &%",
      "%&&&' &",
      "&&%&&&% &",
      "ĀĀĚ Ā",
      "! ĀĀ",
      "\" ğ",
      "$ Ğ",
      "$ &&'&",
      "' &%&&&&",
      "' &&%&%",
      "* .",
      "- #",
      "ğ #",
      "Ġ .",
      "Ġ %&&",
      "&% &%&&&&",
      "&# *",
      "'% &&'&%",
      "*&& +",
      "&&$& ğ",
      "%&&) &",
      "&&$&& &$",
      "$ -",
      "$ &&'&%",
      "% &&'&'",
      "' &'",
      "( ĝ",
      "( Ğ",
      ") Ğ",
      "&' #",
      "&' &%&&&&",
      "&) \"",
      "&) (",
      "&) &&",
      "&# &$",
      "&\" #",
      "&&) &,",
      "$&& Ğ",
      "#&& .",
      "%% %&&&&",
      "!&& ,",
      "(' &&'&'",
      "ĀĀ% Ā(",
      "ĀĀ% Ā)",
      "Ġ&& ,",
      "(% &&'&",
      "ĀĀ( Ā$",
      "(&&&' &%",
      "&'&&&&' &",
      "$&&&$ &",
      "% ĀĀ",
      "% &%&&&&",
      "' *&&&&",
      "* ğ",
      "+ .",
      "/ &",
      "ğ *",
      "Ġ Ğ",
      "&' $&&&&",
      "&' %%&&&&",
      "&% !",
      "&% \"",
      "&% $'",
      "ĀĀ :",
      "&( \"",
      "&) *",
      "%&&&& &'",
      "&* (",
      "&&) &&&&",
      "&&) &&'",
      "&%&&&& &&&&&&&&",
      "$&& .",
      "&&'& Ğ",
      "#&& &'",
      "#&& &\"",
      "\"&& &\"",
      "&&\" &$",
      "&&* &$",
      "&&'&&' '",
      "&'&&&&% &",
      "%&&&$ &",
      "$ &&'&'",
      "' &'&&&&",
      ") (&&&&",
      ". +",
      "Ę Ā",
      "ę &&",
      "ĝ &",
      "ğ '",
      "Ġ /",
      "&% (&&&&",
      "&% ''",
      "&&% &&&&&&&&&&&&",
      "&&( '",
      "&&$ '",
      "'&&&& (",
      "&* '",
      "\"&& &$",
      "&&\" &'",
      "&&* &\"",
      "!&& &\"",
      "(' &&'&",
      "Ġ&& +",
      "ĀĀ& Ā\"",
      "ĀĀ$ Ā#",
      "ĀĀ# Ā(",
      "'&&) &$",
      "'&&# &%",
      "&&'&&% %",
      "&'%&&&& &",
      "&%%&&&& &",
      "! -",
      "$ )&&&&",
      "% ğ",
      "( &&'&'",
      "( \"&&&&",
      ") $&&&&",
      "ĝ &&&&",
      "Ğ (",
      "Ġ Ĝ"
    ]
  }
}